{"variables_constraints": [[1.3862961530685425, 12.367982864379883], [2.9957354068756104, 14.478178977966309], [1.0001434087753296, 15.633379936218262], [0.25000089406967163, 5.346488952636719], [1.9576690196990967, 20.998594284057617], [0.25000089406967163, 3.788360357284546], [1.7179461453403293e-07, 1.8959323140551558], [3.4994360135406275e-08, 2.999996451350326], [2.9957337379455566, 17.74188804626465], [-5.065058708190918, 13.656898498535156], [2.995734214782715, 17.722476959228516], [2.0000011920928955, 20.887205123901367], [1.0000001192092896, 15.54783821105957], [-12.148888018373777, 2.3025849022591642], [-13.047825901826881, 7.5540736397216675], [1.0000054836273193, 11.999996185302734], [1.0000003576278687, 11.999992370605469]], "sigmanet.sigma": [4.0], "sigmanet.monotone_constraints": [1.0, 0.0, 1.0, 1.0, 1.0, 1.0, 0.0, 0.0, 0.0, 0.0, 0.0, 1.0, 1.0, 0.0, 0.0, 0.0, 0.0], "sigmanet.nn.0.bias": [0.10006707161664963, -0.12127953767776489, 0.2140587717294693, -0.0638490542769432, 0.027380315586924553, 0.07586247473955154, 0.0047184196300804615, -0.1364060640335083, 0.0835392028093338, 0.014063674956560135, -0.22778499126434326, 0.041296206414699554, -0.11792199313640594, -0.14746840298175812, -0.0708288922905922, 0.010229174047708511, -0.10425738245248795, 0.026697548106312752, -0.021669108420610428, -0.1053919792175293, -0.09683676809072495, 0.12513108551502228, -0.12139790505170822, 0.24984298646450043, 0.044469524174928665, -0.05369603633880615, -0.17078498005867004, -0.06402523815631866, -0.05007314309477806, 0.012007378041744232, 0.16781823337078094, -0.003024505451321602, 0.009302842430770397, 0.052034907042980194, 0.08933021873235703, 0.14478468894958496, 0.05938014015555382, 0.27473804354667664, -0.09177517890930176, 0.009215879254043102, -0.04809297248721123, -0.1056927740573883, -0.13609664142131805, 0.035293467342853546, 0.08404695987701416, 0.1258346289396286, -0.11261370033025742, -0.1085030809044838, -0.018443943932652473, 0.03088212013244629, -0.1396121382713318, 0.10166638344526291, 0.07193780690431595, -0.1455686241388321, 0.0939708948135376, -0.019895033910870552, 0.04577510803937912, -0.10712864995002747, -0.00032718112925067544, -0.10871311277151108, 0.14080260694026947, 0.06842166930437088, -0.26852941513061523, -0.13799750804901123, 0.04854564741253853, -0.13286350667476654, -0.045272424817085266, -0.07010402530431747, 0.018232345581054688, -0.13605254888534546, -0.04801496863365173, -0.18759146332740784, 0.005374075844883919, -0.09677399694919586, -0.14936719834804535, -0.24299484491348267, -0.008158248849213123, -0.11826450377702713, -0.041332945227622986, -0.001286571379750967, -0.14755995571613312, 0.008550863713026047, 0.1414678990840912, -0.10598915815353394, -0.08394825458526611, -0.08426567912101746, 0.1502176821231842, -0.00604024063795805, 0.029870828613638878, -0.19590847194194794, -0.14186476171016693, -0.14058654010295868, 0.09290137141942978, 0.15440846979618073, 0.14140313863754272, 0.042732927948236465, 0.2998730540275574, 0.034829456359148026, 0.04569857940077782, -0.12888088822364807, -0.2863951325416565, -0.12662765383720398, -0.004779341630637646, -0.11065563559532166, -0.015651335939764977, -0.02377229556441307, -1.2505011558532715, 1.0417183637619019, -0.08133169263601303, -0.2524695098400116, -0.028339944779872894, 0.04243239387869835, -0.9455510377883911, 0.905613899230957, 0.13893137872219086, 0.07955525070428848, 0.023545321077108383, -0.09800878167152405, -0.09011608362197876, 0.031684596091508865, 0.013488717377185822, -0.025886664167046547, -0.1102239340543747, -0.10418123751878738, -0.18807439506053925, -0.0966656282544136, -0.18295441567897797, -0.10617999732494354], "sigmanet.nn.0.parametrizations.weight.original": [[7.530792208854109e-05, -0.004571287427097559, -1.2848796586695244e-06, -8.315902050526347e-06, 4.679648554883897e-05, 0.012600545771420002, 0.0050682430155575275, -0.10828562080860138, 0.01599506288766861, -0.005180444102734327, -0.00039347109850496054, 6.776560621801764e-05, -4.217580681142863e-06, 0.006005086936056614, 0.056240662932395935, -0.04176998883485794, 0.0005348484846763313], [0.06995584815740585, 0.02307017892599106, 2.6565816369839013e-05, 2.593162025732454e-05, 9.922808385454118e-05, 3.5280478186905384e-05, 0.00011678051669150591, -3.884367106365971e-05, -0.009694025851786137, -0.011607085354626179, 0.0115556875243783, 9.283725376008078e-06, 2.6737361622508615e-05, 0.013973983004689217, -0.024439478293061256, -0.01133033912628889, -0.014210814610123634], [0.15537066757678986, 0.046873994171619415, -1.22446385830699e-06, 5.463653360493481e-05, 5.0468279368942603e-05, 0.03945915028452873, 1.61019906954607e-05, -0.12787799537181854, -0.0005874409689567983, 0.0292951799929142, 0.03780809044837952, 8.766919927438721e-05, 5.523622166947462e-05, -0.017114534974098206, 0.0007927343831397593, -0.07674188166856766, -0.0154184028506279], [-0.12946012616157532, -0.05095142871141434, -5.965153832221404e-05, -7.271970389410853e-06, -7.19662557457923e-06, -0.008794596418738365, 0.03583352267742157, 0.09931815415620804, -0.025090938434004784, -0.04633716121315956, -0.03530744090676308, -0.00014602678129449487, -0.0001208140020025894, -0.002819349989295006, -0.0061250352300703526, 0.06438761204481125, -0.008660530671477318], [-0.0018169829854741693, 0.005182026419788599, -2.329241033294238e-05, -0.0005465505528263748, -0.0014561554417014122, -0.008309895172715187, 4.416296724230051e-05, -1.0420667422295082e-05, -0.005172014702111483, 0.005401936825364828, 0.004375120624899864, -0.006073428317904472, -0.0005405601114034653, -0.011139354668557644, -0.006454691290855408, -5.904591489525046e-06, -0.0028383457101881504], [-0.005698196589946747, 0.007062139920890331, -0.01205420307815075, -0.019508766010403633, -0.011435030959546566, -0.008234414272010326, 3.248172652092762e-05, -0.0005443512927740812, 0.01657506823539734, -0.009637069888412952, -0.003938490059226751, -0.00870557501912117, -0.02098422311246395, -0.004765215329825878, -0.01005677692592144, -1.768480615282897e-05, 0.022055359557271004], [-0.008106943219900131, 0.0026445614639669657, -0.01184740662574768, -0.012715737335383892, -0.0155876399949193, -0.007433715742081404, -7.763740541122388e-06, -9.101400792133063e-05, 0.021043827757239342, 0.005146380979567766, -0.004280947148799896, -0.015048323199152946, -0.013298412784934044, -0.004200863651931286, 0.0170682854950428, -0.0028936753515154123, -0.0007871697889640927], [-0.003429555566981435, 0.006483528297394514, -0.018592964857816696, -0.017986420542001724, -0.016154790297150612, -0.008455379866063595, 3.296865907032043e-05, -5.579545904765837e-05, -0.008233084343373775, 0.01225652452558279, -0.0011097454698756337, -0.006470439024269581, -0.0073586683720350266, -0.01315962616354227, -0.005664984229952097, -1.8854374502552673e-05, -0.0018920284928753972], [-0.004270141012966633, -0.04445426166057587, -0.0007769961375743151, -4.478765549720265e-05, -0.0028197362553328276, -0.018781276419758797, 9.464874165132642e-05, -0.005868003237992525, -0.009018206968903542, -0.00692728441208601, -0.0057637933641672134, -0.0057187629863619804, -9.039985161507502e-05, -0.012312750332057476, 0.01653352938592434, -0.0010466640815138817, -0.0042000082321465015], [0.0044080172665417194, 0.044219616800546646, 0.0027129342779517174, 0.0034029765520244837, 0.004614579025655985, 0.012220912612974644, 8.044854439503979e-06, 0.001521977479569614, 0.009185421280562878, 0.013175442814826965, -0.015010763891041279, 0.007362361066043377, 0.00210964004509151, 0.003676716471090913, 0.010486144572496414, 0.001762034255079925, 0.0044879917986691], [0.0021176678128540516, -0.016117680817842484, 0.013313072733581066, 0.0049287425354123116, 0.0053297835402190685, 0.008521590381860733, -0.001480541774071753, 4.942918531014584e-05, 0.004954441450536251, -0.013367137871682644, -0.0197601281106472, 0.018942346796393394, 0.010690392926335335, 0.0072363028302788734, 0.0068971263244748116, 1.3926345673098695e-05, 0.001681652502156794], [0.0034250898752361536, -0.0049960617907345295, 0.018242167308926582, 0.016012510284781456, 0.005572315771132708, 0.0074470024555921555, -6.27420304226689e-05, 8.791283471509814e-05, 0.0009269352303817868, -0.005494410637766123, 0.003150695702061057, 0.013250481337308884, 0.019278060644865036, -0.016419541090726852, 0.005852970294654369, 0.001839202712289989, 0.0020336764864623547], [-0.007292964030057192, 0.0032195833045989275, -0.018340198323130608, -0.02212849259376526, -0.013017901219427586, -0.00911280233412981, 0.00011858312791446224, -0.0002414157206658274, -0.00967839453369379, 0.006200416479259729, -0.00047935472684912384, -0.006194854620844126, -0.014552973210811615, -0.005243742372840643, -0.0058227237313985825, -3.649451173259877e-05, -0.0035214251838624477], [8.544838055968285e-05, -0.009508386254310608, 2.1914765966357663e-06, -1.400590281264158e-05, -6.999821380304638e-06, -0.015096659772098064, 2.8293092327658087e-05, -0.0002203933399869129, -0.004480001050978899, -0.022970527410507202, 0.036775171756744385, -8.078026439761743e-05, 1.0555460221439716e-06, -0.004022612236440182, 0.003011849708855152, 0.04736699163913727, -0.0001369667734252289], [-0.0031061565969139338, 0.0029440894722938538, -0.006981348153203726, -0.01961566135287285, -0.01341868843883276, -0.006908277980983257, 3.402962101972662e-05, -4.819473178940825e-05, -0.007157879415899515, -0.013173777610063553, -0.0017913510091602802, -0.006622090935707092, -0.017552869394421577, -0.012049229815602303, -0.006040416192263365, -1.3669206055055838e-05, -0.0023964345455169678], [-0.007129499688744545, 0.008435959927737713, -0.022258669137954712, -0.005412837956100702, -0.005535879172384739, -0.007907339371740818, 3.288406151114032e-05, -6.915644189575687e-05, -0.003230311907827854, 0.0072010881267488, 0.005618124268949032, -0.013505753129720688, -0.02078182063996792, -0.007462991867214441, -0.009120889008045197, -2.667950866452884e-05, -0.006951597984880209], [0.004759366624057293, -0.0024935537949204445, 0.02370184287428856, 0.018982160836458206, 0.00411603506654501, 0.008006080985069275, 6.777592716389336e-06, 0.00013628984743263572, 0.0015788886230438948, -0.009010827168822289, 0.004991970025002956, 0.008438307791948318, 0.0076529281213879585, 0.005212011747062206, 0.004915669560432434, 0.0031841376330703497, 0.006540213245898485], [-0.004048829432576895, 0.003842768259346485, -0.020351478829979897, -0.025646096095442772, -0.018241146579384804, -0.007393116131424904, 0.0001005193407763727, -0.004701345227658749, -0.0001080335205188021, -0.014870059676468372, -0.0031098835170269012, -0.012363430112600327, -0.020090004429221153, 0.009869744069874287, -0.007053500972688198, -0.003911479841917753, -0.0010694138472899795], [0.003277209820225835, -0.006752186920493841, 0.007811873219907284, 0.0190034881234169, 0.01831664703786373, 0.008413150906562805, -0.005028735846281052, 6.903065514052287e-05, 0.008076822385191917, -0.004319367464631796, 0.003064050804823637, 0.01619703695178032, 0.010736064985394478, 0.004966839216649532, 0.0053008850663900375, 1.4156380530039314e-05, 0.0024704355746507645], [-0.00325061590410769, 0.004101169761270285, -0.0070658521726727486, -0.0009919715812429786, -0.017072239890694618, -0.007867529056966305, 9.640232747187838e-05, -5.921809861320071e-05, 0.010698727332055569, -0.007225917186588049, -0.007130004931241274, -0.007158875931054354, -0.002706510480493307, -0.008214136585593224, -0.006083945743739605, -3.335698420414701e-05, 0.020948302000761032], [-0.0002792922023218125, -0.0105260806158185, -5.565593255596468e-06, -0.0002131023065885529, -0.00015904594329185784, -0.00012261964729987085, -2.8631398890865967e-05, -1.8663799892237876e-06, 0.004045664332807064, 0.008142641745507717, 0.006668128073215485, -0.00027801713440567255, -0.0002747436228673905, 0.020311318337917328, 0.009745527990162373, -0.020378705114126205, -0.0018763004336506128], [0.0008708913810551167, -0.009174278937280178, 2.2379637812264264e-05, 8.241979230660945e-06, 4.732212983071804e-05, 0.0005442694528028369, 0.00567003944888711, 1.0992346233251737e-06, 0.013074184767901897, 0.007846180349588394, -0.013027840293943882, 3.907533755409531e-05, -4.083114220065909e-07, 0.007672223262488842, -0.008665014058351517, 0.01257328875362873, 0.022786784917116165], [-1.178764614451211e-05, -0.011379444040358067, -5.325182883098023e-06, 1.0480324817763176e-05, 1.0750284218374873e-06, 0.0002771631407085806, -0.0019227775046601892, 0.010810839012265205, 0.011785726062953472, 0.005987628363072872, -0.01384895108640194, 2.9289923986652866e-05, 3.2646735235175584e-06, 0.006558910012245178, 0.0012130789691582322, 0.024885669350624084, 0.04125484451651573], [-4.92973776999861e-05, 0.0013669831678271294, 4.0457257455273066e-06, -9.552622032060754e-06, -2.36063187912805e-05, -0.00013660613331012428, 0.003033469431102276, -0.009070946834981441, -0.008718089200556278, 0.01708485372364521, 0.003711982863023877, -7.516520099670743e-07, 6.776662758056773e-06, 0.005472101736813784, 0.013795212842524052, -0.04248540475964546, -0.05102778598666191], [0.002774206455796957, -0.005081417039036751, 0.010512430220842361, 0.007124017924070358, 0.018588660284876823, 0.01103843655437231, -3.34936376020778e-05, 0.00017589970957487822, 0.001290512504056096, -0.0036244657821953297, 0.001216684002429247, 0.00722416490316391, 0.019443610683083534, 0.0048879776149988174, 0.006343965884298086, 2.964329905807972e-05, 0.004888933151960373], [-0.004246850032359362, 0.004334051162004471, -0.022331461310386658, -0.022384746000170708, -0.010236725211143494, -0.009021577425301075, 3.291391840321012e-05, -3.042519347218331e-05, 0.009530933573842049, 0.006270956713706255, -0.005429640877991915, -0.014646744355559349, -0.019765840843319893, -0.007200963795185089, 0.01688862033188343, -2.912784111686051e-05, -0.00236523081548512], [-0.011594387702643871, 0.006140901707112789, -0.000580497202463448, -0.0007408367819152772, -0.03237330541014671, -0.011496332474052906, -7.11950815457385e-06, -0.009411257691681385, -0.002712214132770896, 0.004336396232247353, -0.014745006337761879, -0.023266645148396492, -0.00014877485227771103, -0.001751429750584066, -0.011289012618362904, 0.00800817459821701, -0.0048818266950547695], [7.482611545128748e-05, 0.012331895530223846, -5.245828106126282e-06, -1.3098059753247071e-05, 3.970365651184693e-05, 0.01573639176785946, -0.00018068075587507337, -0.0936189517378807, -0.007879816927015781, -0.0017494853818789124, 0.02716250903904438, 2.0252651665941812e-05, 1.3927060535934288e-06, 0.0006297350046224892, -0.027881283313035965, -0.04269016906619072, 0.0002446450525894761], [-0.0019389484077692032, 0.0020440025255084038, -4.6261622628662735e-05, -0.000490039587020874, -0.0003545733343344182, -0.013081413693726063, 7.297295815078542e-05, -0.00015772358165122569, -0.006046601105481386, -0.00786313135176897, 0.016947776079177856, -0.016093917191028595, -0.0003315737994853407, 0.01666773296892643, 0.015112698078155518, -3.5006556572625414e-05, 0.02135084569454193], [0.004546348471194506, -0.005712199956178665, 0.02393379434943199, 0.028434358537197113, 0.021628964692354202, 0.007574388757348061, -4.408083896123571e-06, 0.0003070710226893425, 0.002114411210641265, -0.005819322541356087, 0.007970410399138927, 0.017284711822867393, 0.026695491746068, -0.01487609464675188, 0.006973704323172569, 1.606104342499748e-05, 0.004751456901431084], [0.05012836307287216, 0.022089682519435883, 5.206838977755979e-06, 7.3432647695881315e-06, 0.00016789129585959017, 0.004054553806781769, 4.5653483539354056e-05, -0.03742508217692375, 0.022333253175020218, 0.005159706808626652, 0.0033999921288341284, 4.5478660467779264e-05, 0.0001830834080465138, -0.002300912979990244, -0.01280923094600439, -0.045292530208826065, -0.00807773694396019], [-0.044824495911598206, -0.022526174783706665, -0.00013291003415361047, -0.0001884014200186357, -0.0002355822070967406, -0.00011890359746757895, 0.009851801209151745, 0.025493163615465164, -4.975133924745023e-05, -0.02822774276137352, -0.0042933449149131775, -0.0023626352194696665, -0.0003391257778275758, 0.003564322367310524, -0.013855386525392532, -1.1201691449969076e-05, 0.008180920034646988], [0.004511913284659386, -0.004659363534301519, 0.019949812442064285, 0.02388652041554451, 0.016411781311035156, 0.008753912523388863, -0.00010851848492166027, 0.00013561549712903798, -0.005017696879804134, 0.009546054527163506, 0.003021233482286334, 0.006772927474230528, 0.019954167306423187, 0.008264975622296333, 0.007568383123725653, 0.006124699022620916, 0.0047771078534424305], [-0.005883507430553436, 0.007611019536852837, -0.020186202600598335, -0.02249058522284031, -0.016053901985287666, -0.009902164340019226, 9.91590932244435e-05, -8.613539830548689e-05, -0.009862110950052738, -0.010668148286640644, -0.009930194355547428, -0.014446215704083443, -0.005831743124872446, 0.016009990125894547, -0.006444938015192747, -2.794907777570188e-05, -0.00240296870470047], [-0.0007500551291741431, -0.013589463196694851, -2.123616104654502e-05, -0.0001709881325950846, -3.4975033486261964e-05, -0.0016494101146236062, 2.517057509976439e-06, -2.260978908452671e-05, -0.00644875830039382, 0.0025592881720513105, 0.014914079569280148, -2.3291700927075e-05, -2.5020952307386324e-05, 0.016349991783499718, -0.006860410328954458, 0.01897137239575386, -0.0023537417873740196], [-0.004645372740924358, 0.005172570236027241, -0.021937116980552673, -0.004880478605628014, -0.012837870046496391, -0.0070646703243255615, 0.00011944896687055007, -0.0006856287363916636, -0.003324443008750677, 0.006170637905597687, -0.008965943939983845, -0.014997734688222408, -0.020424365997314453, 0.015774410218000412, -0.00574150076135993, -2.2594227630179375e-05, -0.0035305044148117304], [-0.013523825444281101, 0.012840887531638145, -0.00890122540295124, -0.019776536151766777, -0.012940260581672192, -0.009065452963113785, -7.45452143746661e-06, -0.0011141570284962654, -0.0002711638808250427, 0.005458205938339233, -0.006875031627714634, -0.014731724746525288, -0.020204946398735046, -0.012144169770181179, -0.005878330674022436, -2.1812040358781815e-05, -0.00766565790399909], [-0.005521878600120544, 0.0024901737924665213, -0.022150205448269844, -0.008027156814932823, -0.004001452121883631, -0.010794349014759064, 9.561076149111614e-05, -0.00014109669427853078, -0.005594023037701845, -0.010233522392809391, -0.0015555769205093384, -0.01264006458222866, -0.025029916316270828, 0.01749609038233757, -0.0059762089513242245, -0.0058328015729784966, -0.001765454071573913], [-0.014089136384427547, 0.005337903741747141, -0.00035768994712270796, -0.0014900101814419031, -0.0007635127403773367, -0.0037358419504016638, 0.0030381663236767054, -0.002085647778585553, 0.010775277391076088, 0.011352007277309895, -0.0015464449534192681, -0.015411753207445145, -0.000678132870234549, 0.015315772034227848, -0.010158706456422806, -2.5524400371068623e-06, -0.007106554228812456], [0.008666204288601875, -0.0047120894305408, 0.021821439266204834, 0.025253919884562492, 0.01550315972417593, 0.006929114926606417, -0.0027832065243273973, 0.002634383039548993, 0.003143223002552986, -0.003639906644821167, 0.0025765530299395323, 0.0075365896336734295, 0.025520069524645805, 0.00658175116404891, -0.017078867182135582, 1.5678295312682167e-05, 0.0030410359613597393], [-0.004342090338468552, 0.008640803396701813, -0.020246706902980804, -0.009106201119720936, -0.014184427447617054, -0.010021627880632877, -7.54622851673048e-06, -0.00013266332098282874, -0.010167816653847694, -0.011664641089737415, 0.005890612490475178, -0.006647746544331312, -0.015664812177419662, 0.017229055985808372, 0.01756642758846283, -1.3618730008602142e-05, -0.0024284895043820143], [-0.006137831602245569, 0.004735082853585482, -0.005526076070964336, -0.0038938492070883512, -0.013642760924994946, -0.00922291912138462, 5.8831614296650514e-05, -8.801610965747386e-05, -0.007634362671524286, -0.016194768249988556, -0.0008857718203216791, -0.014253313653171062, -0.00756591372191906, -0.008731086738407612, -0.006010199431329966, -1.9263028661953285e-05, -0.006733360234647989], [0.005893421359360218, -0.0021916162222623825, 0.020421631634235382, 0.004601255524903536, 0.005914557725191116, 0.010298814624547958, -3.308986924821511e-05, 7.499398634536192e-05, 0.003273910842835903, -0.006195725407451391, 0.0011376285692676902, 0.013673976063728333, 0.021148502826690674, -0.016612982377409935, 0.005662629846483469, 1.3363098332774825e-05, 0.0037132014986127615], [0.004296275787055492, -0.012207003310322762, 0.02035108208656311, 0.023150162771344185, 0.017635682597756386, 0.00770962331444025, -4.1550028981873766e-06, 7.531800656579435e-05, 0.009874705225229263, -0.004510361235588789, -0.005705024115741253, 0.013736238703131676, 0.02306651696562767, -0.014986303634941578, 0.0058105639182031155, 0.0016807339852675796, 0.0014473750488832593], [0.005499598570168018, 0.020375682041049004, 0.02668704092502594, 0.03074149414896965, 0.009128812700510025, 0.0085359001532197, -0.00010501958604436368, 0.0026510332245379686, 0.0017155685927718878, -0.004095018375664949, 0.0014072890626266599, 0.021059805527329445, 0.008237866684794426, 0.0032796745654195547, -0.012847740203142166, 0.0032330667600035667, -0.019302181899547577], [-0.003765920177102089, 0.008187915198504925, -0.0015417028916999698, -0.0015681290533393621, -0.006490947213023901, -0.011134866625070572, -1.8484499378246255e-05, -0.0014225451741367579, -0.00800851359963417, 0.0031934890430420637, -0.007854217663407326, -0.023487752303481102, -0.00044289662037044764, -0.004168483428657055, 0.013699028640985489, 0.01607111468911171, -0.006436523515731096], [0.012451289221644402, -0.004272341728210449, 4.344750414020382e-05, 8.525394150638022e-06, 0.00021514501713681966, 0.00021433537767734379, 6.75015007800539e-06, 3.096216460107826e-05, -1.2025092473777477e-05, 0.012019027955830097, 0.004545743111521006, 0.00021013403602410108, 2.0179593320790445e-06, -0.0185209009796381, 0.007401884533464909, -3.4290587791474536e-05, -0.012887760065495968], [0.009172333404421806, -0.004531091079115868, 3.559188553481363e-05, 0.00010020138142863289, 0.0033918486442416906, 0.0005762720829807222, 2.4808268790366128e-05, 2.823596696543973e-05, 0.005619197618216276, 0.010251973755657673, 0.003651390317827463, 0.006390335503965616, 0.00013992747699376196, 0.009782999753952026, 0.009414676576852798, -1.9532582882675342e-05, -0.02544930949807167], [3.413809463381767e-05, 0.006849582307040691, -1.550449087517336e-05, -7.0175883593037724e-06, -1.6102818335639313e-05, -0.037499140948057175, 0.00011118554539280012, 6.947557994863018e-05, -0.0009557001176290214, 0.002345736138522625, 0.028577271848917007, -0.027028625831007957, -2.382171260251198e-05, -0.004659375641494989, -0.007693273480981588, -0.005521033890545368, -0.005853068083524704], [-0.0006222652737051249, 0.0027780216187238693, -1.5642342987121083e-05, -4.408638778841123e-05, -0.00024245923850685358, -0.00013611574831884354, 5.124199014971964e-05, -0.00278938515111804, -0.012417308986186981, 0.004761293530464172, -0.010333165526390076, -1.895737113954965e-05, -3.654835018096492e-05, -0.0039712670259177685, -0.002840350614860654, 0.00425097718834877, 0.020185254514217377], [0.004016362130641937, -0.0020543604623526335, 0.005203961860388517, 0.019474459812045097, 0.0032460999209433794, 0.008061596192419529, -6.324957212200388e-05, 0.00014070345787331462, 0.007953093387186527, 0.007150211837142706, 0.0016013673739507794, 0.006269469857215881, 0.020257046446204185, 0.005304553080350161, 0.006302547641098499, 1.8702203306020238e-05, 0.0028707943856716156], [0.006257356610149145, -0.006653483025729656, 0.005400580819696188, 0.01639600098133087, 0.016943898051977158, 0.01100243255496025, -5.953997970209457e-05, 3.5310600651428103e-05, -0.006679313722997904, 0.0138140469789505, -0.01517241820693016, 0.014068168587982655, 0.01409926824271679, 0.009803020395338535, 0.0072676087729632854, 4.10479833590216e-06, 0.002401521662250161], [0.010963804088532925, -0.0007952863234095275, 0.03924642130732536, 0.029998213052749634, 0.011363785713911057, 0.010835428722202778, 3.9876951632322744e-05, 0.006944310385733843, 0.0033054810483008623, -0.0027194006834179163, 0.00838075764477253, 0.01981591433286667, 0.01578747294843197, -0.011662725359201431, -0.012905620038509369, 0.00470133638009429, 0.007114320527762175], [2.6604522645357065e-05, -0.0011399445356801152, -6.868270702398149e-06, 2.393377508269623e-05, -2.7802225304185413e-05, -3.4290802432224154e-05, -3.818891491391696e-05, 0.07812473922967911, -0.0038790805265307426, -0.022505512461066246, 0.019662605598568916, -9.541433428239543e-06, 7.282513251993805e-06, 0.00937332957983017, 0.0016366950003430247, 0.042737193405628204, -0.01295915525406599], [-0.004738961812108755, 0.004005295690149069, -0.013490885496139526, -0.002621108666062355, -0.018220670521259308, -0.008908875286579132, 0.006021482869982719, -7.529389404226094e-05, -0.001796053140424192, 0.009650877676904202, -0.002236571628600359, -0.015599270351231098, -0.0021016474347561598, -0.009729699231684208, -0.008685017935931683, -2.8336151444818825e-05, 0.016617728397250175], [-0.009635464288294315, 0.004730024375021458, -0.006416006945073605, -0.012804080732166767, -0.01302498858422041, -0.00808828603476286, 0.00010904853843385354, -4.9001584557117894e-05, -0.00013735525135416538, 0.003106155898422003, -0.0024646162055432796, -0.0138516491279006, -0.019725697115063667, -0.013429386541247368, -0.005919028539210558, -0.000377911317627877, -0.0025248394813388586], [-0.0032190007623285055, 0.007851844653487206, -0.004129000008106232, -0.01561403926461935, -0.013884948566555977, -0.007186797447502613, 0.0036585205234587193, -8.74229081091471e-05, -0.008274725638329983, 0.0037883943878114223, -0.008162055164575577, -0.01184948068112135, -0.011072041466832161, 0.016853895038366318, 0.016813063994050026, -3.485315028228797e-05, -0.0032246133778244257], [-8.664536289870739e-05, 0.005579132121056318, -3.355288572493009e-05, -3.779916005441919e-05, -0.0009557052399031818, -0.0008221450261771679, -2.1890180505579337e-05, -1.1380098840163555e-05, 0.02108999527990818, 0.011015702039003372, 0.02381419576704502, -0.0006066040368750691, -0.00033186201471835375, 0.011143052950501442, -0.009756909683346748, -0.0019277384271845222, -0.0029171134810894728], [0.003015742637217045, -0.0024867060128599405, 0.02665834315121174, 0.027016904205083847, 0.020945945754647255, 0.010898361913859844, -6.309730088105425e-05, 0.0008162055746652186, 0.010179765522480011, -0.007368836086243391, -0.014346137642860413, 0.017793038859963417, 0.027471231296658516, -0.017312416806817055, 0.005681089591234922, 1.8995377104147337e-05, -0.014724084176123142], [-0.0038230023346841335, 0.002051897346973419, -0.021508097648620605, -0.023145277053117752, -0.020857950672507286, -0.009556196630001068, 9.924385813064873e-05, -8.778945630183443e-05, -0.010020080022513866, -0.012327856384217739, -0.0040710726752877235, -0.01557877566665411, -0.005435260944068432, -0.01191007811576128, -0.004172591958194971, -1.8982855181093328e-05, 0.021748865023255348], [0.013279267586767673, -0.0028462782502174377, 0.000944027618970722, 0.0002987570478580892, 0.011371960863471031, 0.00802765041589737, -3.9584901969647035e-06, 0.00013157690409570932, 4.0239821828436106e-05, -0.01000190433114767, 0.0031955749727785587, 0.0068891835398972034, 0.0009282194077968597, -0.01630498468875885, -0.016573002561926842, 0.003762732492759824, 0.0012944515328854322], [0.002896232297644019, -0.01047790888696909, 0.00010666285379556939, 0.0005566230393014848, 0.0006573099526576698, 0.01933697983622551, 1.962514033948537e-05, 5.56131053599529e-05, -0.012833802960813046, -0.0015214306768029928, 2.1224748707027175e-05, 0.003911318723112345, 8.020215318538249e-05, 0.016267385333776474, -0.018976403400301933, 2.4231887437053956e-05, 0.006174296606332064], [0.007835487835109234, -0.006798660382628441, 0.02172193117439747, 0.009569577872753143, 0.01016787439584732, 0.008905370719730854, -0.002381827449426055, 4.946099579683505e-05, 0.009976602159440517, -0.002713113324716687, 0.0023492276668548584, 0.021050192415714264, 0.006990127265453339, 0.007669495418667793, 0.004853534046560526, 0.00033760580117814243, 0.002915483433753252], [-0.0032121846452355385, 0.0036664879880845547, -0.00823567807674408, -0.02552376314997673, -0.00640532560646534, -0.006792760919779539, 6.1033049860270694e-05, -9.188758849631995e-05, -0.0027626981027424335, 0.004872127901762724, -0.004452030174434185, -0.016630126163363457, -0.026063881814479828, -0.0019754162058234215, -0.002279336331412196, -2.4496632249793038e-05, -0.0031583330128341913], [-0.006477180402725935, 0.0015229666605591774, -0.008711941540241241, -0.006459344644099474, -0.022043971344828606, -0.007643601857125759, 0.0001024471057462506, -6.027673589414917e-05, -0.013393365778028965, 0.010376498103141785, -0.000980794313363731, -0.008245508186519146, -0.02547375112771988, 0.016520468518137932, 0.016669202595949173, -6.43133171251975e-06, -0.0010093434248119593], [0.0042513529770076275, -0.0027994532138109207, 0.02413034625351429, 0.025152891874313354, 0.019734036177396774, 0.012631295248866081, -0.0016551766311749816, 0.0003811106726061553, 0.014539667405188084, -0.0049056136049330235, 0.0066255731508135796, 0.009840602986514568, 0.02803141623735428, 0.010592606849968433, -0.018395308405160904, 2.888424751290586e-05, 0.0031657132785767317], [0.0034243350382894278, -0.008902017027139664, 0.019065164029598236, 0.0030405945144593716, 0.017567584291100502, 0.01326685305684805, -0.0001084756149793975, 0.006516856607049704, -0.021169651299715042, 0.016537664458155632, 0.00112709472887218, 0.00779319554567337, 0.020577652379870415, 0.0035522154066711664, -0.015304244123399258, 0.0005174799589440227, 0.0010331874946132302], [-0.00472866790369153, 0.00169337575789541, -0.02073255367577076, -0.016593726351857185, -0.020128581672906876, -0.008569908328354359, -3.4157805202994496e-05, -0.0018696747720241547, -0.01258868258446455, 0.008002961985766888, -0.001367974211461842, -0.0168253555893898, -0.0058191814459860325, -0.003523831721395254, 0.01555998157709837, -1.4446086424868554e-05, -0.003995758481323719], [-0.005729416850954294, -0.032031312584877014, -1.0341361303289887e-05, -0.00010561331873759627, -0.00011068709864048287, -0.0032812999561429024, -0.013992805033922195, 0.002115751150995493, -0.007833844050765038, 0.010197963565587997, 0.027194613590836525, -8.837672794470564e-05, -6.049017611076124e-05, 0.0009837718680500984, -0.012708318419754505, 0.0036884769797325134, -0.012629345059394836], [0.039398159831762314, 0.03920422121882439, 1.957650965778157e-05, 0.0001326982892351225, 7.548472058260813e-05, 0.04738488793373108, 0.014411348849534988, -0.01482347771525383, -0.0012396842939779162, 0.004012121818959713, -0.030814621597528458, 1.0467500032973476e-05, 8.919796528061852e-05, -0.003568591782823205, -0.012607644312083721, -0.004212862346321344, -0.0003032283275388181], [-0.005648302845656872, 0.010740033350884914, -0.00646620150655508, -0.025354089215397835, -0.021239638328552246, -0.013471480458974838, -2.793885869323276e-06, -5.8488953072810546e-05, -0.0019008864182978868, 0.0050259060226380825, -0.004922780673950911, -0.01652826927602291, -0.021133752539753914, 0.016670256853103638, -0.0020459743682295084, -0.0016320119611918926, -0.0005313384463079274], [0.0072678555734455585, -0.0029445309191942215, 0.02466493844985962, 0.03145306929945946, 0.006416072137653828, 0.012418189086019993, -4.01625620725099e-05, 8.908964809961617e-05, 0.012402944266796112, 0.0073904492892324924, -0.013919091783463955, 0.018530651926994324, 0.010690458118915558, -0.015724720433354378, 0.0013885860098525882, 3.435731923673302e-05, 0.0014552648644894361], [0.004265326540917158, -0.013108235783874989, 0.02114413119852543, 0.02479904517531395, 0.014263585209846497, 0.010220516473054886, -6.0231719544390216e-05, 0.003005456179380417, 0.0005231071263551712, -0.004513745196163654, 0.006288173142820597, 0.00783865712583065, 0.010078386403620243, 0.004199397284537554, -0.01667385920882225, 0.0009769556345418096, 0.0031362951267510653], [0.003656568704172969, -0.011515974067151546, 0.01423975732177496, 0.021670343354344368, 0.021734802052378654, 0.01191082876175642, -3.2994645152939484e-05, 3.637034023995511e-05, 0.00016719690756872296, -0.011797197163105011, -0.021503912284970284, 0.01929302141070366, 0.015956062823534012, 0.007657749578356743, 0.00896456278860569, -0.018585214391350746, 0.0007572800386697054], [-0.0026520290412008762, 0.004452070686966181, -0.015391671098768711, -0.004450107924640179, -0.019380727782845497, -0.01063383836299181, 0.004164234735071659, -0.00012919488654006273, -0.007290704641491175, 0.00840319786220789, -0.0019891690462827682, -0.01759503036737442, -0.02063584327697754, -0.0052371579222381115, -0.0019698680844157934, -1.4080528671911452e-05, -0.005242088809609413], [0.007660739589482546, -0.0021735522896051407, 0.02281998284161091, 0.022209996357560158, 0.02246715873479843, 0.01107887364923954, 2.093214243359398e-05, 0.00012537949078250676, -0.013082455843687057, -0.01062062382698059, 0.008607539348304272, 0.020187437534332275, 0.005513609852641821, -0.00871830154210329, 0.002766052260994911, 0.0026024789549410343, 0.001840250683017075], [-0.0004677969845943153, 0.005071168765425682, -7.31642940081656e-05, -0.00012091513781342655, -0.0005868825246579945, -0.013648563995957375, 1.1167198863404337e-06, -7.738202839391306e-06, -0.0018398026004433632, 0.006550756748765707, 0.02172294817864895, -0.0084278779104352, -7.344801269937307e-05, 0.012247147038578987, -0.006066404283046722, -2.0783203581231646e-05, -0.0032143667340278625], [-0.003219189587980509, 0.0039502354338765144, -0.005927545018494129, -0.009125901386141777, -0.013979370705783367, -0.009445134550333023, -4.0327100577997044e-05, -0.00014049226592760533, -0.00030980969313532114, -0.006887335330247879, -0.0009459874127060175, -0.014588430523872375, -0.017994752153754234, -0.00670401006937027, 0.017397860065102577, -0.0023222938179969788, -0.00707123801112175], [0.0002373447350692004, -0.0027743095997720957, 0.00011445590644143522, 0.00012728996807709336, 0.00021988671505823731, 0.0028115694876760244, 1.0427403140056413e-05, 2.9356340746744536e-05, -0.01832929067313671, 0.007844590581953526, 0.0031804905738681555, 3.861683217110112e-05, 0.0004051484283991158, -0.011423470452427864, -0.013563135638833046, 3.2369131076848134e-05, -0.01856599748134613], [0.006313274148851633, -0.004166316706687212, 0.00024751797900535166, 0.0009678149945102632, 0.012084102258086205, 0.00875476561486721, -4.247877586749382e-05, 0.00011892507609445602, 0.0006439554854296148, 0.011939529329538345, 0.00328462035395205, 0.015821367502212524, 0.000863626366481185, -0.01454052235931158, 0.0066528297029435635, 3.5827946703648195e-05, -0.02124459482729435], [-0.003853339934721589, -0.024348750710487366, -0.0006764037534594536, -0.0009951352840289474, -0.004312208853662014, -0.0032373869325965643, 3.3762560633476824e-05, -0.008781130425632, 0.009656719863414764, 0.0029747653752565384, -0.014369126409292221, -0.0018298868089914322, -0.0002183073083870113, -0.009887471795082092, 0.01580672152340412, -0.0013299552956596017, -0.0008247706573456526], [0.0034246009308844805, 0.028748976066708565, 0.0007536913617514074, 0.0006226231344044209, 0.002144771860912442, 0.0020829702261835337, 1.4937777450541034e-05, 0.0037970130797475576, -0.0007603455451317132, -0.003020297968760133, 0.007619238458573818, 0.006713009439408779, 0.0004650888149626553, -0.01129953470081091, 0.008797986432909966, 2.627580579428468e-05, 0.0037271531764417887], [-0.000606380810495466, 0.009268403984606266, -0.0021810485050082207, -0.006682822480797768, -0.03460313007235527, -0.00013540258805733174, -0.012062917463481426, -0.001061675720848143, -0.025590533390641212, 0.007259635254740715, -0.0056143212132155895, -0.007857058197259903, -0.008898833766579628, -0.005670463666319847, -0.00660972623154521, 0.0053096553310751915, 0.04396609961986542], [-0.00010007608216255903, -0.00815623626112938, -4.452923349163029e-06, 7.179255590017419e-07, -9.93557769106701e-05, -0.023224854841828346, 0.014419900253415108, 0.01204313337802887, 0.05029480531811714, 0.005312319379299879, -0.0036095797549933195, -1.9755021639866754e-05, -1.2147193046985194e-06, -0.0078044794499874115, -0.00312683149240911, 0.001669188728556037, -0.05443143844604492], [-0.0059818304143846035, 0.003988390322774649, -0.00014601023576688021, -0.0004228641337249428, -0.01006883941590786, -0.00538173271343112, 3.356016804900719e-06, -0.00012985030480194837, 0.020518213510513306, 0.008454401046037674, -0.012505997903645039, -0.011180329136550426, -0.0006179297342896461, -0.001791808637790382, -0.002464642282575369, -0.0036445860750973225, -0.008526504039764404], [0.006285351701080799, -0.002088476438075304, 0.0267079696059227, 0.008169413544237614, 0.008731438778340816, 0.008176918141543865, -0.002928622532635927, 0.0001344892370980233, 0.011436769738793373, -0.0023835545871406794, -0.004624552559107542, 0.01744675636291504, 0.02855021134018898, 0.007043471559882164, 0.0018968151416629553, 2.0612953449017368e-05, 0.00172339694108814], [0.00405412120744586, -0.0036616523284465075, 1.292796150664799e-05, 0.00043787507456727326, 0.018153008073568344, 0.008397422730922699, -8.973375952336937e-05, 0.0029180191922932863, 0.0007215330260805786, 0.010357171297073364, -0.00360774714499712, 0.017505692318081856, 0.0010573080508038402, -0.00985276885330677, -0.015005898661911488, 1.583402627147734e-05, -0.02282688394188881], [-0.008287463337182999, 0.003668668679893017, -0.010401378385722637, -0.03333807364106178, -0.021567244082689285, -0.00824790634214878, 8.007826181710698e-06, -0.0031608394347131252, -0.0016379058361053467, -0.007323018275201321, 0.023789333179593086, -0.016953974962234497, -0.02930692583322525, -0.005672262515872717, -0.010370508767664433, -0.0020134656224399805, -0.007367934565991163], [0.006454102229326963, -0.004779805429279804, 0.02038165181875229, 0.02512648142874241, 0.01762465387582779, 0.008111837320029736, -3.341286719660275e-05, 0.00014164987078402191, 0.0030273490119725466, -0.013477633707225323, 0.0035913996398448944, 0.013180096633732319, 0.02040863409638405, -0.009748267941176891, 0.005692301318049431, 0.003666896838694811, 0.0019633639603853226], [0.004461874719709158, -0.004832557402551174, 0.020679455250501633, 0.022935282438993454, 0.01655796729028225, 0.009682146832346916, 4.03519588871859e-05, 4.842282214667648e-05, 0.0007622517296113074, 0.010056527331471443, 0.00998015608638525, 0.014108425937592983, 0.006461130455136299, 0.006340155377984047, 0.006324405316263437, 6.111808488640236e-06, 0.0017242657486349344], [0.009241603314876556, -0.0040787081234157085, 0.007444946561008692, 0.02292845956981182, 0.018640270456671715, 0.008120342157781124, -6.074317207094282e-05, 8.856737258611247e-05, -0.00963978935033083, 0.012302063405513763, -0.0053531876765191555, 0.019734973087906837, 0.023701705038547516, 0.01197663601487875, 0.004997506737709045, 1.4204829312802758e-05, 0.0013650513719767332], [-0.005314024165272713, 0.0018991766264662147, -0.02106604352593422, -0.021238800138235092, -0.014896070584654808, -0.012064632959663868, 0.00010915979510173202, -0.00013295043027028441, 0.01037478819489479, -0.009063581936061382, -0.007010218221694231, -0.016299981623888016, -0.021848849952220917, -0.0027403091080486774, -0.004316626116633415, -2.739426417974755e-05, -0.00046559798647649586], [0.0017219784203916788, -0.003501261118799448, 0.015694862231612206, 0.01602228172123432, 0.012612573802471161, 0.009442858397960663, -0.00010905993985943496, 8.808213897282258e-05, -0.007548000663518906, -0.010157176293432713, 0.0011215365957468748, 0.012352481484413147, 0.00455348240211606, 0.009835334494709969, -0.017287228256464005, 1.945671647263225e-05, 0.0010779945878311992], [0.007051002699881792, -0.011834058910608292, 0.01657189056277275, 0.01580556109547615, 0.015305611304938793, 0.006748287007212639, 2.5192703105858527e-05, 0.00012975733261555433, 0.008285504765808582, -0.0062917242757976055, 0.005442226305603981, 0.012687192298471928, 0.0041802022606134415, 0.004036433063447475, 0.005803342442959547, 0.0009394940570928156, 0.0009760808316059411], [0.0008773542358539999, 0.03301426023244858, 5.874536327610258e-06, 1.069906102202367e-05, 3.1567567930324e-05, 0.00018814751820173115, -0.02608886919915676, 0.0003316137590445578, -0.03247835487127304, 0.0015543762128800154, 0.032555218786001205, 1.2606290511030238e-05, -3.2475659281772096e-06, -0.0096652926877141, 0.001680428278632462, -0.025916198268532753, -7.177110819611698e-05], [-0.00010447671957081184, -0.028125286102294922, 9.37619734031614e-06, -1.0530106010264717e-05, -2.1503195966943167e-05, -0.00039808356086723506, 0.03595941141247749, 0.015547137707471848, 0.04885408282279968, 0.02441236563026905, -0.04212646558880806, -5.471827171277255e-05, 1.1733297469618265e-05, -0.014008446596562862, 0.004332300275564194, 0.06861777603626251, -0.004784928169101477], [-4.8880632675718516e-05, 0.0261741541326046, -8.004938536032569e-06, 2.0807548935408704e-05, 1.8609303879202344e-05, 5.460904139908962e-05, -0.30776023864746094, 0.006531011313199997, 0.004079286474734545, 0.011038272641599178, -0.02775891311466694, 3.940004717151169e-06, -1.0765357956188382e-06, 0.021344689652323723, 0.0052315229550004005, 0.0041489736177027225, -0.10445501655340195], [-0.03624819591641426, -0.018982425332069397, -2.9076616556267254e-05, -0.02647360973060131, -0.00010078878403874114, -0.00030403200071305037, 0.28246036171913147, -0.010296574793756008, -0.026525158435106277, 0.0182365532964468, 0.016685424372553825, -4.466270547709428e-05, -0.010918979533016682, -0.017911670729517937, 0.012117205187678337, -0.00803649052977562, 0.09084513038396835], [0.0030876114033162594, -0.002825337927788496, 0.020224586129188538, 0.012941022403538227, 0.0050384909845888615, 0.011829235590994358, -6.382386345649138e-05, 4.059370985487476e-05, 0.005716048181056976, -0.006140439305454493, 0.0010803515324369073, 0.007033481728285551, 0.022715024650096893, 0.004270913545042276, -0.0160300824791193, 0.0014302125200629234, 0.00443601468577981], [-0.004237533546984196, 0.007149876095354557, -0.0003564742801245302, -0.0007411310798488557, -0.0064462823793292046, -0.009922131896018982, 0.00012996201985515654, -0.00012850215716753155, -0.0017111962661147118, 0.010898577980697155, -0.0013266883324831724, -0.013605195097625256, -0.0008455279166810215, -0.005475861020386219, -0.005966696422547102, 0.016874724999070168, -0.002476791152730584], [0.07764018326997757, 0.006886702962219715, -3.870338787237415e-06, 2.044478605967015e-05, 1.905222779896576e-05, 0.0006485347403213382, -0.027552511543035507, -9.887714259093627e-05, -0.003622708609327674, 0.0006288109580054879, 0.002543995389714837, -1.0207988907495746e-06, 2.1924599423073232e-05, -0.0015671144938096404, 0.00875951535999775, -0.0006835883832536638, -0.0032936581410467625], [-0.07241165637969971, 0.007980718277394772, 1.3924480981586385e-06, -6.810298509662971e-05, -4.4780117605114356e-05, -0.0006315740174613893, 0.030926214531064034, 9.054909605765715e-05, 0.025193458423018456, 0.0030246952082961798, -0.003589232452213764, -5.257802695268765e-05, -1.9848515876219608e-05, 0.0015952260000631213, 0.01419837586581707, 0.0008183300378732383, 0.0036022879648953676], [0.0036426500882953405, -0.003507461864501238, 0.022995896637439728, 0.009936617687344551, 0.005910489242523909, 0.010334114544093609, -0.00010126613051397726, 0.00010857063170988113, 4.680310667026788e-05, 0.011997854337096214, 0.007995438762009144, 0.016496745869517326, 0.02334236539900303, 0.01022679079324007, -0.016368864104151726, 3.8501446397276595e-05, 0.007744934875518084], [-0.005811834707856178, 0.0029214657843112946, -0.0001600022951606661, -0.0007353324326686561, -0.0006847309996373951, -0.0015294583281502128, -2.7511827283888124e-05, -1.1533034921740182e-05, 0.02088799700140953, 0.004165075719356537, -0.005069155246019363, -0.015525954775512218, -0.00012223921658005565, -0.009886989369988441, -0.009929084219038486, -2.636869794514496e-05, -0.0026477850042283535], [0.00034413172397762537, 0.015592284500598907, 5.2897714340360835e-05, 6.263694103836315e-06, 0.0005023063276894391, 0.00010057469626190141, 1.198941026814282e-05, 0.00010227761958958581, 0.010345516726374626, -0.008383951149880886, -0.0040459660813212395, 5.962842351436848e-06, 3.996579835074954e-05, -0.010695738717913628, -0.008751017972826958, 0.021517373621463776, -0.0068848468363285065], [-0.005320986267179251, 0.004735307767987251, -0.00037681168760173023, -0.0011662538163363934, -0.017560306936502457, -0.007805313915014267, 4.897142844129121e-06, -0.0006521189934574068, 0.015217913314700127, 0.004129891749471426, -0.003257211297750473, -0.01535691786557436, -0.0032967058941721916, 0.015150659717619419, -0.006655802950263023, -2.6130490368814208e-05, -0.0048816027119755745], [3.448569987085648e-05, 0.032415859401226044, -5.083354608359514e-06, -0.000193764892173931, -7.731785444775596e-05, -0.026664763689041138, 0.11065322160720825, -0.0689890906214714, 0.06086862087249756, 0.013678849674761295, 0.011203446425497532, -0.0016212790505960584, -2.5233895939891227e-05, 0.007001472637057304, 0.007549478206783533, 0.018665902316570282, 0.00848943367600441], [-2.357329140068032e-05, -0.0315256305038929, -3.97657640860416e-06, 7.576230564154685e-05, 0.00028366644983179867, 0.02792157419025898, -0.08860275894403458, 0.06128837168216705, -0.06748466193675995, -0.04175184294581413, -0.005798358470201492, 0.0001624450960662216, 7.74133422964951e-06, 0.021033525466918945, 0.006583851762115955, -0.023652946576476097, -0.028563696891069412], [0.006053710822016001, -0.007007623557001352, 0.017949258908629417, 0.003305498044937849, 0.006507103331387043, 0.008473408408463001, 1.6858612070791423e-05, 3.486676359898411e-05, -0.021608566865324974, -0.005150582175701857, 0.001974201761186123, 0.016065742820501328, 0.018503546714782715, -0.015236439183354378, 0.007339383475482464, 2.826451054716017e-05, 0.0018586625810712576], [0.011089887470006943, -0.0046617258340120316, 0.02357768639922142, 0.003606658661738038, 0.005463628098368645, 0.010834316723048687, -9.669780411059037e-05, 7.586451101815328e-05, 0.00032767001539468765, -0.003998215775936842, 0.008220060728490353, 0.008255275897681713, 0.025216683745384216, 0.010607627220451832, -0.01653970405459404, 0.0019736834801733494, 0.0051808846183121204], [0.002354580210521817, -0.00430216733366251, 1.067361608875217e-05, 5.534239608095959e-05, 0.019109735265374184, 0.005689162295311689, 0.06997029483318329, -0.01555835735052824, 0.008812285959720612, -0.0015087100910022855, 0.03147878870368004, 0.00479799322783947, 9.807661626837216e-06, -0.005995012354105711, 0.001218183315359056, -0.023266438394784927, 0.003357138019055128], [7.371896117547294e-06, -0.006015317048877478, -7.010778517724248e-06, 1.9940976926591247e-05, -3.822686721832724e-06, -0.015203263610601425, -0.01738160476088524, 0.024273086339235306, -0.0025468748062849045, -0.0034705959260463715, 0.02257683500647545, -0.005890341941267252, -1.0534792636462953e-05, -0.0011040621902793646, -0.003942082170397043, 0.04724428802728653, 0.0003643700329121202], [-9.177163883578032e-05, 0.0029255496338009834, -5.827014319947921e-06, -9.648453124100342e-05, -0.00020321989723015577, -0.00732082687318325, -1.1079414434789214e-06, 0.023273838683962822, 0.02329033426940441, -0.04549432918429375, 0.0076461187563836575, -1.2362668712739833e-05, -4.453274232218973e-05, -0.0069113560020923615, -0.008068261668086052, 0.059748586267232895, -0.027432555332779884], [2.2876976800034754e-05, 0.008569079451262951, -7.819659003871493e-06, -2.4805774501146516e-06, 8.213703404180706e-05, 0.05951406806707382, -0.026164045557379723, -0.18236587941646576, -0.000247919000685215, -0.0030166306532919407, -0.054068390280008316, 1.6938063708948903e-05, 6.325519279926084e-06, -0.013052585534751415, -0.00272472039796412, -0.15464213490486145, 0.0008252820698544383], [0.0062553477473556995, -0.0045214444398880005, 0.02201344259083271, 0.005969237070530653, 0.017173735424876213, 0.009192095138132572, -0.00010802001634147018, 0.0026510250754654408, 0.001703735557384789, -0.011066535487771034, 0.011200878769159317, 0.00766120757907629, 0.005873576272279024, 0.004267912823706865, -0.01593516208231449, 0.0039569297805428505, 0.004431768320500851], [-0.0030130201485008, 0.002278162632137537, -7.68894751672633e-05, -0.00028776354156434536, -0.0001201406485051848, -0.003162761451676488, -1.830424662330188e-05, -2.1462066797539592e-05, -1.561110548209399e-05, -0.010027533397078514, -0.006449191365391016, -0.0003283182450104505, -0.00010103004024131224, -0.007997092790901661, -0.0060278610326349735, -5.54516691408935e-06, 0.020634857937693596], [-0.001631109626032412, 0.0055658845230937, -1.4441704479395412e-05, -5.692103150067851e-05, 4.01170609620749e-06, -0.00014123853179626167, -0.004521168302744627, -0.047253094613552094, 0.006296487990766764, -0.005906710401177406, 0.0023067400325089693, -0.005415725521743298, -3.9607104554306716e-05, -3.0200802939361893e-05, -0.02720692753791809, -0.01661413162946701, 0.02375512383878231], [-0.0028250711038708687, -0.0026788837276399136, -8.491247172059957e-06, -4.51011692348402e-05, -0.03857380896806717, -0.022753480821847916, -0.006999721750617027, 0.02641817182302475, 0.0010858038440346718, 0.004222641699016094, -0.005096861626952887, -0.002773930551484227, -9.133089042734355e-05, 0.003792026313021779, -0.004720495548099279, 0.05879299342632294, -0.025230582803487778], [0.003264999482780695, -0.00968924444168806, 0.021065566688776016, 0.006006048992276192, 0.019696947187185287, 0.011438745073974133, -6.408870103769004e-05, 0.0003032084205187857, 0.0019156879279762506, -0.014077428728342056, 0.00571135338395834, 0.008525023236870766, 0.006138235330581665, 0.011187274008989334, 0.0060494462959468365, 0.0005905332509428263, 0.001219193683937192], [0.0026280549354851246, -0.004288624040782452, 0.01569111831486225, 0.002155665075406432, 0.004287289921194315, 0.006739502772688866, -3.288982406957075e-05, 0.00014067342272028327, 0.005734649486839771, -0.009732017293572426, -0.009393416345119476, 0.009316474199295044, 0.004025779664516449, 0.0053618187084794044, 0.005590842105448246, 3.65780942956917e-05, 0.0035005027893930674], [0.002984684193506837, -0.01100382674485445, 0.005711269099265337, 0.005642792675644159, 0.014398752711713314, 0.0069342488422989845, -6.053613833501004e-05, 4.16158109146636e-05, 0.003463643603026867, -0.0034492865670472383, 0.0014324106741696596, 0.014259397983551025, 0.01912393607199192, -0.016741827130317688, 0.006133690010756254, 4.186593741906108e-06, 0.0015317958313971758], [-0.006209975108504295, 0.0024789993185549974, -0.02166667953133583, -0.0196034274995327, -0.013341054320335388, -0.01170977670699358, 0.00010262919386150315, -0.00264333956874907, -0.0005912900669500232, 0.010777182877063751, -0.006760171614587307, -0.008117890916764736, -0.01826438680291176, -0.01016961969435215, -0.005856717471033335, -0.005881203804165125, -0.0012429755879566073], [-0.00440305145457387, 0.00791475735604763, -0.006539617665112019, -0.017645979300141335, -0.004070634488016367, -0.00830402597784996, -2.822254828060977e-05, -0.00031761432182975113, -0.0007686051540076733, 0.004215398337692022, -0.004704523831605911, -0.0065184831619262695, -0.019708888605237007, -0.012172475457191467, -0.00583954481408, -4.181913482170785e-06, -0.0017624900210648775], [-0.00613382225856185, 0.005116880405694246, -0.005813994910567999, -0.02144698239862919, -0.015428122133016586, -0.006777937989681959, 5.9703415900003165e-05, -0.00018926415941677988, -0.008911671116948128, 0.01272948645055294, 0.018459215760231018, -0.013148880563676357, -0.01941775530576706, -0.008133233524858952, -0.005712286569178104, -3.4934339055325836e-05, -0.002641091588884592], [0.0065684448927640915, -0.004570666700601578, 0.021878471598029137, 0.021458933129906654, 0.009913504123687744, 0.00671022105962038, -5.9710895584430546e-05, 0.00014083296991884708, 0.006273495499044657, 0.01061853114515543, 0.0005686222575604916, 0.014131858013570309, 0.022114917635917664, 0.009169909171760082, 0.009172329679131508, 0.0032891270238906145, 0.000572867807932198], [0.004506769590079784, -0.0022992989979684353, 0.00370466778986156, 0.015911145135760307, 0.016441017389297485, 0.008555580861866474, 7.720927897025831e-06, 0.00013779358414467424, 0.006680524442344904, -0.007975541986525059, -0.00563346641138196, 0.01616431213915348, 0.0021801618859171867, 0.008916843682527542, 0.006116360891610384, 8.624791917100083e-06, -0.017492923885583878], [0.004304589703679085, -0.003634667256847024, 0.025679199025034904, 0.03244272246956825, 0.019389232620596886, 0.00787218939512968, -3.3279273338848725e-05, 8.632281969767064e-05, 0.005615649279206991, -0.011157320812344551, 0.0027088234201073647, 0.00848123338073492, 0.029941193759441376, 0.005338572431355715, 0.004776026587933302, 0.00043671278399415314, 0.0022676559165120125], [-0.007551682647317648, 0.0029911177698522806, -0.022007981315255165, -0.005618550349026918, -0.006669966969639063, -0.007418714929372072, 3.420326902414672e-05, -0.00013327700435183942, -0.008664479479193687, 0.008804891258478165, -0.00192761211656034, -0.009100385010242462, -0.023182597011327744, -0.00724606541916728, -0.003836791031062603, -2.3043992769089527e-05, -0.0023166167084127665]], "sigmanet.nn.2.bias": [-0.006025263573974371, 0.039410825818777084, 0.08055926114320755, 0.09930922836065292, -0.04092034697532654, 0.01919381134212017, 0.027811219915747643, 0.01951691508293152, 0.13059470057487488, 0.11235816776752472, 0.027850903570652008, 0.0058471462689340115, -0.02712169475853443, -0.06857479363679886, 0.00465174438431859, 0.0760883018374443, -0.0867936909198761, -0.08876911550760269, -0.04897737130522728, -0.060191936790943146, -0.37946617603302, 0.19332255423069, 0.11042526364326477, 0.08025655895471573, -0.011181016452610493, 0.0034959870390594006, -0.05445815622806549, 0.004983892198652029, -0.06307747215032578, 0.022815441712737083, -0.0062843733467161655, 0.062240052968263626, 0.02931971289217472, 0.023601975291967392, 0.011837621219456196, 0.07836700975894928, 0.06842224299907684, 0.0797620415687561, 0.2635529935359955, 0.005581913981586695, 0.01326029933989048, -0.012481488287448883, 0.02893034555017948, -0.09477675706148148, -0.011534151621162891, 0.01287877932190895, 0.03214485943317413, -0.009514921344816685, 0.07826687395572662, 0.07430638372898102, -0.017819272354245186, -0.08342187106609344, -0.02848116308450699, 0.015789136290550232, 0.008818850852549076, -0.021040039137005806, 0.10294326394796371, -0.30853471159935, -0.002058408921584487, -0.02769416570663452, 0.0695706456899643, 0.06905021518468857, -0.0037979462649673223, -0.12106481194496155, -0.015521164052188396, -0.08057624846696854, -0.004653268028050661, -0.12287990003824234, -0.2814100384712219, 0.0935014933347702, 0.024974236264824867, 0.10221585631370544, 0.03919338807463646, 0.08676398545503616, -0.004262316040694714, -0.07630306482315063, 0.0020039533264935017, 0.012040391564369202, 0.11114206165075302, 0.05986279994249344, 0.015524838119745255, -0.02066017873585224, -0.09160535037517548, -0.0019271484343335032, -0.051225852221250534, -0.005945991259068251, 0.006709977984428406, 0.020739896222949028, -0.23169353604316711, 0.23103240132331848, -0.05313848331570625, 0.02097948268055916, -0.00716998428106308, 0.09216803312301636, 0.08512420207262039, 0.06838768720626831, 0.06906232982873917, -0.000977652962319553, 0.0037649970036000013, 0.042320553213357925, -0.034143880009651184, -0.10651487857103348, -0.015758082270622253, 0.10222164541482925, 0.03895651176571846, 0.02957594394683838, -0.023238610476255417, 0.006397731136530638, -0.004167977720499039, 0.13642984628677368, -0.04501742869615555, 0.06790665537118912, -0.01721199043095112, 0.002019889885559678, 0.04260578006505966, 0.05198021978139877, 0.049435559660196304, 0.14211612939834595, -0.017493722960352898, -0.019451765343546867, -0.034614820033311844, 0.019663365557789803, 0.013620230369269848, 0.08653916418552399, -0.07238510251045227, -0.01096824649721384, 0.003554971655830741, 0.13876084983348846], "sigmanet.nn.2.parametrizations.weight.original": [[5.175877959118225e-05, 0.006007820833474398, -0.008218185976147652, 0.007120119873434305, -0.012688903138041496, -0.0024412954226136208, -0.011463962495326996, -0.009681190364062786, -0.013559054583311081, 0.01457724068313837, 0.012688344344496727, 0.0022116254549473524, -0.017016498371958733, 6.768111779820174e-05, -0.014440363273024559, -0.013123595155775547, -0.016301484778523445, 0.010735169053077698, -0.0020894159097224474, 0.015452105551958084, -0.00972488708794117, 0.012735693715512753, 0.0021718128118664026, -0.007800521329045296, -0.005885848309844732, 0.00793549045920372, -0.011929059401154518, -0.0002714372822083533, -0.013749376870691776, 0.0059294383972883224, -0.001674179220572114, 0.00841573067009449, -0.01251986250281334, 0.01993740350008011, -0.014318801462650299, -0.0032798517495393753, -0.001729820971377194, -0.012737597338855267, -0.013494950719177723, 0.012110119685530663, -0.004693139810115099, -0.012720074504613876, 0.016181625425815582, 0.01563430018723011, -0.00950468797236681, 0.012469539418816566, 0.0009593957802280784, 0.005611736793071032, -0.013582923449575901, -0.0002689720713533461, 0.012844003736972809, 0.01350981555879116, -0.0001312830572715029, 0.015353750437498093, -0.014134886674582958, -0.011782354675233364, -0.014469478279352188, -0.01257660984992981, -0.01311233639717102, 0.007931174710392952, 0.0076149823144078255, 0.014730393886566162, -0.013314016163349152, 0.013999837450683117, -0.014699636027216911, 0.012848861515522003, -0.001912337844260037, 0.010822913609445095, -0.013663907535374165, 0.010598802007734776, -0.016303548589348793, 0.008173457346856594, 0.003866633865982294, 0.013288254849612713, -0.014958645217120647, 0.01302391942590475, -0.014967900700867176, -0.011409541592001915, 0.005831034388393164, 0.008023679256439209, -0.011212927289307117, 0.013815448619425297, -0.0019796821288764477, 0.00011823734530480579, -0.007671094033867121, 0.0024109461810439825, -0.007609139196574688, 0.01288542989641428, 0.0025373378302901983, 0.0018275459297001362, -0.01436771359294653, 0.002020510844886303, 0.013200015760958195, 0.0160860363394022, -0.008648316375911236, 0.004739538766443729, -0.004025125410407782, 0.0018061068840324879, -0.010647905990481377, 0.016591990366578102, -0.011153585277497768, 0.007133600767701864, -0.005207670386880636, 0.0028988844715058804, -0.014056690968573093, 0.009438740089535713, -0.01654544100165367, 0.012143924832344055, 0.014035654254257679, 0.004244880750775337, 3.1068942917045206e-05, 0.010922767221927643, -0.008418298326432705, 1.7978275081986794e-06, -0.007839294150471687, 0.015562379732728004, 8.5167856013868e-05, -0.01344470027834177, 0.011784453876316547, 0.01590990647673607, -0.0019832050893455744, 0.014569996856153011, -0.014244012534618378, -0.013842418789863586, 0.007759678643196821, 0.013347119092941284, -0.01446471270173788, 0.0016010416438803077], [0.0002605412737466395, -0.007261013146489859, 0.008071040734648705, -0.005128559656441212, 0.009870662353932858, 0.011173387989401817, 0.012225000187754631, 0.003593488596379757, 0.011313026770949364, -0.011390166357159615, -0.011384084820747375, -0.012288263067603111, 0.012326224707067013, -1.7435399058740586e-05, 0.011485462076961994, 0.0110628055408597, 0.011146469973027706, -0.009879881516098976, 0.01145197357982397, -0.002626227680593729, 0.012056718580424786, -0.0037517896853387356, -0.0037149719428271055, 0.008386232890188694, 0.01166514027863741, -0.002352983457967639, 0.012420480139553547, -6.0264446801738814e-05, 0.013715307228267193, -0.010762493126094341, 0.010963314212858677, -0.006470613181591034, 0.01105964183807373, -0.01172010600566864, 0.011700642295181751, 0.0020740479230880737, 0.011626937426626682, 0.002048515249043703, 0.011003490537405014, -0.012238092720508575, 0.007152273785322905, 0.011836910620331764, -0.011745305731892586, -0.012053756974637508, 0.012262261472642422, -0.005273427814245224, -0.0034687258303165436, -0.013814013451337814, 0.012219798751175404, 0.0003618328191805631, -0.004047084134072065, -0.01089110504835844, -1.4361258763528895e-05, -0.01187771838158369, 0.005995792802423239, 0.011723094619810581, 0.013251956552267075, 0.01325860247015953, 0.010747801512479782, -0.0016534810420125723, -0.009622571989893913, -0.01239604502916336, 0.009500203654170036, -0.012369448319077492, 0.012626269832253456, -0.010962639935314655, 0.012727341614663601, -0.011748203076422215, 0.010676227509975433, -0.010927657596766949, 0.006057679187506437, -0.009896510280668736, -0.013226941227912903, -0.011240527965128422, 0.0022699027322232723, -0.012090230360627174, 0.010898725129663944, 0.0128932548686862, -0.004473769571632147, -0.0031801408622413874, 0.010346943512558937, -0.00824064388871193, 0.01095626037567854, 2.1409418877738062e-06, 0.01124685537070036, -0.0024707706179469824, 0.01243892963975668, -0.012186401523649693, -0.002098928904160857, -0.012296793982386589, 0.0033613438718020916, -0.0019713151268661022, -0.010940855368971825, -0.0021106437779963017, 0.00698644807562232, -0.0123401815071702, 0.012531342916190624, -0.0006378436810337007, 0.011070985347032547, -0.012533226050436497, 0.011354314163327217, -0.01185035239905119, 0.011320153251290321, -0.010869553312659264, 0.011537044309079647, -0.009019223973155022, 0.011710889637470245, -0.007416170556098223, -0.0028299647383391857, -0.002899311250075698, -4.001663546659984e-05, -0.004309299401938915, 0.0065500782802701, 2.1461961296154186e-05, 0.005862098652869463, -0.01168405544012785, 0.00045143868192099035, 0.011884716339409351, -0.002535442356020212, -0.011390574276447296, 0.012136762961745262, -0.011646454222500324, 0.010938520543277264, 0.00264737312681973, -0.010999884456396103, -0.009171122685074806, 0.012074417434632778, -0.010244626551866531], [0.00010468024993315339, -0.002810603706166148, 0.008439646102488041, -0.00395001657307148, 0.012661190703511238, 0.013452754355967045, 0.015187881886959076, 0.017196713015437126, 0.015000213868916035, -0.016635116189718246, -0.012996094301342964, -0.00993737019598484, 0.017053013667464256, -6.780728290323168e-05, 0.016404209658503532, 0.002576964907348156, 0.016757573932409286, -0.01565711945295334, 0.0037104960065335035, -0.015302146784961224, 0.009637142531573772, -0.011535510420799255, -0.003393034217879176, 0.006226592697203159, 0.016544386744499207, -0.015233950689435005, 0.014404259622097015, -9.66481602517888e-05, 0.01673782989382744, -0.016911223530769348, 0.004401071462780237, -0.010095399804413319, 0.015773743391036987, -0.016814427450299263, 0.017369281500577927, 0.009794074110686779, 0.017762424424290657, 0.014623775146901608, 0.015125730074942112, -0.01503718364983797, 0.002652871422469616, 0.011312217451632023, -0.017618337646126747, -0.0038852354045957327, 0.013960640877485275, -0.0026858674827963114, -0.0011060209944844246, -0.015578805468976498, 0.016278965398669243, 0.0005596043774858117, -0.0029110959731042385, -0.014431817457079887, -1.9794339095824398e-05, -0.016594696789979935, 0.011811986565589905, 0.015503132715821266, 0.017531618475914, 0.00680209044367075, 0.015623653307557106, -0.01637907139956951, -0.009317733347415924, -0.01565682888031006, 0.002301361644640565, -0.014295642264187336, 0.0041581992991268635, -0.0020040548406541348, 0.012848708778619766, -0.015474059619009495, 0.015141040086746216, -0.015698278322815895, 0.017535468563437462, -0.015121235512197018, -0.004889242816716433, -0.0020505599677562714, 0.014340353198349476, -0.015572751872241497, 0.016941525042057037, 0.0136697543784976, -0.010906029492616653, -0.004818512126803398, 0.012949153780937195, -0.015077310614287853, 0.01518686581403017, 7.211962656583637e-05, 0.00551498681306839, -0.012684672139585018, 0.003173336386680603, -0.01619689352810383, -0.004371071234345436, -0.018120303750038147, 0.013104472309350967, -0.016036033630371094, -0.015196656808257103, -0.016888462007045746, 0.008562545292079449, -0.016040630638599396, 0.012174125760793686, -0.00031228395528160036, 0.015605253167450428, -0.016478953883051872, 0.007603312376886606, -0.014803524129092693, 0.005618727765977383, -0.015875831246376038, 0.014166741631925106, -0.008924956433475018, 0.0018607162637636065, -9.942535689333454e-05, -0.013777540996670723, -0.01480341050773859, -3.542795639077667e-06, -0.006525440141558647, 0.0051187085919082165, 1.1051079127355479e-05, 0.007055440917611122, -0.016027655452489853, 0.0004965593689121306, 0.0033096543047577143, -0.002818161156028509, -0.01778360828757286, 0.016979219391942024, -0.016795797273516655, 0.014720603823661804, 0.01558755710721016, -0.0152513412758708, -0.0022218653466552496, 0.003922071307897568, -0.015240541659295559], [-5.0278740673093125e-05, -0.006719986908137798, 0.0084574269130826, -0.007442759815603495, 0.011355143040418625, 0.004297018516808748, 0.014152539893984795, 0.015674874186515808, 0.011108634993433952, -0.011467265896499157, -0.013845485635101795, -0.013539435341954231, 0.014524416998028755, 5.1528979383874685e-05, 0.0029377099126577377, 0.011077400296926498, 0.011756716296076775, -0.012140223756432533, 0.01431836374104023, -0.015115082263946533, 0.010971786454319954, -0.009536989964544773, -0.002848086878657341, 0.008281243965029716, 0.01484164409339428, -0.001927368575707078, 0.013080110773444176, 0.0006595847080461681, 0.012464293278753757, -0.0016855462454259396, 0.010726350359618664, -0.010840406641364098, 0.012675711885094643, -0.0016178603982552886, 0.015180033631622791, 0.009612834081053734, 0.015702184289693832, 0.007646176498383284, 0.012420730665326118, -0.014374044723808765, 0.013264700770378113, 0.011905635707080364, -0.013075737282633781, -0.013618194498121738, 0.00892623607069254, -0.008105648681521416, -0.001206064480356872, -0.014163952320814133, 0.01509634219110012, 0.0004250197671353817, -0.005601997021585703, -0.012716744095087051, -1.3794989172311034e-05, -0.014516061171889305, 0.013152667321264744, 0.012242380529642105, 0.014215282164514065, 0.012064789421856403, 0.0024100071750581264, -0.0017351435963064432, -0.009773284196853638, -0.0026469440199434757, 0.013338595628738403, -0.013530981726944447, 0.014206870459020138, -0.008028685115277767, 0.01565723493695259, -0.01422919426113367, 0.007688572164624929, -0.004785093013197184, 0.015680937096476555, -0.011586406268179417, -0.0041051022708415985, -0.0019046943634748459, 0.0034650126472115517, -0.0021533342078328133, 0.003647272242233157, 0.0067907641641795635, -0.011192512698471546, -0.010368901304900646, 0.004722740966826677, -0.01278835441917181, 0.007266103755682707, -4.9704463890520856e-05, 0.0021430845372378826, -0.012045054696500301, 0.003219251288101077, -0.007351705804467201, -0.014492236077785492, -0.014530832879245281, 0.004718237090855837, -0.013497607782483101, -0.013360070064663887, -0.014843327924609184, 0.009683104231953621, -0.011897475458681583, 0.009136684238910675, 3.789517722907476e-05, 0.002901101252064109, -0.0023524845018982887, 0.010205252096056938, -0.012220381759107113, 0.007329106796532869, -0.01460899319499731, 0.012966154143214226, -0.008726349100470543, 0.012688057497143745, -0.010578665882349014, -0.0028087040409445763, -0.0028062262572348118, -9.056222188519314e-05, -0.005178237333893776, 0.006011221092194319, 0.00010771438246592879, 0.011862830258905888, -0.014040862210094929, 0.0004528844146989286, 0.0025624053087085485, -0.012097714468836784, -0.013627501204609871, 0.014567684382200241, -0.01322426088154316, 0.01377163827419281, 0.0024833327624946833, -0.012839583680033684, -0.012832004576921463, 0.007829924114048481, -0.01212751492857933], [-0.0003210638533346355, 0.006230859085917473, -0.0088140107691288, 0.005184888374060392, -0.009554652497172356, -0.012405436486005783, -0.010528824292123318, -0.006307427305728197, -0.01157870888710022, 0.01086199376732111, 0.012842550873756409, 0.01144937239587307, -0.0019356610719114542, -8.751043787924573e-05, -0.006944350432604551, -0.01184744480997324, -0.01220477931201458, 0.011425654403865337, -0.012284952215850353, 0.012254802510142326, -0.011391839012503624, 0.005854726769030094, 0.0035736598074436188, -0.00826573558151722, -0.001663479837588966, 0.010736456140875816, -0.00537359993904829, -8.469253225484863e-05, -0.013071591034531593, 0.003786900546401739, -0.0015696034533903003, 0.010323848575353622, -0.010898375883698463, 0.01167207956314087, -0.012194301933050156, -0.006976147647947073, -0.0115053104236722, -0.011085483245551586, -0.01149893831461668, 0.012126167304813862, -0.01097885426133871, -0.012455519288778305, 0.002544355345889926, 0.011468390934169292, -0.012783292680978775, 0.0024167324882000685, 0.01120478194206953, 0.013414670713245869, -0.013631452806293964, -0.00042676119483076036, 0.01243322342634201, 0.009214192628860474, 1.8880438801716082e-05, 0.003985427785664797, -0.010459808632731438, -0.0026835997123271227, -0.0032436309847980738, -0.006676511839032173, -0.011961600743234158, 0.011145061813294888, 0.008885695599019527, 0.012369452975690365, -0.010963180102407932, 0.012949014082551003, -0.012757495976984501, 0.00558925187215209, -0.012971245683729649, 0.0022741141729056835, -0.011019819416105747, 0.011985013261437416, -0.011573637835681438, 0.001987757859751582, 0.005954768508672714, 0.011172899045050144, -0.011877366341650486, 0.011836867779493332, -0.011293835937976837, -0.014357373118400574, 0.010525922290980816, 0.013161239214241505, -0.005943204276263714, 0.011842397972941399, -0.0022654831409454346, 3.377896064193919e-05, -0.011853457428514957, 0.011520289815962315, -0.012948437593877316, 0.012770756147801876, 0.010934294201433659, 0.01131727360188961, -0.012342885136604309, 0.01283031515777111, 0.011877201497554779, 0.013293633237481117, -0.010278432630002499, 0.012064107693731785, -0.005943721160292625, 0.0015267259441316128, -0.012493639253079891, 0.01272712741047144, -0.012217625975608826, 0.013145878911018372, -0.01042255386710167, 0.011324568651616573, -0.0052894102409482, 0.010025594383478165, -0.009601733647286892, 0.010076774284243584, 0.007449098397046328, 0.0049269297160208225, -6.552143167937174e-05, 0.01109202392399311, -0.007727706339210272, 1.1324120805511484e-06, -0.006636473350226879, 0.011244569905102253, -0.00025843502953648567, -0.004803767893463373, 0.0026929478626698256, 0.00991785991936922, -0.002088783774524927, 0.011763198301196098, -0.0109569001942873, -0.012339766137301922, 0.004704432096332312, 0.012037240900099277, -0.012788488529622555, 0.012708288617432117], [-4.504372918745503e-05, -0.005062719341367483, 0.0029923338443040848, -0.0043174889869987965, 0.013824911788105965, 0.014077064581215382, 0.014500326476991177, 0.004053794778883457, 0.01292348187416792, -0.00993006769567728, -0.013784517534077168, -0.012620951049029827, 0.010569630190730095, 9.052815585164353e-05, 0.013793282210826874, 0.013631032779812813, 0.015103709883987904, -0.014736237935721874, 0.014874674379825592, -0.0026526227593421936, 0.010832104831933975, -0.010164881125092506, -0.015937265008687973, 0.008099892176687717, 0.0018020330462604761, -0.014267918653786182, 0.013380592688918114, -8.857414650265127e-05, 0.014087270945310593, -0.01536841131746769, 0.0017262129113078117, -0.00937645509839058, 0.013394140638411045, -0.01600683480501175, 0.016201196238398552, 0.009780029766261578, 0.016268661245703697, 0.014122379943728447, 0.013911927118897438, -0.009816035628318787, 0.004856981802731752, 0.014852446503937244, -0.01142208557575941, -0.01631692610681057, 0.013879003003239632, -0.014246359467506409, -0.013530028983950615, -0.008701765909790993, 0.01460074819624424, 0.00034726393641903996, -0.013264003209769726, -0.014534246176481247, -2.4050292267929763e-05, -0.0029378014151006937, 0.0020562862046062946, 0.014535757713019848, 0.01618807576596737, 0.010716664604842663, 0.013731886632740498, -0.01522515807300806, -0.009317798539996147, -0.014381111599504948, 0.01332141738384962, -0.003023737808689475, 0.014154629781842232, -0.014815148897469044, 0.0023511070758104324, -0.003584760706871748, 0.01146080531179905, -0.0057287877425551414, 0.015691334381699562, -0.015815366059541702, -0.009991616010665894, -0.0020586508326232433, 0.014714301563799381, -0.014261883683502674, 0.0030083933379501104, 0.0037936358712613583, -0.009676859714090824, -0.014658688567578793, 0.012736420147120953, -0.013255677185952663, 0.014221287332475185, -0.00011667521903291345, 0.0029413450974971056, -0.014929832890629768, 0.017321575433015823, -0.013414546847343445, -0.007037149276584387, -0.01708635501563549, 0.014679279178380966, -0.015457172878086567, -0.01453403476625681, -0.014004450291395187, 0.006339908577501774, -0.013379521667957306, 0.009917070157825947, -0.0033870497718453407, 0.006820802576839924, -0.01499017421156168, 0.0034054680727422237, -0.005017824005335569, 0.013386725448071957, -0.01367717795073986, 0.01298824418336153, -0.008580422960221767, 0.015289977192878723, -8.637205610284582e-05, -0.0029071164317429066, -0.014260237105190754, -4.0244151023216546e-05, -0.003956136293709278, 0.006983535829931498, -5.419696026365273e-05, 0.005356023088097572, -0.010832712985575199, 4.850611003348604e-05, 0.015114249661564827, -0.01386722456663847, -0.012586588971316814, 0.014179123565554619, -0.014931317418813705, 0.014006564393639565, 0.0022380014415830374, -0.003754395293071866, -0.011911381036043167, 0.005891976412385702, -0.004667180590331554], [0.00034744307049550116, -0.006713712587952614, 0.005609768442809582, -0.00556147750467062, 0.011874171905219555, 0.013463190756738186, 0.011763723567128181, 0.003974077291786671, 0.011407619342207909, -0.011417897418141365, -0.013280834071338177, -0.013951045460999012, 0.002690789522603154, -3.448133065830916e-05, 0.01260114274919033, 0.014040443114936352, 0.013257664628326893, -0.010354503989219666, 0.013507144525647163, -0.013927031308412552, 0.011638722382485867, -0.006167422980070114, -0.0011780235217884183, 0.00851769745349884, 0.0017152057262137532, -0.0025819088332355022, 0.0031621416565030813, 0.00013499415945261717, 0.014377696439623833, -0.010331204161047935, 0.0017026730347424746, -0.009449852630496025, 0.012794183567166328, -0.0016420724568888545, 0.010363019071519375, 0.012666560709476471, 0.012408695183694363, 0.0028603412210941315, 0.00708245113492012, -0.01272248663008213, 0.012302360497415066, 0.013522434048354626, -0.014850285835564137, -0.013696125708520412, 0.003369889222085476, -0.0023613939993083477, -0.017029155045747757, -0.014209263026714325, 0.013085562735795975, 2.8673524866462685e-05, -0.01189553365111351, -0.012105118483304977, -7.559361984021962e-05, -0.012927486561238766, 0.0064556230790913105, 0.013299781829118729, 0.014143216423690319, 0.011027541942894459, 0.012158848345279694, -0.0020555860828608274, -0.008978776633739471, -0.013713283464312553, 0.01187331136316061, -0.014811337925493717, 0.013785776682198048, -0.013659737072885036, 0.014088873751461506, -0.014544803649187088, 0.005476645193994045, -0.012992261908948421, 0.0019405295606702566, -0.01367908250540495, -0.011592606082558632, -0.012463264167308807, 0.013411469757556915, -0.014735185541212559, 0.012205232866108418, 0.0020016601774841547, -0.00997672975063324, -0.008012139238417149, 0.00369818601757288, -0.002516815671697259, 0.011424573138356209, 7.872117748775054e-06, 0.012327794916927814, -0.002902458654716611, 0.01542192604392767, -0.01321492251008749, -0.013355005532503128, -0.002595537807792425, 0.0021469970233738422, -0.0028724847361445427, -0.013786731287837029, -0.0021663408260792494, 0.006708088330924511, -0.012937435880303383, 0.005194166675209999, -0.0006513559492304921, 0.013799394480884075, -0.002315744524821639, 0.013363116420805454, -0.014798006974160671, 0.0116136334836483, -0.012751263566315174, 0.012362985871732235, -0.008503243327140808, 0.013485551811754704, -0.011792151257395744, -0.014394612982869148, -0.014423086307942867, 6.824996671639383e-05, -0.011865086853504181, 0.009678239934146404, -2.585746369732078e-05, 0.010095846839249134, -0.013227345421910286, 0.00019840455206576735, 0.01054963655769825, -0.014067561365664005, -0.002312593162059784, 0.00235939328558743, -0.002506931545212865, 0.006784667260944843, 0.013728822581470013, -0.00283197034150362, -0.013361007906496525, 0.014129468239843845, -0.014215703122317791], [-0.0002082786086248234, -0.004904833622276783, 0.00878128968179226, -0.011405416764318943, 0.0021102293394505978, 0.013371766544878483, 0.013081226497888565, 0.014291271567344666, 0.012561685405671597, -0.013098233379423618, -0.0038150972686707973, -0.0021309000439941883, 0.00595439737662673, -3.4221728128613904e-05, 0.01350129023194313, 0.013668696396052837, 0.014164518564939499, -0.002095346339046955, 0.003495411714538932, -0.013481342233717442, 0.010502549819648266, -0.0073518273420631886, -0.008193271234631538, 0.008428589440882206, 0.013504971750080585, -0.013401169329881668, 0.002955090021714568, -0.0001676787214819342, 0.00725520821288228, -0.0039334483444690704, 0.008672012016177177, -0.008671187795698643, 0.012293603271245956, -0.001633121632039547, 0.012800848111510277, 0.011857401579618454, 0.013792353682219982, 0.013200872577726841, 0.0024924706667661667, -0.013381265103816986, 0.001999819418415427, 0.012728250585496426, -0.01395367830991745, -0.013171755708754063, 0.014575253240764141, -0.005703852977603674, -0.008782091550529003, -0.014178233221173286, 0.014026161283254623, 0.00041888479609042406, -0.011775474064052105, -0.01267882902175188, 0.0001195883669424802, -0.010382132604718208, 0.002125481143593788, 0.013914195820689201, 0.014467433094978333, 0.010045328177511692, 0.00880201905965805, -0.01289945375174284, -0.009703442454338074, -0.013545364141464233, 0.013287520967423916, -0.014865691773593426, 0.0037516180891543627, -0.013686947524547577, 0.014185486361384392, -0.014018699526786804, 0.00973875354975462, -0.00563165545463562, 0.0018326702993363142, -0.010244074277579784, -0.013276798650622368, -0.012694098055362701, 0.0022198103833943605, -0.01418340764939785, 0.001968072261661291, 0.013691662810742855, -0.010068999603390694, -0.005934512242674828, 0.0075864945538342, -0.012351290322840214, 0.012337284162640572, 5.173101453692652e-05, 0.012036530300974846, -0.0027826044242829084, 0.014490481466054916, -0.0049241394735872746, -0.0022643590345978737, -0.005830614827573299, 0.011079387739300728, -0.014061059802770615, -0.005982561502605677, -0.003647739766165614, 0.006488550920039415, -0.0076343524269759655, 0.005365034565329552, -0.0003403961018193513, 0.011853576637804508, -0.014491526409983635, 0.009035029448568821, -0.013565014116466045, 0.011430131271481514, -0.013255814090371132, 0.010989643633365631, -0.009050926193594933, 0.0018771408358588815, -0.01101703941822052, -0.013619057834148407, -0.011236261576414108, -3.5803816444968106e-06, -0.01171377208083868, 0.005731232929974794, 2.9448156055877917e-05, 0.00922283437103033, -0.013739627785980701, 0.0004258384869899601, 0.012310859747231007, -0.012398636899888515, -0.013914651237428188, 0.013615928590297699, -0.012810304760932922, 0.0017725819488987327, 0.012565298937261105, -0.013075157068669796, -0.012931490316987038, 0.0035024527460336685, -0.01427664328366518], [-0.00023002285161055624, -0.0057928734458982944, 0.009816399775445461, -0.006466798484325409, 0.012641324661672115, 0.009923430159687996, 0.0031219327356666327, 0.018088458105921745, 0.010190977714955807, -0.011369339190423489, -0.01437617652118206, -0.0036070127971470356, 0.014780187979340553, -7.516234472859651e-05, 0.01474783755838871, 0.0105565395206213, 0.0022736054379493, -0.007244905922561884, 0.008214502595365047, -0.01647297665476799, 0.00688371155411005, -0.0036498727276921272, -0.003794205840677023, 0.006340720225125551, 0.018810082226991653, -0.014369974844157696, 0.0034934398718178272, -8.441737736575305e-05, 0.0007879358599893749, -0.015979519113898277, 0.015623308718204498, -0.0028990209102630615, 0.01399093959480524, -0.019432315602898598, 0.01923130266368389, 0.007959239184856415, 0.0017451158491894603, 0.015891555696725845, 0.013971815817058086, -0.015232082456350327, 0.014728866517543793, 0.013750530779361725, -0.006270351354032755, -0.0185142382979393, 0.007209382019937038, -0.012541058473289013, -0.007704829331487417, -0.006235942710191011, 0.002920557511970401, 0.0002884848800022155, -0.003253430826589465, -0.014815403148531914, 0.0001222512946696952, -0.015523562207818031, 0.015939317643642426, 0.017030581831932068, 0.002112641930580139, 0.011118108406662941, 0.012711056508123875, -0.014559773728251457, -0.0100473053753376, -0.01439763605594635, 0.01321311667561531, -0.01616816781461239, 0.014275800436735153, -0.013661599718034267, 0.017195669934153557, -0.01616286300122738, 0.008372181095182896, -0.012415111996233463, 0.01676948554813862, -0.002093186369165778, -0.014296852983534336, -0.015609382651746273, 0.014803172089159489, -0.018400773406028748, 0.015500115230679512, 0.011235648766160011, -0.009817984886467457, -0.014149622060358524, 0.01099005714058876, -0.013997575268149376, 0.0021276099141687155, -0.00011790602002292871, 0.002086830325424671, -0.015875987708568573, 0.007726671639829874, -0.002608669688925147, -0.01637844555079937, -0.020303374156355858, 0.013690543361008167, -0.01778506115078926, -0.0019113275920972228, -0.002135579939931631, 0.01045424584299326, -0.011255213990807533, 0.016400452703237534, -0.000728621322195977, 0.013438621535897255, -0.01735890656709671, 0.012793348170816898, -0.0151602728292346, 0.011955068446695805, -0.016154063865542412, 0.014805651269853115, -0.009030000306665897, 0.014794154092669487, -0.021830419078469276, -0.0033490618225187063, -0.018058206886053085, -8.743176294956356e-06, -0.008323922753334045, 0.009328954853117466, 4.611481199390255e-05, 0.005106851924210787, -0.01537298783659935, 0.00018584054487291723, 0.014869512058794498, -0.0025760354474186897, -0.016458187252283096, 0.0022809014189988375, -0.016311069950461388, 0.015127417631447315, 0.0027896093670278788, -0.015355393290519714, -0.01683409884572029, 0.0019598014187067747, -0.015835443511605263], [-0.0002105576277244836, -0.0030117349233478308, 0.0014040201203897595, -0.0059991744346916676, 0.01068146713078022, 0.009502437897026539, 0.003328392980620265, 0.0018684291280806065, 0.008118988014757633, -0.005810980219393969, -0.008960474282503128, -0.009108551777899265, 0.0022960007190704346, 6.0905033024027944e-05, 0.006634295918047428, 0.013734250329434872, 0.0019778604619205, -0.002881475491449237, 0.0037061062175780535, -0.003982861060649157, 0.005834802519530058, -0.014454995281994343, -0.002958638360723853, 0.00945231318473816, 0.0018469757633283734, -0.004125947132706642, 0.004347722977399826, -3.182411819580011e-05, 0.0036609116941690445, -0.002806030912324786, 0.0010169093729928136, -0.011249305680394173, 0.0034558395855128765, -0.003883217927068472, 0.002069090260192752, 0.00016876608424354345, 0.001541052246466279, 0.0032729501836001873, 0.007340075448155403, -0.012498605996370316, 0.0035714658442884684, 0.006248545832931995, -0.0014639634173363447, -0.005169186275452375, 0.0029701758176088333, -0.0007641593110747635, -0.0019253002246841788, -0.003255368210375309, 0.002696168841794133, 0.000365106068784371, -0.003546970197930932, -0.005749410949647427, -7.512388401664793e-05, -0.00219239410944283, 0.0023447114508599043, 0.0017788412515074015, 0.0051079378463327885, 0.01155872829258442, 0.001132320612668991, -0.005155731458216906, -0.009974592365324497, -0.002669557696208358, 0.003737260587513447, -0.006943560671061277, 0.005215062759816647, -0.0023457645438611507, 0.0023215757682919502, -0.016463307663798332, 0.007347416132688522, -0.0005626603378914297, 0.0026797757018357515, -0.0017825380200520158, -0.008080811239778996, -0.0012399395927786827, 0.0027383710257709026, -0.0014100661501288414, 0.004363361746072769, 0.012516968883574009, -0.006228887476027012, -0.0076688374392688274, 0.00649881549179554, -0.011649983935058117, 0.014233511872589588, -0.00031058595050126314, 0.008727707900106907, -0.00837125163525343, 0.002102198079228401, -0.0040975287556648254, -0.0021514794789254665, -0.001979683293029666, 0.002931952243670821, -0.0019150875741615891, -0.003407147014513612, -0.0005815263139083982, 0.008605582639575005, -0.003098440822213888, 0.004072682932019234, -0.01420300081372261, 0.003239620476961136, -0.003964533098042011, 0.005283951759338379, -0.010602082125842571, 0.006506860721856356, -0.002780257724225521, 0.009821220301091671, -0.008338868618011475, 0.001519448938779533, -0.000595454650465399, -0.0028270019683986902, -0.004679802805185318, -9.002934530144557e-05, -0.005188977811485529, 0.0053758760914206505, 0.00010301204747520387, 0.005914733279496431, -0.0036860457621514797, 0.00013597472570836544, 0.0033179521560668945, -0.017242731526494026, -0.00403593759983778, 0.0022458808962255716, -0.0014153241645544767, 0.004108038730919361, 0.012910743243992329, -0.0016912559513002634, -0.01035437360405922, 0.002852905308827758, -0.0015757199143990874], [-9.959009184967726e-05, -0.0017283973284065723, 0.009036923758685589, -0.004958270583301783, 0.010819726623594761, 0.011605624109506607, 0.011304669082164764, 0.001947504933923483, 0.011272029019892216, -0.006638576276600361, -0.01204625517129898, -0.011784234084188938, 0.005958499852567911, 3.890539119311143e-06, 0.0026435155887156725, 0.0021581435576081276, 0.01172266248613596, -0.0110002551227808, 0.012152404524385929, -0.012938803061842918, 0.010794923640787601, -0.010948154143989086, -0.002583621069788933, 0.013974991627037525, 0.010910125449299812, -0.010695896111428738, 0.011254498735070229, 0.0004148489097133279, 0.012361014261841774, -0.010610304772853851, 0.006682609673589468, -0.00714648375287652, 0.01127619855105877, -0.010421023704111576, 0.002672766335308552, 0.008543646894395351, 0.0017642348539084196, 0.011070076376199722, 0.011971240863204002, -0.011363755911588669, 0.012261106632649899, 0.012144222855567932, -0.011785122565925121, -0.011906429193913937, 0.003239924320951104, -0.0057546901516616344, -0.0010067168623209, -0.013646012172102928, 0.012718938291072845, 0.0003103138296864927, -0.0026481556706130505, -0.010923114605247974, 0.00012315281492192298, -0.0022839047014713287, 0.011363787576556206, 0.012678613886237144, 0.012776756659150124, 0.004707526881247759, 0.0026623017620295286, -0.011102438904345036, -0.009233773685991764, -0.004402882885187864, 0.009850793518126011, -0.0054542734287679195, 0.012915648519992828, -0.01134690921753645, 0.0123605290427804, -0.01241462305188179, 0.011679102666676044, -0.011141583323478699, 0.012510447762906551, -0.010547749698162079, -0.011544483713805676, -0.01177017018198967, 0.012573441490530968, -0.01133046392351389, 0.011706621386110783, 0.0012612002901732922, -0.009954458102583885, -0.013041423633694649, 0.004109442234039307, -0.010581341572105885, 0.010603398084640503, 3.196469333488494e-05, 0.011700112372636795, -0.002757612382993102, 0.00197206879965961, -0.013326135464012623, -0.0028216997161507607, -0.011993475258350372, 0.011522968299686909, -0.011980520561337471, -0.010708757676184177, -0.012583247385919094, 0.009592989459633827, -0.012704790569841862, 0.012140637263655663, -0.0002863085246644914, 0.011518670246005058, -0.002582488814368844, 0.011873424984514713, -0.012367481365799904, 0.0120032774284482, -0.002142164623364806, 0.01070848386734724, -0.0076475017704069614, 0.012032960541546345, -0.0037652438040822744, -0.013504600152373314, -0.011934874579310417, -1.1435517080826685e-05, -0.0037403267342597246, 0.003753040684387088, 0.00010931069118669257, 0.00767715647816658, -0.012158644385635853, 9.638044139137492e-05, 0.012116705998778343, -0.002578583313152194, -0.012112612836062908, 0.010856770910322666, -0.012277941219508648, 0.010755053721368313, 0.002291221171617508, -0.012365162372589111, -0.011320933699607849, 0.012105411849915981, -0.0021701338700950146], [3.056961941183545e-05, -0.007154679391533136, 0.009452391415834427, -0.010598307475447655, 0.012463890947401524, 0.013427314348518848, 0.012326287105679512, 0.01540155429393053, 0.010271633975207806, -0.010479309596121311, -0.003717689076438546, -0.0052577233873307705, 0.013583735562860966, -1.536408490210306e-05, 0.012639982625842094, 0.013346678577363491, 0.0016944260569289327, -0.001944751013070345, 0.014585996977984905, -0.014996624551713467, 0.005098798777908087, -0.01083021704107523, -0.01221355888992548, 0.007492251228541136, 0.015342053025960922, -0.01279213186353445, 0.012215130031108856, -9.917526040226221e-05, 0.01027498859912157, -0.01427258551120758, 0.01124797947704792, -0.009448912926018238, 0.012398317456245422, -0.015340793877840042, 0.0025790948420763016, 0.008362850174307823, 0.015648001804947853, 0.014325020834803581, 0.013540198095142841, -0.014179968275129795, 0.0022789379581809044, 0.009231407195329666, -0.016970068216323853, -0.01440977118909359, 0.004008561372756958, -0.013114512898027897, -0.005902110133320093, -0.004925288259983063, 0.013393792323768139, 0.00011265036300756037, -0.0126400301232934, -0.00438574468716979, 5.732688350690296e-06, -0.0131760835647583, 0.014278816990554333, 0.002704865764826536, 0.015557180158793926, 0.00859612412750721, 0.0030000312253832817, -0.0019858006853610277, -0.009842476807534695, -0.004322977736592293, 0.002275055041536689, -0.003001449629664421, 0.014713144861161709, -0.012464141473174095, 0.015425612218677998, -0.015422235243022442, 0.007110308390110731, -0.008768415078520775, 0.015249719843268394, -0.014873402193188667, -0.0049672238528728485, -0.0134148970246315, 0.005546180531382561, -0.014940664172172546, 0.002043082844465971, 0.0014273214619606733, -0.004411568399518728, -0.010376491583883762, 0.010777333751320839, -0.011888223700225353, 0.0024981314782053232, -0.00011659806477837265, 0.01376273948699236, -0.014109272509813309, 0.01545788999646902, -0.003129318356513977, -0.0020098325330764055, -0.016763810068368912, 0.011981992982327938, -0.01563643477857113, -0.0025420859456062317, -0.014576397836208344, 0.00976378284394741, -0.011543260887265205, 0.014483822509646416, -0.002902985317632556, 0.012742063961923122, -0.002221146132797003, 0.008752325549721718, -0.01316479966044426, 0.006188062019646168, -0.01239094790071249, 0.013229022733867168, -0.009714881889522076, 0.0016052662394940853, -0.015185423195362091, -0.014902648515999317, -0.014849287457764149, -4.902001455775462e-05, -0.007855958305299282, 0.005639109760522842, 4.5527980546467006e-05, 0.009743278846144676, -0.0126108443364501, 0.00019392126705497503, 0.013067875988781452, -0.0026282237377017736, -0.0040086242370307446, 0.01470399834215641, -0.013173703104257584, 0.013126339763402939, 0.009365806356072426, -0.014628887176513672, -0.007813735865056515, 0.013225470669567585, -0.014101819135248661], [-0.00023525540018454194, 0.002064851112663746, -0.008642580360174179, 0.0034727558959275484, -0.01066339947283268, -0.006129106972366571, -0.012717126868665218, -0.012076477520167828, -0.012058106251060963, 0.0066445209085941315, 0.013323839753866196, 0.013413294218480587, -0.012227247469127178, 3.371490674908273e-05, -0.012774272821843624, -0.01155322790145874, -0.012311453931033611, 0.00290505844168365, -0.011864442378282547, 0.013073944486677647, -0.011860650032758713, 0.010014621540904045, 0.010998966172337532, -0.007918515242636204, -0.012086296454071999, 0.011584630236029625, -0.01204079482704401, 0.00014836872287560254, -0.015057584270834923, 0.011688713915646076, -0.011321716010570526, 0.007930382154881954, -0.012825541198253632, 0.012547656893730164, -0.01247341837733984, -0.008176581934094429, -0.011468008160591125, -0.0021528226789087057, -0.009724996984004974, 0.0029900535009801388, -0.001981979701668024, -0.013486329466104507, 0.01255000289529562, 0.013268968090415001, -0.0032576266676187515, 0.011882202699780464, 0.0005653349799104035, 0.013584448955953121, -0.0025972253642976284, -0.0003667722921818495, 0.01178719662129879, 0.0031648834701627493, -5.32672529516276e-05, 0.012002874165773392, -0.004067780449986458, -0.013060560449957848, -0.01445621158927679, -0.01176526676863432, -0.013067652471363544, 0.011379540897905827, 0.009854870848357677, 0.0027138139121234417, -0.011465081013739109, 0.002489193342626095, -0.013485313393175602, 0.003533425973728299, -0.013143109157681465, 0.008372676558792591, -0.009920407086610794, 0.011892442591488361, -0.002210253616794944, 0.011677230708301067, 0.01196373626589775, 0.011258072219789028, -0.0029945445712655783, 0.003661280032247305, -0.002390865935012698, -0.010450060479342937, 0.006876576691865921, 0.013522608205676079, -0.012042603455483913, 0.011632557958364487, -0.0021214873995631933, -4.12740082538221e-05, -0.0021160475444048643, 0.0067987809889018536, -0.013610013760626316, 0.012545625679194927, 0.011402169242501259, 0.005933648440986872, -0.011912389658391476, 0.013925855979323387, 0.0028071480337530375, 0.013277237303555012, -0.010494227521121502, 0.0129715446382761, -0.009863165207207203, 0.000680214143358171, -0.010832112282514572, 0.007687058765441179, -0.012669271789491177, 0.013521740213036537, -0.004604186397045851, 0.0024062420707195997, -0.002299406798556447, 0.008726541884243488, -0.011808918789029121, 0.010490598157048225, 0.013029479421675205, 0.011010807938873768, 3.0351449822774157e-05, 0.010820596478879452, -0.00951507966965437, 5.048024149800767e-07, -0.0049297702498734, 0.012828361243009567, 2.884712785089505e-06, -0.011548959650099277, 0.011928577907383442, 0.002976631047204137, -0.011449619196355343, 0.0021363277919590473, -0.010960189625620842, -0.012506261467933655, 0.009876103140413761, 0.01255735382437706, -0.012222102843225002, 0.012666520662605762], [4.954432006343268e-05, 0.0073701366782188416, -0.004652565810829401, 0.01068545039743185, -0.014453114941716194, -0.013407580554485321, -0.01643989607691765, -0.0028192659374326468, -0.002958081429824233, 0.016295239329338074, 0.013505903072655201, 0.016496604308485985, -0.0019152010791003704, 3.506644134176895e-05, -0.013030110858380795, -0.011099078692495823, -0.018393192440271378, 0.015253330580890179, -0.015439486131072044, 0.0028051750268787146, -0.012852543033659458, 0.006400833372026682, 0.0035400232300162315, -0.0066337259486317635, -0.0017264442285522819, 0.015390678308904171, -0.013602947816252708, 9.952273831004277e-05, -0.010820177383720875, 0.017181726172566414, -0.01341945119202137, 0.008879552595317364, -0.002228007186204195, 0.01942281424999237, -0.018077176064252853, -0.006354042794555426, -0.019114423543214798, -0.013991504907608032, -0.003055489156395197, 0.015246075578033924, -0.016072768718004227, -0.017139684408903122, 0.018965115770697594, 0.019247960299253464, -0.015405123122036457, 0.010244257748126984, 0.01581406593322754, 0.01524579431861639, -0.009163285605609417, -0.00027502860757522285, 0.015893878415226936, 0.014577839523553848, 0.00021709899010602385, 0.017416855320334435, -0.016856230795383453, -0.01410172414034605, -0.017839577049016953, -0.006111635826528072, -0.014687604270875454, 0.01592445932328701, 0.00931495614349842, 0.015593881718814373, -0.016656944528222084, 0.014549530111253262, -0.0020876163616776466, 0.002643024316057563, -0.018575143069028854, 0.01619601808488369, -0.012490928173065186, 0.013921830803155899, -0.0019524096278473735, 0.014875339344143867, 0.012602372094988823, 0.01613861322402954, -0.015492033213376999, 0.015636824071407318, -0.002536972751840949, -0.011361084878444672, 0.010570308193564415, 0.01616489514708519, -0.015314971096813679, 0.015312199480831623, -0.014077113009989262, 0.00014988024486228824, -0.015765300020575523, 0.015921451151371002, -0.018510665744543076, 0.01618390530347824, 0.01703580468893051, 0.001970356097444892, -0.015367495827376842, 0.01570708677172661, 0.016154026612639427, 0.017184613272547722, -0.008660200983285904, 0.015122503973543644, -0.007272857706993818, 0.0006762094562873244, -0.0038843294605612755, 0.016984667629003525, -0.0058780573308467865, 0.014047972857952118, -0.012858567759394646, 0.016569994390010834, -0.015037362463772297, 0.010649754665791988, -0.007373074535280466, 0.0005098413676023483, 0.014273478649556637, 0.0019055004231631756, -8.080132101895288e-05, 0.01599263586103916, -0.005483238026499748, -4.3632189772324637e-05, -0.012641647830605507, 0.01679498702287674, -2.017770202655811e-05, -0.01770198717713356, 0.01201821118593216, 0.0030163780320435762, -0.017215950414538383, 0.0160745270550251, -0.01638331636786461, -0.0023195738904178143, 0.012774040922522545, 0.015661126002669334, -0.018089251592755318, 0.015001455321907997], [0.00010135848424397409, -0.005247388035058975, 0.00855296477675438, -0.007078300695866346, 0.009148872457444668, 0.014258177019655704, 0.002143069403246045, 0.017154354602098465, 0.012782118283212185, -0.015150155872106552, -0.013697589747607708, -0.016543671488761902, 0.016334906220436096, -1.6689573385519907e-05, 0.0049539231695234776, 0.015713954344391823, 0.010251615196466446, -0.01180591993033886, 0.015450606122612953, -0.003344925120472908, 0.012838960625231266, -0.007021761033684015, -0.015607363544404507, 0.008876881562173367, 0.019247179850935936, -0.015029815025627613, 0.005691982805728912, 0.0005692910053767264, 0.010904808528721333, -0.017223240807652473, 0.012023380026221275, -0.010711358860135078, 0.008245079778134823, -0.018067127093672752, 0.006810314487665892, 0.0050048865377902985, 0.01746351271867752, 0.015506136231124401, 0.0038441552314907312, -0.015636244788765907, 0.0022880244068801403, 0.015146552585065365, -0.018326353281736374, -0.01809040643274784, 0.016148163005709648, -0.01553428266197443, -0.0005538792465813458, -0.016031982377171516, 0.015097361989319324, 3.729656236828305e-05, -0.00694893067702651, -0.002216043183580041, -2.4183696950785816e-05, -0.016036679968237877, 0.01612260565161705, 0.014906691387295723, 0.0023769792169332504, 0.011475108563899994, 0.014882950112223625, -0.015525707975029945, -0.009499586187303066, -0.015629282221198082, 0.015298941172659397, -0.0026004028040915728, 0.016274606809020042, -0.014921137131750584, 0.017997847869992256, -0.017099713906645775, 0.013533489778637886, -0.005658079404383898, 0.01726839505136013, -0.01603453978896141, -0.0041906265541911125, -0.016480235382914543, 0.014573251828551292, -0.015286168083548546, 0.0020919472444802523, 0.001459860592149198, -0.011004974134266376, -0.008052180521190166, 0.014127863571047783, -0.006615425460040569, 0.013718332163989544, 5.093732397654094e-05, 0.01458064652979374, -0.0018803838174790144, 0.018130553886294365, -0.01615668460726738, -0.01740640215575695, -0.0022180043160915375, 0.01594582013785839, -0.017109036445617676, -0.015441645868122578, -0.01544890832155943, 0.008563278242945671, -0.0035257108975201845, 0.005171806085854769, -0.002897221129387617, 0.0149390222504735, -0.00214584032073617, 0.009646947495639324, -0.014273308217525482, 0.012238452211022377, -0.0163690485060215, 0.005778277292847633, -0.010590581223368645, 0.014887130819261074, -0.017581522464752197, -0.014066347852349281, -0.01483207754790783, -9.101836621994153e-05, -0.0064756921492516994, 0.00019087438704445958, 7.874738366808742e-05, 0.00550398975610733, -0.01716083660721779, 8.148747292580083e-05, 0.016905615106225014, -0.002494727959856391, -0.007923745550215244, 0.016838110983371735, -0.016397399827837944, 0.01561540924012661, 0.01557603944092989, -0.015963904559612274, -0.01604357734322548, 0.016541238874197006, -0.015195640735328197], [-5.381908340496011e-05, -0.004548768512904644, 0.004392068367451429, -0.006956101395189762, 0.02428458444774151, 0.0025521093048155308, 0.025457069277763367, 0.00225563975982368, 0.017279701307415962, -0.020778683945536613, -0.013163015246391296, -0.006177949719130993, 0.002815733663737774, -3.455186015344225e-05, 0.02279171533882618, 0.002146521583199501, 0.0023217923007905483, -0.028968364000320435, 0.02027898281812668, -0.00335044227540493, 0.005040867254137993, -0.014906295575201511, -0.0007088310085237026, 0.006406419910490513, 0.001321525196544826, -0.02498975209891796, 0.014302125200629234, -0.0001459354825783521, 0.006551839876919985, -0.013397153466939926, 0.0004790052189491689, -0.010439732111990452, 0.01900438405573368, -0.0021770549938082695, 0.0017890280578285456, 0.0005231318646110594, 0.0013655860675498843, 0.0035446523688733578, 0.00527399405837059, -0.004121017642319202, 0.014733518473803997, 0.020673587918281555, -0.0007835229043848813, -0.001541451783850789, 0.0037664968986064196, -0.017451759427785873, -0.00015224450908135623, -0.003499669721350074, 0.0014036530628800392, 0.0002894216449931264, -0.021396111696958542, -0.02317984215915203, -0.00035826151724904776, -0.005839669145643711, 0.019893821328878403, 0.00802627019584179, 0.005010096821933985, 0.0054150731302797794, 0.006131916306912899, -0.02100352570414543, -0.009361215867102146, -0.014775622636079788, 0.023027127608656883, -0.0023763449862599373, 0.01815783418715, -0.011292201466858387, 0.0010927675757557154, -0.0020484449341893196, 0.02027573622763157, -0.019148770719766617, 0.00422199722379446, -0.026328979060053825, -0.011982521042227745, -0.008049730211496353, 0.0023839278146624565, -0.020434554666280746, 0.026040269061923027, 0.013342193327844143, -0.007926160469651222, -0.005252585746347904, 0.00859740749001503, -0.0027672615833580494, 0.024143338203430176, -0.00011799420462921262, 0.0030575268901884556, -0.022534484043717384, 0.0012102237669751048, -0.010470063425600529, -0.0019736411049962044, -0.0036469546612352133, 0.002427048049867153, -0.0022939597256481647, -0.02291414886713028, -0.0022717562969774008, 0.010120974853634834, -0.005821429193019867, 0.009492801502346992, -0.00048546568723395467, 0.011539462953805923, -0.005069703795015812, 0.005942853633314371, -0.002737679285928607, 0.011835879646241665, -0.025747161358594894, 0.021699881181120872, -0.009033228270709515, 0.0012710221344605088, -0.017743829637765884, -0.015207738615572453, -0.0019116428447887301, -8.764814992900938e-06, -0.0068534924648702145, 0.005746394861489534, 9.156857231573667e-06, 0.011032656766474247, -0.004154293332248926, 0.0004651050840038806, 0.021717121824622154, -0.0025783779565244913, -0.0011252255644649267, 0.02378171682357788, -0.003270851681008935, 0.0019474336877465248, 0.023179376497864723, -0.007378595881164074, -0.002156986854970455, 0.006498411763459444, -0.019664015620946884], [0.00025737969554029405, 0.007751408964395523, -0.009156699292361736, 0.004056222271174192, -0.009013318456709385, -0.004303806461393833, -0.011994296684861183, -0.012059295549988747, -0.013026201166212559, 0.009519390761852264, 0.012551290914416313, 0.011494419537484646, -0.012262909673154354, 5.373524982132949e-05, -0.004492375534027815, -0.010403065010905266, -0.012131905183196068, 0.009496049955487251, -0.012907387688755989, 0.011681143194437027, -0.009710338898003101, 0.010860622860491276, 0.003592944471165538, -0.007636505179107189, -0.0018995613791048527, 0.0023756101727485657, -0.012923281639814377, -7.92131177149713e-05, -0.013197950087487698, 0.01143408939242363, -0.009128615260124207, 0.011027820408344269, -0.010800435207784176, 0.001642197952605784, -0.011113684624433517, -0.010613365098834038, -0.011041626334190369, -0.004990787245333195, -0.011518235318362713, 0.0037785563617944717, -0.0030690135899931192, -0.012982389889657497, 0.010646304115653038, 0.011908896267414093, -0.003331089625135064, 0.01466326229274273, 0.013031789101660252, 0.014270896092057228, -0.014610043726861477, -0.0002840858942363411, 0.011077336966991425, 0.010968736372888088, -5.299900749378139e-06, 0.011660164222121239, -0.0061799283139407635, -0.00327654043212533, -0.013177590444684029, -0.0052871257066726685, -0.01386677660048008, 0.010513664223253727, 0.009352894499897957, 0.012536399066448212, -0.007331128232181072, 0.003734903410077095, -0.0035893579479306936, 0.0018200380727648735, -0.013091850094497204, 0.012031257152557373, -0.011081863194704056, 0.005726071074604988, -0.013220526278018951, 0.011011923663318157, 0.012621154077351093, 0.010370759293437004, -0.01178079191595316, 0.0019674720242619514, -0.012521788477897644, -0.005431713070720434, 0.005968526005744934, 0.01476503536105156, -0.012106403708457947, 0.010991810820996761, -0.011198780499398708, -4.4759526645066217e-05, -0.011394467204809189, 0.0020520309917628765, -0.0028191148303449154, 0.014142020605504513, 0.0022677748929709196, 0.012285534292459488, -0.011753963306546211, 0.011644667014479637, 0.011683925054967403, 0.012672229669988155, -0.00983127485960722, 0.013314899057149887, -0.01851840876042843, 0.0005896748043596745, -0.013794360682368279, 0.012456700205802917, -0.012730270624160767, 0.003024051198735833, -0.011458477936685085, 0.001966519048437476, -0.012373395264148712, 0.009537113830447197, -0.005552166141569614, 0.006695641204714775, 0.007259510923177004, 0.009429408237338066, 4.048634582431987e-05, 0.011545702815055847, -0.00549895316362381, 1.705074646451976e-05, -0.01239790953695774, 0.011871261522173882, -0.00013003978529013693, -0.011742099188268185, 0.012003741227090359, 0.00218628509901464, -0.011280989274382591, 0.0030078256968408823, -0.011007647030055523, -0.011563974432647228, 0.006866315379738808, 0.0019536768086254597, -0.012599748559296131, 0.010801466181874275], [-0.00022304904996417463, 0.005942647345364094, -0.009844105690717697, 0.0062501076608896255, -0.015734810382127762, -0.013358863070607185, -0.0025294346269220114, -0.02002878487110138, -0.013641689904034138, 0.013677747920155525, 0.013389838859438896, 0.01609705574810505, -0.01690453290939331, 2.987735570059158e-05, -0.002621215069666505, -0.015247227624058723, -0.017552869394421577, 0.0019485155353322625, -0.016053447499871254, 0.017190298065543175, -0.010288802906870842, 0.01052937563508749, 0.02281731553375721, -0.008866779506206512, -0.01992589794099331, 0.013563406653702259, -0.013188345357775688, -6.438127456931397e-05, -0.014462149702012539, 0.017732033506035805, -0.014782069250941277, 0.01256728358566761, -0.014648870564997196, 0.02050515078008175, -0.020075764507055283, -0.00943837221711874, -0.021875431761145592, -0.01671590656042099, -0.015139171853661537, 0.016493450850248337, -0.016007089987397194, -0.015685155987739563, 0.0017864139517769217, 0.0036244927905499935, -0.01441993284970522, 0.003849690780043602, 0.0002966394822578877, 0.014857291243970394, -0.015167953446507454, -0.00037069470272399485, 0.014951014891266823, 0.016638334840536118, 1.8996246581082232e-05, 0.01752966083586216, -0.0020750369876623154, -0.006430167704820633, -0.0032744123600423336, -0.004415235016494989, -0.014514641836285591, 0.016204258427023888, 0.008663961663842201, 0.01569368503987789, -0.015151645988225937, 0.015106351114809513, -0.002259997883811593, 0.015191002748906612, -0.0018869746709242463, 0.005283830687403679, -0.01203977782279253, 0.013508946634829044, -0.002831345656886697, 0.0019923693034797907, 0.011786128394305706, 0.01705195941030979, -0.015220765955746174, 0.017513396218419075, -0.01673772931098938, -0.011121864430606365, 0.006948887370526791, 0.006053815130144358, -0.013288287445902824, 0.014605820178985596, -0.0142124118283391, 5.0293238018639386e-05, -0.0021135658025741577, 0.01634466089308262, -0.007833856157958508, 0.009843550622463226, 0.018659643828868866, 0.001965331844985485, -0.0023910803720355034, 0.002850940451025963, 0.01593046635389328, 0.009281951002776623, -0.006713717710226774, 0.003391483798623085, -0.012726000510156155, 0.002315756632015109, -0.014858953654766083, 0.004765213932842016, -0.01349122915416956, 0.013871570117771626, -0.004702407401055098, 0.015967711806297302, -0.0020727755036205053, 0.00881920289248228, -0.017464444041252136, 0.0216218214482069, 0.013630684465169907, 0.018108787015080452, 8.68112147145439e-06, 0.012515046633780003, -0.009872011840343475, -7.160997483879328e-05, -0.011218661442399025, 0.0017814096063375473, -0.00019332842202857137, -0.002760326722636819, 0.014859411865472794, 0.017924703657627106, -0.01730240136384964, 0.004729675594717264, -0.015646900981664658, -0.0021544804330915213, 0.004945999942719936, 0.01696777157485485, -0.016965044662356377, 0.016384797170758247], [-0.0003777886740863323, 0.00723930262029171, -0.005634996108710766, 0.006946370005607605, -0.01173308864235878, -0.003231858601793647, -0.002115701325237751, -0.012234349735081196, -0.01501764077693224, 0.0023651167284697294, 0.01200072281062603, 0.005574037320911884, -0.002060177270323038, 3.4372285881545395e-05, -0.004753776825964451, -0.011688489466905594, -0.01324533112347126, 0.01219901442527771, -0.00504348985850811, 0.012869755737483501, -0.012582367286086082, 0.010326541028916836, 0.009988773614168167, -0.006469623651355505, -0.013219580985605717, 0.00795983150601387, -0.014126020483672619, -8.553229417884722e-05, -0.003244642401114106, 0.013414891436696053, -0.010654901154339314, 0.011570993810892105, -0.01266926247626543, 0.013290614821016788, -0.003573722904548049, -0.011946224607527256, -0.011686324141919613, -0.007995390333235264, -0.013105679303407669, 0.013571043498814106, -0.002206049859523773, -0.002149832434952259, 0.01258753426373005, 0.003667460987344384, -0.012980816885828972, 0.015052339062094688, 0.011617783457040787, 0.014710532501339912, -0.0025372635573148727, -0.00027696118922904134, 0.0027888386975973845, 0.012276597321033478, -1.6091435099951923e-05, 0.012403168715536594, -0.012810788117349148, -0.012384855188429356, -0.01377842202782631, -0.004504144191741943, -0.00624182540923357, 0.01242564432322979, 0.009696342051029205, 0.012132993899285793, -0.013291126117110252, 0.013315130025148392, -0.003784739878028631, 0.013317433185875416, -0.013702544383704662, 0.013241935521364212, -0.006201073061674833, 0.011589021421968937, -0.014104766771197319, 0.01143772155046463, 0.007539115846157074, 0.011741016991436481, -0.013597087003290653, 0.01185479387640953, -0.012591516599059105, -0.011086558923125267, 0.010438192635774612, 0.015330901369452477, -0.014096598140895367, 0.012910719029605389, -0.012175059877336025, 0.00010032800491899252, -0.007746078539639711, 0.012369928881525993, -0.012595045380294323, 0.013774887658655643, 0.013266013003885746, 0.005883955862373114, -0.012451840564608574, 0.012034024111926556, 0.013436463661491871, 0.014195365831255913, -0.009656100533902645, 0.013876771554350853, -0.0071863410994410515, 0.0007518319762311876, -0.011670099571347237, 0.014523496851325035, -0.013161488808691502, 0.0110643794760108, -0.0047332108952105045, 0.012620087713003159, -0.013143273070454597, 0.008776119910180569, -0.014407732523977757, 4.3055151763837785e-05, 0.013071399182081223, 0.011636349372565746, 3.009343345183879e-05, 0.014294522814452648, -0.003779348684474826, 5.11972348249401e-06, -0.012685977853834629, 0.010341781191527843, 2.01883158297278e-05, -0.0027696513570845127, 0.01100983563810587, 0.01315461564809084, -0.004323509056121111, 0.004647750873118639, -0.012785887345671654, -0.0022404182236641645, 0.011779677122831345, 0.01253027655184269, -0.01519543956965208, 0.006880663335323334], [9.604752995073795e-05, 0.0015872804215177894, -0.00413158256560564, 0.005404942203313112, -0.0022231172770261765, -0.012762770056724548, -0.012654433026909828, -0.014860752038657665, -0.012535486370325089, 0.0021185691002756357, 0.0035891919396817684, 0.012837900780141354, -0.014764494262635708, 7.518348138546571e-05, -0.01297757774591446, -0.002169456798583269, -0.014500163495540619, 0.013325025327503681, -0.002023199340328574, 0.0025807193014770746, -0.01167526189237833, 0.010197684168815613, 0.007391367573291063, -0.007857285439968109, -0.014449053443968296, 0.0031116772443056107, -0.011701813898980618, -0.0004238239489495754, -0.0019375219708308578, 0.012880923226475716, -0.012052181176841259, 0.004187289159744978, -0.010637804865837097, 0.016212251037359238, -0.015264843590557575, -0.008375769481062889, -0.016017314046621323, -0.0053096613846719265, -0.0029360295739024878, 0.002147651743143797, -0.011085392907261848, -0.013011852279305458, 0.002426229417324066, 0.01497417502105236, -0.003406650386750698, 0.014244656078517437, 0.003734837519004941, 0.004673105198889971, -0.014456392265856266, -5.1863444241462275e-05, 0.012823867611587048, 0.012415895238518715, -3.887643470079638e-05, 0.0017994296504184604, -0.012878055684268475, -0.012516801245510578, -0.014014484360814095, -0.005439267959445715, -0.012487975880503654, 0.012659834697842598, 0.009896364994347095, 0.002309630624949932, -0.013655081391334534, 0.014391766861081123, -0.014562864787876606, 0.013782848604023457, -0.015000739134848118, 0.01443508267402649, -0.005622228141874075, 0.012253887951374054, -0.006547285243868828, 0.01461784914135933, 0.011273188516497612, 0.013866914436221123, -0.01443096250295639, 0.01507969293743372, -0.013403946533799171, -0.011256355792284012, 0.004380565136671066, 0.004395525436848402, -0.0036697660107165575, 0.005905619822442532, -0.013324725441634655, 0.00016168784350156784, -0.01341631356626749, 0.01400618813931942, -0.0019512048456817865, 0.013205381110310555, 0.006455456838011742, 0.015468834899365902, -0.013789753429591656, 0.0034604386892169714, 0.012527174316346645, 0.002689212094992399, -0.010513797402381897, 0.012691579759120941, -0.005082870367914438, 0.0006236335611902177, -0.0028113548178225756, 0.014495301991701126, -0.0033856614027172327, 0.013193228282034397, -0.01073828898370266, 0.001939113368280232, -0.001975832972675562, 0.009847045876085758, -0.0016878820024430752, 0.0005945811280980706, 0.013764973729848862, 0.01403525099158287, -7.499210187233984e-05, 0.010871808975934982, -0.006508893333375454, -3.098607066931436e-06, -0.008009963668882847, 0.0143904909491539, 4.02689547627233e-05, -0.0028505627997219563, 0.013065256178379059, 0.01554554421454668, -0.01395063940435648, 0.011372298002243042, -0.012950960546731949, -0.00601193169131875, 0.011263412423431873, 0.013721967115998268, -0.012646795250475407, 0.013746600598096848], [0.019202159717679024, 5.9817237342940643e-05, -0.07275348901748657, 0.12943509221076965, -5.718702595913783e-06, 4.227676072332542e-06, -5.57824432689813e-06, 6.344723146867182e-07, -1.2979345228814054e-05, 1.3016679986321833e-05, 5.446921136353922e-07, 1.3418388334685005e-05, 8.165769941115286e-06, -0.018668344244360924, 4.671727765526157e-06, -4.426913164934376e-06, 9.065286576515064e-06, -4.811710851981843e-08, -1.7430626030545682e-05, 2.8163643946754746e-05, -0.0007110026199370623, 0.002707255771383643, -0.009004900231957436, 0.02166689746081829, -8.157885531545617e-06, 9.865474567050114e-06, -4.064536369696725e-06, 0.004012978170067072, -1.6513376976945437e-05, -1.3211590157879982e-05, -0.0003932878316845745, 0.010650797747075558, -9.822751962929033e-06, 7.491083579225233e-06, -1.767206958902534e-05, -0.006012534722685814, -1.630639235372655e-05, -5.055984274804359e-06, -1.956543928827159e-05, 6.706754447804997e-06, -1.1933266250707675e-05, 3.705868493852904e-06, -1.5400667408016488e-09, -6.7254563873575535e-06, -2.6030661501863506e-06, 8.84670399159404e-08, 0.021900009363889694, 9.495366612100042e-06, 2.3118201397664961e-07, -3.3714048186084256e-05, 1.186264580610441e-05, 1.385693576594349e-05, -0.20507681369781494, -4.491573335485555e-08, -9.853076335275546e-06, -1.9583050743676722e-05, -9.162287824437954e-06, -1.1934508620470297e-05, -9.575012882123701e-06, 3.1609001780452672e-06, 3.477859718259424e-05, 6.451690296671586e-06, -8.434946721536107e-06, 6.827743618487148e-06, 6.123182174633257e-06, 5.311264885676792e-06, 2.5081310468522133e-06, 7.188854851847282e-06, -7.808087684679776e-05, 0.008783001452684402, 1.6226798834395595e-05, 1.3581958228314761e-05, -5.603661975328578e-06, 1.220936519530369e-05, -5.452304776554229e-06, 3.5729185583477374e-06, 1.5623783838236704e-05, -0.0001444919325876981, -4.241090209688991e-05, 3.423818270675838e-06, -3.069778176723048e-05, 5.428385065897601e-06, -2.9746001018793322e-05, -0.00021163323253858835, -1.0725021638791077e-05, 2.1648072561220033e-06, -8.063359928200953e-06, 7.891740096965805e-06, 5.605586011370178e-06, 2.9852569696231512e-06, 1.1095849913544953e-05, 2.147591658285819e-05, -1.0294700132362777e-06, -5.061332103650784e-06, -0.027661314234137535, -3.647948688012548e-05, -2.0574974769260734e-05, -0.20899692177772522, -3.257757271057926e-05, -3.238373892600066e-06, 3.338695705679129e-06, 4.854472354054451e-05, -1.1151907528983429e-05, -2.8726844902848825e-06, -2.079714249703102e-06, -0.011156315915286541, -0.005526901688426733, 0.046710480004549026, 5.426318693935173e-06, -1.5710630805187975e-06, -0.026645762845873833, 4.312100372771965e-06, -0.0364745557308197, 0.17424307763576508, -0.0016778974095359445, -7.831703442207072e-06, -1.76704579644138e-05, 1.439748848497402e-05, 1.8560334865469486e-05, 1.7299641967838397e-06, -3.774249535126728e-06, 4.866833478445187e-06, 3.7998356674506795e-06, -3.550236442606547e-06, -2.4081591618596576e-06, 7.109955731721129e-06, 2.1530343019549036e-06, -4.1509451875754166e-07], [-0.0822516679763794, -0.00037272527697496116, 0.08252919465303421, -0.12883208692073822, -4.33601826443919e-06, -4.999275233785738e-07, -9.852056791714858e-06, 1.2436869837983977e-05, 1.300887561228592e-05, 5.635923230329354e-07, -1.0490040040167514e-05, -1.264357524632942e-05, -1.675953717494849e-05, 0.03869239240884781, -3.643434411060298e-06, 5.0921717047458515e-06, -9.02723604667699e-06, -8.336703103850596e-06, 1.2323953342274763e-05, -7.920028792796074e-07, 0.0009189876145683229, -0.0007409366662614048, 0.008876155130565166, -0.02601942978799343, 1.216060081787873e-05, -9.739644156070426e-06, 8.821421033644583e-06, -0.004945729859173298, 7.658438698854297e-05, 1.2266422345419414e-05, 0.00043993632425554097, -0.022502925246953964, -4.350111339590512e-06, -1.0595363164611626e-05, -9.715455234982073e-06, 0.05146441236138344, 1.658523797232192e-05, 5.686637905455427e-06, 2.6123436327907257e-05, -3.742442004295299e-06, 1.4227985047909897e-05, -5.002825673727784e-06, -1.5706092426626128e-07, -9.64130595093593e-06, 3.686740001285216e-06, -3.936318989872234e-06, -0.02191143110394478, 4.890881427854765e-06, -1.9108897220121435e-07, 2.830547236953862e-05, -1.2825818885175977e-05, -9.190137461700942e-06, 0.10302773118019104, 3.018638153662323e-06, 4.593300218402874e-06, -8.420794301855494e-07, -1.4381772416527383e-05, -9.565335858496837e-06, -4.663841082219733e-06, -4.824053576157894e-06, -1.1821405678347219e-05, 1.8112252746504964e-06, 1.0549362059464329e-06, -7.638137503818143e-06, 1.2330722256592708e-06, 4.9103059609478805e-06, -5.898763447476085e-06, -2.0839770513703115e-06, -0.0017045220592990518, -0.011948928236961365, 1.4575146451534238e-05, -1.2804714060621336e-05, -1.6301733012369368e-06, -8.426963177043945e-06, 1.1009778063453268e-05, -8.230720595747698e-06, 4.515186446951702e-06, 0.00010900153574766591, -0.012391162104904652, -3.4741526633297326e-06, -8.026979230635334e-06, 5.4646529861202e-06, 3.679959263536148e-05, 0.011235947720706463, -6.409347406588495e-06, -6.851769285276532e-06, -9.68300923887e-07, -5.4342166549758986e-05, -1.068633901013527e-05, -6.68622874400171e-07, 1.6474523363285698e-05, -7.5151406235818285e-06, -4.003164121968439e-06, 1.0259299415338319e-05, -0.004473029635846615, -3.9477497921325266e-05, 3.5143013974447967e-06, 0.2093726247549057, 1.4320108675747178e-05, -1.7998947441810742e-05, 5.321447588357842e-06, -1.770465860317927e-05, 7.408207238768227e-06, -9.550241884426214e-06, 2.0838585896854056e-06, -1.931111910380423e-05, 0.00950470007956028, -0.07234898954629898, -5.7891211326932535e-06, 6.048920113244094e-06, 0.026107454672455788, -1.9759658243856393e-05, 0.049660176038742065, -0.08685952425003052, 5.1977964176330715e-05, -7.320110398723045e-06, 0.00039684632793068886, -2.5272747734561563e-06, -1.0674295481294394e-05, 6.499738560705737e-07, -6.1414766605594195e-06, -1.5969892046996392e-05, -7.390882274194155e-06, -1.0787760402308777e-05, -4.267703843652271e-06, -1.6039753973018378e-05, -1.1580877071537543e-05, -1.1959467883571051e-05], [9.380392293678597e-05, -0.010282665491104126, 0.010234334506094456, -0.011378335766494274, 0.013650831766426563, 0.003392062382772565, 0.013656350784003735, 0.014829489402472973, 0.002390484791249037, -0.012719834223389626, -0.012682167813181877, -0.015139990486204624, 0.014570013619959354, 6.760349060641602e-05, 0.014791113324463367, 0.014157252386212349, 0.014780228957533836, -0.002415228635072708, 0.014844922348856926, -0.0026956836227327585, 0.012758960947394371, -0.011813310906291008, -0.0017309237737208605, 0.007638046983629465, 0.011284835636615753, -0.013819635845720768, 0.014510296285152435, 7.602371624670923e-05, 0.01611362211406231, -0.014282092452049255, 0.014156797900795937, -0.011721360497176647, 0.013651068322360516, -0.013922602869570255, 0.014327561482787132, 0.013946338556706905, 0.014228589832782745, 0.012859063223004341, 0.014232504181563854, -0.013642535544931889, 0.01387807633727789, 0.002449942985549569, -0.01503068022429943, -0.015512336045503616, 0.015451911836862564, -0.002601285232231021, -0.01684749498963356, -0.015144452452659607, 0.015819218009710312, 0.0004233736253809184, -0.0029102815315127373, -0.002172291511669755, 0.00012304274423513561, -0.014601250179111958, 0.013877580873668194, 0.01525365561246872, 0.016328688710927963, 0.006948358379304409, 0.01433434709906578, -0.014707912690937519, -0.009361815638840199, -0.013673463836312294, 0.014256522059440613, -0.014816934242844582, 0.014602052979171276, -0.014983459375798702, 0.004390459507703781, -0.01446121372282505, 0.012267923913896084, -0.010758617892861366, 0.014776023104786873, -0.013373826630413532, -0.012262579053640366, -0.007562602870166302, 0.004101139027625322, -0.013661893084645271, 0.014385823160409927, 0.010393301956355572, -0.01001743134111166, -0.004664796404540539, 0.0062858364544808865, -0.009594914503395557, 0.014280911535024643, -0.00021389516768977046, 0.013584587723016739, -0.015220136381685734, 0.014498809352517128, -0.014732584357261658, -0.015313499607145786, -0.015485848300158978, 0.014343498274683952, -0.01516819465905428, -0.002086688531562686, -0.015455303713679314, 0.010458440519869328, -0.0039382800459861755, 0.015419556759297848, -0.0014923082198947668, 0.003182803513482213, -0.015005652792751789, 0.014131288044154644, -0.013943021185696125, 0.014010285958647728, -0.01416150014847517, 0.005718382075428963, -0.010373744182288647, 0.014313693158328533, -0.01352430135011673, -0.0028936967719346285, -0.013795886188745499, -4.8896068619797006e-05, -0.012960352003574371, 0.009453252889215946, 8.79837079992285e-06, 0.00992630422115326, -0.013756930828094482, 0.0004107755667064339, 0.015170478262007236, -0.013714390806853771, -0.014833745546638966, 0.014950008131563663, -0.014955912716686726, 0.012288058176636696, 0.013489419594407082, -0.015397516079246998, -0.01426286343485117, 0.01591941900551319, -0.014264005236327648], [-0.00022664193238597363, -0.00672264164313674, 0.009078211151063442, -0.003935933578759432, 0.012477717362344265, 0.012539554387331009, 0.012655488215386868, 0.013074597343802452, 0.012137273326516151, -0.01226668618619442, -0.013191642239689827, -0.013397120870649815, 0.013983799144625664, -3.3528038329677656e-05, 0.002340563340112567, 0.0021537737920880318, 0.0016516461037099361, -0.009787245653569698, 0.012967000715434551, -0.014034765772521496, 0.011849435977637768, -0.010650873184204102, -0.005099523346871138, 0.013496761210262775, 0.003498770296573639, -0.01241958886384964, 0.012959843501448631, -0.00010490956628927961, 0.01263404730707407, -0.013259959407150745, 0.011028842069208622, -0.008731645531952381, 0.0033707141410559416, -0.0016325399046763778, 0.013353035785257816, 0.00855819508433342, 0.0017977519892156124, 0.010737483389675617, 0.013266888447105885, -0.0022903168573975563, 0.004735842347145081, 0.013838782906532288, -0.014128382317721844, -0.005895785056054592, 0.014435914345085621, -0.01295713521540165, -0.011132730171084404, -0.010023863986134529, 0.013899330049753189, 0.0003663310781121254, -0.01330366637557745, -0.011675627902150154, -1.9628416339401156e-05, -0.012440173886716366, 0.006355671212077141, 0.00615010317414999, 0.013899079523980618, 0.00635148212313652, 0.011464640498161316, -0.001861088559962809, -0.009370259009301662, -0.009271955117583275, 0.012286189012229443, -0.013549559749662876, 0.013416208326816559, -0.013380114920437336, 0.013600309379398823, -0.014328454621136189, 0.005458241794258356, -0.012738916091620922, 0.002772154286503792, -0.00662285927683115, -0.0042575360275805, -0.013075726106762886, 0.005644823890179396, -0.002143456134945154, 0.00217838236130774, 0.012273979373276234, -0.01084066554903984, -0.01461625937372446, 0.0116876270622015, -0.01226054411381483, 0.01184749137610197, 0.00011099586117779836, 0.012918141670525074, -0.013437033630907536, 0.014185854233801365, -0.013500993140041828, -0.01326825749129057, -0.0025670896284282207, 0.01282218936830759, -0.013308072462677956, -0.013615273870527744, -0.013391326181590557, 0.01054175104945898, -0.009555022232234478, 0.013067185878753662, -0.0005662828916683793, 0.013409914448857307, -0.0136393578723073, 0.012863820418715477, -0.0035711261443793774, 0.011420045979321003, -0.013029088266193867, 0.002095062518492341, -0.011349016800522804, 0.013551343232393265, -0.000329252245137468, -0.012964778579771519, -0.012751128524541855, -2.531655627535656e-05, -0.011721711605787277, 0.007139578461647034, -5.9452204368426464e-06, 0.009519947692751884, -0.013269281014800072, 0.00041581157711334527, 0.013362523168325424, -0.013378039933741093, -0.013445565477013588, 0.006928440183401108, -0.01099340245127678, 0.012564899399876595, 0.012734166346490383, -0.0028589230496436357, -0.001996129285544157, 0.014306762255728245, -0.013855728320777416], [-7.534313772339374e-05, 0.007531809154897928, -0.007729625795036554, 0.004227192606776953, -0.0022550905123353004, -0.0026290130335837603, -0.01277147140353918, -0.013173564337193966, -0.013255068100988865, 0.013570023700594902, 0.013565901666879654, 0.01350784208625555, -0.010418404825031757, -5.168045390746556e-05, -0.002452152082696557, -0.0030896151438355446, -0.013025625608861446, 0.00218534586019814, -0.0027932999655604362, 0.013043626211583614, -0.010087674483656883, 0.01114917267113924, 0.015786340460181236, -0.0095177898183465, -0.013325126841664314, 0.012783725745975971, -0.003634230000898242, -0.0002082123828586191, -0.01570548303425312, 0.004284968599677086, -0.010663600638508797, 0.01054177526384592, -0.01338361669331789, 0.013445806689560413, -0.010350444354116917, -0.012716572731733322, -0.0025375394616276026, -0.011606516316533089, -0.002503369702026248, 0.01249436940997839, -0.013192418031394482, -0.014637543819844723, 0.0018157607410103083, 0.013353463262319565, -0.0033534273970872164, 0.0031625728588551283, 0.010759765282273293, 0.0030142918694764376, -0.014891101978719234, -0.000560749729629606, 0.003003001445904374, 0.0021077999845147133, 0.00023492166656069458, 0.012398491613566875, -0.003001533215865493, -0.00649070180952549, -0.01429450698196888, -0.006707289256155491, -0.013454291969537735, 0.0019009041134268045, 0.009509309194982052, 0.01440501306205988, -0.013720295391976833, 0.002449915511533618, -0.015199793502688408, 0.01353032048791647, -0.013705871067941189, 0.0027068573981523514, -0.005777430720627308, 0.011511768214404583, -0.014141080901026726, 0.0019131000153720379, 0.013459009118378162, 0.013394076377153397, -0.012490135617554188, 0.0037145630922168493, -0.002497806679457426, -0.0016424969071522355, 0.009919249452650547, 0.015532519668340683, -0.01431916281580925, 0.012504705227911472, -0.002175228903070092, -0.0001113243997679092, -0.012633053585886955, 0.007338301744312048, -0.014158010482788086, 0.0152370510622859, 0.013374047353863716, 0.001927226665429771, -0.01340166013687849, 0.013707325793802738, 0.009955160319805145, 0.0038870484568178654, -0.008570101112127304, 0.014305949211120605, -0.007079807110130787, 0.0007006215746514499, -0.013904552906751633, 0.0020860196091234684, -0.0132146580144763, 0.014081480912864208, -0.012469273991882801, 0.013146710582077503, -0.011900032870471478, 0.0088442862033844, -0.006950612645596266, 0.01012481190264225, 0.00296430173330009, 0.012286960147321224, 9.01805397006683e-05, 0.012992341071367264, -0.006944969296455383, -2.9485674531315453e-05, -0.01322329044342041, 0.013346320018172264, 4.454556619748473e-05, -0.005564947612583637, 0.012539735995233059, 0.004590493626892567, -0.010893606580793858, 0.01439667958766222, -0.002394625451415777, -0.01414638850837946, 0.012365397997200489, 0.013278576545417309, -0.013907138258218765, 0.01335744559764862], [-0.00010788318468257785, 0.007321993820369244, -0.006158044561743736, 0.0053107556886971, -0.002180753042921424, -0.01260315254330635, -0.013253044337034225, -0.013274204917252064, -0.013301918283104897, 0.01365878339856863, 0.013413356617093086, 0.013342431746423244, -0.01575956679880619, 2.6477035135030746e-05, -0.0022309047635644674, -0.009899587370455265, -0.0033357213251292706, 0.002894342178478837, -0.014826619066298008, 0.006450023036450148, -0.01181344036012888, 0.011792282573878765, 0.012033164501190186, -0.007984132505953312, -0.015106935054063797, 0.012595979496836662, -0.013278545811772346, -7.181005639722571e-05, -0.013700668700039387, 0.014655821956694126, -0.001962136710062623, 0.009674550034105778, -0.013722851872444153, 0.01622147299349308, -0.0019325350876897573, -0.008049226365983486, -0.014261944219470024, -0.002074968768283725, -0.013213458471000195, 0.013772549107670784, -0.013161536306142807, -0.0029428359121084213, 0.016139473766088486, 0.016103418543934822, -0.003272903384640813, 0.002568113151937723, 0.011781166307628155, 0.006416742689907551, -0.015204441733658314, -0.00030042120488360524, 0.012637988664209843, 0.002219201298430562, -4.559129592962563e-06, 0.0028452712576836348, -0.012989778071641922, -0.003365129930898547, -0.0026543044950813055, -0.012888039462268353, -0.0023125235456973314, 0.0018347069853916764, 0.00889620091766119, 0.013871175236999989, -0.014205757528543472, 0.01476760022342205, -0.014240894466638565, 0.01248936727643013, -0.0018843859434127808, 0.014436881057918072, -0.0061918338760733604, 0.013380369171500206, -0.014989619143307209, 0.014257796108722687, 0.012350195087492466, 0.013061616569757462, -0.009289800189435482, 0.001969734439626336, -0.014077886007726192, -0.0021479171700775623, 0.006935046520084143, 0.01444913074374199, -0.0049084885977208614, 0.002528588520362973, -0.01248930674046278, -7.189508323790506e-05, -0.002360320184379816, 0.012951426208019257, -0.0019866882357746363, 0.0028736740350723267, 0.014308853074908257, 0.016172116622328758, -0.013429129496216774, 0.009476866573095322, 0.00206725113093853, 0.014593804255127907, -0.006571829319000244, 0.010028268210589886, -0.0036995578557252884, 5.5609303672099486e-05, -0.012891351245343685, 0.015736477449536324, -0.012490266002714634, 0.01356211956590414, -0.005421524867415428, 0.0023901055101305246, -0.012659971602261066, 0.007760897744446993, -0.014671554788947105, 0.011516510508954525, 0.014127973467111588, 0.01296710129827261, 3.0093875466263853e-05, 0.01254598144441843, -0.008800183422863483, -7.489071867894381e-05, -0.005361293908208609, 0.010716025717556477, 4.305683251004666e-05, -0.013523760251700878, 0.013588320463895798, 0.0043190536089241505, -0.011380637995898724, 0.0020012271124869585, -0.010774625465273857, -0.0024644380901008844, 0.013339662924408913, 0.012971943244338036, -0.01432739943265915, 0.013910949230194092], [6.099392703617923e-05, 0.007008721120655537, -0.008523614145815372, 0.005356109235435724, -0.0125519298017025, -0.00331225642003119, -0.013216590508818626, -0.013112506829202175, -0.014011367224156857, 0.010917091742157936, 0.012780818156898022, 0.0021138391457498074, -0.014630645513534546, 1.9091539797955193e-05, -0.0026955828070640564, -0.002247495111078024, -0.01455641444772482, 0.012286539189517498, -0.014376417733728886, 0.014454054646193981, -0.010057086125016212, 0.01156528014689684, 0.010905995965003967, -0.007666307967156172, -0.0035267036873847246, 0.014168735593557358, -0.012716870754957199, -0.00019339632126502693, -0.015397443436086178, 0.0018030480714514852, -0.009427931159734726, 0.007198577746748924, -0.013307212851941586, 0.014852050691843033, -0.001794105744920671, -0.008042433299124241, -0.0019920854829251766, -0.012124540284276009, -0.01331844087690115, 0.012827704660594463, -0.014521168544888496, -0.012961555272340775, 0.014161305502057076, 0.003699057037010789, -0.003863368183374405, 0.00927983783185482, 0.00014926267613191158, 0.004160422831773758, -0.013744651339948177, -0.00037167523987591267, 0.002737254137173295, 0.01204928383231163, -3.92443107557483e-05, 0.013980803079903126, -0.013069921173155308, -0.0060906303115189075, -0.004803745541721582, -0.013761506415903568, -0.013492629863321781, 0.003267406253144145, 0.00978091824799776, 0.002468604827299714, -0.013791663572192192, 0.014081016182899475, -0.013972521759569645, 0.013989167287945747, -0.002938644029200077, 0.013642119243741035, -0.014081716537475586, 0.013439350761473179, -0.014348099939525127, 0.013484983704984188, 0.003972206264734268, 0.012996655888855457, -0.014373907819390297, 0.012785940431058407, -0.014613967388868332, -0.00854877382516861, 0.010697614401578903, 0.015105638653039932, -0.01287723146378994, 0.013029738329350948, -0.002060369122773409, 0.00011820027430076152, -0.013494987040758133, 0.013936076313257217, -0.0022252798080444336, 0.014868991449475288, 0.014091966673731804, 0.0157303586602211, -0.013672113418579102, 0.013195844367146492, 0.006134632974863052, 0.013766517862677574, -0.010350603610277176, 0.003866441547870636, -0.007159447763115168, 0.0008526494493708014, -0.012627107091248035, 0.014019608497619629, -0.01313299871981144, 0.01238494273275137, -0.012353564612567425, 0.014091751538217068, -0.012997650541365147, 0.009950702078640461, -0.01407933421432972, 0.0007378861773759127, 0.014133414253592491, 0.011720282025635242, 9.041307930601761e-05, 0.012836329638957977, -0.005713514983654022, -6.693452633044217e-06, -0.00932439137250185, 0.013397222384810448, -2.5841409296845086e-05, -0.0052163852378726006, 0.013516854494810104, 0.014205390587449074, -0.013839362189173698, 0.013335703872144222, -0.012808381579816341, -0.013928822241723537, 0.011433192528784275, 0.012170100584626198, -0.013492980971932411, 0.013279789127409458], [-8.726512169232592e-05, 0.005698259454220533, -0.009604218415915966, 0.008317919448018074, -0.012718373909592628, -0.003340670606121421, -0.011900674551725388, -0.013304609805345535, -0.00613304553553462, 0.009782287292182446, 0.013868363574147224, 0.002302918117493391, -0.0025629354640841484, 6.774113717256114e-05, -0.0029971045441925526, -0.012051383964717388, -0.012138187885284424, 0.012127436697483063, -0.0020850226283073425, 0.003137156367301941, -0.011895613744854927, 0.005580580793321133, 0.006505991332232952, -0.014750031754374504, -0.012881360948085785, 0.00452006608247757, -0.01098670531064272, -0.00045645638601854444, -0.004081198014318943, 0.0016691558994352818, -0.011152217164635658, 0.012459296733140945, -0.012512668035924435, 0.012913716956973076, -0.013083827681839466, -0.00879258755594492, -0.0018286945996806026, -0.012513265013694763, -0.011865719221532345, 0.008790654130280018, -0.004273518454283476, -0.0019138482166454196, 0.01527293398976326, 0.0023474195040762424, -0.014244480058550835, 0.0026185500901192427, 0.010563614778220654, 0.01347204577177763, -0.00358380563557148, -0.00037177212652750313, 0.013572082854807377, 0.0021007165778428316, 0.00029345255461521447, 0.009661099873483181, -0.0019826311618089676, -0.013734569773077965, -0.0021699361968785524, -0.0045928023755550385, -0.002955959178507328, 0.012592311017215252, 0.009652531705796719, 0.013019347563385963, -0.011016234755516052, 0.008848974481225014, -0.005379293113946915, 0.012539967894554138, -0.012554548680782318, 0.013211909681558609, -0.008027042262256145, 0.007673174608498812, -0.0037350687198340893, 0.0018529171356931329, 0.014050068333745003, 0.011561066843569279, -0.012611771933734417, 0.009977973066270351, -0.011887717060744762, -0.01427407655864954, 0.004429407883435488, 0.007905198261141777, -0.010331811383366585, 0.010437460616230965, -0.011853596195578575, -0.00011165571049787104, -0.012789675034582615, 0.012114446610212326, -0.01339612528681755, 0.003030509687960148, 0.01342964731156826, 0.0033217361196875572, -0.0022218634840101004, 0.014503964222967625, 0.011649026535451412, 0.01284072082489729, -0.009796482510864735, 0.010480998083949089, -0.012705504894256592, 0.000642892497126013, -0.009912701323628426, 0.01398965809494257, -0.011386585421860218, 0.0094055887311697, -0.011077305302023888, 0.011450512334704399, -0.012598260305821896, 0.009390966035425663, -0.01188502088189125, 0.013577742502093315, 0.01401318609714508, 0.004994798451662064, 6.240050424821675e-05, 0.009198234416544437, -0.007120534777641296, -9.123297786572948e-05, -0.011291353963315487, 0.012614213861525059, -2.5752291548997164e-05, -0.0025889144744724035, 0.013356443494558334, 0.01073332130908966, -0.0018877637339755893, 0.012135187163949013, -0.0017161739524453878, -0.0021073969546705484, 0.013911467045545578, 0.012808737345039845, -0.0018005676101893187, 0.004264062736183405], [-0.00022881649783812463, 0.0061698476783931255, -0.008079861290752888, 0.007225185167044401, -0.01543763093650341, -0.014090941287577152, -0.01659730263054371, -0.020969990640878677, -0.012411140836775303, 0.014709685929119587, 0.014145187102258205, 0.017555423080921173, -0.0019649830646812916, 1.7001977539621294e-05, -0.016716185957193375, -0.016339682042598724, -0.0017162050353363156, 0.002041172469034791, -0.017486469820141792, 0.017377007752656937, -0.006223367061465979, 0.007212167140096426, 0.025196334347128868, -0.011125797405838966, -0.012616181746125221, 0.017489956691861153, -0.01230966579169035, -6.513037806143984e-05, -0.010435542091727257, 0.019654395058751106, -0.014692544005811214, 0.008459565229713917, -0.0021454482339322567, 0.009977414272725582, -0.02199697308242321, -0.0035588808823376894, -0.0017784072551876307, -0.01697523519396782, -0.015119798481464386, 0.0040325443260371685, -0.017003022134304047, -0.01610853150486946, 0.02288220264017582, 0.02305503375828266, -0.01459573395550251, 0.015045471489429474, 0.00047096057096496224, 0.004197536967694759, -0.015507126227021217, -4.927871850668453e-05, 0.002648476045578718, 0.01747947372496128, 0.00029398142942227423, 0.01851595565676689, -0.0023481205571442842, -0.006412656977772713, -0.017847971990704536, -0.00407408457249403, -0.015360705554485321, 0.0018036169931292534, 0.009360264986753464, 0.0023940550163388252, -0.016515029594302177, 0.0030368773732334375, -0.0026968952734023333, 0.01572882942855358, -0.0018561248434707522, 0.002241888316348195, -0.013078988529741764, 0.014227706007659435, -0.020260144025087357, 0.02016541175544262, 0.004113869741559029, 0.01824229583144188, -0.01729622669517994, 0.0019024963257834315, -0.018157269805669785, -0.011368650011718273, 0.006986668799072504, 0.014637315645813942, -0.0037955320440232754, 0.015716373920440674, -0.01597808487713337, 0.0001094462932087481, -0.016739940270781517, 0.017334431409835815, -0.02107023447751999, 0.002708492102101445, 0.019659943878650665, 0.02567913569509983, -0.0022458620369434357, 0.010022600181400776, 0.016906702890992165, 0.00224522827193141, -0.0068529085256159306, 0.013773743063211441, -0.005118874367326498, 0.0004513715684879571, -0.012995499186217785, 0.002142696175724268, -0.007399179507046938, 0.0029453267343342304, -0.011214322410523891, 0.0020466838032007217, -0.01603603921830654, 0.009274984709918499, -0.01781766675412655, 0.0005969239864498377, 0.0039554378017783165, 0.001975094899535179, 3.501660830806941e-05, 0.0035977524239569902, -0.009000960737466812, -1.4473593182628974e-05, -0.005005847662687302, 0.0018205144442617893, -0.00041471273289062083, -0.016606375575065613, 0.015137216076254845, 0.01966526173055172, -0.019748719409108162, 0.017911845818161964, -0.01742454431951046, -0.016556093469262123, 0.014884036965668201, 0.01831125281751156, -0.018291397020220757, 0.013333790004253387], [-5.867798608960584e-05, -0.005294485483318567, 0.008481612429022789, -0.005090460646897554, 0.011954217217862606, 0.002598455874249339, 0.013159127905964851, 0.001853058929555118, 0.013369501568377018, -0.01452605240046978, -0.013418206945061684, -0.013797945342957973, 0.0019903320353478193, 8.812826126813889e-05, 0.01305421069264412, 0.00307707698084414, 0.013944137841463089, -0.003040147013962269, 0.013559292070567608, -0.015245570801198483, 0.012213564477860928, -0.011827290058135986, -0.007914331741631031, 0.007553832605481148, 0.0017883869586512446, -0.012937278486788273, 0.013516467995941639, 3.121163899777457e-05, 0.013878056779503822, -0.01387918833643198, 0.0018282280070707202, -0.009933634661138058, 0.012766869738698006, -0.013616830110549927, 0.014202705584466457, 0.009218893013894558, 0.014070460572838783, 0.012103918008506298, 0.007229371927678585, -0.002276832237839699, 0.014416304416954517, 0.014429508708417416, -0.0018779480597004294, -0.003798249177634716, 0.015112122520804405, -0.0023509252350777388, -0.014141462743282318, -0.015234459191560745, 0.003890047315508127, 0.00028454323182813823, -0.0026474681217223406, -0.012140132486820221, 0.00014672832912765443, -0.013741126284003258, 0.01333217415958643, 0.015043900348246098, 0.014960960485041142, 0.006950125098228455, 0.014368616975843906, -0.0018731546588242054, -0.010025180876255035, -0.01421256922185421, 0.013658066280186176, -0.014712975360453129, 0.015421225689351559, -0.014213724993169308, 0.014459380879998207, -0.01517108641564846, 0.0063173603266477585, -0.011557883583009243, 0.007135699037462473, -0.013368391431868076, -0.004212892614305019, -0.012451618909835815, 0.012018228881061077, -0.014729530550539494, 0.002512949053198099, 0.010469038039445877, -0.009808376431465149, -0.015205614268779755, 0.013825547881424427, -0.0025101695209741592, 0.01301251444965601, -6.668490095762536e-05, 0.012953529134392738, -0.014198568649590015, 0.014815607108175755, -0.01389081496745348, -0.002933652838692069, -0.014756010845303535, 0.013154811225831509, -0.005953850224614143, -0.014246933162212372, -0.01385406032204628, 0.009800166822969913, -0.003948628902435303, 0.01213843747973442, -0.00041364290518686175, 0.014026902616024017, -0.015145250596106052, 0.012698769569396973, -0.0028975598979741335, 0.011946287006139755, -0.012738512828946114, 0.002151003573089838, -0.009577373042702675, 0.013685892336070538, -0.013005883432924747, -0.013977156020700932, -0.013442731462419033, 0.0001583651901455596, -0.012681783176958561, 0.004107742104679346, -1.9353961761225946e-05, 0.011773647740483284, -0.01408318430185318, -5.050206709711347e-06, 0.0030475063249468803, -0.01408335566520691, -0.013768992386758327, 0.0030302831437438726, -0.014311394654214382, 0.0019158245995640755, 0.012486170046031475, -0.0028310813941061497, -0.013964931480586529, 0.002187703037634492, -0.014163092710077763], [-0.00037753203650936484, 0.006914264522492886, -0.007877027615904808, 0.005210579372942448, -0.012035872787237167, -0.011930798180401325, -0.009323020465672016, -0.011371362023055553, -0.01047887559980154, 0.01139756664633751, 0.0038371384143829346, 0.01267311256378889, -0.01100778765976429, 3.4703934943536296e-05, -0.003239298239350319, -0.011259408667683601, -0.010975592769682407, 0.010365868918597698, -0.012762408703565598, 0.012958668172359467, -0.006178441923111677, 0.010428287088871002, 0.0068405852653086185, -0.010999435558915138, -0.011381225660443306, 0.011132393963634968, -0.012642704881727695, -7.273939991137013e-05, -0.013662503100931644, 0.011398076079785824, -0.0017234745901077986, 0.010432776063680649, -0.011878485791385174, 0.010973469354212284, -0.0038003278896212578, -0.0036534129176288843, -0.011588407680392265, -0.010995859280228615, -0.012661452405154705, 0.011438339948654175, -0.011867128312587738, -0.0038998688105493784, 0.012958592735230923, 0.0018121682805940509, -0.014551614411175251, 0.010230683721601963, 0.000894357857760042, 0.014060143381357193, -0.0134600093588233, -0.0005551597569137812, 0.0028169783763587475, 0.010593858547508717, -2.9657774575753137e-05, 0.002812276128679514, -0.002034704200923443, -0.009548631496727467, -0.010705280117690563, -0.006890010554343462, -0.011213133111596107, 0.011317115277051926, 0.008878037333488464, 0.012306314893066883, -0.011459424160420895, 0.013207134790718555, -0.012700147926807404, 0.005852523259818554, -0.01250685565173626, 0.008489253930747509, -0.010773267596960068, 0.0037202020175755024, -0.012079903855919838, 0.001990345073863864, 0.013504995964467525, 0.011415398679673672, -0.012666617520153522, 0.0019263362046331167, -0.011363551951944828, -0.010628150776028633, 0.01043579913675785, 0.012677012011408806, -0.007357271853834391, 0.005859638098627329, -0.01148477103561163, 6.959096936043352e-05, -0.01236615888774395, 0.01188137661665678, -0.011838125064969063, 0.012808778323233128, 0.0021322399843484163, 0.011279264464974403, -0.01119974721223116, 0.01342483889311552, 0.011553321965038776, 0.00277933687902987, -0.0062775639817118645, 0.0034093570429831743, -0.015906287357211113, 0.002043728483840823, -0.012202009558677673, 0.007439679466187954, -0.012791919521987438, 0.014048485085368156, -0.01122682262212038, 0.011473504826426506, -0.011035256087779999, 0.009576797485351562, -0.011924932710826397, 0.011171241290867329, 0.0052704717963933945, 0.008124548010528088, 5.277691161609255e-05, 0.00887661799788475, -0.006466652266681194, -4.6113153075566515e-05, -0.01159494835883379, 0.011274219490587711, -5.497462552739307e-05, -0.01245947740972042, 0.012389290146529675, 0.009924300014972687, -0.0042777457274496555, 0.011573007330298424, -0.010641410946846008, -0.011456565000116825, 0.01016817707568407, 0.011814549565315247, -0.0020694551058113575, 0.012589361518621445], [0.00014026256394572556, -0.007671670522540808, 0.002636033110320568, -0.004994714632630348, 0.02189418114721775, 0.01626848801970482, 0.01894438825547695, 0.007462028879672289, 0.0022182974498718977, -0.014279267750680447, -0.012618103064596653, -0.002891377080231905, 0.001760157523676753, -2.968127591884695e-05, 0.019580114632844925, 0.018366560339927673, 0.0015243754023686051, -0.02797507494688034, 0.008993827737867832, -0.021497957408428192, 0.007090508937835693, -0.01004722248762846, -0.013911752961575985, 0.011787624098360538, 0.0016667959280312061, -0.022000182420015335, 0.010257057845592499, -9.234488970832899e-05, 0.011342089623212814, -0.007453358266502619, 0.00023544434225186706, -0.008620711974799633, 0.017092199996113777, -0.0013249004259705544, 0.009052898734807968, 0.005096602253615856, 0.0034514449071139097, 0.023783044889569283, 0.003884857287630439, -0.0023203298915177584, 0.01724713295698166, 0.017973262816667557, -0.0008707093074917793, -0.019306253641843796, 0.003457616316154599, -0.017131341621279716, -0.0006427791086025536, -0.0024610497057437897, 0.00510788056999445, 0.0002823268005158752, -0.016556674614548683, -0.020562592893838882, -0.00029333808925002813, -0.020744802430272102, 0.020016247406601906, 0.010480490513145924, 0.0012643082300201058, 0.006940518505871296, 0.015730304643511772, -0.021084068343043327, -0.009497487917542458, -0.003518501529470086, 0.0210250336676836, -0.002544523449614644, 0.01606718823313713, -0.01812523975968361, 0.021664578467607498, -0.002177048474550247, 0.015451430343091488, -0.0033976833801716566, 0.00397765077650547, -0.02807588502764702, -0.005060454364866018, -0.014759744517505169, 0.0023179147392511368, -0.022216035053133965, 0.0020021579694002867, 0.010556269437074661, -0.00844053365290165, -0.013597080484032631, 0.0036750053986907005, -0.0183099452406168, 0.02343865856528282, -0.00011676157737383619, 0.017398633062839508, -0.021724924445152283, 0.005454668775200844, -0.011624375358223915, -0.02287401631474495, -0.02303485944867134, 0.0021024818997830153, -0.022310029715299606, -0.021377230063080788, -0.005905320402234793, 0.0066933282651007175, -0.006911153439432383, 0.015676330775022507, -0.0004784816410392523, 0.003002797719091177, -0.022960824891924858, 0.011775786057114601, -0.017141176387667656, 0.012944895774126053, -0.021186616271734238, 0.002138729440048337, -0.008944283239543438, 0.001672901795245707, -6.248860154300928e-05, -0.00411694310605526, -0.02962541952729225, -2.9999609978403896e-05, -0.014149262569844723, 0.009615794755518436, 4.986427302355878e-05, 0.008202317170798779, -0.0019294170197099447, 0.000380380020942539, 0.007077578455209732, -0.017466455698013306, -0.02181544154882431, 0.02350264973938465, -0.018666157498955727, 0.008047419600188732, 0.020126251503825188, -0.01808747462928295, -0.02547299861907959, 0.019342001527547836, -0.001931064878590405], [7.678203110117465e-05, -0.0018533781403675675, 0.007174731697887182, -0.0036796904169023037, 0.012312741950154305, 0.012267975136637688, 0.01271891500800848, 0.010514779016375542, 0.007414428051561117, -0.01205087173730135, -0.013039747253060341, -0.013162643648684025, 0.013916252180933952, -5.969276026007719e-05, 0.012201815843582153, 0.002170347375795245, 0.013442586176097393, -0.012408158741891384, 0.004941428545862436, -0.0028290972113609314, 0.004835208877921104, -0.012646395713090897, -0.010496776551008224, 0.007638906128704548, 0.014200171455740929, -0.002088707871735096, 0.011943944729864597, -0.00039897928945720196, 0.014059341512620449, -0.01304028183221817, 0.0019519454799592495, -0.005617646966129541, 0.004704771097749472, -0.008587662130594254, 0.013036517426371574, 0.010071508586406708, 0.014404631219804287, 0.0021671948488801718, 0.012735444121062756, -0.01370695699006319, 0.013248003087937832, 0.013807174749672413, -0.014456603676080704, -0.012920662760734558, 0.011878491379320621, -0.012583224102854729, -0.00018387062300462276, -0.013635043054819107, 0.012787732295691967, 0.0003650080179795623, -0.014030211605131626, -0.003096855478361249, -1.9757369955186732e-05, -0.013356220908463001, 0.012834711000323296, 0.012461860664188862, 0.014646587893366814, 0.005578705575317144, 0.013096152804791927, -0.012884005904197693, -0.008244771510362625, -0.013267463073134422, 0.01209598034620285, -0.0120784817263484, 0.013753409497439861, -0.0057100108824670315, 0.014259058982133865, -0.014268141239881516, 0.006171601824462414, -0.010937456972897053, 0.014616905711591244, -0.001981740351766348, -0.01342764776200056, -0.0019833697006106377, 0.013023092411458492, -0.013476264663040638, 0.012685537338256836, 0.003180274972692132, -0.010418491438031197, -0.013416423462331295, 0.010752188973128796, -0.0023904431145638227, 0.01317368634045124, -7.586648280266672e-05, 0.012526877224445343, -0.002227943856269121, 0.0031411091331392527, -0.01219040434807539, -0.0023009481374174356, -0.0018528045620769262, 0.013359911739826202, -0.01482320949435234, -0.013811345212161541, -0.0022303941659629345, 0.006805812940001488, -0.0030993069522082806, 0.005141627509146929, -0.0003945054777432233, 0.011646147817373276, -0.004774830304086208, 0.008980097249150276, -0.0027896640822291374, 0.011259169317781925, -0.012495581060647964, 0.0019663989078253508, -0.010337090119719505, 0.001586658414453268, -8.315772720379755e-05, -0.014065874740481377, -0.012838353402912617, -9.077767754206434e-05, -0.0035920506343245506, 0.005556192714720964, 3.438284693402238e-05, 0.011385873891413212, -0.013531338423490524, 0.00015533097030129284, 0.01241384819149971, -0.013387257233262062, -0.0020384141243994236, 0.004275684244930744, -0.0019799547735601664, 0.012781268917024136, 0.013085013255476952, -0.012893207371234894, -0.002207021927461028, 0.013403168879449368, -0.013576582074165344], [-0.0002001038519665599, -0.0015871176728978753, 0.007966583594679832, -0.004683888517320156, 0.013366996310651302, 0.013044686056673527, 0.014329878613352776, 0.01727917045354843, 0.013728318735957146, -0.0032372474670410156, -0.01359647884964943, -0.002144528552889824, 0.01666436903178692, -3.4719709219643846e-05, 0.014740918762981892, 0.004274901933968067, 0.0020024075638502836, -0.015016698278486729, 0.002189044840633869, -0.006604109890758991, 0.004954962525516748, -0.011900081299245358, -0.020949214696884155, 0.01417979970574379, 0.019108494743704796, -0.016069309785962105, 0.0036335259210318327, 6.52953822282143e-05, 0.010680079460144043, -0.017204202711582184, 0.012776048853993416, -0.011309755966067314, 0.01419958658516407, -0.0030637348536401987, 0.017980067059397697, 0.0010983268730342388, 0.01817081868648529, 0.014406729489564896, 0.015187175013124943, -0.002238193526864052, 0.01274512242525816, 0.014575125649571419, -0.0181476678699255, -0.0018335907952859998, 0.010206226259469986, -0.0026352303102612495, -0.0002752407162915915, -0.002432620618492365, 0.01541136298328638, 0.00042021775152534246, -0.015599651262164116, -0.014986379072070122, -1.9853163394145668e-05, -0.0023615527898073196, 0.01527278684079647, 0.015429743565618992, 0.016582215204834938, 0.004248638637363911, 0.01431193109601736, -0.015543890185654163, -0.009511052630841732, -0.015765393152832985, 0.0020100236870348454, -0.009259273298084736, 0.01613473705947399, -0.014851382933557034, 0.018449816852808, -0.016552215442061424, 0.0059980545192956924, -0.013596354983747005, 0.017265474423766136, -0.016081351786851883, -0.004014128819108009, -0.015564531087875366, 0.0040436722338199615, -0.015620613470673561, 0.0020300678443163633, 0.009320788085460663, -0.009918475523591042, -0.015231340192258358, 0.012136897072196007, -0.0025370162911713123, 0.015077082440257072, 9.361762749904301e-06, 0.011813820339739323, -0.0043823858723044395, 0.017782846465706825, -0.003251458052545786, -0.012460832484066486, -0.00192593177780509, 0.015128756873309612, -0.015998143702745438, -0.016191601753234863, -0.014395161531865597, 0.006578505504876375, -0.014077345840632915, 0.00502703245729208, -0.0031742218416184187, 0.0032219435088336468, -0.01747976988554001, 0.014182453975081444, -0.0038052506279200315, 0.011695202440023422, -0.012255897745490074, 0.014854387380182743, -0.008867274038493633, 0.007340560667216778, -0.00020912906620651484, -0.0028235979843884706, -0.015431606210768223, -4.838325548917055e-05, -0.013348476029932499, 0.005594749003648758, 3.823701263172552e-05, 0.004942041821777821, -0.002796126762405038, 0.0002113847149303183, 0.002799553796648979, -0.013516000472009182, -0.017296697944402695, 0.0021616704761981964, -0.015915917232632637, 0.014246252365410328, 0.015085049904882908, -0.013914313167333603, -0.015144825913012028, 0.016125019639730453, -0.016390329226851463], [5.380736183724366e-05, 0.02799917943775654, -0.008762762881815434, 0.011323751881718636, -0.007918810471892357, -0.010620740242302418, -0.008210137486457825, -0.005138909909874201, -0.004051367752254009, 0.00617314362898469, 0.004729713313281536, 0.007209400646388531, -0.005462870467454195, 3.3379470551153645e-05, -0.0058177802711725235, -0.009123138152062893, -0.006171053741127253, 0.004965701140463352, -0.006601385772228241, 0.010210885666310787, -0.004040576051920652, 0.01111209113150835, 0.026112589985132217, -0.004577853251248598, -0.006375895347446203, 0.006737595424056053, -0.007630569394677877, 0.00014271018153522164, -0.008526775054633617, 0.004877540748566389, -0.03495097905397415, 0.014046873897314072, -0.006150377448648214, 0.005121487658470869, -0.005790136754512787, -0.031296540051698685, -0.0073396977968513966, -0.003534626914188266, -0.009075873531401157, 0.006898189894855022, -0.006003357470035553, -0.0032058125361800194, 0.00767538882791996, 0.005836427211761475, -0.008795545436441898, 0.006350778974592686, 0.014742163941264153, 0.000565323221962899, -0.004851809702813625, -0.019158905372023582, 0.013082927092909813, 0.008864497765898705, 1.988626354432199e-05, 0.0053962660022079945, -0.007887880317866802, -0.013838914223015308, -0.005599588621407747, -0.03184209764003754, -0.0049558039754629135, 0.006552068516612053, 0.013830109499394894, 0.005523796658962965, -0.00321290735155344, 0.0038009171839803457, -0.004961133934557438, 0.0036527884658426046, -0.005166661459952593, 0.013520445674657822, -0.014369922690093517, 0.0029016644693911076, -0.005819560959935188, 0.0029012872837483883, 0.004362471867352724, 0.0067007578909397125, -0.006380770821124315, 0.0035170288756489754, -0.007457231171429157, -0.04623030498623848, 0.015600723214447498, 0.0068212212063372135, -0.005817977245897055, 0.00798958633095026, -0.008940719068050385, 0.0001923034869832918, -0.005146426614373922, 0.005397392902523279, -0.013570471666753292, 0.007741759065538645, 0.006565418094396591, 0.005412731785327196, -0.006524563767015934, 0.017734184861183167, 0.008221869356930256, 0.001597503200173378, -0.009660392068326473, 0.00467171985656023, -0.014175173826515675, 0.04455636814236641, -0.011358075775206089, 0.005948597565293312, -0.0039012362249195576, 0.0033481449354439974, -0.00961422547698021, 0.006400500889867544, -0.007558989804238081, 0.00025421546888537705, -0.0034231210593134165, 0.00047393376007676125, 0.005881573539227247, 0.002808201126754284, 4.046192407258786e-05, 0.007633449509739876, -0.011938533745706081, 8.907892151910346e-06, -0.010671780444681644, 0.006920382846146822, -8.2840007962659e-05, -0.011694618500769138, 0.018582601100206375, 0.00916378851979971, -0.00525632593780756, 0.006996957119554281, -0.004793771542608738, -0.009840548038482666, 0.019934941083192825, 0.007001273334026337, -0.004230795428156853, 0.007561827078461647], [0.0003432618686929345, -0.025925524532794952, 0.004825817886739969, -0.007020780351012945, 0.0101790651679039, 0.011590338312089443, 0.0061398097313940525, 0.008175060153007507, 0.005738621111959219, -0.007813028991222382, -0.00436220271512866, -0.005941853858530521, 0.007035617716610432, 6.550564285134897e-05, 0.008106155321002007, 0.010238727554678917, 0.004993746057152748, -0.007770495489239693, 0.007408162113279104, -0.00681896461173892, 0.007685413584113121, -0.012305337004363537, -0.01842302642762661, 0.006014694459736347, 0.004804478492587805, -0.007398765068501234, 0.0003574881993699819, -0.00010486580868018791, 0.010811351239681244, -0.0065268054604530334, 0.03587520495057106, -0.014048733748495579, 0.006785206496715546, -0.004065987188369036, 0.004398307763040066, 0.031947869807481766, 0.006479769945144653, 0.008492807857692242, 0.008327961899340153, -0.006932916585355997, 0.0056220595724880695, 0.006429470609873533, -0.0065491036511957645, -0.005739083047956228, 0.007178821600973606, -0.004378256853669882, -0.002290097065269947, -0.004274407401680946, 0.006399977952241898, 0.030662013217806816, -0.011672246269881725, -0.0060960655100643635, -0.0001903614611364901, -0.005016719922423363, 0.008189801126718521, 0.01390176359564066, 0.006029406096786261, 0.0332317091524601, 0.0006030866643413901, -0.005722142290323973, -0.01765393652021885, -0.006662321742624044, 0.006277075037360191, -0.0026563031133264303, 0.007564288564026356, -0.00293404096737504, 0.006703989580273628, -0.013760357163846493, 0.016601942479610443, -0.007056908216327429, 0.007193436846137047, -0.00609166081994772, -0.005822013597935438, -0.004829403478652239, 0.006269093137234449, -0.0008058189996518195, 0.00642263051122427, 0.05007230117917061, -0.012019947171211243, -0.0005299460026435554, 0.006197968497872353, -0.007620567921549082, 0.009184400551021099, 0.00010907153045991436, 0.006299755536019802, -0.004719911143183708, 0.012543976306915283, -0.005903729237616062, -0.0076662818901240826, -0.007333077490329742, 0.007207907270640135, -0.018004467710852623, -0.007450724020600319, -0.005341619253158569, 0.010624134913086891, -0.00019793114915955812, 0.01807546243071556, -0.0014018655056133866, 0.008785172365605831, -0.005762365646660328, 0.005164626520127058, -0.005087072495371103, 0.012758027762174606, -0.008105561137199402, 0.005949791986495256, -0.00034741597482934594, 0.0058481390587985516, -0.0004999700468033552, -0.0016515485476702452, -0.0018293046159669757, -2.9970144169055857e-05, -0.0055198101326823235, 6.963059422560036e-05, -3.197756768713589e-06, 0.009172757156193256, -0.004630703013390303, -3.7688099837396294e-05, 0.008267959579825401, -0.008075607940554619, -0.007742250803858042, 0.007874028757214546, -0.006365753710269928, 0.005362988915294409, 0.008313478901982307, -0.02231094054877758, -0.00632609985768795, 0.0053437501192092896, -0.0048433030024170876], [0.00010800809104694054, -0.004617359954863787, 0.009232742711901665, -0.011568323709070683, 0.013888615183532238, 0.012462157756090164, 0.001975021557882428, 0.0174856036901474, 0.012286732904613018, -0.014586205594241619, -0.0035403778310865164, -0.01521493773907423, 0.014957843348383904, -3.560869299690239e-05, 0.015160439535975456, 0.014755761250853539, 0.01478598639369011, -0.016611598432064056, 0.00906528439372778, -0.0026096426881849766, 0.01053320150822401, -0.010433788411319256, -0.00407103355973959, 0.01292209792882204, 0.0052854083478450775, -0.0020164893940091133, 0.013033831492066383, -0.0004859142645727843, 0.0018663874361664057, -0.015115124173462391, 0.014526834711432457, -0.01288796216249466, 0.002156501170247793, -0.001621854375116527, 0.0017994451336562634, 0.00046475970884785056, 0.017827486619353294, 0.015589074231684208, 0.013606969267129898, -0.01516627799719572, 0.015608672983944416, 0.0019986017141491175, -0.017044905573129654, -0.01634506694972515, 0.0030776835046708584, -0.014479962177574635, -0.0011484670685604215, -0.010327341966331005, 0.011653999797999859, 0.00027216217131353915, -0.01378234289586544, -0.0146974241361022, 0.00011992803047178313, -0.016063155606389046, 0.01587367057800293, 0.0025873095728456974, 0.007309325039386749, 0.01310883741825819, 0.014225423336029053, -0.014709661714732647, -0.008732941932976246, -0.015210376121103764, 0.007675690110772848, -0.0024891213979572058, 0.0020075298380106688, -0.015181641094386578, 0.015960169956088066, -0.01597180962562561, 0.01114279218018055, -0.013954287394881248, 0.01142178475856781, -0.002655328018590808, -0.012169214896857738, -0.016041714698076248, 0.00227235141210258, -0.002139483578503132, 0.016272837296128273, 0.012559805996716022, -0.010268554091453552, -0.014485517516732216, 0.012240059673786163, -0.0025364321190863848, 0.015032241120934486, 0.00011115371307823807, 0.010845786891877651, -0.01519994530826807, 0.005946038756519556, -0.004828097764402628, -0.0157089252024889, -0.01809082366526127, 0.014246335253119469, -0.005283011589199305, -0.014554102905094624, -0.015082350932061672, 0.009608589112758636, -0.013523572124540806, 0.010028757154941559, -0.00029630493372678757, 0.010414139367640018, -0.01737944595515728, 0.00559805054217577, -0.011581476777791977, 0.0038059114012867212, -0.0023169275373220444, 0.01523082796484232, -0.009638373740017414, 0.01807955838739872, -0.00022218498634174466, -0.0032779208850115538, -0.0018714999314397573, -6.71471789246425e-05, -0.01041200291365385, 0.008610614575445652, 1.4067716165300226e-06, 0.005801286082714796, -0.013998018577694893, 2.4892684450605884e-05, 0.01042855717241764, -0.014341664500534534, -0.016321776434779167, 0.01684652455151081, -0.015275845304131508, 0.016302531585097313, 0.002154202666133642, -0.01182543858885765, -0.015952378511428833, 0.015634363517165184, -0.015606248751282692], [0.00019812790560536087, -0.0070885829627513885, 0.009330417960882187, -0.006628076080232859, 0.013390437699854374, 0.004502751864492893, 0.015233881771564484, 0.002738095121458173, 0.013382221572101116, -0.012961136177182198, -0.009914317168295383, -0.014006194658577442, 0.0025803809985518456, -5.356937981559895e-05, 0.014357596635818481, 0.012893750332295895, 0.01630459725856781, -0.01423316728323698, 0.015467535704374313, -0.01620817929506302, 0.011409725993871689, -0.00615615863353014, -0.00888204574584961, 0.007762962020933628, 0.017290282994508743, -0.014598052948713303, 0.012979347258806229, 0.0001501428196206689, 0.01025125477463007, -0.016067204996943474, 0.0008811980369500816, -0.013309355825185776, 0.01434111688286066, -0.01745758391916752, 0.017325250431895256, 0.006262198556214571, 0.017299117520451546, 0.013162199407815933, 0.002590443938970566, -0.013816884718835354, 0.015653397887945175, 0.014387611299753189, -0.017326580360531807, -0.001846628962084651, 0.01434061024338007, -0.002885679714381695, -0.0010790214873850346, -0.014465468004345894, 0.014660465531051159, 4.054998862557113e-05, -0.012928647920489311, -0.013910486362874508, -1.965296542039141e-05, -0.015910638496279716, 0.0020641253795474768, 0.01325926836580038, 0.015475759282708168, 0.010159767232835293, 0.009275151416659355, -0.015016737394034863, -0.009620093740522861, -0.0027868165634572506, 0.0024163471534848213, -0.014681387692689896, 0.015328229404985905, -0.00344635546207428, 0.01693258248269558, -0.008459128439426422, 0.010924736969172955, -0.006241337861865759, 0.01727530173957348, -0.0035854363813996315, -0.014083712361752987, -0.014299813657999039, 0.015856169164180756, -0.016573723405599594, 0.002137476345524192, 0.0010361761087551713, -0.004701758734881878, -0.0033554756082594395, 0.013132650405168533, -0.014680490829050541, 0.013377374038100243, 0.00011323471699142829, 0.01429248508065939, -0.014548088423907757, 0.002845402341336012, -0.014878788962960243, -0.01607743464410305, -0.0033818904776126146, 0.014443594962358475, -0.0021576229482889175, -0.015757739543914795, -0.016298485919833183, 0.010550354607403278, -0.004676889628171921, 0.018607240170240402, -0.0006666588014923036, 0.014920810237526894, -0.017153428867459297, 0.012868977151811123, -0.01318182423710823, 0.012252354063093662, -0.015535243786871433, 0.0023644568864256144, -0.00830487534403801, 0.013549122959375381, -0.00020838242198806256, -0.01078500971198082, -0.008076216094195843, -9.10063463379629e-05, -0.013826001435518265, 0.0101926289498806, 2.5889479729812592e-05, 0.009424331597983837, -0.015172157436609268, 0.00015265608089976013, 0.016327891498804092, -0.01427422184497118, -0.015947755426168442, 0.015695668756961823, -0.002381078200414777, 0.014735587872564793, 0.01351843774318695, -0.013247988186776638, -0.0020558014512062073, 0.0020731014665216208, -0.004041813779622316], [-0.00011328858090564609, 0.005848073400557041, -0.0008238255395554006, 0.00010415504220873117, -0.003111063502728939, -0.0018857625545933843, -0.0026549077592790127, -0.0024862682912498713, -0.00014609136269427836, 0.0015049924841150641, 0.0010424605570733547, 0.0027987277135252953, -9.340213728137314e-05, 1.7190275684697554e-05, -0.001786769600585103, -0.0031142134685069323, -0.001830150606110692, 0.0002790402213577181, -0.0033054063096642494, 0.0032366185914725065, 0.007386313751339912, -0.012160425074398518, 0.0014309660764411092, -0.013840986415743828, -0.003307489911094308, 0.0002979455457534641, -0.00016015737492125481, -0.0005500887054949999, -0.0019623294938355684, 0.002074717776849866, -0.006783825345337391, 0.0010070758871734142, -0.0021586818620562553, 0.0022389788646250963, -0.003618513233959675, -0.00017346671666018665, -0.0022662030532956123, -0.002997214440256357, -0.003016807371750474, 0.0023659353610128164, -0.00207861908711493, -0.0021244867239147425, 0.0011495280778035522, 0.0024692544247955084, -0.002185618504881859, 0.0031835464760661125, 0.0002290005941176787, 0.001153611927293241, -0.003444780595600605, -3.930184539058246e-05, 0.0027724544052034616, 0.002848587231710553, 7.538854697486386e-05, 0.0021873395889997482, -0.0026379397604614496, -0.0027204761281609535, -0.002419924596324563, -0.010513965971767902, -0.00042429749737493694, 0.0015031058574095368, 0.006116481497883797, 0.004057150799781084, -0.0018389476463198662, 0.003999414853751659, -0.0034635397605597973, 0.0011382363736629486, -0.0033617995213717222, 0.002540543209761381, -0.004309691954404116, 0.0026282863691449165, -0.002348971087485552, 0.0008784508099779487, 0.0016205878928303719, 0.0016511274734511971, -0.00232195807620883, 0.0026163768488913774, -0.004507371690124273, -0.003809023881331086, 0.0021101515740156174, 0.0036437257658690214, -0.00023028494615573436, 0.0028041675686836243, -0.0027154486160725355, 1.587177575856913e-05, -0.0029489875305444, 0.0030687039252370596, -0.0028516175225377083, 0.0037452313117682934, 0.0014608604833483696, 0.002668872242793441, -0.0018015882233157754, 0.002954996656626463, 0.002603348111733794, 0.002691633300855756, -0.0034201587550342083, 7.422663475153968e-05, -0.006468562409281731, 0.0018331529572606087, -0.000279210798908025, 0.0025113727897405624, -0.00047090579755604267, 0.004306587856262922, -0.0037191836163401604, 0.004272781778126955, -0.002154648071154952, 0.02591588906943798, -0.002951326547190547, 0.0014093144563958049, 0.002399250166490674, 0.0021272865124046803, -2.2629978047916666e-05, 0.0001327305508311838, 0.015191633254289627, 6.0642701100732666e-06, -0.002121981233358383, 0.0016677110688760877, -0.0002653333358466625, -0.004888234660029411, 0.00453568808734417, 0.0033235126174986362, -0.003844138467684388, 0.0025476168375462294, -0.0023450523149222136, -0.0006343380664475262, 0.003178454004228115, 0.00040675397031009197, -0.0022190981544554234, 0.0015657980693504214], [5.717408930649981e-05, 0.007586929015815258, -0.009064389392733574, 0.034870877861976624, -0.0004888245020993054, -0.01094790268689394, -0.00046000650036148727, -0.000774031737819314, -0.0012672062730416656, 0.000465850142063573, 0.002541810506954789, 0.0015104146441444755, -0.0007135907653719187, -5.653994594467804e-05, -0.0030568200163543224, -0.0008001020760275424, -0.0024368506856262684, 0.0005392238381318748, -0.003598419250920415, 0.001260999939404428, -0.016997404396533966, 0.013170493766665459, 0.000540797074791044, -0.003950492478907108, -0.00033060606801882386, 0.0006361977430060506, -0.005497152917087078, 0.0004900655476376414, -0.005278998985886574, 0.0007706164615228772, -0.0009571113623678684, 0.007368894759565592, -0.004298273008316755, 0.0004025247471872717, -0.001578882453031838, -0.040878742933273315, -0.003491901559755206, -0.0014959457330405712, -0.003117790212854743, 0.0008833794854581356, -0.0018299348885193467, -0.0011872064787894487, 0.003830142319202423, 0.0003179824852850288, -0.003266566200181842, 0.0017549291951581836, 0.06751053780317307, 0.007264433428645134, -0.008606689050793648, -0.00042684670188464224, 0.00119391072075814, 0.0010739945573732257, 0.0002659833407960832, 0.0009646590915508568, -0.000857173465192318, -0.011280955746769905, -0.003817505668848753, -0.009319901466369629, -0.0061876894906163216, 0.002280652290210128, 0.00912260077893734, 0.0013731676153838634, -0.0016988014103844762, 0.0015272428281605244, -0.0026306926738470793, 0.0016018551541492343, -0.0013312569353729486, 0.003544789971783757, -0.011686992831528187, 0.007318019401282072, -0.002741655334830284, 0.002209148369729519, 0.005000798497349024, 0.0026435672771185637, -0.0006173014990054071, 0.0004629171744454652, -0.000816488522104919, -0.008907657116651535, 0.010198729112744331, 0.014037033542990685, -0.0015959502197802067, 0.0045132823288440704, -0.0014599896967411041, 3.2664680475136265e-05, -0.002227717312052846, 0.002729238010942936, -0.0014786369865760207, 0.0065985433757305145, 0.002177770249545574, 0.0036519994027912617, -0.0026192187797278166, 0.0008084453293122351, 0.002055188175290823, 0.0035694658290594816, -0.006745562888681889, 0.002592732897028327, -0.007232431322336197, 0.0015367449959740043, -0.0028481718618422747, 0.0011235758429393172, -0.0027975966222584248, 0.0013572050957009196, -0.002593608805909753, 0.0019713062793016434, -0.002100558951497078, 0.009823995642364025, -0.0011913807829841971, 0.0007168647716753185, 0.003649461083114147, 0.0009017791016958654, 8.958955731941387e-05, 0.0026216660626232624, -0.007750648073852062, -1.1596966942306608e-05, -0.02419533208012581, 0.00023521258844994009, 2.854501872207038e-05, -0.007670953404158354, 0.00047126435674726963, 0.00047710855142213404, -0.001936859916895628, 0.004608467686921358, -0.0012416112003847957, -0.001054620835930109, 0.012405534274876118, 0.004057770129293203, -0.001280620344914496, 0.0016001397743821144], [-0.00034090940607711673, 0.005763525143265724, -0.008067317306995392, 0.005883675999939442, -0.010399027727544308, -0.011730888858437538, -0.004440125543624163, -0.011570301838219166, -0.011801070533692837, 0.010790585540235043, 0.004429814871400595, 0.003633769229054451, -0.011877311393618584, 3.0663002689834684e-05, -0.004469337407499552, -0.003969964571297169, -0.0019328143680468202, 0.011157823726534843, -0.011247647926211357, 0.01193695142865181, -0.011473191902041435, 0.005837655160576105, 0.006440218538045883, -0.004663554951548576, -0.011136588640511036, 0.0118318572640419, -0.01085629127919674, -6.235362525330856e-05, -0.007230657152831554, 0.003831305541098118, -0.006845956668257713, 0.009119921363890171, -0.010556275956332684, 0.011058861389756203, -0.010909540578722954, -0.001113247824832797, -0.010345660150051117, -0.010884677991271019, -0.0049122474156320095, 0.01245019119232893, -0.011674609035253525, -0.005816452205181122, 0.010872007347643375, 0.011030014604330063, -0.013304958119988441, 0.010883403941988945, 0.01524862740188837, 0.013048650696873665, -0.012512537650763988, -3.9592556277057156e-05, 0.010998777113854885, 0.011231950484216213, 1.4728649148310069e-05, 0.011761085130274296, -0.0021062358282506466, -0.012380520813167095, -0.01227161567658186, -0.004691457841545343, -0.0124344602227211, 0.010540055111050606, 0.009530089795589447, 0.0026802874635905027, -0.011381465941667557, 0.012968342751264572, -0.008735778741538525, 0.011506356298923492, -0.011900078505277634, 0.012133575044572353, -0.005579086486250162, 0.01144484058022499, -0.012057801708579063, 0.010545775294303894, 0.003522787243127823, 0.002967244014143944, -0.0114797567948699, 0.011117996647953987, -0.011323668994009495, -0.001468055066652596, 0.009753819555044174, 0.013320334255695343, -0.011788650415837765, 0.011206652037799358, -0.0025128836277872324, -7.120332884369418e-05, -0.011074057780206203, 0.011673864908516407, -0.004293027333915234, 0.013178843073546886, 0.008945540525019169, 0.011727627366781235, -0.011097680777311325, 0.011763334274291992, 0.001967263175174594, 0.013186468742787838, -0.009653131477534771, 0.011873343028128147, -0.016648737713694572, 0.001898178132250905, -0.01258028857409954, 0.011445731855928898, -0.012514622882008553, 0.012854870408773422, -0.010151968337595463, 0.011033877730369568, -0.011759231798350811, 0.009421019814908504, -0.00624825619161129, 0.0003546359948813915, 0.012864910066127777, 0.011689562350511551, 6.285747804213315e-05, 0.01173319760710001, -0.008427182212471962, -2.9900693334639072e-06, -0.00961180217564106, 0.012026892974972725, -0.0004179090028628707, -0.0028554426971822977, 0.0024574371054768562, 0.011393398977816105, -0.01208630669862032, 0.011948158964514732, -0.009977951645851135, -0.0024575991556048393, 0.012326962314546108, 0.011521666310727596, -0.011885380372405052, 0.0018422420835122466], [-0.00010130635928362608, 0.006764836143702269, -0.011925246566534042, 0.007180597633123398, -0.01133638620376587, -0.01227582711726427, -0.002177652670070529, -0.011852087453007698, -0.011774084530770779, 0.011976613663136959, 0.013221711851656437, 0.011161400005221367, -0.00892240833491087, 3.1099039915716276e-05, -0.011029642075300217, -0.012481248006224632, -0.012200087308883667, 0.010898761451244354, -0.01091089192777872, 0.011297027580440044, -0.011096250265836716, 0.009348440915346146, 0.009257393889129162, -0.008851030841469765, -0.011208940297365189, 0.011195601895451546, -0.013006067834794521, -7.501705113099888e-05, -0.0034916368313133717, 0.011900070123374462, -0.011261263862252235, 0.012590779922902584, -0.011718062683939934, 0.01094749290496111, -0.011594322510063648, -0.01280013844370842, -0.011144336313009262, -0.002329949988052249, -0.011609852313995361, 0.0024965095799416304, -0.012033718638122082, -0.012784386985003948, 0.010969046503305435, 0.011337407864630222, -0.01273255329579115, 0.002830140059813857, 0.011831801384687424, 0.013452375307679176, -0.0036162433680146933, -0.00030883224098943174, 0.00912733469158411, 0.0022093879524618387, -0.00010872416896745563, 0.01084130723029375, -0.006109568290412426, -0.012953960336744785, -0.012593252584338188, -0.01181707065552473, -0.012542095966637135, 0.0030733668245375156, 0.009594460017979145, 0.012123809196054935, -0.002070995979011059, 0.01379807386547327, -0.0026439682114869356, 0.012138032354414463, -0.011716759763658047, 0.013702480122447014, -0.011892195791006088, 0.00576124107465148, -0.0123975845053792, 0.011492826044559479, 0.013425893150269985, 0.010138330981135368, -0.01237921230494976, 0.002182472264394164, -0.01020438689738512, -0.007843559607863426, 0.010138185694813728, 0.012874878011643887, -0.004066928289830685, 0.012133068405091763, -0.0050033326260745525, -1.8015975001617335e-05, -0.01223042607307434, 0.011468825861811638, -0.012957672588527203, 0.012101362459361553, 0.011602586135268211, 0.008802179247140884, -0.007533737923949957, 0.011705031618475914, 0.00561503553763032, 0.010826547630131245, -0.006708500441163778, 0.012326874770224094, -0.01205472182482481, 0.0004441735509317368, -0.010746915824711323, 0.012314915657043457, -0.01168703380972147, 0.012300077825784683, -0.010947348549962044, 0.011359607800841331, -0.011749685741961002, 0.008672538213431835, -0.011042327620089054, 0.008127577602863312, 0.013108471408486366, 0.011454191990196705, -7.484985690098256e-05, 0.010618660598993301, -0.005133649334311485, -4.6205470425775275e-05, -0.01160933542996645, 0.002046177862212062, -0.00044302211608737707, -0.010835293680429459, 0.011738568544387817, 0.010886039584875107, -0.009503886103630066, 0.0108789736405015, -0.010886086151003838, -0.0029243577737361193, 0.002984440652653575, 0.011075224727392197, -0.013046668842434883, 0.011943119578063488], [0.00010129992733709514, -0.010988455265760422, 0.0074638063088059425, -0.00556768337264657, 0.012436195276677608, 0.013158779591321945, 0.012073172256350517, 0.013919394463300705, 0.003981337416917086, -0.013190552592277527, -0.013531587086617947, -0.01314149983227253, 0.01349297072738409, 0.0001104975599446334, 0.013855412602424622, 0.013087247498333454, 0.01377350278198719, -0.012285039760172367, 0.01319365855306387, -0.013999789953231812, 0.011381159536540508, -0.013125319965183735, -0.0035311304964125156, 0.006338201928883791, 0.014065385796129704, -0.013582088984549046, 0.012305870652198792, -0.0001516507036285475, 0.01457709539681673, -0.013107048347592354, 0.010817050002515316, -0.007288539782166481, 0.013446971774101257, -0.012657126411795616, 0.01393088884651661, 0.009339661337435246, 0.005911222193390131, 0.012355875223875046, 0.012741192243993282, -0.0025737134274095297, 0.013234363868832588, 0.014262363314628601, -0.01251385547220707, -0.014012610539793968, 0.015120389871299267, -0.014423118904232979, -0.01315230317413807, -0.014800406992435455, 0.003190993331372738, 0.0005543128354474902, -0.0046327002346515656, -0.013267569243907928, 2.342542757105548e-05, -0.013332977890968323, 0.002112165791913867, 0.014676449820399284, 0.014420054852962494, 0.010098032653331757, 0.014398030936717987, -0.012734511867165565, -0.009437695145606995, -0.01227767113596201, 0.012657612562179565, -0.01365869864821434, 0.00421488331630826, -0.013993210159242153, 0.014377439394593239, -0.01509036310017109, 0.013196874409914017, -0.014068963937461376, 0.01303226500749588, -0.012329582124948502, -0.013265851885080338, -0.011911057867109776, 0.004054640419781208, -0.0059418268501758575, 0.012873613275587559, 0.008786196820437908, -0.010769621469080448, -0.014922781847417355, 0.01390829123556614, -0.002731677843257785, 0.011252536438405514, 0.00012071929813828319, 0.011882642284035683, -0.014133750461041927, 0.01343919150531292, -0.015297873876988888, -0.0030279967468231916, -0.002830769866704941, 0.005598126444965601, -0.0021517309360206127, -0.012908998876810074, -0.014425625093281269, 0.006579690612852573, -0.015058829449117184, 0.00984584167599678, -0.0005017363582737744, 0.010288551449775696, -0.013552387244999409, 0.013842573389410973, -0.014092815108597279, 0.004236029461026192, -0.013439584523439407, 0.012106412090361118, -0.009921765886247158, 0.013832644559442997, -0.0003725098795257509, -0.013814573176205158, -0.011882022023200989, -3.4880213206633925e-05, -0.010642314329743385, 0.007065595127642155, 4.368371082819067e-05, 0.011342605575919151, -0.01383646484464407, 0.00023736528237350285, 0.013317392207682133, -0.013167771510779858, -0.011249277740716934, 0.012340104207396507, -0.013180927373468876, 0.0020517322700470686, 0.013302532956004143, -0.01443584356456995, -0.013208371587097645, 0.013415402732789516, -0.014687348157167435], [-0.0003483274776954204, 0.016031336039304733, -0.009701249189674854, 0.005155251361429691, -0.016001269221305847, -0.014497412368655205, -0.0020913206972181797, -0.0023402117658406496, -0.005727854091674089, 0.0023138150572776794, 0.0074048228561878204, 0.017654409632086754, -0.021587330847978592, 3.449386349529959e-05, -0.017597008496522903, -0.017600545659661293, -0.018185466527938843, 0.0186794251203537, -0.01845174841582775, 0.016104264184832573, -0.011802101507782936, 0.005997248459607363, 0.0007426884258165956, -0.0069921016693115234, -0.025780318304896355, 0.019495297223329544, -0.01432928629219532, -5.790148497908376e-05, -0.004435326904058456, 0.0018007458420470357, -0.016146831214427948, 0.01162245124578476, -0.016684498637914658, 0.025623532012104988, -0.022794291377067566, -0.0013401967007666826, -0.025117021054029465, -0.016069747507572174, -0.01696743816137314, 0.011196838691830635, -0.01842675730586052, -0.007071477361023426, 0.024875421077013016, 0.023642761632800102, -0.01523422822356224, 0.017854467034339905, 0.016340652480721474, 0.015717148780822754, -0.017833754420280457, -5.407478238339536e-05, 0.01719219796359539, 0.018778355792164803, -0.00011894683120772243, 0.020233923569321632, -0.019118089228868484, -0.003472625045105815, -0.018583275377750397, -0.004561959765851498, -0.016974350437521935, 0.01808079704642296, 0.009693458676338196, 0.0035601146519184113, -0.002074604853987694, 0.015879357233643532, -0.0029398640617728233, 0.01730417087674141, -0.023575911298394203, 0.017295656725764275, -0.005547263193875551, 0.01622123084962368, -0.022377973422408104, 0.0029033729806542397, 0.013540892861783504, 0.0019468549871817231, -0.0025507297832518816, 0.01663019508123398, -0.020381281152367592, -0.0019970485009253025, 0.010410841554403305, 0.004794063046574593, -0.013670828193426132, 0.0026189961936324835, -0.017718331888318062, 0.00014980246487539262, -0.017905564978718758, 0.018532490357756615, -0.021906714886426926, 0.01669735088944435, 0.0211478341370821, 0.027598828077316284, -0.002487041987478733, 0.0023262170143425465, 0.001978994579985738, 0.017853792756795883, -0.0064706034027040005, 0.01645631343126297, -0.009877193719148636, 0.00023229063663166016, -0.010814513079822063, 0.021028338000178337, -0.015951698645949364, 0.014877993613481522, -0.014507116749882698, 0.0020921502728015184, -0.017089247703552246, 0.009739772416651249, -0.01870989426970482, 0.0006798480753786862, 0.015598260797560215, 0.018236050382256508, 6.257582572288811e-05, 0.017513159662485123, -0.003936517983675003, -4.698042539530434e-05, -0.009239437989890575, 0.019478416070342064, -0.0005695048603229225, -0.01901126839220524, 0.00609153276309371, 0.01637539081275463, -0.002042685868218541, 0.0020282960031181574, -0.01816878281533718, -0.01772860623896122, 0.014482049271464348, 0.01815648190677166, -0.020391955971717834, 0.01729431375861168], [-5.295298615237698e-05, -0.004137408919632435, 0.008695269003510475, -0.004927143920212984, 0.00657587731257081, 0.010690589435398579, 0.007588145788758993, 0.009297747164964676, 0.008268989622592926, -0.009583838284015656, -0.012016283348202705, -0.002113024005666375, 0.008808729238808155, -5.2365179726621136e-05, 0.008818765170872211, 0.00983930192887783, 0.00929009635001421, -0.008589678443968296, 0.01005714014172554, -0.003880029544234276, 0.011157948523759842, -0.005612868349999189, -0.004034846089780331, 0.008851874619722366, 0.0015821678098291159, -0.0028789800126105547, 0.0064271437004208565, 0.00039350357837975025, 0.011860787868499756, -0.008589708246290684, 0.008561449125409126, -0.008586221374571323, 0.0041059707291424274, -0.007878254167735577, 0.002318805316463113, 0.0005824397667311132, 0.007857130840420723, 0.009119180031120777, 0.0046569472178816795, -0.0022100694477558136, 0.008681262843310833, 0.009051013737916946, -0.0017624462489038706, -0.008108651265501976, 0.009898453950881958, -0.009369218721985817, -0.00569927878677845, -0.002303687622770667, 0.010530569590628147, 0.00029072261531837285, -0.011215039528906345, -0.002131311222910881, 0.0001193122225231491, -0.008931131102144718, 0.002267331350594759, 0.005459010135382414, 0.0100834546610713, 0.005389498081058264, 0.002223552670329809, -0.00811420101672411, -0.00890614464879036, -0.010214305482804775, 0.007447644602507353, -0.011738336645066738, 0.009401774033904076, -0.009914185851812363, 0.002556795021519065, -0.0023592174984514713, 0.008375333622097969, -0.009848919697105885, 0.008591476827859879, -0.00949743203818798, -0.012599591165781021, -0.001973452279344201, 0.009750165976583958, -0.0052984668873250484, 0.008086136542260647, 0.010981854051351547, -0.004495298024266958, -0.012655613012611866, 0.0034761447459459305, -0.003076232271268964, 0.008669828996062279, 3.192134317941964e-05, 0.010270136408507824, -0.005615050904452801, 0.008154439739882946, -0.010443247854709625, -0.00854266993701458, -0.008306346833705902, 0.009257620200514793, -0.010706077329814434, -0.009403404779732227, -0.0024698073975741863, 0.010704751126468182, -0.010326387360692024, 0.014057039283216, -0.0004073364834766835, 0.007352052256464958, -0.0023951008915901184, 0.0036015482619404793, -0.010755155235528946, 0.010259060189127922, -0.008752679452300072, 0.00700108427554369, -0.008889598771929741, 0.00927562452852726, -0.0059855906292796135, -0.013016676530241966, -0.009446375072002411, -6.213179585756734e-05, -0.009224752895534039, 0.008927212096750736, -5.610962489299709e-06, 0.004884426016360521, -0.00983169861137867, 0.00022923036885913461, 0.008678116835653782, -0.011522007174789906, -0.010021607391536236, 0.009746917523443699, -0.0018185119843110442, 0.005388115998357534, 0.010717508383095264, -0.003393737832084298, -0.001942468574270606, 0.006884270813316107, -0.009698213078081608], [0.00027985399356111884, -0.0071396674029529095, 0.009086995385587215, -0.003866079729050398, 0.013222642242908478, 0.0033072135411202908, 0.002144098747521639, 0.001959000015631318, 0.0026703632902354, -0.015323074534535408, -0.01276842225342989, -0.014624262228608131, 0.015482083894312382, -1.735915611789096e-05, 0.0146981505677104, 0.013513869605958462, 0.01438620314002037, -0.012560580857098103, 0.002374657429754734, -0.014622270129621029, 0.012192890979349613, -0.010889818891882896, -0.011684984900057316, 0.00666013965383172, 0.006302582565695047, -0.013496884144842625, 0.013489866629242897, 0.000667913060169667, 0.014547588303685188, -0.014068103395402431, 0.009240715764462948, -0.011983065865933895, 0.013579721562564373, -0.014750247821211815, 0.013319183140993118, 0.0005550854257307947, 0.003439318621531129, 0.01308375783264637, 0.012758517637848854, -0.013233521021902561, 0.01464428473263979, 0.0021932991221547127, -0.014094199053943157, -0.014200412668287754, 0.012979522347450256, -0.015036234632134438, -0.012015115469694138, -0.01523846760392189, 0.014392546378076077, 0.00028950709383934736, -0.013797827996313572, -0.012177525088191032, -1.9532426449586637e-05, -0.014560732990503311, 0.013979675248265266, 0.014010936953127384, 0.008272433653473854, 0.006738191470503807, 0.01473869290202856, -0.0019149096915498376, -0.008912995457649231, -0.013656253926455975, 0.014126385562121868, -0.013371770270168781, 0.014990302734076977, -0.001967400312423706, 0.011754998005926609, -0.01333894208073616, 0.006961286533623934, -0.010582059621810913, 0.014841076917946339, -0.0021075215190649033, -0.01146941352635622, -0.004556234460324049, 0.014125501736998558, -0.011881960555911064, 0.00209460174664855, 0.008142553269863129, -0.009782283566892147, -0.011632082983851433, 0.0049831862561404705, -0.012446078471839428, 0.011882491409778595, -5.072030398878269e-05, 0.013285006396472454, -0.013515535742044449, 0.007552595343440771, -0.014920099638402462, -0.0023339777253568172, -0.002709062537178397, 0.0135326087474823, -0.005573792848736048, -0.003985246177762747, -0.009610475972294807, 0.006690847221761942, -0.006337422877550125, 0.005680771078914404, -0.0015077185817062855, 0.014239078387618065, -0.002309303032234311, 0.0038366280496120453, -0.013624717481434345, 0.008049738593399525, -0.0020181317813694477, 0.013510622084140778, -0.008685935288667679, 0.011558464728295803, -0.008975430391728878, -0.012630212120711803, -0.012097850441932678, 8.085439912974834e-05, -0.014830687083303928, 0.0065054926089942455, 4.884362624579808e-06, 0.009562293067574501, -0.014875145629048347, 5.778501417808002e-06, 0.003915010020136833, -0.01218001265078783, -0.002038124483078718, 0.013259638100862503, -0.014702674001455307, 0.01338845957070589, 0.010215498507022858, -0.0026752750854939222, -0.012790963985025883, 0.0022405211348086596, -0.013436412438750267], [0.00011708018428180367, -0.0068702297285199165, 0.008723747916519642, -0.007424111012369394, 0.0022956631146371365, 0.008311199024319649, 0.0020741394255310297, 0.008529836311936378, 0.011754894629120827, -0.012649938464164734, -0.012508207000792027, -0.010198269970715046, 0.00537200877442956, 3.182474392815493e-05, 0.010960925370454788, 0.0019194884225726128, 0.010084331035614014, -0.009133541025221348, 0.011001570150256157, -0.011318043805658817, 0.005285835359245539, -0.005682128947228193, -0.0005637634894810617, 0.004571715835481882, 0.008803272619843483, -0.009225553832948208, 0.011205954477190971, -0.0001421753695467487, 0.010523335076868534, -0.008680234663188457, 0.0019330126233398914, -0.0070205796509981155, 0.010239849798381329, -0.0016184529522433877, 0.0017776397289708257, 0.00962232518941164, 0.009274490177631378, 0.008954126387834549, 0.0063283261843025684, -0.002263548318296671, 0.011099088937044144, 0.011025636456906796, -0.009397958405315876, -0.008630741387605667, 0.009324437938630581, -0.012804988771677017, -0.00045566295739263296, -0.003399168374016881, 0.0022621871903538704, 5.6843207858037204e-05, -0.010177192278206348, -0.0019443969940766692, 2.918239806604106e-05, -0.009463430382311344, 0.009315586648881435, 0.0024141629692167044, 0.011084698140621185, 0.013051834888756275, 0.0025325887836515903, -0.00683573167771101, -0.008098575286567211, -0.011421461589634418, 0.001979982713237405, -0.002664942527189851, 0.010422357358038425, -0.0016149713192135096, 0.0035663372837007046, -0.00486831646412611, 0.009717032313346863, -0.005502281244844198, 0.010495932772755623, -0.007093467749655247, -0.011092640459537506, -0.008716265670955181, 0.0035283672623336315, -0.003021783661097288, 0.010508417151868343, 0.006726442836225033, -0.011362356133759022, -0.0032339487224817276, 0.010549389757215977, -0.010822701267898083, 0.00881308875977993, 4.1527287976350635e-05, 0.003548684762790799, -0.008588429540395737, 0.005724342539906502, -0.010661039501428604, -0.0023970501497387886, -0.00945953093469143, 0.00988982617855072, -0.005665352568030357, -0.009436354972422123, -0.011487521231174469, 0.006873743142932653, -0.0032202601432800293, 0.003754753852263093, -0.0031898203305900097, 0.007321238983422518, -0.010392061434686184, 0.01036868803203106, -0.002482951618731022, 0.010027225129306316, -0.010418270714581013, 0.010237307287752628, -0.010655020363628864, 0.01030086912214756, -0.0008847916615195572, -0.011737934313714504, -0.008494925685226917, -6.206803664099425e-05, -0.009944134391844273, 0.0007107721175998449, -5.6198354286607355e-05, 0.0089883953332901, -0.0016886641969904304, 0.00013601002865470946, 0.010568798519670963, -0.009633684530854225, -0.009136047214269638, 0.005933401640504599, -0.003826629836112261, 0.010481025092303753, 0.01117714587599039, -0.010202961042523384, -0.0019347515190020204, 0.010736709460616112, -0.004926588851958513], [0.00019426099606789649, 0.006030166056007147, -0.008457930758595467, 0.005710149183869362, -0.009948112070560455, -0.011699723079800606, -0.010760912671685219, -0.010186954401433468, -0.009680566377937794, 0.002851440804079175, 0.012980743311345577, 0.011468135751783848, -0.01047060452401638, 3.1202427635435015e-05, -0.010820179246366024, -0.00231226347386837, -0.009924272075295448, 0.009394011460244656, -0.00931293424218893, 0.012182298116385937, -0.011695544235408306, 0.003650122322142124, 0.007214424200356007, -0.014548952691257, -0.009392516687512398, 0.01044581551104784, -0.011744247749447823, 0.0003953944833483547, -0.012302756309509277, 0.010638672858476639, -0.0013893810100853443, 0.008460961282253265, -0.011173160746693611, 0.010265616700053215, -0.0018036572728306055, -0.0002939938276540488, -0.009296055883169174, -0.002141542499884963, -0.011925146915018559, 0.01074096281081438, -0.01133386604487896, -0.011234112083911896, 0.002425296464934945, 0.001809850218705833, -0.010703282430768013, 0.011003006249666214, 0.014156975783407688, 0.013409795239567757, -0.01237503718584776, -0.0003621875657700002, 0.01270388811826706, 0.0021853591315448284, -0.0001454914454370737, 0.01033721212297678, -0.011242173612117767, -0.011187434196472168, -0.011297006160020828, -0.0043426696211099625, -0.011223136447370052, 0.010371269658207893, 0.010009965859353542, 0.012190807610750198, -0.009811172261834145, 0.002498535206541419, -0.0019285843009129167, 0.011040468700230122, -0.001985808601602912, 0.01255073957145214, -0.008888295851647854, 0.010286270640790462, -0.005832883063703775, 0.00992594938725233, 0.012471592053771019, 0.009917800314724445, -0.005192890297621489, 0.01245652325451374, -0.010071913711726665, -0.0017808665288612247, 0.010268943384289742, 0.013726204633712769, -0.009935567155480385, 0.010574696585536003, -0.011034280061721802, -0.00010889753320952877, -0.011561637744307518, 0.0017610632348805666, -0.011195982806384563, 0.0029881189111620188, 0.010458597913384438, 0.008205500431358814, -0.010578633286058903, 0.008380355313420296, 0.01127318199723959, 0.0033150394447147846, -0.0097228167578578, 0.010739834047853947, -0.013642937876284122, 0.0008246818906627595, -0.010042085312306881, 0.0024765580892562866, -0.01174585148692131, 0.011737206019461155, -0.004616315010935068, 0.009822992607951164, -0.010937631130218506, 0.008976323530077934, -0.0033232884015887976, 0.002855788916349411, 0.007427459117025137, 0.011079244315624237, 3.460314837866463e-05, 0.009682264178991318, -0.006391235627233982, -4.3604723032331094e-05, -0.012542479671537876, 0.010533666238188744, -3.146268500131555e-05, -0.011153403669595718, 0.011419742368161678, 0.006508897989988327, -0.004079367034137249, 0.0029115278739482164, -0.010609306395053864, -0.011132053099572659, 0.01283640693873167, 0.0024376094806939363, -0.011082230135798454, 0.011077880859375], [2.829558616213035e-05, -0.007012586109340191, 0.009981341660022736, -0.004327820148319006, 0.011720575392246246, 0.0027495305985212326, 0.002557945903390646, 0.012974141165614128, 0.0077020651660859585, -0.015541838482022285, -0.012753025628626347, -0.013869253918528557, 0.014874499291181564, 6.94416812621057e-05, 0.013348698616027832, 0.012034237384796143, 0.014593487605452538, -0.013390617445111275, 0.013081093318760395, -0.013277948834002018, 0.012437989935278893, -0.009872904978692532, -0.00025050394469872117, 0.009204818867146969, 0.013978801667690277, -0.012615952640771866, 0.009753219783306122, 0.00015063038154039532, 0.014828667975962162, -0.013177726417779922, 0.012912850826978683, -0.009412240236997604, 0.013998953625559807, -0.004732748027890921, 0.012716823257505894, 0.004629162140190601, 0.013480943627655506, 0.002306167036294937, 0.012086219154298306, -0.012474500574171543, 0.013715464621782303, 0.014101222157478333, -0.014556661248207092, -0.0020482686813920736, 0.006325695663690567, -0.014796440489590168, -0.00025223541888408363, -0.01458088681101799, 0.01428982149809599, 0.0005596819682978094, -0.014665312133729458, -0.012508450075984001, 3.863652455038391e-05, -0.00403932761400938, 0.013948753476142883, 0.012607235461473465, 0.015119391493499279, 0.004711594898253679, 0.013624262064695358, -0.012596958316862583, -0.009153100661933422, -0.013200903311371803, 0.013013528659939766, -0.003730104072019458, 0.013848907314240932, -0.013414313085377216, 0.01446955930441618, -0.014502779580652714, 0.012852340005338192, -0.003314190311357379, 0.014440173283219337, -0.012429441325366497, -0.01227614376693964, -0.010373398661613464, 0.0038373125717043877, -0.013719211332499981, 0.006953796837478876, 0.0012490855297073722, -0.010952453128993511, -0.015369497239589691, 0.013781254179775715, -0.0063817487098276615, 0.0034007281064987183, 0.00011088167229900137, 0.01387027744203806, -0.012472424656152725, 0.015440814197063446, -0.013551724143326283, -0.013366123661398888, -0.015013550408184528, 0.013820033520460129, -0.014287172816693783, -0.014169542118906975, -0.013903846964240074, 0.010477670468389988, -0.012550375424325466, 0.006736093666404486, -0.00023933824559208006, 0.006773553788661957, -0.014792139641940594, 0.0037625099066644907, -0.01179729774594307, 0.012797491624951363, -0.012921133078634739, 0.01333584450185299, -0.010292056947946548, 0.012921414338052273, -0.008544795215129852, -0.013523314148187637, -0.01163830142468214, -8.620246262580622e-06, -0.004313343670219183, 0.0052033113315701485, 0.00010725096217356622, 0.012329038232564926, -0.01285556796938181, -3.790156915783882e-05, 0.014463154599070549, -0.0025056065060198307, -0.015549082309007645, 0.013177651911973953, -0.011467990465462208, 0.012546215206384659, 0.002459646435454488, -0.013417256064713001, -0.013141441158950329, 0.014781871810555458, -0.002130125882104039], [0.00037580294883809984, -0.010127783752977848, 0.008202587254345417, -0.007214866578578949, 0.012786922045052052, 0.013977902010083199, 0.012064741924405098, 0.01777604967355728, 0.013333894312381744, -0.006860779598355293, -0.013361728750169277, -0.0021644248627126217, 0.016057103872299194, -1.8117494619218633e-05, 0.015976140275597572, 0.01592988893389702, 0.017509296536445618, -0.002061408944427967, 0.01618487574160099, -0.014210458844900131, 0.010796722956001759, -0.011789992451667786, -0.01891978457570076, 0.007705082185566425, 0.018922993913292885, -0.016153577715158463, 0.013401826843619347, -0.0002790296566672623, 0.002017390914261341, -0.017140861600637436, 0.001174662378616631, -0.008698896504938602, 0.0024232291616499424, -0.01859927922487259, 0.01806614361703396, 0.00874918233603239, 0.0018346481956541538, 0.015090554021298885, 0.013304395601153374, -0.015215922147035599, 0.0025750629138201475, 0.002390592359006405, -0.018742531538009644, -0.01814660057425499, 0.016738785430788994, -0.0023546668235212564, -0.0008823753450997174, -0.013407560996711254, 0.01609344594180584, 0.0005669239326380193, -0.016103453934192657, -0.0025916278827935457, -0.0002880399697460234, -0.016104217618703842, 0.015007567591965199, 0.016763824969530106, 0.01729964278638363, 0.004980423487722874, 0.013606376945972443, -0.01603441871702671, -0.009474365040659904, -0.015340247191488743, 0.0033465642482042313, -0.0161103717982769, 0.015794845297932625, -0.002677503740414977, 0.017882347106933594, -0.015993962064385414, 0.00566379027441144, -0.014517995528876781, 0.004250569734722376, -0.01721896044909954, -0.013329856097698212, -0.016215847805142403, 0.014487868174910545, -0.016798708587884903, 0.015998467803001404, 0.005575451999902725, -0.010197370313107967, -0.006666034925729036, 0.0038127826992422342, -0.014162391424179077, 0.015048544853925705, -0.0002130888751707971, 0.015337943099439144, -0.016546079888939857, 0.018611125648021698, -0.0028901933692395687, -0.01659920997917652, -0.02012215554714203, 0.015494022518396378, -0.01775377057492733, -0.014997652731835842, -0.003833382623270154, 0.009803426451981068, -0.013531665317714214, 0.013119415380060673, 4.011550117866136e-05, 0.0028738686814904213, -0.016600416973233223, 0.004498572088778019, -0.014136933721601963, 0.012115647085011005, -0.0031982557848095894, 0.012684067711234093, -0.008356675505638123, 0.015581835061311722, -0.020382771268486977, -0.015575614757835865, -0.0021014553494751453, -9.024667087942362e-05, -0.013815877959132195, 0.0026904153637588024, 2.235378531167953e-07, 0.011810763739049435, -0.001923154923133552, -1.4740062397322617e-05, 0.014498738572001457, -0.002517838729545474, -0.00238189660012722, 0.01611713506281376, -0.016046980395913124, 0.015049570240080357, 0.013716597110033035, -0.005086725112050772, -0.016937876120209694, 0.006059755105525255, -0.0048324367962777615], [-0.0003843839222099632, 0.0051589347422122955, -0.009028345346450806, 0.005368850193917751, -0.011202968657016754, -0.01313623134046793, -0.0020922371186316013, -0.013390954583883286, -0.009497229009866714, 0.010044155642390251, 0.0045282128266990185, 0.011807119473814964, -0.0127593157812953, -3.66297026630491e-05, -0.011978091672062874, -0.0027486823964864016, -0.01313453447073698, 0.0022487500682473183, -0.007364060264080763, 0.01327807642519474, -0.010140836238861084, 0.010720165446400642, 0.010246149264276028, -0.007947776466608047, -0.013786300085484982, 0.0018861334538087249, -0.01067424938082695, -0.00019727883045561612, -0.013199982233345509, 0.0017433271277695894, -0.012098866514861584, 0.007826757617294788, -0.0025938439648598433, 0.013422551564872265, -0.013386211358010769, -0.011532752774655819, -0.0023454066831618547, -0.012217574752867222, -0.002392338588833809, 0.0023084660060703754, -0.012248290702700615, -0.011404143646359444, 0.015089806169271469, 0.013619852252304554, -0.003196161240339279, 0.011972700245678425, 0.013962299562990665, 0.004710060544312, -0.00229984731413424, -0.00027801046962849796, 0.013039552606642246, 0.012053250335156918, -0.00014578265836462379, 0.011917841620743275, -0.012105233035981655, -0.0028777471743524075, -0.0021886934991925955, -0.013177530840039253, -0.01214892603456974, 0.011964197270572186, 0.00978851318359375, 0.006027165334671736, -0.001945339608937502, 0.014185543172061443, -0.0034619192592799664, 0.012119271792471409, -0.002623133361339569, 0.002109481254592538, -0.005597847513854504, 0.00552361598238349, -0.012917475774884224, 0.013502633199095726, 0.004133013542741537, 0.001984500093385577, -0.01257013063877821, 0.013860434293746948, -0.01152769848704338, -0.010839344002306461, 0.004663172643631697, 0.00626771803945303, -0.010268623009324074, 0.010700572282075882, -0.0106476666405797, -5.138111737323925e-05, -0.012520704418420792, 0.01279740035533905, -0.013426175341010094, 0.004779581446200609, 0.013378461822867393, 0.01364425290375948, -0.004845747258514166, 0.01396312564611435, 0.011501630768179893, 0.013188676908612251, -0.00642850948497653, 0.01157368067651987, -0.010028797201812267, 0.0016269967891275883, -0.006116810254752636, 0.0044183493591845036, -0.003324866062030196, 0.011496230959892273, -0.009253407828509808, 0.0022565959952771664, -0.012251813896000385, 0.008660240098834038, -0.01313002035021782, 0.012500990182161331, 0.014811367727816105, 0.0019542695954442024, 3.0131652238196693e-05, 0.008542302064597607, -0.002723143668845296, -0.00010067490802612156, -0.009705123491585255, 0.0024784100241959095, -0.00013187686272431165, -0.01208073366433382, 0.002532237907871604, 0.01264654379338026, -0.01178374420851469, 0.0023308959789574146, -0.011622034013271332, -0.0036816007923334837, 0.003592143068090081, 0.0020219634752720594, -0.012170396745204926, 0.013605685904622078], [0.0002166494814446196, 0.005025132093578577, -0.00984195526689291, 0.006923579145222902, -0.002387324580922723, -0.009233308956027031, -0.013834556564688683, -0.0154438316822052, -0.013544982299208641, 0.014119178056716919, 0.013892969116568565, 0.0146689023822546, -0.014912768267095089, -3.21847946906928e-05, -0.013739204034209251, -0.013335559517145157, -0.005522916559129953, 0.012573699466884136, -0.013567277230322361, 0.014415303245186806, -0.010340636596083641, 0.010365520603954792, 0.01796276494860649, -0.012357376515865326, -0.002007553121075034, 0.002126911422237754, -0.014750148169696331, -0.000300648738630116, -0.014266245998442173, 0.014275023713707924, -0.014597000554203987, 0.01079271174967289, -0.01297065895050764, 0.015914639458060265, -0.015284731984138489, -0.01211243961006403, -0.01413401123136282, -0.002337074838578701, -0.0038209448102861643, 0.014215175062417984, -0.013818025588989258, -0.006426496896892786, 0.006188623141497374, 0.001828762236982584, -0.014958078041672707, 0.0039853304624557495, 0.0004410186957102269, 0.016268739476799965, -0.003766470355913043, -0.0005551842623390257, 0.014270265586674213, 0.014230229891836643, -0.00011920272663701326, 0.013648904860019684, -0.014337769709527493, -0.013870456255972385, -0.0023560982663184404, -0.00734739052131772, -0.014152134768664837, 0.014316231943666935, 0.009647411294281483, 0.006679441314190626, -0.013380350545048714, 0.014711608178913593, -0.014294680207967758, 0.014001342467963696, -0.016176974400877953, 0.01562594063580036, -0.011686799116432667, 0.008426439017057419, -0.015964524820446968, 0.006975024007260799, 0.0042444015853106976, 0.013687287457287312, -0.0030080077704042196, 0.013597093522548676, -0.0030974254477769136, -0.013857592828571796, 0.010066733695566654, 0.003259042976424098, -0.013551786541938782, 0.01420281920582056, -0.0026883771643042564, 0.00010094226308865473, -0.013453079387545586, 0.014647037722170353, -0.015612689778208733, 0.015193004161119461, 0.0020320862531661987, 0.014786450192332268, -0.014837674796581268, 0.0148203419521451, 0.0020779124461114407, 0.002868472132831812, -0.009515524841845036, 0.015184726566076279, -0.00380860292352736, 0.00038375178701244295, -0.01383126899600029, 0.014733485877513885, -0.01384686678647995, 0.0141257019713521, -0.01181896310299635, 0.014607422985136509, -0.0141135323792696, 0.008783912286162376, -0.015004455111920834, 0.0003530199464876205, 0.003905403660610318, 0.013633809052407742, 4.91088540002238e-05, 0.013185562565922737, -0.006560898385941982, -2.725195918173995e-05, -0.004992516245692968, 0.014303842559456825, -0.00020912785839755088, -0.015217593871057034, 0.013705790974199772, 0.01439859252423048, -0.015212287195026875, 0.014872955158352852, -0.01323849055916071, -0.0145252151414752, 0.002705054823309183, 0.013627142645418644, -0.015253908932209015, 0.013994074426591396], [-0.0003002673911396414, 0.007118987385183573, -0.007868117652833462, 0.004794667009264231, -0.008974481374025345, -0.013507179915904999, -0.0020503171253949404, -0.016642997041344643, -0.002683688420802355, 0.011442706920206547, 0.0036869794130325317, 0.015363270416855812, -0.013983276672661304, 6.757000664947554e-05, -0.002366455504670739, -0.015591982752084732, -0.0031486127991229296, 0.0020394683815538883, -0.014511995017528534, 0.0026093018241226673, -0.00552511028945446, 0.010902008973062038, 0.019823744893074036, -0.00759323313832283, -0.01716393046081066, 0.01432599127292633, -0.0035360949113965034, -0.00033033208455890417, -0.014126800931990147, 0.011303581297397614, -0.015240243636071682, 0.00699679646641016, -0.002240358619019389, 0.01676841452717781, -0.017639655619859695, -0.007946922443807125, -0.0017823379021137953, -0.015325380489230156, -0.014506512321531773, 0.01482311263680458, -0.013416009955108166, -0.009844127111136913, 0.018058305606245995, 0.016946084797382355, -0.006966068409383297, 0.012519397772848606, 0.015153985470533371, 0.006523675285279751, -0.014794369228184223, -0.000563877634704113, 0.0026720440946519375, 0.002040236024186015, 1.8809247194440104e-05, 0.01123755518347025, -0.01522271428257227, -0.014311953447759151, -0.0046816603280603886, -0.00797746330499649, -0.013479083776473999, 0.015637634322047234, 0.009769916534423828, 0.01451457105576992, -0.003151691285893321, 0.0161150973290205, -0.014145136810839176, 0.015190176665782928, -0.016624024137854576, 0.01748540811240673, -0.006090246140956879, 0.012617380358278751, -0.016002802178263664, 0.0020057593937963247, 0.013100880198180676, 0.015818024054169655, -0.013959014788269997, 0.011089793406426907, -0.014574719592928886, -0.01138392835855484, 0.009965823031961918, 0.0067406510934233665, -0.011084341444075108, 0.002786473371088505, -0.003527309512719512, 5.553761002374813e-05, -0.0150053845718503, 0.01627468504011631, -0.002458768431097269, 0.00806637667119503, 0.015135354362428188, 0.018619677051901817, -0.0021083580795675516, 0.01704470068216324, 0.01549538690596819, 0.013913837261497974, -0.006787468679249287, 0.011091798543930054, -0.018821261823177338, 0.00036274187732487917, -0.012832719832658768, 0.0022076650056988, -0.005608162377029657, 0.0134709682315588, -0.004647814668715, 0.013936414383351803, -0.01424282044172287, 0.00900108553469181, -0.014805406332015991, 0.020703492686152458, 0.002979586599394679, 0.0020511173643171787, -6.757563824066892e-05, 0.010747527703642845, -0.009504420682787895, 1.0390934903625748e-06, -0.01134780328720808, 0.015007464215159416, -0.0005698400782421231, -0.01281763520091772, 0.014278773218393326, 0.0019436075817793608, -0.00198409054428339, 0.015451754443347454, -0.011025064624845982, -0.015523398295044899, 0.01503017544746399, 0.002510146237909794, -0.014089991338551044, 0.017716169357299805], [2.892991915359744e-06, 0.002026038710027933, -0.008909575641155243, 0.005268495064228773, -0.015627281740307808, -0.014396416954696178, -0.017755107954144478, -0.021350959315896034, -0.01526181772351265, 0.0023872763849794865, 0.012513910420238972, 0.003926685079932213, -0.006851681973785162, -0.00011019072553608567, -0.01884450949728489, -0.016503969207406044, -0.021055663004517555, 0.018713252618908882, -0.003775996156036854, 0.01932952180504799, -0.009913893416523933, 0.011940553784370422, 0.02435031346976757, -0.006456163711845875, -0.006833077874034643, 0.018595168367028236, -0.005918649025261402, 0.0001427365350537002, -0.002035699086263776, 0.020799675956368446, -0.015615295618772507, 0.01015403401106596, -0.016915468499064445, 0.02355831488966942, -0.0216622706502676, -0.011506837792694569, -0.02474980242550373, -0.016157828271389008, -0.015242052264511585, 0.017965784296393394, -0.019155001267790794, -0.016732685267925262, 0.02393827773630619, 0.006831916980445385, -0.015060024335980415, 0.01041673868894577, 0.010398242622613907, 0.007646833546459675, -0.017253965139389038, -0.0007954502361826599, 0.0172620490193367, 0.017635438591241837, -0.00010673567157937214, 0.019400229677557945, -0.007306914776563644, -0.01639997586607933, -0.019043488427996635, -0.013461976312100887, -0.016879748553037643, 0.015008671209216118, 0.009610299952328205, 0.0035937062930315733, -0.018912719562649727, 0.005678209941834211, -0.017608564347028732, 0.015894919633865356, -0.02174750715494156, 0.017834870144724846, -0.00621689623221755, 0.017661122605204582, -0.020825672894716263, 0.01864839717745781, 0.004838934168219566, 0.01912667602300644, -0.01663273572921753, 0.016529643908143044, -0.02066090889275074, -0.0011200535809621215, 0.0064652832224965096, 0.01609884202480316, -0.016541218385100365, 0.017144471406936646, -0.017030904069542885, 5.61825254408177e-05, -0.012425611726939678, 0.01782502420246601, -0.019922684878110886, 0.016873691231012344, 0.020880797877907753, 0.002196886111050844, -0.01626889407634735, 0.01607467792928219, 0.002948289504274726, 0.017660129815340042, -0.00864497385919094, 0.01774212159216404, -0.01012550201267004, 0.0015361433615908027, -0.0032997194211930037, 0.020869180560112, -0.01552364882081747, 0.015443499200046062, -0.014260304160416126, 0.004860891494899988, -0.00959337130188942, 0.009321468882262707, -0.018813658505678177, 0.02654973976314068, 0.01466849073767662, 0.018184849992394447, 3.423334055696614e-05, 0.019529514014720917, -0.007960363291203976, -4.872673162026331e-05, -0.011788658797740936, 0.020654596388339996, -4.744316538562998e-05, -0.017983069643378258, 0.014563363045454025, 0.020423898473381996, -0.020302511751651764, 0.01903958059847355, -0.017034532502293587, -0.00250407587736845, 0.014760213904082775, 0.0182685274630785, -0.006393153220415115, 0.015651488676667213], [0.00020423595560714602, -0.005882663652300835, 0.0041818018071353436, -0.005157968029379845, 0.015223112888634205, 0.013603619299829006, 0.015790337696671486, 0.004135401453822851, 0.012909505516290665, -0.013720628805458546, -0.0037914107087999582, -0.002168439095839858, 0.016898496076464653, 6.322871195152402e-05, 0.0026937418151646852, 0.014895684085786343, 0.0017536423401907086, -0.01606771908700466, 0.0024471567012369633, -0.006626407615840435, 0.010737947188317776, -0.010507320985198021, -0.0010693324729800224, 0.004817430395632982, 0.018753422424197197, -0.002015284262597561, 0.013474629260599613, 0.0004259884008206427, 0.005923610180616379, -0.016803398728370667, 0.01425698958337307, -0.006050426047295332, 0.0155749237164855, -0.019320044666528702, 0.01843317225575447, 6.237105844775215e-05, 0.019503986462950706, 0.015458332374691963, 0.0037744673900306225, -0.015465199947357178, 0.00860904622823, 0.0030600186437368393, -0.006632165517657995, -0.018751559779047966, 0.014988090842962265, -0.014302130788564682, -0.0015254872851073742, -0.00915667973458767, 0.014735192991793156, 2.9363829526118934e-05, -0.014399506151676178, -0.015256019309163094, -0.00018961199384648353, -0.017156923189759254, 0.016313238069415092, 0.01489320769906044, 0.0027320876251906157, 0.004683768376708031, 0.013964447192847729, -0.015841253101825714, -0.008621283806860447, -0.01453142799437046, 0.015794573351740837, -0.016208043321967125, 0.0021512561943382025, -0.015775145962834358, 0.002079905243590474, -0.016112642362713814, 0.013798152096569538, -0.012819084338843822, 0.01766999065876007, -0.016439951956272125, -0.012322668917477131, -0.0166073739528656, 0.016114506870508194, -0.001991103170439601, 0.015753187239170074, 0.0033432282507419586, -0.011253753677010536, -0.003078441834077239, 0.01284545287489891, -0.014132893644273281, 0.0036288052797317505, -0.00011672934488160536, 0.015219978988170624, -0.016564257442951202, 0.018355393782258034, -0.013749441131949425, -0.007400501519441605, -0.006506146863102913, 0.014253616333007812, -0.015981685370206833, -0.01600492186844349, -0.003821111051365733, 0.009925714693963528, -0.014543379656970501, 0.004327081609517336, -0.000622230872977525, 0.01350149791687727, -0.0026679669972509146, 0.013164754025638103, -0.0032126798760145903, 0.01206341851502657, -0.002081930870190263, 0.01480378583073616, -0.010552728548645973, 0.0164177268743515, -0.019280700013041496, -0.0028547272086143494, -0.01711220107972622, -4.044361776323058e-05, -0.013242226094007492, 0.008230498991906643, 7.396407454507425e-05, 0.011824318207800388, -0.016988050192594528, 0.00020838591444771737, 0.0158762875944376, -0.004170452244579792, -0.018706178292632103, 0.017002545297145844, -0.015422097407281399, 0.01453389972448349, 0.0022138587664812803, -0.002828635275363922, -0.015971070155501366, 0.001962060108780861, -0.0018974902341142297], [-0.0001023540462483652, 0.006776037625968456, -0.008409359492361546, 0.005464635323733091, -0.012467145919799805, -0.01276607345789671, -0.002130980370566249, -0.013363129459321499, -0.012652826495468616, 0.002451913198456168, 0.0038456739857792854, 0.01329965889453888, -0.0019563348032534122, 9.714030966279097e-06, -0.012510640546679497, -0.010028730146586895, -0.014231540262699127, 0.013602192513644695, -0.005071794148534536, 0.002782894065603614, -0.012033550068736076, 0.005707758944481611, 0.005791593808680773, -0.007669489830732346, -0.014185577630996704, 0.0033004223369061947, -0.012335782870650291, 9.634322486817837e-05, -0.012788672931492329, 0.01392182894051075, -0.0013278628466650844, 0.012588908895850182, -0.012941331602633, 0.014319228939712048, -0.002159607131034136, -0.007496080826967955, -0.013556118123233318, -0.012615074403584003, -0.013090918771922588, 0.002239547437056899, -0.014071558602154255, -0.0020476265344768763, 0.003492695977911353, 0.014898454770445824, -0.004769685212522745, 0.013131646439433098, 0.0011181416921317577, 0.004218648187816143, -0.013599279336631298, -0.0002883737033698708, 0.014736684039235115, 0.012207900173962116, -0.00012351633631624281, 0.0019505830714479089, -0.01039473433047533, -0.01273822970688343, -0.00201975554227829, -0.007229193579405546, -0.0040148100815713406, 0.013004407286643982, 0.009230997413396835, 0.013121717609465122, -0.012843952514231205, 0.01402321271598339, -0.014304937794804573, 0.01384779717773199, -0.015141045674681664, 0.0022459905594587326, -0.0059806592762470245, 0.008202137425541878, -0.014908370561897755, 0.002057954901829362, 0.013958406634628773, 0.01248465571552515, -0.013990409672260284, 0.013373947702348232, -0.013491535559296608, -0.01160887349396944, 0.009914983995258808, 0.015174848958849907, -0.009480436332523823, 0.01344406045973301, -0.012166593223810196, 0.00011349076521582901, -0.012968241237103939, 0.002135318471118808, -0.015657959505915642, 0.002896981779485941, 0.013382871635258198, 0.014986284077167511, -0.0021695015020668507, 0.013880564831197262, 0.01297861896455288, 0.013481946662068367, -0.009501504711806774, 0.011944962665438652, -0.017294300720095634, 0.0015184393851086497, -0.013526764698326588, 0.002174715045839548, -0.012301008217036724, 0.012121397070586681, -0.012081443332135677, 0.013222625479102135, -0.012998956255614758, 0.00761937303468585, -0.014225923456251621, 0.011578044854104519, 0.0052071865648031235, 0.008091750554740429, 8.984220585261937e-06, 0.003699811175465584, -0.005249652545899153, -0.00017643201863393188, -0.0049584731459617615, 0.01381366141140461, -0.0004518237547017634, -0.01221726555377245, 0.00585247203707695, 0.004274127539247274, -0.013646836392581463, 0.0018853876972571015, -0.0028231872711330652, -0.013601171784102917, 0.0036715655587613583, 0.01295504905283451, -0.013985970988869667, 0.013934606686234474], [-5.953316576778889e-05, -6.59247234580107e-05, 4.9917631258722395e-05, -5.3891068091616035e-05, -1.663039074628614e-05, -8.328199328389019e-06, -1.7690130334813148e-05, -1.1442630238889251e-05, -5.310908454703167e-05, 2.0924993805238046e-05, 7.337631586779025e-07, -6.277931333897868e-06, -1.3368970940064173e-05, -0.45717230439186096, -1.6819543816382065e-05, -1.4560353520209901e-05, -2.8445788302633446e-06, -1.7587123011253425e-06, 6.156710242066765e-06, 1.8056181943393312e-05, 0.005823871586471796, -0.01313855778425932, 0.029861891642212868, -0.002559700980782509, -3.7837662603124045e-06, 7.932437256386038e-06, -3.859710705000907e-05, -0.00028845027554780245, -0.0126729067414999, -3.893098437401932e-06, 3.109993122052401e-05, 1.1141674804093782e-05, -3.502111212583259e-05, 4.589355285133934e-06, 4.339703082223423e-06, -0.03584869205951691, -3.2797900075820507e-06, -8.753987458476331e-06, -3.078422014368698e-05, 4.624367193173384e-06, 3.904008281097049e-06, 3.6550623008224647e-06, 2.072671486530453e-05, 1.575952410348691e-05, -4.4321925088297576e-05, 9.591512935003266e-06, 0.00020189631322864443, 4.470364729058929e-06, -4.009627809864469e-05, -0.7384071946144104, 9.903730642690789e-06, 5.675893589796033e-06, -0.17933310568332672, 1.1344233826093841e-05, -1.025885921990266e-05, -1.736160811560694e-05, 4.616585158601083e-07, -0.03791467472910881, -1.8861803255276754e-05, 1.6740485079935752e-05, 0.04308491572737694, 3.135075530735776e-05, -4.750345760839991e-05, -1.8944418798128027e-06, -1.9394819901208393e-05, 9.883110578812193e-07, -8.245636308856774e-06, 1.1123645890620537e-05, -2.0337349269539118e-05, 1.1192017154826317e-05, -2.9612911021104082e-05, 2.038088314293418e-05, 1.6947182302828878e-05, -7.408433702948969e-06, -8.32106934467447e-07, 1.8623948960794223e-07, -4.506960613070987e-05, -0.09078554064035416, 0.04465610906481743, 3.0667415558127686e-05, -5.384163523558527e-05, 8.794447239779402e-06, 2.7251453502685763e-06, -0.00019130446889903396, -2.396324634901248e-05, -3.654735110103502e-06, -9.01444218470715e-06, 8.29829295980744e-05, -6.71170118948794e-06, 1.259128657693509e-05, -1.9932276700274087e-05, 6.5353115132893436e-06, -4.165732207184192e-06, 9.420105925528333e-06, -0.0022479949984699488, 2.1585317881545052e-05, 1.7939364624908194e-05, 0.28319332003593445, -3.3398209779988974e-06, -1.139664527727291e-05, 2.6349154722993262e-05, -1.6201667676796205e-05, -5.913205313845538e-06, 8.613410500402097e-06, -9.361754564451985e-06, -1.5916280972305685e-05, 2.449074963806197e-05, -8.639222505735233e-05, 7.373474545602221e-06, 7.325727438001195e-07, -0.7822828888893127, 2.6570383852231316e-05, -0.0472368523478508, 0.09249265491962433, -2.4485681933583692e-05, 2.1986186027334043e-07, -0.0012467578053474426, 4.855799124925397e-05, 7.921204996819142e-06, 2.1265474060783163e-05, 1.3181734175304882e-05, 2.313213008164894e-05, 6.054373784536438e-07, -2.0009938452858478e-06, 3.074451524298638e-05, -6.965601642150432e-06, -2.1661488062818535e-05, 1.4030631973582786e-05], [0.00023135374067351222, 4.882005669060163e-05, -0.00010460194607730955, 5.494682409334928e-05, 1.2343900380074047e-05, 2.934962867584545e-05, -3.307746965219849e-06, 1.7474970093189768e-07, 2.888544440793339e-05, -2.468118145770859e-05, -9.88242118182825e-06, 6.665643013548106e-06, -1.0980454135278706e-05, 0.3335743546485901, -1.3385452803049702e-05, 1.595913818164263e-05, -8.882533620635513e-06, -1.0110567927767988e-05, 2.65954872702423e-06, -2.6947564037982374e-05, -0.0032205507159233093, 0.03858083859086037, -0.024884885177016258, 0.003531714202836156, 1.8965027265949175e-05, 1.4357631243910873e-06, 3.594762529246509e-05, -8.628800424048677e-05, 0.0010809985687956214, 4.350175458966987e-06, 0.000101051977253519, 0.0008336359169334173, -1.891912830842557e-07, 3.300037406006595e-06, -3.1523228471996845e-08, 0.030701488256454468, -7.676037057535723e-06, 6.372105872287648e-06, 4.6822988224448636e-05, 2.367803972447291e-06, 1.0420915714348666e-05, -1.966759555216413e-06, -5.524831522052409e-06, 6.2934345805842895e-06, 6.714579649269581e-05, 3.125619059574092e-06, -6.328814924927428e-05, -8.115664059005212e-06, 3.564073267625645e-06, 0.29680135846138, -1.1237501894356683e-05, -4.726441329694353e-05, 0.10058557242155075, -1.4173941053741146e-05, -2.3427855921909213e-06, 4.855556653637905e-06, 1.6725103932913044e-06, 0.028376126661896706, 6.356059748213738e-05, -1.4491456568066496e-05, -0.008461357094347477, -6.757728988304734e-05, -4.7729276957397815e-06, -1.2048072676407173e-05, -4.70448912892607e-06, -7.256468506966485e-06, 3.868152998620644e-05, -1.9022019841941074e-05, -0.0051971375942230225, -1.7685013517620973e-05, 3.931218452635221e-05, -2.320800194866024e-05, -1.3900177009418258e-06, -5.6519670579291414e-06, 5.83117935093469e-06, -1.7649603250902146e-05, 2.8623180696740746e-06, 0.023910610005259514, -0.000636396580375731, -6.788294285797747e-06, 1.295267247769516e-05, -1.7735550500219688e-05, -1.2615327023013378e-06, 0.00040641194209456444, 3.108042074018158e-05, -3.550649353201152e-06, 1.527769200038165e-05, -8.137855911627412e-05, -2.628543552418705e-05, 2.248234750368283e-06, 1.48539375004475e-05, -2.2576714400202036e-06, 5.595304173766635e-06, 5.916470399824902e-06, -0.043799806386232376, 3.341695628478192e-05, 1.778583464329131e-05, 0.0008366424008272588, 2.468049387971405e-06, -2.622140300445608e-06, -2.3249771402333863e-05, 5.058448005001992e-05, 3.9766520785633475e-05, 9.294065421272535e-06, -1.2535202813523938e-06, -0.03353611379861832, 4.929809165332699e-06, 3.431207733228803e-05, -8.380890903936233e-06, -1.8732956959865987e-05, 0.3455178141593933, -8.355401951121166e-05, -0.06113993003964424, -0.04139818623661995, 7.315009133890271e-05, -9.541656254441477e-06, 0.0009582437924109399, -1.4235396520234644e-05, -2.544496783229988e-05, -1.1310881973258802e-06, 7.246177119668573e-06, -1.3991947525937576e-05, 9.422891707799863e-06, 1.930719372467138e-05, -6.550663783855271e-06, -9.72464658843819e-06, -4.3973091123916674e-06, -1.3911819223721977e-05], [-0.00010137974459212273, 0.007918053306639194, -0.009485076181590557, 0.005099165719002485, -0.0003047400969080627, -0.0011801946675404906, -0.003995360340923071, -0.002214795909821987, -0.0013219168176874518, 0.0028511683922261, 0.003276438219472766, 0.002725369529798627, -0.0013157185167074203, 2.2879656171426177e-05, -0.0022077118046581745, -0.0009260672959499061, -0.0018135320860892534, 0.0006461666780523956, -0.00145056436304003, 0.0034885110799223185, -0.00737380888313055, 0.013838842511177063, 0.001734358025714755, -0.0034270978067070246, -0.0002203832846134901, 0.003248858731240034, -0.0020139694679528475, 0.0001409028918715194, -0.001880513969808817, 0.0017696907743811607, -0.0018991194665431976, 0.00021116863354109228, -0.002874608151614666, 0.0026054552290588617, -0.0006159874028526247, -0.004352007061243057, -0.0018405248410999775, -0.0006464656908065081, -0.0026736389845609665, 0.003085540374740958, -0.0018589386017993093, -0.002558821113780141, 0.0012736000353470445, 0.0012424624292179942, -0.0022622039541602135, 0.003261411562561989, 0.0008451002649962902, 0.001788190333172679, -0.0008942068088799715, -4.0653485484654084e-05, 0.005699537228792906, 0.0012824689038097858, -5.47635454495321e-06, 0.003141875611618161, -0.0024205336812883615, -0.0017238103318959475, -0.00242605060338974, -0.006450589746236801, -0.0034206933341920376, 0.00013482770009431988, 0.004791405983269215, 0.00018672998703550547, -0.002556153805926442, 0.002750807674601674, -0.0011535082012414932, 0.0005361319053918123, -0.0037632016465067863, 0.0002459652896504849, -0.00015055191761348397, 0.011008870787918568, -0.0011523145949468017, 0.0002787722332868725, 0.006984063424170017, 0.0016232721973210573, -0.001344936084933579, 0.0019863187335431576, -0.004012805875390768, -0.001380217494443059, 0.00329033425077796, 0.0022945681121200323, -0.003116040024906397, 0.00011248153896303847, -0.0007685887976549566, -6.0214271798031405e-05, -0.0018084096955135465, 0.0009521869360469282, -0.00185801659245044, 0.002001195214688778, 0.004093447234481573, 0.0022117621265351772, -0.0021220077760517597, 0.0005208602524362504, 0.001741539454087615, 0.0018232372822239995, -0.007893865928053856, 0.0006224564858712256, -0.003249474335461855, 0.00014978261606302112, -0.003300558775663376, 0.003059439593926072, -0.004021506756544113, 0.0009504600893706083, -0.0063141584396362305, 0.003676277818158269, -0.0010520421201363206, 0.008249231614172459, -0.0008361685322597623, 3.4089833206962794e-05, 0.0017900337697938085, 0.0003350243787281215, -8.036502549657598e-05, 0.0028104744851589203, -3.581917189876549e-05, -2.8148433557362296e-05, -0.003377404296770692, 0.0014649013755843043, 4.4946351408725604e-05, -0.00474568922072649, 0.0011155722895637155, 0.0006041158922016621, -0.0028258811216801405, 0.0027977549470961094, -0.0018576752627268434, -0.0013485897798091173, 0.00018148707749787718, 0.0032002602238208055, -0.004088311921805143, 0.00021329091396182775], [-5.266285370453261e-05, -0.009330615401268005, 0.009856090880930424, -0.007121996954083443, 0.0024431785568594933, 0.0029540597461163998, 0.00313130347058177, 0.0008078099926933646, 0.003985895775258541, -0.0003697542124427855, -0.0004084095999132842, -0.0020754660945385695, 0.0021687664557248354, 0.023281965404748917, 0.0027855760417878628, 0.002708395943045616, 0.002764896722510457, -0.0046660942025482655, 0.0026303220074623823, -0.005135961342602968, 0.006150374189019203, -0.013583321124315262, -0.007566932123154402, 0.0036613584961742163, 0.006006751675158739, -0.002517826622352004, 0.002612614305689931, -0.00010730529902502894, 0.0036308111157268286, -0.004789379891008139, 0.0001779699232429266, -0.003677420085296035, 0.002987572457641363, -0.002705169841647148, 0.0012531429529190063, 0.0032807192765176296, 0.0016676040831953287, 0.002851048717275262, 0.002381694968789816, -0.00103805772960186, 0.0008540570270270109, 0.0022057294845581055, -0.0023288573138415813, -0.002609765389934182, 0.0021900010760873556, -0.0032373734284192324, -0.0199362114071846, -0.004162898752838373, 0.002554534003138542, 2.8864527848782018e-05, -0.006360326893627644, -0.003357743378728628, -1.9459861505310982e-05, -0.0022251622285693884, 0.003557848744094372, 0.0067636542953550816, 0.003573223715648055, 0.018390879034996033, 0.002542177913710475, -0.001167919603176415, -0.0077684186398983, -0.0020779906772077084, 0.0022224157582968473, -0.0019650233443826437, 0.0016425203066319227, -0.002693906659260392, 0.0019659234676510096, -0.0022166697308421135, 4.132141111767851e-05, -0.010808030143380165, 0.004351977724581957, -0.0009230372961610556, -0.0051555628888309, -0.0009659786010161042, 0.0015545545611530542, -0.0019739780109375715, 0.0019446761580184102, 0.003545518033206463, -0.003830468514934182, -0.00513533316552639, 0.00046164082596078515, -0.00027852991479448974, 0.0018958949949592352, -7.544802065240219e-05, 0.004302231129258871, -0.005336177535355091, 0.003475987585261464, -0.004075184464454651, -0.0007217744714580476, -0.005384595599025488, 0.00280916434712708, -0.004527767188847065, -0.0024336122442036867, -0.0025248390156775713, 0.00819322932511568, -0.0006197342299856246, 0.003264952916651964, -0.002608095994219184, 0.006971967872232199, -0.004230502061545849, 0.0041502839885652065, -0.0006285947165451944, 0.0046579837799072266, -0.004512873478233814, 0.0015691302251070738, -0.007346956990659237, 0.0007346327765844762, -8.194302063202485e-05, -0.0005039071547798812, -0.005948001518845558, 0.00015833032375667244, -0.005880034528672695, 0.00015877366240601987, 4.453309884411283e-05, 0.0039572869427502155, -0.0010419129393994808, 0.0002472049091011286, 0.006505401339381933, -0.0014918105443939567, -0.004900446627289057, 0.0032166223973035812, -0.0019944750238209963, 0.002539224224165082, 0.003558197058737278, -0.003002000506967306, -0.0015499595319852233, 0.0019502071663737297, -0.0003283895493950695], [0.00028377657872624695, -0.006382150575518608, 0.01024634763598442, -0.007847115397453308, 0.012524948455393314, 0.008744195103645325, 0.013230714946985245, 0.01424590777605772, 0.011233173310756683, -0.005862511694431305, -0.0035812673158943653, -0.012541732750833035, 0.0147327221930027, -7.519901555497199e-05, 0.014202367514371872, 0.012247799895703793, 0.01438786182552576, -0.014382900670170784, 0.002297587227076292, -0.014454717747867107, 0.011117378249764442, -0.00834107119590044, -0.011951163411140442, 0.011408100835978985, 0.004945238586515188, -0.001959503162652254, 0.0115123325958848, 0.00036498025292530656, 0.012582981027662754, -0.007983488962054253, 0.013979949988424778, -0.0033358873333781958, 0.012060930952429771, -0.01705201528966427, 0.0018098296131938696, 0.006614821497350931, 0.009568189270794392, 0.012799788266420364, 0.013538732193410397, -0.002129820641130209, 0.0019405788043513894, 0.012462192215025425, -0.010048826225101948, -0.0017449549632146955, 0.008070986717939377, -0.013065390288829803, -0.0021214636508375406, -0.009830301627516747, 0.013213944621384144, 0.00041768295341171324, -0.013102528639137745, -0.01350399386137724, 3.0190458346623927e-05, -0.013732765801250935, 0.013764065690338612, 0.008981971070170403, 0.013512645848095417, 0.005925475154072046, 0.012256542220711708, -0.004221524111926556, -0.008158817887306213, -0.00239490601234138, 0.0018631713464856148, -0.014494974166154861, 0.0018650386482477188, -0.012255674228072166, 0.0017777672037482262, -0.0020218079444020987, 0.0048552220687270164, -0.012238267809152603, 0.014354508370161057, -0.013906557112932205, -0.0041319336742162704, -0.0019096070900559425, 0.002130800159648061, -0.003556098323315382, 0.012650989927351475, 0.010794388130307198, -0.011326594278216362, -0.007581319659948349, 0.0013522630324587226, -0.005853577516973019, 0.013284066691994667, 0.00011983318836428225, 0.012692335061728954, -0.013607021421194077, 0.002321673324331641, -0.0073973010294139385, -0.014427416026592255, -0.0017973511712625623, 0.0033834020141512156, -0.0053919036872684956, -0.012690608389675617, -0.0026182786095887423, 0.006806807592511177, -0.01173587515950203, 0.003817375749349594, -0.0007911762804724276, 0.00841445941478014, -0.01568533666431904, 0.0036994293332099915, -0.011696345172822475, 0.00994640588760376, -0.0028699575923383236, 0.012808830477297306, -0.009587321430444717, 0.0015623000217601657, -8.840000373311341e-05, -0.013865839689970016, -0.013714262284338474, -8.807205631455872e-06, -0.009352359920740128, 0.004606975242495537, 7.646916060366493e-07, 0.011257375590503216, -0.013211292214691639, 8.902691479306668e-05, 0.0025424540508538485, -0.013346445746719837, -0.0019135288894176483, 0.014043467119336128, -0.013314017094671726, 0.013857015408575535, 0.013532024808228016, -0.006674995645880699, -0.0029699672013521194, 0.013340272009372711, -0.013604102656245232], [-7.318062125705183e-05, -0.0027865564916282892, 0.009521277621388435, -0.012831165455281734, 0.001756424317136407, 0.0005980267305858433, 0.00022271645138971508, 0.0010096235200762749, 0.00040936467121355236, -0.0017815082101151347, -0.0005563330487348139, -0.00046669619041495025, 0.00019059161422774196, 3.1537179893348366e-05, 0.00047940172953531146, 0.00063186208717525, 0.003054582281038165, -0.0003494337433949113, 0.001279823831282556, -0.0005939756520092487, 0.012074818834662437, -0.008870606310665607, -0.002072754316031933, 0.014946898445487022, 0.0002931387862190604, -0.0016410273965448141, 0.0014306710800155997, -4.48283099103719e-05, 0.000981570454314351, -0.00039775544428266585, 0.0017232910031452775, -0.0014359976630657911, 0.0005515248631127179, -0.001603494631126523, 0.0016062632203102112, 0.0005199720617383718, 0.001134958816692233, 0.0009793966310098767, 0.00036937277764081955, -0.003152592107653618, 1.9248973330832087e-05, 0.00011914387141587213, -0.0007058191695250571, -0.002729609841480851, 0.0014248761581256986, -0.00023676594719290733, -0.0002579428255558014, -0.00272444449365139, 0.0004347931535448879, 2.6922663892037235e-05, -0.0006656472105532885, -0.0008610198274254799, 0.00012401171261444688, -0.0030774057377129793, 0.0017502665286883712, 0.000770904531236738, 0.000345335021847859, 0.0013234727084636688, 0.00037406577030196786, -0.0014643354807049036, -0.006850829813629389, -0.00013103283708915114, 0.0005259960889816284, -0.000717580842319876, 0.0010802625911310315, -0.00027360295644029975, 0.0016020659822970629, -0.0006927769281901419, 0.007258612662553787, -0.005086958874017, 0.002089492045342922, -0.0010018859757110476, -0.001518147997558117, -0.00042600472806952894, 0.0005376884364522994, -0.00023295619757845998, 0.0002620849118102342, 0.0002099974371958524, -0.0035286531783640385, -0.002328241476789117, 0.002053847536444664, -0.0001479868806200102, 0.0019150546286255121, 0.00012062100722687319, 0.0004178210219834, -0.0007542278035543859, 0.0014596268301829696, -0.0010922184446826577, -0.00044428452383726835, -0.00035923469113186, 0.00048536775284446776, -0.0015913883689790964, -0.00022618816001340747, -0.00015623698709532619, 0.0061119068413972855, -0.0028286296874284744, 0.002911337185651064, -0.0006575475563295186, 0.002005139132961631, -0.0011129635386168957, 0.003818734083324671, -0.0012766985455527902, 0.0032581440173089504, -0.0035149676259607077, 0.0005360380746424198, -0.010778514668345451, 0.0011009187437593937, -0.000813487044069916, -0.0011140636634081602, -0.00021753140026703477, 6.770071922801435e-05, -0.0033066063188016415, 0.015963677316904068, 3.300264143035747e-05, 0.0034745901357382536, -7.643909339094535e-05, 0.00026537233497947454, 0.0005844920524396002, -0.001133257057517767, -0.00030619598692283034, 0.0006665765540674329, -0.0007770409574732184, 0.00026398099726065993, 0.001330116530880332, -0.00019324803724884987, -0.0006659489590674639, 0.0003116829611826688, -0.0009707335266284645], [8.030572644202039e-05, -0.004337572026997805, 0.009171131066977978, -0.010596053674817085, 0.008738070726394653, 0.002435392467305064, 0.008986173197627068, 0.0018746639834716916, 0.010232237167656422, -0.011118764989078045, -0.012700068764388561, -0.010924585163593292, 0.010630342178046703, 6.489924999186769e-05, 0.010991232469677925, 0.005608517210930586, 0.00987909734249115, -0.008943166583776474, 0.0033074712846428156, -0.0031213045585900545, 0.00984510313719511, -0.009812992997467518, -0.0011181290028616786, 0.009020666591823101, 0.008771444670855999, -0.0019999947398900986, 0.004096704535186291, 0.00014329396071843803, 0.013650579378008842, -0.009240549989044666, 0.007066116668283939, -0.01021213736385107, 0.009530747309327126, -0.0020373796578496695, 0.008536018431186676, 0.010377220809459686, 0.00949096493422985, 0.010492682456970215, 0.011253496631979942, -0.0053636860102415085, 0.009642795659601688, 0.010404310189187527, -0.009605304338037968, -0.010190253145992756, 0.01249664556235075, -0.012020542286336422, -0.005784470122307539, -0.012782324105501175, 0.002502188552170992, 0.0005314855370670557, -0.011460798792541027, -0.009011765941977501, 3.124364957329817e-05, -0.010094587691128254, 0.005670560989528894, 0.004006001632660627, 0.011045710183680058, 0.00433949613943696, 0.01097030472010374, -0.0017801841022446752, -0.009603681042790413, -0.011445813812315464, 0.009659805335104465, -0.002571206307038665, 0.010955349542200565, -0.010628324933350086, 0.010169699788093567, -0.012189292348921299, 0.00544979702681303, -0.009994292631745338, 0.00195521698333323, -0.009795029647648335, -0.012610684148967266, -0.008766901679337025, 0.01049063354730606, -0.010318070650100708, 0.008919110521674156, 0.01400101650506258, -0.010109980590641499, -0.013661347329616547, 0.011426297016441822, -0.009458894841372967, 0.008701324462890625, -6.9236739363987e-05, 0.01004493422806263, -0.010229354724287987, 0.011198504827916622, -0.01098289992660284, -0.0026229803916066885, -0.00947638414800167, 0.0026628240011632442, -0.002032656455412507, -0.009611410088837147, -0.009432481601834297, 0.008484520018100739, -0.01017109863460064, 0.005232099909335375, -3.102551636402495e-05, 0.011532246135175228, -0.010511551052331924, 0.01176777295768261, -0.010224289260804653, 0.01091065350919962, -0.002036025281995535, 0.009633769281208515, -0.009318798780441284, 0.01065265666693449, -0.004144119564443827, -0.013040616177022457, -0.0043763588182628155, -8.839781003189273e-06, -0.01053908746689558, 0.009106047451496124, 4.1430579585721716e-05, 0.009298593737185001, -0.009864890947937965, 5.206650257605361e-06, 0.004475751426070929, -0.0030489498749375343, -0.009570135734975338, 0.008923853747546673, -0.010833443142473698, 0.008571106009185314, 0.011221620254218578, -0.011908203363418579, -0.010222846642136574, 0.010106028988957405, -0.0020615628454834223], [-0.00032208237098529935, 0.007369986269623041, -0.011008644476532936, 0.010450786910951138, -0.004175957292318344, -0.008701073937118053, -0.0013998941285535693, -0.00595177011564374, -0.00021791116159874946, 0.0019112338777631521, 0.006597789935767651, 0.003541073761880398, -0.0024110074155032635, -3.179402028763434e-06, -0.0010339755099266768, -0.0049158004112541676, -0.0016621624818071723, 0.0007863140199333429, -0.002277524210512638, 0.010393448173999786, -0.006663860287517309, 0.023454802110791206, 0.00034028373192995787, -0.004885795526206493, -0.0012103809276595712, 0.001211842754855752, -0.007409777957946062, 4.075179822393693e-05, -0.0027602771297097206, 0.0017411287408322096, -0.0011570865754038095, 0.007062082644551992, -0.002310112351551652, 0.0012785024009644985, -0.004707364831119776, -0.0007425399962812662, -0.0008740819757804275, -0.006027362775057554, -0.004197407979518175, 0.003877101931720972, -0.0014416961930692196, -0.0035358222667127848, 0.0009802317945286632, 0.0016349864890798926, -0.018108347430825233, 0.010906141251325607, 0.0006518777227029204, 0.0031329572666436434, -0.0018026813631877303, -0.0005652249092236161, 0.0026277974247932434, 0.0009311821777373552, -0.0001231557544087991, 0.0017979632830247283, -0.0010968814603984356, -0.0024063114542514086, -0.0024680872447788715, -0.004582737572491169, -0.004159137140959501, 0.000994402333162725, 0.009742881171405315, 0.0038391936104744673, -0.003867794293910265, 0.0014144963352009654, -0.0021373725030571222, 0.0015093620168045163, -0.0023058070801198483, 0.004947265610098839, -0.012998146004974842, 0.006459188647568226, -0.0019217738881707191, 0.0006292251055128872, 0.008028943091630936, 0.001780475489795208, -0.00374792842194438, 0.00045062595745548606, -0.0025155777111649513, -0.0018031998770311475, 0.008367608301341534, 0.007482886780053377, -0.0143758999183774, 0.00359117379412055, -0.0019760283175855875, 0.00013886003580410033, -0.003980755805969238, 0.0037171884905546904, -0.0019319261191412807, 0.006626194342970848, 0.001503902138210833, 0.0019603606779128313, -0.004035235848277807, 0.0023122718557715416, 0.0021333456970751286, 0.0031443957705050707, -0.010328049771487713, 0.004289622418582439, -0.008495338261127472, 0.016289832070469856, -0.0034350252244621515, 0.0011334446026012301, -0.01159710343927145, 0.003926270641386509, -0.004394177813082933, 0.0020286731887608767, -0.005763143766671419, 0.008998258039355278, -0.0007482994114980102, 0.0010976834455505013, 0.006095050368458033, 0.0010934816673398018, 9.038628195412457e-05, 0.004956359509378672, -0.01482574176043272, -4.476366666494869e-05, -0.010263415984809399, 0.002291038865223527, -0.00048450566828250885, -0.011913890019059181, 0.008355226367712021, 0.001261826022528112, -0.003720620647072792, 0.0019219923997297883, -0.002299156505614519, -0.006722114980220795, 0.0026666081976145506, 0.0011522899148985744, -0.0010631763143464923, 0.0028804372996091843], [0.0003407494514249265, -0.005159655585885048, 0.007964614778757095, -0.004353657830506563, 0.010284235700964928, 0.010392996482551098, 0.0109129399061203, 0.010645000264048576, 0.011433771811425686, -0.011842072941362858, -0.012544963508844376, -0.01168714091181755, 0.012953221797943115, -3.562392885214649e-05, 0.002196040004491806, 0.006500497926026583, 0.011503690853714943, -0.00974484346807003, 0.01146017387509346, -0.005369439255446196, 0.01018496137112379, -0.010140896774828434, -0.0002822470269165933, 0.007768336217850447, 0.0026519568637013435, -0.010440988466143608, 0.011256834492087364, 0.0001961416710400954, 0.012617058120667934, -0.0016684673028066754, 0.011338760145008564, -0.01364908367395401, 0.011373423039913177, -0.007219785358756781, 0.0028905936051160097, 0.007848269306123257, 0.01043096836656332, 0.010732362978160381, 0.0045565287582576275, -0.0023326680529862642, 0.011468022130429745, 0.01124235987663269, -0.011525698006153107, -0.010555339977145195, 0.008390232920646667, -0.0020926662255078554, -0.013804587535560131, -0.012802692130208015, 0.00724888127297163, 0.00010779172589536756, -0.010211111977696419, -0.011248022317886353, -1.5242543668136932e-05, -0.010937205515801907, 0.003572677029296756, 0.008094729855656624, 0.011784804984927177, 0.012193211354315281, 0.003832527669146657, -0.005319211632013321, -0.009346495382487774, -0.012745019048452377, 0.011057195253670216, -0.003334323177114129, 0.012250302359461784, -0.0017654603580012918, 0.0035441138315945864, -0.005201793275773525, 0.011129272170364857, -0.011467013508081436, 0.002026363043114543, -0.009704175405204296, -0.00402522087097168, -0.010574126616120338, 0.012170727364718914, -0.011958835646510124, 0.011451962403953075, 0.010533626191318035, -0.008416740223765373, -0.012390377931296825, 0.010764021426439285, -0.002678121905773878, 0.008939123712480068, 1.062213777913712e-05, 0.0027498474810272455, -0.002213772153481841, 0.0025132675655186176, -0.01255827210843563, -0.010692354291677475, -0.011431732214987278, 0.011099438183009624, -0.00509187625721097, -0.00574060482904315, -0.002055712742730975, 0.008532187901437283, -0.012323085218667984, 0.018475396558642387, -0.0033718738704919815, 0.0029134731739759445, -0.011732433922588825, 0.010800611227750778, -0.010135333985090256, 0.009490933269262314, -0.011304931715130806, 0.011174258776009083, -0.010399937629699707, 0.012581353075802326, -0.004141238983720541, -0.013135953806340694, -0.010798884555697441, -8.711571354069747e-06, -0.009703036397695541, 0.009958019480109215, 2.6400408387416974e-05, 0.005615625996142626, -0.011235218495130539, -2.2863644062454114e-06, 0.003975710831582546, -0.008943685330450535, -0.010780099779367447, 0.0026121349073946476, -0.009863612242043018, 0.01174111757427454, 0.002011611359193921, -0.0025167723651975393, -0.0038473668973892927, 0.010856319218873978, -0.004889137577265501], [6.050312367733568e-05, 0.005731742829084396, -0.007737596984952688, 0.007227515336126089, -0.013369697146117687, -0.0025975413154810667, -0.002330015879124403, -0.015299908816814423, -0.014272872358560562, 0.01614389941096306, 0.012792104855179787, 0.009444519877433777, -0.014925984665751457, -3.4449891245458275e-05, -0.0141478655859828, -0.015015676617622375, -0.015234533697366714, 0.013641360215842724, -0.014446225948631763, 0.015577519312500954, -0.012401805259287357, 0.010818998329341412, 0.017390001565217972, -0.005745862144976854, -0.016390208154916763, 0.002198931761085987, -0.01447542104870081, 8.6121704953257e-05, -0.016028128564357758, 0.0148527966812253, -0.01049875933676958, 0.011450633406639099, -0.013536353595554829, 0.014863632619380951, -0.013586170971393585, -0.009658773429691792, -0.0147897033020854, -0.01401996798813343, -0.014733513817191124, 0.013852532021701336, -0.015213122591376305, -0.01434816513210535, 0.015565645880997181, 0.01598663441836834, -0.01396175567060709, 0.014684664085507393, 0.013944800943136215, 0.004214480984956026, -0.012326892465353012, -0.00036653748247772455, 0.0034761670976877213, 0.014198396354913712, -1.0697183824959211e-05, 0.013467809185385704, -0.01323417853564024, -0.01539157796651125, -0.015131105668842793, -0.011217985302209854, -0.006412209011614323, 0.001821822253987193, 0.009344491176307201, 0.015384940430521965, -0.014523442834615707, 0.003908295184373856, -0.002096005715429783, 0.010291416198015213, -0.015139090828597546, 0.01578572206199169, -0.011780878528952599, 0.0030619145836681128, -0.0020034450571984053, 0.013817758299410343, 0.00428725266829133, 0.004547054413706064, -0.01413859985768795, 0.014284624718129635, -0.013631272129714489, -0.0109019223600626, 0.010363627225160599, 0.0159134641289711, -0.013492269441485405, 0.014204569160938263, -0.005520515143871307, 6.776559166610241e-05, -0.013497932814061642, 0.015363361686468124, -0.003142104484140873, 0.015387252904474735, 0.011370663531124592, 0.011006415821611881, -0.014622143469750881, 0.0021585128270089626, 0.014318856410682201, 0.015413966961205006, -0.009565318934619427, 0.013387137092649937, -0.01210793387144804, 0.001133974059484899, -0.015161663293838501, 0.014862406067550182, -0.014143873937427998, 0.01372684445232153, -0.004735902883112431, 0.014003772288560867, -0.0028611980378627777, 0.009578021243214607, -0.013965293765068054, 0.0007781221647746861, 0.013614548370242119, 0.002458893693983555, 8.64674620970618e-06, 0.004475122317671776, -0.00519479438662529, -2.627608773764223e-05, -0.013144170865416527, 0.01461719162762165, 2.944969128293451e-05, -0.015025605447590351, 0.013791287317872047, 0.014647271484136581, -0.014055062085390091, 0.014098704792559147, -0.01419091783463955, -0.01489889994263649, 0.01485237292945385, 0.014582865871489048, -0.01604345813393593, 0.014289944432675838], [-0.00010433012357680127, 0.0072792270220816135, -0.007723749149590731, 0.004767962731420994, -0.012000925838947296, -0.011881372891366482, -0.013414448127150536, -0.013567070476710796, -0.012760632671415806, 0.003349027130752802, 0.0038546943105757236, 0.012681963853538036, -0.0061653186567127705, 6.787981692468747e-05, -0.01285161916166544, -0.012729179114103317, -0.0018133838893845677, 0.011686299927532673, -0.0050706444308161736, 0.012389039620757103, -0.009652514941990376, 0.007879335433244705, 0.011988893151283264, -0.007558813784271479, -0.01319404412060976, 0.013359412550926208, -0.014287096448242664, 0.00011269729293417186, -0.013672633096575737, 0.012171472422778606, -0.007056888658553362, 0.01006765104830265, -0.013075331225991249, 0.004801691509783268, -0.012633266858756542, -0.014684629626572132, -0.003416111459955573, -0.0022335872054100037, -0.01334451325237751, 0.01256244070827961, -0.01240192074328661, -0.01280546747148037, 0.005857937969267368, 0.0037694680504500866, -0.0032291817478835583, 0.01415156852453947, 0.014082754962146282, 0.015282625332474709, -0.013305123895406723, -0.0004254623781889677, 0.012986065819859505, 0.011633716523647308, -5.2953328122384846e-05, 0.01297735795378685, -0.012095741927623749, -0.012964418157935143, -0.01478337962180376, -0.0073178489692509174, -0.013555547222495079, 0.011963071301579475, 0.008950425311923027, 0.013659056276082993, -0.012076896615326405, 0.01329980231821537, -0.014329658821225166, 0.002640846185386181, -0.012666059657931328, 0.012273336760699749, -0.014105026610195637, 0.010134083218872547, -0.014149241149425507, 0.011865432374179363, 0.012124216184020042, 0.013070099987089634, -0.01320369727909565, 0.005698991008102894, -0.011970281600952148, -0.008906967006623745, 0.0103455800563097, 0.014841606840491295, -0.013094558380544186, 0.012201206758618355, -0.005353963002562523, -0.00011100507981609553, -0.011665106751024723, 0.013603807426989079, -0.014693692326545715, 0.003315694397315383, 0.006609325762838125, 0.01338931079953909, -0.013183754868805408, 0.013692266307771206, 0.012958921492099762, 0.013512891717255116, -0.008536859415471554, 0.01317587960511446, -0.007002101745456457, 0.002026901114732027, -0.013011268340051174, 0.002639329992234707, -0.011037472635507584, 0.01193859614431858, -0.0065324511379003525, 0.012525288388133049, -0.012240729294717312, 0.00922326184809208, -0.013376441784203053, 0.008686162531375885, 0.013054216280579567, 0.011807207949459553, 9.065362246474251e-05, 0.013919665478169918, -0.009806604124605656, 2.693212627491448e-05, -0.009618129581212997, 0.013604444451630116, -4.770324085257016e-05, -0.01255916990339756, 0.00868457742035389, 0.007393490523099899, -0.01355480682104826, 0.0077139646746218204, -0.011773201636970043, -0.0024724206887185574, 0.013902154751121998, 0.012084177695214748, -0.01458479929715395, 0.013890915550291538], [-1.6547079212614335e-05, 0.00306109432131052, -0.004573985002934933, 0.005030817352235317, -0.01507180742919445, -0.012685038149356842, -0.016975942999124527, -0.01724069006741047, -0.012875120155513287, 0.01743595115840435, 0.014015687629580498, 0.016689898446202278, -0.018758539110422134, 3.4435881389072165e-05, -0.008197207935154438, -0.016085097566246986, -0.017593851312994957, 0.016289299353957176, -0.016506463289260864, 0.01732024922966957, -0.012813652865588665, 0.005951135419309139, 0.0024248554836958647, -0.0063038053922355175, -0.01744464971125126, 0.016270995140075684, -0.014909246005117893, 0.00016467543900944293, -0.014744853600859642, 0.01799829676747322, -0.012680834159255028, 0.0093070724979043, -0.003447218332439661, 0.019495083019137383, -0.018458832055330276, -0.0036746393889188766, -0.001834188587963581, -0.01545022800564766, -0.01474794838577509, 0.003031444502994418, -0.005043881479650736, -0.006811199244111776, 0.020132623612880707, 0.018599333241581917, -0.013345044106245041, 0.01582426205277443, 0.0005742713110521436, 0.015574499033391476, -0.016320528462529182, -0.00027808986487798393, 0.014915034174919128, 0.015508606098592281, -0.0001275775721296668, 0.016458680853247643, -0.011741450987756252, -0.014519483782351017, -0.017118051648139954, -0.004204796627163887, -0.016292328014969826, 0.01656600832939148, 0.009744791314005852, 0.0160212442278862, -0.017137199640274048, 0.014395330101251602, -0.01605793833732605, 0.015842638909816742, -0.017872916534543037, 0.005013170652091503, -0.0141660301014781, 0.0007808229420334101, -0.012732578441500664, 0.016570668667554855, 0.007580238860100508, 0.0020983421709388494, -0.01564425602555275, 0.015929322689771652, -0.017794962972402573, -0.010882984846830368, 0.004686552099883556, 0.003895479952916503, -0.010151137597858906, 0.015159372240304947, -0.015575586818158627, 0.00011660780728561804, -0.015807323157787323, 0.01650131866335869, -0.018911881372332573, 0.016486231237649918, 0.016347019001841545, 0.001985719660297036, -0.00901926588267088, 0.014161545783281326, 0.01605239510536194, 0.01695668138563633, -0.0067270658910274506, 0.015798885375261307, -0.010082265362143517, 0.00031788667547516525, -0.01500703301280737, 0.008510001935064793, -0.01537326816469431, 0.013964509591460228, -0.012397320941090584, 0.015660936012864113, -0.014498471282422543, 0.00865872297435999, -0.017204182222485542, 0.015487411059439182, 0.013680861331522465, 0.015745796263217926, 2.5852639737422578e-05, 0.014981545507907867, -0.005936707369983196, 2.173140637751203e-05, -0.011380129493772984, 0.016767628490924835, -0.0005344186211004853, -0.017670031636953354, 0.013978798873722553, 0.018998311832547188, -0.0044714040122926235, 0.017116503790020943, -0.01685885339975357, -0.002429623156785965, 0.013037076219916344, 0.0020681668538600206, -0.0020091617479920387, 0.01609651744365692], [0.33938395977020264, 3.3623880426603137e-06, 8.10260189609835e-06, 0.07226955145597458, 2.360052121730405e-06, -1.204095838147623e-06, -2.1052015654277056e-05, -7.1329482125293e-06, -6.861259862489533e-06, -5.426229108707048e-06, -2.5304000246251235e-06, -1.2704702385235578e-05, -7.4966765168937854e-06, -0.0740266889333725, -1.7015159414768277e-07, -2.061404120468069e-05, 2.218495637862361e-06, 8.353209182132559e-07, 3.6617925616155844e-06, 1.928761412273161e-05, -0.014562198892235756, -0.00032307193032465875, -0.00010009642574004829, 0.03161928802728653, -5.088536454422865e-06, 8.805170182313304e-06, -3.891014421242289e-05, 0.377128928899765, -1.3247671404315042e-06, 1.2656972103286535e-05, -1.1357099538145121e-05, -0.00010471142013557255, -4.600201464199927e-06, 1.332306146650808e-05, -6.40620555714122e-06, -0.013546834699809551, -1.860812699305825e-05, -7.1305262281384785e-06, -8.087094442998932e-07, 1.3659326214110479e-05, -2.4608199964859523e-05, 3.0144042284518946e-06, 2.4755958293098956e-05, 1.0901093446591403e-05, -4.425787483341992e-05, 9.857304576144088e-06, 0.00043016759445890784, 1.3074366506771185e-05, -1.612018650121172e-06, -0.03109663724899292, 4.899608484265627e-06, -6.565907369804336e-06, -0.2777757942676544, -1.1481100870014416e-07, 1.1129501444884227e-06, -5.216918452788377e-06, 3.341105866638827e-06, -8.231018728110939e-05, 4.841159352508839e-06, -5.231924205872929e-06, 7.946780897327699e-06, 2.0831532310694456e-05, -1.655215055507142e-05, -2.7953974495176226e-06, -5.125584721099585e-06, 4.742869805340888e-06, -2.217465043941047e-05, 2.9028683456999715e-07, 0.010147788561880589, 5.894213700230466e-06, -1.1112594620499294e-05, 2.3041384338284843e-05, 3.903351625922369e-06, -1.8292113281859201e-06, -1.6751511793700047e-05, 3.007377017638646e-06, -1.8728676877799444e-05, -0.00010831522376975045, 0.0005116689717397094, 4.3950745748588815e-05, 6.610915534110973e-06, 1.4251631910155993e-05, -2.316697828064207e-05, -0.25496765971183777, -1.0557305358815938e-05, -7.049467512842966e-06, -9.93417984318512e-07, 2.0067887817276642e-05, 2.2974116291152313e-05, 7.925693353172392e-06, 1.7745900322552188e-06, 8.781501492194366e-06, 6.003446628710662e-07, 1.7585187379154377e-05, -0.08511434495449066, -9.273093019146472e-05, 1.466109864622922e-07, -0.1378139704465866, -1.9149862055201083e-05, 7.326220384129556e-06, -4.121450274396921e-06, -3.700835441122763e-05, -5.834523108205758e-06, -4.793797074853501e-07, -2.77240656032518e-06, -0.025090215727686882, 9.475151455262676e-05, -0.0015697532799094915, -4.3281129364913795e-06, 9.07611411093967e-06, -0.0010120862862095237, 2.680714169400744e-05, -0.06960444152355194, 0.45320677757263184, -0.0062870243564248085, 5.70561496715527e-06, -0.00038867330295033753, 1.2980147403141018e-05, 9.996057997341268e-06, 1.0341684173909016e-05, -4.081499810126843e-06, 9.806969501369167e-06, -1.5895033357082866e-05, -1.4539429002979887e-06, 1.5162591807893477e-05, 1.3554074939747807e-05, 1.4734368960489519e-06, 3.335382871227921e-06], [-0.7273863554000854, 2.67320701823337e-05, 0.02525440976023674, -0.04267212003469467, -2.1642722458636854e-06, 2.1706286133849062e-05, 2.0460566929614288e-07, 1.6294942497552256e-06, 1.9914181393687613e-05, 3.914493845513789e-06, 7.347215159825282e-06, -6.698169272567611e-06, -5.845990017405711e-06, 0.14938613772392273, 1.8845505110220984e-05, -7.852058843127452e-07, 8.867144970281515e-06, 6.323129127849825e-06, 2.9659682695637457e-05, 1.3307168273968273e-06, 0.002542168367654085, 0.0038638487458229065, 0.0001547235733596608, -0.03950119391083717, 9.282379664909968e-07, -3.40119640895864e-06, 1.5737539342808304e-06, -0.7776727676391602, 2.046742883976549e-05, -9.189286174660083e-06, -6.012041467329254e-06, -5.722157584386878e-05, -2.784604930639034e-06, 8.568896191718522e-06, 3.536051735864021e-06, 0.08657268434762955, 9.879665867629228e-07, 5.561607395065948e-06, 1.9146580598317087e-05, -1.9430324755376205e-05, 7.665890734642744e-06, 1.1439145964686759e-05, -6.485748144768877e-06, -1.3362937352212612e-06, 0.00011410770093789324, -1.0474929695192259e-05, -0.0002931490889750421, 2.021924501605099e-06, 2.863592499124934e-06, 0.03801907226443291, -2.0492911971814465e-06, -1.3151002349331975e-06, 0.1863805204629898, 2.5196518436132465e-06, 8.490652362524997e-06, 1.3881548284189194e-06, 9.320038770965766e-06, 0.0014876488130539656, 5.149645403434988e-06, -8.1733178376453e-06, -0.015232238918542862, -8.172287380148191e-06, 8.982779036159627e-06, -1.0103246495418716e-05, 1.607425292604603e-05, -9.812811185838655e-06, 1.0175068382523023e-05, -1.9342889572726563e-05, -0.015510337427258492, -6.228240636119153e-06, 1.511974573986663e-06, -1.5678577256039716e-05, -1.2895771988041815e-06, 1.461711008232669e-06, 3.3032556530088186e-06, -8.307675670948811e-06, -5.277347554510925e-06, 0.00011004893167410046, -0.01746676117181778, -1.8740502127911896e-05, -1.6003818018361926e-05, -1.8119328160537407e-05, 4.2790095903910697e-05, 0.4647768437862396, 1.912397965497803e-05, -3.5133157325617503e-06, 1.0256467248836998e-05, -1.0602540896798018e-05, -5.922884611209156e-06, -1.2160515325376764e-05, 1.2956438695255201e-06, -2.4838241188263055e-06, 4.948378318658797e-06, 1.4925371942808852e-06, -2.1616078811348416e-05, 9.916318231262267e-05, -3.563169912013109e-06, 0.13186794519424438, 3.084969284827821e-05, -3.698474756674841e-06, -8.899858698896423e-07, 3.443781679379754e-05, 1.91784947674023e-05, -1.4426439520320855e-05, 2.7978396701655583e-06, 0.0021815225481987, -4.527398050413467e-05, 0.0014477623626589775, 6.736886916769436e-06, -1.0782233403006103e-05, 0.00036317366175353527, -3.7647030694643036e-05, 0.0348503403365612, -0.3359789550304413, 0.007767623756080866, -1.1047317457268946e-05, 0.0018236484611406922, -3.924961220036494e-06, 1.2938537565787556e-06, -6.856309028080432e-06, -3.195122644683579e-06, -8.230269486375619e-06, 1.5437728961842367e-06, 3.3193239232787164e-06, -5.5297005019383505e-06, 8.894109669199679e-06, 8.71591282702866e-07, -1.8166070731240325e-05], [1.6257547031273134e-05, -0.00696871243417263, 0.008738309144973755, -0.0070211864076554775, 0.002561782021075487, 0.012090706266462803, 0.012216438539326191, 0.012950208969414234, 0.012241465039551258, -0.012085448950529099, -0.013261853717267513, -0.0021672036964446306, 0.013106709346175194, 5.0837705202866346e-05, 0.012431842274963856, 0.002109027933329344, 0.013080054894089699, -0.0020089580211788416, 0.013432270847260952, -0.012834105640649796, 0.012517889961600304, -0.010197781957685947, -0.007011448964476585, 0.0073051899671554565, 0.013198154978454113, -0.011410225182771683, 0.007476555183529854, 0.00015388346218969673, 0.01473559346050024, -0.0027114292606711388, 0.00123788567725569, -0.009065540507435799, 0.003381358226761222, -0.012472192756831646, 0.012930012308061123, 0.0011230971431359649, 0.013349650427699089, 0.012515823356807232, 0.013014497235417366, -0.0119493892416358, 0.012959672138094902, 0.012553609907627106, -0.013611847534775734, -0.012622416950762272, 0.009545461274683475, -0.01271768193691969, -0.009095956571400166, -0.014200516045093536, 0.002629993250593543, 0.0003489767259452492, -0.004333351273089647, -0.011160379275679588, 0.00012453319504857063, -0.0028544787783175707, 0.01302140299230814, 0.01147530134767294, 0.002612045733258128, 0.004765802063047886, 0.0025106393732130527, -0.012594388797879219, -0.009650260210037231, -0.013645019382238388, 0.0031670404132455587, -0.013014448806643486, 0.009563063271343708, -0.002089135115966201, 0.0020115741062909365, -0.01423139963299036, 0.005807552020996809, -0.012826525606215, 0.013578971847891808, -0.01233123429119587, -0.012327084317803383, -0.012551777064800262, 0.012173356488347054, -0.013201180845499039, 0.013012930750846863, 0.011319795623421669, -0.010318618267774582, -0.008305832743644714, 0.012734965421259403, -0.0027983677573502064, 0.011269147507846355, -1.6063859220594168e-05, 0.0076368129812181, -0.012406914494931698, 0.012980391271412373, -0.013876316137611866, -0.01268516294658184, -0.009834668599069118, 0.012526181526482105, -0.0019950869027525187, -0.012464983388781548, -0.013865234330296516, 0.010314198210835457, -0.010073685087263584, 0.014001470990478992, -0.0015253189485520124, 0.012572525069117546, -0.013666121289134026, 0.007285331375896931, -0.004889518953859806, 0.006391515024006367, -0.007098585832864046, 0.01299685426056385, -0.009571927599608898, 0.012150733731687069, -0.00020863993267994374, -0.013751812279224396, -0.0020924597047269344, -6.256149208638817e-05, -0.012502403929829597, 0.005266094580292702, -9.026724114846729e-07, 0.01130539458245039, -0.002141552045941353, 0.00045052546192891896, 0.0030403437558561563, -0.012786625884473324, -0.002017255639657378, 0.013422932475805283, -0.004522642586380243, 0.012761085294187069, 0.0028240627143532038, -0.013256642036139965, -0.012483240105211735, 0.005562869366258383, -0.01263569574803114], [-0.00021304409892763942, -0.0018044088501483202, 0.0009403885342180729, -0.007755829952657223, 0.023307839408516884, 0.01309408713132143, 0.016519881784915924, 0.001586226630024612, 0.011759057641029358, -0.002456223126500845, -0.005038372706621885, -0.016930708661675453, 0.0020933477208018303, 3.685640331241302e-05, 0.01408848725259304, 0.0024737706407904625, 0.005574374925345182, -0.019249921664595604, 0.0022806914057582617, -0.002767454367130995, 0.011028824374079704, -0.01566690392792225, -0.002348303562030196, 0.012772059068083763, 0.0016762204468250275, -0.009878329932689667, 0.004848263692110777, -9.786897135199979e-05, 0.004477641079574823, -0.0016874116845428944, 0.0008373966556973755, -0.009526772424578667, 0.013914373703300953, -0.0014976225793361664, 0.0018862225115299225, 0.0002460230316501111, 0.003304811427369714, 0.018377864733338356, 0.0032271575182676315, -0.01975560002028942, 0.0029522536788135767, 0.0026999684050679207, -0.0024070891086012125, -0.0016244485741481185, 0.012212952598929405, -0.002637137658894062, -0.0005573814269155264, -0.002957467455416918, 0.002476670313626528, 0.0002853212063200772, -0.024149419739842415, -0.017457881942391396, -2.894168210332282e-05, -0.0018131214892491698, 0.0022203598637133837, 0.0016458044992759824, 0.0013372373068705201, 0.011653630994260311, 0.006422924343496561, -0.002131338231265545, -0.009241722524166107, -0.013651492074131966, 0.012768671847879887, -0.012775005772709846, 0.0025154955219477415, -0.010894437320530415, 0.0018522378522902727, -0.007238948252052069, 0.008384636603295803, -0.012617874890565872, 0.004627876915037632, -0.0018887687474489212, -0.003813578048720956, -0.007581622805446386, 0.017765091732144356, -0.0028108074329793453, 0.008163169957697392, 0.010526249185204506, -0.009615530259907246, -0.0024258058983832598, 0.015017548575997353, -0.017928168177604675, 0.0020228426437824965, 0.0001115079503506422, 0.0015813442878425121, -0.015032747760415077, 0.003219161182641983, -0.005230315495282412, -0.0073546008206903934, -0.006121737416833639, 0.017709527164697647, -0.0019340264843776822, -0.016550475731492043, -0.004593799356371164, 0.006362217478454113, -0.004211188293993473, 0.005455240607261658, -0.0008548015030100942, 0.0030007169116288424, -0.003542746417224407, 0.012992830947041512, -0.012841282412409782, 0.01404231321066618, -0.002353803487494588, 0.00648371921852231, -0.009108087047934532, 0.001301486510783434, 2.4308865249622613e-05, -0.012605804018676281, -0.0063467188738286495, -6.749818567186594e-05, -0.010208502411842346, 0.008523962460458279, -1.1791247516157455e-06, 0.0080897007137537, -0.0017104560974985361, 0.0005368372076191008, 0.003222536761313677, -0.01701897196471691, -0.0025212166365236044, 0.0011560438433662057, -0.004070141818374395, 0.0020626389887183905, 0.019378667697310448, -0.008188704028725624, -0.019774675369262695, 0.003085944801568985, -0.001946166274137795], [-5.03117116750218e-05, -0.00559525191783905, 0.001567038707435131, -0.004008537624031305, 0.007069329731166363, 0.014214612543582916, 0.005791739095002413, 0.001512738410383463, 0.012053955346345901, -0.012731301598250866, -0.005779597442597151, -0.002229490550234914, 0.003446337301284075, 6.33471499895677e-05, 0.0022296293172985315, 0.002249079290777445, 0.0016045963857322931, -0.0010432814015075564, 0.0019334049429744482, -0.0023489664308726788, 0.004889980424195528, -0.009688332676887512, -0.0036346581764519215, 0.015466504730284214, 0.0012912199599668384, -0.001954155508428812, 0.0030195736326277256, 0.00017507919983472675, 0.0032838701736181974, -0.0015852771466597915, 0.00218986882828176, -0.008038511499762535, 0.011095930822193623, -0.001445157453417778, 0.00501245865598321, 0.0014865174889564514, 0.0020010138396173716, 0.024240786209702492, 0.0025882278569042683, -0.008492516353726387, 0.0027791110333055258, 0.013266317546367645, -0.0018314315238967538, -0.0021981769241392612, 0.007199418265372515, -0.014842716977000237, -0.0006190511048771441, -0.002544247079640627, 0.0034415642730891705, 3.3473461371613666e-05, -0.002546982141211629, -0.004251326899975538, 3.0594463169109076e-05, -0.006478380411863327, 0.00333626801148057, 0.004759212024509907, 0.001726931193843484, 0.009817849844694138, 0.0022156494669616222, -0.004345837980508804, -0.008498462848365307, -0.002298670122399926, 0.006039895117282867, -0.0024417643435299397, 0.0018303653923794627, -0.010493342764675617, 0.0025859614834189415, -0.006119645666331053, 0.014590086415410042, -0.003365072887390852, 0.000978760072030127, -0.002305140718817711, -0.011857765726745129, -0.001467775204218924, 0.002307428978383541, -0.019528066739439964, 0.001574292778968811, 0.016825545579195023, -0.005759189836680889, -0.0028460777830332518, 0.011549974791705608, -0.010101535357534885, 0.005894340109080076, -0.00014742082566954195, 0.006397903431206942, -0.015510177239775658, 0.0017267526127398014, -0.0037915557622909546, -0.0018631181446835399, -0.0019136546179652214, 0.015554840676486492, -0.009062135592103004, -0.005894998088479042, -0.006132991053164005, 0.00963022094219923, -0.003983537200838327, 0.003916259855031967, -0.00030282483203336596, 0.0035728667862713337, -0.00297139142639935, 0.010441848076879978, -0.0025376789271831512, 0.003164180088788271, -0.0011019431985914707, 0.0019721004646271467, -0.009091214276850224, 0.001439981977455318, 2.0531941117951646e-05, -0.0028048993553966284, -0.001879093237221241, -3.460430525592528e-05, -0.0027967439964413643, 0.008884783834218979, -4.107694257982075e-05, 0.0028938017785549164, -0.003495371900498867, -3.702715548570268e-05, 0.007346031256020069, -0.016510924324393272, -0.00090209417976439, 0.003418163862079382, -0.002840894740074873, 0.0018291022861376405, 0.002153086941689253, -0.007784879766404629, -0.00651425588876009, 0.0052212681621313095, -0.0016843322664499283], [-5.065841105533764e-05, -0.00590998912230134, 0.0043311710469424725, -0.004980129189789295, 0.0026912165340036154, 0.0025326244067400694, 0.00230603595264256, 0.012561089359223843, 0.011579721234738827, -0.01278604380786419, -0.003654400585219264, -0.0055642519146203995, 0.0019951225258409977, 3.852311783703044e-05, 0.011751565150916576, 0.012043658643960953, 0.012842558324337006, -0.0021522699389606714, 0.012683026492595673, -0.01363422628492117, 0.01266523264348507, -0.00589117081835866, -0.010228880681097507, 0.007309595122933388, 0.013354315422475338, -0.012063514441251755, 0.007496499922126532, 6.164737715153024e-05, 0.014875958673655987, -0.011538011953234673, 0.0038082830142229795, -0.011546862311661243, 0.012796902097761631, -0.011336891911923885, 0.013174807652831078, 0.0076316846534609795, 0.012672503478825092, 0.011070825159549713, 0.009706992655992508, -0.00605768384411931, 0.012388376519083977, 0.013669699430465698, -0.012725694105029106, -0.013160266913473606, 0.004080107435584068, -0.012982838787138462, -0.0054807281121611595, -0.014195211231708527, 0.014467230066657066, 0.00041976681677624583, -0.011979525908827782, -0.004553580190986395, 4.427532530826284e-06, -0.011815030127763748, 0.011982711963355541, 0.00949703250080347, 0.002120185410603881, 0.006759400479495525, 0.003238789737224579, -0.013073808513581753, -0.009592466056346893, -0.0027662029024213552, 0.003269926877692342, -0.002687476109713316, 0.013803093694150448, -0.012868273071944714, 0.004197247326374054, -0.014727432280778885, 0.005846151150763035, -0.00044821237679570913, 0.002874610247090459, -0.011746983043849468, -0.011798222549259663, -0.011760271154344082, 0.01233040913939476, -0.013482827693223953, 0.012664132751524448, 0.0015191994607448578, -0.010105656459927559, -0.01481116097420454, 0.01249363087117672, -0.01212615892291069, 0.011048533953726292, -1.5992876797099598e-05, 0.011729590594768524, -0.0018958846339955926, 0.013184952549636364, -0.013029519468545914, -0.01308626402169466, -0.013551678508520126, 0.012385415844619274, -0.013438085094094276, -0.001946880016475916, -0.013817399740219116, 0.01128264982253313, -0.011792107485234737, 0.010032914578914642, -3.536849908414297e-05, 0.012234370224177837, -0.013937454670667648, 0.012023156508803368, -0.002886738395318389, 0.0047605000436306, -0.012356757186353207, 0.012583254836499691, -0.010243386030197144, 0.0114319808781147, -0.007395503576844931, -0.007505993824452162, -0.011725672520697117, -4.9101417971542105e-05, -0.011590051464736462, 0.007164597511291504, 4.882951907347888e-05, 0.012035195715725422, -0.01214161142706871, 0.00020049867453053594, 0.012914689257740974, -0.002562146168202162, -0.002086250577121973, 0.012739183381199837, -0.013541275635361671, 0.010760133154690266, 0.011862188577651978, -0.003718461375683546, -0.011669783852994442, 0.013218380510807037, -0.012834948487579823], [-0.0002721934870351106, 0.002840721281245351, -0.004800483118742704, 0.004299894440919161, -0.0021433818619698286, -0.013594885356724262, -0.012506874278187752, -0.014302557334303856, -0.010829498060047626, 0.010264554992318153, 0.0076349759474396706, 0.013343657366931438, -0.0024636725429445505, -5.138095002621412e-05, -0.0021195632871240377, -0.013184064999222755, -0.01369053591042757, 0.01354094035923481, -0.0021830762270838022, 0.01322313491255045, -0.006600000895559788, 0.009126067161560059, 0.0068996441550552845, -0.00808341708034277, -0.005527783185243607, 0.001997344894334674, -0.0028551139403134584, -0.00011588737834244967, -0.014221127144992352, 0.012971053831279278, -0.011970015242695808, 0.008370534516870975, -0.011925939470529556, 0.001654406194575131, -0.013206115923821926, -0.006342318840324879, -0.0139000890776515, -0.012665100395679474, -0.013241853564977646, 0.012326161377131939, -0.011888938024640083, -0.013019388541579247, 0.0018228127155452967, 0.01405343133956194, -0.01394396461546421, 0.010947988368570805, 0.0007879658369347453, 0.014796635136008263, -0.0023939667735248804, -0.00028856252902187407, 0.004176444839686155, 0.001966804964467883, 1.9661374608404003e-05, 0.012994213029742241, -0.011842411942780018, -0.01318101305514574, -0.014163454994559288, -0.0057296608574688435, -0.01142215821892023, 0.012720451690256596, 0.008445370011031628, 0.012419289909303188, -0.001922694849781692, 0.0023823590017855167, -0.013322143815457821, 0.001808504923246801, -0.01386494655162096, 0.013912731781601906, -0.004899824969470501, 0.003484885673969984, -0.001794764888472855, 0.014180184341967106, 0.013851584866642952, 0.0018289678264409304, -0.005403319839388132, 0.014818946830928326, -0.0019627423025667667, -0.011111649684607983, 0.00429877731949091, 0.005724738817662001, -0.01053502969443798, 0.011657719500362873, -0.012173096649348736, 0.00021302523964550346, -0.013060401193797588, 0.010383229702711105, -0.004236877430230379, 0.005549211986362934, 0.012923112139105797, 0.0018778280355036259, -0.0021091806702315807, 0.013749567791819572, 0.012542558833956718, 0.012131116352975368, -0.008629732765257359, 0.012375443242490292, -0.017331786453723907, 0.0006720917299389839, -0.011229725554585457, 0.013574122451245785, -0.011529877781867981, 0.012148190289735794, -0.011688841506838799, 0.012526504695415497, -0.012553759850561619, 0.008184525184333324, -0.0015452931402251124, 0.015370877459645271, 0.002857499523088336, 0.014079644344747066, 6.252629827940837e-05, 0.009012823924422264, -0.006867588963359594, 8.619499567430466e-06, -0.012016738764941692, 0.01290368102490902, -0.00012016718392260373, -0.002670561196282506, 0.013420475646853447, 0.013140174560248852, -0.013609333895146847, 0.01284948829561472, -0.012164643965661526, -0.012434368953108788, 0.012590658850967884, 0.013665445148944855, -0.0017940760590136051, 0.013202707283198833], [0.00021202083735261112, 0.011334782466292381, -0.008093000389635563, 0.007152639329433441, -0.013927223160862923, -0.01380270067602396, -0.01567131280899048, -0.019229335710406303, -0.016033383086323738, 0.0026360636111348867, 0.012925215996801853, 0.016040831804275513, -0.017955459654331207, 7.531191658927128e-05, -0.015443861484527588, -0.013443734496831894, -0.01716761663556099, 0.0020476302597671747, -0.015979070216417313, 0.016775833442807198, -0.01205784548074007, 0.00639017578214407, 0.01686258241534233, -0.00739847868680954, -0.0017395055619999766, 0.016036728397011757, -0.007738129701465368, 0.0004207804740872234, -0.0010980954393744469, 0.017310740426182747, -0.014685643836855888, 0.008659429848194122, -0.004973541479557753, 0.002166546182706952, -0.01901055872440338, -0.0067964415065944195, -0.01958073489367962, -0.014701232314109802, -0.014127395115792751, 0.016043968498706818, -0.016598006710410118, -0.0023819722700864077, 0.01937980018556118, 0.019443674013018608, -0.016683336347341537, 0.016086962074041367, 0.005637341644614935, 0.015312433242797852, -0.005602832417935133, -0.0002991030632983893, 0.013904441148042679, 0.014855130575597286, -0.00012770763714797795, 0.0018398944521322846, -0.01613634265959263, -0.01612926460802555, -0.017681539058685303, -0.01106921024620533, -0.014795753173530102, 0.01569962501525879, 0.009839777834713459, 0.013220241293311119, -0.015718510374426842, 0.01605735719203949, -0.01603556238114834, 0.01699991337954998, -0.018532540649175644, 0.016418009996414185, -0.013794909231364727, 0.014620870351791382, -0.012716595083475113, 0.016626685857772827, 0.012380117550492287, 0.015794269740581512, -0.015402070246636868, 0.016407964751124382, -0.017177702859044075, -0.013878784142434597, 0.010194403119385242, 0.006239430978894234, -0.01282438077032566, 0.014669052325189114, -0.005288254469633102, 7.393593841698021e-05, -0.015084335580468178, 0.016548344865441322, -0.01781439036130905, 0.0040242974646389484, 0.01871580444276333, 0.021225225180387497, -0.0024176952429115772, 0.016903527081012726, 0.0037937925662845373, 0.01681412011384964, -0.008555895648896694, 0.015157711692154408, -0.003836045740172267, 0.0015396729577332735, -0.01585070602595806, 0.00253605330362916, -0.014555749483406544, 0.01522864867001772, -0.00394100695848465, 0.0165523923933506, -0.015335192903876305, 0.01034365501254797, -0.016370389610528946, 0.016283303499221802, 0.014722400344908237, 0.003226439468562603, 9.016720287036151e-05, 0.014554581604897976, -0.0057004885748028755, -7.518066558986902e-05, -0.006861560046672821, 0.001785156549885869, 8.296248415717855e-05, -0.014789626002311707, 0.01244757417589426, 0.007517583668231964, -0.016361773014068604, 0.0031888126395642757, -0.01568993739783764, -0.002325157169252634, 0.013670767657458782, 0.0024944173637777567, -0.0019619984086602926, 0.016685744747519493], [-0.0001251008070539683, 0.00187183718662709, -0.008080597966909409, 0.004771611653268337, -0.002456201706081629, -0.010890865698456764, -0.0020874489564448595, -0.0035974793136119843, -0.011239946819841862, 0.002076738514006138, 0.011883612722158432, 0.0025845372583717108, -0.012018077075481415, -6.387235771398991e-05, -0.010996677912771702, -0.002122152829542756, -0.01138654351234436, 0.01039963774383068, -0.011794175952672958, 0.003993690013885498, -0.0050953165628015995, 0.009315469302237034, 0.006291922181844711, -0.012360680848360062, -0.010812243446707726, 0.0019194424385204911, -0.003442858112975955, 0.00014272792031988502, -0.012842790223658085, 0.011279513128101826, -0.009600169956684113, 0.0071475510485470295, -0.002202250063419342, 0.009803690016269684, -0.0023716730065643787, -0.0023764038924127817, -0.009816872887313366, -0.01132955215871334, -0.011558279395103455, 0.012379515916109085, -0.006926973350346088, -0.011394607834517956, 0.0117072444409132, 0.010397815145552158, -0.011395293287932873, 0.011667177081108093, 0.006672533694654703, 0.01369502767920494, -0.002296375809237361, -0.00028976876637898386, 0.011154553852975368, 0.0019764285534620285, 1.9347728084539995e-05, 0.01083327829837799, -0.01138263288885355, -0.0025496799498796463, -0.012377227656543255, -0.0043496740981936455, -0.011924056336283684, 0.010110300965607166, 0.008904660120606422, 0.012278826907277107, -0.010056468658149242, 0.0036655825097113848, -0.011355150490999222, 0.001836968818679452, -0.009286264888942242, 0.01151692122220993, -0.008492603898048401, 0.010253689251840115, -0.011755014769732952, 0.011010480113327503, 0.004194892011582851, 0.010259938426315784, -0.002299401443451643, 0.011571764014661312, -0.011233469471335411, -0.002056550933048129, 0.009459264576435089, 0.01036070380359888, -0.005780116189271212, 0.0039674025028944016, -0.009777098894119263, -1.0551449122431222e-05, -0.003609724109992385, 0.00252011907286942, -0.001959695713594556, 0.012583487667143345, 0.005892867222428322, 0.010855337604880333, -0.011263670399785042, 0.0033003350254148245, 0.011498029343783855, 0.012546525336802006, -0.006726345978677273, 0.012451739981770515, -0.014711637049913406, 0.0014828272396698594, -0.010956874117255211, 0.012432065792381763, -0.01076146773993969, 0.0029232243541628122, -0.009610413573682308, 0.011015590280294418, -0.011134328320622444, 0.008937728591263294, -0.01229094248265028, 0.009692934341728687, 0.0027505746111273766, 0.0024125666823238134, 9.057531860889867e-05, 0.008380575105547905, -0.003744658548384905, -2.5108787667704746e-05, -0.005243625026196241, 0.011036627925932407, -1.4840173889751895e-06, -0.0026253240648657084, 0.002033882774412632, 0.010762663558125496, -0.006260042078793049, 0.010906622745096684, -0.01059679314494133, -0.011218961328268051, 0.004574318882077932, 0.011717963963747025, -0.011565121822059155, 0.010301398113369942], [6.090988972573541e-05, -0.006991179194301367, 0.008446362800896168, -0.006888674572110176, 0.010708887130022049, 0.004181735683232546, 0.00203147460706532, 0.002150600543245673, 0.00672276271507144, -0.010974982753396034, -0.013192824088037014, -0.010355881415307522, 0.01187040563672781, 5.1359769713599235e-05, 0.011917096562683582, 0.011136772111058235, 0.011904784478247166, -0.001894279383122921, 0.011212202720344067, -0.002732345601543784, 0.006694216281175613, -0.009477680549025536, -0.002044069115072489, 0.00916149839758873, 0.011708405800163746, -0.012088139541447163, 0.009083233773708344, -4.159029049333185e-05, 0.012430115602910519, -0.0024678471963852644, 0.011392893269658089, -0.0028937822207808495, 0.009622693061828613, -0.012030231766402721, 0.0024518691934645176, 0.005143606103956699, 0.012044044211506844, 0.012295136228203773, 0.012340834364295006, -0.0021926057524979115, 0.0030232281424105167, 0.0022113833110779524, -0.013410967774689198, -0.001983130816370249, 0.011627478525042534, -0.011933941394090652, -0.0004398284072522074, -0.01353768166154623, 0.012167815119028091, 0.00016949759447015822, -0.0061440132558345795, -0.0020833504386246204, 5.3711737564299256e-05, -0.0017694445559754968, 0.01235599722713232, 0.011247435584664345, 0.0023899355437606573, 0.01375201903283596, 0.01169629953801632, -0.010988883674144745, -0.00830898154526949, -0.012803608551621437, 0.007016401272267103, -0.013054126873612404, 0.011101688258349895, -0.001963351620361209, 0.011954826302826405, -0.01178631279617548, 0.006065549328923225, -0.011571538634598255, 0.012765616178512573, -0.01125048566609621, -0.010997919365763664, -0.011730160564184189, 0.002843079622834921, -0.0034891136456280947, 0.011727826669812202, 0.011017589829862118, -0.01041713822633028, -0.01330288965255022, 0.009659524075686932, -0.004125414881855249, 0.0019416945287957788, 0.00011104583973065019, 0.002061960520222783, -0.011972114443778992, 0.013043230399489403, -0.012128402478992939, -0.011332220397889614, -0.012038113549351692, 0.010875807143747807, -0.011462819762527943, -0.010777122341096401, -0.01284419558942318, 0.008403491228818893, -0.011250551789999008, 0.009953061118721962, -0.001967835705727339, 0.011300251819193363, -0.0031207874417304993, 0.007015685550868511, -0.011230964213609695, 0.01001057866960764, -0.01148014422506094, 0.0022321140859276056, -0.010271118953824043, 0.012971102260053158, -0.010633178055286407, -0.012055739760398865, -0.002013973891735077, -9.036318806465715e-05, -0.009603939950466156, 0.006035493221133947, -7.84708663559286e-06, 0.00968796294182539, -0.0059439633041620255, 0.0009026829502545297, 0.010224418714642525, -0.011835664510726929, -0.011872892268002033, 0.011115745641291142, -0.006958185229450464, 0.010894016362726688, 0.0022722866851836443, -0.004521582275629044, -0.010948878712952137, 0.0032202880829572678, -0.011793084442615509], [-0.00020737414888571948, -0.005595617927610874, 0.010267412289977074, -0.010168299078941345, 0.001963354181498289, 0.0019134790636599064, 0.0024440863635390997, 0.0019870249088853598, 0.0032854077871888876, -0.005092789884656668, -0.004846350289881229, -0.002585760550573468, 0.0012210366548970342, 5.179075014893897e-05, 0.0032878625206649303, 0.001543071586638689, 0.0014373449375852942, -0.0010741931619122624, 0.0028033785056322813, -0.001864659832790494, 0.005108457524329424, -0.009017862379550934, -0.002385946689173579, 0.008565927855670452, 0.0007193277706392109, -0.002428861800581217, 0.005507093854248524, -9.261100785806775e-05, 0.0030381837859749794, -0.0017108645988628268, 0.0009828059701249003, -0.009706024080514908, 0.001695664832368493, -0.0015826241578906775, 0.0015237999614328146, 0.0005336416652426124, 0.000893627293407917, 0.0005327234975993633, 0.0030642691999673843, -0.001798234530724585, 0.0036521083675324917, 0.003777738194912672, -0.0014488090528175235, -0.0014328245306387544, 0.0011971882777288556, -0.0012302789837121964, -0.0004503675736486912, -0.0018307322170585394, 0.00276385759934783, 3.622828080551699e-05, -0.0029300800524652004, -0.0018630682025104761, -1.4113606084720232e-05, -0.001810520887374878, 0.0023138183169066906, 0.002346332184970379, 0.0011877549113705754, 0.004566374700516462, 0.0035812114365398884, -0.001475182711146772, -0.008289219811558723, -0.001990871038287878, 0.0024391941260546446, -0.0014525956939905882, 0.0017277400474995375, -0.0015778995584696531, 0.0019681407138705254, -0.0016303914599120617, 0.007268316112458706, -0.006108936853706837, 0.0014625330222770572, -0.001841378747485578, -0.0021857605315744877, -0.0019464417127892375, 0.0018300821539014578, -0.0018667358672246337, 0.0023452057503163815, 0.0016394384438171983, -0.008130247704684734, -0.004248196259140968, 0.004439969547092915, -0.005140612833201885, 0.0034361383877694607, 4.474098022910766e-05, 0.00245104543864727, -0.0009241870138794184, 0.0016723537119105458, -0.003787139430642128, -0.0011163613526150584, -0.004623007029294968, 0.002726589096710086, -0.0007573190378025174, -0.0012167233508080244, -0.0033640293404459953, 0.006221618968993425, -0.004663387779146433, 0.0030868356116116047, -0.0025665874127298594, 0.0028382607270032167, -0.0012207099935039878, 0.005030028056353331, -0.00210927939042449, 0.005040188319981098, -0.0017552669160068035, 0.0016849482199177146, -0.005641021765768528, 0.000948498141951859, -0.00047246349276974797, -0.006657078396528959, -0.0006245409604161978, -9.055980626726523e-05, -0.006522283889353275, 0.00491725467145443, -2.709838008740917e-05, 0.005917581729590893, -0.0023916056379675865, 1.0486655810382217e-05, 0.002182270400226116, -0.004887841641902924, -0.0016614190535619855, 0.0021803216077387333, -0.0019165215780958533, 0.0014609064674004912, 0.0029933673795312643, -0.001450357842259109, -0.001590969506651163, 0.0017906581051647663, -0.0005620794836431742], [-0.00021996453870087862, -0.0057621905580163, 0.009637088514864445, -0.004972248803824186, 0.002187898615375161, 0.014182346872985363, 0.013452326878905296, 0.004096576943993568, 0.010671292431652546, -0.011713162995874882, -0.00584809947758913, -0.014714657329022884, 0.014935069717466831, -5.9309521020622924e-05, 0.013862280175089836, 0.015031659975647926, 0.0032364705111831427, -0.016020294278860092, 0.015276639722287655, -0.0028254680801182985, 0.00903980154544115, -0.005826746579259634, -0.0001790514652384445, 0.015195664018392563, 0.016203520819544792, -0.01417161338031292, 0.002944073872640729, 7.35343637643382e-05, 0.014272313565015793, -0.015867697075009346, 0.01502266339957714, -0.0092063769698143, 0.002224183641374111, -0.016738170757889748, 0.017178084701299667, 0.00042820037924684584, 0.0017374827293679118, 0.015480111353099346, 0.01394778210669756, -0.016039172187447548, 0.014508613385260105, 0.01488406676799059, -0.0018303998513147235, -0.00210576388053596, 0.003525642678141594, -0.01297530997544527, -0.0011256234720349312, -0.015072415582835674, 0.014537972398102283, 0.0001091951853595674, -0.010541819036006927, -0.014607406221330166, -1.5000689018052071e-05, -0.0019565781112760305, 0.01522428635507822, 0.015759209170937538, 0.015709178522229195, 0.006539639085531235, 0.013038482517004013, -0.015276937745511532, -0.008183300495147705, -0.014809965156018734, 0.014390293508768082, -0.015903912484645844, 0.013858712278306484, -0.015335546806454659, 0.004085706081241369, -0.01644195429980755, 0.0053564682602882385, -0.007478808984160423, 0.015630904585123062, -0.01744856685400009, -0.006336626131087542, -0.015391730703413486, 0.00930161401629448, -0.016883203759789467, 0.014812231995165348, 0.002169622341170907, -0.009980604983866215, -0.008233821019530296, 0.010918226093053818, -0.013492722064256668, 0.002055756514891982, 4.479349445318803e-05, 0.014459983445703983, -0.01613869145512581, 0.01759617030620575, -0.005380862392485142, -0.01614832691848278, -0.0018782999832183123, 0.014138991013169289, -0.017084842547774315, -0.014985824935138226, -0.013418405316770077, 0.009936449117958546, -0.011349420994520187, 0.00500832125544548, -0.00044131733011454344, 0.013777751475572586, -0.016271935775876045, 0.0034113044384866953, -0.013554592616856098, 0.004725210834294558, -0.015716025605797768, 0.014354676939547062, -0.008088133297860622, 0.015359718352556229, -0.020136486738920212, -0.016088753938674927, -0.0026194865349680185, -9.999208123190328e-05, -0.010241968557238579, 0.009077662602066994, -3.0935805170884123e-06, 0.008479353971779346, -0.015380973927676678, 0.00046897504944354296, 0.00277181644923985, -0.0026369208935648203, -0.016792472451925278, 0.015330012887716293, -0.015447916463017464, 0.013337121345102787, 0.015543426387012005, -0.014313911087810993, -0.003253223607316613, 0.015070964582264423, -0.017985716462135315], [-0.00011685447680065408, 0.006950050592422485, -0.007998351007699966, 0.004974995274096727, -0.009005239233374596, -0.010490321554243565, -0.01023367140442133, -0.008732707239687443, -0.009754424914717674, 0.00559544563293457, 0.009314265102148056, 0.008979336358606815, -0.0018515274859964848, -2.1051457224530168e-05, -0.002504768082872033, -0.008560038171708584, -0.008374631404876709, 0.008957671001553535, -0.010745042935013771, 0.009216591715812683, -0.011775054037570953, 0.01011353824287653, 0.004015653394162655, -0.004425287712365389, -0.00876709632575512, 0.009643914178013802, -0.010272136889398098, -6.4105297497008e-05, -0.013058341108262539, 0.004970921203494072, -0.006085089407861233, 0.007114947307854891, -0.00942267756909132, 0.008983711712062359, -0.004673287272453308, -0.005715282633900642, -0.008096866309642792, -0.00848790630698204, -0.00980004295706749, 0.010636846534907818, -0.009317529387772083, -0.005022680852562189, 0.009192630648612976, 0.0019203132251277566, -0.010195055976510048, 0.011103181168437004, 0.008630220778286457, 0.006413924042135477, -0.010125457309186459, -0.00010688938345992938, 0.009401297196745872, 0.009495552629232407, 1.9336144760018215e-05, 0.00351881654933095, -0.007479992229491472, -0.009253665804862976, -0.010295139625668526, -0.004546702839434147, -0.010789038613438606, 0.007899639196693897, 0.00949894543737173, 0.010840567760169506, -0.009617823176085949, 0.011841448955237865, -0.0023270330857485533, 0.009948321618139744, -0.00948143471032381, 0.0018826447194442153, -0.009525270201265812, 0.009368817321956158, -0.010328550823032856, 0.008849670179188251, 0.011648233979940414, 0.009464764036238194, -0.011087176389992237, 0.007573363371193409, -0.008546250872313976, -0.011135861277580261, 0.010150575079023838, 0.013077909126877785, -0.00941654946655035, 0.00972495973110199, -0.001954031176865101, -0.00011150581849506125, -0.01080367062240839, 0.0088910311460495, -0.0019326080800965428, 0.011422497220337391, 0.005105307791382074, 0.009491040371358395, -0.00845760852098465, 0.0056257182732224464, 0.009554360993206501, 0.010683607310056686, -0.00851802434772253, 0.010417393408715725, -0.007168521638959646, 3.2599084079265594e-05, -0.009415487758815289, 0.002974963514134288, -0.009869851171970367, 0.009983799420297146, -0.01065615564584732, 0.002763238037005067, -0.003368185367435217, 0.008754395879805088, -0.009475097991526127, 0.0005530419875867665, 0.011404759250581264, 0.009104016236960888, 9.597698226571083e-05, 0.009787763468921185, -0.0011710746912285686, -3.398459011805244e-05, -0.011155985295772552, 0.010024798102676868, -2.0909794329782017e-05, -0.008278249762952328, 0.009772845543920994, 0.009980256669223309, -0.005747220944613218, 0.008765719830989838, -0.00936073251068592, -0.002244027331471443, 0.008113980293273926, 0.0028100195340812206, -0.0091678686439991, 0.0019056431483477354], [0.00033031508792191744, -0.005335347726941109, 0.009818358346819878, -0.007100795861333609, 0.010670897550880909, 0.01083742268383503, 0.009316148236393929, 0.003639394184574485, 0.006547566968947649, -0.0023132208734750748, -0.013247479684650898, -0.011637198738753796, 0.010657638311386108, -5.209406299400143e-05, 0.002506478223949671, 0.007995017804205418, 0.010897353291511536, -0.01003309991210699, 0.011099003255367279, -0.011879891157150269, 0.005463473033159971, -0.010837382636964321, -0.003487559035420418, 0.007353678345680237, 0.009731256403028965, -0.009370486252009869, 0.011591695249080658, 0.00043082103366032243, 0.01429231557995081, -0.00204380601644516, 0.008448547683656216, -0.010252667590975761, 0.010493295267224312, -0.01033762190490961, 0.010067938826978207, 0.009314483031630516, 0.010030992329120636, 0.009787251241505146, 0.011937420815229416, -0.010351692326366901, 0.010058813728392124, 0.010329355485737324, -0.010302962735295296, -0.009932064451277256, 0.012361262924969196, -0.010137179866433144, -0.010040126740932465, -0.012744045816361904, 0.011475438252091408, 8.145737956510857e-05, -0.011896287091076374, -0.002163223922252655, 3.209304850315675e-05, -0.009568377397954464, 0.00823361799120903, 0.003974989056587219, 0.011555559001863003, 0.004427161533385515, 0.0024643398355692625, -0.010412650182843208, -0.009534822776913643, -0.005988067947328091, 0.0019901066552847624, -0.0028496235609054565, 0.01173851452767849, -0.010608921758830547, 0.010548770427703857, -0.0114669781178236, 0.011746220290660858, -0.010377481579780579, 0.0106519665569067, -0.009865455329418182, -0.011848816648125648, -0.010364463552832603, 0.01056062150746584, -0.011373458430171013, 0.009985239244997501, 0.010222562588751316, -0.010021963156759739, -0.005616039037704468, 0.011013597249984741, -0.004046429879963398, 0.010616815648972988, -7.50661056372337e-05, 0.011137290857732296, -0.0036373494658619165, 0.011511572636663914, -0.01223326101899147, -0.008108493871986866, -0.010152026079595089, 0.01079978235065937, -0.00776396319270134, -0.01077855471521616, -0.011427341029047966, 0.010174532420933247, -0.011745448224246502, 0.014484046958386898, -0.0011115020606666803, 0.011542622931301594, -0.011827148497104645, 0.011190209537744522, -0.0029423071537166834, 0.0052001518197357655, -0.010916744358837605, 0.010660501196980476, -0.010649089701473713, 0.010938732884824276, -0.0069244783371686935, -0.012375238351523876, -0.011095630005002022, -4.833889761357568e-05, -0.010537269525229931, 0.005126458592712879, 3.2044237741502e-05, 0.010893279686570168, -0.0017830035649240017, 0.00010092247975990176, 0.009306884370744228, -0.011694269254803658, -0.008752440102398396, 0.010186436586081982, -0.010468735359609127, 0.009037664160132408, 0.010593470185995102, -0.0064391400665044785, -0.010577241890132427, 0.009988798759877682, -0.0038980464451014996], [6.776762165827677e-05, 0.00675384234637022, -0.00969699490815401, 0.005109572783112526, -0.01548127643764019, -0.013284176588058472, -0.014904890209436417, -0.0026813815347850323, -0.01359613612294197, 0.0020801243372261524, 0.0133519871160388, 0.015742884948849678, -0.018187154084444046, 3.893720713676885e-05, -0.015298819169402122, -0.0021038134582340717, -0.018399562686681747, 0.016274424269795418, -0.003491688286885619, 0.01558814849704504, -0.010811791755259037, 0.005942109972238541, 0.0018494337564334273, -0.006046047434210777, -0.019506268203258514, 0.015432474203407764, -0.012819413095712662, 0.00015448936028406024, -0.0032135669607669115, 0.016369815915822983, -0.00108183897100389, 0.008682779967784882, -0.011389327235519886, 0.021123221144080162, -0.017831534147262573, -0.007330846507102251, -0.021128689870238304, -0.015443457290530205, -0.014487359672784805, 0.015890944749116898, -0.016010280698537827, -0.01545141451060772, 0.0018192599527537823, 0.00204257620498538, -0.003288113512098789, 0.002374778501689434, 0.00040949531830847263, 0.004932727199047804, -0.014753353781998158, -0.0002762701187748462, 0.0033554541878402233, 0.01600869558751583, 1.9657460143207572e-05, 0.0021345976274460554, -0.016575325280427933, -0.004275339189916849, -0.011869672685861588, -0.0047111245803534985, -0.01465980987995863, 0.008368857204914093, 0.009658020921051502, 0.002698425902053714, -0.0018704193644225597, 0.01461185421794653, -0.009742392227053642, 0.014141881838440895, -0.002027001930400729, 0.01472483854740858, -0.011974181048572063, 0.0023986217565834522, -0.0019390693632885814, 0.015993162989616394, 0.012573440559208393, 0.016155771911144257, -0.015500250272452831, 0.014604928903281689, -0.016435109078884125, -0.0016461143968626857, 0.011054165661334991, 0.008211887441575527, -0.005998759996145964, 0.014340298250317574, -0.015017911791801453, -3.127657328150235e-05, -0.015820888802409172, 0.0018919858848676085, -0.01881786622107029, 0.013770339079201221, 0.01585886813700199, 0.021353071555495262, -0.015596839599311352, 0.015580231323838234, 0.0019481555791571736, 0.015300337225198746, -0.008448713459074497, 0.012288747355341911, -0.013275296427309513, 0.0006602488574571908, -0.013487319462001324, 0.01743018999695778, -0.012901854701340199, 0.01256022322922945, -0.012301554903388023, 0.004363212268799543, -0.01493497658520937, 0.008367974311113358, -0.0015650107525289059, 0.016919195652008057, 0.0029065862763673067, 0.016218621283769608, 4.018894469481893e-05, 0.011852629482746124, -0.008154329843819141, -0.00010833575652213767, -0.005952644627541304, 0.016983482986688614, 4.00866410927847e-05, -0.01485930010676384, 0.014300771057605743, 0.01737537421286106, -0.0020219532307237387, 0.01646292768418789, -0.015079068951308727, -0.016204841434955597, 0.01404370367527008, 0.016238681972026825, -0.016188068315386772, 0.014698291197419167], [0.00013967581617180258, -0.006227752659469843, 0.008812540210783482, -0.006897148210555315, 0.011846843175590038, 0.0057353307493031025, 0.002094599884003401, 0.013217296451330185, 0.0021986959036439657, -0.015010694041848183, -0.013504503294825554, -0.002130551729351282, 0.014204111881554127, 6.39387799310498e-05, 0.01446453295648098, 0.012524263001978397, 0.014106391929090023, -0.0019736671820282936, 0.0021365596912801266, -0.014481625519692898, 0.007484213449060917, -0.003246878506615758, -0.002609092742204666, 0.013245356269180775, 0.008370636962354183, -0.0131592508405447, 0.013003131374716759, 0.00036599207669496536, 0.005011661443859339, -0.0017822816735133529, 0.011349163949489594, -0.009318826720118523, 0.012525386177003384, -0.015060209669172764, 0.01168743148446083, 0.00033635261934250593, 0.012508740648627281, 0.012513751164078712, 0.01252773031592369, -0.012317425571382046, 0.014009643346071243, 0.013578218407928944, -0.0022800052538514137, -0.005385132040828466, 0.011206426657736301, -0.015478795394301414, -0.00028699173708446324, -0.013923410326242447, 0.01383695937693119, 0.0002866437425836921, -0.0025603047106415033, -0.00214926665648818, -0.0002824081457220018, -0.0021570129320025444, 0.012590502388775349, 0.008934324607253075, 0.002471806015819311, 0.013302925042808056, 0.013463269919157028, -0.010578702203929424, -0.009750851429998875, -0.012865649536252022, 0.012290649116039276, -0.012901660986244678, 0.002505582757294178, -0.01177164912223816, 0.013653282076120377, -0.007102972827851772, 0.012462593615055084, -0.012436184100806713, 0.014577051624655724, -0.010698446072638035, -0.011562030762434006, -0.01140837837010622, 0.013232149183750153, -0.005154307931661606, 0.012647797353565693, 0.011099453084170818, -0.009912669658660889, -0.014040163718163967, 0.012375222519040108, -0.012652631849050522, 0.011779860593378544, -6.941102765267715e-05, 0.01252509094774723, -0.0117452098056674, 0.0065991077572107315, -0.012786967679858208, -0.0035152744967490435, -0.013989578932523727, 0.013471965678036213, -0.005293054971843958, -0.011832185089588165, -0.002332546515390277, 0.0065011270344257355, -0.007603309582918882, 0.00422504311427474, -0.0007732147350907326, 0.010704617947340012, -0.01412598043680191, 0.005558508913964033, -0.004305903799831867, 0.010125369764864445, -0.01264773216098547, 0.012260801158845425, -0.010875247418880463, 0.0017229857621714473, -0.004235214553773403, -0.013831580989062786, -0.010855400003492832, -4.867159077548422e-05, -0.008839618414640427, 0.009490839205682278, -2.1643771106027998e-05, 0.009739498607814312, -0.0037103486247360706, 0.0001973039034055546, 0.012863115407526493, -0.002545013790950179, -0.014526020735502243, 0.0019344418542459607, -0.012774103321135044, 0.013147138059139252, 0.013787862844765186, -0.010038771666586399, -0.01233870442956686, 0.014128969982266426, -0.005320250056684017], [-0.00010334480612073094, 0.004706073552370071, -0.004541041329503059, 0.004912758711725473, -0.002085315529257059, -0.007858524098992348, -0.004301580134779215, -0.006437395233660936, -0.014742618426680565, 0.014354427345097065, 0.009584217332303524, 0.012460600584745407, -0.015384672209620476, 3.491574534564279e-05, -0.014851173385977745, -0.012274129316210747, -0.014119741506874561, 0.013569529168307781, -0.006127525586634874, 0.01403900794684887, -0.008079021237790585, 0.0034012116957455873, 0.004990409128367901, -0.007924996316432953, -0.004585469141602516, 0.01274604070931673, -0.012759311124682426, 0.00014679298328701407, -0.0015336476499214768, 0.0019249251345172524, -0.0010153308976441622, 0.0028691573534160852, -0.01152626983821392, 0.016604961827397346, -0.012876242399215698, -0.004846160765737295, -0.014598763547837734, -0.013337478041648865, -0.01149819977581501, 0.012948988005518913, -0.001940066576935351, -0.013271823525428772, 0.0021520431619137526, 0.001768400426954031, -0.008688988164067268, 0.005229406524449587, 0.0006834786618128419, 0.0041820937767624855, -0.0024270901922136545, -0.0003081656468566507, 0.004175253212451935, 0.004162713885307312, -5.355992470867932e-05, 0.013711085543036461, -0.012901156209409237, -0.007212793454527855, -0.004091204144060612, -0.009464445523917675, -0.012833742424845695, 0.0043202838860452175, 0.009163943119347095, 0.012855804525315762, -0.01255367137491703, 0.012380489148199558, -0.013067219406366348, 0.011702853254973888, -0.0026346398517489433, 0.0049235643818974495, -0.013453541323542595, 0.002379008335992694, -0.010349428281188011, 0.0024118719156831503, 0.011813893914222717, 0.012167314998805523, -0.014720345847308636, 0.01261218823492527, -0.013084137812256813, -0.0005233864649198949, 0.01107023749500513, 0.01396467350423336, -0.004030511248856783, 0.01183713972568512, -0.011234168894588947, 1.6212516129598953e-05, -0.0027563113253563643, 0.011675132438540459, -0.0062098270282149315, 0.01279054582118988, 0.0019016151782125235, 0.013341016136109829, -0.012416161596775055, 0.0019545701798051596, 0.01264987699687481, 0.015259160660207272, -0.006758584640920162, 0.011717707850039005, -0.00979936309158802, 0.0003823321021627635, -0.009847961366176605, 0.013704647310078144, -0.005497530568391085, 0.006474875845015049, -0.0077127935364842415, 0.01355753093957901, -0.011035752482712269, 0.00918519590049982, -0.0152391092851758, 0.0058450051583349705, 0.010004385374486446, 0.011875779367983341, -6.830733764218166e-05, 0.010057852603495121, -0.0022394850384444, -0.00010731528891483322, -0.011400874704122543, 0.014303267002105713, -0.00012818425602745265, -0.013308106921613216, 0.011379932053387165, 0.014139792881906033, -0.0019854623824357986, 0.013490247540175915, -0.013919969089329243, -0.01424343977123499, 0.00790572352707386, 0.011949366889894009, -0.013985808938741684, 0.0046370141208171844], [-8.453529881080613e-05, -0.0034462714102119207, 0.008386456407606602, -0.006902321241796017, 0.012161463499069214, 0.012161404825747013, 0.013696130365133286, 0.013372610323131084, 0.002219549845904112, -0.014341069385409355, -0.012805750593543053, -0.002252691425383091, 0.015482050366699696, 3.700461456901394e-05, 0.014538852497935295, 0.005732196848839521, 0.014477143064141273, -0.0019759100396186113, 0.013285676017403603, -0.0039722197689116, 0.010153592564165592, -0.003746478585526347, -0.004546552896499634, 0.004705358296632767, 0.013855237513780594, -0.01273822970688343, 0.012610464356839657, 0.0003872997185681015, 0.0031207650899887085, -0.012432090938091278, 0.010557790286839008, -0.008624897338449955, 0.013058716431260109, -0.016496814787387848, 0.013665198348462582, 0.0012212455039843917, 0.013977805152535439, 0.003316950285807252, 0.012802520766854286, -0.0021322283428162336, 0.013152273371815681, 0.01352397259324789, -0.01418422069400549, -0.014647637493908405, 0.003010701620951295, -0.003635718487203121, -0.006849648896604776, -0.003532644361257553, 0.0025024814531207085, 0.00041650707134976983, -0.01450261939316988, -0.013154901564121246, -0.00029326832736842334, -0.013598035089671612, 0.013634259812533855, 0.009261943399906158, 0.015240250155329704, 0.012835986912250519, 0.0023227890487760305, -0.0018112208927050233, -0.009489824995398521, -0.013099722564220428, 0.01256378274410963, -0.01279739011079073, 0.013797089457511902, -0.012733261100947857, 0.015231838449835777, -0.007518939208239317, 0.012680310755968094, -0.012667897157371044, 0.014300128445029259, -0.011786566115915775, -0.012446011416614056, -0.012640036642551422, 0.002402946585789323, -0.013786807656288147, 0.013021727092564106, 0.009923458099365234, -0.010988635011017323, -0.0034182167146354914, 0.011576330289244652, -0.014076254330575466, 0.010473184287548065, -0.00021302739332895726, 0.013093779794871807, -0.003633015090599656, 0.007282204460352659, -0.004736324772238731, -0.012959334999322891, -0.01571168564260006, 0.01240496151149273, -0.00831575132906437, -0.0019542579539120197, -0.015577854588627815, 0.010155417025089264, -0.012388060800731182, 0.013219710439443588, -0.00344402389600873, 0.008158071897923946, -0.015220780856907368, 0.011891460046172142, -0.010050090961158276, 0.004025705624371767, -0.013666142709553242, 0.01262689009308815, -0.007777423597872257, 0.0015007967595010996, -0.009220599196851254, -0.014102829620242119, -0.011813806369900703, -3.483635009615682e-05, -0.010422399267554283, 0.006472242996096611, -2.5723991711856797e-05, 0.011600558646023273, -0.014046273194253445, 0.0005851599853485823, 0.012799116782844067, -0.011497692205011845, -0.014944271184504032, 0.001965551171451807, -0.01251889206469059, 0.01343156211078167, 0.013933181762695312, -0.011733869090676308, -0.002001444110646844, 0.014918371103703976, -0.011142405681312084], [0.00011196863488294184, -0.007908176630735397, 0.009498958475887775, -0.00402840506285429, 0.011566968634724617, 0.012950866483151913, 0.012874918058514595, 0.006685745902359486, 0.011583063751459122, -0.0022375101689249277, -0.013436486944556236, -0.0021773234475404024, 0.013875912874937057, -6.040879088686779e-05, 0.0023917153012007475, 0.012876895256340504, 0.013737095519900322, -0.012348317541182041, 0.013660137541592121, -0.009798205457627773, 0.009545360691845417, -0.007709954399615526, -0.008108007721602917, 0.006832945626229048, 0.014700195752084255, -0.0019704666920006275, 0.012365241535007954, -0.0001393845013808459, 0.014222622849047184, -0.013075442053377628, 0.010479927062988281, -0.009231993928551674, 0.002219569869339466, -0.008496268652379513, 0.0026320000179111958, 0.009238862432539463, 0.013480927795171738, 0.005439749453216791, 0.013251034542918205, -0.01279368344694376, 0.0047788601368665695, 0.014004574157297611, -0.00209767185151577, -0.0019378481665626168, 0.0040759434923529625, -0.013635940849781036, -0.01461212057620287, -0.003657472785562277, 0.014397813938558102, 3.383084913366474e-05, -0.009652995504438877, -0.011513003148138523, 0.00012434662494342774, -0.01277269795536995, 0.002135865855962038, 0.013063072226941586, 0.01469644159078598, 0.004553813952952623, 0.002714281901717186, -0.012356238439679146, -0.009794500656425953, -0.014000510796904564, 0.0019524635281413794, -0.013486758805811405, 0.0023072247859090567, -0.013841817155480385, 0.014358960092067719, -0.013971522450447083, 0.007252722512930632, -0.0113804517313838, 0.014180151745676994, -0.012921422719955444, -0.012812541797757149, -0.012261169031262398, 0.012835756875574589, -0.009534165263175964, 0.013445979915559292, 0.011170248501002789, -0.009847821667790413, -0.014793727546930313, 0.01197726558893919, -0.00280276988632977, 0.0021273763850331306, -0.0001167805094155483, 0.0021779451053589582, -0.00186891236808151, 0.013439048081636429, -0.0029350933618843555, -0.013764791190624237, -0.014284081757068634, 0.013271264731884003, -0.014962992630898952, -0.013888412155210972, -0.013866917230188847, 0.006307968869805336, -0.014140164479613304, 0.012440351769328117, -0.00030161303584463894, 0.012398800812661648, -0.013942125253379345, 0.003398450091481209, -0.013537312857806683, 0.01137839537113905, -0.012273428961634636, 0.01108059473335743, -0.009481635875999928, 0.0024521902669221163, -0.00012378697283565998, -0.013937019743025303, -0.012540354393422604, 8.022537076612934e-05, -0.012497433461248875, 0.005281426012516022, 3.3987409551627934e-05, 0.012686356902122498, -0.013354790396988392, 0.0001849936816142872, 0.003710845485329628, -0.012743455357849598, -0.013131515122950077, 0.013606932945549488, -0.012865043245255947, 0.0018420584965497255, 0.011537536047399044, -0.014537602663040161, -0.001995467348024249, 0.013377252966165543, -0.013413186185061932], [5.842500468133949e-05, -0.00846768543124199, 0.005632851738482714, -0.005587347783148289, 0.013858388178050518, 0.013022773899137974, 0.014404193498194218, 0.0019098062766715884, 0.015935415402054787, -0.01614188589155674, -0.0035016746260225773, -0.01499504130333662, 0.0160690750926733, 1.6578565919189714e-05, 0.016042208299040794, 0.014157176949083805, 0.002053675474599004, -0.013062075711786747, 0.014998276717960835, -0.015026011504232883, 0.012296877801418304, -0.012186597101390362, -0.01658574491739273, 0.012071290984749794, 0.0171637162566185, -0.013827699236571789, 0.0077579733915627, 6.59958241158165e-05, 0.005522281862795353, -0.016123272478580475, 0.0013451817212626338, -0.01030809711664915, 0.014097855426371098, -0.016363007947802544, 0.015848712995648384, 0.006402996368706226, 0.01616297848522663, 0.0023396837059408426, 0.0072655463591217995, -0.01381017081439495, 0.01587132178246975, 0.01569351553916931, -0.0018105864292010665, -0.0167044959962368, 0.013988626189529896, -0.015520800836384296, -0.0002438597584841773, -0.014402763918042183, 0.003019781317561865, 8.17045001895167e-05, -0.013593044131994247, -0.0025978018529713154, 8.032247569644824e-05, -0.015941837802529335, 0.015314901247620583, 0.012305667623877525, 0.002711104927584529, 0.00462882686406374, 0.014105328358709812, -0.013791654258966446, -0.009666593745350838, -0.015238339081406593, 0.015555471181869507, -0.01147191971540451, 0.01682322286069393, -0.014798563905060291, 0.002374454401433468, -0.014360398054122925, 0.012036790139973164, -0.01251183170825243, 0.0020423387177288532, -0.0019193884218111634, -0.012509578838944435, -0.014061644673347473, 0.014521701261401176, -0.013720774091780186, 0.015845095738768578, 0.0011888990411534905, -0.01036855485290289, -0.015282947570085526, 0.01486547477543354, -0.015069538727402687, 0.014241298660635948, 7.148594886530191e-05, 0.002122815465554595, -0.014181087724864483, 0.00205172598361969, -0.002938949503004551, -0.0018973577534779906, -0.01719237118959427, 0.015193541534245014, -0.013595568016171455, -0.013577233068645, -0.01681249961256981, 0.006341153290122747, -0.014699322171509266, 0.005063722375780344, -0.004536986351013184, 0.0028730088379234076, -0.015386867336928844, 0.014492449350655079, -0.0030238672625273466, 0.012755602598190308, -0.014185368083417416, 0.014278871938586235, -0.008790710009634495, 0.0025055482983589172, -0.011128482408821583, -0.014337107539176941, -0.012751179747283459, -9.986083750845864e-05, -0.015192925930023193, 0.006495318841189146, 2.765457065834198e-05, 0.005406294483691454, -0.01630251109600067, 0.00026924029225483537, 0.014913177117705345, -0.013898833654820919, -0.015856720507144928, 0.015778567641973495, -0.01594211719930172, 0.01384107768535614, 0.014326192438602448, -0.004722001031041145, -0.014074468053877354, 0.017144178971648216, -0.01396267581731081], [0.0003007401537615806, 0.17063719034194946, -0.03485332429409027, 0.029995964840054512, -3.065940973101533e-06, -6.961839517316548e-06, -2.1589116840914357e-06, -2.7928410418098792e-05, -0.0002839767257682979, 3.931081300834194e-05, -8.688782600074774e-07, 1.1473099220893346e-05, -1.1107265891041607e-05, -0.04515640810132027, 4.29445071858936e-06, -1.4138036021904554e-05, -1.4308574463939294e-05, 1.2904075447295327e-05, -2.8446602300391532e-05, 7.17147922841832e-05, -0.004382098559290171, 0.0016068071126937866, -0.0001627875753911212, 0.03972240537405014, -1.4545622434525285e-05, 4.187245576758869e-05, -0.0036044935695827007, 0.00043670981540344656, -0.0001084636605810374, 4.540538429864682e-05, -0.03546713665127754, 0.026189740747213364, -3.332529013277963e-05, -4.947864340465458e-07, -5.630744453810621e-06, -0.04553132876753807, -4.647498644771986e-05, -5.077046444057487e-05, -5.017343573854305e-05, 8.54403515404556e-06, -1.2902344678877853e-05, -2.8323962396825664e-05, 3.133752670692047e-06, 1.4886421922710724e-05, -6.299203960224986e-05, 1.7985856175073422e-05, 0.11240100860595703, 1.0952636330330279e-05, -5.490401963470504e-05, 6.030051736161113e-05, 1.1605382496782113e-05, 2.6613031877786852e-05, -0.06364688277244568, 1.6702746506780386e-05, -4.076757613802329e-05, -3.70712064068357e-06, -3.178125189151615e-05, -0.03177059814333916, -1.433539182471577e-05, -2.0627062724543066e-07, 0.00026803341461345553, 2.868456613214221e-05, -5.424962364486419e-05, 3.984149770985823e-06, -2.664675946562056e-07, -4.041204704208212e-07, -4.539795554592274e-05, 7.613441539433552e-06, -0.0004649556358344853, 0.012139085680246353, -1.3653716450789943e-06, -4.192361757304752e-06, 1.9689514374476857e-06, 1.2315763342485297e-05, -4.239879854139872e-05, 4.2746141843963414e-06, -4.017116953036748e-05, -0.00404308270663023, 0.015971392393112183, 0.005088964477181435, -0.006202441640198231, 0.012223497033119202, -2.0554331058519892e-05, -0.23309354484081268, -6.861961992399301e-06, 2.3702466933173127e-05, -1.7569850285781285e-07, 0.0008062890847213566, 1.9896724552381784e-05, 1.6862106349435635e-05, 5.946211786067579e-06, 4.330141018726863e-05, 7.3817227530526e-06, 1.4441526218433864e-05, 0.001757664605975151, 0.0015289993025362492, -3.9168262446764857e-05, -4.621089465217665e-05, -1.9796245396719314e-05, 2.4518458303646185e-05, -0.0005571024375967681, 2.389689689152874e-05, -0.022032449021935463, 2.0995285012759268e-05, -1.7258000298170373e-05, 0.0038654047530144453, -0.01617550663650036, 0.07189701497554779, 6.162829777167644e-06, 2.7956812118645757e-05, -0.0002737481554504484, 0.010412498377263546, -0.022236410528421402, 0.0001829098619055003, -0.024717843160033226, 3.823347469733562e-06, -0.6565735936164856, 5.680368531102431e-07, 1.492250885348767e-05, 2.7686131943482906e-05, -3.2248885872832034e-06, 1.2997574231121689e-05, 1.4870140603306936e-06, -2.6493378754821606e-05, -2.2689396246278193e-06, 1.4040125506653567e-06, -2.137040428351611e-05, 2.2214579075807706e-05], [-0.0003360901027917862, -0.21346737444400787, 0.031003281474113464, -0.0328238308429718, 3.145904338452965e-05, 0.01729441247880459, 5.879916898265947e-06, 2.516215545256273e-06, 0.00017209211364388466, -3.877577546518296e-05, 6.50462141038588e-07, -3.599174306145869e-05, -1.1612946764216758e-06, 0.04417360946536064, 2.7004432922694832e-05, 1.382655682391487e-06, 1.8388558601145633e-05, -6.951962404855294e-06, 1.1335271665302571e-05, -5.35333929292392e-05, 0.0072355070151388645, -0.00035692707751877606, 2.793030762404669e-05, -5.668331141350791e-05, 1.2518329640442971e-05, -4.861999332206324e-05, 0.006064640358090401, -0.00019141130906064063, 0.00015558295126538724, 4.059678303747205e-06, 0.10570040345191956, -0.0241550263017416, 2.4624555408081505e-06, -9.612335816200357e-06, 1.9140127278660657e-06, 0.04552110284566879, 1.2549719940579962e-05, 1.438641356799053e-05, 0.015799131244421005, -1.0887761163758114e-05, -2.0751160718646133e-06, 1.5302457541110925e-05, -3.329091669002082e-06, -1.0959153769363184e-05, 7.69924808992073e-05, -1.0634582395141479e-05, -0.2385040670633316, -0.014095885679125786, 5.405686897574924e-05, -9.827595204114914e-05, 1.8332499166717753e-05, -2.9478020223905332e-05, 0.06367925554513931, -2.1490919607458636e-05, 6.1011607613181695e-05, 2.83134140772745e-05, 2.5181334422086366e-06, 0.027160530909895897, 9.042113379109651e-05, -1.1306434316793457e-05, -0.0001694077654974535, -0.005774840246886015, 2.7040754503104836e-05, -8.110714588838164e-06, 1.891062674985733e-05, -1.1828597962448839e-05, 1.1522617569426075e-05, -2.3028400391922332e-05, 0.001365237170830369, -0.011561711318790913, 6.871132882224629e-06, 6.3625143411627505e-06, 4.1936787056329194e-06, -5.128568318468751e-06, 5.15171886945609e-05, -6.405921908481105e-07, 3.198913691448979e-05, 0.008324173279106617, -0.022543685510754585, -0.0005346304969862103, 0.006057600025087595, -0.009419567883014679, 1.0014852705353405e-05, 0.2133026123046875, 0.008344858884811401, -2.3551529011456296e-05, 2.7400954422773793e-05, -0.003334896406158805, -1.7892894902615808e-05, -1.3180569112591911e-05, 1.648459874559194e-05, -2.1752850898337783e-06, -1.906814031826798e-05, -1.4314652617031243e-05, -0.000904238666407764, -0.0019991237204521894, 2.9687094865948893e-05, -0.0003817499673459679, 0.0009507027571089566, -1.7026026398525573e-05, 0.004621261730790138, 1.1546826499397866e-05, 0.022979682311415672, -1.600948417035397e-05, 0.00024304950784426183, -0.0015922078164294362, 0.01354540977627039, -0.08558785170316696, -6.066812602512073e-06, -7.501369054807583e-06, 0.0004196302033960819, -0.016019638627767563, 0.036387696862220764, -0.00014247505168896168, 0.02194082736968994, -1.2753831470035948e-05, 0.5033719539642334, 1.6535212125745602e-05, -5.7766821555560455e-05, -4.541557245829608e-06, 1.208137973662815e-06, -2.8505026421044022e-05, 3.2854179153218865e-05, 3.422892405069433e-05, -1.0924518392130267e-05, -7.65413096814882e-06, 1.4869689039187506e-05, -2.213790503446944e-05], [0.0002190356026403606, 0.0062298099510371685, -0.009885146282613277, 0.00994858331978321, -0.008070854470133781, -0.012899687513709068, -0.011947293765842915, -0.012306150048971176, -0.012089748866856098, 0.0025410233065485954, 0.004422391764819622, 0.0133039066568017, -0.011832133866846561, 3.101714901276864e-05, -0.011494625359773636, -0.0022231123875826597, -0.012159585952758789, 0.011432132683694363, -0.012369688600301743, 0.0027244058437645435, -0.00701324874535203, 0.011470316909253597, 0.013334723189473152, -0.007847662083804607, -0.01183059811592102, 0.011664715595543385, -0.013186071999371052, 0.00030956181581132114, -0.015334218740463257, 0.012519155628979206, -0.010335354134440422, 0.00798735860735178, -0.010067733004689217, 0.011675944551825523, -0.012124670669436455, -0.00747136352583766, -0.012317432090640068, -0.011524909175932407, -0.0026595043018460274, 0.01328276377171278, -0.012133480049669743, -0.009538514539599419, 0.013295404613018036, 0.012355388142168522, -0.013811267912387848, 0.0025510494597256184, 0.010311980731785297, 0.013900668360292912, -0.013666946440935135, -3.7290676118573174e-05, 0.00345535553060472, 0.01231223065406084, -3.7340087146731094e-05, 0.012199615128338337, -0.011546085588634014, -0.014132464304566383, -0.002674984512850642, -0.00780563335865736, -0.0024467299226671457, 0.012147387489676476, 0.009038109332323074, 0.004502405412495136, -0.012387231923639774, 0.013332672417163849, -0.002026885049417615, 0.012566028162837029, -0.012640372850000858, 0.014533755369484425, -0.005935105960816145, 0.011398598551750183, -0.012111971154808998, 0.012655872851610184, 0.013401802629232407, 0.0030516746919602156, -0.012621995992958546, 0.012060368433594704, -0.009629390202462673, -0.00971007440239191, 0.009990655817091465, 0.013611405156552792, -0.012243732810020447, 0.012274795211851597, -0.0035425990354269743, -5.140085340826772e-05, -0.00526606198400259, 0.0029368374962359667, -0.013507867231965065, 0.005105299409478903, 0.011687692254781723, 0.013054382987320423, -0.012002505362033844, 0.014666450209915638, 0.012921776622533798, 0.002204428194090724, -0.00976257398724556, 0.00985346082597971, -0.013618560507893562, 0.004027028568089008, -0.013099439442157745, 0.002214425476267934, -0.013098358176648617, 0.01453443057835102, -0.011975934728980064, 0.012277865782380104, -0.011792021803557873, 0.0079053258523345, -0.01244337111711502, 0.0125550152733922, 0.013584194704890251, 0.002252578968182206, 6.782113632652909e-05, 0.012355426326394081, -0.005373224150389433, -4.645491571864113e-05, -0.009861775673925877, 0.012296716682612896, 3.782992280321196e-05, -0.01229684054851532, 0.0025731599889695644, 0.012422389350831509, -0.011421965435147285, 0.01210983656346798, -0.002937419805675745, -0.011560524813830853, 0.014480642974376678, 0.012481999583542347, -0.012047998607158661, 0.013819551095366478], [-8.344921661773697e-05, -0.005644157063215971, 0.009501324966549873, -0.007245661225169897, 0.010706877335906029, 0.013063966296613216, 0.012258391827344894, 0.0019583941902965307, 0.011787223629653454, -0.0119380634278059, -0.012779117561876774, -0.011102570220828056, 0.0028017754666507244, -1.915159373311326e-05, 0.012060482054948807, 0.011344868689775467, 0.01205386221408844, -0.0021119117736816406, 0.012320660054683685, -0.009481467306613922, 0.00955803319811821, -0.011358273215591908, -0.008570446632802486, 0.007266312371939421, 0.0036471381317824125, -0.011372768320143223, 0.013349135406315327, -0.0001135839702328667, 0.012965534813702106, -0.012094083242118359, 0.009048094041645527, -0.010404190979897976, 0.010322351939976215, -0.0047773136757314205, 0.006377267651259899, 0.011732863262295723, 0.011849087662994862, 0.011073981411755085, 0.011882550083100796, -0.011775708757340908, 0.012391726486384869, 0.012542249634861946, -0.012575550004839897, -0.003737796563655138, 0.01380025502294302, -0.0131290964782238, -0.013235156424343586, -0.013689088635146618, 0.01391840260475874, 0.00034185970434919, -0.002847898518666625, -0.011330537497997284, -1.4083419955568388e-05, -0.01170214544981718, 0.0028735643718391657, 0.013486730866134167, 0.013772181235253811, 0.006134206894785166, 0.011981915682554245, -0.011632602661848068, -0.009427881799638271, -0.002284890739247203, 0.00204109912738204, -0.002531107747927308, 0.013281547464430332, -0.013669893145561218, 0.0029924758709967136, -0.00864881556481123, 0.005983229260891676, -0.005779933650046587, 0.004107974935323, -0.004274988081306219, -0.011983102187514305, -0.011815481819212437, 0.0022520378697663546, -0.012104721739888191, 0.0019963697995990515, 0.014037152752280235, -0.010022399947047234, -0.013964731246232986, 0.012631029821932316, -0.01258102897554636, 0.0021094162948429585, -6.603456859011203e-05, 0.0028847798239439726, -0.0019207815639674664, 0.01086146105080843, -0.013005179353058338, -0.0019698147661983967, -0.012297104112803936, 0.0021602727938443422, -0.013992163352668285, -0.009453005157411098, -0.0023120257537811995, 0.009358888491988182, -0.012814835645258427, 0.01296219602227211, -0.0007476161699742079, 0.006830932572484016, -0.012266344390809536, 0.00731092132627964, -0.012971360236406326, 0.012746406719088554, -0.0019895457662642, 0.002282754983752966, -0.010530618019402027, 0.01333160325884819, -0.009677897207438946, -0.007470717187970877, -0.012892941012978554, -4.284008900867775e-05, -0.011834904551506042, 0.010248704813420773, 4.720273136626929e-05, 0.006752827204763889, -0.01230192743241787, -1.8403230569674633e-05, 0.0027951837982982397, -0.01331873144954443, -0.0029050717130303383, 0.01235723402351141, -0.012825909070670605, 0.011552996002137661, 0.006216590758413076, -0.010206788778305054, -0.0020020478405058384, 0.013315667398273945, -0.013691842555999756], [0.00017756526358425617, 0.001835013972595334, -0.008108365349471569, 0.006640935316681862, -0.005979469045996666, -0.007628321181982756, -0.0034671067260205746, -0.002206029836088419, -0.0027303488459438086, 0.0018451923970133066, 0.003700121073052287, 0.002383314073085785, -0.0029984989669173956, 3.448693678365089e-05, -0.013102462515234947, -0.005221307743340731, -0.004606177099049091, 0.009590353816747665, -0.007397844456136227, 0.011623463593423367, -0.005769595969468355, 0.009540769271552563, 0.003615456633269787, -0.00873394962400198, -0.004024240653961897, 0.011671180836856365, -0.003234637901186943, 0.00010223676508758217, -0.006388825364410877, 0.004412169102579355, -0.013905835337936878, 0.012517795898020267, -0.0113359484821558, 0.014517339877784252, -0.006039694882929325, -0.012840641662478447, -0.00573362922295928, -0.012963593937456608, -0.006944985594600439, 0.011214608326554298, -0.005616759415715933, -0.0018497281707823277, 0.001734767109155655, 0.006345205940306187, -0.007595273200422525, 0.011175894178450108, 0.0009721434907987714, 0.0064866263419389725, -0.011150048114359379, -0.0002948289620690048, 0.013427898287773132, 0.005517011974006891, -0.0001231678033946082, 0.0048578348942101, -0.008187598548829556, -0.011101075448095798, -0.011720350943505764, -0.012208693660795689, -0.002654391573742032, 0.0034303320571780205, 0.00903246458619833, 0.0017930434551090002, -0.0051238639280200005, 0.013947853818535805, -0.0035485029220581055, 0.001553094363771379, -0.0062534399330616, 0.0046375771053135395, -0.005878787487745285, 0.0037259552627801895, -0.0030972568783909082, 0.010583867318928242, 0.013552368618547916, 0.009118780493736267, -0.013753368519246578, 0.014826797880232334, -0.0015666019171476364, -0.009979131631553173, 0.005640718154609203, 0.005848593544214964, -0.0035572065971791744, 0.01272880844771862, -0.0018960529705509543, -7.19634335837327e-05, -0.003482499625533819, 0.004957179538905621, -0.0019241252448409796, 0.0042352741584181786, 0.007555690594017506, 0.004801685456186533, -0.00790837500244379, 0.0018189590191468596, 0.005266345571726561, 0.0023914503399282694, -0.009707345627248287, 0.009002480655908585, -0.01740313693881035, 0.0003519253514241427, -0.0025742908474057913, 0.0070082503370940685, -0.010905823670327663, 0.007478276267647743, -0.007460533641278744, 0.00733222858980298, -0.008398420177400112, 0.009942438453435898, -0.012462262064218521, 0.0014489131281152368, 0.01046707108616829, 0.003731715027242899, 2.988002961501479e-05, 0.006124154664576054, -0.00640883669257164, -4.1458712075836957e-05, -0.011898670345544815, 0.011704115197062492, 5.507640162250027e-05, -0.006910083815455437, 0.011970612220466137, 0.009548907168209553, -0.005091953091323376, 0.003005814505741, -0.012745811603963375, -0.002597022568807006, 0.00721530569717288, 0.001806031446903944, -0.010884744115173817, 0.004462854471057653], [9.055883856490254e-05, -0.017417103052139282, 0.009324698708951473, -0.006987950298935175, 0.0026638878043740988, 0.00259992154315114, 0.017257412895560265, 0.002332626609131694, 0.01244805846363306, -0.014530631713569164, -0.013639080338180065, -0.018718810752034187, 0.017561985179781914, 5.173665704205632e-05, 0.0023322582710534334, 0.01819540001451969, 0.01835472136735916, -0.02066025510430336, 0.01978728361427784, -0.01787770725786686, 0.01175575889647007, -0.009772983379662037, -0.028910288587212563, 0.003098638728260994, 0.02425662986934185, -0.009476663544774055, 0.01482213195413351, -7.034958980511874e-05, 0.0020088760647922754, -0.021122852340340614, 0.01941949874162674, -0.005860406439751387, 0.008582033216953278, -0.0017627842025831342, 0.014203246682882309, 0.009768775664269924, 0.025569932535290718, 0.018646370619535446, 0.003046708647161722, -0.01787497103214264, 0.01883833482861519, 0.002149674342945218, -0.02330998331308365, -0.023750009015202522, 0.003350235754624009, -0.002567283809185028, -0.017507920041680336, -0.01584356464445591, 0.0024622681085020304, 5.1831757446052507e-05, -0.0027251041028648615, -0.017320189625024796, -2.7552270694286563e-05, -0.019784577190876007, 0.02003396488726139, 0.01853788085281849, 0.01873711310327053, 0.006374463438987732, 0.015213508158922195, -0.018589496612548828, -0.009953644126653671, -0.01696310006082058, 0.0020335090812295675, -0.0025323450099676847, 0.01792794279754162, -0.016950108110904694, 0.007859844714403152, -0.0022012193221598864, 0.005405005067586899, -0.015398918651044369, 0.013809840194880962, -0.022417787462472916, -0.014175142161548138, -0.001889871433377266, 0.018511928617954254, -0.0037810425274074078, 0.008068571798503399, 0.011268575675785542, -0.007921779528260231, -0.0038025458343327045, 0.015936344861984253, -0.004655254539102316, 0.0056861164048314095, -0.0002124989841831848, 0.01892935298383236, -0.019345825538039207, 0.0020718101877719164, -0.015420671552419662, -0.02178049646317959, -0.0037521461490541697, 0.0025114943273365498, -0.01973353885114193, -0.019423721358180046, -0.0025058940518647432, 0.009843649342656136, -0.014450814574956894, 0.009901505894958973, -0.0006653126329183578, 0.017337623983621597, -0.021804215386509895, 0.005836924072355032, -0.014787119813263416, 0.013939979486167431, -0.020112238824367523, 0.017063867300748825, -0.00897261779755354, 0.0024737624917179346, -0.029541902244091034, -0.015433423221111298, -0.0167364701628685, -2.5720377379911952e-05, -0.010017354041337967, 0.003778735874220729, 4.588085175782908e-06, 0.0062316772527992725, -0.018082059919834137, 0.00013591934111900628, 0.018375402316451073, -0.016530858352780342, -0.021848388016223907, 0.001960373017936945, -0.01908520981669426, 0.007877095602452755, 0.018235424533486366, -0.01752183586359024, -0.0025677955709397793, 0.0062431576661765575, -0.018837569281458855], [0.000235610015806742, -0.004694849718362093, 0.011198827996850014, -0.006849653087556362, 0.012119683437049389, 0.012004571966826916, 0.002369184046983719, 0.01292417012155056, 0.014119572937488556, -0.010995467193424702, -0.003519236808642745, -0.013867844827473164, 0.013902348466217518, -2.475443125149468e-06, 0.01374891772866249, 0.006865380331873894, 0.013351931236684322, -0.012693463824689388, 0.011140516959130764, -0.01209197100251913, 0.011262106709182262, -0.006423243321478367, -0.014708644710481167, 0.006046732887625694, 0.013758118264377117, -0.013014817610383034, 0.014511034823954105, 0.00037775016971863806, 0.015680106356739998, -0.012837550602853298, 0.009329848922789097, -0.012144018895924091, 0.0123399393633008, -0.01214058417826891, 0.0023105856962502003, 0.012143841944634914, 0.012369413860142231, 0.0022179558873176575, 0.011938122101128101, -0.013769873417913914, 0.013251516968011856, 0.006808565929532051, -0.002208257792517543, -0.013927532359957695, 0.013974551111459732, -0.002723159734159708, -0.020356303080916405, -0.0037205915432423353, 0.013191425241529942, 0.0004199558461550623, -0.014172929339110851, -0.012371864169836044, -9.19464000617154e-05, -0.0020548549946397543, 0.01240368653088808, 0.013535615988075733, 0.01449404377490282, 0.011711337603628635, 0.004469921812415123, -0.013549420051276684, -0.009616871364414692, -0.004685292951762676, 0.01277950033545494, -0.002546037780120969, 0.014132254756987095, -0.010377198457717896, 0.013980241492390633, -0.002260716864839196, 0.013219444081187248, -0.013129722326993942, 0.014146481640636921, -0.012309255078434944, -0.013064458034932613, -0.01321342308074236, 0.014010028913617134, -0.012379382736980915, 0.013166340999305248, 0.00736928079277277, -0.011221195571124554, -0.014338460750877857, 0.005076867528259754, -0.012417860329151154, 0.01199472788721323, -0.00021233460574876517, 0.013045764528214931, -0.01425770204514265, 0.014053460210561752, -0.015189110301434994, -0.012905272655189037, -0.013674830086529255, 0.012420793995261192, -0.006220083683729172, -0.006561448331922293, -0.01475520245730877, 0.009529187344014645, -0.013827675953507423, 0.009143966250121593, -0.0020491937175393105, 0.01576785184442997, -0.0033783840481191874, 0.004541756585240364, -0.0038416441529989243, 0.01305628102272749, -0.01224805973470211, 0.008542187511920929, -0.008893784135580063, 0.013214409351348877, -0.009145362302660942, -0.012358691543340683, -0.01206197775900364, -8.617870662419591e-06, -0.010624168440699577, 0.009173744358122349, 0.00010184878919972107, 0.012904522009193897, -0.006714870687574148, 7.194351928774267e-05, 0.015084621496498585, -0.013365164399147034, -0.007696791552007198, 0.012483048252761364, -0.003443674184381962, 0.011525970883667469, 0.013775687664747238, -0.013984868302941322, -0.011414461769163609, 0.012949836440384388, -0.00484093651175499], [0.00011244808410992846, -0.005865303333848715, 0.008810008876025677, -0.00544007308781147, 0.018361978232860565, 0.003440438536927104, 0.002168955048546195, 0.003829365596175194, 0.012549301609396935, -0.014072357676923275, -0.014150136150419712, -0.01772211119532585, 0.0010096796322613955, -6.673375173704699e-05, 0.0022626856807619333, 0.0068809096701443195, 0.0014110775664448738, -0.006871906574815512, 0.007545121014118195, -0.0030690431594848633, 0.011100470088422298, -0.007612061221152544, -0.005855239927768707, 0.006671606563031673, 0.002711612731218338, -0.017473993822932243, 0.0029608842451125383, 7.267955515999347e-05, 0.0033653434365987778, -0.0017096977680921555, 0.015940573066473007, -0.011370722204446793, 0.014151456765830517, -0.0007830696413293481, 0.00575030455365777, 0.001148159266449511, 0.0008407070999965072, 0.019648058339953423, 0.002413058653473854, -0.019416309893131256, 0.013667688705027103, 0.015612626448273659, -0.0007398049347102642, -0.0017990038031712174, 0.0032559384126216173, -0.01846615970134735, -0.0009272435563616455, -0.0043039568699896336, 0.005119217559695244, 0.00034343154402449727, -0.016895899549126625, -0.004210703074932098, 0.00014423721586354077, -0.0018812983762472868, 0.014639630913734436, 0.0026251403614878654, 0.0021624057553708553, 0.010554696433246136, 0.014200464822351933, -0.004295805003494024, -0.00959010235965252, -0.006462172605097294, 0.001923469128087163, -0.008739284239709377, 0.005322652868926525, -0.014008316211402416, 0.0026585590094327927, -0.005620987620204687, 0.0060507734306156635, -0.004150495398789644, 0.013632320798933506, -0.005637858994305134, -0.014272743836045265, -0.01519528217613697, 0.020834937691688538, -0.017324553802609444, 0.0019464850192889571, 0.007290744222700596, -0.009693660773336887, -0.0037275718059390783, 0.0063072796911001205, -0.0033916831016540527, 0.018839174881577492, -6.818465772084892e-05, 0.0021339096128940582, -0.01639881730079651, 0.0019068215042352676, -0.002718064235523343, -0.0048624747432768345, -0.0009995382279157639, 0.002333429642021656, -0.005677788984030485, -0.004789596889168024, -0.015660220757126808, 0.006736080627888441, -0.005964427720755339, 0.003477611346170306, -0.0004392458940856159, 0.002124250400811434, -0.002390950918197632, 0.012597966939210892, -0.006589799653738737, 0.010474503971636295, -0.01872740127146244, 0.0023269045632332563, -0.007148283068090677, 0.0014961427077651024, -0.008672120980918407, -0.014991623349487782, -0.021351471543312073, -2.9866328986827284e-05, -0.0101539995521307, 0.008515800349414349, -2.3709992092335597e-05, 0.003590571228414774, -0.0008735209703445435, 2.972432048409246e-05, 0.0029552909545600414, -0.0023254493717104197, -0.003491814713925123, 0.0019270613556727767, -0.005525525659322739, 0.0018542486941441894, 0.017398035153746605, -0.00831907894462347, -0.01843084767460823, 0.013377750292420387, -0.0067768823355436325], [6.548810051754117e-05, -0.0071190884336829185, 9.471957127971109e-06, -0.0006868498749099672, 0.0026927900034934282, 0.00992629211395979, 0.015404608100652695, 0.001999979605898261, 0.002349960384890437, -0.012356048449873924, -0.014029035344719887, -0.0021462261211127043, 0.0039448910392820835, -2.6751667974167503e-05, 0.0028859092853963375, 0.02050362154841423, 0.00438397191464901, -0.018578339368104935, 0.006443107035011053, -0.004348793998360634, 0.006426454521715641, -0.008068916387856007, -0.010577602311968803, 0.012722406536340714, 0.0015754024498164654, -0.01656455174088478, 0.011378325521945953, 0.0006832130020484328, 0.0031949866097420454, -0.00473775202408433, 0.004413089249283075, -0.011363795027136803, 0.009056484326720238, -0.003853960894048214, 0.006197789218276739, 0.006688341032713652, 0.0037343325093388557, 0.0021051911171525717, 0.0053426711820065975, -0.0021684446837753057, 0.002081453800201416, 0.008840766735374928, -0.005106443539261818, -0.002597217448055744, 0.007414329331368208, -0.011841823346912861, -0.0004466984828468412, -0.0027588424272835255, 0.008872480131685734, 0.00042399374069646, -0.02262548916041851, -0.015517950057983398, 3.2288658985635266e-05, -0.01075848750770092, 0.01504541840404272, 0.002879723208025098, 0.0012172134593129158, 0.006474955007433891, 0.0041792807169258595, -0.006929948925971985, -0.008297134190797806, -0.011734402738511562, 0.012123416177928448, -0.013849060982465744, 0.001040009781718254, -0.011181212030351162, 0.004021154250949621, -0.004809049889445305, 0.006418194621801376, -0.003709113923832774, 0.0020092015620321035, -0.0061179520562291145, -0.012918717227876186, -0.0026955078355968, 0.01820579543709755, -0.004865261260420084, 0.0021687443368136883, 0.0014294334687292576, -0.005918879993259907, -0.009703240357339382, 0.012419036589562893, -0.016975466161966324, 0.0220479816198349, -0.00011664648627629504, 0.0023168702609837055, -0.0018808564636856318, 0.001237564138136804, -0.003145650029182434, -0.003782510058954358, -0.001098479493521154, 0.014661348424851894, -0.009369831532239914, -0.010719784535467625, -0.006692744791507721, 0.006673467345535755, -0.005045161582529545, 0.00567486509680748, -0.00040218629874289036, 0.001835073926486075, -0.005204597022384405, 0.011134907603263855, -0.006421950645744801, 0.007267943117767572, -0.0020555455703288317, 0.016907628625631332, -0.00892149843275547, 0.007148180156946182, -8.505451114615425e-05, -0.014525067992508411, -0.005909257102757692, -8.6762538558105e-06, -0.004193805158138275, 0.0035711093805730343, -2.5568631826899946e-05, 0.009331749752163887, -0.0019336341647431254, 0.00041687622433528304, 0.0013626875588670373, -0.003962164279073477, -0.0024179036263376474, 0.0019900056067854166, -0.008013068698346615, 0.0019623616244643927, 0.018551161512732506, -0.007449520751833916, -0.0024596843868494034, 0.001915734843350947, -0.0016749623464420438], [7.399609603453428e-05, -0.007005377672612667, 0.008114968426525593, -0.0037260670214891434, 0.010568504221737385, 0.012598464265465736, 0.011625608429312706, 0.01259236317127943, 0.01325201615691185, -0.01259837206453085, -0.012373451143503189, -0.012365049682557583, 0.00958847813308239, -2.156519258278422e-06, 0.01007070578634739, 0.012454109266400337, 0.011626715771853924, -0.012133772484958172, 0.012567157857120037, -0.012049177661538124, 0.011922472156584263, -0.005971269216388464, -0.012854821979999542, 0.007758490741252899, 0.012000786140561104, -0.012353388592600822, 0.01290052104741335, 0.00029785060905851424, 0.015730325132608414, -0.012304975651204586, 0.0014847470447421074, -0.008077908307313919, 0.013109630905091763, -0.0021753343753516674, 0.0021900180727243423, 0.005143004935234785, 0.011895439587533474, 0.012504171580076218, 0.013008540496230125, -0.013197758235037327, 0.011761417612433434, 0.0125729376450181, -0.0059412093833088875, -0.01296631433069706, 0.01391280721873045, -0.013359113596379757, -0.014927082695066929, -0.01388285867869854, 0.014589210972189903, 0.0001068796991603449, -0.012821785174310207, -0.011337701231241226, -1.8929455109173432e-05, -0.012652282603085041, 0.01215269323438406, 0.006227539852261543, 0.011328794993460178, 0.010224727913737297, 0.012418923899531364, -0.003340889932587743, -0.00996493548154831, -0.012788967229425907, 0.011191684752702713, -0.0029652356170117855, 0.01315078791230917, -0.0037253987975418568, 0.012341764755547047, -0.013752463273704052, 0.006318372208625078, -0.012320865876972675, 0.013192686252295971, -0.012324000708758831, -0.011065271683037281, -0.002141398610547185, 0.003886647755280137, -0.011323854327201843, 0.011957730166614056, 0.011010446585714817, -0.006246120668947697, -0.014621651731431484, 0.013060499913990498, -0.012344779446721077, 0.012231879867613316, -0.0001928528508869931, 0.01183810643851757, -0.01323858555406332, 0.01268760859966278, -0.014247829094529152, -0.012821289710700512, -0.005911553744226694, 0.011934395879507065, -0.01303635910153389, -0.012270431034266949, -0.002868861425668001, 0.006020832806825638, -0.013684567995369434, 0.009782465174794197, -0.00020408981072250754, 0.013768562115728855, -0.002549211960285902, 0.012808377854526043, -0.014395084232091904, 0.011164849624037743, -0.01249624788761139, 0.002350099617615342, -0.009726237505674362, 0.006720013916492462, -0.01124516036361456, -0.013708451762795448, -0.012534728273749352, -9.048929496202618e-05, -0.012960103340446949, 0.006877081468701363, 5.022294135414995e-05, 0.012192382477223873, -0.012228420935571194, 0.00017688717343844473, 0.013080958276987076, -0.0031295677181333303, -0.007160601206123829, 0.006955760531127453, -0.01197698712348938, 0.011475536040961742, 0.002940593520179391, -0.0030397826340049505, -0.01219955924898386, 0.012763089500367641, -0.013588561676442623], [-8.325990347657353e-05, -0.003585969330742955, 0.009138023480772972, -0.005410023964941502, 0.013183706440031528, 0.012715410441160202, 0.007749222684651613, 0.002019267063587904, 0.01521857175976038, -0.01484600454568863, -0.012684899382293224, -0.0021314111072570086, 0.006375549826771021, -3.51745547959581e-05, 0.014794721268117428, 0.014150993898510933, 0.015048094093799591, -0.01302056573331356, 0.0145951546728611, -0.014801999554038048, 0.01189639512449503, -0.006491436623036861, -0.01133959274739027, 0.0046434346586465836, 0.015993032604455948, -0.013966213911771774, 0.009983216412365437, 0.0003743336128536612, 0.013586877845227718, -0.015312339179217815, 0.012113998644053936, -0.00914258137345314, 0.01353179570287466, -0.016095872968435287, 0.003611269872635603, 0.00438913656398654, 0.013697355054318905, 0.013720222748816013, 0.0026587725151330233, -0.01305298414081335, 0.015314195305109024, 0.014636080712080002, -0.016047202050685883, -0.014457771554589272, 0.012098805047571659, -0.00941037479788065, -0.0015864201122894883, -0.014509845525026321, 0.014608252793550491, 0.0005703440401703119, -0.0066593545489013195, -0.002140579279512167, 5.472310022014426e-06, -0.014288301579654217, 0.0147461649030447, 0.011519845575094223, 0.014986783266067505, 0.012944289483129978, 0.01383352279663086, -0.013450742699205875, -0.009676587767899036, -0.014912749640643597, 0.014327834360301495, -0.013259932398796082, 0.014919663779437542, -0.0034787883050739765, 0.015668073669075966, -0.002066374523565173, 0.012836006470024586, -0.013692612759768963, 0.016109295189380646, -0.014033914543688297, -0.005887720733880997, -0.013344749808311462, 0.002329692244529724, -0.013462328352034092, 0.015252700075507164, 0.01137723308056593, -0.011534634046256542, -0.008357331156730652, 0.012830739840865135, -0.011920192278921604, 0.00334732118062675, 6.093578122090548e-05, 0.0037496311124414206, -0.01301412470638752, 0.01546434685587883, -0.014358950778841972, -0.014284341596066952, -0.006051387172192335, 0.013678206130862236, -0.005738251376897097, -0.013723847456276417, -0.01616097427904606, 0.01082956325262785, -0.0034079626202583313, 0.012127303518354893, -0.0006964441272430122, 0.009050869382917881, -0.015949230641126633, 0.013677247799932957, -0.0029501833487302065, 0.009465731680393219, -0.013305582106113434, 0.013804792426526546, -0.00968543253839016, 0.006978037767112255, -0.01135274488478899, -0.014195160940289497, -0.01380254328250885, 8.040749526116997e-05, -0.012681315653026104, 0.0076761445961892605, 1.5073280337674078e-05, 0.009687342680990696, -0.006619476247578859, 8.147850894602016e-05, 0.014150010421872139, -0.013622495345771313, -0.015242219902575016, 0.013665386475622654, -0.002083816099911928, 0.01403689756989479, 0.014497005380690098, -0.006688229274004698, -0.014060359448194504, 0.0021428281906992197, -0.013529644347727299], [0.0003244617546442896, -0.006320268847048283, 0.009461778216063976, -0.005465887486934662, 0.015799807384610176, 0.014446010813117027, 0.016562672331929207, 0.017437096685171127, 0.0035798384342342615, -0.014344385825097561, -0.005475273821502924, -0.01618381217122078, 0.017021145671606064, -3.422136069275439e-05, 0.002311363350600004, 0.014150956645607948, 0.01733904890716076, -0.0019985323306173086, 0.017380069941282272, -0.0026420571375638247, 0.010866536758840084, -0.006033747456967831, -0.014497349038720131, 0.007247861474752426, 0.019063113257288933, -0.013669107109308243, 0.00546607468277216, -0.00014031524187885225, 0.0033567373175174, -0.0038308778312057257, 0.0010527046397328377, -0.0073051536455750465, 0.015578510239720345, -0.008926994167268276, 0.003447601106017828, 0.004561650566756725, 0.0022699732799082994, 0.016228865832090378, 0.014617751352488995, -0.016744785010814667, 0.008410893380641937, 0.017128868028521538, -0.018868107348680496, -0.017230793833732605, 0.006476310547441244, -0.016173509880900383, -0.0011588828638195992, -0.014820060692727566, 0.016599556431174278, 0.0002852100587915629, -0.0026427889242768288, -0.016819827258586884, 0.00013213233614806086, -0.018932104110717773, 0.001972624333575368, 0.0121300695464015, 0.0020340420305728912, 0.013079715892672539, 0.004191521089524031, -0.0162306260317564, -0.010071175172924995, -0.010077639482915401, 0.01650478132069111, -0.015182316303253174, 0.016432873904705048, -0.015250240452587605, 0.01913120038807392, -0.015726154670119286, 0.01054209191352129, -0.014036609791219234, 0.018804972991347313, -0.016576111316680908, -0.004814964719116688, -0.017537614330649376, 0.01728319562971592, -0.015878260135650635, 0.01912965439260006, 0.0008338748593814671, -0.0044314186088740826, -0.014772258698940277, 0.015765022486448288, -0.016082577407360077, 0.013783995062112808, -0.00020912379841320217, 0.015022482722997665, -0.015586483292281628, 0.005345859564840794, -0.002797428285703063, -0.016562193632125854, -0.021260617300868034, 0.0021548594813793898, -0.003259823424741626, -0.01674037054181099, -0.017583629116415977, 0.010633598081767559, -0.014271488413214684, 0.01304676104336977, -0.0013564847176894546, 0.015053907409310341, -0.014029846526682377, 0.013603019528090954, -0.01066127885133028, 0.01097208634018898, -0.002121016150340438, 0.0021477609407156706, -0.010395972989499569, 0.01788899302482605, -0.01516297273337841, -0.014398057013750076, -0.001918767229653895, -6.28656052867882e-05, -0.014588803984224796, 0.0010884117800742388, 0.00015741799143142998, 0.009143754839897156, -0.016638586297631264, 0.00039665939402766526, 0.0026405586395412683, -0.008562241680920124, -0.01863160729408264, 0.01684447191655636, -0.016342157498002052, 0.0022643401753157377, 0.017044110223650932, -0.01338406652212143, -0.015539511106908321, 0.017578743398189545, -0.014635254628956318], [-0.0002279107429785654, 0.004491165746003389, -0.008245485834777355, 0.003863264573737979, -0.013515645638108253, -0.013492468744516373, -0.014412176795303822, -0.0019078445620834827, -0.012483431957662106, 0.01285010576248169, 0.0036451341584324837, 0.014482740312814713, -0.014897972345352173, -3.882993041770533e-05, -0.013733220286667347, -0.013723567128181458, -0.015814505517482758, 0.006833379156887531, -0.0021742344833910465, 0.014812654815614223, -0.01239916030317545, 0.01043851487338543, 0.01086602732539177, -0.00835514534264803, -0.01751990057528019, 0.013926245272159576, -0.0035291044041514397, -0.00019347897614352405, -0.00649136072024703, 0.001723511260934174, -0.015012177638709545, 0.01365568395704031, -0.014395887963473797, 0.017844755202531815, -0.01595471240580082, -0.0085060466080904, -0.0017356631578877568, -0.014707840979099274, -0.0036587791983038187, 0.012992077507078648, -0.0019684291910380125, -0.0020445322152227163, 0.0017432839376851916, 0.005902398843318224, -0.014995444566011429, 0.012918712571263313, 0.0001577641669427976, 0.010317862033843994, -0.011970935389399529, -0.0005716224550269544, 0.014598684385418892, 0.014991152100265026, -0.00014652097888756543, 0.014661633409559727, -0.014040271751582623, -0.0026261783204972744, -0.0021225737873464823, -0.013563545420765877, -0.002380987163633108, 0.012357602827250957, 0.009906684048473835, 0.002368341898545623, -0.004532313905656338, 0.01577487401664257, -0.0022807943169027567, 0.00968104973435402, -0.0022363890893757343, 0.0020865804981440306, -0.005540014244616032, 0.014450247399508953, -0.01696508191525936, 0.0020072879269719124, 0.013020331040024757, 0.015059840865433216, -0.002239552326500416, 0.01649039052426815, -0.014991802163422108, -0.010286374017596245, 0.0060073742642998695, 0.00825897604227066, -0.010697884485125542, 0.012271881103515625, -0.015332043170928955, 0.00014666908828075975, -0.01451893150806427, 0.0017451305175200105, -0.015999512746930122, 0.012785902246832848, 0.01604088954627514, 0.01899661123752594, -0.014507515355944633, 0.0026666296180337667, 0.009452317841351032, 0.0023532670456916094, -0.008534588851034641, 0.014189009554684162, -0.005207778885960579, 0.00045053730718791485, -0.01268474105745554, 0.015546238049864769, -0.012309781275689602, 0.002860932145267725, -0.010116484947502613, 0.002036184072494507, -0.0020407934207469225, 0.00875929743051529, -0.014933636412024498, 0.024234285578131676, 0.0029365255031734705, 0.016682550311088562, 8.720739060663618e-06, 0.010640616528689861, -0.00544156925752759, -6.661640838956373e-08, -0.01237134076654911, 0.0036149879451841116, -0.0004424087528605014, -0.004755027592182159, 0.01424681767821312, 0.015016326680779457, -0.0019667542073875666, 0.0023908200673758984, -0.011126650497317314, -0.01463550329208374, 0.01375554408878088, 0.0019451567204669118, -0.0032794116996228695, 0.015535143204033375], [-8.581574365962297e-05, 0.014720698818564415, -0.008988253772258759, 0.005277105141431093, -0.013023694045841694, -0.013615669682621956, -0.016231225803494453, -0.015272107906639576, -0.01690036989748478, 0.003593412460759282, 0.013509063050150871, 0.01574374921619892, -0.017761891707777977, 2.3893308025435545e-06, -0.0051932428032159805, -0.0023213245440274477, -0.01636144146323204, 0.01300045009702444, -0.015539752319455147, 0.015056312084197998, -0.008354327641427517, 0.010684420354664326, 0.021747015416622162, -0.005424527917057276, -0.0069767190143466, 0.015861112624406815, -0.015624847263097763, -8.336103201145306e-05, -0.016863062977790833, 0.01627618446946144, -0.011863574385643005, 0.013679569587111473, -0.014995886944234371, 0.017289094626903534, -0.0028078120667487383, -0.009154821746051311, -0.002131309360265732, -0.002105384599417448, -0.01497502252459526, 0.0023574845399707556, -0.01596198044717312, -0.00451715337112546, 0.01612100936472416, 0.01780804991722107, -0.014550480991601944, 0.017367562279105186, 0.0008774315938353539, 0.01619293913245201, -0.016742534935474396, -0.0003669210127554834, 0.0036495241802185774, 0.014995669946074486, 1.943450297403615e-05, 0.0020226137712597847, -0.01533230859786272, -0.014805310405790806, -0.017406901344656944, -0.006360508501529694, -0.015710391104221344, 0.01591474749147892, 0.009884541854262352, 0.015796514227986336, -0.016375789418816566, 0.014112957753241062, -0.0030215568840503693, 0.015263850800693035, -0.016799239441752434, 0.015450707636773586, -0.01386635284870863, 0.0030911145731806755, -0.007715749088674784, 0.014560123905539513, 0.012818820774555206, 0.015036472119390965, -0.002482058247551322, 0.01449606567621231, -0.015672804787755013, -0.0017880485393106937, 0.010225392878055573, 0.016036808490753174, -0.016355760395526886, 0.004819200374186039, -0.014088931493461132, 0.00013903384387958795, -0.015274451114237309, 0.001923811505548656, -0.016877157613635063, 0.01667911745607853, 0.015967227518558502, 0.018033212050795555, -0.01612655259668827, 0.015289966017007828, 0.0022299974225461483, 0.016569018363952637, -0.009985661134123802, 0.0035534303169697523, -0.01014484092593193, 0.00010775053669931367, -0.01837206818163395, 0.002223424846306443, -0.014783274382352829, 0.015262515284121037, -0.014632927253842354, 0.015823982656002045, -0.0021810815669596195, 0.0090583311393857, -0.01473601721227169, 0.010784509591758251, 0.0028794477693736553, 0.013406820595264435, 6.69677319820039e-05, 0.01718815602362156, -0.006001640576869249, 2.6771800776259624e-07, -0.013253437355160713, 0.015938064083456993, -0.00028244993882253766, -0.017864808440208435, 0.01416977308690548, 0.0031616301275789738, -0.0031671172473579645, 0.01669466681778431, -0.0019497567554935813, -0.014982118271291256, 0.015042033046483994, 0.012113966047763824, -0.015844229608774185, 0.015173451043665409], [0.00011379530769772828, -0.006231973413378, 0.008344350382685661, -0.005477746017277241, 0.009368381462991238, 0.0041313786059618, 0.010693755000829697, 0.009668927639722824, 0.01389329507946968, -0.006872964091598988, -0.010937459766864777, -0.010548127815127373, 0.01050390675663948, -6.603961810469627e-05, 0.011886999942362309, 0.011436539702117443, 0.010084900073707104, -0.010598525404930115, 0.011237334460020065, -0.00862414762377739, 0.012398253194987774, -0.01289692334830761, -0.003677967470139265, 0.007057276088744402, 0.010520484298467636, -0.0024587211664766073, 0.013081836514174938, -4.152142719249241e-05, 0.013984664343297482, -0.010428467765450478, 0.007507399655878544, -0.011589234694838524, 0.002722144592553377, -0.01022461149841547, 0.009912045672535896, 0.011308731511235237, 0.0018481520237401128, 0.010568199679255486, 0.01227563712745905, -0.012082807719707489, 0.003281219396740198, 0.012028996832668781, -0.01075395755469799, -0.010177898220717907, 0.0032820533961057663, -0.013287907466292381, -0.0009436930995434523, -0.004803662188351154, 0.012804284691810608, 0.0004232024366501719, -0.002816677326336503, -0.011082461103796959, 3.950815516873263e-05, -0.010177649557590485, 0.002311986405402422, 0.012233071029186249, 0.012461001053452492, 0.005700784735381603, 0.01091619860380888, -0.010047247633337975, -0.009285494685173035, -0.011731735430657864, 0.01163311954587698, -0.0028233681805431843, 0.012789790518581867, -0.011858724988996983, 0.011244318448007107, -0.0021452235523611307, 0.010575946420431137, -0.011885846965014935, 0.009172848425805569, -0.01062832586467266, -0.012264009565114975, -0.0019803515169769526, 0.0037839622236788273, -0.010778622701764107, 0.0021173127461224794, 0.010648212395608425, -0.010219489224255085, -0.003330768086016178, 0.013014608062803745, -0.011512250639498234, 0.009237661957740784, -0.00013911689165979624, 0.010437052696943283, -0.01167922094464302, 0.010711675509810448, -0.0139062674716115, -0.010977308265864849, -0.010058725252747536, 0.011675710789859295, -0.011616784147918224, -0.010449203662574291, -0.0028226347640156746, 0.010416409932076931, -0.013944967649877071, 0.004182733129709959, -0.00046535537694580853, 0.01295268815010786, -0.011326461099088192, 0.0037316337693482637, -0.00277515547350049, 0.00538094574585557, -0.009940261952579021, 0.007670274004340172, -0.008915568701922894, 0.010836014524102211, -0.004152137320488691, -0.012187736108899117, -0.0023569560144096613, -9.235752804670483e-05, -0.012802466750144958, 0.00941748358309269, 3.4578697523102164e-05, 0.01169564574956894, -0.011695528402924538, 9.441535803489387e-05, 0.011010087095201015, -0.01159446220844984, -0.01011146791279316, 0.010483816266059875, -0.01066514104604721, 0.011250189505517483, 0.0038510889280587435, -0.01169973611831665, -0.010569614358246326, 0.0025882350746542215, -0.01068863458931446], [0.0003191964060533792, -0.005399832036346197, 0.00434980820864439, -0.005423139780759811, 0.016482854261994362, 0.014395497739315033, 0.01727311871945858, 0.019632650539278984, 0.014727248810231686, -0.0025829696096479893, -0.013297840021550655, -0.00240628095343709, 0.018824411556124687, -3.352130443090573e-05, 0.004815520718693733, 0.016220327466726303, 0.019444188103079796, -0.01688334532082081, 0.01783515140414238, -0.0026250099763274193, 0.012196972034871578, -0.009156281128525734, -0.02377735823392868, 0.0075788251124322414, 0.001761983847245574, -0.01782286912202835, 0.01413956843316555, -0.00012155209697084501, 0.00599685637280345, -0.019644463434815407, 0.011183870024979115, -0.0009088146616704762, 0.0034483978524804115, -0.019257837906479836, 0.020598143339157104, 0.007082278374582529, 0.006077240686863661, 0.0161791630089283, 0.015454203821718693, -0.0030369681771844625, 0.017199836671352386, 0.016271550208330154, -0.0019131487933918834, -0.022401364520192146, 0.012651571072638035, -0.010084114968776703, -0.0008992468938231468, -0.01564210280776024, 0.015869418159127235, 6.96214847266674e-05, -0.01700650341808796, -0.013158705085515976, -0.00029455311596393585, -0.018348343670368195, 0.017268335446715355, 0.015784524381160736, 0.01766509935259819, 0.011775453574955463, 0.0026773749850690365, -0.016629064455628395, -0.009680498391389847, -0.004643031861633062, 0.01696472056210041, -0.0029985052533447742, 0.015240213833749294, -0.01595247909426689, 0.02025585062801838, -0.002233792096376419, 0.01376296952366829, -0.005613213870674372, 0.0198134183883667, -0.0074259815737605095, -0.010139851830899715, -0.002365297405049205, 0.017465941607952118, -0.0037846039049327374, 0.002373051131144166, 0.01106941420584917, -0.010884079150855541, -0.014677111990749836, 0.014600497670471668, -0.015972351655364037, 0.005653786938637495, 3.187943002558313e-05, 0.016306981444358826, -0.01728808507323265, 0.020237043499946594, -0.01572089083492756, -0.019512003287672997, -0.006531975697726011, 0.01656164973974228, -0.017311085015535355, -0.01631859503686428, -0.016812916845083237, 0.006677024997770786, -0.015011532232165337, 0.004627976566553116, -0.0015877782134339213, 0.016482777893543243, -0.019780250266194344, 0.005764972418546677, -0.015275358222424984, 0.00656080199405551, -0.01684783771634102, 0.016251349821686745, -0.009430589154362679, 0.0023497252259403467, -0.01822124421596527, -0.0053694723173975945, -0.009185019880533218, 6.712190224789083e-05, -0.004405183717608452, 0.010323750786483288, 3.3768938010325655e-05, 0.008641114458441734, -0.01782686822116375, -1.992097168113105e-05, 0.016922177746891975, -0.009602008387446404, -0.019986117258667946, 0.018404504284262657, -0.01734720729291439, 0.016801618039608, 0.016563434153795242, -0.015398278832435608, -0.017377812415361404, 0.018869437277317047, -0.013825305737555027], [0.0003337965172249824, -0.001786834211088717, 0.0071745626628398895, -0.006013513542711735, 0.0023203257005661726, 0.008842174895107746, 0.010666577145457268, 0.011250529438257217, 0.010104457847774029, -0.011144819669425488, -0.01290172804147005, -0.011054457165300846, 0.012267057783901691, 5.13042468810454e-05, 0.002549945842474699, 0.0029146773740649223, 0.011955315247178078, -0.0028405897319316864, 0.01228372473269701, -0.012895219027996063, 0.011239112354815006, -0.011386667378246784, -0.010251489467918873, 0.00917496345937252, 0.011633845046162605, -0.011959482915699482, 0.011721240356564522, 0.00010928775009233505, 0.013128855265676975, -0.011782598681747913, 0.0035657109692692757, -0.009107786230742931, 0.011303011327981949, -0.002843217458575964, 0.010519001632928848, 0.013787790201604366, 0.011342550627887249, 0.0035225539468228817, 0.0025629994925111532, -0.0038739375304430723, 0.01108297985047102, 0.011142398230731487, -0.011831436306238174, -0.008862722665071487, 0.011993126943707466, -0.012372713536024094, -0.00044008041732013226, -0.01370568759739399, 0.013170317746698856, 0.00036856188671663404, -0.011993031948804855, -0.011323241516947746, 3.008836392837111e-05, -0.010932272300124168, 0.011187097057700157, 0.003352843690663576, 0.0022200769744813442, 0.012004636228084564, 0.0030738336499780416, -0.009834222495555878, -0.009881259873509407, -0.011722036637365818, 0.010395536199212074, -0.013686208054423332, 0.01200811006128788, -0.011623573489487171, 0.01166689582169056, -0.0025695012882351875, 0.005440922919660807, -0.007319577503949404, 0.012753411196172237, -0.011679932475090027, -0.013531322591006756, -0.010309307835996151, 0.010819938033819199, -0.01260616909712553, 0.002007022500038147, 0.008460923098027706, -0.01046278141438961, -0.012852302752435207, 0.010523702949285507, -0.010389715433120728, 0.01095516700297594, 3.5374570870772004e-05, 0.011594230309128761, -0.011831488460302353, 0.01256142184138298, -0.013323844410479069, -0.011595789343118668, -0.01238506380468607, 0.011648443527519703, -0.013387814164161682, -0.0021337466314435005, -0.011547625064849854, 0.008616899140179157, -0.012392094358801842, 0.005163172259926796, -0.003112907987087965, 0.006461261305958033, -0.012258058413863182, 0.012404806911945343, -0.006962079554796219, 0.010500512085855007, -0.004238289315253496, 0.0036359254736453295, -0.010772070847451687, 0.012034282088279724, -0.004990044515579939, -0.013565830886363983, -0.012375970371067524, -3.543890125001781e-05, -0.0038288026116788387, 0.00956249050796032, -3.6895613447995856e-05, 0.008313140831887722, -0.0026010023429989815, 0.00019060392514802516, 0.0028587558772414923, -0.011447113938629627, -0.012643136084079742, 0.01134288776665926, -0.012065368704497814, 0.0028151092119514942, 0.011286123655736446, -0.004776403773576021, -0.00704490952193737, 0.003374107414856553, -0.0028993533924221992], [0.00012583746865857393, -0.007109158672392368, 0.009213418699800968, -0.005453502293676138, 0.0020848065614700317, 0.0024895763490349054, 0.0021258422639220953, 0.010436225682497025, 0.010149992071092129, -0.011277547106146812, -0.01296111848205328, -0.010614821687340736, 0.010899702087044716, -4.2593383113853633e-05, 0.010124379768967628, 0.010150710120797157, 0.010343363508582115, -0.009972229599952698, 0.0021105024497956038, -0.012327130883932114, 0.012080998159945011, -0.010831688530743122, -0.005515642464160919, 0.008882880210876465, 0.009919323027133942, -0.009764349088072777, 0.011628490872681141, -6.467812636401504e-05, 0.013716094195842743, -0.010043368674814701, 0.009631265886127949, -0.00597511138767004, 0.0022112650331109762, -0.009393874555826187, 0.008799329400062561, 0.0004154000198468566, 0.008972134441137314, 0.007275293581187725, 0.011888653039932251, -0.0103714969009161, 0.002460404299199581, 0.0038094958290457726, -0.010580810718238354, -0.010337146930396557, 0.011040190234780312, -0.011056821793317795, -0.004570091143250465, -0.012558379210531712, 0.01220674067735672, 0.0002862252586055547, -0.010527708567678928, -0.010291253216564655, -2.524846604501363e-05, -0.010091549716889858, 0.009617223404347897, 0.010340462438762188, 0.011767309159040451, 0.00594362523406744, 0.011506560258567333, -0.010319437831640244, -0.008684467524290085, -0.011801597662270069, 0.010161143727600574, -0.010939333587884903, 0.005457195919007063, -0.010965868830680847, 0.0114017054438591, -0.011543498374521732, 0.008897478692233562, -0.0007673048530705273, 0.010936914943158627, -0.007881888188421726, -0.012865033932030201, -0.009544406086206436, 0.002211875980719924, -0.010642916895449162, 0.00942774023860693, 0.007083162199705839, -0.009986675344407558, -0.012660420499742031, 0.011414224281907082, -0.008215419948101044, 0.009693523868918419, 0.00010514803580008447, 0.010537487454712391, -0.0018311815802007914, 0.01088825985789299, -0.0030800390522927046, -0.009955199435353279, -0.009998125024139881, 0.0021377094089984894, -0.011375284753739834, -0.011090806685388088, -0.003545759478583932, 0.009701915085315704, -0.0095717404037714, 0.015832895413041115, -0.0024029721971601248, 0.006215885281562805, -0.0022360989823937416, 0.011711543425917625, -0.010346125811338425, 0.009969070553779602, -0.00202921312302351, 0.010626445524394512, -0.010264847427606583, 0.010946383699774742, -0.004642884247004986, -0.011962844990193844, -0.010167662985622883, -3.5588309401646256e-05, -0.0038490775041282177, 0.00996085349470377, -5.558610428124666e-05, 0.008285734802484512, -0.010537899099290371, 0.0001611924235476181, 0.009790197014808655, -0.002453658962622285, -0.001991050783544779, 0.010453362949192524, -0.010791214182972908, 0.00413171760737896, 0.010821914300322533, -0.011568286456167698, -0.00204834365285933, 0.002135226735845208, -0.001731376745738089], [8.369050920009613e-05, 0.007573386188596487, -0.009186246432363987, 0.007208429742604494, -0.0021431592758744955, -0.012761852703988552, -0.004478126298636198, -0.01504119485616684, -0.012123748660087585, 0.002859154250472784, 0.0037459093146026134, 0.013976898044347763, -0.002602414460852742, -8.915839134715497e-05, -0.0021261447109282017, -0.013883835636079311, -0.008786900900304317, 0.01344546489417553, -0.014247704297304153, 0.0025152608286589384, -0.004874151200056076, 0.010510630905628204, 0.009994612075388432, -0.014509154483675957, -0.014763706363737583, 0.01379439141601324, -0.011831369251012802, 0.00015715612971689552, -0.01328116562217474, 0.014112167991697788, -0.012536456808447838, 0.007967456243932247, -0.012521736323833466, 0.015150829218327999, -0.010389112867414951, -0.0011157627450302243, -0.001929695950821042, -0.01289634220302105, -0.012135698460042477, 0.014253987930715084, -0.012829117476940155, -0.013055216521024704, 0.01660136692225933, 0.015380211174488068, -0.013186287134885788, 0.012194499373435974, 0.013502407819032669, 0.0057863700203597546, -0.002278657164424658, -0.0002872116456273943, 0.01302945613861084, 0.013558829203248024, -1.3574380318459589e-05, 0.006565973628312349, -0.0019467573147267103, -0.0028149683494120836, -0.01459900289773941, -0.0067664990201592445, -0.00231149117462337, 0.01344947051256895, 0.009626882150769234, 0.0032875731121748686, -0.012349269352853298, 0.014675557613372803, -0.012725740671157837, 0.013084531761705875, -0.01536191999912262, 0.01590554229915142, -0.008411644957959652, 0.010776233859360218, -0.015377386473119259, 0.010737566277384758, 0.01257551833987236, 0.013942955993115902, -0.0022407500073313713, 0.002234953222796321, -0.01357331220060587, -0.011629697866737843, 0.011827850714325905, 0.0032398030161857605, -0.0035740335006266832, 0.0026945164427161217, -0.0020619684364646673, -0.00012094920384697616, -0.013496942818164825, 0.003977708984166384, -0.015126528218388557, 0.0026920330710709095, 0.0037904095370322466, 0.015579704195261002, -0.013783139176666737, 0.015728073194622993, 0.0026333765126764774, 0.013022731989622116, -0.010404668748378754, 0.007483964785933495, -0.013270016759634018, 0.0015495005063712597, -0.01264343224465847, 0.014844628982245922, -0.010397815145552158, 0.013176788575947285, -0.012023369781672955, 0.002338457852602005, -0.002719415118917823, 0.008077607490122318, -0.0034834251273423433, 0.0005097173852846026, 0.014328488148748875, 0.01522054709494114, 6.229040445759892e-05, 0.010718555189669132, -0.009903095662593842, -2.6977524612448178e-05, -0.008352035656571388, 0.006034336052834988, -0.0002059848338831216, -0.013550890609622002, 0.014491213485598564, 0.014550631865859032, -0.011167905293405056, 0.013161725364625454, -0.012373828329145908, -0.0022078054025769234, 0.012861307710409164, 0.013493926264345646, -0.0033064656890928745, 0.004355454817414284], [0.00026538351085036993, -0.007475720252841711, 0.008977003395557404, -0.005764799192547798, 0.010263868607580662, 0.011010530404746532, 0.002215600572526455, 0.0018004989251494408, 0.012394919991493225, -0.012435524724423885, -0.013137225061655045, -0.0020801315549761057, 0.013155112974345684, -1.0323251444788184e-05, 0.012990564107894897, 0.010887331329286098, 0.012109498493373394, -0.010366475209593773, 0.0022719206754118204, -0.012120835483074188, 0.011651434935629368, -0.009099859744310379, -0.002639956772327423, 0.01446222048252821, 0.011736496351659298, -0.012235041707754135, 0.011718440800905228, -0.00037416242412291467, 0.009257406927645206, -0.001990662654861808, 0.010641274973750114, -0.0060126157477498055, 0.0022233156487345695, -0.007861526682972908, 0.0017493348568677902, 0.006023826077580452, 0.01203980389982462, 0.002106947125867009, 0.012477520853281021, -0.0027934813406318426, 0.011692428961396217, 0.012882126495242119, -0.011468923650681973, -0.01233714446425438, 0.0034472085535526276, -0.0026662664022296667, -0.0011636546114459634, -0.013069169595837593, 0.01368028111755848, 0.00042350825970061123, -0.002498521702364087, -0.006567979231476784, 8.090975461527705e-05, -0.002682911232113838, 0.0027483815792948008, 0.010270757600665092, 0.0029978412203490734, 0.013205388560891151, 0.010937667451798916, -0.010372663848102093, -0.009610502980649471, -0.01236476469784975, 0.010824496857821941, -0.002495519584044814, 0.013083986937999725, -0.011103951372206211, 0.013150705955922604, -0.0021967326756566763, 0.008774660527706146, -0.0028911151457577944, 0.006001100409775972, -0.0018173811258748174, -0.011651904322206974, -0.0018756336066871881, 0.013199413195252419, -0.0020100371912121773, 0.011719207279384136, 0.012785878032445908, -0.011409571394324303, -0.005285348743200302, 0.01131543517112732, -0.0024945070035755634, 0.010614769533276558, 5.121891081216745e-05, 0.01158071868121624, -0.010968671180307865, 0.007503921631723642, -0.012603084556758404, -0.010578379034996033, -0.01187832560390234, 0.01216443907469511, -0.005314535927027464, -0.011544384993612766, -0.013500012457370758, 0.0067886169999837875, -0.007490150164812803, 0.012199288234114647, -0.0009992393897846341, 0.009516531601548195, -0.012619771994650364, 0.011125996708869934, -0.002764779608696699, 0.010772380977869034, -0.004082513507455587, 0.012182219885289669, -0.00930832326412201, 0.011847558431327343, -0.007557555101811886, -0.01320391520857811, -0.011179213412106037, -2.98572067549685e-05, -0.007128393277525902, 0.006065444089472294, 3.806591485044919e-05, 0.004779977258294821, -0.01186654157936573, 2.024323657678906e-05, 0.012114583514630795, -0.011274974793195724, -0.012691289186477661, 0.01220784429460764, -0.011500665917992592, 0.012184669263660908, 0.01295342668890953, -0.0027745598927140236, -0.010578479617834091, 0.011953569017350674, -0.010399007238447666], [-5.939886250416748e-05, -0.0027795271016657352, 0.009277649223804474, -0.005871928296983242, 0.0025986372493207455, 0.011687731370329857, 0.009708081372082233, 0.011474242433905602, 0.013835144229233265, -0.012571406550705433, -0.01305353082716465, -0.010312645696103573, 0.011972757987678051, 6.932843098184094e-05, 0.0032859421335160732, 0.0027602636255323887, 0.011240045540034771, -0.006172707304358482, 0.011586353182792664, -0.004050189163535833, 0.00973790418356657, -0.01020967960357666, -0.004055383615195751, 0.007816478610038757, 0.0015493427636101842, -0.001951443264260888, 0.012520902790129185, 0.0005603891331702471, 0.013558655977249146, -0.010892492718994617, 0.00743971997871995, -0.008915351703763008, 0.009577056393027306, -0.010633252561092377, 0.008203737437725067, 0.00023662549210712314, 0.01069747656583786, 0.0023000468499958515, 0.002425641054287553, -0.01076355017721653, 0.012600461952388287, 0.012276668101549149, -0.011376500129699707, -0.0024691359139978886, 0.009812439791858196, -0.013234858401119709, -0.0002653260016813874, -0.011975637637078762, 0.010707243345677853, 0.000555663660634309, -0.012114576064050198, -0.010788937099277973, -0.00021105307678226382, -0.011172084137797356, 0.010574386455118656, 0.012052018195390701, 0.013471043668687344, 0.004433249589055777, 0.013002592138946056, -0.010118016041815281, -0.009089450351893902, -0.0023855390027165413, 0.01160840131342411, -0.0028333228547126055, 0.005468325689435005, -0.00821312889456749, 0.012540924362838268, -0.011106216348707676, 0.012431652285158634, -0.011982806026935577, 0.012013528496026993, -0.009848196990787983, -0.0038730355445295572, -0.008830413222312927, 0.012799745425581932, -0.011164925061166286, 0.010997387580573559, 0.013790836557745934, -0.010452277958393097, -0.013538327999413013, 0.004171454813331366, -0.012578073889017105, 0.010565826669335365, 4.150287713855505e-05, 0.011832737363874912, -0.010634656995534897, 0.011976731941103935, -0.012437328696250916, -0.011452246457338333, -0.011230500414967537, 0.0035957740619778633, -0.010752293281257153, -0.001969817327335477, -0.013725737109780312, 0.010489250533282757, -0.01258035283535719, 0.011422323063015938, -0.0008101006969809532, 0.01200377568602562, -0.011465335264801979, 0.011647313833236694, -0.008581772446632385, 0.011458768509328365, -0.010651582852005959, 0.0027069307398051023, -0.008561029098927975, 0.012883089482784271, -0.002141793956980109, -0.0027310505975037813, -0.010111117735505104, -3.064754491788335e-05, -0.012036117725074291, 0.0007831135299056768, 2.1054290755273541e-07, 0.012083128094673157, -0.002079895930364728, -4.337533391662873e-05, 0.0028743634466081858, -0.005390337202697992, -0.011486131697893143, 0.01103268377482891, -0.010915669612586498, 0.0018423650180920959, 0.011770066805183887, -0.010686240158975124, -0.011164451949298382, 0.0017791860736906528, -0.0037747228052467108], [0.00010765600018203259, -0.013423413969576359, 0.0058919754810631275, -0.005862764548510313, 0.005876545794308186, 0.0029586325399577618, 0.017320072278380394, 0.018072113394737244, 0.009378751739859581, -0.00958289485424757, -0.01208063866943121, -0.01635051518678665, 0.006394898984581232, -5.224982669460587e-05, 0.01333000510931015, 0.019088851287961006, 0.0010120776714757085, -0.017992334440350533, 0.017106981948018074, -0.0029919787775725126, 0.0030379078816622496, -0.011335067451000214, -0.011363084428012371, 0.00430715037509799, 0.0116397300735116, -0.016688847914338112, 0.0039305915124714375, -9.563355706632137e-05, 0.0038985416758805513, -0.012145999819040298, 0.015036438591778278, -0.014998609200119972, 0.015268112532794476, -0.0019715826492756605, 0.014777407981455326, 0.011509668081998825, 0.015766073018312454, 0.0026777053717523813, 0.017751410603523254, -0.019710294902324677, 0.0029609256889671087, 0.012328234501183033, -0.004198384005576372, -0.002334378659725189, 0.015245030634105206, -0.012637777253985405, -0.000156987807713449, -0.007022770121693611, 0.004729268606752157, 0.000562742177862674, -0.0211111381649971, -0.018811870366334915, 3.0511939257849008e-05, -0.0024798705708235502, 0.01713474839925766, 0.016724733635783195, 0.0014425694243982434, 0.01332615502178669, 0.012955497950315475, -0.01509324461221695, -0.008301609195768833, -0.014702162705361843, 0.012970535084605217, -0.01443113386631012, 0.011067512445151806, -0.0022436471190303564, 0.012299295514822006, -0.0034119817428290844, 0.016547098755836487, -0.0029006004333496094, 0.0025088684633374214, -0.019705159589648247, -0.012000489979982376, -0.016132619231939316, 0.017898524180054665, -0.0017357710748910904, 0.014834150671958923, 0.010416083037853241, -0.010474573820829391, -0.014348437078297138, 0.014622660353779793, -0.017844228073954582, 0.019447246566414833, 5.109542325953953e-05, 0.01600906066596508, -0.012352722696959972, 0.02268122136592865, -0.0036943433806300163, -0.015769120305776596, -0.012991918250918388, 0.016566557809710503, -0.002667185850441456, -0.016638990491628647, -0.002817363478243351, 0.009776869788765907, -0.01149155292659998, 0.013516455888748169, -0.0006573014543391764, 0.003146239323541522, -0.01618666760623455, 0.012576763518154621, -0.01446958351880312, 0.008707446977496147, -0.019441453740000725, 0.017935041338205338, -0.008605541661381721, 0.0025134405586868525, -0.0003758679667953402, -0.013333010487258434, -0.020049311220645905, -6.747063889633864e-05, -0.01391160860657692, 0.007731877267360687, 0.00017217471031472087, 0.008260542526841164, -0.013487040065228939, -8.301907655550167e-05, 0.0023262721952050924, -0.013955648988485336, -0.008728579618036747, 0.0025786252226680517, -0.013617083430290222, 0.013800439424812794, 0.002384692430496216, -0.014207054860889912, -0.0182421263307333, 0.0024629568215459585, -0.0017387289553880692], [-0.00010942145308945328, 0.008092228323221207, -0.00864805094897747, 0.009258904494345188, -0.0034276468213647604, -0.0034576519392430782, -0.014917957596480846, -0.0018810234032571316, -0.011440226808190346, 0.002083261962980032, 0.004548009485006332, 0.014585185796022415, -0.002665845910087228, -6.936544377822429e-05, -0.0023188330233097076, -0.0020663607865571976, -0.0017217905260622501, 0.01649799756705761, -0.015471724793314934, 0.0063338917680084705, -0.005618819035589695, 0.011829065158963203, 0.016380449756979942, -0.004663071129471064, -0.019436243921518326, 0.014555596746504307, -0.01285532210022211, -0.00014631845988333225, -0.00650390749797225, 0.015476113185286522, -0.0021677131298929453, 0.013827309012413025, -0.014682131819427013, 0.018981769680976868, -0.018493222072720528, -0.00464630825445056, -0.019352568313479424, -0.016283344477415085, -0.004992359317839146, 0.0029235482215881348, -0.015154690481722355, -0.0020261488389223814, 0.019778981804847717, 0.0035725871566683054, -0.015782151371240616, 0.01375855877995491, 0.009957851842045784, 0.003605216508731246, -0.015057346783578396, -0.00029497037758119404, 0.003269113367423415, 0.014472046867012978, -3.729120726347901e-05, 0.001732150325551629, -0.0027566589415073395, -0.00349887041375041, -0.01653631031513214, -0.005641612224280834, -0.013483232818543911, 0.01549450121819973, 0.009451698511838913, 0.01464119553565979, -0.0021066360641270876, 0.015870077535510063, -0.014097045175731182, 0.001871784683316946, -0.018169935792684555, 0.017429018393158913, -0.012158304452896118, 0.013586025685071945, -0.017237983644008636, 0.018051913008093834, 0.014303199015557766, 0.014728043228387833, -0.014635098166763783, 0.0021188438404351473, -0.0019689116161316633, -0.011384926736354828, 0.010122793726623058, 0.014544104225933552, -0.013045752421021461, 0.0024289798457175493, -0.01587766408920288, 0.00011824558168882504, -0.002885120455175638, 0.012111011892557144, -0.018150022253394127, 0.013709845952689648, 0.017888851463794708, 0.02011149562895298, -0.002163678640499711, 0.002042270265519619, 0.0020216000266373158, 0.014111294411122799, -0.009734570980072021, 0.011079884134232998, -0.0053967637941241264, 0.0015138527378439903, -0.013331837020814419, 0.0020904382690787315, -0.013032467104494572, 0.0153883658349514, -0.011584015563130379, 0.001966303214430809, -0.014605998061597347, 0.01068050879985094, -0.015276981517672539, 0.00041632019565440714, 0.013834658078849316, 0.01839359477162361, 9.256586781702936e-05, 0.010103716515004635, -0.009187322109937668, -2.556668050601729e-06, -0.011271988041698933, 0.015028725378215313, 3.5252694942755625e-05, -0.01315774954855442, 0.01407627109438181, 0.007487516850233078, -0.0041787209920585155, 0.004621311090886593, -0.01466730423271656, -0.0148545540869236, 0.01476346142590046, 0.01708099991083145, -0.01567244715988636, 0.016462242230772972], [0.00038689421489834785, -0.006844344083219767, 0.009747084230184555, -0.006796653848141432, 0.002155785681679845, 0.015447563491761684, 0.002176036359742284, 0.02369491010904312, 0.01617550291121006, -0.016640840098261833, -0.003687474178150296, -0.0021935030817985535, 0.001992679899558425, -3.470286901574582e-05, 0.01922009326517582, 0.01992250606417656, 0.001725454698316753, -0.0019159936346113682, 0.01236400380730629, -0.004159857053309679, 0.006882333196699619, -0.005968830082565546, -0.027259666472673416, 0.013595610857009888, 0.0007055874448269606, -0.0022016121074557304, 0.0042572906240820885, -0.0002699762990232557, 0.0033892360515892506, -0.0026438634376972914, 0.007877853699028492, -0.0113027673214674, 0.016925673931837082, -0.0013315815012902021, 0.02022242359817028, 0.008254035376012325, 0.00328463944606483, 0.0022901121992617846, 0.0023831226862967014, -0.0022812194656580687, 0.015376400202512741, 0.017248407006263733, -0.0016373243415728211, -0.018080255016684532, 0.015065453946590424, -0.0024636555463075638, -0.0015567514346912503, -0.0026004028040915728, 0.0023911413736641407, 0.0005592997767962515, -0.002636687597259879, -0.019803989678621292, 8.027009607758373e-05, -0.020040959119796753, 0.00405389117076993, 0.0068518901243805885, 0.005063715390861034, 0.013630509376525879, 0.015962786972522736, -0.00929455365985632, -0.008057814091444016, -0.01590396650135517, 0.019818264991044998, -0.018122071400284767, 0.0018705392722040415, -0.003444025060161948, 0.003917538560926914, -0.019423985853791237, 0.005392949562519789, -0.00566540751606226, 0.0019024444045498967, -0.0020055051427334547, -0.014479422941803932, -0.0019452685955911875, 0.020804336294531822, -0.021663565188646317, 0.02149840258061886, 0.0013583581894636154, -0.004400739911943674, -0.002208205871284008, 0.004095203243196011, -0.0033123972825706005, 0.02378201298415661, -5.7489534810883924e-05, 0.0038639195263385773, -0.0206686332821846, 0.0020306583028286695, -0.008093293756246567, -0.002187371253967285, -0.0034582705702632666, 0.005529169924557209, -0.005725498776882887, -0.019321493804454803, -0.016899121925234795, 0.01096253376454115, -0.0032476685009896755, 0.01645679585635662, -6.7484388637240045e-06, 0.013272935524582863, -0.008524897508323193, 0.01487263385206461, -0.0140162268653512, 0.01122457254678011, -0.02271256595849991, 0.00210978789255023, -0.01004011370241642, 0.0016336170956492424, -0.000208306621061638, -0.016936251893639565, -0.027979884296655655, -9.611498535377905e-05, -0.004435591399669647, 0.00838405080139637, -1.72302607097663e-05, 0.011637766845524311, -0.0015740197850391269, 0.00044659036211669445, 0.002812872873619199, -0.016420504078269005, -0.007990087382495403, 0.02310865744948387, -0.017865054309368134, 0.001990066608414054, 0.020856060087680817, -0.008270904421806335, -0.02550067938864231, 0.018946677446365356, -0.001701299101114273], [-0.0003516221768222749, 0.006840034853667021, -0.0077110338024795055, 0.007399489637464285, -0.0032798205502331257, -0.012947437353432178, -0.002089663175866008, -0.013423661701381207, -0.009983259253203869, 0.012303941883146763, 0.009681303054094315, 0.0026524383574724197, -0.013895444571971893, 2.7028776457882486e-05, -0.013086291030049324, -0.012505664490163326, -0.013525014743208885, 0.009559758007526398, -0.0021443909499794245, 0.012682552449405193, -0.011473984457552433, 0.00919951032847166, 0.005837586242705584, -0.008401134051382542, -0.012995137833058834, 0.011565528810024261, -0.0118778171017766, -7.374670531135052e-05, -0.014696397818624973, 0.013509448617696762, -0.008608486503362656, 0.010437716729938984, -0.0022932158317416906, 0.013289934024214745, -0.01292480155825615, -0.0003817771503236145, -0.01293280627578497, -0.010766169987618923, -0.0023940822575241327, 0.012035829946398735, -0.012726030312478542, -0.0020846163388341665, 0.01467093825340271, 0.014426457695662975, -0.014678123407065868, 0.013398358598351479, 0.009802575223147869, 0.0036568918731063604, -0.0029563535936176777, -0.00029199212440289557, 0.012805590406060219, 0.01165303960442543, -5.217370471655158e-06, 0.0022263303399086, -0.012425621971487999, -0.013493356294929981, -0.0032644940074533224, -0.011625392362475395, -0.012264713644981384, 0.012319541536271572, 0.009306114166975021, 0.011683257296681404, -0.011373546905815601, 0.013409080915153027, -0.013968006707727909, 0.012232902459800243, -0.013924732804298401, 0.003239105921238661, -0.008422091603279114, 0.01055840589106083, -0.014138951897621155, 0.0019518715562298894, 0.004823946859687567, 0.011567024514079094, -0.0024068939965218306, 0.012798218987882137, -0.012759686447679996, -0.011567682959139347, 0.010352157056331635, 0.014443840831518173, -0.01251742709428072, 0.012554737739264965, -0.0020175641402602196, 5.0839407776948065e-05, -0.005167336668819189, 0.01237634476274252, -0.013766983523964882, 0.01178938802331686, 0.01224333792924881, 0.0024333109613507986, -0.012074007652699947, 0.012790882028639317, 0.011893337592482567, 0.013873067684471607, -0.008843005634844303, 0.013264589942991734, -0.016384540125727654, 0.0001004363875836134, -0.002802982460707426, 0.0021404647268354893, -0.013008439913392067, 0.013615096919238567, -0.0045315115712583065, 0.011995459906756878, -0.011838918551802635, 0.010716878809034824, -0.012910176999866962, 0.011492684483528137, 0.013575183227658272, 0.0020404700189828873, -6.72170499456115e-05, 0.006005456205457449, -0.009881547652184963, 5.1913752940890845e-06, -0.009077112190425396, 0.001714303158223629, -0.0004832834820263088, -0.013349243439733982, 0.011253178119659424, 0.002690031426027417, -0.002260661916807294, 0.013675445690751076, -0.0067999339662492275, -0.012158828787505627, 0.013097921386361122, 0.001952383783645928, -0.013178963214159012, 0.011704439297318459], [0.000280276668490842, -0.007323725149035454, 0.00978319812566042, -0.0038546028081327677, 0.010951971635222435, 0.012456159107387066, 0.01054560486227274, 0.011105220764875412, 0.007811460644006729, -0.012885301373898983, -0.013326594606041908, -0.005345459561794996, 0.00273014884442091, -3.375270534888841e-05, 0.012726649641990662, 0.003908901941031218, 0.011209974996745586, -0.011368002742528915, 0.007394910324364901, -0.002769819460809231, 0.01233128271996975, -0.01017250306904316, -0.008894381113350391, 0.014331107027828693, 0.011941125616431236, -0.01067494135349989, 0.007320399861782789, -0.0004190818581264466, 0.01454946305602789, -0.010798127390444279, 0.010965902358293533, -0.00652442267164588, 0.011981099843978882, -0.011273400858044624, 0.01063072495162487, 0.009264573454856873, 0.009970366023480892, 0.010990438982844353, 0.012420888058841228, -0.012169967405498028, 0.011448447592556477, 0.002396028023213148, -0.010794802568852901, -0.0035845721140503883, 0.013690127991139889, -0.013083473779261112, -0.0004587434232234955, -0.014458095654845238, 0.012715821154415607, 5.18405759066809e-05, -0.012570043094456196, -0.0021507602650672197, -1.9671620975714177e-05, -0.012055889703333378, 0.0020753953140228987, 0.010707847774028778, 0.013197268359363079, 0.004581200424581766, 0.01293317973613739, -0.0019956217147409916, -0.00952945090830326, -0.012251016683876514, 0.009906861931085587, -0.012951272539794445, 0.012795751914381981, -0.012601732276380062, 0.002290493343025446, -0.012328825891017914, 0.011822625994682312, -0.005730280186980963, 0.01146736927330494, -0.0027663942892104387, -0.012026572600007057, -0.011589699424803257, 0.012741532176733017, -0.011783624067902565, 0.010755050927400589, 0.011692127212882042, -0.006252541206777096, -0.014115622267127037, 0.011810485273599625, -0.011388287879526615, 0.003358743153512478, -0.00011802392691606656, 0.012088137678802013, -0.009754638187587261, 0.011326328851282597, -0.013291176408529282, -0.012166652828454971, -0.012213003821671009, 0.011139195412397385, -0.003465802175924182, -0.001932157902047038, -0.012695075012743473, 0.009928647428750992, -0.005986198782920837, 0.004653697833418846, -0.0002075182128464803, 0.012833479791879654, -0.012371971271932125, 0.0055895112454891205, -0.01220442820340395, 0.006311694625765085, -0.011830957606434822, 0.00790673028677702, -0.008993757888674736, 0.011988144367933273, -0.00614866754040122, -0.013767704367637634, -0.010923025198280811, -6.213420419953763e-05, -0.012141103856265545, 0.008716504089534283, 5.649748800351517e-06, 0.011944041587412357, -0.011205213144421577, 0.00018243455269839615, 0.013403539545834064, -0.010923762805759907, -0.011017684824764729, 0.012216837145388126, -0.011683046817779541, 0.010397794656455517, 0.01266093272715807, -0.011375540867447853, -0.011607328429818153, 0.01318391039967537, -0.011826196685433388], [0.00027449880144558847, -0.004741598851978779, 0.009448806755244732, -0.005181468091905117, 0.010691757313907146, 0.012064015492796898, 0.010962086729705334, 0.012884869240224361, 0.011411657556891441, -0.012166563421487808, -0.0140290018171072, -0.013170051388442516, 0.012841310352087021, 3.920842573279515e-05, 0.0044416747987270355, 0.002955267671495676, 0.011969715356826782, -0.010612880811095238, 0.01262645609676838, -0.0026418580673635006, 0.012357721105217934, -0.010308469645678997, -0.0076349941082298756, 0.008143230341374874, 0.009303943254053593, -0.011233712546527386, 0.012490808963775635, -0.00010460994963068515, 0.005283729638904333, -0.01176817249506712, 0.01097073219716549, -0.00887124240398407, 0.01239419262856245, -0.012440905906260014, 0.012104978784918785, 0.012150269001722336, 0.01237744465470314, 0.0021890446078032255, 0.003693394362926483, -0.011875289492309093, 0.01156601682305336, 0.012635935097932816, -0.001803334685973823, -0.012045933865010738, 0.0122257424518466, -0.0036955922842025757, -0.007944137789309025, -0.014255167916417122, 0.012528886087238789, 0.00028597365599125624, -0.00428645359352231, -0.011290405876934528, -1.404816794092767e-05, -0.010968256741762161, 0.011122724041342735, 0.011502793990075588, 0.01375174056738615, 0.006994012277573347, 0.011599437333643436, -0.01200814638286829, -0.009784780442714691, -0.0032838520128279924, 0.01163518987596035, -0.013716977089643478, 0.013222919777035713, -0.012322853319346905, 0.012196853756904602, -0.014045365154743195, 0.009325630962848663, -0.01118544116616249, 0.012479094788432121, -0.012729018926620483, -0.012607722543179989, -0.01232761237770319, 0.0022815093398094177, -0.014078177511692047, 0.011038483120501041, 0.013728706166148186, -0.010833749547600746, -0.013217235915362835, 0.010190372355282307, -0.012230896390974522, 0.011037860997021198, -0.00011758056643884629, 0.01150328479707241, -0.011902302503585815, 0.01318749412894249, -0.013214439153671265, -0.0019467733800411224, -0.0018414019141346216, 0.007727511692792177, -0.0142400236800313, -0.0115304384380579, -0.011931723915040493, 0.008654608391225338, -0.012241452932357788, 0.012179153971374035, -0.0019380132434889674, 0.004728208761662245, -0.010694260708987713, 0.011615504510700703, -0.011270439252257347, 0.011913084425032139, -0.011430920101702213, 0.011893050745129585, -0.008911211974918842, 0.0018257972551509738, -0.0007440320332534611, -0.0032898811623454094, -0.012459693476557732, 8.055996295297518e-05, -0.010668377391994, 0.0061380560509860516, 0.00015171864652074873, 0.010472724214196205, -0.01192383375018835, 0.00027001919806934893, 0.012177132070064545, -0.010881839320063591, -0.012798275798559189, 0.011681897565722466, -0.002117661526426673, 0.01135461125522852, 0.00592045346274972, -0.012620599009096622, -0.011902866885066032, 0.012814776971936226, -0.00439753383398056], [0.0002745702222455293, -0.007022228557616472, 0.008694630116224289, -0.004475229885429144, 0.011026800610125065, 0.002560222987085581, 0.01108736265450716, 0.012396642006933689, 0.011332021094858646, -0.008884591050446033, -0.012952485121786594, -0.011574708856642246, 0.001985665410757065, -3.09173519781325e-05, 0.011611645109951496, 0.011315768584609032, 0.012024318799376488, -0.011041595600545406, 0.012089935131371021, -0.012970909476280212, 0.0061484407633543015, -0.010249795392155647, -0.008030017837882042, 0.008930765092372894, 0.011401509866118431, -0.0030754406470805407, 0.012421270832419395, -0.0001657480897847563, 0.01421324908733368, -0.010684560984373093, 0.0015310110757127404, -0.010044791735708714, 0.002562577836215496, -0.011612823233008385, 0.011168099008500576, 0.013208916410803795, 0.011670033447444439, 0.00794130191206932, 0.011901570484042168, -0.0037882619071751833, 0.011667863465845585, 0.0022337990812957287, -0.011280742473900318, -0.010734922252595425, 0.012420163489878178, -0.002250761492177844, -0.00015118996088858694, -0.014148698188364506, 0.013549741357564926, 3.637316694948822e-05, -0.012665839865803719, -0.009135828353464603, -0.00036184026976116, -0.0018931966042146087, 0.011745201423764229, 0.011598208919167519, 0.013901367783546448, 0.006713225971907377, 0.012153890915215015, -0.010435164906084538, -0.009487099945545197, -0.0023937723599374294, 0.011373145505785942, -0.013207159005105495, 0.013137840665876865, -0.0033457940444350243, 0.011891156435012817, -0.002507841447368264, 0.009430796839296818, -0.010990841314196587, 0.012221475131809711, -0.010629421100020409, -0.012583932839334011, -0.010618864558637142, 0.011480925604701042, -0.012985375709831715, 0.0023072019685059786, 0.0033731635194271803, -0.010379492305219173, -0.013400217518210411, 0.012031255289912224, -0.003225107444450259, 0.01126671303063631, 4.7684770834166557e-05, 0.01193141471594572, -0.012027071788907051, 0.013117386028170586, -0.013335321098566055, -0.011891019530594349, -0.012083730660378933, 0.012512926943600178, -0.002650652779266238, -0.010479606688022614, -0.005146377254277468, 0.009997977875173092, -0.01305684819817543, 0.007875693030655384, 0.0007340142037719488, 0.01202457956969738, -0.012990177609026432, 0.012443139217793941, -0.012851028703153133, 0.011085543781518936, -0.006608386058360338, 0.005293562076985836, -0.009577673859894276, 0.012210733257234097, -0.008583083748817444, -0.013460307382047176, -0.002108630957081914, -0.0001002026183414273, -0.010196682997047901, 0.00955307949334383, 6.673549796687439e-05, 0.009074674919247627, -0.0020731042604893446, 9.585187945049256e-05, 0.011663589626550674, -0.011823843233287334, -0.006633807439357042, 0.011061069555580616, -0.002355084056034684, 0.011232930235564709, 0.012304368428885937, -0.012247025966644287, -0.0030062724836170673, 0.01268199272453785, -0.01114528439939022], [0.00027502942248247564, -0.006206812337040901, 0.009076840244233608, -0.003935514483600855, 0.0028003451880067587, 0.006257733330130577, 0.012463923543691635, 0.004112666472792625, 0.0023550025653094053, -0.012051240541040897, -0.007325332146137953, -0.013778525404632092, 0.012941314838826656, -1.7169573766295798e-05, 0.012700610794126987, 0.01289411261677742, 0.012689214199781418, -0.002048034919425845, 0.012405299581587315, -0.013657529838383198, 0.011539753526449203, -0.010417393408715725, -0.012589060701429844, 0.007306711748242378, 0.012160479091107845, -0.00790188368409872, 0.013221744447946548, 0.00027658059843815863, 0.0160576943308115, -0.013294250704348087, 0.008426429703831673, -0.009602660313248634, 0.0027873110957443714, -0.0016901278868317604, 0.006413602735847235, 0.011900274083018303, 0.011821869760751724, 0.0037095234729349613, 0.013462917879223824, -0.012576020322740078, 0.012765039689838886, 0.01415360625833273, -0.014067783020436764, -0.001971383346244693, 0.0098991384729743, -0.013994052074849606, -0.00015753309708088636, -0.014171326532959938, 0.002657342469319701, 0.0003639788774307817, -0.0034428362268954515, -0.007153147365897894, -2.174835572077427e-05, -0.004313027486205101, 0.011957001872360706, 0.0033842988777905703, 0.014099213294684887, 0.006539671216160059, 0.012613987550139427, -0.012524058111011982, -0.00857336726039648, -0.01335555873811245, 0.013176625594496727, -0.0024947139900177717, 0.014465072192251682, -0.013034404255449772, 0.01357020903378725, -0.01340622641146183, 0.00589783675968647, -0.012200931087136269, 0.0029706016648560762, -0.01190741267055273, -0.012736119329929352, -0.012332526035606861, 0.003059058915823698, -0.013237916864454746, 0.012505442835390568, 0.01053337287157774, -0.010013831779360771, -0.014749543741345406, 0.012120272032916546, -0.012350856326520443, 0.002066230634227395, 0.00011105551675427705, 0.012649500742554665, -0.002005829708650708, 0.004506444092839956, -0.014438643120229244, -0.002003822475671768, -0.01351961400359869, 0.0023945202119648457, -0.0144094442948699, -0.011826968751847744, -0.013199029490351677, 0.006685857195407152, -0.0035230228677392006, 0.010993982665240765, -0.0006941740866750479, 0.013822165317833424, -0.007805853616446257, 0.013698939234018326, -0.013618092983961105, 0.012469692155718803, -0.011870725080370903, 0.011988694779574871, -0.008839044719934464, 0.01354512944817543, -0.007855989970266819, -0.012702960520982742, -0.01197879109531641, -6.221350486157462e-05, -0.01400796975940466, 0.010443356819450855, 2.6132147468160838e-05, 0.012871665880084038, -0.012511182576417923, -6.32733863312751e-05, 0.012041084468364716, -0.013171221129596233, -0.013123969547450542, 0.013005257584154606, -0.012862402945756912, 0.012561666779220104, 0.004135483875870705, -0.013799497857689857, -0.01286398246884346, 0.013716052286326885, -0.007790657691657543], [0.00035079309600405395, -0.007246740628033876, 0.005919625051319599, -0.006187484133988619, 0.02331111952662468, 0.015834201127290726, 0.02079247497022152, 0.0012259735958650708, 0.005669777747243643, -0.013791072182357311, -0.0033917934633791447, -0.019137060269713402, 0.0019383938051760197, -1.699212043604348e-05, 0.018255924805998802, 0.02191195636987686, 0.0009467244963161647, -0.025018569082021713, 0.019270025193691254, -0.01883970946073532, 0.004392226692289114, -0.006043326575309038, -0.024401463568210602, 0.012769641354680061, 0.00880539882928133, -0.0022625052370131016, 0.013024726882576942, -0.00011885973799508065, 0.004360770341008902, -0.0029478350188583136, 0.013719772920012474, -0.011485849507153034, 0.016996106132864952, -0.0008659791783429682, 0.0021331075113266706, 0.0004277461557649076, 0.00142345717176795, 0.002092133043333888, 0.01867404580116272, -0.021609336137771606, 0.0020637630950659513, 0.010710345581173897, -0.0015511290403082967, -0.00453032273799181, 0.0033742431551218033, -0.014718799851834774, -0.0012294750194996595, -0.004208971746265888, 0.004848415032029152, 0.0005522634019143879, -0.023093512281775475, -0.021162809804081917, 5.171759767108597e-06, -0.0020072199404239655, 0.019506201148033142, 0.00708866398781538, 0.00989768747240305, 0.011189160868525505, 0.01440064050257206, -0.017560739070177078, -0.009787012822926044, -0.015907755121588707, 0.01653539389371872, -0.016527093946933746, 0.01299226563423872, -0.009590926580131054, 0.004247427452355623, -0.00261024315841496, 0.016385704278945923, -0.01366397924721241, 0.001725053763948381, -0.001987070543691516, -0.004198307637125254, -0.019126707687973976, 0.020150283351540565, -0.0018143939087167382, 0.019035806879401207, 0.0011269381502643228, -0.009166295640170574, -0.00472765788435936, 0.014306612312793732, -0.01768946275115013, 0.023792818188667297, -0.0001003406141535379, 0.0030028356704860926, -0.004388167057186365, 0.00316629302687943, -0.008886374533176422, -0.017978928983211517, -0.006550521124154329, 0.019937872886657715, -0.01014207024127245, -0.002371701877564192, -0.015435103327035904, 0.009996306151151657, -0.01178037840873003, 0.004436025861650705, 0.000740267161745578, 0.0034228377044200897, -0.019808199256658554, 0.013878587633371353, -0.014509337022900581, 0.015189207158982754, -0.023161735385656357, 0.019671520218253136, -0.009681278839707375, 0.001784811494871974, -0.012260784395039082, -0.0038088071160018444, -0.02703840844333172, 6.789943290641531e-05, -0.007005133666098118, 0.010136902332305908, 6.666189165116521e-06, 0.011976666748523712, -0.002832147292792797, 0.00042967600165866315, 0.019432606175541878, -0.003102376824244857, -0.0048391870222985744, 0.021625906229019165, -0.015364856459200382, 0.0020810498390346766, 0.021012233570218086, -0.00804881565272808, -0.004959508311003447, 0.014205475337803364, -0.0017179098213091493], [7.529499271186069e-05, -0.0070230779238045216, 0.00862476322799921, -0.005579960532486439, 0.009330039843916893, 0.002562246983870864, 0.010519733652472496, 0.009709568694233894, 0.007307977415621281, -0.0022957823239266872, -0.012541481293737888, -0.011082347482442856, 0.009315245784819126, -3.483666660031304e-05, 0.002697295043617487, 0.010607368312776089, 0.001732850563712418, -0.009886038489639759, 0.0048327455297112465, -0.012193539179861546, 0.00918380357325077, -0.008684666827321053, -0.0070074331015348434, 0.008199640549719334, 0.009372585453093052, -0.010651731863617897, 0.0031693291384726763, 0.0001446496753487736, 0.004198194015771151, -0.00943814404308796, 0.010117766447365284, -0.008095254190266132, 0.004665061365813017, -0.002981523983180523, 0.010547404177486897, 0.007713456638157368, 0.00847447570413351, 0.0021594050340354443, 0.010924830101430416, -0.011057861149311066, 0.010434827767312527, 0.002140794647857547, -0.00965870451182127, -0.009321191348135471, 0.012285100296139717, -0.01134900189936161, -0.0011139698326587677, -0.011627419851720333, 0.0030153754632920027, 0.00035698822466656566, -0.008628981187939644, -0.008300076238811016, -2.508874240447767e-05, -0.01030100230127573, 0.008019991219043732, 0.011557838879525661, 0.011432516388595104, 0.011805582791566849, 0.008290796540677547, -0.010480940341949463, -0.010074961930513382, -0.01220486406236887, 0.00943207647651434, -0.013119107112288475, 0.0024105189368128777, -0.01119510643184185, 0.010091685689985752, -0.002349336864426732, 0.012706557288765907, -0.011653435416519642, 0.0061720311641693115, -0.009092426858842373, -0.011674303561449051, -0.01075482927262783, 0.005496814846992493, -0.011141098104417324, 0.009683063253760338, 0.009275457821786404, -0.008608710020780563, -0.00371004780754447, 0.009204652160406113, -0.0032821428030729294, 0.005166319198906422, -1.576855174789671e-05, 0.009087156504392624, -0.0042200712487101555, 0.010474205948412418, -0.013030855916440487, -0.00930993352085352, -0.009632591158151627, 0.011085300706326962, -0.011896933428943157, -0.011322032660245895, -0.010859301313757896, 0.010340283624827862, -0.011933662928640842, 0.017481189221143723, -0.0002760227071121335, 0.011047485284507275, -0.011677075177431107, 0.0071860505267977715, -0.012534111738204956, 0.011681542731821537, -0.0092562735080719, 0.0020778256002813578, -0.011475126259028912, 0.011515451595187187, -0.005991227924823761, -0.0071463449858129025, -0.0022144035901874304, 7.553336035925895e-05, -0.010824086144566536, 0.005211780313402414, 7.480406202375889e-05, 0.010298408567905426, -0.010095331817865372, 0.0005698538152500987, 0.011368322186172009, -0.012239714153110981, -0.006611849647015333, 0.002104643266648054, -0.011069066822528839, 0.009892833419144154, 0.011586332693696022, -0.009371482767164707, -0.00689923157915473, 0.010742885991930962, -0.002353230258449912], [-0.0002687335654627532, 0.005437497049570084, -0.004624248016625643, 0.003137557301670313, -0.013653252273797989, -0.011862022802233696, -0.01321408897638321, -0.014443919993937016, -0.012505841441452503, 0.012448458932340145, 0.00982846412807703, 0.0022056838497519493, -0.010541606694459915, 1.883829645521473e-05, -0.01362940575927496, -0.003082512179389596, -0.015010579489171505, 0.013134426437318325, -0.014918294735252857, 0.006584635004401207, -0.005598635412752628, 0.010545646771788597, 0.017671845853328705, -0.0074169631116092205, -0.011440032161772251, 0.01427379623055458, -0.012089772149920464, 0.00033989516668953, -0.015834415331482887, 0.015188634395599365, -0.004189996048808098, 0.00985817238688469, -0.014428475871682167, 0.015145123936235905, -0.002726093865931034, -0.011389442719519138, -0.0018427906325086951, -0.002124326303601265, -0.013598025776445866, 0.009889674372971058, -0.013680985197424889, -0.014910943806171417, 0.0018385360017418861, 0.014892401173710823, -0.01544983685016632, 0.014306954108178616, 0.012859933078289032, 0.013015753589570522, -0.015466474927961826, -0.00010292939259670675, 0.01317720115184784, 0.002629078458994627, 1.9039072867599316e-05, 0.014415442943572998, -0.013747361488640308, -0.0027377104852348566, -0.016085021197795868, -0.01115032471716404, -0.004361467435956001, 0.014681043103337288, 0.009936739690601826, 0.013494130223989487, -0.01436549425125122, 0.014723505824804306, -0.014352934435009956, 0.0022270060144364834, -0.01606854796409607, 0.01610066182911396, -0.01339996512979269, 0.012199333868920803, -0.0018586736405268312, 0.01139574684202671, 0.01331907045096159, 0.014188660308718681, -0.013664321042597294, 0.002275915117934346, -0.014321021735668182, -0.01048101857304573, 0.009794625453650951, 0.014201337471604347, -0.012973058968782425, 0.013351199217140675, -0.013494311831891537, -5.1153245294699445e-05, -0.0021198361646384, 0.015581751242280006, -0.002087669214233756, 0.007264996413141489, 0.014363618567585945, 0.006386391818523407, -0.008716101758182049, 0.016324058175086975, 0.014307007193565369, 0.009101875126361847, -0.008668458089232445, 0.0035164940636605024, -0.010037788189947605, 0.00027852089260704815, -0.013619538396596909, 0.014269906096160412, -0.009441911242902279, 0.014493330381810665, -0.011666867882013321, 0.013685117475688457, -0.012951805256307125, 0.01058365311473608, -0.015205882489681244, 0.0002123807353200391, 0.013883051462471485, 0.014827091246843338, 8.851963684719522e-06, 0.013883689418435097, -0.004054040648043156, 5.616685302811675e-05, -0.012105355970561504, 0.014515290036797523, -0.00020405222312547266, -0.00834627915173769, 0.002855180762708187, 0.015305566601455212, -0.014652595855295658, 0.014303931035101414, -0.013711621053516865, -0.01402701623737812, 0.014809557236731052, 0.01419735886156559, -0.015313885174691677, 0.015745045617222786], [-0.00015508109936490655, 0.00601977901533246, -0.010132565163075924, 0.004974242765456438, -0.01310928724706173, -0.011645502410829067, -0.007327458821237087, -0.01756855845451355, -0.003213017014786601, 0.014465432614088058, 0.01362605020403862, 0.012605561874806881, -0.015545947477221489, -5.198551298235543e-05, -0.014700054191052914, -0.013977257534861565, -0.0019124863902106881, 0.014641381800174713, -0.005645162891596556, 0.009970618411898613, -0.005117526277899742, 0.005887637846171856, 0.0009095864952541888, -0.015001571737229824, -0.0016146671259775758, 0.007939341478049755, -0.012323061004281044, 3.0458601031568833e-05, -0.003484435612335801, 0.001715312828309834, -0.013324456289410591, 0.005898954346776009, -0.013913090340793133, 0.001607198384590447, -0.016165245324373245, -0.0028843821492046118, -0.017801521345973015, -0.01392782386392355, -0.01354959700256586, 0.002436199923977256, -0.014438837766647339, -0.001985043054446578, 0.016992716118693352, 0.016986485570669174, -0.012442286126315594, 0.015902837738394737, 0.01388624869287014, 0.014541920274496078, -0.002785098971799016, -2.8871185349998996e-05, 0.013739478774368763, 0.014345917850732803, 2.848881013051141e-05, 0.016331641003489494, -0.015588903799653053, -0.012613795697689056, -0.015065865591168404, -0.012929795309901237, -0.01464073546230793, 0.014807654544711113, 0.009355933405458927, 0.014235688373446465, -0.014081875793635845, 0.01574709825217724, -0.015572898089885712, 0.0052544353529810905, -0.0018506153719499707, 0.0024415457155555487, -0.011729033663868904, 0.010462277568876743, -0.002629043534398079, 0.015214897692203522, 0.004875838756561279, 0.0019345632754266262, -0.013230902142822742, 0.002198109868913889, -0.002817723201587796, -0.012424091808497906, 0.003630027174949646, 0.0051742903888225555, -0.004043745342642069, 0.003335805144160986, -0.014605517499148846, -5.9723442973336205e-05, -0.007579500786960125, 0.013791893608868122, -0.0027488756459206343, 0.001711740274913609, 0.006272981874644756, 0.001833721878938377, -0.014579106122255325, 0.0026312689296901226, 0.014321263879537582, 0.015330078080296516, -0.006293547805398703, 0.007432302925735712, -0.0074447160586714745, 0.0006869295611977577, -0.01246928982436657, 0.003067932790145278, -0.007189588155597448, 0.002723858691751957, -0.0052934917621314526, 0.01622101478278637, -0.014241866767406464, 0.008782812394201756, -0.014966166578233242, 0.015900418162345886, 0.014172759838402271, 0.015416792593896389, 2.975617826450616e-05, 0.01061578094959259, -0.008788248524069786, -5.0129972805734724e-05, -0.010765268467366695, 0.006061294116079807, -0.00042164267506450415, -0.014903631992638111, 0.014223024249076843, 0.016501914709806442, -0.016923347488045692, 0.007367908023297787, -0.01557700801640749, -0.014549417421221733, 0.011922340840101242, 0.0029790960252285004, -0.0019883227068930864, 0.014237808994948864], [0.00018771410395856947, -0.007308586034923792, 0.009396655485033989, -0.005551290698349476, 0.0038788572419434786, 0.01039157435297966, 0.009331770241260529, 0.00290506100282073, 0.008308718912303448, -0.010150509886443615, -0.012294642627239227, -0.005299151409417391, 0.010207346640527248, 5.113359657116234e-05, 0.009406155906617641, 0.0018575123976916075, 0.00821683183312416, -0.009301272220909595, 0.005658898502588272, -0.010903963819146156, 0.007512599229812622, -0.00552468141540885, -0.002782421885058284, 0.004592865239828825, 0.004401995334774256, -0.0027435815427452326, 0.009533179923892021, 0.00033107216586358845, 0.007973050698637962, -0.005281427409499884, 0.010454957373440266, -0.008768493309617043, 0.007698345929384232, -0.009874640963971615, 0.0024799855891615152, 0.00981184933334589, 0.008012202568352222, 0.009310168214142323, 0.01032993383705616, -0.0025014106649905443, 0.009520887397229671, 0.0029077136423438787, -0.007021601777523756, -0.004999022930860519, 0.007671226281672716, -0.010948277078568935, -0.008931174874305725, -0.012070647440850735, 0.011186563409864902, 0.00036651574191637337, -0.0055733309127390385, -0.0026840923819690943, 5.9632966440403834e-05, -0.009515204466879368, 0.01040678657591343, 0.007985969074070454, 0.008548715151846409, 0.012344668619334698, 0.00337488972581923, -0.0044806902296841145, -0.00882369838654995, -0.009948273189365864, 0.0018015488749369979, -0.002301562577486038, 0.005707120988518, -0.004017840139567852, 0.00966537557542324, -0.004555136431008577, 0.009499737061560154, -0.003381490707397461, 0.00466510932892561, -0.008185150101780891, -0.003970190417021513, -0.0062819914892315865, 0.011177150532603264, -0.0072740595787763596, 0.0018659348133951426, 0.010962036438286304, -0.01063838042318821, -0.012939770705997944, 0.0033257189206779003, -0.010856644250452518, 0.008437002077698708, 0.00012066320778103545, 0.01009034737944603, -0.001728323521092534, 0.0034137601032853127, -0.002474176464602351, -0.005639545153826475, -0.00181686005089432, 0.010240025818347931, -0.005262662656605244, -0.005665523931384087, -0.010742058977484703, 0.006671088747680187, -0.010109808295965195, 0.012436908669769764, -0.0004157178627792746, 0.0038228710182011127, -0.010915896855294704, 0.003568408079445362, -0.008738295175135136, 0.007063364610075951, -0.008469183929264545, 0.010713651776313782, -0.008414310403168201, 0.009643939323723316, -0.0017558239633217454, -0.012322462163865566, -0.00903593935072422, -2.9533464839914814e-05, -0.007425406947731972, 0.008672325871884823, 3.137733438052237e-05, 0.010594320483505726, -0.010425177402794361, 0.00016791372036095709, 0.0023997402749955654, -0.010090284049510956, -0.0024605290964245796, 0.002004927257075906, -0.0020135962404310703, 0.010319950990378857, 0.010583395138382912, -0.0025706221349537373, -0.008970708586275578, 0.0036488932091742754, -0.0014156786492094398], [-0.00010096449113916606, -0.007195513695478439, 0.011875038035213947, -0.00394887151196599, 0.008931481279432774, 0.011700973846018314, 0.011100340634584427, 0.008188272826373577, 0.010347661562263966, -0.01033901795744896, -0.013115210458636284, -0.009114621207118034, 0.010258955880999565, -3.0000146580277942e-05, 0.009909347631037235, 0.010780815035104752, 0.007127857301384211, -0.0020376895554363728, 0.0026207403279840946, -0.010491077788174152, 0.010820882394909859, -0.009100801311433315, -0.004078775178641081, 0.00919591449201107, 0.009141680784523487, -0.002930669579654932, 0.011008113622665405, 0.0004182208504062146, 0.014397365972399712, -0.010384771041572094, 0.009116197936236858, -0.00971408374607563, 0.00418895436450839, -0.009755208157002926, 0.009419173933565617, 0.01353434007614851, 0.010170896537601948, 0.009716364555060863, 0.006516574416309595, -0.011079788208007812, 0.008515226654708385, 0.010181883350014687, -0.010941136628389359, -0.010671664029359818, 0.004721472505480051, -0.011074853129684925, -0.010814034380018711, -0.012535535730421543, 0.01293781865388155, 0.00028476223815232515, -0.011540952138602734, -0.008858906105160713, 0.0001276500552194193, -0.0018731231102719903, 0.008984612300992012, 0.0059237671084702015, 0.010991383343935013, 0.011201268993318081, 0.010820484720170498, -0.009702686220407486, -0.009754865430295467, -0.01118358876556158, 0.002871790435165167, -0.013844388537108898, 0.0025202918332070112, -0.011589462868869305, 0.0018539174925535917, -0.0020325370132923126, 0.00955028086900711, -0.00729703763499856, 0.011061938479542732, -0.009024632163345814, -0.012867733836174011, -0.009587671607732773, 0.009752536192536354, -0.008889535441994667, 0.009584427811205387, 0.001298949122428894, -0.010707327164709568, -0.013705323450267315, 0.011169470846652985, -0.009441656991839409, 0.009660329669713974, -0.00019338534912094474, 0.010568968951702118, -0.009968920610845089, 0.010885926894843578, -0.01253960095345974, -0.010426205582916737, -0.010586908087134361, 0.004644892644137144, -0.01193671952933073, -0.01087874174118042, -0.0021273905877023935, 0.006230711936950684, -0.011694744229316711, 0.014395317062735558, -0.0007078626658767462, 0.010452046990394592, -0.009026644751429558, 0.010876312851905823, -0.011985630728304386, 0.011528278701007366, -0.009927939623594284, 0.010320056229829788, -0.008370012044906616, 0.00905042514204979, -0.00562396040186286, -0.002997071947902441, -0.011296066455543041, -9.025109466165304e-05, -0.010480131022632122, 0.009499638341367245, 0.00010904243390541524, 0.008419443853199482, -0.010277303867042065, 7.241592538775876e-05, 0.01178958360105753, -0.005636685993522406, -0.011228512041270733, 0.010383152402937412, -0.010216055437922478, 0.002175272675231099, 0.011292100884020329, -0.012977728620171547, -0.009588879533112049, 0.004806667100638151, -0.0017589766066521406], [0.000306035770336166, -0.006569391116499901, 0.005121961236000061, -0.005391873884946108, 0.026989102363586426, 0.015796251595020294, 0.02411937154829502, 0.014600155875086784, 0.0036379145458340645, -0.019628511741757393, -0.003343501128256321, -0.02471785433590412, 0.0046234531328082085, -3.301885590190068e-05, 0.02365526184439659, 0.025885239243507385, 0.0038676164112985134, -0.026491621509194374, 0.005519140511751175, -0.025424644351005554, 0.004532873164862394, -0.011473837308585644, -0.036386534571647644, 0.008531268686056137, 0.001586135826073587, -0.020012035965919495, 0.0048344857059419155, 7.157440995797515e-05, 0.00459328992292285, -0.005735774990171194, 0.0013278215192258358, -0.017340078949928284, 0.01010929699987173, -0.0018410227494314313, 0.019885806366801262, 0.00011779673513956368, 0.003537641139701009, 0.02593901939690113, 0.022569408640265465, -0.022313926368951797, 0.019645096734166145, 0.02042379230260849, -0.001602427801117301, -0.005155501421540976, 0.018690746277570724, -0.019205791875720024, -0.0004660590784624219, -0.003495078766718507, 0.002448608400300145, 0.0003700184461195022, -0.025125395506620407, -0.024241404607892036, -1.8422017092234455e-05, -0.01514995377510786, 0.002530209021642804, 0.016017550602555275, 0.002183612436056137, 0.010663732886314392, 0.018133429810404778, -0.02228579670190811, -0.009289364330470562, -0.003908256068825722, 0.02133876457810402, -0.015487689524888992, 0.017786195501685143, -0.020145732909440994, 0.001387191703543067, -0.02555011585354805, 0.025733010843396187, -0.017782846465706825, 0.00119118788279593, -0.014648186042904854, -0.012293695472180843, -0.021572250872850418, 0.02431339956820011, -0.0031883325427770615, 0.02535627968609333, 0.014874179847538471, -0.0059175314381718636, -0.002506371820345521, 0.00584664661437273, -0.027571668848395348, 0.02750006690621376, -0.00010063626541523263, 0.017839603126049042, -0.00486331433057785, 0.0014393370365723968, -0.008547810837626457, -0.007889742963016033, -0.005183247849345207, 0.025125421583652496, -0.009123890660703182, -0.0021679745987057686, -0.018299387767910957, 0.004534776788204908, -0.0031148549169301987, 0.013447833247482777, -0.018292732536792755, 0.005052315071225166, -0.0023988003376871347, 0.01703767664730549, -0.018341662362217903, 0.01652855984866619, -0.0027960508596152067, 0.023238325491547585, -0.008869561366736889, 0.0019311028299853206, -0.018831033259630203, -0.0028176899068057537, -0.0019800039008259773, -4.0464896301273257e-05, -0.005894664209336042, 0.008505964651703835, 4.572339457808994e-05, 0.009652821347117424, -0.008276240900158882, 0.0004457634931895882, 0.007960089482367039, -0.017693953588604927, -0.0022536255419254303, 0.021200338378548622, -0.005761347711086273, 0.020679984241724014, 0.002389706904068589, -0.01574109122157097, -0.027267498895525932, 0.019347036257386208, -0.025479387491941452], [-2.7096901249024086e-05, 0.0069419569335877895, -0.003120410954579711, 0.006470737978816032, -0.0032198354601860046, -0.0027446283493191004, -0.013409673236310482, -0.014879400841891766, -0.0022200236562639475, 0.012708085589110851, 0.01311552245169878, 0.013300362974405289, -0.014361477456986904, 3.0142355171847157e-05, -0.013659614138305187, -0.011754153296351433, -0.0017190107610076666, 0.002782995579764247, -0.014436108060181141, 0.013760620728135109, -0.012302611023187637, 0.005841985810548067, 0.009477933868765831, -0.007631305139511824, -0.014325674623250961, 0.013288675807416439, -0.011203566566109657, -0.0007735937833786011, -0.015217876993119717, 0.01426025666296482, -0.010823867283761501, 0.013590263202786446, -0.012110638432204723, 0.015805382281541824, -0.013949974440038204, -0.009266277775168419, -0.015525100752711296, -0.01113566942512989, -0.012050922960042953, 0.013883089646697044, -0.00196335231885314, -0.013588905334472656, 0.016015054658055305, 0.015471943654119968, -0.013463342562317848, 0.012537472881376743, 0.00045338913332670927, 0.009610471315681934, -0.01493457518517971, -0.00041688219062052667, 0.0026487400755286217, 0.012890038080513477, -0.00012311259342823178, 0.014001011848449707, -0.010077403858304024, -0.014658549800515175, -0.014861219562590122, -0.0057191248051822186, -0.013041452504694462, 0.01346174068748951, 0.009329893626272678, 0.01408533938229084, -0.011828788556158543, 0.003826915519312024, -0.013469998724758625, 0.013686376623809338, -0.011078257113695145, 0.014079663902521133, -0.009734699502587318, 0.010670994408428669, -0.015343439765274525, 0.014100296422839165, 0.0123434504494071, 0.01312827318906784, -0.01400463655591011, 0.0026320330798625946, -0.013096258975565434, -0.012632348574697971, 0.010039396584033966, 0.005239933729171753, -0.010584777221083641, 0.011461387388408184, -0.01235624123364687, -1.9143433746648952e-05, -0.012413498014211655, 0.01365392655134201, -0.014850322157144547, 0.013140328228473663, 0.013361511752009392, 0.015850896015763283, -0.010975689627230167, 0.013291697017848492, 0.013429982587695122, 0.008531693369150162, -0.009996522217988968, 0.013200590386986732, -0.01474430039525032, 0.002037449274212122, -0.01169759314507246, 0.002473315456882119, -0.012767450883984566, 0.0036580634769052267, -0.011933079920709133, 0.012574379332363605, -0.01242272648960352, 0.009661967866122723, -0.006117936689406633, 0.011043761856853962, 0.0038933027535676956, 0.0020013891626149416, 4.034211815451272e-05, 0.011302568949759007, -0.008752330206334591, -6.0626869526458904e-05, -0.01116490364074707, 0.013479194603860378, 4.136696952627972e-05, -0.014049770310521126, 0.003113988321274519, 0.0022234786301851273, -0.01057430263608694, 0.0134175606071949, -0.012999572791159153, -0.0036923596635460854, 0.004727853462100029, 0.012849368155002594, -0.013851082883775234, 0.012407497502863407], [-5.072711064713076e-05, -0.003984684590250254, 0.010032238438725471, -0.005515670869499445, 0.00835376139730215, 0.012756090611219406, 0.010069962590932846, 0.015196016058325768, 0.010206698440015316, -0.0023402043152600527, -0.003934754990041256, -0.01288648135960102, 0.013557656668126583, -2.5711606213008054e-06, 0.013108517043292522, 0.012848668731749058, 0.013890715315937996, -0.006933577824383974, 0.012269480153918266, -0.002721259603276849, 0.011968359351158142, -0.0036720898933708668, -0.011488128453493118, 0.008578632958233356, 0.014617363922297955, -0.013248439878225327, 0.0030639360193163157, 0.00028237540391273797, 0.013861236162483692, -0.0018282183445990086, 0.0018402121495455503, -0.00901907030493021, 0.01185570191591978, -0.0027813310734927654, 0.002121428493410349, 0.001356339082121849, 0.013911888934671879, 0.005592945497483015, 0.013930539600551128, -0.009257571771740913, 0.003017103997990489, 0.00914081372320652, -0.015182429924607277, -0.014640651643276215, 0.0039222887717187405, -0.002209277590736747, -0.008460656739771366, -0.006937720347195864, 0.012501079589128494, 3.874773028655909e-05, -0.013487689197063446, -0.012859085574746132, -1.4494649803964421e-05, -0.013351521454751492, 0.012499687261879444, 0.006426268257200718, 0.014811682514846325, 0.005597569514065981, 0.01157060544937849, -0.0023995558731257915, -0.009284570813179016, -0.012950390577316284, 0.0020394891034811735, -0.015961619094014168, 0.01342660840600729, -0.012631060555577278, 0.01392633467912674, -0.002308513270691037, 0.008803748525679111, -0.012649946846067905, 0.0018082816386595368, -0.013673179782927036, -0.013681071810424328, -0.0019169298466295004, 0.012398776598274708, -0.0020508819725364447, 0.01192311942577362, 0.0030170243699103594, -0.0099337138235569, -0.0031620434019714594, 0.00398334302008152, -0.003278805175796151, 0.01167953573167324, 6.079059312469326e-05, 0.012069802731275558, -0.00411002105101943, 0.015731213614344597, -0.01285784225910902, -0.014477427117526531, -0.013711453415453434, 0.012813311070203781, -0.015637895092368126, -0.005802993196994066, -0.012547148391604424, 0.010284706950187683, -0.007262723054736853, 0.004258197732269764, -0.0007114238105714321, 0.011033986695110798, -0.01457346323877573, 0.011163449846208096, -0.01416250690817833, 0.011897476390004158, -0.01356111653149128, 0.013011978007853031, -0.009139377623796463, 0.012871474958956242, -0.015277610160410404, -0.014667551033198833, -0.014610582031309605, -3.038636577912257e-06, -0.009520160965621471, 0.009483491070568562, -1.7440415831515566e-05, 0.010208277963101864, -0.0021240278147161007, 0.00044894128222949803, 0.0026286356151103973, -0.013903538696467876, -0.0023141761776059866, 0.013079867698252201, -0.0019182011019438505, 0.0018433334771543741, 0.012827621772885323, -0.01507523562759161, -0.011272593401372433, 0.011494464240968227, -0.014624066650867462], [0.00021331798052415252, 0.006079788785427809, -0.008356652222573757, 0.0031332778744399548, -0.007353748194873333, -0.011680308729410172, -0.00966328289359808, -0.010200819000601768, -0.0026050349697470665, 0.010175726376473904, 0.012932301498949528, 0.01074151135981083, -0.011393015272915363, -6.371011841110885e-05, -0.011280883103609085, -0.010194982402026653, -0.010694163851439953, 0.009829653427004814, -0.010987584479153156, 0.010919705033302307, -0.012183302082121372, 0.00927635096013546, 0.008686257526278496, -0.008846573531627655, -0.010325736366212368, 0.010261708870530128, -0.010874629020690918, 9.896465053316206e-05, -0.004102078266441822, 0.003678032895550132, -0.00859390664845705, 0.010437339544296265, -0.010252324864268303, 0.0027994969859719276, -0.010561425238847733, -0.009693249128758907, -0.01083487831056118, -0.01131023745983839, -0.002454396104440093, 0.010770535096526146, -0.0030633946880698204, -0.01218482293188572, 0.011156760156154633, 0.010663807392120361, -0.012990875169634819, 0.010856074281036854, 0.014703231863677502, 0.0028775285463780165, -0.010114903561770916, -0.00010939407366095111, 0.0026211454533040524, 0.00870007835328579, 1.3715312888962217e-05, 0.01011980976909399, -0.010799407958984375, -0.010749256238341331, -0.01271639671176672, -0.013708829879760742, -0.011733968742191792, 0.010439352132380009, 0.009904194623231888, 0.011096117086708546, -0.010564791038632393, 0.012841535732150078, -0.0124961594119668, 0.011901087127625942, -0.003934022039175034, 0.0025154694449156523, -0.005581449251621962, 0.011191285215318203, -0.011461552232503891, 0.010135388001799583, 0.011959308758378029, 0.009816980920732021, -0.0028974520973861217, 0.010790067724883556, -0.010415435768663883, -0.011507933959364891, 0.010359137319028378, 0.013504802249372005, -0.011602627113461494, 0.009985969401896, -0.01065812073647976, 0.0002114624803652987, -0.010938426479697227, 0.002715968294069171, -0.01182733103632927, 0.008688099682331085, 0.002242021495476365, 0.010813456028699875, -0.004930657800287008, 0.005202160216867924, 0.011544961482286453, 0.01175975613296032, -0.006731023080646992, 0.011708762496709824, -0.012974889017641544, 0.0008801877847872674, -0.010353236459195614, 0.009706229902803898, -0.004306900314986706, 0.002721913158893585, -0.008809449151158333, 0.0020502510014921427, -0.010727106593549252, 0.010290097445249557, -0.012223920784890652, -7.650720363017172e-06, 0.007273148279637098, 0.010133685544133186, 4.839691609959118e-05, 0.004886179696768522, -0.00436487328261137, -4.663202344090678e-05, -0.01125125028192997, 0.010666840709745884, -0.0004495352040976286, -0.009868287481367588, 0.002493069274351001, 0.011824209243059158, -0.010705775581300259, 0.0018952690297737718, -0.009550363756716251, -0.011861363425850868, 0.0027879474218934774, 0.0024232487194240093, -0.011160260066390038, 0.011316235177218914], [-0.00018979291780851781, -0.021984651684761047, 0.004330250900238752, -0.004654536489397287, 0.020256739109754562, 0.015743844211101532, 0.0201006680727005, 0.025739144533872604, 0.014659321866929531, -0.01821233332157135, -0.013835822232067585, -0.011049585416913033, 0.018596461042761803, -3.420693246880546e-05, 0.021588698029518127, 0.019703207537531853, 0.004451905842870474, -0.02376444824039936, 0.021372655406594276, -0.019743861630558968, 0.006478685885667801, -0.012784265913069248, -0.04159510135650635, 0.007268380839377642, 0.024544505402445793, -0.0035693219397217035, 0.015875620767474174, 6.352438504109159e-05, 0.005505595821887255, -0.02295464091002941, 0.02300754189491272, -0.011660238727927208, 0.008835033513605595, -0.0011747212847694755, 0.00404502684250474, 0.00969324167817831, 0.028874168172478676, 0.01938614621758461, 0.011542108841240406, -0.01677871309220791, 0.01985894702374935, 0.01761677861213684, -0.013813464902341366, -0.023576760664582253, 0.017445579171180725, -0.017309419810771942, -0.024454427883028984, -0.013228923082351685, 0.016940871253609657, 0.0002902841370087117, -0.018269957974553108, -0.0022123553790152073, 3.0221499400795437e-05, -0.020762600004673004, 0.02090493030846119, 0.01900394819676876, 0.005171270575374365, 0.004415321163833141, 0.017900412902235985, -0.0036611210089176893, -0.009174912236630917, -0.002836083760485053, 0.01991155743598938, -0.016892915591597557, 0.017037563025951385, -0.01780310831964016, 0.004595621023327112, -0.020120231434702873, 0.005520631559193134, -0.018734266981482506, 0.021493351086974144, -0.024356717243790627, -0.014055905863642693, -0.021530579775571823, 0.019614730030298233, -0.02037457376718521, 0.0022073863074183464, 0.0015531101962551475, -0.011917813681066036, -0.003863210789859295, 0.016626441851258278, -0.016204480081796646, 0.020192112773656845, 4.1543888073647395e-05, 0.021116532385349274, -0.02063021808862686, 0.026973959058523178, -0.016599128022789955, -0.024533934891223907, -0.028283078223466873, 0.015588448382914066, -0.02245185896754265, -0.020926032215356827, -0.0025491525884717703, 0.006676096003502607, -0.015924807637929916, 0.009873765520751476, 0.0006499582668766379, 0.01867804490029812, -0.022524723783135414, 0.00468686455860734, -0.015800386667251587, 0.0048120832070708275, -0.023040106520056725, 0.019404519349336624, -0.010283766314387321, 0.017712866887450218, -0.02366527169942856, -0.002997298026457429, -0.022279199212789536, 6.82383615639992e-05, -0.006657187361270189, 0.00633414089679718, 4.515426917350851e-05, 0.013225415721535683, -0.018663689494132996, 4.508434722083621e-05, 0.022250767797231674, -0.017370551824569702, -0.0262831412255764, 0.02329399064183235, -0.019829973578453064, 0.020802294835448265, 0.019315794110298157, -0.0037997213657945395, -0.003396704327315092, 0.0019780450966209173, -0.02129443734884262]], "sigmanet.nn.4.bias": [0.003198022022843361, 0.022801866754889488, -0.05512050911784172, 0.09258750081062317, -0.00357068027369678, 0.07232271134853363, -0.011691338382661343, 0.033266641199588776, -0.04455934837460518, -0.03912781924009323, -0.11658173054456711, -0.02073904499411583, 0.027021383866667747, 0.08373535424470901, 0.09820954501628876, 0.05154947191476822, 0.031823065131902695, -0.05006412789225578, -0.003220092738047242, 0.014791610650718212, 0.06971043348312378, 0.005472209304571152, -0.032910462468862534, -0.0030548914801329374, 0.22898271679878235, -0.16925455629825592, 0.08225331455469131, 0.08832944184541702, 0.0005366222467273474, -0.01606178656220436, -0.03265252709388733, 0.09229286015033722, 0.04636085033416748, -0.04804080352187157, -0.07706651091575623, -0.04527846351265907, 0.05958668887615204, 0.01637694425880909, 0.1379387527704239, 0.030279356986284256, 0.051212333142757416, 0.01928449608385563, -0.02091672457754612, 0.09579399228096008, 0.013112248852849007, 0.027510499581694603, 0.023618239909410477, 0.019945502281188965, 0.03529955446720123, -0.04564919322729111, 0.005924999713897705, 0.051255278289318085, -0.019509555771946907, -0.08740421384572983, 0.02816498838365078, 0.13157133758068085, 0.019182201474905014, 0.024760782718658447, 0.11766282469034195, 0.006593004334717989, 0.008333270438015461, -0.02102433331310749, 0.027310343459248543, 0.01987694948911667, 0.027630319818854332, -0.021424636244773865, -0.0066841598600149155, -0.051858801394701004, -0.04906333237886429, 0.04521879926323891, -0.006261647213250399, -0.004482918884605169, -0.029472608119249344, -0.0782804936170578, 0.06942856311798096, 0.0835672989487648, -0.0270211324095726, -0.06852740049362183, -0.0629054605960846, -0.08254629373550415, 0.06262363493442535, 0.04787969961762428, 0.10993792861700058, -0.013620671816170216, 0.06769625097513199, 0.022869065403938293, 0.07401822507381439, -0.06570472568273544, -0.07763906568288803, 0.09901876747608185, -0.023097621276974678, -0.006711771246045828, 0.013125969097018242, -0.04562516137957573, 0.008590190671384335, -0.034115005284547806, 0.04198797419667244, -0.048207465559244156, 0.12421077489852905, 0.017696935683488846, 0.03389596566557884, -0.00011084317520726472, -0.005840480327606201, -0.002109457738697529, 0.05673765018582344, 0.06938309222459793, -0.030833035707473755, -0.029084814712405205, 0.022361166775226593, -0.04228625446557999, 0.06516916304826736, 0.009464750997722149, 0.02069989964365959, 0.0389765240252018, -0.09209587424993515, 0.0662454143166542, -0.030023761093616486, -0.005897968076169491, 0.011645748279988766, -0.04585932940244675, 0.07640375196933746, 0.0342172272503376, -0.056025803089141846, -0.012039975263178349, -0.0018618062604218721, 0.051162175834178925, 0.08203928172588348, -0.04850969836115837], "sigmanet.nn.4.parametrizations.weight.original": [[-0.0028920145705342293, 0.010020730085670948, -0.00834070798009634, -0.008498898707330227, -0.008413754403591156, 0.008321872912347317, -0.004123393911868334, -0.007086355704814196, -0.010986609384417534, -0.010918489657342434, -0.010132682509720325, -0.008813625201582909, 0.007972643710672855, 0.00763208931311965, -0.00956936739385128, -0.00891014002263546, 0.0029790145345032215, 0.0028801425360143185, 0.008278020657598972, 0.004061482381075621, -0.012815683148801327, 0.011206678114831448, -0.006184672005474567, -0.00910935364663601, 0.008133149705827236, 0.006708001252263784, 0.007505591493099928, 0.009358113631606102, -0.008086208254098892, 0.003493891330435872, -0.0041504367254674435, 0.009794928133487701, -0.0030647728126496077, -0.0055157579481601715, -0.002958354540169239, 0.007591875270009041, -0.00982682965695858, -0.0041962661780416965, 0.005631809122860432, 0.0024299935903400183, 0.00839734822511673, 0.006006269250065088, -0.007206495851278305, 0.008592325262725353, -0.005544848740100861, -0.008025727234780788, -0.009871164336800575, 0.009495562873780727, -0.006314458325505257, -0.007734350394457579, 0.007669984363019466, 0.009399724192917347, 0.0035915833432227373, 0.006070021539926529, -0.003356748027727008, 0.007792218588292599, -0.008790858089923859, 0.007321435492485762, -0.0027449284680187702, 0.008616619743406773, -0.010325650684535503, -0.011352529749274254, -0.010381193831562996, 0.009518628008663654, -0.0035759154707193375, 0.007830032147467136, 0.006785176694393158, 0.009249545633792877, -0.0038485934492200613, 0.009285706095397472, -0.008404036052525043, -0.003361171344295144, -0.0032001317013055086, -0.007880721241235733, 0.006729172542691231, 0.010402960702776909, -0.008523305878043175, 0.0028722251299768686, -0.00855124182999134, -0.011063319630920887, -0.007771452888846397, 0.009616068564355373, -0.007904401049017906, 0.010395929217338562, -0.003939072135835886, 0.003994880244135857, -0.00787873100489378, -0.007486447226256132, -0.0054405913688242435, 0.002999778836965561, -0.007439285516738892, 0.008682874031364918, -0.009072394110262394, 0.009793858975172043, -0.0041148182936012745, -0.00831999909132719, -0.007747522089630365, -0.00999708753079176, -0.010191784240305424, -0.010094653815031052, 0.008287258446216583, 0.005698097869753838, -0.007070714607834816, -0.0066976528614759445, -0.01001525018364191, -0.00826939195394516, -0.01089607086032629, 0.009499958716332912, -0.009359613060951233, -0.007849362678825855, -0.006768002640455961, 0.003947964403778315, -0.008925123140215874, 0.004790687933564186, -0.009021230041980743, -0.008783640339970589, -0.00846213661134243, -0.003257162170484662, -0.004030146636068821, 0.0052037728019058704, -0.010592042468488216, 0.00976646225899458, -0.00919092632830143, -0.008603078313171864, -0.011252027936279774, 0.008458147756755352, -0.004424673039466143, 0.010532861575484276], [0.008564779534935951, -0.012438753619790077, 0.01281256414949894, 0.011196766048669815, 0.003652024082839489, -0.013152080588042736, 0.010942175053060055, 0.008072607219219208, 0.012158608064055443, 0.011090022511780262, 0.01019687857478857, 0.012577909044921398, -0.008512129075825214, -0.009933831170201302, 0.003828694811090827, 0.008980894461274147, -0.004005711060017347, -0.003670887090265751, -0.010330668650567532, -0.013121495954692364, 0.010895935818552971, -0.009216596372425556, 0.012963666580617428, 0.011615495197474957, -0.012811905704438686, -0.012502362951636314, -0.008428066968917847, -0.012420915067195892, 0.010681639425456524, -0.009955926798284054, 0.011712897568941116, -0.005472154356539249, 0.010874481871724129, 0.011738155037164688, 0.0031489823013544083, -0.01124322135001421, 0.009284157305955887, 0.011345422826707363, -0.00745783094316721, -0.003011767053976655, -0.012067797593772411, -0.010997269302606583, 0.012494808994233608, -0.003554068272933364, 0.011069378815591335, 0.010655945166945457, 0.012968516908586025, -0.010717377997934818, 0.01164413895457983, 0.010824205353856087, -0.010320995934307575, -0.0031342539004981518, -0.008343694731593132, -0.0038522942923009396, 0.013357287272810936, -0.01006957609206438, 0.008045803755521774, -0.011711637489497662, 0.010651914402842522, -0.010745805688202381, 0.011580041609704494, 0.013150177896022797, 0.012278194539248943, -0.010434875264763832, 0.011102530173957348, -0.011899805627763271, -0.004129812587052584, -0.0027437761891633272, 0.01164819672703743, -0.010342879220843315, 0.012681464664638042, 0.003752314718440175, 0.012708839029073715, 0.009942336939275265, -0.013255828991532326, -0.005231256131082773, 0.010403862223029137, -0.01118400227278471, 0.006650551687926054, 0.011514673009514809, 0.010634244419634342, -0.012893440201878548, 0.011812187731266022, -0.010200805962085724, 0.011719372123479843, -0.003201497718691826, 0.009413965977728367, 0.004386331420391798, 0.003911896143108606, -0.010680356062948704, 0.010047992691397667, -0.009561486542224884, 0.010033069178462029, -0.00971402321010828, 0.005527404136955738, 0.003919824026525021, 0.010546466335654259, 0.01138206198811531, 0.006334280129522085, 0.008522151038050652, -0.010394140146672726, -0.012689183466136456, 0.012755590490996838, 0.012449720874428749, 0.003177857492119074, 0.002839737804606557, 0.013081448152661324, -0.003377038286998868, 0.0030548544600605965, 0.010159255005419254, 0.0036307452246546745, -0.012798656709492207, 0.003164638765156269, -0.010787962935864925, 0.012753332033753395, 0.01177093107253313, 0.0034083810169249773, 0.011929266154766083, 0.013296923600137234, -0.0035885877441614866, 0.012042014859616756, -0.01136094145476818, 0.005101419519633055, 0.010886269621551037, 0.0033414687495678663, -0.011298724450170994, 0.012185401283204556, -0.009956211782991886], [-0.015127867460250854, 0.014629830606281757, -0.015485704876482487, -0.013476659543812275, -0.012606929987668991, 0.006421023979783058, -0.0035529518499970436, -0.010372467339038849, -0.006227031350135803, -0.0034460711758583784, -0.013654978945851326, -0.015503891743719578, 0.004065549932420254, 0.014064140617847443, -0.01662217639386654, -0.005186112131923437, 0.01329247560352087, 0.0070711527951061726, 0.013519048690795898, 0.016324449330568314, -0.013375416398048401, 0.006419912446290255, -0.014453358948230743, -0.01471751183271408, 0.014070030301809311, 0.016842013224959373, 0.012397460639476776, 0.0028596827760338783, -0.014853795990347862, 0.004782483913004398, -0.015254475176334381, 0.014738299883902073, -0.008692005649209023, -0.014366239309310913, -0.01448894664645195, 0.014493306167423725, -0.014325113967061043, -0.009325367398560047, 0.007082736119627953, 0.013456669636070728, 0.014231542125344276, 0.01341522391885519, -0.016805144026875496, 0.01662423461675644, -0.01426203828305006, -0.01609068177640438, -0.015888594090938568, 0.01530048344284296, -0.016139430925250053, -0.005361619405448437, 0.01303095743060112, 0.003307922510430217, 0.014587239362299442, 0.013817458413541317, -0.011071545071899891, 0.011117463931441307, -0.004580544773489237, 0.014713513664901257, -0.014628861099481583, 0.01261553168296814, -0.0031607842538505793, -0.013415049761533737, -0.017144430428743362, 0.015714971348643303, -0.014570783823728561, 0.011232642456889153, 0.004166378639638424, 0.014222255907952785, -0.002740036929026246, 0.009210232645273209, -0.0158744677901268, -0.004003807902336121, -0.010842942632734776, -0.0037856518756598234, 0.003738122060894966, 0.016039106994867325, -0.015251203440129757, 0.006448336876928806, -0.014021001756191254, -0.012763584032654762, -0.005555885843932629, 0.014287425205111504, -0.015273243188858032, 0.01424216665327549, -0.016114400699734688, 0.003249618923291564, -0.012859896756708622, -0.0035268645733594894, -0.016167251393198967, 0.014521495439112186, -0.016916561871767044, 0.013934560120105743, -0.0039030369371175766, 0.013040095567703247, -0.016950523480772972, -0.01307101733982563, -0.014172475785017014, -0.0046079414896667, -0.0037343096919357777, -0.012425039894878864, 0.005822743289172649, 0.01564943604171276, -0.01672624982893467, -0.014343722723424435, -0.017000626772642136, -0.016288230195641518, -0.013731081038713455, 0.016473596915602684, -0.014293422922492027, -0.014825196005403996, -0.004460130352526903, 0.013851293362677097, -0.01622575707733631, 0.003434633370488882, -0.013633524999022484, -0.01573489047586918, -0.015844447538256645, -0.015556203201413155, -0.019193140789866447, 0.004722777754068375, -0.013083050027489662, 0.012726339511573315, -0.003216956742107868, -0.015189986675977707, -0.003465520218014717, 0.016561957076191902, -0.016906697303056717, 0.016418660059571266], [0.013389109633862972, -0.014018209651112556, 0.010335837490856647, 0.010570812970399857, 0.01160095538944006, -0.00924747809767723, 0.006265839096158743, 0.010894304141402245, 0.009758343920111656, 0.014323546551167965, 0.003310044063255191, 0.009998605586588383, -0.009238324128091335, -0.004062223713845015, 0.00821282435208559, 0.008834848180413246, -0.009435211308300495, -0.012070097960531712, -0.003464958630502224, -0.0029007040429860353, 0.0063898805528879166, -0.011293989606201649, 0.0033156308345496655, 0.009864188730716705, -0.010653804987668991, -0.009554495103657246, -0.007993890903890133, -0.00424152659252286, 0.009492664597928524, -0.010186338797211647, 0.008231526240706444, -0.0028373748064041138, 0.0030170634854584932, 0.010265262797474861, 0.005553518421947956, -0.01481034979224205, 0.012553228996694088, 0.012060056440532207, -0.008014485239982605, -0.012861383147537708, -0.00875775795429945, -0.01122733112424612, 0.0106899319216609, -0.008712969720363617, 0.009245329536497593, 0.00879636313766241, 0.01297884900122881, -0.011718847788870335, 0.011295449919998646, 0.003320423187687993, -0.011020809412002563, -0.008807500824332237, -0.01110778283327818, -0.010231360793113708, 0.008380293846130371, -0.0044340770691633224, 0.007054856512695551, -0.008747393265366554, 0.01285890769213438, -0.0077384887263178825, 0.01320126187056303, 0.013216971419751644, 0.0024606219958513975, -0.012673750519752502, 0.0026226998306810856, -0.009139909408986568, -0.008960443548858166, -0.002764130709692836, 0.008035894483327866, -0.01013423502445221, 0.011577708646655083, 0.0035542144905775785, 0.009702231734991074, 0.0032946057617664337, -0.007051783613860607, -0.011987624689936638, 0.0027310887817293406, -0.010001648217439651, 0.010430863127112389, 0.01358788926154375, 0.011930983513593674, -0.008643566630780697, 0.010825609788298607, -0.0033240600023418665, 0.011032497510313988, -0.0029725641943514347, 0.011752615682780743, 0.003257331671193242, 0.005372223444283009, -0.01065185759216547, 0.0027445810846984386, -0.006724340841174126, 0.005524362437427044, -0.01371006015688181, 0.006686580833047628, 0.010620317421853542, 0.010687961243093014, 0.010238722898066044, 0.009499574080109596, 0.003932284656912088, -0.009274713695049286, -0.0029851249419152737, 0.006141107063740492, 0.003892284817993641, 0.010794050991535187, 0.007027472369372845, 0.012649822048842907, -0.00299255084246397, 0.012755068019032478, 0.011803918518126011, 0.003483756445348263, -0.01096437033265829, 0.011187225580215454, -0.0028936155140399933, 0.0025333301164209843, 0.010039185173809528, 0.005652211140841246, 0.003192714648321271, 0.0019003073684871197, -0.010225431062281132, 0.015527879819273949, -0.011119593866169453, 0.007751449942588806, 0.009535756893455982, 0.004852691199630499, -0.0032064937986433506, 0.003588311141356826, -0.007851377129554749], [-0.012382447719573975, 0.00513339601457119, -0.006729627028107643, -0.009591174311935902, -0.01220147404819727, 0.01049028243869543, -0.011902674101293087, -0.01120901107788086, -0.005198061466217041, -0.010929690673947334, -0.011958694085478783, -0.0030183130875229836, 0.010558659210801125, 0.013071342371404171, -0.009582698345184326, -0.010201779194176197, 0.007220849860459566, 0.0059056938625872135, 0.01282936055213213, 0.011117249727249146, -0.0038900382351130247, 0.007080200128257275, -0.010811657644808292, -0.012833861634135246, 0.012722479179501534, 0.01033646147698164, 0.010650845244526863, 0.008509094826877117, -0.003527109045535326, 0.013842619024217129, -0.01253740768879652, 0.010053210891783237, -0.012841605581343174, -0.006060814019292593, -0.012697527185082436, 0.0028632255271077156, -0.011599374935030937, -0.012049736455082893, 0.006819459144026041, 0.01019052229821682, 0.012337266467511654, 0.009602919220924377, -0.011574659496545792, 0.010005684569478035, -0.013099614530801773, -0.010667881928384304, -0.012119845487177372, 0.011014197953045368, -0.012619211338460445, -0.00919752474874258, 0.011899982579052448, 0.010063168592751026, 0.010441286489367485, 0.0037665963172912598, -0.011961251497268677, 0.01268472895026207, -0.007084693759679794, 0.01162759866565466, -0.006785961799323559, 0.009665071032941341, -0.01194942370057106, -0.00298004737123847, -0.011595165356993675, 0.011104674078524113, -0.011780519969761372, 0.012812511064112186, 0.006692330818623304, 0.009137144312262535, -0.011948969215154648, 0.008913775905966759, -0.012745335698127747, -0.0036619610618799925, -0.003530890913680196, -0.012716731056571007, 0.003406768897548318, 0.011552544310688972, -0.012480235658586025, 0.0030393716879189014, -0.003750690259039402, -0.012562583200633526, -0.010468292981386185, 0.010956618003547192, -0.012264975346624851, 0.005084983538836241, -0.009876218624413013, 0.003145649330690503, -0.010847104713320732, -0.01066355686634779, -0.012009050697088242, 0.013421682640910149, -0.01297660544514656, 0.0032184200827032328, -0.012039807625114918, 0.01151454821228981, -0.013279245235025883, -0.003812112845480442, -0.003354004817083478, -0.004189661704003811, -0.0035453634336590767, -0.00911788921803236, 0.003617489244788885, 0.011019276455044746, -0.007590136490762234, -0.010687734931707382, -0.012769368477165699, -0.0028255858924239874, -0.010430868715047836, 0.012825521640479565, -0.01158260740339756, -0.012411502189934254, -0.0040906816720962524, 0.0035958094522356987, -0.012447480112314224, 0.0137032987549901, -0.011044650338590145, -0.0055574700236320496, -0.004000405315309763, -0.010895399376749992, -0.01205635815858841, 0.011366304010152817, -0.010240851901471615, 0.010961493477225304, -0.011464923620223999, -0.011735891923308372, -0.012419193983078003, 0.0035709256771951914, -0.01108790747821331, 0.007830378599464893], [0.027198951691389084, -0.020797064527869225, 0.00373312970623374, 0.0036571628879755735, 0.02346006967127323, -0.01165881659835577, 0.027902692556381226, 0.028416454792022705, 0.0038777487352490425, 0.00897693820297718, 0.022360410541296005, 0.025908172130584717, -0.024205263704061508, -0.00432580104097724, 0.023572517558932304, 0.003916108515113592, -0.005721260793507099, -0.013053799979388714, -0.005098496098071337, -0.02622799389064312, 0.013858112506568432, -0.009915105998516083, 0.0064790756441652775, 0.026301739737391472, -0.024716123938560486, -0.003430686891078949, -0.02235206589102745, -0.027814116328954697, 0.0035034767352044582, -0.019874434918165207, 0.00414573960006237, -0.0030651274137198925, 0.025817662477493286, 0.02954232320189476, 0.0033918193075805902, -0.024733947589993477, 0.020687997341156006, 0.018325302749872208, -0.011975682340562344, -0.01902470923960209, -0.024265900254249573, -0.027291981503367424, 0.03365243226289749, -0.021253101527690887, 0.013147867284715176, 0.004560806788504124, 0.0034004130866378546, -0.024084610864520073, 0.029278963804244995, 0.020196935161948204, -0.004893413744866848, -0.02828878164291382, -0.004040942061692476, -0.020335271954536438, 0.025413701310753822, -0.02376767247915268, 0.009881427511572838, -0.025774158537387848, 0.019011657685041428, -0.005712243728339672, 0.022213341668248177, 0.015871938318014145, 0.0022368605714291334, -0.016379911452531815, 0.02305525541305542, -0.026359882205724716, -0.008098273538053036, -0.003970008809119463, 0.019264694303274155, -0.008715802803635597, 0.02833341248333454, 0.015383003279566765, 0.02475573495030403, 0.018362144008278847, -0.0038024703972041607, -0.023237470537424088, 0.0075899334624409676, -0.02607448771595955, 0.02156885154545307, 0.011857562698423862, 0.011292586103081703, -0.0010042571229860187, 0.0034470309037715197, -0.02201875112950802, 0.003380004083737731, -0.018133504316210747, 0.023887060582637787, 0.027724530547857285, 0.030934978276491165, -0.016086511313915253, 0.030883487313985825, -0.03180912137031555, 0.0037118166219443083, -0.01765602082014084, 0.003659444395452738, 0.01536724902689457, 0.03156960755586624, 0.01619541086256504, 0.024617968127131462, 0.020100221037864685, -0.021118827164173126, -0.030446959659457207, 0.0010603618575260043, 0.0038377854507416487, 0.029254943132400513, 0.017729636281728745, 0.02324608899652958, -0.024773450568318367, 0.0032180221751332283, 0.015460790134966373, 0.003970961552113295, -0.021599192172288895, 0.028882838785648346, -0.02633957378566265, 0.02539888396859169, 0.029146000742912292, 0.030992312356829643, 0.017602181062102318, 0.002845247508957982, -0.027606220915913582, 0.02450910210609436, -0.02068306691944599, 0.0029232946690171957, 0.004712049383670092, 0.027485962957143784, -0.02408985234797001, 0.010013492777943611, -0.003420404624193907], [-0.0030926079489290714, 0.009924691170454025, -0.004976947326213121, -0.0032910825684666634, -0.007122587878257036, 0.0060407789424061775, -0.003595574526116252, -0.007304228376597166, -0.0034180234652012587, -0.011122024618089199, -0.010262105613946915, -0.0030045814346522093, 0.0034985493402928114, 0.009311730042099953, -0.009601916186511517, -0.0071357423439621925, 0.010412098839879036, 0.008981220424175262, 0.0030727863777428865, 0.008507408201694489, -0.012059294618666172, 0.010826079174876213, -0.01006071362644434, -0.009117118082940578, 0.006976875476539135, 0.009350012987852097, 0.00329598574899137, 0.0027483513113111258, -0.009655378758907318, 0.009133468382060528, -0.01074718777090311, 0.00321157556027174, -0.007317825220525265, -0.009750884026288986, -0.008004200644791126, 0.007369518745690584, -0.0029183465521782637, -0.009038780815899372, 0.011197383515536785, 0.0035281777381896973, 0.007614230737090111, 0.006121637765318155, -0.0033501391299068928, 0.0032751145772635937, -0.009824883192777634, -0.005975264124572277, -0.009368267841637135, 0.009366455487906933, -0.006856787949800491, -0.006932369899004698, 0.009804505854845047, 0.0074149793945252895, 0.005196414887905121, 0.006500270217657089, -0.00843123160302639, 0.0030496164690703154, -0.0013766564661636949, 0.009171881712973118, -0.009342577308416367, 0.009749158285558224, -0.007553174626082182, -0.004234690684825182, -0.003064946038648486, 0.008864137344062328, -0.008115757256746292, 0.009628639556467533, 0.008107016794383526, 0.008919898420572281, -0.003982627764344215, 0.010263340547680855, -0.008261370472609997, -0.003395399311557412, -0.008291013538837433, -0.010183612816035748, 0.006307714153081179, 0.002939005848020315, -0.003095048712566495, 0.009654514491558075, -0.009030253626406193, -0.01320205070078373, -0.007871349342167377, 0.008262164890766144, -0.003317882539704442, 0.008932803757488728, -0.008806303143501282, 0.010026286356151104, -0.003403305308893323, -0.0037492793053388596, -0.0028681508265435696, 0.003309607971459627, -0.004430477973073721, 0.008729406632483006, -0.0035529504530131817, 0.007850086316466331, -0.0055650826543569565, -0.010357296094298363, -0.0030279201455414295, -0.008037243038415909, -0.0032956176437437534, -0.006935060024261475, 0.005532035604119301, 0.008434339426457882, -0.0029195479582995176, -0.009679567068815231, -0.007332781795412302, -0.009256499819457531, -0.010298000648617744, 0.009313816204667091, -0.01052930112928152, -0.004991049412637949, -0.010904654860496521, 0.008088468573987484, -0.008375965058803558, 0.009507181122899055, -0.002620468847453594, -0.009224260225892067, -0.007358475122600794, -0.009059496223926544, -0.009125231765210629, 0.0030056561809033155, -0.009055900387465954, 0.0076898676343262196, -0.002560203429311514, -0.006357977632433176, -0.0029870972502976656, 0.0033513077069073915, -0.00921957939863205, 0.008156301453709602], [-0.013778247870504856, 0.012520480901002884, -0.011028001084923744, -0.012609206140041351, -0.013456015847623348, 0.011852676048874855, -0.009646442718803883, -0.01048609334975481, -0.013080169446766376, -0.004006837960332632, -0.011499946936964989, -0.012504919432103634, 0.013521814718842506, 0.011333458125591278, -0.011912592686712742, -0.0111823296174407, 0.010153648443520069, 0.011906315572559834, 0.006790759041905403, 0.012924586422741413, -0.012141523882746696, 0.010098649188876152, -0.011224132031202316, -0.0033812657929956913, 0.003790720133110881, 0.013072625733911991, 0.011812673881649971, 0.012423223815858364, -0.01338580995798111, 0.011609873734414577, -0.012145383283495903, 0.010435009375214577, -0.01150509063154459, -0.011066523380577564, -0.006314616650342941, 0.013945313170552254, -0.0110023133456707, -0.0035653957165777683, 0.013117208145558834, 0.002582552144303918, 0.013408663682639599, 0.002932813484221697, -0.012107779271900654, 0.010096500627696514, -0.010888921096920967, -0.014492878690361977, -0.014351083897054195, 0.0027415414806455374, -0.01231286022812128, -0.010483479127287865, 0.012424107640981674, 0.0029717842116951942, 0.010469526052474976, 0.012553773820400238, -0.00964014045894146, 0.011510851792991161, -0.00532405823469162, 0.013240166008472443, -0.011487739160656929, 0.011398915201425552, -0.013586672954261303, -0.012775908224284649, -0.0041069891303777695, 0.003491251729428768, -0.012204602360725403, 0.010914997197687626, 0.012188905850052834, 0.003509393660351634, -0.011166628450155258, 0.009640970267355442, -0.010773160494863987, -0.011366971768438816, -0.004076414275914431, -0.012768896296620369, 0.0035422758664935827, 0.011569272726774216, -0.006039309315383434, 0.010084928944706917, -0.009473799727857113, -0.014524216763675213, -0.007625948172062635, 0.01306246593594551, -0.013529684394598007, 0.010638046078383923, -0.009928626008331776, 0.011928015388548374, -0.00975294690579176, -0.01290852576494217, -0.0033024633303284645, 0.0034105314407497644, -0.01133854128420353, 0.005201990716159344, -0.013058698736131191, 0.009213097393512726, -0.0034379835706204176, -0.012548701837658882, -0.003674826119095087, -0.003943677060306072, -0.012490191496908665, -0.00916541088372469, 0.009354821406304836, 0.0032667943742126226, -0.013495132327079773, -0.011566923931241035, -0.013387691229581833, -0.012896314263343811, -0.006194779649376869, 0.01269637979567051, -0.01442443486303091, -0.004411468748003244, -0.01126442477107048, 0.012195702642202377, -0.0035978315863758326, 0.0031621623784303665, -0.012732655741274357, -0.009502938017249107, -0.01055806316435337, -0.012609404511749744, -0.013709924183785915, 0.010540129616856575, -0.011537112295627594, 0.011226531118154526, -0.01284374576061964, -0.004408384207636118, -0.010856983251869678, 0.010696664452552795, -0.013468612916767597, 0.014189580455422401], [-0.019080931320786476, 0.003611897584050894, -0.011471631936728954, -0.015104135498404503, -0.00358932139351964, 0.018277866765856743, -0.017334898933768272, -0.018300382420420647, -0.017245646566152573, -0.001712186960503459, -0.01524856872856617, -0.019930530339479446, 0.016940226778388023, 0.019844582304358482, -0.003880059812217951, -0.0036214804276823997, 0.015905719250440598, 0.020885655656456947, 0.016909103840589523, 0.017386237159371376, -0.004983642604202032, 0.012403232045471668, -0.01707182638347149, -0.017893008887767792, 0.0034812556114047766, 0.020186608657240868, 0.01599164307117462, 0.019082561135292053, -0.0037024286575615406, 0.016410525888204575, -0.0036694034934043884, 0.015732023864984512, -0.01754095032811165, -0.0031339835841208696, -0.015300069004297256, 0.0027787701692432165, -0.003117435146123171, -0.0036250893026590347, 0.005496457684785128, 0.005540213081985712, 0.0032802459318190813, 0.019068870693445206, -0.003592534689232707, 0.013370778411626816, -0.017441999167203903, -0.017283156514167786, -0.016557782888412476, 0.002745821373537183, -0.019418876618146896, -0.01554787252098322, 0.016194025054574013, 0.01126033440232277, 0.014715608209371567, 0.012498023919761181, -0.016733461990952492, 0.017237739637494087, -0.007439242210239172, 0.005016679409891367, -0.0034694045316427946, 0.0116043072193861, -0.017293212935328484, -0.012205304577946663, -0.017740072682499886, 0.015704303979873657, -0.01580035127699375, 0.016650758683681488, 0.011068617925047874, 0.0030249259434640408, -0.014193017035722733, 0.009408282116055489, -0.0171382836997509, -0.013492366299033165, -0.003573361784219742, -0.014670795761048794, 0.016652164980769157, 0.0030894926749169827, -0.003173213452100754, 0.018071601167321205, -0.003684371942654252, -0.013852612115442753, -0.015037993900477886, 0.004372806753963232, -0.016566287726163864, 0.0034299888648092747, -0.003458428429439664, 0.014209003187716007, -0.003347003133967519, -0.01897306926548481, -0.003497427562251687, 0.015034466981887817, -0.0029249340295791626, 0.02203267626464367, -0.01652122661471367, 0.013315928168594837, -0.021466100588440895, -0.011839238926768303, -0.0034056573640555143, -0.004129347857087851, -0.0033667157404124737, -0.014209254644811153, 0.003427815856412053, 0.006428668275475502, -0.0029274183325469494, -0.0037716615479439497, -0.003083117539063096, -0.0028982653748244047, -0.015507367439568043, 0.0034266412258148193, -0.016904368996620178, -0.006200524512678385, -0.004972723312675953, 0.005167145282030106, -0.020011264830827713, 0.018044430762529373, -0.015556477010250092, -0.016160136088728905, -0.01858150027692318, -0.013910109177231789, -0.0031728167086839676, 0.01669522002339363, -0.005285102874040604, 0.008426032960414886, -0.019592005759477615, -0.014606074430048466, -0.0035541479010134935, 0.006957806646823883, -0.0038265082985162735, 0.0030182127375155687], [-0.003193468088284135, 0.015490682795643806, -0.0037623962853103876, -0.014808764681220055, -0.01714029535651207, 0.018835563212633133, -0.017101392149925232, -0.0029931175522506237, -0.013810739852488041, -0.003144169459119439, -0.003291501896455884, -0.018024234101176262, 0.00790135283023119, 0.011716705746948719, -0.01638456992805004, -0.012564430944621563, 0.015083812177181244, 0.003331829560920596, 0.015030749142169952, 0.018856700509786606, -0.0030699826311320066, 0.008579446002840996, -0.01644214615225792, -0.0036009829491376877, 0.0176011361181736, 0.004527457989752293, 0.011456022039055824, 0.016401216387748718, -0.0038588466122746468, 0.003631871659308672, -0.01304180733859539, 0.02045493945479393, -0.00850754790008068, -0.01738179288804531, -0.015257535502314568, 0.0028947286773473024, -0.015535330399870872, -0.016662679612636566, 0.005677760578691959, 0.005706468131393194, 0.0032942018005996943, 0.018820693716406822, -0.015950320288538933, 0.003518892452120781, -0.017067110165953636, -0.017481857910752296, -0.002768192207440734, 0.005396593362092972, -0.01824166066944599, -0.005273931194096804, 0.013929314911365509, 0.006928917020559311, 0.015222983434796333, 0.0037614547181874514, -0.011768185533583164, 0.003582604927942157, -0.010131635703146458, 0.01470975112169981, -0.01431458629667759, 0.009076950140297413, -0.003126912983134389, -0.002962173195555806, -0.014155294746160507, 0.015061215497553349, -0.003006366780027747, 0.01632622256875038, 0.01526566967368126, 0.017307855188846588, -0.003014374990016222, 0.0078084771521389484, -0.015578419901430607, -0.013203304260969162, -0.018890585750341415, -0.00373827014118433, 0.005209893453866243, 0.015566072426736355, -0.003081498434767127, 0.01612888276576996, -0.01600022241473198, -0.014186582528054714, -0.019136618822813034, 0.020052416250109673, -0.0032713301479816437, 0.016712944954633713, -0.014352036640048027, 0.013701578602194786, -0.014459689147770405, -0.017285281792283058, -0.01870587095618248, 0.014646228402853012, -0.0201362743973732, 0.003245085012167692, -0.01607196033000946, 0.0031530160922557116, -0.021339071914553642, -0.004157001152634621, -0.004061202518641949, -0.0041732871904969215, -0.01676850952208042, -0.008284235373139381, 0.016315486282110214, 0.016585443168878555, -0.01952461339533329, -0.01777654141187668, -0.003075774759054184, -0.005757983773946762, -0.007202610839158297, 0.0037098857574164867, -0.019303174689412117, -0.003927790094166994, -0.014245549216866493, 0.01712743006646633, -0.02066347375512123, 0.0038792439736425877, -0.01885846070945263, -0.0036152000539004803, -0.016064418479800224, -0.014714062213897705, -0.0030236034654080868, 0.014872042462229729, -0.013494063168764114, 0.0036980779841542244, -0.019034545868635178, -0.0053117298521101475, -0.016094446182250977, 0.00349449529312551, -0.017259903252124786, 0.018608948215842247], [-0.003206070512533188, 0.0024086583871394396, -0.0030049628112465143, -0.0008417077478952706, -0.00016945139213930815, 0.00030276685720309615, -0.002572391415014863, -0.0015527319628745317, -0.0015997763257473707, -0.0023430802393704653, -0.0005121289286762476, -0.00093602086417377, 0.0003325190918985754, 0.0003539910539984703, -0.00019385383347980678, -0.0050855642184615135, 6.389013287844136e-05, 0.000410461361752823, 0.0017399213975295424, 0.0007662056013941765, -0.004326872993260622, 0.007197195664048195, -0.00046652305172756314, -0.00038350032991729677, 0.0015140915056690574, 0.0008085520821623504, 0.000537554849870503, 0.0016242952551692724, -0.0002766433171927929, 0.00335639133118093, -0.001111655030399561, 0.0002797500928863883, -0.0014542582212015986, -0.003722294932231307, -0.0008224026532843709, 0.0012587871169671416, -0.0016704500885680318, -0.0005281491903588176, 0.005636742804199457, 0.0014705951325595379, 0.002327355556190014, 0.0017751421546563506, -0.0001935605687322095, 0.000715098634827882, -0.0025909729301929474, -0.0029820208437740803, -0.0019898233003914356, 0.002132844179868698, -0.005490380804985762, -0.00022757475380785763, 0.00020090353791601956, 0.00018208130495622754, 0.0011845554690808058, 0.0009917584247887135, -0.00491226464509964, 0.00041423452785238624, -0.004701985511928797, 0.0010092909215018153, -0.0005696034641005099, 0.005482077598571777, -0.002442313591018319, -0.0025062132626771927, -3.281993485870771e-05, 0.0025950504932552576, -0.000812105427030474, 0.0006713322945870459, 0.0019122917437925935, 0.0024344685953110456, -0.0009722388349473476, 0.008383776992559433, -0.0007828915258869529, -0.0077808694913983345, -0.0004243066068738699, -0.0019172620959579945, 0.0005784156383015215, 0.0002191848907386884, -0.0026847131084650755, 0.001018526148982346, -0.0031866892240941525, -0.00165285833645612, -0.002118926728144288, 0.0016412014374509454, -0.0016110630240291357, 0.002437406685203314, -0.0004749808576889336, 0.0004150283639319241, -0.0034704827703535557, -0.0022017788141965866, -0.0023300321772694588, 0.002955858362838626, -0.00015001646534074098, 0.0010241076815873384, -0.00031814933754503727, 0.0015121500473469496, -0.00014687604561913759, -0.0015989523380994797, -0.0003578965552151203, -0.0003094840212725103, -0.0006271689780987799, -0.006064666900783777, 0.000577898055780679, 0.0030715307220816612, -0.0006412560469470918, -0.0013064673403277993, -0.0035418409388512373, -0.00011080143303843215, -5.428199074231088e-05, 0.0004248291370458901, -0.0001624885480850935, -0.0002531390928197652, -0.0032303703483194113, 0.0006819007685407996, -0.0007842281484045088, 0.0023458851501345634, -0.0011673355475068092, -0.003373602870851755, -0.0012419259874150157, -0.0026999677065759897, -0.0006183100049383938, 0.002327547874301672, -0.0011500406544655561, 0.0007042962242849171, -0.0012396500678732991, -0.0005165956681594253, -0.0011095904046669602, 0.0011326648527756333, -0.0024048902560025454, 0.0008669151575304568], [-0.014422250911593437, 0.0034372967202216387, -0.00366299320012331, -0.014479195699095726, -0.014305084012448788, 0.01408317405730486, -0.003211761126294732, -0.013606779277324677, -0.013256857171654701, -0.012321211397647858, -0.0035050432197749615, -0.013260585255920887, 0.0038432106375694275, 0.0032827439717948437, -0.014798673801124096, -0.008519495837390423, 0.005004202947020531, 0.013641156256198883, 0.014254570938646793, 0.014350240118801594, -0.01360572874546051, 0.007178376894444227, -0.003867165418341756, -0.0032621189020574093, 0.014372349716722965, 0.013368808664381504, 0.0035408539697527885, 0.002841889625415206, -0.01552091259509325, 0.004179723560810089, -0.003815897973254323, 0.015951871871948242, -0.0033135840203613043, -0.013164949603378773, -0.010500986129045486, 0.003072204301133752, -0.0124086644500494, -0.01322861760854721, 0.008135274983942509, 0.014211184345185757, 0.01496285479515791, 0.014175542630255222, -0.0034333406947553158, 0.011778747662901878, -0.014600425027310848, -0.014455973170697689, -0.003130620811134577, 0.0028349338099360466, -0.0125045171007514, -0.004647527355700731, 0.0031723561696708202, 0.01426246389746666, 0.003388054668903351, 0.012492669746279716, -0.004856741987168789, 0.013828281313180923, -0.0014172532828524709, 0.013599244877696037, -0.014323657378554344, 0.0076735964976251125, -0.00324373971670866, -0.012835503555834293, -0.0026921224780380726, 0.011896299198269844, -0.002892660442739725, 0.00358037231490016, 0.011837278492748737, 0.014897753484547138, -0.004487372003495693, 0.007544768508523703, -0.0033333213068544865, -0.0034730785991996527, -0.0041081770323216915, -0.012266878969967365, 0.0034696178045123816, 0.014988821931183338, -0.013796246610581875, 0.009777268394827843, -0.011440631933510303, -0.012734007090330124, -0.0030938659328967333, 0.015390121378004551, -0.010301591828465462, 0.011576247401535511, -0.00464977789670229, 0.014488772489130497, -0.0033548937644809484, -0.0035418816842138767, -0.0035025852266699076, 0.0113211739808321, -0.01412803865969181, 0.0034249259624630213, -0.005445326212793589, 0.012814193032681942, -0.011398962698876858, -0.009668933227658272, -0.0034785885363817215, -0.010013607330620289, -0.0036616467405110598, -0.0035300240851938725, 0.011343196965754032, 0.006020042113959789, -0.015763506293296814, -0.005175768863409758, -0.014133037067949772, -0.005248665809631348, -0.015280776657164097, 0.014000846073031425, -0.016260188072919846, -0.010808522813022137, -0.014217514544725418, 0.0035900098737329245, -0.013720071874558926, 0.014282874763011932, -0.014965665526688099, -0.013619926758110523, -0.0033552974928170443, -0.012623307295143604, -0.00279882806353271, 0.003381851827725768, -0.013759267516434193, 0.01458897814154625, -0.016732946038246155, -0.009527471847832203, -0.015306002460420132, 0.0038893818855285645, -0.011093543842434883, 0.01581701450049877], [0.002595518948510289, -0.007083825767040253, 0.0027614114806056023, 0.0036247994285076857, 0.0030180003959685564, -0.0056244260631501675, 0.0023856444749981165, 0.002387999091297388, 0.009295678697526455, 0.008239811286330223, 0.007423460483551025, 0.0052830129861831665, -0.003880359698086977, -0.007571314927190542, 0.002877919003367424, 0.0036373601760715246, -0.0033581277821213007, -0.006969159469008446, -0.005930735729634762, -0.002556193619966507, 0.010568536818027496, -0.008109908550977707, 0.00551903061568737, 0.00553641002625227, -0.0024558345321565866, -0.003595807356759906, -0.003483557840809226, -0.010227984748780727, 0.002336672740057111, -0.005933609791100025, 0.0034018740989267826, -0.00600415701046586, 0.005362842231988907, 0.002787285251542926, 0.010452278889715672, -0.002724488964304328, 0.0029997890815138817, 0.009131952188909054, -0.013110526837408543, -0.012543205171823502, -0.0022648568265140057, -0.00825120322406292, 0.002769708866253495, -0.0026602628640830517, 0.00377238099463284, 0.007875382900238037, 0.01228087767958641, -0.008960658684372902, 0.0025705068837851286, 0.003191910218447447, -0.00929949153214693, -0.006658951751887798, -0.006609126925468445, -0.003671763464808464, 0.0026118082460016012, -0.00622786208987236, 0.008052129298448563, -0.010645910166203976, 0.01158070657402277, -0.010883951559662819, 0.011226624250411987, 0.0031635742634534836, 0.007152264472097158, -0.013488620519638062, 0.0025887652300298214, -0.0039881193079054356, -0.004953681956976652, -0.007840890437364578, 0.012248522602021694, -0.009368706494569778, 0.006845116149634123, 0.004072889685630798, 0.0026146217714995146, 0.009725580923259258, -0.007954937405884266, -0.009467104449868202, 0.0031316543463617563, -0.0030258249025791883, 0.005968709476292133, 0.008007768541574478, 0.0030592046678066254, -0.004317241720855236, 0.008227909915149212, -0.0059699309058487415, 0.008685892447829247, -0.006879560649394989, 0.0025329943746328354, 0.004572873003780842, 0.007318292744457722, -0.010922344401478767, 0.0037186318077147007, -0.005451539997011423, 0.0025570353027433157, -0.011464730836451054, 0.0010666274465620518, 0.0033814217895269394, 0.004329349845647812, 0.009326441213488579, 0.0061422912403941154, 0.0030882724095135927, -0.0032017615158110857, -0.004936510231345892, 0.00220970856025815, 0.003639133647084236, 0.007632463239133358, 0.006064290180802345, 0.0029746615327894688, -0.008699811063706875, 0.0025767460465431213, 0.0107965636998415, 0.0069190384820103645, -0.003157189814373851, 0.0024091661907732487, -0.0028333584778010845, 0.0024689333513379097, 0.004724299069494009, 0.002977518131956458, 0.010885615833103657, 0.0022276323288679123, -0.002269651275128126, 0.012532191351056099, -0.003143079811707139, 0.0026279124431312084, 0.0035250273067504168, 0.008422460407018661, -0.007482269778847694, 0.003233173629269004, -0.00720249954611063], [0.01679205521941185, -0.01567981392145157, 0.01594782993197441, 0.01217996422201395, 0.014589783735573292, -0.01633998192846775, 0.012781372293829918, 0.016326894983649254, 0.003430752083659172, 0.013186250813305378, 0.014518707990646362, 0.0029978950042277575, -0.0038985158316791058, -0.019138529896736145, 0.01281761098653078, 0.011512422934174538, -0.0033201398327946663, -0.0031675519421696663, -0.015744581818580627, -0.014149626716971397, 0.01303801592439413, -0.009839164093136787, 0.014467986300587654, 0.0033801705576479435, -0.014295809902250767, -0.017021577805280685, -0.01472766138613224, -0.017190052196383476, 0.014253164641559124, -0.00834535714238882, 0.003983957692980766, -0.015419929288327694, 0.012702740728855133, 0.017041493207216263, 0.010035254992544651, -0.017635971307754517, 0.012344054877758026, 0.013214624486863613, -0.005373082589358091, -0.013963029719889164, -0.014999463222920895, -0.0028686728328466415, 0.0036422726698219776, -0.0038236158434301615, 0.0032184640876948833, 0.014227799139916897, 0.0027551238890737295, -0.018223699182271957, 0.015381787903606892, 0.014249704778194427, -0.004059057217091322, -0.015156252309679985, -0.009901362471282482, -0.0034695779904723167, 0.014945096336305141, -0.0029731469694525003, 0.008430316112935543, -0.013357243500649929, 0.012361549772322178, -0.010439533740282059, 0.004939642269164324, 0.012611452490091324, 0.014225644059479237, -0.013022682629525661, 0.013970035128295422, -0.016924602910876274, -0.010763543657958508, -0.016406668350100517, 0.0025956814642995596, -0.010034244507551193, 0.01679191179573536, 0.01289345696568489, 0.015396361239254475, 0.011286028660833836, -0.013421078212559223, -0.013178233057260513, 0.003099172841757536, -0.0032028642017394304, 0.0032562026754021645, 0.013623044826090336, 0.01863161288201809, -0.017533162608742714, 0.015818268060684204, -0.007068275008350611, 0.015733683481812477, -0.006583500653505325, 0.0032658062409609556, 0.015626458451151848, 0.015600520186126232, -0.0035500049125403166, 0.015260567888617516, -0.012750709429383278, 0.013011768460273743, -0.0030222150962799788, 0.0031905046198517084, 0.011382612399756908, 0.014926458708941936, 0.014289649203419685, 0.014786304906010628, 0.0033658354077488184, -0.004757842049002647, -0.013972300104796886, 0.015689199790358543, 0.0035981100518256426, 0.0029395390301942825, 0.013846865855157375, 0.006053793244063854, -0.004597151186317205, 0.016815757378935814, 0.004108094610273838, 0.012521826662123203, -0.014302504248917103, 0.0177860576659441, -0.015330428257584572, 0.01759336329996586, 0.013137472793459892, 0.014306849800050259, 0.010013582184910774, 0.000581461179535836, -0.015251947566866875, 0.0032392980065196753, -0.014139089733362198, 0.0026684144977480173, 0.01176108792424202, 0.015805019065737724, -0.015604326501488686, 0.012857194058597088, -0.0029806476086378098], [0.004082639701664448, -0.020964207127690315, 0.006177096161991358, 0.02141491137444973, 0.010153528302907944, -0.003194664604961872, 0.010709309950470924, 0.003081138711422682, 0.015761900693178177, 0.004143292549997568, 0.0053857434540987015, 0.0017133301589637995, -0.0042436677031219006, -0.0047304523177444935, 0.004053234122693539, 0.019312264397740364, -0.023044897243380547, -0.0013524965615943074, -0.0038621528074145317, -0.009487559087574482, 0.014402846805751324, -0.0011281367624178529, 0.0038113819900900126, 0.0022596842609345913, -0.017088381573557854, -0.01063321903347969, -0.018223587423563004, -0.0010912902653217316, 0.004287902265787125, -0.02406347543001175, 0.022521382197737694, -0.0010917885228991508, 0.017505662515759468, 0.014865401200950146, 0.019341854378581047, -0.0026447537820786238, 0.018543312326073647, 0.00382382795214653, -0.00659809960052371, -0.0054068658500909805, -0.00499214930459857, -0.005505032371729612, 0.0036314248573035, -0.021069413051009178, 0.0035696362610906363, 0.000965873128734529, 0.0010763878235593438, -0.002944517182186246, 0.011890253983438015, 0.023421984165906906, -0.015145543031394482, -0.004814912565052509, -0.022622179239988327, -0.024830808863043785, 0.02016293630003929, -0.0032506308052688837, 0.006984602194279432, -0.0023499911185353994, 0.02200324833393097, -0.008309414610266685, 0.0207821074873209, 0.01421494409441948, 0.002226910786703229, -0.003206039546057582, 0.002916121855378151, -0.0013437026645988226, -0.003614726010710001, -0.0038630531635135412, 0.012243639677762985, -0.00956881046295166, 0.011147010140120983, 0.0035971575416624546, 0.0024089424405246973, 0.017084883525967598, -0.0038209566846489906, -0.003347724908962846, 0.001152054057456553, -0.0011074845679104328, 0.021931305527687073, 0.006916036829352379, 0.0024761375971138477, -0.0042176214046776295, 0.007856067270040512, -0.01878076232969761, 0.02212376706302166, -0.023335494101047516, 0.005202234722673893, 0.0034985002130270004, 0.002047069137915969, -0.003262259066104889, 0.006456059403717518, -0.004061972256749868, 0.003915786277502775, -0.02080382965505123, 0.0022371087688952684, 0.01779535599052906, 0.0022971576545387506, 0.016939880326390266, 0.004220106173306704, 0.024003779515624046, -0.021267903968691826, -0.010314665734767914, 0.002187464153394103, 0.005292171612381935, 0.0077276029624044895, 0.002833909820765257, 0.0010933565208688378, -0.0034054701682180166, 0.0012625675881281495, 0.0033968870993703604, 0.003949050325900316, -0.0037671125028282404, 0.0025314767844974995, -0.0046537634916603565, 0.00555583368986845, 0.0017363792285323143, 0.0034695863723754883, 0.0016406698850914836, 0.0030334964394569397, -0.015245260670781136, 0.002615794073790312, -0.02436518296599388, 0.0022639541421085596, 0.014880659990012646, 0.01068019587546587, -0.015111442655324936, 0.019371816888451576, -0.0023317942395806313], [0.017155349254608154, -0.0037605802062898874, 0.0037529398687183857, 0.013599465601146221, 0.013056797906756401, -0.015248176641762257, 0.013484932482242584, 0.0031210673041641712, 0.015964286401867867, 0.013795050792396069, 0.017067698761820793, 0.015317458659410477, -0.014207216911017895, -0.015809858217835426, 0.01271808985620737, 0.004009656608104706, -0.011239711195230484, -0.015062115155160427, -0.014175573363900185, -0.015813196077942848, 0.01253966148942709, -0.008285016752779484, 0.01654811203479767, 0.014907415956258774, -0.003628051606938243, -0.0034083547070622444, -0.014602496288716793, -0.01412251777946949, 0.003471940290182829, -0.015297061763703823, 0.013868538662791252, -0.01373661495745182, 0.015217713080346584, 0.015746204182505608, 0.01328149251639843, -0.014398890547454357, 0.011670233681797981, 0.012365610338747501, -0.006709206849336624, -0.014545951969921589, -0.016273919492959976, -0.012789161875844002, 0.016357559710741043, -0.003898391965776682, 0.01676538772881031, 0.00888929795473814, 0.015567794442176819, -0.016276396811008453, 0.01360099483281374, 0.012336380779743195, -0.0120665542781353, -0.003375291358679533, -0.014563191682100296, -0.0037676256615668535, 0.01583278179168701, -0.014833372086286545, 0.007662592455744743, -0.015026959590613842, 0.013853833079338074, -0.011476648971438408, 0.014711437746882439, 0.006711523048579693, 0.018437573686242104, -0.013149040751159191, 0.015026030130684376, -0.01617594063282013, -0.013919010758399963, -0.003966507967561483, 0.014055806212127209, -0.010457132011651993, 0.003258999204263091, 0.0037009932566434145, 0.0036459763068705797, 0.004190459381788969, -0.015659211203455925, -0.014213944785296917, 0.016782421618700027, -0.015131013467907906, 0.003987750504165888, 0.013428115285933018, 0.00561913987621665, -0.01676279865205288, 0.013013781048357487, -0.01356457732617855, 0.005115658976137638, -0.014694110490381718, 0.003439902327954769, 0.011084900237619877, 0.015613686293363571, -0.011663826182484627, 0.017320796847343445, -0.015094536356627941, 0.003650425700470805, -0.012000134214758873, 0.014661080203950405, 0.012476599775254726, 0.01614764705300331, 0.01535745058208704, 0.003444662783294916, 0.007856428623199463, -0.015258771367371082, -0.013645424507558346, 0.0038739964365959167, 0.004650230053812265, 0.017415815964341164, 0.015003624372184277, 0.015211783349514008, -0.004093831870704889, 0.017285292968153954, 0.014014123007655144, 0.014945195987820625, -0.012823310680687428, 0.01718037761747837, -0.003346269717440009, 0.003285043640062213, 0.014244893565773964, 0.016637500375509262, 0.0036504289600998163, 0.020807206630706787, -0.00472261244431138, 0.012880799360573292, -0.01337053719907999, 0.015556261874735355, 0.014721235260367393, 0.0034547571558505297, -0.010935027152299881, 0.003936316817998886, -0.003340907860547304], [-0.012027101591229439, 0.010949177667498589, -0.0032769583631306887, -0.009350646287202835, -0.009206235408782959, 0.012872956693172455, -0.0030321618542075157, -0.004969451576471329, -0.009893936105072498, -0.010785194113850594, -0.012557086534798145, -0.003414143342524767, 0.009996691718697548, 0.01178569346666336, -0.011210394091904163, -0.008105753920972347, 0.010270640254020691, 0.00926310196518898, 0.00931329932063818, 0.010390776209533215, -0.013195901177823544, 0.006481819786131382, -0.011809137649834156, -0.009745290502905846, 0.008087885566055775, 0.012246905826032162, 0.007807767018675804, 0.009752856567502022, -0.0034004938788712025, 0.003486412577331066, -0.009585913270711899, 0.012268047779798508, -0.00411798944696784, -0.009876986034214497, -0.010053176432847977, 0.00792750809341669, -0.008719281293451786, -0.006562612950801849, 0.004807270132005215, 0.013389762490987778, 0.011629542335867882, 0.009918516501784325, -0.01119470875710249, 0.010195876471698284, -0.00979711301624775, -0.012993330135941505, -0.01172723714262247, 0.013090759515762329, -0.00904120970517397, -0.011499493382871151, 0.011343960650265217, 0.012073187157511711, 0.004048787523061037, 0.003328448161482811, -0.011211519129574299, 0.010775038041174412, -0.008019577711820602, 0.0028327316977083683, -0.0121843870729208, 0.010169661603868008, -0.011752871796488762, -0.01262653898447752, -0.011879513040184975, 0.0030602070037275553, -0.010849544778466225, 0.003463578410446644, 0.007636829745024443, 0.00480374600738287, -0.012212978675961494, 0.009795334190130234, -0.01121039129793644, -0.010825368575751781, -0.010336779989302158, -0.0113564133644104, 0.00352796190418303, 0.010888846591114998, -0.01090974546968937, 0.010732083581387997, -0.009366955608129501, -0.01279623806476593, -0.01210237480700016, 0.01275378093123436, -0.004282519221305847, 0.008847983554005623, -0.008317471481859684, 0.00448577431961894, -0.009381714276969433, -0.012088269926607609, -0.009874858893454075, 0.010584528557956219, -0.0036176000721752644, 0.010680271312594414, -0.004491496365517378, 0.010147634893655777, -0.0034756369423121214, -0.011127154342830181, -0.010581874288618565, -0.009853383526206017, -0.004125016741454601, -0.008003480732440948, 0.012299150228500366, 0.0032875346951186657, -0.00969583448022604, -0.011655875481665134, -0.009795624762773514, -0.012574361637234688, -0.012041631154716015, 0.010294103994965553, -0.010942351073026657, -0.0033424145076423883, -0.003370494581758976, 0.009844755753874779, -0.009334283880889416, 0.011154708452522755, -0.011199918575584888, -0.01161453127861023, -0.011188255622982979, -0.008762141689658165, -0.012007620185613632, 0.01125985849648714, -0.01160136703401804, 0.010376268066465855, -0.011347600258886814, -0.0041716443374753, -0.009057757444679737, 0.01154683530330658, -0.00455652829259634, 0.010322893969714642], [-0.011033345945179462, 0.009123893454670906, -0.012447577901184559, -0.009282141923904419, -0.011141639202833176, 0.012472369708120823, -0.002967789536342025, -0.010888849385082722, -0.010685699991881847, -0.01278709713369608, -0.009214826859533787, -0.0033871298655867577, 0.006656845100224018, 0.004093011375516653, -0.010990405455231667, -0.003912460058927536, 0.012046845629811287, 0.006091834511607885, 0.009733217768371105, 0.0034902214538306, -0.003902363358065486, 0.01167090144008398, -0.011576463468372822, -0.008760331198573112, 0.011103669181466103, 0.006179079879075289, 0.0033998836297541857, 0.01116147730499506, -0.01309271715581417, 0.012527084909379482, -0.011472770012915134, 0.011383190751075745, -0.009173613041639328, -0.005815738346427679, -0.011482981033623219, 0.011091182008385658, -0.008849390782415867, -0.009062575176358223, 0.005618405528366566, 0.01110568456351757, 0.01156375277787447, 0.010951475240290165, -0.011421834118664265, 0.010347406379878521, -0.010651127435266972, -0.010675176978111267, -0.009606813080608845, 0.011794619262218475, -0.004525143653154373, -0.010221607983112335, 0.011312668211758137, 0.012871057726442814, 0.010256155394017696, 0.012812101282179356, -0.009202512912452221, 0.009430279955267906, -0.008191173896193504, 0.010659263469278812, -0.009894387796521187, 0.010629654861986637, -0.012550720013678074, -0.012821448966860771, -0.011163990013301373, 0.012290778569877148, -0.009949333034455776, 0.003540406236425042, 0.012396369129419327, 0.0027630396652966738, -0.010075775906443596, 0.010900507681071758, -0.011443362571299076, -0.011051026172935963, -0.0034134576562792063, -0.003670638892799616, 0.012397761456668377, 0.00989464670419693, -0.006203797645866871, 0.011026727966964245, -0.00946069322526455, -0.0017344144871458411, -0.009286483749747276, 0.011024722829461098, -0.012149741873145103, 0.011248311959207058, -0.012855308130383492, 0.010268005542457104, -0.00924265943467617, -0.006131753791123629, -0.007690838538110256, 0.008297869935631752, -0.005984791088849306, 0.003190332558006048, -0.003630642779171467, 0.011044382117688656, -0.010780264623463154, -0.005925769452005625, -0.007417360786348581, -0.013218962587416172, -0.006105117499828339, -0.008751975372433662, 0.01288045197725296, 0.010048327967524529, -0.0095905102789402, -0.00911199115216732, -0.003200060222297907, -0.012505020014941692, -0.00826223287731409, 0.011925437487661839, -0.010701357387006283, -0.01155276782810688, -0.003862473415210843, 0.012097612023353577, -0.010468787513673306, 0.010977749712765217, -0.010485392063856125, -0.011040900833904743, -0.003088976489380002, -0.004725953564047813, -0.009832262992858887, 0.01142254751175642, -0.003801593789830804, 0.01119004562497139, -0.008605081588029861, -0.012258561328053474, -0.01133914478123188, 0.012715366668999195, -0.005587090738117695, 0.010631459765136242], [-0.010511428117752075, 0.00743471272289753, -0.009881730191409588, -0.004283873364329338, -0.009296361356973648, 0.010558351874351501, -0.009574415162205696, -0.008178499527275562, -0.003496837802231312, -0.011612929403781891, -0.009260638616979122, -0.008610572665929794, 0.008992885239422321, 0.004915294237434864, -0.010492243804037571, -0.009927433915436268, 0.009828080423176289, 0.008281718008220196, 0.0029894281178712845, 0.007762125693261623, -0.012604000978171825, 0.010305767878890038, -0.008885120041668415, -0.006738655269145966, 0.011300725862383842, 0.002977878088131547, 0.009242691099643707, 0.009033890441060066, -0.003159324638545513, 0.008961351588368416, -0.007800809107720852, 0.0029629357159137726, -0.0032877898775041103, -0.009983155876398087, -0.003287416184321046, 0.0029727022629231215, -0.007448994088917971, -0.00820072740316391, 0.006477054208517075, 0.0023517378140240908, 0.010513095185160637, 0.010715310461819172, -0.006386074237525463, 0.010896367020905018, -0.0028109916020184755, -0.009164229966700077, -0.0036728931590914726, 0.008836856111884117, -0.007477816194295883, -0.010747624561190605, 0.007596221752464771, 0.003747472306713462, 0.0033347075805068016, 0.004025522153824568, -0.009255980141460896, 0.008834181353449821, -0.005494604352861643, 0.010159592144191265, -0.003871375462040305, 0.009069329127669334, -0.0030421032570302486, -0.012081064283847809, -0.009993352927267551, 0.012480036355555058, -0.006648130249232054, 0.009850960224866867, 0.003547071246430278, 0.009751565754413605, -0.011197741143405437, 0.01054785493761301, -0.009500945918262005, -0.00893048383295536, -0.010667113587260246, -0.012047016061842442, 0.0034321981947869062, 0.0029808450490236282, -0.009868313558399677, 0.008811235427856445, -0.009134327061474323, -0.012363450601696968, -0.008777853101491928, 0.010889985598623753, -0.009483516216278076, 0.011596081778407097, -0.0101149408146739, 0.011066615581512451, -0.009129862301051617, -0.009269678965210915, -0.009457424283027649, 0.007961602881550789, -0.009419135749340057, 0.01012218464165926, -0.010961351916193962, 0.009125611744821072, -0.010691813193261623, -0.010303203016519547, -0.007761489134281874, -0.010009114630520344, -0.00878014788031578, -0.007975798100233078, 0.007702853064984083, 0.0029348020907491446, -0.008063132874667645, -0.00797426700592041, -0.002795617328956723, -0.010571750812232494, -0.01073188241571188, 0.0032570217736065388, -0.006659840699285269, -0.012285551987588406, -0.003455805592238903, 0.009756898507475853, -0.002904516411945224, 0.007800563238561153, -0.0028242345433682203, -0.008983523584902287, -0.007857846096158028, -0.0037024887278676033, -0.00891111046075821, 0.0064160507172346115, -0.008797095157206059, 0.009669031947851181, -0.009016870521008968, -0.011717776767909527, -0.009359795600175858, 0.010069206357002258, -0.011286621913313866, 0.002649999689310789], [-0.00973166897892952, 0.009637956507503986, -0.008554011583328247, -0.004200454335659742, -0.007420751266181469, 0.010487847030162811, -0.007912279106676579, -0.009211202152073383, -0.009956744499504566, -0.012123797088861465, -0.01034335047006607, -0.009222512133419514, 0.003665041411295533, 0.003106861375272274, -0.010645807720720768, -0.004848593380302191, 0.0035283793695271015, 0.01084753405302763, 0.007318688090890646, 0.009178192354738712, -0.01267150416970253, 0.0061115543358027935, -0.00674371886998415, -0.007516966667026281, 0.009124639444053173, 0.008216971531510353, 0.004985992331057787, 0.009490950964391232, -0.009585498832166195, 0.010347435250878334, -0.0035951153840869665, 0.010739758610725403, -0.008346074260771275, -0.008333630859851837, -0.00316123035736382, 0.002765193348750472, -0.007407135330140591, -0.007341849617660046, 0.006806736811995506, 0.007409303914755583, 0.010399320162832737, 0.008503817021846771, -0.0036593913100659847, 0.0035658394917845726, -0.009203867986798286, -0.010289312340319157, -0.012206153944134712, 0.008915780112147331, -0.009766167029738426, -0.003056254470720887, 0.010694030672311783, 0.008191485889256, 0.009540489874780178, 0.00912445317953825, -0.0052509610541164875, 0.008800368756055832, -0.005553774535655975, 0.0028874590061604977, -0.005944232922047377, 0.006506543606519699, -0.002933710580691695, -0.010522707365453243, -0.010411636903882027, 0.006549551151692867, -0.00832089688628912, 0.007260037586092949, 0.009481187909841537, 0.006182429380714893, -0.010962809436023235, 0.009713731706142426, -0.007710678968578577, -0.010896295309066772, -0.008496209979057312, -0.002729768166318536, 0.00396338663995266, 0.011090803891420364, -0.003190181218087673, 0.0030770169105380774, -0.0037941019982099533, -0.012667705304920673, -0.0033355453051626682, 0.0027162625920027494, -0.008227009326219559, 0.010272573679685593, -0.0030943097081035376, 0.005841923877596855, -0.0032306048087775707, -0.0031388895586133003, -0.007964584045112133, 0.010949171148240566, -0.00807607639580965, 0.003067684592679143, -0.004162263125181198, 0.010093732737004757, -0.009264389052987099, -0.009146170690655708, -0.008507848717272282, -0.0038977754302322865, -0.008449998684227467, -0.010543220676481724, 0.008156340569257736, 0.007822902873158455, -0.007885735481977463, -0.003489862196147442, -0.011033093556761742, -0.009085912257432938, -0.010742983780801296, 0.007395812775939703, -0.010998064652085304, -0.008836908265948296, -0.011306471191346645, 0.0034266465809196234, -0.0028426863718777895, 0.010481022298336029, -0.010000292211771011, -0.008671030402183533, -0.007982240989804268, -0.007156481966376305, -0.009040910750627518, 0.008434239774942398, -0.009146041236817837, 0.008848287165164948, -0.009996217675507069, -0.008825535885989666, -0.005471809301525354, 0.01076070498675108, -0.00931526068598032, 0.010223299264907837], [0.015166967175900936, -0.0036805111449211836, 0.007673155050724745, 0.01481623388826847, 0.015179366804659367, -0.003314931644126773, 0.013970675878226757, 0.015616287477314472, 0.015123256482183933, 0.012720635160803795, 0.0145106241106987, 0.01631055772304535, -0.003996456973254681, -0.0032913379836827517, 0.0081836748868227, 0.011888421140611172, -0.005832933820784092, -0.017252953723073006, -0.014654367230832577, -0.014474861323833466, 0.009275022894144058, -0.009838092140853405, 0.01736697182059288, 0.003161880886182189, -0.017532572150230408, -0.012355923652648926, -0.014264101162552834, -0.010865126736462116, 0.01631936989724636, -0.01414501667022705, 0.012812573462724686, -0.01510598324239254, 0.01571110263466835, 0.013975603505969048, 0.013931205496191978, -0.015185351483523846, 0.012445448897778988, 0.01320312824100256, -0.0015980011085048318, -0.01512768305838108, -0.015836482867598534, -0.01691947691142559, 0.01755199395120144, -0.004537343978881836, 0.003428504802286625, 0.002719481475651264, 0.01562720723450184, -0.0029620195273309946, 0.01587313413619995, 0.015821577981114388, -0.015812285244464874, -0.0037615022156387568, -0.003476630197837949, -0.015772823244333267, 0.01496016327291727, -0.015019943937659264, 0.004185122903436422, -0.01612127013504505, 0.003086999524384737, -0.013157634064555168, 0.016825690865516663, 0.013391689397394657, 0.0027795119676738977, -0.014850938692688942, 0.014692701399326324, -0.01625557616353035, -0.016147660091519356, -0.015324359759688377, 0.013490396551787853, -0.010218621231615543, 0.011720536276698112, 0.013650812208652496, 0.016404805704951286, 0.01577981561422348, -0.017794711515307426, -0.014909948222339153, 0.014511814340949059, -0.01643809862434864, 0.014156918972730637, 0.005051236599683762, 0.015133694745600224, -0.01781105063855648, 0.013502641580998898, -0.013847378082573414, 0.0077330186031758785, -0.013857392594218254, 0.0075816079042851925, 0.015640493482351303, 0.015890350565314293, -0.014162352308630943, 0.012207424268126488, -0.01665053516626358, 0.006382748018950224, -0.014186819083988667, 0.0176252294331789, 0.010842469520866871, 0.017018277198076248, 0.012638055719435215, 0.014519362710416317, 0.00425881939008832, -0.01369731780141592, -0.003534038783982396, 0.018429165706038475, 0.01685226708650589, 0.01497756689786911, 0.01667296513915062, 0.017123611643910408, -0.015462611801922321, 0.01668769121170044, 0.012566203251481056, 0.016070256009697914, -0.015574902296066284, 0.016241133213043213, -0.017983626574277878, 0.01427438948303461, 0.01613290049135685, 0.01562700793147087, 0.016131000593304634, 0.00317178713157773, -0.010860633105039597, 0.013658844865858555, -0.003616492496803403, 0.018095865845680237, 0.015442020259797573, 0.004983582068234682, -0.003513922682031989, 0.003878049785271287, -0.017104152590036392], [0.013952136971056461, -0.011786681599915028, 0.013385000638663769, 0.012942317873239517, 0.01095513440668583, -0.01189797930419445, 0.011090564541518688, 0.012590847909450531, 0.014588377438485622, 0.012505593709647655, 0.0039091892540454865, 0.012834478169679642, -0.00500974478200078, -0.012705856934189796, 0.013239609077572823, 0.012299098074436188, -0.012863184325397015, -0.014708654023706913, -0.011648396030068398, -0.01450938917696476, 0.012528893537819386, -0.009619886986911297, 0.0035331009421497583, 0.012260383926331997, -0.011879951693117619, -0.01156203169375658, -0.011464672163128853, -0.012800096534192562, 0.01224071066826582, -0.014381183311343193, 0.011605704203248024, -0.008232194930315018, 0.011860239319503307, 0.011535304598510265, 0.013614865951240063, -0.002870461205020547, 0.013322265818715096, 0.01293450128287077, -0.0019191784085705876, -0.012632743455469608, -0.01494884118437767, -0.011559369042515755, 0.013889281079173088, -0.011703956872224808, 0.013177459128201008, 0.002787137869745493, 0.012840881943702698, -0.0029256711713969707, 0.003429482225328684, 0.010984079912304878, -0.009433538652956486, -0.014966428279876709, -0.011864639818668365, -0.012249704450368881, 0.013546917587518692, -0.012088887393474579, 0.004875037353485823, -0.0030980901792645454, 0.012175521813333035, -0.011882607825100422, 0.013707198202610016, 0.006504075601696968, 0.015262585133314133, -0.013150045648217201, 0.013006304390728474, -0.012922572903335094, -0.005048445425927639, -0.002746167592704296, 0.011639946140348911, -0.009480117820203304, 0.009290385991334915, 0.013850593939423561, 0.01209432166069746, 0.01396955270320177, -0.013895219191908836, -0.012731430120766163, 0.011647062376141548, -0.0031162232626229525, 0.012580814771354198, 0.012120972387492657, 0.01403189729899168, -0.01480137463659048, 0.011516585014760494, -0.0034057842567563057, 0.011197032406926155, -0.012795128859579563, 0.01008776668459177, 0.014031930826604366, 0.01291603036224842, -0.011014558374881744, 0.009506044909358025, -0.008651620708405972, 0.011460521258413792, -0.003072262741625309, 0.014549894258379936, 0.004173039924353361, 0.014586908742785454, 0.004452846013009548, 0.0106829097494483, 0.011206657625734806, -0.013899298384785652, -0.011759607121348381, 0.0077016642317175865, 0.01064671203494072, 0.01246115006506443, 0.013184379786252975, 0.012832021340727806, -0.012704819440841675, 0.013203649781644344, 0.0110842389985919, 0.010977689176797867, -0.014421234838664532, 0.013557985424995422, -0.014832885935902596, 0.012563497759401798, 0.013417801819741726, 0.014523301273584366, 0.0036770745646208525, 0.016122186556458473, -0.012495547533035278, 0.005382002331316471, -0.010744545608758926, 0.011330284178256989, 0.004193178378045559, 0.01267385296523571, -0.003447053488343954, 0.013130688108503819, -0.011739729903638363], [-0.006203073542565107, 0.01318557932972908, -0.011977020651102066, -0.0033244863152503967, -0.009702320210635662, 0.012431779876351357, -0.012444610707461834, -0.00903330184519291, -0.011449864134192467, -0.011293759569525719, -0.013121410273015499, -0.010723631829023361, 0.009886680170893669, 0.009990562684834003, -0.0037236306816339493, -0.013561121188104153, 0.010462233796715736, 0.012433649972081184, 0.010729807429015636, 0.012502581812441349, -0.012048285454511642, 0.01018984243273735, -0.008780363015830517, -0.0122174471616745, 0.003493843600153923, 0.006668720860034227, 0.0049872808158397675, 0.0029310034587979317, -0.010831099934875965, 0.003602973883971572, -0.013234179466962814, 0.00969538651406765, -0.013686016201972961, -0.011583547107875347, -0.011505660600960255, 0.010658834129571915, -0.008299575187265873, -0.003791146446019411, 0.011921714060008526, 0.005365297663956881, 0.004058048129081726, 0.003271157154813409, -0.004545103292912245, 0.013795456849038601, -0.009900867007672787, -0.009972227737307549, -0.010185936465859413, 0.011699856258928776, -0.0037904279306530952, -0.003458613995462656, 0.010854600928723812, 0.0111154830083251, 0.009119919501245022, 0.012465616688132286, -0.009875926189124584, 0.01209341362118721, -0.008644080720841885, 0.012310541234910488, -0.0030299380887299776, 0.012110915966331959, -0.011437522247433662, -0.012215560302138329, -0.009985583834350109, 0.012806059792637825, -0.011659150943160057, 0.011723656207323074, 0.012185139581561089, 0.007631275802850723, -0.011623209342360497, 0.008313489146530628, -0.003131411038339138, -0.011407914571464062, -0.013135887682437897, -0.005210736766457558, 0.0039483727887272835, 0.0031130642164498568, -0.003614341141656041, 0.010439149104058743, -0.009654171764850616, -0.005069174338132143, -0.010906076058745384, 0.01009444985538721, -0.011008373461663723, 0.012304353527724743, -0.011289614252746105, 0.010250321589410305, -0.012614559382200241, -0.011724213138222694, -0.013067743740975857, 0.012630825862288475, -0.0031255020294338465, 0.01211569644510746, -0.00812468584626913, 0.008560827001929283, -0.010230590589344501, -0.004140913952142, -0.0032932942267507315, -0.013584412634372711, -0.012498208321630955, -0.011469472199678421, 0.0128103569149971, 0.010490905493497849, -0.003067811019718647, -0.011980585753917694, -0.0108170285820961, -0.01083623431622982, -0.011218532919883728, 0.012866695411503315, -0.0035858573392033577, -0.012585258111357689, -0.012392938137054443, 0.01258664857596159, -0.0040488895028829575, 0.01111573725938797, -0.0028957556933164597, -0.009933046996593475, -0.013291568495333195, -0.012023462913930416, -0.0030217384919524193, 0.009499319829046726, -0.011181085370481014, 0.009070592001080513, -0.01178653072565794, -0.005211829673498869, -0.009764336049556732, 0.006992620881646872, -0.008210963569581509, 0.012291256338357925], [0.013423766940832138, -0.010152055881917477, 0.010787601582705975, 0.008611916564404964, 0.003063000738620758, -0.0032775409054011106, 0.009653243236243725, 0.011547562666237354, 0.009721491485834122, 0.01254973467439413, 0.012861795723438263, 0.009800375439226627, -0.010012399405241013, -0.013654788956046104, 0.010920580476522446, 0.003616045229136944, -0.005981911905109882, -0.01211290992796421, -0.009993533603847027, -0.002896188059821725, 0.0028939705807715654, -0.008222549222409725, 0.008110824972391129, 0.011243950575590134, -0.008720897138118744, -0.0029552660416811705, -0.009709273464977741, -0.012752602808177471, 0.0105382539331913, -0.012259893119335175, 0.003478096332401037, -0.010455891489982605, 0.01145382784307003, 0.010388433001935482, 0.0038358825258910656, -0.0025130482390522957, 0.010610733181238174, 0.011007462628185749, -0.006714422255754471, -0.0024350236635655165, -0.005723474081605673, -0.014051960781216621, 0.007669871207326651, -0.003198257414624095, 0.0028995235916227102, 0.014915641397237778, 0.015156587585806847, -0.006856969092041254, 0.011465239338576794, 0.011899452656507492, -0.010824482887983322, -0.012516799382865429, -0.010150516405701637, -0.003374742576852441, 0.003226678818464279, -0.0032319447491317987, 0.004781623370945454, -0.01206850167363882, 0.012073737569153309, -0.009740402922034264, 0.011295436881482601, 0.0011909177992492914, 0.014651759527623653, -0.004604893270879984, 0.012337984517216682, -0.010454529896378517, -0.003382995957508683, -0.013099665753543377, 0.013576335273683071, -0.009118425659835339, 0.010802567936480045, 0.0035886545665562153, 0.002999252872541547, 0.009761206805706024, -0.003336358582600951, -0.0028601139783859253, 0.01375508215278387, -0.010380779393017292, 0.008500554598867893, 0.0017909075831994414, 0.013448724523186684, -0.014438441954553127, 0.005368509329855442, -0.0061395070515573025, 0.0031744802836328745, -0.010259567759931087, 0.008771175518631935, 0.0029924879781901836, 0.0030879194382578135, -0.011536341160535812, 0.0118710333481431, -0.010303519666194916, 0.009778191335499287, -0.011864788830280304, 0.007221126463264227, 0.004061340354382992, 0.01072323601692915, 0.012095034122467041, 0.009293372742831707, 0.009156329557299614, -0.011468920856714249, -0.00996506679803133, 0.0026628465857356787, 0.012720631435513496, 0.011106794700026512, 0.012758827768266201, 0.010791115462779999, -0.0031442693434655666, 0.013818612322211266, 0.003351916093379259, 0.0035231763031333685, -0.010870903730392456, 0.010981069877743721, -0.011010837741196156, 0.013247969560325146, 0.010172226466238499, 0.008527593687176704, 0.0032068113796412945, 0.002593887969851494, -0.00284514925442636, 0.004668698646128178, -0.01244660746306181, 0.010981625877320766, 0.011317646130919456, 0.011732012964785099, -0.011477469466626644, 0.011895865201950073, -0.012513088062405586], [-0.005762236658483744, 0.003711252473294735, -0.004395926836878061, -0.005471627227962017, -0.0068955994211137295, 0.004706436302512884, -0.006833711639046669, -0.005737606901675463, -0.007907685823738575, -0.006081851199269295, -0.0033207442611455917, -0.0070621557533741, 1.9144414181937464e-05, 0.0061690788716077805, -0.003981143701821566, -0.004010163247585297, 0.007713720202445984, 0.004601764492690563, 0.0021933894604444504, 0.0038923011161386967, -0.00016896410670597106, 0.00028009849484078586, -0.007039705757051706, -0.005083305761218071, 0.008382182568311691, 0.0046667736023664474, 0.0057738483883440495, 0.004421427845954895, -0.006818021647632122, 0.004659170284867287, -0.007807061076164246, 0.00606341939419508, -0.0049283467233181, -0.0045695835724473, -0.0037311443593353033, 0.003469690913334489, -0.0037543626967817545, -0.00401057954877615, 0.16769838333129883, 0.00023863317619543523, 0.0060998559929430485, 0.003309153253212571, -0.004275199957191944, 0.00463120499625802, -0.00784907303750515, -0.003487642388790846, -0.005194186232984066, 0.00380925415083766, -0.002246525138616562, -0.006611190270632505, 0.006111389026045799, 0.004627612419426441, 0.006163834594190121, 0.005403206218034029, -0.0001861233322415501, 3.218593337805942e-05, -0.1744174212217331, 0.004109471570700407, -0.0024960872251540422, 0.000552611134480685, -0.004018876235932112, -0.0005397751228883862, -0.004229767248034477, 0.003107602009549737, -0.006305048707872629, 0.00498935766518116, 0.008144781924784184, 0.003643967676907778, -0.005013715475797653, 1.6727728507248685e-05, -0.0037226160056889057, -0.0055357119999825954, -0.004373976495116949, -0.0077850716188549995, 0.005048582796007395, 0.0034109430853277445, -0.0014568615006282926, 0.00011884022387675941, -0.004220781847834587, -0.0035365468356758356, -0.0037676484789699316, 0.0027279225178062916, -0.004237592685967684, 0.007682554889470339, -0.007628356106579304, 0.006275827065110207, -0.0046648988500237465, -0.004553793929517269, -0.004678068682551384, 0.004596770275384188, -0.004219801165163517, 0.004054282791912556, -0.00380946253426373, 0.005068418104201555, -0.007116533815860748, -0.0032338881865143776, -0.006440449971705675, -0.005432533100247383, -0.0047418889589607716, -0.006756952032446861, 0.006471436005085707, 0.004352957475930452, -6.671202572761104e-05, -0.004796410910785198, -0.0036244047805666924, -0.0052681309171020985, -0.00427969777956605, 0.006691895890980959, -0.0007242705905809999, -0.003339851973578334, -0.007473133038729429, 0.007245044223964214, -0.004075237549841404, 0.007762523368000984, -0.0030645085498690605, -0.004039878025650978, -0.005473272874951363, -0.006089974660426378, -0.003511351766064763, 0.004284293856471777, -0.0030805773567408323, 0.004142604302614927, -0.0032947512809187174, -0.005835463292896748, -2.1194144210312515e-05, 0.006821711082011461, -0.006413417402654886, 0.0037180520594120026], [0.004059650935232639, -0.004471630323678255, 0.0046723512932658195, 0.006199195981025696, 0.00047472724691033363, -0.004020725842565298, 0.0028314022347331047, 0.0028330874629318714, 0.005634886212646961, 0.007144751492887735, 0.00746846804395318, 0.0046010613441467285, -0.008031392470002174, -0.003960511181503534, 0.00028457585722208023, 0.005830195266753435, -0.003955005202442408, -0.004035587888211012, -0.00629124091938138, -0.0042545911855995655, 0.0003547601809259504, -0.00044889640412293375, 0.0035976271610707045, 0.0036748319398611784, -0.00039327406557276845, -0.004268657881766558, -0.005329581908881664, -0.0038780176546424627, 0.006851767655462027, -0.007444128394126892, 0.008069902658462524, -0.004176854621618986, 0.008198404684662819, 0.004198615904897451, 0.0054053873755037785, -0.0006453876849263906, 0.006261721719056368, 0.004212087951600552, -0.16594548523426056, -0.00010570599988568574, -0.006466291844844818, -0.0035565190482884645, 0.007226930931210518, -0.0072984653525054455, 0.00012195599265396595, 0.0031964608933776617, 0.002701874589547515, -0.004883426241576672, 0.004159369971603155, 0.004656615201383829, -0.004457996226847172, -0.004090810660272837, -0.004515917040407658, -0.004545730538666248, 0.005036395508795977, -0.00030390816391445696, 0.15321874618530273, -0.004983334336429834, 0.003106163116171956, -0.0006174196605570614, 0.005899523384869099, 0.0006817169487476349, 0.003927590325474739, -0.0035995447542518377, 0.0034551199059933424, -0.004609759896993637, -0.004763516131788492, -0.0033491337671875954, 0.005193864461034536, -0.006890063174068928, 0.001717094797641039, 0.007085153833031654, 0.005902293603867292, 0.008171210065484047, -0.008774801157414913, -0.0033743781968951225, 0.007397668436169624, -0.004522111266851425, 0.006589427124708891, 0.0037448168732225895, 0.007192322053015232, -0.003642715746536851, 0.003944952506572008, -0.007971680723130703, 0.004733395297080278, -0.006254449021071196, 0.004894853103905916, 0.003539197612553835, 0.0046710786409676075, -0.004084257874637842, 0.002528308192268014, -0.004191289655864239, 0.00430831266567111, -0.004185810219496489, 0.007836331613361835, 0.00868223886936903, 0.0002602342574391514, 0.009684576652944088, 0.004745021928101778, 0.0049680257216095924, -0.007899654097855091, -0.005300805903971195, 0.006895844358950853, 0.007719238754361868, 0.006865026894956827, 0.004681456834077835, 0.004222431685775518, -0.006709843873977661, 0.0037214045878499746, 0.004118478856980801, 0.007821176201105118, -0.004225427284836769, 0.007576745469123125, -0.004435671493411064, 0.005385774187743664, 0.0037841142620891333, 0.004152572713792324, 0.00321400654502213, 0.0003103512863162905, -0.00395074300467968, 0.00330199021846056, -0.004101403523236513, 0.003948407247662544, 0.00020425549882929772, 0.004179900046437979, -0.004586783237755299, 0.004935713484883308, -0.0042143757455050945], [0.004256082698702812, -0.009175027720630169, 0.026604538783431053, 0.02900528535246849, 0.027461940422654152, -0.001215015654452145, 0.02436593361198902, 0.006926882080733776, 0.028128352016210556, 0.003124191891402006, 0.0037480846513062716, 0.004034711513668299, -0.02533755823969841, -0.001063522300682962, 0.03163275867700577, 0.022632895037531853, -0.033643972128629684, -0.0033480683341622353, -0.027386227622628212, -0.01928620971739292, 0.006770737003535032, -0.011800313368439674, 0.003625500714406371, 0.0009674519533291459, -0.003929032478481531, -0.011691087856888771, -0.02416955679655075, -0.004495619796216488, 0.0029734240379184484, -0.0036807346623390913, 0.020489932969212532, -0.003411711659282446, 0.005796792916953564, 0.02157677710056305, 0.021209141239523888, -0.026586512103676796, 0.030480729416012764, 0.03165813162922859, -0.007084512617439032, -0.022248467430472374, -0.001020150608383119, -0.005572498310357332, 0.0037456436548382044, -0.03255105018615723, 0.0011654122499749064, 0.0008626795606687665, 0.0010607937583699822, -0.000902723812032491, 0.00466943671926856, 0.030447550117969513, -0.027491264045238495, -0.0033732468727976084, -0.036277126520872116, -0.028903163969516754, 0.004490069579333067, -0.023754097521305084, 0.01005195640027523, -0.001062261057086289, 0.025897033512592316, -0.008080200292170048, 0.004126200918108225, 0.00709169078618288, 0.001823828904889524, -0.019891874864697456, 0.02282864600419998, -0.0025797169655561447, -0.025942226871848106, -0.003056502901017666, 0.002685186918824911, -0.011064012534916401, 0.004693282768130302, 0.004096772987395525, 0.0038456853944808245, 0.021992754191160202, -0.0037563780788332224, -0.003463654313236475, 0.0033116585109382868, -0.0010652953060343862, 0.033969536423683167, 0.00603746622800827, 0.0033563810866326094, -0.0029857195913791656, 0.0034994573798030615, -0.02603423409163952, 0.029019588604569435, -0.02679966576397419, 0.02494771033525467, 0.022030752152204514, 0.0013684761943295598, -0.021277111023664474, 0.0009629655396565795, -0.002494898857548833, 0.034979820251464844, -0.028171449899673462, 0.00233679567463696, 0.017710119485855103, 0.017606204375624657, 0.019727950915694237, 0.023208871483802795, 0.005632540676742792, -0.0034384385216981173, -0.02356431819498539, 0.002131870947778225, 0.03496640920639038, 0.0011054371716454625, 0.0019609611481428146, 0.022559836506843567, -0.03522442281246185, 0.005191490054130554, 0.02247759699821472, 0.003980098757892847, -0.003896415466442704, 0.0011527239112183452, -0.023280808702111244, 0.017372626811265945, 0.003593647852540016, 0.0012005678145214915, 0.023695779964327812, 0.0019071473507210612, -0.02734965831041336, 0.0021296751219779253, -0.003527070628479123, 0.001005693105980754, 0.019753707572817802, 0.0035422116052359343, -0.003507819026708603, 0.02703118696808815, -0.0020172065123915672], [0.012624678201973438, -0.015056971460580826, 0.008821152150630951, 0.0037614107131958008, 0.0038878575433045626, -0.01874728687107563, 0.015057689510285854, 0.0077637191861867905, 0.014716632664203644, 0.0032405443489551544, 0.003695716615766287, 0.019048551097512245, -0.01650044322013855, -0.01850360631942749, 0.016067495569586754, 0.014258760027587414, -0.015990257263183594, -0.005102616269141436, -0.013123548589646816, -0.008020930923521519, 0.005112899467349052, -0.008031588047742844, 0.017959004268050194, 0.016201723366975784, -0.004770939238369465, -0.02130240574479103, -0.008631662465631962, -0.0028303321450948715, 0.0199041198939085, -0.01566873863339424, 0.0040575782768428326, -0.019407380372285843, 0.003924128133803606, 0.01797320507466793, 0.012546940706670284, -0.01555278617888689, 0.003383917035534978, 0.003583140205591917, -0.006515759043395519, -0.010017015971243382, -0.018716363236308098, -0.0045251245610415936, 0.022435178980231285, -0.018001262098550797, 0.017915265634655952, 0.018931161612272263, 0.003020685398951173, -0.017782704904675484, 0.01632688008248806, 0.005760058760643005, -0.016252567991614342, -0.003518263343721628, -0.012148468755185604, -0.017523743212223053, 0.004069665912538767, -0.015065516345202923, 0.0100266607478261, -0.015845296904444695, 0.01522847916930914, -0.011819437146186829, 0.016697222366929054, 0.014103133231401443, 0.019857609644532204, -0.012768116779625416, 0.013678018003702164, -0.017691880464553833, -0.01788676343858242, -0.006786538753658533, 0.01686974987387657, -0.009725267067551613, 0.01895895041525364, 0.01544632762670517, 0.017955653369426727, 0.014376945793628693, -0.01578313298523426, -0.0044680628925561905, 0.018025914207100868, -0.003460502717643976, 0.016368186101317406, 0.009981187991797924, 0.018819596618413925, -0.010131352581083775, 0.0033565068151801825, -0.017187323421239853, 0.01493751723319292, -0.00561098288744688, 0.01797797717154026, 0.008786068297922611, 0.01155924517661333, -0.01519604679197073, 0.019990192726254463, -0.019895058125257492, 0.01527309324592352, -0.01188524067401886, 0.0183555968105793, 0.014128737151622772, 0.020588655024766922, 0.011882105842232704, 0.015785541385412216, 0.015380329452455044, -0.016106467694044113, -0.018937375396490097, 0.020573006942868233, 0.004005465190857649, 0.017872456461191177, 0.019317174330353737, 0.017832186073064804, -0.015580553561449051, 0.01847192458808422, 0.012835079804062843, 0.0045325662940740585, -0.017655404284596443, 0.020113052800297737, -0.019463833421468735, 0.003022165270522237, 0.01588885672390461, 0.01961839757859707, 0.005245934706181288, 0.027032067999243736, -0.012762046419084072, 0.015627587214112282, -0.014910675585269928, 0.019412614405155182, 0.013225829228758812, 0.0185337346047163, -0.016793347895145416, 0.016913458704948425, -0.019549163058400154], [0.0029441521037369967, -0.003352442290633917, 0.010820436291396618, 0.010645480826497078, 0.003989201504737139, -0.0030525745823979378, 0.005077749956399202, 0.010203591547906399, 0.010801898315548897, 0.00241110660135746, 0.008212686516344547, 0.011248110793530941, -0.0035878606140613556, -0.009318891912698746, 0.008270240388810635, 0.010043032467365265, -0.00976316723972559, -0.010214140638709068, -0.009927083738148212, -0.0087217902764678, 0.0048761069774627686, -0.0093458266928792, 0.010260394774377346, 0.010339350439608097, -0.010591759346425533, -0.009042075835168362, -0.009858280420303345, -0.003625457873567939, 0.003293178044259548, -0.01015391293913126, 0.009727670811116695, -0.00855384673923254, 0.009251032955944538, 0.008011136204004288, 0.01221640408039093, -0.009548022411763668, 0.010597006417810917, 0.00943993404507637, -0.01106721069663763, -0.011918395757675171, -0.0029942146502435207, -0.009809300303459167, 0.009246843867003918, -0.010327736847102642, 0.009978150017559528, 0.006590936332941055, 0.003760587191209197, -0.010426742024719715, 0.011034960858523846, 0.008769486099481583, -0.00925867073237896, -0.00321068218909204, -0.0030849624890834093, -0.007967027835547924, 0.007212661672383547, -0.005556788761168718, 0.0052095134742558, -0.0031502393539994955, 0.009830319322645664, -0.007453501224517822, 0.010937065817415714, 0.00604366697371006, 0.002697859425097704, -0.010326692834496498, 0.005179758183658123, -0.006870000623166561, -0.00671267369762063, -0.0028527581598609686, 0.011202903464436531, -0.00892427284270525, 0.009489694610238075, 0.0036229705438017845, 0.008483441546559334, 0.009087407030165195, -0.009788084775209427, -0.010741028003394604, 0.007875418290495872, -0.0030262654181569815, 0.00844813883304596, 0.013156779110431671, 0.00278018182143569, -0.009953973814845085, 0.010795246809720993, -0.008703955449163914, 0.010812307707965374, -0.0029714959673583508, 0.0033318267669528723, 0.0031717747915536165, 0.010204078629612923, -0.009208323433995247, 0.010723595507442951, -0.0099878441542387, 0.00824008323252201, -0.009617891162633896, 0.009965821169316769, 0.0037215480115264654, 0.008380773477256298, 0.009961221367120743, 0.00336262839846313, 0.008206474594771862, -0.004282060544937849, -0.007744002155959606, 0.010386529378592968, 0.010549673810601234, 0.009631373919546604, 0.009124393574893475, 0.011053294874727726, -0.010179796256124973, 0.0029376130551099777, 0.01004825159907341, 0.011512170545756817, -0.003253380535170436, 0.006512525957077742, -0.0055116876028478146, 0.009280357509851456, 0.0032563800923526287, 0.0043890709057450294, 0.009204578585922718, 0.0035225965548306704, -0.00327160838060081, 0.01106226909905672, -0.011133238673210144, 0.009416282176971436, 0.010786515660583973, 0.010785352438688278, -0.009006231091916561, 0.0047438740730285645, -0.01079320814460516], [-0.013904987834393978, 0.003321110038086772, -0.014142042957246304, -0.011788753792643547, -0.010448901914060116, 0.013844671659171581, -0.011430456303060055, -0.0031793294474482536, -0.004265916999429464, -0.0038836526218801737, -0.0072861951775848866, -0.011770064011216164, 0.010258743539452553, 0.01112816110253334, -0.014146304689347744, -0.012007440440356731, 0.00532828364521265, 0.0031907183583825827, 0.003396781627088785, 0.013730564154684544, -0.01238239835947752, 0.00546285230666399, -0.0037008775398135185, -0.01022438332438469, 0.003515549935400486, 0.009557187557220459, 0.01186862587928772, 0.011785076931118965, -0.014764606021344662, 0.014277404174208641, -0.003838158445432782, 0.012525249272584915, -0.013066901825368404, -0.006200267001986504, -0.003445809241384268, 0.012216449715197086, -0.011717638000845909, -0.010573460720479488, 0.006907864939421415, 0.005394205451011658, 0.003924904391169548, 0.012981116771697998, -0.013890272006392479, 0.012104428373277187, -0.011187803000211716, -0.012235797010362148, -0.011741816066205502, 0.0028750402852892876, -0.0065193185582757, -0.0035573269706219435, 0.003096628002822399, 0.013023399747908115, 0.01001051813364029, 0.011084018275141716, -0.011748070828616619, 0.011712906882166862, -0.005461655557155609, 0.010438117198646069, -0.013055757619440556, 0.009931654669344425, -0.003294597379863262, -0.013160296715795994, -0.002783267991617322, 0.010257018730044365, -0.01164250262081623, 0.011888309381902218, 0.012794805690646172, 0.0028567081317305565, -0.013356318697333336, 0.009007904678583145, -0.004351074807345867, -0.014323421753942966, -0.003630636725574732, -0.004159477539360523, 0.011929314583539963, 0.013743697665631771, -0.012088059447705746, 0.011273554526269436, -0.006679641082882881, -0.013331719674170017, -0.0029200869612395763, 0.004821942187845707, -0.013337911106646061, 0.012407958507537842, -0.012426396831870079, 0.013169139623641968, -0.011371562257409096, -0.0033592688851058483, -0.01176951639354229, 0.00340284570120275, -0.012129324488341808, 0.011340037919580936, -0.010128265246748924, 0.011131728067994118, -0.012970145791769028, -0.012231739237904549, -0.014390775933861732, -0.004115589428693056, -0.010630308650434017, -0.01027761958539486, 0.013181174173951149, 0.01190989837050438, -0.01158610824495554, -0.01395053043961525, -0.01334372628480196, -0.014643417671322823, -0.011767620220780373, 0.010996414348483086, -0.01379693765193224, -0.0035909011494368315, -0.011908781714737415, 0.012161360122263432, -0.012304479256272316, 0.009746568277478218, -0.012544974684715271, -0.011406083591282368, -0.011978776194155216, -0.013182771392166615, -0.0030328913126140833, 0.013039293698966503, -0.002762843854725361, 0.013705821707844734, -0.012729999609291553, -0.007791656535118818, -0.012471901252865791, 0.014280774630606174, -0.012129580602049828, 0.002898780396208167], [-0.01178344152867794, 0.010501730255782604, -0.011600907891988754, -0.008449814282357693, -0.00935293547809124, 0.0029934023041278124, -0.0028030595276504755, -0.00990068819373846, -0.0033193212002515793, -0.010713857598602772, -0.004561241716146469, -0.003153681755065918, 0.003651129314675927, 0.01149303000420332, -0.0042401752434670925, -0.00880521535873413, 0.003262551035732031, 0.009365985170006752, 0.010122213512659073, 0.0030872472561895847, -0.0038710753433406353, 0.011037171818315983, -0.010129222646355629, -0.008287650533020496, 0.003207310102880001, 0.011455289088189602, 0.009164649993181229, 0.010730239562690258, -0.012335840612649918, 0.003568734973669052, -0.01174509059637785, 0.003127547213807702, -0.0032521281391382217, -0.010286925360560417, -0.008632892742753029, 0.009554808959364891, -0.010635633952915668, -0.011177227832376957, 0.012503805570304394, 0.012594451196491718, 0.009593089111149311, 0.0114840567111969, -0.003376465290784836, 0.008367005735635757, -0.008949878625571728, -0.012023397721350193, -0.013319490477442741, 0.012569624930620193, -0.011433415114879608, -0.009573429822921753, 0.012596972286701202, 0.009156476706266403, 0.009915067814290524, 0.011196527630090714, -0.011782746762037277, 0.010527826845645905, -0.00742198433727026, 0.004998864606022835, -0.012386484071612358, 0.010108648799359798, -0.011975044384598732, -0.00292329047806561, -0.002573713893070817, 0.009812495671212673, -0.0028837835416197777, 0.00822461862117052, 0.010008382610976696, 0.009695538319647312, -0.012409036047756672, 0.010283073410391808, -0.011574541218578815, -0.008993849158287048, -0.009915526024997234, -0.0034868514630943537, 0.010445119813084602, 0.009612757712602615, -0.010956916958093643, 0.012267239391803741, -0.0108524514362216, -0.0017834376776590943, -0.011398835107684135, 0.011855226010084152, -0.003098623361438513, 0.0032564394641667604, -0.004330175928771496, 0.012132120318710804, -0.003257597563788295, -0.008782333694398403, -0.009062967263162136, 0.003262875135987997, -0.003034882014617324, 0.010232348926365376, -0.0032842345535755157, 0.012101689353585243, -0.009912493638694286, -0.0037042945623397827, -0.009485993534326553, -0.0128903454169631, -0.009561676532030106, -0.010589702986180782, 0.008057392202317715, 0.007822390645742416, -0.012400182895362377, -0.011145412921905518, -0.0028752246871590614, -0.012410983443260193, -0.01119352038949728, 0.009825370274484158, -0.003052843501791358, -0.003385794349014759, -0.011301823891699314, 0.010136451572179794, -0.011082070879638195, 0.010652613826096058, -0.011826138943433762, -0.01106602605432272, -0.009490330703556538, -0.011428747326135635, -0.011702163144946098, 0.009904942475259304, -0.01084337942302227, 0.0030674671288579702, -0.012236244976520538, -0.010127772577106953, -0.005946093704551458, 0.003607175312936306, -0.008426196873188019, 0.012115063145756721], [0.0029663369059562683, -0.015777768567204475, 0.017662907019257545, 0.015499952249228954, 0.0160939022898674, -0.005363653413951397, 0.017776286229491234, 0.0178300179541111, 0.014873243868350983, 0.015399106778204441, 0.003404524177312851, 0.009149582125246525, -0.005379406735301018, -0.0029730857349932194, 0.01551161427050829, 0.0035996611695736647, -0.004263769835233688, -0.012365010567009449, -0.002907445188611746, -0.007234207354485989, 0.0084091667085886, -0.007944480516016483, 0.014880520291626453, 0.014609320089221, -0.003728671930730343, -0.003365680342540145, -0.016950208693742752, -0.015536023303866386, 0.0031604415271431208, -0.018534813076257706, 0.015033803880214691, -0.002969250315800309, 0.01454253401607275, 0.01610170677304268, 0.0033687313552945852, -0.024760063737630844, 0.014989569783210754, 0.014232877641916275, -0.008841259405016899, -0.013438521884381771, -0.0009568458772264421, -0.005892770364880562, 0.003999163396656513, -0.0036786720156669617, 0.01103149726986885, 0.0020186067558825016, 0.0025343720335513353, -0.0025559435598552227, 0.01692642644047737, 0.01627327688038349, -0.016595585271716118, -0.013671036809682846, -0.01754555106163025, -0.013620910234749317, 0.016451817005872726, -0.017656629905104637, 0.004737429786473513, -0.00968167558312416, 0.014513801783323288, -0.00753737660124898, 0.0028544084634631872, 0.006365966983139515, 0.0020589022897183895, -0.0030206225346773863, 0.01619778200984001, -0.01816272921860218, -0.01184982992708683, -0.012777818366885185, 0.014395910315215588, -0.008622661232948303, 0.012021820060908794, 0.003391115926206112, 0.012857363559305668, 0.014106385409832, -0.005331648979336023, -0.0032125229481607676, 0.014046414755284786, -0.011703459545969963, 0.015896176919341087, 0.014843909069895744, 0.003232128219678998, -0.0018461850704625249, 0.019238656386733055, -0.015346664935350418, 0.005701079498976469, -0.016079610213637352, 0.018476761877536774, 0.003436887636780739, 0.012176919728517532, -0.01598334312438965, 0.0027840023394674063, -0.010076452977955341, 0.015587236732244492, -0.014892449602484703, 0.002878752304241061, 0.005135379731655121, 0.010818103328347206, 0.016366414725780487, 0.015471667051315308, 0.014979339204728603, -0.015211624093353748, -0.0036481539718806744, 0.0017037437064573169, 0.0036519323475658894, 0.011672964319586754, 0.002727657090872526, 0.017495520412921906, -0.01772458665072918, 0.00904611125588417, 0.014357519336044788, 0.003952333703637123, -0.018706776201725006, 0.0018934147665277123, -0.00916441809386015, 0.013494560495018959, 0.010471904650330544, 0.0027136211283504963, 0.005684813018888235, 0.002446461236104369, -0.015665696933865547, 0.021843165159225464, -0.00319717382080853, 0.00580217782407999, 0.0040244292467832565, 0.016265645623207092, -0.0033343203831464052, 0.014922292903065681, -0.0008174109971150756], [0.01053658314049244, -0.013015719130635262, 0.011737760156393051, 0.006470679305493832, 0.011163693852722645, -0.010131323710083961, 0.009638597257435322, 0.009440837427973747, 0.01309274509549141, 0.01192091777920723, 0.012312306091189384, 0.011457462795078754, -0.009574640542268753, -0.011561466380953789, 0.003304090816527605, 0.010538279078900814, -0.012859329581260681, -0.011755806393921375, -0.011447216384112835, -0.0031071824487298727, 0.003789249574765563, -0.011172398924827576, 0.011632410809397697, 0.0031518496107310057, -0.011183247901499271, -0.011530702002346516, -0.009468123316764832, -0.002901332452893257, 0.013447199948132038, -0.010388464666903019, 0.003879077499732375, -0.01002445351332426, 0.010576639324426651, 0.010470044799149036, 0.0130322789773345, -0.011484947055578232, 0.011964374221861362, 0.0034028925001621246, -0.008894801139831543, -0.011983362026512623, -0.01239895261824131, -0.0028572676237672567, 0.011889358051121235, -0.009507718496024609, 0.009597999975085258, 0.0027080632280558348, 0.002979116979986429, -0.010677434504032135, 0.010368104092776775, 0.013202817179262638, -0.009388026781380177, -0.011430137790739536, -0.0035244529135525227, -0.011286902241408825, 0.010656137950718403, -0.0031607889104634523, 0.009314464405179024, -0.0094883618876338, 0.002808339660987258, -0.0064155724830925465, 0.013077421113848686, 0.012966731563210487, 0.011946196667850018, -0.003201026003807783, 0.011155671440064907, -0.010748214088380337, -0.010064167901873589, -0.011769803240895271, 0.011333388276398182, -0.009439796209335327, 0.0031900315079838037, 0.01357277575880289, 0.010599768720567226, 0.010866295546293259, -0.010434783063828945, -0.0031293800566345453, 0.012064017355442047, -0.002990454202517867, 0.0034998266492038965, 0.0018215476302430034, 0.011709221638739109, -0.011620608158409595, 0.003026537597179413, -0.01042709220200777, 0.00602862611413002, -0.010893957689404488, 0.011613686569035053, 0.009473192505538464, 0.012500918470323086, -0.011200131848454475, 0.009469305165112019, -0.0033762177918106318, 0.0035402514040470123, -0.009534502401947975, 0.003802650608122349, 0.0036335668992251158, 0.0030754648614674807, 0.014070522971451283, 0.003383585251867771, 0.012209717184305191, -0.012310509569942951, -0.0033411660697311163, 0.0030110494699329138, 0.003607433754950762, 0.012618016451597214, 0.012482576072216034, 0.011920279823243618, -0.01304200291633606, 0.012186811305582523, 0.01354890875518322, 0.0037678577937185764, -0.011040547862648964, 0.011992000043392181, -0.010350191034376621, 0.011589206755161285, 0.01002685260027647, 0.009546132758259773, 0.012323064729571342, 0.011743954382836819, -0.0031108115799725056, 0.002705720253288746, -0.003785738255828619, 0.0026927359867841005, 0.012730840593576431, 0.010693897493183613, -0.01049080491065979, 0.012754370458424091, -0.01215074211359024], [-0.008969959802925587, 0.009156452491879463, -0.008990231901407242, -0.0038368909154087305, -0.009922483935952187, 0.01109103299677372, -0.0029286148492246866, -0.008733945898711681, -0.01229118648916483, -0.01046525128185749, -0.006891265977174044, -0.010540240444242954, 0.006223038304597139, 0.010030574165284634, -0.008140132762491703, -0.008439978584647179, 0.004847374744713306, 0.010853792540729046, 0.009413973428308964, 0.003228116314858198, -0.008838465437293053, 0.006261611357331276, -0.008920318447053432, -0.008330976590514183, 0.010914451442658901, 0.009110287763178349, 0.004514849744737148, 0.009919172152876854, -0.008849289268255234, 0.007387715391814709, -0.0037756694946438074, 0.005364092532545328, -0.012118199840188026, -0.009999305941164494, -0.00734969275072217, 0.010525735095143318, -0.010856573469936848, -0.010267885401844978, 0.008973615244030952, 0.012054471299052238, 0.003238880541175604, 0.010181000456213951, -0.011060557328164577, 0.003552732989192009, -0.009399710223078728, -0.0035905123222619295, -0.011322752572596073, 0.007381202653050423, -0.01023615151643753, -0.011155196465551853, 0.009416494518518448, 0.011400002986192703, 0.006341274827718735, 0.004106392618268728, -0.003965809941291809, 0.0031633172184228897, -0.004395933356136084, 0.00951571948826313, -0.011752455495297909, 0.011028552427887917, -0.011516687460243702, -0.010913040488958359, -0.010009899735450745, 0.00882408581674099, -0.0026908940635621548, 0.010340036824345589, 0.011178066022694111, 0.010356067679822445, -0.010614181868731976, 0.00825431477278471, -0.008844890631735325, -0.011989982798695564, -0.009596692398190498, -0.009737757034599781, 0.007773766294121742, 0.009726733900606632, -0.01030888594686985, 0.003130061784759164, -0.010164009407162666, -0.0015685905236750841, -0.012190264649689198, 0.007138543296605349, -0.003313377732411027, 0.009144335053861141, -0.0063925571739673615, 0.010112017393112183, -0.008172146044671535, -0.0032657284755259752, -0.003271349472925067, 0.005376604385674, -0.009171539917588234, 0.011845936067402363, -0.012348096817731857, 0.0030031600035727024, -0.003412608290091157, -0.010649507865309715, -0.007110361475497484, -0.00952927116304636, -0.011253677308559418, -0.0035080257803201675, 0.009694395586848259, 0.004223243333399296, -0.008769930340349674, -0.010513522662222385, -0.010164313018321991, -0.00285370834171772, -0.009982532821595669, 0.008398407138884068, -0.011931764893233776, -0.009007204324007034, -0.0039466870948672295, 0.010656253434717655, -0.005181662272661924, 0.010611984878778458, -0.002755251945927739, -0.009227970615029335, -0.010984676890075207, -0.011274327524006367, -0.008604684844613075, 0.010438879020512104, -0.0027383517008274794, 0.009205074049532413, -0.010735996998846531, -0.003901274176314473, -0.0125271612778306, 0.012406625784933567, -0.012107263319194317, 0.008826952427625656], [-0.008766168728470802, 0.010327749885618687, -0.0032589260954409838, -0.008091173134744167, -0.01178136095404625, 0.010701695457100868, -0.009060286916792393, -0.0026302707847207785, -0.004197825212031603, -0.011939477175474167, -0.007914377376437187, -0.010174551978707314, 0.003813796676695347, 0.002915151882916689, -0.00969111081212759, -0.011150890029966831, 0.0032172666396945715, 0.011389597319066525, 0.005421883892267942, 0.010557437315583229, -0.012027260847389698, 0.010354089550673962, -0.011711697094142437, -0.011867022141814232, 0.01110934093594551, 0.009208742529153824, 0.00846865400671959, 0.009688356891274452, -0.011581138707697392, 0.012505538761615753, -0.0036105443723499775, 0.003673976520076394, -0.008341734297573566, -0.011293916963040829, -0.013699200004339218, 0.011730249039828777, -0.010385317727923393, -0.011187788099050522, 0.012038891203701496, 0.002368363318964839, 0.009534367360174656, 0.0030012428760528564, -0.0031390758231282234, 0.010468675754964352, -0.0029240285512059927, -0.013082439079880714, -0.004912088625133038, 0.01198180764913559, -0.008211994543671608, -0.009175077080726624, 0.010412083007395267, 0.00999104417860508, 0.00776143791154027, 0.0033174289856106043, -0.010802011005580425, 0.01046635303646326, -0.005639011971652508, 0.00964830256998539, -0.010995222255587578, 0.009931336157023907, -0.010926310904324055, -0.00847941916435957, -0.011990970931947231, 0.01267643179744482, -0.010475053451955318, 0.009562189690768719, 0.008394744247198105, 0.011528050526976585, -0.0024028844200074673, 0.007348003797233105, -0.004436233080923557, -0.012688727118074894, -0.011286257766187191, -0.007891531102359295, 0.0032188300974667072, 0.012041104957461357, -0.009242890402674675, 0.01014595478773117, -0.005037818104028702, -0.014368688687682152, -0.010244150646030903, 0.011773467995226383, -0.010892363265156746, 0.008943429216742516, -0.008669216185808182, 0.011957667768001556, -0.009748617187142372, -0.003358029993250966, -0.003869737731292844, 0.003615874797105789, -0.010577256791293621, 0.008561670780181885, -0.003288490930572152, 0.0028947831597179174, -0.009949740953743458, -0.003957631532102823, -0.010297274217009544, -0.013026101514697075, -0.0091638108715415, -0.00331167527474463, 0.010689864866435528, 0.009939772076904774, -0.008457541465759277, -0.010592932812869549, -0.011436624452471733, -0.0038634263910353184, -0.009318113327026367, 0.01059772353619337, -0.011220588348805904, -0.012235366739332676, -0.009141807444393635, 0.00921697448939085, -0.009528961032629013, 0.009948820807039738, -0.011883455328643322, -0.009625853039324284, -0.009047823026776314, -0.003599934047088027, -0.00880001112818718, 0.010674488730728626, -0.012576265260577202, 0.0031390367075800896, -0.009913545101881027, -0.01205344870686531, -0.011235903948545456, 0.01123055536299944, -0.010665932670235634, 0.010789643973112106], [-0.02228083647787571, 0.013222104869782925, -0.012589461170136929, -0.015481124632060528, -0.003406939096748829, 0.019245482981204987, -0.021579714491963387, -0.024184178560972214, -0.003642924129962921, -0.015206262469291687, -0.004931616131216288, -0.019664498046040535, 0.019800210371613503, 0.023338761180639267, -0.005045571364462376, -0.003867722349241376, 0.005432973615825176, 0.0032261409796774387, 0.02115534245967865, 0.020547809079289436, -0.013225910253822803, 0.010067426599562168, -0.02155664935708046, -0.020787063986063004, 0.02015170454978943, 0.022848404943943024, 0.019653500989079475, 0.018114123493433, -0.024875611066818237, 0.021114742383360863, -0.01543754804879427, 0.005212422460317612, -0.021693458780646324, -0.023667598143219948, -0.0034645069390535355, 0.004397241864353418, -0.01981479488313198, -0.01864803396165371, 0.0010439134202897549, 0.016114553436636925, 0.0032741909381002188, 0.021241582930088043, -0.0203176811337471, 0.01545780897140503, -0.02045927383005619, -0.0033184392377734184, -0.002708646235987544, 0.018051879480481148, -0.006580912508070469, -0.02077503502368927, 0.019381677731871605, 0.021453727036714554, 0.01827133446931839, 0.016161857172846794, -0.01992778107523918, 0.00334286130964756, -0.009561585262417793, 0.019554032012820244, -0.0028178798966109753, 0.009089876897633076, -0.010096532292664051, -0.015402941033244133, -0.002707225503399968, 0.016845479607582092, -0.020298581570386887, 0.0037508548703044653, 0.018379371613264084, 0.02122962288558483, -0.015490732155740261, 0.010947216302156448, -0.021173536777496338, -0.01739993318915367, -0.018845433369278908, -0.017767271026968956, 0.021692967042326927, 0.01761728525161743, -0.024025849997997284, 0.02023864910006523, -0.016807524487376213, -0.014532574452459812, -0.0200347937643528, 0.0014710471732541919, -0.019904037937521935, 0.02055469900369644, -0.01837785169482231, 0.016105832532048225, -0.02124711684882641, -0.023034177720546722, -0.02195778302848339, 0.015649715438485146, -0.01879436895251274, 0.021495100110769272, -0.0037083406932651997, 0.016800953075289726, -0.008790671825408936, -0.016271967440843582, -0.003472662763670087, -0.01742890663444996, -0.01968664862215519, -0.01946433261036873, 0.019095223397016525, 0.020482387393712997, -0.016223391517996788, -0.020254572853446007, -0.0054926564916968346, -0.003092569997534156, -0.0035779394675046206, 0.00345468707382679, -0.018318338319659233, -0.014775149524211884, -0.016737276688218117, 0.008649954572319984, -0.003200372913852334, 0.0044889505952596664, -0.003787365974858403, -0.003976872190833092, -0.022152338176965714, -0.019134381785988808, -0.005805130582302809, 0.022612204775214195, -0.023474195972085, 0.01732434704899788, -0.017618415877223015, -0.014114169403910637, -0.023561641573905945, 0.003365092910826206, -0.01987028494477272, 0.016899636015295982], [0.016350723803043365, -0.011833367869257927, 0.016437824815511703, 0.007433111779391766, 0.015950007364153862, -0.0033425104338675737, 0.003327237209305167, 0.016576575115323067, 0.014199240133166313, 0.012692979536950588, 0.003671597223728895, 0.01824036054313183, -0.007753163110464811, -0.017164556309580803, 0.01542806625366211, 0.0036053622607141733, -0.0035158395767211914, -0.0033570220693945885, -0.014771297574043274, -0.003585766302421689, 0.009153740480542183, -0.011360641568899155, 0.015661034733057022, 0.017195170745253563, -0.003983951639384031, -0.019288567826151848, -0.016497958451509476, -0.01638551987707615, 0.004947745706886053, -0.014135950244963169, 0.014679116196930408, -0.003053923835977912, 0.014767865650355816, 0.016107523813843727, 0.013653591275215149, -0.016368575394153595, 0.014417888596653938, 0.0033893154468387365, -0.006800037808716297, -0.015329861082136631, -0.01839185692369938, -0.002955581760033965, 0.018523894250392914, -0.01424498576670885, 0.0033029033802449703, 0.0026760981418192387, 0.015577087178826332, -0.01972687803208828, 0.016481192782521248, 0.003294366644695401, -0.003392285667359829, -0.01712971366941929, -0.0032702127937227488, -0.0038157713133841753, 0.01666944846510887, -0.015027323737740517, 0.005806383211165667, -0.003588332561776042, 0.003030202118679881, -0.010452182032167912, 0.0159317534416914, 0.012723694555461407, 0.0026559538673609495, -0.008529731072485447, 0.013309410773217678, -0.0038562521804124117, -0.016284242272377014, -0.015677865594625473, 0.014519456773996353, -0.0102382218465209, 0.01876310259103775, 0.013363792560994625, 0.017171282321214676, 0.0037377390544861555, -0.0161955077201128, -0.016251079738140106, 0.01624809205532074, -0.016394399106502533, 0.013782307505607605, 0.01422023493796587, 0.01981089450418949, -0.022003093734383583, 0.0036062293220311403, -0.0155336270108819, 0.003752622054889798, -0.013239523395895958, 0.0035786645021289587, 0.003144399495795369, 0.015189752914011478, -0.014363348484039307, 0.019724611192941666, -0.00990178994834423, 0.016449706628918648, -0.005032599903643131, 0.01582842506468296, 0.011079957708716393, 0.019174885004758835, 0.004276367370039225, 0.01508596446365118, 0.0035616925451904535, -0.008355957455933094, -0.01647311821579933, 0.019329430535435677, 0.016502972692251205, 0.017953747883439064, 0.018800366669893265, 0.00466876570135355, -0.014643309637904167, 0.0187515951693058, 0.015512042678892612, 0.012667888775467873, -0.013419054448604584, 0.018564078956842422, -0.007188731804490089, 0.01750154234468937, 0.01606796495616436, 0.0032326646614819765, 0.013369849883019924, 0.003230069996789098, -0.0035983179695904255, 0.005490956362336874, -0.008604361675679684, 0.020279744639992714, 0.013839996419847012, 0.015673967078328133, -0.0151055371388793, 0.00920179020613432, -0.0030168783850967884], [-0.011186198331415653, 0.013618367724120617, -0.009243106469511986, -0.0037390198558568954, -0.010140100494027138, 0.010862530209124088, -0.010273576714098454, -0.012434528209269047, -0.007687577046453953, -0.013544563204050064, -0.00933028943836689, -0.010716846212744713, 0.003816793439909816, 0.011662557721138, -0.011845625005662441, -0.012304955162107944, 0.011601521633565426, 0.005877513904124498, 0.013007380068302155, 0.010920155793428421, -0.003659863257780671, 0.0076630148105323315, -0.01351604051887989, -0.0032056758645921946, 0.003452194156125188, 0.011533727869391441, 0.008523880504071712, 0.01044363621622324, -0.012313272804021835, 0.012472910806536674, -0.011565626598894596, 0.011866442859172821, -0.0034407852217555046, -0.010590792633593082, -0.0033566320780664682, 0.011224988847970963, -0.010927044786512852, -0.012544278055429459, 0.005663985852152109, 0.011192896403372288, 0.012169943191111088, 0.010546050034463406, -0.014075510203838348, 0.009993554092943668, -0.003076750785112381, -0.013326403684914112, -0.01367823127657175, 0.012638859450817108, -0.012167656794190407, -0.011449389159679413, 0.0030666757375001907, 0.003325809258967638, 0.01103177946060896, 0.012626253068447113, -0.01268584281206131, 0.010172875598073006, -0.010089531540870667, 0.013846451416611671, -0.011022740043699741, 0.006724424660205841, -0.0037964871153235435, -0.01336890272796154, -0.01337442547082901, 0.003145970404148102, -0.009502642787992954, 0.013370073400437832, 0.014184141531586647, 0.011010302230715752, -0.01241521630436182, 0.008754455484449863, -0.0033512332011014223, -0.011033781804144382, -0.011511970311403275, -0.013604302890598774, 0.010662783868610859, 0.013888313435018063, -0.011334153823554516, 0.002864704467356205, -0.0031737221870571375, -0.004668029490858316, -0.003535001538693905, 0.013244317844510078, -0.010008336044847965, 0.014299220405519009, -0.010343622416257858, 0.003240277525037527, -0.012471663765609264, -0.010177958756685257, -0.014023704454302788, 0.0035280059091746807, -0.013401287607848644, 0.003897082293406129, -0.009584293700754642, 0.012322415597736835, -0.013477243483066559, -0.01141027919948101, -0.012235121801495552, -0.012652365490794182, -0.012056685984134674, -0.01075019408017397, 0.0136926444247365, 0.003369235200807452, -0.011137661524116993, -0.012788000516593456, -0.013296752236783504, -0.01192586962133646, -0.006304348818957806, 0.014180518686771393, -0.01342896930873394, -0.011065919883549213, -0.01406505424529314, 0.007284059189260006, -0.011306440457701683, 0.013339737430214882, -0.012008539400994778, -0.003974379505962133, -0.011198491789400578, -0.01230626367032528, -0.012098769657313824, 0.01289910264313221, -0.010026492178440094, 0.009336289018392563, -0.01321436744183302, -0.004681714810431004, -0.0034465002827346325, 0.013682592660188675, -0.012721936218440533, 0.0027857038658112288], [0.00297287805005908, -0.0020184542518109083, 0.00021113711409270763, 0.006512530613690615, 0.0036503791343420744, -0.0024177194572985172, 0.0017049104208126664, 0.001987928757444024, 0.0006387243629433215, 0.0008468818268738687, 0.003925031516700983, 0.0012998086167499423, -0.0009614328155294061, -0.0022324237506836653, 0.0009607723914086819, 0.0017006854759529233, -0.001264990889467299, -0.0019787908531725407, -0.002587015274912119, -0.0015533737605437636, 0.0034436937421560287, -0.011345218867063522, 0.0008195582777261734, 0.006498889997601509, -0.001437800470739603, -0.0024477068800479174, -0.0029375236481428146, -0.0013597961515188217, 0.00247073732316494, -0.0016406781505793333, 0.0012187357060611248, -0.002866685390472412, 0.0019501268398016691, 0.0021227349061518908, 0.0036293165758252144, -0.0008790224674157798, 0.0018242169171571732, 0.00240665627643466, -0.005495201796293259, -0.0016983257373794913, -0.0022500534541904926, -0.003637727117165923, 0.00117318460252136, -0.0005831752205267549, 0.0023344235960394144, 0.002456022659316659, 0.0023471417371183634, -0.0028032951522618532, 0.002794578904286027, 0.002579852705821395, -0.002752563450485468, -0.001243495149537921, -0.002512700157240033, -0.0015033355448395014, 0.0023144467268139124, -0.0011686593061313033, 0.009546920657157898, -0.001647169585339725, 0.003073900006711483, -0.008059017360210419, 0.0024114735424518585, 0.002535814419388771, 0.0015707957791164517, -0.0007871391135267913, 0.0022805563639849424, -0.00011434343468863517, -0.0011657766299322248, -0.0021907249465584755, 0.0012495584087446332, -0.008676335215568542, 0.002526763826608658, 0.0035738591104745865, 0.0012372327037155628, 0.005911754909902811, -0.0025431488174945116, -0.002670577261596918, 0.0017600522842258215, -0.003721575951203704, 0.0007994105108082294, 0.0013814341509714723, 0.0031062117777764797, -0.0014017404755577445, 0.003973463084548712, -0.0007784649496898055, 0.003469187766313553, -0.0028612040914595127, 0.0034867171198129654, 0.0014786291867494583, 0.00037845064071007073, -0.002024592598900199, 0.001771695096977055, -0.0006816243985667825, 0.0014889611629769206, -0.0014877263456583023, 0.0008321783388964832, 0.0024915176909416914, 0.0020410483703017235, 0.0010073223384097219, 0.0019581562373787165, 0.0008782724617049098, -0.00015829688345547765, -0.0008159515564329922, 0.0022891019470989704, 0.0007862276979722083, 0.0020612413063645363, 0.0023604950401932, 0.0016166771529242396, -0.0016312150983139873, 0.0016624524723738432, 0.002585579873993993, 0.004886876791715622, -0.002697543939575553, 0.004159648437052965, -0.0017819228814914823, 0.002115018432959914, 0.0019130384316667914, 0.0020442772656679153, 0.0017090694746002555, 0.002960178069770336, -0.0014105412410572171, 0.0024791958276182413, -0.002302685519680381, 0.0024244971573352814, 0.0003050633822567761, 0.003297650720924139, -0.0012032031081616879, 0.0013257868122309446, -0.0038224440068006516], [0.012885140255093575, -0.014254569076001644, 0.011649112217128277, 0.011817584745585918, 0.012323739007115364, -0.014851688407361507, 0.010058199055492878, 0.008504210971295834, 0.003647793084383011, 0.0031569385901093483, 0.014095609076321125, 0.005629639141261578, -0.013316472992300987, -0.013580966740846634, 0.011449812911450863, 0.013301710598170757, -0.01383985299617052, -0.013821782544255257, -0.011850768700242043, -0.011087576858699322, 0.011876724660396576, -0.007231442257761955, 0.008852844126522541, 0.010977392084896564, -0.010229288600385189, -0.01372833177447319, -0.011497697792947292, -0.013380608521401882, 0.01350078172981739, -0.013704599812626839, 0.012265903875231743, -0.014757389202713966, 0.012900368310511112, 0.011966891586780548, 0.0033284372184425592, -0.011797823943197727, 0.006720134522765875, 0.003560608020052314, -0.007588531356304884, -0.013467973098158836, -0.005605456884950399, -0.00832036416977644, 0.014897902496159077, -0.012840725481510162, 0.003219676436856389, 0.014499048702418804, 0.012078342027962208, -0.012851867824792862, 0.0038557599764317274, 0.013096621260046959, -0.013074458576738834, -0.011748210527002811, -0.010205011814832687, -0.012247258797287941, 0.013416372239589691, -0.006793913431465626, 0.008596952073276043, -0.01165439561009407, 0.012165253981947899, -0.010293589904904366, 0.011343201622366905, 0.0033350265584886074, 0.012803842313587666, -0.011681200005114079, 0.012481559999287128, -0.011137337423861027, -0.010485908947885036, -0.01211211271584034, 0.013842900283634663, -0.010993296280503273, 0.014626769348978996, 0.011652305722236633, 0.01094021089375019, 0.0037700554821640253, -0.014570196159183979, -0.013957896269857883, 0.011246196925640106, -0.0033850681502372026, 0.0034004063345491886, 0.00974882859736681, 0.013326454907655716, -0.010809795930981636, 0.011805238202214241, -0.012331393547356129, 0.01195306796580553, -0.012871543876826763, 0.012881687842309475, 0.013401918113231659, 0.012227548286318779, -0.004488841164857149, 0.013584958389401436, -0.01501751970499754, 0.005759857594966888, -0.013293314725160599, 0.013132866472005844, 0.003892194712534547, 0.012902678921818733, 0.004105935804545879, 0.013191331177949905, 0.005055387504398823, -0.013856831006705761, -0.01261528953909874, 0.013141140341758728, 0.003921253606677055, 0.012914792634546757, 0.013201994821429253, 0.009598192758858204, -0.01195860281586647, 0.014291505329310894, 0.003426803508773446, 0.014504981227219105, -0.010811401531100273, 0.01335762906819582, -0.012856557965278625, 0.013467321172356606, 0.0035611975472420454, 0.010432523675262928, 0.013008765876293182, 0.00746516976505518, -0.003384555224329233, 0.010320541448891163, -0.013366720639169216, 0.014481098391115665, 0.012818211689591408, 0.013078768737614155, -0.014431644231081009, 0.01127941906452179, -0.013062965124845505], [0.014344749972224236, -0.011035531759262085, 0.011421234346926212, 0.0036027298774570227, 0.006937513127923012, -0.003120952285826206, 0.0031539215706288815, 0.011334212496876717, 0.003544555278494954, 0.011377718299627304, 0.011526307091116905, 0.01165195181965828, -0.011405876837670803, -0.0131782665848732, 0.010248754173517227, 0.01280200108885765, -0.010666283778846264, -0.014002694748342037, -0.005122773814946413, -0.0033054149243980646, 0.013246046379208565, -0.007748566102236509, 0.011410507373511791, 0.013344181701540947, -0.013833957724273205, -0.004705608822405338, -0.003750438801944256, -0.011946556158363819, 0.004068722482770681, -0.01093982718884945, 0.01102614775300026, -0.003442432265728712, 0.00558227626606822, 0.01295483112335205, 0.013404369354248047, -0.004521248862147331, 0.011269325390458107, 0.005871697794646025, -0.001992011908441782, -0.012761002406477928, -0.013096078298985958, -0.00290665146894753, 0.011526685208082199, -0.008859304711222649, 0.013052141293883324, 0.00828621257096529, 0.013950021006166935, -0.011993097141385078, 0.013196559622883797, 0.003619283204898238, -0.0072705005295574665, -0.0033020128030329943, -0.012198942713439465, -0.0041231559589505196, 0.003957390319555998, -0.01090190839022398, 0.0014579163398593664, -0.011699259281158447, 0.012453186325728893, -0.00991815235465765, 0.004213601350784302, 0.003265972947701812, 0.002683150116354227, -0.012027589604258537, 0.010775843635201454, -0.01214136928319931, -0.011216971091926098, -0.01321484986692667, 0.0027700650971382856, -0.010057808831334114, 0.00312881451100111, 0.012805732898414135, 0.00972973182797432, 0.0038375204894691706, -0.011294739320874214, -0.011317799799144268, 0.01348935067653656, -0.011817976832389832, 0.011891655623912811, 0.012827331200242043, 0.014416112564504147, -0.01107875071465969, 0.012471609748899937, -0.011461558751761913, 0.012858167290687561, -0.011044785380363464, 0.004968286491930485, 0.0037288242019712925, 0.013345710001885891, -0.010850782506167889, 0.015010010451078415, -0.0036033866927027702, 0.014091487042605877, -0.011211015284061432, 0.014308822341263294, 0.010362808592617512, 0.012819250114262104, 0.012096994556486607, 0.003889491083100438, 0.013316941447556019, -0.005615054164081812, -0.012214330956339836, 0.0030523573514074087, 0.003826692933216691, 0.011798713356256485, 0.013516849838197231, 0.012882469221949577, -0.0035371261183172464, 0.014538059942424297, 0.010766972787678242, 0.009818020276725292, -0.0035243823658674955, 0.012011819519102573, -0.011732340790331364, 0.01156571228057146, 0.013965792022645473, 0.013456122018396854, 0.013196305371820927, 0.014843689277768135, -0.011621853336691856, 0.011445547454059124, -0.012944729067385197, 0.00290076551027596, 0.01183631643652916, 0.012536120600998402, -0.013565105386078358, 0.013097425922751427, -0.0056617483496665955], [-0.004246963188052177, 0.009845519438385963, -0.013381339609622955, -0.010540398769080639, -0.011190691962838173, 0.012480828911066055, -0.013031979091465473, -0.0029100377578288317, -0.0037561836652457714, -0.012880988419055939, -0.0033665201626718044, -0.011512881144881248, 0.01223901379853487, 0.012347273528575897, -0.003535256488248706, -0.012031260877847672, 0.011979720555245876, 0.013051319867372513, 0.012032704427838326, 0.006398987490683794, -0.013369621708989143, 0.006758783012628555, -0.015067900530993938, -0.013499623164534569, 0.015333087183535099, 0.006464327219873667, 0.010831036604940891, 0.002847762079909444, -0.013630821369588375, 0.008493663743138313, -0.008548996411263943, 0.013670479878783226, -0.003383903531357646, -0.012149164453148842, -0.0033991120290011168, 0.01271815411746502, -0.01294016558676958, -0.01346984039992094, 0.006777886766940355, 0.013979550451040268, 0.012311503291130066, 0.00386358005926013, -0.004410401917994022, 0.0036928525660187006, -0.003167548682540655, -0.012751469388604164, -0.012636006809771061, 0.011207270435988903, -0.011298811994493008, -0.011145626194775105, 0.013361195102334023, 0.014710602350533009, 0.012004476971924305, 0.010489159263670444, -0.011454268358647823, 0.0036937950644642115, -0.00924353115260601, 0.012246881611645222, -0.013757161796092987, 0.009971932508051395, -0.01429273933172226, -0.013650809414684772, -0.012720341794192791, 0.012532535940408707, -0.012453462928533554, 0.003474655793979764, 0.012420453131198883, 0.011981895193457603, -0.0030744075775146484, 0.009094789624214172, -0.013817345723509789, -0.004985883831977844, -0.015621091239154339, -0.014131391420960426, 0.013067352585494518, 0.014315905049443245, -0.006773483939468861, 0.011883427388966084, -0.012365131638944149, -0.0018344824202358723, -0.014402270317077637, 0.014616860076785088, -0.013301538303494453, 0.003822439117357135, -0.011934224516153336, 0.01198839396238327, -0.013859109953045845, -0.012655829079449177, -0.012369629926979542, 0.010925818234682083, -0.013564583845436573, 0.01534842699766159, -0.013693221844732761, 0.012839213013648987, -0.011806732974946499, -0.01131583470851183, -0.010944896377623081, -0.013993789441883564, -0.01373218558728695, -0.0050493995659053326, 0.005286948289722204, 0.013150985352694988, -0.014766216278076172, -0.01146672572940588, -0.014833206310868263, -0.00590208824723959, -0.003057783469557762, 0.013627342879772186, -0.01229254249483347, -0.0035429708659648895, -0.0037238846998661757, 0.013351472094655037, -0.008506002835929394, 0.013322485610842705, -0.01170226652175188, -0.003553812624886632, -0.003337233094498515, -0.012991177849471569, -0.013544783927500248, 0.012644147500395775, -0.013152824714779854, 0.0032951864413917065, -0.01325573306530714, -0.00957329012453556, -0.0045820013619959354, 0.013304304331541061, -0.003939422313123941, 0.012055684812366962], [-0.010844089090824127, 0.003232249291613698, -0.00984900537878275, -0.009775160811841488, -0.01145890261977911, 0.011116806417703629, -0.003906464669853449, -0.008108007721602917, -0.013206283561885357, -0.012195663526654243, -0.012734601274132729, -0.009921945631504059, 0.011145568452775478, 0.01199032086879015, -0.012280075810849667, -0.010825637727975845, 0.005148708820343018, 0.012409106828272343, 0.012269852682948112, 0.003082369454205036, -0.0126006118953228, 0.010585603304207325, -0.01294201985001564, -0.012449595145881176, 0.004672226961702108, 0.011843282729387283, 0.010018236003816128, 0.00767314899712801, -0.010609081014990807, 0.012911535799503326, -0.013180571608245373, 0.010469067841768265, -0.009912153705954552, -0.011632460169494152, -0.003448406932875514, 0.008016969077289104, -0.003200267441570759, -0.009044819511473179, 0.000699742988217622, 0.010823886841535568, 0.003054512431845069, 0.010414527729153633, -0.010460138320922852, 0.011162886396050453, -0.0030772399622946978, -0.010593263432383537, -0.010330653749406338, 0.010356360115110874, -0.010602403432130814, -0.004644786473363638, 0.0036592180840671062, 0.011600741185247898, 0.008124002255499363, 0.009020275436341763, -0.010579083114862442, 0.009893125854432583, -0.005059934686869383, 0.010628237389028072, -0.011133139953017235, 0.012672965414822102, -0.0031125179957598448, -0.012491249479353428, -0.010898157022893429, 0.0033149467781186104, -0.008876248262822628, 0.012630173936486244, 0.010864700190722942, 0.010051148012280464, -0.01227503176778555, 0.009709750302135944, -0.005656142719089985, -0.012106485664844513, -0.012482350692152977, -0.011033955961465836, 0.003423392539843917, 0.012476682662963867, -0.011512238532304764, 0.012059132568538189, -0.01222898904234171, -0.004890776239335537, -0.01086227037012577, 0.002751436084508896, -0.00917065516114235, 0.0130348801612854, -0.011340640485286713, 0.010124887339770794, -0.011297360062599182, -0.003990631550550461, -0.0030808625742793083, 0.009530517272651196, -0.003139118431136012, 0.011397209018468857, -0.009302223101258278, 0.008855562657117844, -0.0035784482024610043, -0.009036620147526264, -0.010738029144704342, -0.0139986677095294, -0.012509836815297604, -0.0033072412479668856, 0.005047991871833801, 0.0033152964897453785, -0.0034738099202513695, -0.010961253196001053, -0.011656554415822029, -0.009975269436836243, -0.010351793840527534, 0.0110850241035223, -0.003020269563421607, -0.010927597060799599, -0.004640416242182255, 0.009234137833118439, -0.010356643237173557, 0.011026456952095032, -0.0103432796895504, -0.008718006312847137, -0.00872511975467205, -0.013286229223012924, -0.009984997101128101, 0.01148983370512724, -0.009450078010559082, 0.01226342748850584, -0.0028620895463973284, -0.010459523648023605, -0.011087355203926563, 0.011059822514653206, -0.010470102541148663, 0.009432569146156311], [0.0013026089873164892, -0.015674186870455742, 0.011637699790298939, 0.0037739838007837534, 0.003603827441111207, -0.0079170111566782, 0.004093350376933813, 0.00423121452331543, 0.003653973340988159, 0.01923130825161934, 0.005104494281113148, 0.001135710277594626, -0.01184746716171503, -0.003926124889403582, 0.013650789856910706, 0.016008419916033745, -0.01157359965145588, -0.0033231342677026987, -0.0048864297568798065, -0.0011011704336851835, 0.007922353222966194, -0.007904368452727795, 0.0033957986161112785, 0.010016851127147675, -0.012874670326709747, -0.003839049953967333, -0.003595322836190462, -0.003510155249387026, 0.003675510175526142, -0.003963804803788662, 0.018344175070524216, -0.002467893064022064, 0.012239751406013966, 0.0011421960080042481, 0.003208247246220708, -0.004088825546205044, 0.003237928031012416, 0.0037067208904772997, -0.006775077432394028, -0.009734494611620903, -0.003644271520897746, -0.001074728206731379, 0.008210614323616028, -0.008695220574736595, 0.009061272256076336, 0.0020036608912050724, 0.008782530203461647, -0.002755903173238039, 0.003911027684807777, 0.013214213773608208, -0.0036951724905520678, -0.003604654921218753, -0.0034791913349181414, -0.01329155545681715, 0.005310059059411287, -0.011506193317472935, 0.009445014409720898, -0.00723851565271616, 0.002957250690087676, -0.006676706951111555, 0.014604359865188599, 0.014245622791349888, 0.0010978140635415912, -0.006797545589506626, 0.010918889194726944, -0.0014569124905392528, -0.0038611246272921562, -0.0022333739325404167, 0.010039533488452435, -0.008166377432644367, 0.0034230698365718126, 0.017309723421931267, 0.0012513675028458238, 0.023204734548926353, -0.007742864079773426, -0.00832020491361618, 0.01096554659307003, -0.001149298739619553, 0.014735350385308266, 0.0044401646591722965, 0.0038571299519389868, -0.0021607973612844944, 0.013710949569940567, -0.003537530079483986, 0.004702437669038773, -0.004622224252671003, 0.006659524515271187, 0.0090358080342412, 0.001044625649228692, -0.01827407442033291, 0.003341928357258439, -0.0025789712090045214, 0.016971955075860023, -0.01640605367720127, 0.0025371538940817118, 0.02029302902519703, 0.003586983773857355, 0.019353004172444344, 0.007725648581981659, 0.018519535660743713, -0.0034718390088528395, -0.004543870221823454, 0.0020668262150138617, 0.004076551180332899, 0.008403225801885128, 0.0010977977653965354, 0.002526783151552081, -0.00406612129881978, 0.0013387822546064854, 0.01658773235976696, 0.018453223630785942, -0.011456879787147045, 0.004278544802218676, -0.010397338308393955, 0.006411061622202396, 0.0012636649189516902, 0.003383425995707512, 0.017903562635183334, 0.0029762571211904287, -0.0012938687577843666, 0.003179332008585334, -0.01618815027177334, 0.0040381853468716145, 0.014254705980420113, 0.003841903293505311, -0.002549211261793971, 0.0036187837831676006, -0.0028326231986284256], [-0.0027487825136631727, 0.0030796993523836136, -0.013458565808832645, -0.01276957243680954, -0.0032548464369028807, 0.011860870756208897, -0.014870716258883476, -0.0032355384901165962, -0.00329912593588233, -0.014359576627612114, -0.014464637264609337, -0.012728934176266193, 0.0101628378033638, 0.015760142356157303, -0.013373141176998615, -0.014109044335782528, 0.011961614713072777, 0.015248707495629787, 0.005908929277211428, 0.007458328269422054, -0.012695723213255405, 0.009773899801075459, -0.003222270403057337, -0.0028941186610609293, 0.011720623821020126, 0.011210090480744839, 0.014143101871013641, 0.014758390374481678, -0.013967367820441723, 0.0033848334569483995, -0.0037440317682921886, 0.003129831748083234, -0.01309897843748331, -0.01336628757417202, -0.014125618152320385, 0.01642199605703354, -0.014453946612775326, -0.007221982814371586, 0.00762979406863451, 0.002733063418418169, 0.002882647793740034, 0.006796130910515785, -0.011087554506957531, 0.013558498583734035, -0.010576430708169937, -0.009195754304528236, -0.0034727100282907486, 0.014933452941477299, -0.004864075221121311, -0.013288094662129879, 0.012061328627169132, 0.013152576051652431, 0.01456002239137888, 0.010206803679466248, -0.012185890227556229, 0.01219495851546526, -0.007700273767113686, 0.014394464902579784, -0.002702662954106927, 0.011240695603191853, -0.016855979338288307, -0.013179877772927284, -0.0008122239378280938, 0.015686016529798508, -0.012559791095554829, 0.007839342579245567, 0.011301543563604355, 0.015663042664527893, -0.013171534053981304, 0.009829139336943626, -0.003068326972424984, -0.013079147785902023, -0.012998063117265701, -0.0036895200610160828, 0.003830000525340438, 0.01560334861278534, -0.015174994245171547, 0.014291554689407349, -0.011940408498048782, -0.013086399994790554, -0.002796672750264406, 0.0088829156011343, -0.015071423724293709, 0.01290679257363081, -0.015023968182504177, 0.003119730157777667, -0.0032800999470055103, -0.011809722520411015, -0.01394337322562933, 0.016443556174635887, -0.0109285619109869, 0.014340011402964592, -0.011304308660328388, 0.014989743009209633, -0.00319109414704144, -0.01132427528500557, -0.013981074094772339, -0.003952277358621359, -0.014613838866353035, -0.011548396199941635, 0.011985721066594124, 0.014476917684078217, -0.010371407493948936, -0.012465372681617737, -0.014536264352500439, -0.0037073325365781784, -0.0029679732397198677, 0.003441417822614312, -0.0026895878836512566, -0.0034950238186866045, -0.004361823201179504, 0.013214164413511753, -0.002659378806129098, 0.008568044751882553, -0.015460469760000706, -0.011614336632192135, -0.0038528882432729006, -0.01448375266045332, -0.0028927067760378122, 0.010656843893229961, -0.013208460994064808, 0.013813529163599014, -0.002540758578106761, -0.012832081876695156, -0.013804489746689796, 0.01421118713915348, -0.0039003712590783834, 0.01266772672533989], [0.013019261881709099, -0.012954950332641602, 0.012969030067324638, 0.004007808398455381, 0.01013717707246542, -0.011367620900273323, 0.003126502735540271, 0.012130893766880035, 0.003596730064600706, 0.011563191190361977, 0.01024338323622942, 0.012226265855133533, -0.00970250740647316, -0.011885273270308971, 0.00510337483137846, 0.012008779682219028, -0.00912795402109623, -0.014112135395407677, -0.010948593728244305, -0.012028731405735016, 0.012665643356740475, -0.012997793965041637, 0.0035946383140981197, 0.011584880761802197, -0.010702532716095448, -0.009088373742997646, -0.0036123679019510746, -0.0061046890914440155, 0.0071018896996974945, -0.0036110286600887775, 0.0059891450218856335, -0.003087785793468356, 0.003585489233955741, 0.008330891840159893, 0.003268990432843566, -0.010625080205500126, 0.009096350520849228, 0.012221671640872955, -0.007484103087335825, -0.012993372976779938, -0.013313215225934982, -0.011152001097798347, 0.008315070532262325, -0.011530031450092793, 0.010185508988797665, 0.013491990976035595, 0.014068972319364548, -0.01209056843072176, 0.012844394892454147, 0.009617851115763187, -0.011155948042869568, -0.013963098637759686, -0.012053830549120903, -0.012002330273389816, 0.006840884685516357, -0.012615569867193699, 0.012470679357647896, -0.012848230078816414, 0.003634166205301881, -0.009535170160233974, 0.004003080073744059, 0.0037732666824012995, 0.010482718236744404, -0.0032838101033121347, 0.010606689378619194, -0.011857280507683754, -0.012555550783872604, -0.01011679694056511, 0.013331037014722824, -0.010176471434533596, 0.010557779110968113, 0.006761633791029453, 0.011185365729033947, 0.011122381314635277, -0.012425936758518219, -0.00939113274216652, 0.011933633126318455, -0.013554464094340801, 0.011920071206986904, 0.007704034447669983, 0.011216147802770138, -0.010797739960253239, 0.012843269854784012, -0.010502684861421585, 0.013639566488564014, -0.010511001572012901, 0.009851356968283653, 0.013352111913263798, 0.01313756126910448, -0.01112817507237196, 0.013223018497228622, -0.010506434366106987, 0.011427170597016811, -0.011899192817509174, 0.00350722367875278, 0.01056397520005703, 0.008170261047780514, 0.011625350452959538, 0.004650293383747339, 0.009128815494477749, -0.013182153925299644, -0.012487994506955147, 0.011049875989556313, 0.0037652880419045687, 0.013054137118160725, 0.012438328936696053, 0.013028756715357304, -0.010880819521844387, 0.011046170257031918, 0.0033637613523751497, 0.010784627869725227, -0.01169059332460165, 0.011338144540786743, -0.01348318625241518, 0.012563279829919338, 0.010482103563845158, 0.0132273118942976, 0.01168986689299345, 0.007456556428223848, -0.010795884765684605, 0.010071204975247383, -0.011632056906819344, 0.011877574026584625, 0.009680524468421936, 0.013832553289830685, -0.010652061551809311, 0.011922777630388737, -0.005503606516867876], [0.0124540189281106, -0.014087767340242863, 0.013162963092327118, 0.010160189121961594, 0.011255682446062565, -0.013542859815061092, 0.0032696339767426252, 0.011796475388109684, 0.01288038119673729, 0.011335762217640877, 0.003638820257037878, 0.010522191412746906, -0.013511852361261845, -0.013332328759133816, 0.01347189862281084, 0.011395925655961037, -0.011985084041953087, -0.011873439885675907, -0.011692134663462639, -0.011390428058803082, 0.003383583389222622, -0.008011718280613422, 0.013577708974480629, 0.0132646095007658, -0.004423605278134346, -0.013617978431284428, -0.013654411770403385, -0.0029788408428430557, 0.01340461429208517, -0.003954790532588959, 0.014419655315577984, -0.010725749656558037, 0.0036153201945126057, 0.012667028233408928, 0.004484560806304216, -0.011189253069460392, 0.0123478714376688, 0.01052470225840807, -0.007509980350732803, -0.011993121355772018, -0.008963429369032383, -0.011549839749932289, 0.014598214998841286, -0.012544314377009869, 0.01117729116231203, 0.011715292930603027, 0.004759670700877905, -0.011954756453633308, 0.010613977909088135, 0.00750437006354332, -0.0032582476269453764, -0.011976136825978756, -0.0034290417097508907, -0.004007445648312569, 0.012414621189236641, -0.005118371918797493, 0.005468511488288641, -0.011482158675789833, 0.013558395206928253, -0.011184576898813248, 0.004247551783919334, 0.011264911852777004, 0.011067105457186699, -0.011910083703696728, 0.011852850206196308, -0.010529158636927605, -0.010174576193094254, -0.012904221192002296, 0.011587811633944511, -0.009798058308660984, 0.01203414611518383, 0.013829058036208153, 0.010850882157683372, 0.01158905029296875, -0.005442313849925995, -0.0115116648375988, 0.013144833035767078, -0.003253709990531206, 0.012491707690060139, 0.012378309853374958, 0.013300753198564053, -0.002759577240794897, 0.003288690699264407, -0.003802028251811862, 0.01354379765689373, -0.005294983275234699, 0.005194106139242649, 0.013897155411541462, 0.011432363651692867, -0.0045369891449809074, 0.0032864175736904144, -0.003599838586524129, 0.0035434942692518234, -0.009723407216370106, 0.01466296799480915, 0.011581549420952797, 0.011566895060241222, 0.009494263678789139, 0.005127418786287308, 0.005624134559184313, -0.012363776564598083, -0.004961109254509211, 0.013356667011976242, 0.010969072580337524, 0.012391369789838791, 0.012695745564997196, 0.010825826786458492, -0.0035496274940669537, 0.0034090918488800526, 0.010983429849147797, 0.012470454908907413, -0.011470967903733253, 0.01196562685072422, -0.004114891868084669, 0.012066083960235119, 0.010914353653788567, 0.01229915115982294, 0.012563934549689293, 0.011433565057814121, -0.013364966958761215, 0.011437795124948025, -0.01152485329657793, 0.013102671131491661, 0.011470751836895943, 0.01202647015452385, -0.009588908404111862, 0.01370170433074236, -0.012458154000341892], [0.011342374607920647, -0.010613762773573399, 0.010486979968845844, 0.0036723860539495945, 0.011678718030452728, -0.004876736551523209, 0.010900180786848068, 0.011069029569625854, 0.009343457408249378, 0.01080038771033287, 0.004533231258392334, 0.009490839205682278, -0.008778905496001244, -0.010623223148286343, 0.008351435884833336, 0.011591719463467598, -0.0033673851285129786, -0.01251403521746397, -0.011880926787853241, -0.010999586433172226, 0.01228607352823019, -0.011397652328014374, 0.012306742370128632, 0.009448402561247349, -0.01040889136493206, -0.003251737682148814, -0.009953341446816921, -0.0029295498970896006, 0.00941457785665989, -0.010943342000246048, 0.009884973056614399, -0.011604799889028072, 0.012275727465748787, 0.009852007031440735, 0.012979946099221706, -0.002637129044160247, 0.009278825484216213, 0.008721155114471912, -0.008033412508666515, -0.01254413090646267, -0.006677433382719755, -0.011440138332545757, 0.01138213835656643, -0.00782765168696642, 0.009143704548478127, 0.012012901715934277, 0.011342648416757584, -0.00277880160138011, 0.0033748920541256666, 0.0033751167356967926, -0.010545673780143261, -0.0038230314385145903, -0.005631587468087673, -0.009982405230402946, 0.008533450774848461, -0.005670097656548023, 0.008501547388732433, -0.009270325303077698, 0.010711231268942356, -0.009860146790742874, 0.0031682366970926523, 0.01163172721862793, 0.010718868114054203, -0.0031174556352198124, 0.01145126298069954, -0.00955322664231062, -0.003971218131482601, -0.011781123466789722, 0.010772740468382835, -0.00888087134808302, 0.003039880422875285, 0.01213697250932455, 0.012742742896080017, 0.006421998608857393, -0.011616491712629795, -0.00989069789648056, 0.012338949367403984, -0.011040200479328632, 0.008123631589114666, 0.012748731300234795, 0.012784363701939583, -0.002553230617195368, 0.012394856661558151, -0.003435838269069791, 0.011552806943655014, -0.012157117947936058, 0.011920939199626446, 0.008552727289497852, 0.0032225381582975388, -0.011767866089940071, 0.0030081262812018394, -0.011764142662286758, 0.008714953437447548, -0.008631699718534946, 0.0033337832428514957, 0.0038703172467648983, 0.011107747443020344, 0.010578440502285957, 0.010517696850001812, 0.006186623126268387, -0.006266187876462936, -0.010491318069398403, 0.012170515954494476, 0.010161838494241238, 0.0030467077158391476, 0.011658175848424435, 0.012562139891088009, -0.011568865738809109, 0.011034599505364895, 0.004260202404111624, 0.003745304886251688, -0.008805791847407818, 0.0114638302475214, -0.0031829869840294123, 0.010395899415016174, 0.009240128099918365, 0.0087865786626935, 0.011743619106709957, 0.00993056409060955, -0.007966011762619019, 0.009726813063025475, -0.010616960935294628, 0.011613233014941216, 0.009933129884302616, 0.010931801982223988, -0.010004719719290733, 0.00977057684212923, -0.009448609314858913], [-0.009831760078668594, 0.008982572704553604, -0.009750681929290295, -0.010326339863240719, -0.010625358670949936, 0.0029419336933642626, -0.008238580077886581, -0.010003581643104553, -0.012453220784664154, -0.010751446709036827, -0.012117315083742142, -0.011919612064957619, 0.010644538328051567, 0.010827844962477684, -0.009999051690101624, -0.012482226826250553, 0.011897162534296513, 0.01230578776448965, 0.011674534529447556, 0.011060931719839573, -0.00486172316595912, 0.008152646012604237, -0.012495692819356918, -0.011361025273799896, 0.013001559302210808, 0.003090416546911001, 0.00827400479465723, 0.01169604528695345, -0.00319690746255219, 0.0106657138094306, -0.003790295450016856, 0.009730747900903225, -0.00464883865788579, -0.009292463771998882, -0.003596859285607934, 0.007668074686080217, -0.0029452452436089516, -0.011437700130045414, 0.001587969483807683, 0.011985909193754196, 0.009612519294023514, 0.009732155129313469, -0.010796974413096905, 0.008367199450731277, -0.00414537638425827, -0.002669356297701597, -0.009726626798510551, 0.009766869246959686, -0.010873811319470406, -0.003240293124690652, 0.009288378991186619, 0.009992683306336403, 0.008016727864742279, 0.011411120183765888, -0.003845582716166973, 0.003499347250908613, -0.009914086200296879, 0.010022199712693691, -0.011567704379558563, 0.009744558483362198, -0.011409296654164791, -0.004556941334158182, -0.010288529098033905, 0.0033410440664738417, -0.009879396297037601, 0.003618490183725953, 0.003844892606139183, 0.007908119820058346, -0.002669000066816807, 0.01047689002007246, -0.007527922745794058, -0.010838744230568409, -0.004189806524664164, -0.011711450293660164, 0.009568458423018456, 0.008990945294499397, -0.0033202990889549255, 0.003318468341603875, -0.008131089620292187, -0.0018491973169147968, -0.0030090678483247757, 0.00954943522810936, -0.009232872165739536, 0.012307669967412949, -0.003381229005753994, 0.009256872348487377, -0.009676598943769932, -0.005713663529604673, -0.011215399950742722, 0.009091200307011604, -0.009292210452258587, 0.0033034803345799446, -0.010593674145638943, 0.0029604509472846985, -0.010341749526560307, -0.011932575143873692, -0.00817436445504427, -0.011051367968320847, -0.010265822522342205, -0.007737855892628431, 0.0034263937268406153, 0.008305953815579414, -0.01071517076343298, -0.01069690939038992, -0.007289677392691374, -0.009277268312871456, -0.011266142129898071, 0.008869042620062828, -0.011407297104597092, -0.009403512813150883, -0.00987372174859047, 0.00966736488044262, -0.009777531959116459, 0.009938189759850502, -0.009014406241476536, -0.009361792355775833, -0.009854555130004883, -0.004671542439609766, -0.003107390832155943, 0.009580692276358604, -0.010807352140545845, 0.008488276042044163, -0.011306218802928925, -0.0040473719127476215, -0.011774826794862747, 0.006140946876257658, -0.0035919304937124252, 0.011367583647370338], [-0.00854056142270565, 0.009915588423609734, -0.003335634246468544, -0.006366590037941933, -0.013141416013240814, 0.01091891061514616, -0.012455301359295845, -0.010971284471452236, -0.010503275319933891, -0.013299031183123589, -0.011905749328434467, -0.005127302836626768, 0.010150052607059479, 0.013636041432619095, -0.011101302690804005, -0.010166970081627369, 0.0034552677534520626, 0.010227937251329422, 0.011130186729133129, 0.012788751162588596, -0.0038955174386501312, 0.011771908961236477, -0.0032360232435166836, -0.010111475363373756, 0.013522735796868801, 0.013034654781222343, 0.00425289710983634, 0.013418435119092464, -0.010647987015545368, 0.0053980085067451, -0.013465641066432, 0.011182810179889202, -0.011765286326408386, -0.002861193846911192, -0.009496304206550121, 0.00851299799978733, -0.009432412683963776, -0.011307736858725548, 0.001383481314405799, 0.013433609157800674, 0.012463084422051907, 0.012045559473335743, -0.010483596473932266, 0.009474189020693302, -0.010415647178888321, -0.014571135863661766, -0.013562752865254879, 0.011709433980286121, -0.003514400450512767, -0.009682432748377323, 0.009624646045267582, 0.012922048568725586, 0.010771417990326881, 0.0061925374902784824, -0.009116149507462978, 0.011483209207654, -0.004677057731896639, 0.012184614315629005, -0.012789006344974041, 0.011419723741710186, -0.013247414492070675, -0.01194210909307003, -0.01295490749180317, 0.011114615015685558, -0.0028007396031171083, 0.0056553790345788, 0.010136307217180729, 0.010218773037195206, -0.012673181481659412, 0.009402699768543243, -0.0032371708657592535, -0.013324535451829433, -0.012259161099791527, -0.003562069498002529, 0.008580904453992844, 0.011656302958726883, -0.010491352528333664, 0.011566572822630405, -0.009715248830616474, -0.013352933339774609, -0.012228590436279774, 0.011691799387335777, -0.011341094970703125, 0.010342806577682495, -0.01190174836665392, 0.004531680140644312, -0.0036353999748826027, -0.009926512837409973, -0.009035628288984299, 0.011646067723631859, -0.010795123875141144, 0.012756528332829475, -0.007141402922570705, 0.010255654342472553, -0.009987086057662964, -0.011779946275055408, -0.012551574967801571, -0.004245815798640251, -0.0035288885701447725, -0.011984877288341522, 0.006801750045269728, 0.011749684810638428, -0.01367159839719534, -0.010388648137450218, -0.013517919927835464, -0.013459923677146435, -0.01286320947110653, 0.011037975549697876, -0.012731324881315231, -0.010959673672914505, -0.004473122302442789, 0.009072692133486271, -0.01366480253636837, 0.01282411627471447, -0.003751899115741253, -0.010991619899868965, -0.010120402090251446, -0.009604890830814838, -0.012683583423495293, 0.00946352444589138, -0.012661163695156574, 0.011403564363718033, -0.011601314879953861, -0.003953076899051666, -0.01107525359839201, 0.009684178978204727, -0.010893551632761955, 0.011981603689491749], [-0.005601765587925911, 0.013086426071822643, -0.003822685219347477, -0.003436414524912834, -0.01157661434262991, 0.010179121978580952, -0.0028846277855336666, -0.007418946363031864, -0.004083434119820595, -0.003000620286911726, -0.011354031041264534, -0.005140802823007107, 0.011076255701482296, 0.009976222179830074, -0.011674477718770504, -0.008587532676756382, 0.011461736634373665, 0.010306289419531822, 0.010613917373120785, 0.00982604268938303, -0.006489765364676714, 0.010901080444455147, -0.009826336987316608, -0.00880786869674921, 0.006535498425364494, 0.010200914926826954, 0.0033207747619599104, 0.010646185837686062, -0.0042217448353767395, 0.003497739089652896, -0.008683349005877972, 0.009221801534295082, -0.010904588736593723, -0.007600116543471813, -0.00936365406960249, 0.005473089404404163, -0.0035305959172546864, -0.007021605968475342, 0.007615294307470322, 0.010962815023958683, 0.0037854663096368313, 0.003705019596964121, -0.0036927342880517244, 0.009102536365389824, -0.009446489624679089, -0.010612335056066513, -0.011250701732933521, 0.002804260468110442, -0.009213142096996307, -0.010078893043100834, 0.01076977513730526, 0.009684011340141296, 0.0032199725974351168, 0.0048131574876606464, -0.01207271683961153, 0.010050451382994652, -0.0014349736738950014, 0.01092380192130804, -0.01026829332113266, 0.010224496014416218, -0.010955032892525196, -0.0029904053080826998, -0.011880144476890564, 0.009522371925413609, -0.009844503365457058, 0.0034752546343952417, 0.009202488698065281, 0.010891946032643318, -0.009924990125000477, 0.009334136731922626, -0.0029787372332066298, -0.010760504752397537, -0.010271615348756313, -0.006612315308302641, 0.004536837339401245, 0.00323491171002388, -0.010742493905127048, 0.011737985536456108, -0.010847574099898338, -0.010981426574289799, -0.010244726203382015, 0.012075594626367092, -0.006128458771854639, 0.004820151720196009, -0.012832741253077984, 0.011157534085214138, -0.01207746658474207, -0.011268294416368008, -0.0032108754385262728, 0.01029552984982729, -0.009541105479001999, 0.003199540078639984, -0.009373262524604797, 0.01049770787358284, -0.0037982657086104155, -0.009957104921340942, -0.009962506592273712, -0.009179445914924145, -0.012571198865771294, -0.010229568928480148, 0.0034893425181508064, 0.0072510819882154465, -0.010963509790599346, -0.003535087686032057, -0.011429932899773121, -0.012595091946423054, -0.01055909413844347, 0.008554399013519287, -0.011767170391976833, -0.00947145652025938, -0.006030874792486429, 0.0035087582655251026, -0.011356428265571594, 0.010316812433302402, -0.00767099903896451, -0.009228574112057686, -0.0031715824734419584, -0.003593145404011011, -0.011430575512349606, 0.010601092129945755, -0.010745784267783165, 0.011389306746423244, -0.010354856960475445, -0.004650834482163191, -0.010885066352784634, 0.008923457935452461, -0.011042837053537369, 0.012448453344404697], [0.003633985063061118, -0.015519932843744755, 0.008065002970397472, 0.0035359158646315336, 0.0051640672609210014, -0.003314963076263666, 0.0159313827753067, 0.014605088159441948, 0.006253472063690424, 0.012586207129061222, 0.014606879092752934, 0.0032603186555206776, -0.00406752759590745, -0.0037870227824896574, 0.017257239669561386, 0.004060175269842148, -0.013869023881852627, -0.0038745140191167593, -0.014543960802257061, -0.0047954474575817585, 0.013740467838943005, -0.010690244846045971, 0.017555715516209602, 0.01578335277736187, -0.016571348533034325, -0.007902845740318298, -0.003496384248137474, -0.01491783931851387, 0.018723536282777786, -0.016047436743974686, 0.006918495055288076, -0.017276814207434654, 0.01675940863788128, 0.015973296016454697, 0.006668228190392256, -0.014488768763840199, 0.012896941974759102, 0.009545502252876759, -0.0018912156810984015, -0.004244040697813034, -0.0034229608718305826, -0.016134638339281082, 0.015930652618408203, -0.017066096886992455, 0.017629588022828102, 0.005428246688097715, 0.015867752954363823, -0.017863458022475243, 0.016578087583184242, 0.016147928312420845, -0.016586966812610626, -0.0031979659106582403, -0.011617900803685188, -0.005641244351863861, 0.004112381022423506, -0.012070898897945881, 0.00474114716053009, -0.0030758846551179886, 0.003221183782443404, -0.011756627820432186, 0.0032421164214611053, 0.013642784208059311, 0.01923426240682602, -0.0033581838943064213, 0.0028245223220437765, -0.005198365077376366, -0.01466646883636713, -0.01637973263859749, 0.012088117189705372, -0.0077318125404417515, 0.0034775228705257177, 0.015324820764362812, 0.01930292136967182, 0.003914193250238895, -0.018009765073657036, -0.016366980969905853, 0.015668431296944618, -0.017868880182504654, 0.015500844456255436, 0.01399731170386076, 0.016568295657634735, -0.0030518416315317154, 0.016643308103084564, -0.012404700741171837, 0.004211830906569958, -0.013817844912409782, 0.01661842316389084, 0.005160964094102383, 0.015854451805353165, -0.012527680024504662, 0.013012525625526905, -0.01780080795288086, 0.006751096807420254, -0.013866757042706013, 0.0199006125330925, 0.00672296155244112, 0.016635863110423088, 0.014859123155474663, 0.0157189778983593, 0.003511859104037285, -0.015137070789933205, -0.016722770407795906, 0.0034706091973930597, 0.003967020194977522, 0.01759335957467556, 0.019482683390378952, 0.0033327252604067326, -0.003370151622220874, 0.017728310078382492, 0.01577599160373211, 0.003969698678702116, -0.012494808062911034, 0.01839359477162361, -0.004021093249320984, 0.01077738031744957, 0.017132192850112915, 0.017603721469640732, 0.005230426788330078, 0.023318251594901085, -0.01575111411511898, 0.015510785393416882, -0.015146644786000252, 0.003084717318415642, 0.014735584147274494, 0.0037260877434164286, -0.01622798666357994, 0.01662525162100792, -0.0032040521036833525], [0.008994157426059246, -0.002979106269776821, 0.006220135372132063, 0.006445369683206081, 0.005062781274318695, -0.007681138813495636, 0.0059264833107590675, 0.0061270128935575485, 0.00823189876973629, 0.010893497616052628, 0.004657639656215906, 0.0038041872903704643, -0.00291863433085382, -0.007968940772116184, 0.007578159682452679, 0.009242775849997997, -0.009305979125201702, -0.006002991460263729, -0.0064289080910384655, -0.007632157299667597, 0.011445273645222187, -0.012223061174154282, 0.002885991707444191, 0.0053984420374035835, -0.0030590351670980453, -0.00280958809889853, -0.007937443442642689, -0.009194403886795044, 0.003276391886174679, -0.003118756227195263, 0.0031015777494758368, -0.0073233372531831264, 0.004816979169845581, 0.005586044397205114, 0.009753103367984295, -0.008385486900806427, 0.002787058474496007, 0.003554985160008073, -0.005608369596302509, -0.007002817466855049, -0.006058369297534227, -0.008231575600802898, 0.004391780588775873, -0.002438206225633621, 0.0055060056038200855, 0.01040824968367815, 0.00903368555009365, -0.011200045235455036, 0.005649755708873272, 0.009007923305034637, -0.002939730416983366, -0.006879371590912342, -0.006881873123347759, -0.003146731061860919, 0.0030052117072045803, -0.002683015773072839, 0.01125431153923273, -0.003664594143629074, 0.009910229593515396, -0.009439108893275261, 0.01014694757759571, 0.004201618023216724, 0.008445858024060726, -0.01005514431744814, 0.008917957544326782, -0.005605797283351421, -0.003272054484114051, -0.00665985606610775, 0.010327201336622238, -0.01000997330993414, 0.006218929775059223, 0.010500219650566578, 0.006940226070582867, 0.003132431535050273, -0.007706566248089075, -0.004929183982312679, 0.009678605943918228, -0.007997979409992695, 0.006106691900640726, 0.012552395462989807, 0.009921610355377197, -0.009627396240830421, 0.008978522382676601, -0.009285032749176025, 0.003462773747742176, -0.003184925764799118, 0.003832159098237753, 0.0027105938643217087, 0.0025733322836458683, -0.002927783876657486, 0.006371231749653816, -0.003767964895814657, 0.007144446484744549, -0.012054340913891792, 0.0027641511987894773, 0.00844875629991293, 0.007617855444550514, 0.009922926314175129, 0.0069099231623113155, 0.009594075381755829, -0.007292269729077816, -0.00247394316829741, 0.00780107919126749, 0.003549654269590974, 0.006965705659240484, 0.009624921716749668, 0.010987387038767338, -0.008345184847712517, 0.01028264220803976, 0.003470586845651269, 0.008330916985869408, -0.006980867590755224, 0.007049733307212591, -0.005199085921049118, 0.009234889410436153, 0.007489281706511974, 0.0060570258647203445, 0.008430887013673782, 0.0060978541150689125, -0.0026755318976938725, 0.011533351615071297, -0.0073793260380625725, 0.002485655015334487, 0.00600223196670413, 0.008687724359333515, -0.0030200371984392405, 0.0030114201363176107, -0.007847238332033157], [-0.00036160103627480567, 0.0012491211527958512, -0.002633801195770502, -0.001145737711340189, -0.00023924335255287588, 0.006799906492233276, -0.0016913340659812093, -0.0010472952853888273, -0.0007187319570221007, -0.000755248183850199, -0.0005484288558363914, -0.00011675199493765831, 0.00017307452799286693, 0.000260210974374786, -7.768719660816714e-05, -0.0009759563254192472, 0.0038181189447641373, 0.0012005133321508765, 0.0034382108133286238, 0.001250707427971065, -0.0017123547149822116, 0.011142968200147152, -0.003947603981941938, -0.00033685509697534144, 0.0011998685076832771, 0.006202022545039654, 0.0008178373682312667, 0.00035589426988735795, -0.006066406145691872, 0.0017673656111583114, -0.00010092410957440734, 0.0028442128095775843, -0.0003831314679700881, -0.003136314218863845, -0.00244926824234426, 0.002294328063726425, -0.005162600427865982, -0.000584935478400439, 0.007574052549898624, 0.0010227158199995756, 0.0037392298690974712, 0.0008608311181887984, -0.0020139855332672596, 0.00021976536663714796, -0.0037340251728892326, -0.001331586972810328, -0.0019339850405231118, 0.0009811600903049111, -0.0013070021523162723, -0.0039556208066642284, 0.0015118545852601528, 0.002404694212600589, 0.0021923694293946028, 0.001329203019849956, -0.0005525536835193634, 0.0013500098139047623, -0.00819239392876625, 3.2085314160212874e-05, -0.0026942859403789043, 0.008654217235744, -0.0007973738247528672, -0.005548674147576094, -0.002149717416614294, 0.003507760353386402, -0.0011120623676106334, 0.0004150438471697271, 0.0011860745726153255, 0.0030289969872683287, -0.0010370424715802073, 0.008235661312937737, -0.0002432836190564558, -6.713036418659613e-05, -0.00013105791003908962, -0.0032130046747624874, 0.0018241354264318943, 0.0061817350797355175, -0.0024176957085728645, 0.0026902658864855766, -0.0017649573273956776, -0.0003830825735349208, -0.002515871077775955, 0.0010949861025437713, -0.001343093579635024, 0.004311144817620516, -0.002701484365388751, 0.002901504747569561, -0.004939961712807417, -0.0018331872997805476, -0.000259922060649842, 0.005511059425771236, -0.00012329412857070565, 0.00157197006046772, -0.0014547075843438506, 0.0010158633813261986, -0.0020337491296231747, -0.00461348844692111, -0.006559204775840044, -0.0023054592311382294, -0.0018832585774362087, -0.001370507525280118, 0.0012101439060643315, 0.0014295916771516204, -0.0032279444858431816, -0.00136943522375077, -0.0028443557675927877, -0.0036867873277515173, -0.0009429581696167588, 0.0002240580361103639, -0.0029403779190033674, -0.005030706059187651, -0.00021117378491908312, 0.0008374557364732027, -0.001569524290971458, 0.0012871064245700836, -0.0015061639714986086, -0.0009220505016855896, -0.0016328197671100497, -0.0006786708254367113, -0.006364760454744101, 0.0010788076324388385, -0.0012869861675426364, 0.0008887093863449991, -0.0031831006053835154, -0.0002590211224742234, -0.0005660075694322586, 0.0008026569266803563, -0.0014662184985354543, 0.0003838151751551777], [0.013809037394821644, -0.013252816163003445, 0.013307634741067886, 0.011233370751142502, 0.0036883235443383455, -0.003104595234617591, 0.013609364628791809, 0.0031488477252423763, 0.015021730214357376, 0.003123979549854994, 0.007672262843698263, 0.016252944245934486, -0.013063769787549973, -0.0034546914976090193, 0.014607176184654236, 0.012716985307633877, -0.015388715080916882, -0.0033507144544273615, -0.013469770550727844, -0.015364931896328926, 0.011281701736152172, -0.012271247804164886, 0.012556998990476131, 0.014423045329749584, -0.01374681293964386, -0.016111139208078384, -0.011999319307506084, -0.002774850931018591, 0.01694708876311779, -0.01262060645967722, 0.012524450197815895, -0.003289475804194808, 0.008234856650233269, 0.012063650414347649, 0.01346185989677906, -0.002740392694249749, 0.012106322683393955, 0.011855704709887505, -0.004763105884194374, -0.013595002703368664, -0.016314145177602768, -0.013781046494841576, 0.014057613909244537, -0.004573380574584007, 0.015569397248327732, 0.015914812684059143, 0.014646438881754875, -0.015203707851469517, 0.0035897919442504644, 0.0035900005605071783, -0.01185625046491623, -0.013730432838201523, -0.003412793390452862, -0.0042585148476064205, 0.012700533494353294, -0.01366504281759262, 0.007166706025600433, -0.01566629484295845, 0.01193227432668209, -0.010208024643361568, 0.0032704221084713936, 0.013756304048001766, 0.01572118140757084, -0.0025533554144203663, 0.011666596867144108, -0.015496143139898777, -0.00765656866133213, -0.014215607196092606, 0.0029729160014539957, -0.01035715639591217, 0.015517815947532654, 0.013788488693535328, 0.016957031562924385, 0.010200015269219875, -0.013129694387316704, -0.01363117340952158, 0.01606428436934948, -0.013384325429797173, 0.003536673728376627, 0.012734433636069298, 0.002928307978436351, -0.014856643974781036, 0.013349137268960476, -0.014568325132131577, 0.0032687431667000055, -0.012574532069265842, 0.003541928017511964, 0.01622195355594158, 0.004312192555516958, -0.012337892316281796, 0.016240309923887253, -0.015236031264066696, 0.013014369644224644, -0.01415098924189806, 0.015822764486074448, 0.013599436730146408, 0.00354309962131083, 0.01503319013863802, 0.014691286720335484, 0.012950096279382706, -0.012791954912245274, -0.013593674637377262, 0.016851553693413734, 0.015456948429346085, 0.0032892762683331966, 0.003203415311872959, 0.01522564236074686, -0.014352640137076378, 0.006421682424843311, 0.0036664879880845547, 0.013968768529593945, -0.013253794051706791, 0.016426291316747665, -0.015152358449995518, 0.014381205663084984, 0.0032921636011451483, 0.0031753636430948973, 0.0037438268773257732, 0.018815835937857628, -0.011516689322888851, 0.01312252413481474, -0.003506807843223214, 0.016006169840693474, 0.012114347890019417, 0.014702894724905491, -0.0161328986287117, 0.016249390318989754, -0.0166194885969162], [0.0024261027574539185, -0.01349746435880661, 0.00472950330004096, 0.012952963821589947, 0.0032779269386082888, -0.005216055084019899, 0.0013819027226418257, 0.004561075009405613, 0.009206478483974934, 0.00936551857739687, 0.006414923816919327, 0.0027595150750130415, -0.001525656203739345, -0.0025574828032404184, 0.004136837087571621, 0.014897731132805347, -0.003944701049476862, -0.00237460364587605, -0.0014003084506839514, -0.003956476226449013, 0.011897698044776917, -0.008785787969827652, 0.0035357612650841475, 0.0026348517276346684, -0.0015775251667946577, -0.004735482856631279, -0.0030296577606350183, -0.0012053846148774028, 0.003379297209903598, -0.015019821934401989, 0.014611652120947838, -0.003485405584797263, 0.01055635791271925, 0.00624993396922946, 0.01945372298359871, -0.0024129096418619156, 0.003576791612431407, 0.0038168085739016533, -0.01118573360145092, -0.0036202091723680496, -0.002443707548081875, -0.005320875905454159, 0.0026402242947369814, -0.011921986006200314, 0.0027184495702385902, 0.00295276939868927, 0.002678174525499344, -0.002127614803612232, 0.005273362621665001, 0.0033345110714435577, -0.00351100810803473, -0.003658686298877001, -0.007779197301715612, -0.004444729071110487, 0.012503097765147686, -0.006552198901772499, 0.005589158274233341, -0.00344885908998549, 0.014396553859114647, -0.006749692372977734, 0.003684442024677992, 0.012516196817159653, 0.0026514041237533092, -0.0022327934857457876, 0.0024523690808564425, -0.004032053053379059, -0.008416972123086452, -0.004236738663166761, 0.0024641307536512613, -0.010243549011647701, 0.003487449139356613, 0.010459779761731625, 0.004096803721040487, 0.016769031062722206, -0.005242621060460806, -0.0034852076787501574, 0.003469345159828663, -0.0033004486467689276, 0.0035365980584174395, 0.01182459108531475, 0.002221689559519291, -0.0020446672569960356, 0.00252707046456635, -0.012776226736605167, 0.006198188289999962, -0.011341608129441738, 0.0037713712081313133, 0.005259973928332329, 0.002045699395239353, -0.012336112558841705, 0.002779186936095357, -0.0014306415105238557, 0.00796918012201786, -0.013843565247952938, 0.0025204287376254797, 0.004122006706893444, 0.001564675010740757, 0.016219105571508408, 0.0038245879113674164, 0.017301276326179504, -0.012377944774925709, -0.006043544039130211, 0.0026566823944449425, 0.012470078654587269, 0.003202510764822364, 0.0012093960540369153, 0.006179917138069868, -0.009362238459289074, 0.002440981799736619, 0.012429298833012581, 0.016510063782334328, -0.0046038273721933365, 0.0033158736769109964, -0.0031811008229851723, 0.003882353426888585, 0.00379592040553689, 0.0014054921921342611, 0.002808886580169201, 0.002364459913223982, -0.003157255705446005, 0.002198941772803664, -0.011038770899176598, 0.002693604212254286, 0.00392608717083931, 0.0028780547436326742, -0.005691623315215111, 0.012700054794549942, -0.002699092961847782], [0.005468055605888367, -0.011249782517552376, 0.003601114498451352, 0.01077721081674099, 0.004230746533721685, -0.013138219714164734, 0.011912171728909016, 0.012250397354364395, 0.011686510406434536, 0.013530813157558441, 0.0036172866821289062, 0.011347943916916847, -0.004559473134577274, -0.013138649985194206, 0.0034888354130089283, 0.010830963961780071, -0.011389976367354393, -0.011987520381808281, -0.011710661463439465, -0.013706519268453121, 0.01260638888925314, -0.0106862997636199, 0.011072373948991299, 0.012687441892921925, -0.011435380205512047, -0.011567126959562302, -0.011464500799775124, -0.012315135449171066, 0.003256935626268387, -0.005295601673424244, 0.007928257808089256, -0.014123710803687572, 0.00664086127653718, 0.011992119252681732, 0.011643705889582634, -0.013898043893277645, 0.012129534967243671, 0.003384328680112958, -0.006965911015868187, -0.010807701386511326, -0.013259400613605976, -0.013483541086316109, 0.010219376534223557, -0.012863325886428356, 0.011144308373332024, 0.011554587632417679, 0.013058265671133995, -0.012759413570165634, 0.013248790055513382, 0.012696638703346252, -0.012393306940793991, -0.01108718290925026, -0.0130167780444026, -0.012953074648976326, 0.004472662694752216, -0.012629206292331219, 0.008926316164433956, -0.004857252351939678, 0.013140955939888954, -0.011844830587506294, 0.0029809018597006798, 0.011102600023150444, 0.015568780712783337, -0.011122047901153564, 0.011100208386778831, -0.0036080488935112953, -0.003969924058765173, -0.009940744377672672, 0.009525206871330738, -0.008327777497470379, 0.011223629117012024, 0.01163508277386427, 0.013426778838038445, 0.013479763641953468, -0.013212904334068298, -0.014172977767884731, 0.0028904005885124207, -0.011396819725632668, 0.005990599747747183, 0.013529553078114986, 0.013760692439973354, -0.012759586796164513, 0.010616299696266651, -0.007158899214118719, 0.01352300588041544, -0.01048019528388977, 0.01119441632181406, 0.012625060975551605, 0.01253684051334858, -0.011237887665629387, 0.013038183562457561, -0.0030465256422758102, 0.010332019068300724, -0.00945503730326891, 0.014257363975048065, 0.003777462290599942, 0.011792551726102829, 0.003912679385393858, 0.003642444033175707, 0.012466124258935452, -0.0134586738422513, -0.003123353933915496, 0.014370587654411793, 0.0036958397831767797, 0.002813108032569289, 0.01315176673233509, 0.0030153116676956415, -0.009444956667721272, 0.011840594932436943, 0.011698310263454914, 0.011598967015743256, -0.01184665784239769, 0.007201534230262041, -0.0112798772752285, 0.013275209814310074, 0.011335584335029125, 0.011336334981024265, 0.004612967371940613, 0.010199322365224361, -0.009679840877652168, 0.01261215377599001, -0.01200726255774498, 0.01103417668491602, 0.013013487681746483, 0.013573385775089264, -0.014624006114900112, 0.003812266979366541, -0.012831127271056175], [-0.009799432940781116, 0.00925377942621708, -0.008824136108160019, -0.010578431189060211, -0.010224903002381325, 0.010000611655414104, -0.0071486360393464565, -0.002698599360883236, -0.0034405256155878305, -0.010691250674426556, -0.007239704951643944, -0.008258392103016376, 0.009348866529762745, 0.002932426054030657, -0.009445960633456707, -0.00830094050616026, 0.00868261232972145, 0.009431038051843643, 0.010406913235783577, 0.01035426277667284, -0.012648560106754303, 0.012199164368212223, -0.008028894662857056, -0.00713973306119442, 0.003918105736374855, 0.009009401313960552, 0.008961752988398075, 0.010084448382258415, -0.008930087089538574, 0.009162993170320988, -0.006853824015706778, 0.010429917834699154, -0.009015163406729698, -0.006120922043919563, -0.01004826184362173, 0.00959814339876175, -0.009034551680088043, -0.006143758073449135, 0.0016018847236409783, 0.010938245803117752, 0.003029230749234557, 0.006178763695061207, -0.008098752237856388, 0.00664298702031374, -0.0030454155057668686, -0.002616317244246602, -0.005322134587913752, 0.00623763632029295, -0.0033237698953598738, -0.0033686934038996696, 0.008213263005018234, 0.0049105254001915455, 0.010232432745397091, 0.01089342962950468, -0.007025835569947958, 0.0029042030218988657, -0.012009534984827042, 0.010579710826277733, -0.011170086450874805, 0.009885018691420555, -0.006706026382744312, -0.01115316990762949, -0.01082210335880518, 0.0030658452305942774, -0.002849358133971691, 0.009007524698972702, 0.008724684827029705, 0.006029203534126282, -0.010279083624482155, 0.00971438828855753, -0.00980907492339611, -0.005787334870547056, -0.00858622882515192, -0.0058785672299563885, 0.005166279152035713, 0.007967294193804264, -0.010678205639123917, 0.010101267136633396, -0.008851325139403343, -0.012280134484171867, -0.011521052569150925, 0.010755709372460842, -0.0028859113808721304, 0.004485802259296179, -0.00937892496585846, 0.007867280393838882, -0.009650606662034988, -0.01003213133662939, -0.008009390905499458, 0.010357257910072803, -0.00961073487997055, 0.01079629734158516, -0.008209590800106525, 0.004557626321911812, -0.008951445110142231, -0.0036772422026842833, -0.008274312131106853, -0.0055391923524439335, -0.007934554480016232, -0.003265317063778639, 0.0031937200110405684, 0.008330640383064747, -0.00660418625921011, -0.008649707771837711, -0.00982311274856329, -0.009152810089290142, -0.009100032038986683, 0.005604486912488937, -0.010984113439917564, -0.0040583922527730465, -0.00855947844684124, 0.005875824484974146, -0.008744891732931137, 0.0084456205368042, -0.007689682766795158, -0.006847483571618795, -0.0027931109070777893, -0.008325330913066864, -0.006840316113084555, 0.003125410992652178, -0.00801941566169262, 0.006032135803252459, -0.0027635011356323957, -0.0058731758035719395, -0.009227395989000797, 0.007668735925108194, -0.003315820125862956, 0.009531437419354916], [0.00235449499450624, -0.0014532062923535705, 0.0034763826988637447, 0.0031961810309439898, 0.003949226811528206, -0.002595712896436453, 0.0022882744669914246, 0.0023937153164297342, 0.004271885380148888, 0.004276139661669731, 0.003610283602029085, 0.0020995214581489563, -0.00396517850458622, -0.0031179371289908886, 0.0012497012503445148, 0.007906943559646606, -0.004560970235615969, -0.002751181134954095, -0.003443395486101508, -0.0009557830053381622, 0.004060041159391403, -0.01017791498452425, 0.0017950906185433269, 0.0010474402224645019, -0.005446968600153923, -0.003559826174750924, -0.0013074646703898907, -0.0026318058371543884, 0.002332984935492277, -0.00397589523345232, 0.00877173338085413, -0.002367766574025154, 0.0034943276550620794, 0.002948226174339652, 0.0027710101567208767, -0.0033104903995990753, 0.003914853557944298, 0.004205763805657625, -0.012408225797116756, -0.007665205746889114, -0.003561254357919097, -0.0031366373877972364, 0.0031885397620499134, -0.004608998075127602, 0.0012166512897238135, 0.0019049925031140447, 0.002216585446149111, -0.0022750257048755884, 0.0023795657325536013, 0.003423119895160198, -0.004254620522260666, -0.0023529028985649347, -0.0013979359064251184, -0.005762441083788872, 0.0016613228945061564, -0.000992286135442555, 0.0012091108364984393, -0.0020392718724906445, 0.002781797433272004, -0.0037716261576861143, 0.003265007399022579, 0.002786763710901141, 0.00237467628903687, -0.0020117179956287146, 0.0014879595255479217, -0.0012220676289871335, -0.0033727078698575497, -0.0018481691367924213, 0.0009907690109685063, -0.010301628150045872, 0.0019310867646709085, 0.006975795608013868, 0.0009375364752486348, 0.0103022875264287, -0.003154018195345998, -0.0013087232364341617, 0.0036668044049292803, -0.0022883648052811623, 0.002107043983414769, 0.0031769881024956703, 0.0025055152364075184, -0.0018329722806811333, 0.00114439707249403, -0.005479403305798769, 0.0037352759391069412, -0.0011626373743638396, 0.0028638800140470266, 0.002720276825129986, 0.001961164176464081, -0.002496888628229499, 0.003062569536268711, -0.00268322741612792, 0.0030468530021607876, -0.004579720553010702, 0.0021156941074877977, 0.009555438533425331, 0.0026373197324573994, 0.007685960736125708, 0.002877253107726574, 0.007614080794155598, -0.0033162145409733057, -0.003647237317636609, 0.0029676351696252823, 0.0032571889460086823, 0.003089542267844081, 0.0008328633848577738, 0.0029438806232064962, -0.0012066526105627418, 0.0033837174996733665, 0.011920665390789509, 0.009632760658860207, -0.006197404116392136, 0.0011262578191235662, -0.0013643794227391481, 0.0022585890255868435, 0.0019503457006067038, 0.0031129198614507914, 0.0023576950188726187, 0.0020851700101047754, -0.003980665933340788, 0.002105964347720146, -0.003515456570312381, 0.0022061008494347334, 0.01212419755756855, 0.002913229400292039, -0.002006406430155039, 0.010611649602651596, -0.003185342065989971], [0.002924857661128044, -0.013599690049886703, 0.009647547267377377, 0.0034361379221081734, 0.009125933982431889, -0.0030713947489857674, 0.009381306357681751, 0.012055911123752594, 0.010770822875201702, 0.011841808445751667, 0.011129285208880901, 0.010090518742799759, -0.010599860921502113, -0.012447759509086609, 0.0038600594270974398, 0.010830490849912167, -0.009691576473414898, -0.010619926266372204, -0.009765025228261948, -0.011654645204544067, 0.0033489230554550886, -0.011887912638485432, 0.011278721503913403, 0.003225176827982068, -0.003261324716731906, -0.011618219316005707, -0.012600518763065338, -0.012225450947880745, 0.010585643351078033, -0.013166765682399273, 0.011107906699180603, -0.012085385620594025, 0.006679668091237545, 0.012460751459002495, 0.008571071550250053, -0.011131715029478073, 0.004364567808806896, 0.009482328779995441, -0.00481235608458519, -0.012828382663428783, -0.012611874379217625, -0.011271693743765354, 0.01110624335706234, -0.007431868463754654, 0.012167909182608128, 0.007027224637567997, 0.0028794249519705772, -0.011063427664339542, 0.01314468588680029, 0.01015717163681984, -0.0031555225141346455, -0.0031777825206518173, -0.003631583647802472, -0.01024426706135273, 0.010911677032709122, -0.012286423705518246, 0.00574727775529027, -0.010393166914582253, 0.0030022207647562027, -0.011580985970795155, 0.007823027670383453, 0.011933290399610996, 0.010927589610219002, -0.00400098180398345, 0.00794398132711649, -0.0035467722918838263, -0.011755530722439289, -0.0048371488228440285, 0.012917217798531055, -0.00937884021550417, 0.0058639743365347385, 0.0049662236124277115, 0.00992181058973074, 0.003907863050699234, -0.011312751099467278, -0.011757471598684788, 0.012078821659088135, -0.002890727249905467, 0.010939299128949642, 0.012159192003309727, 0.010375446639955044, -0.011942639946937561, 0.012966947630047798, -0.01332133263349533, 0.01056249625980854, -0.013061664067208767, 0.009394373744726181, 0.0032614010851830244, 0.0032073671463876963, -0.008608844131231308, 0.005487923044711351, -0.010284682735800743, 0.012883437797427177, -0.010905125178396702, 0.011716053821146488, 0.004329432267695665, 0.012661870568990707, 0.013992528431117535, 0.009655377827584743, 0.003419539425522089, -0.0032993920613080263, -0.003396413056179881, 0.011957082897424698, 0.010868235491216183, 0.01165057998150587, 0.01236807182431221, 0.011409686878323555, -0.011901354417204857, 0.01212358009070158, 0.012918141670525074, 0.009919258765876293, -0.012962481938302517, 0.0031555260065943003, -0.01120236050337553, 0.011702525429427624, 0.010284272953867912, 0.012957097962498665, 0.01188586838543415, 0.012744860723614693, -0.012542793527245522, 0.011624157428741455, -0.0033561130985617638, 0.011608991771936417, 0.011208444833755493, 0.003182473359629512, -0.003573768073692918, 0.009787186048924923, -0.013754421845078468], [0.017627133056521416, -0.003403454553335905, 0.016287947073578835, 0.015046065673232079, 0.013843310065567493, -0.0030704594682902098, 0.017089340835809708, 0.015766708180308342, 0.01620372012257576, 0.013043750077486038, 0.0034740427508950233, 0.018113858997821808, -0.014795557595789433, -0.018490107730031013, 0.003803867381066084, 0.003617056179791689, -0.014345178380608559, -0.02149074338376522, -0.0033657029271125793, -0.010487974621355534, 0.006921066902577877, -0.009891435503959656, 0.01635611802339554, 0.01712683029472828, -0.01671736314892769, -0.01941647380590439, -0.014098413288593292, -0.0026698114816099405, 0.003767293179407716, -0.016202611848711967, 0.011884014122188091, -0.003786365268751979, 0.015241767279803753, 0.015672799199819565, 0.012759935110807419, -0.016270525753498077, 0.012969525530934334, 0.015013257041573524, -0.0070520187728106976, -0.016365252435207367, -0.018824681639671326, -0.01729959435760975, 0.017247170209884644, -0.005538148805499077, 0.01748529262840748, 0.00455449940636754, 0.018116731196641922, -0.01990322954952717, 0.003429849399253726, 0.003362585324794054, -0.0035321481991559267, -0.018271183595061302, -0.013697704300284386, -0.006892689503729343, 0.0037862861063331366, -0.0043167914263904095, 0.001380687695927918, -0.0031059219036251307, 0.015329346992075443, -0.006809776648879051, 0.017171112820506096, 0.01429058238863945, 0.018938332796096802, -0.011870511807501316, 0.014508092775940895, -0.015454704873263836, -0.012227951548993587, -0.01648115925490856, 0.002725824946537614, -0.009260986931622028, 0.003248064313083887, 0.004083722364157438, 0.018211504444479942, 0.004138802643865347, -0.003640553681179881, -0.01523513812571764, 0.0032649454660713673, -0.005776919424533844, 0.012877412140369415, 0.013215217739343643, 0.019244268536567688, -0.02133907936513424, 0.0032986877486109734, -0.0033648943062871695, 0.004655010066926479, -0.003378602210432291, 0.003520196070894599, 0.017522672191262245, 0.017406027764081955, -0.01330152153968811, 0.0033170527312904596, -0.003553046379238367, 0.015280988067388535, -0.015503919683396816, 0.0037559070624411106, 0.005913333501666784, 0.018358955159783363, 0.004076993092894554, 0.003249857807531953, 0.011910565197467804, -0.013245915994048119, -0.01643165573477745, 0.0210102666169405, 0.017171604558825493, 0.003680676221847534, 0.020881975069642067, 0.016251422464847565, -0.014574097469449043, 0.004058018792420626, 0.01537977997213602, 0.01489679329097271, -0.01597203128039837, 0.018876679241657257, -0.017797376960515976, 0.002887206617742777, 0.0033404002897441387, 0.016444114968180656, 0.006949238013476133, 0.0065546841360628605, -0.0035470733419060707, 0.015785016119480133, -0.015273458324372768, 0.0029765963554382324, 0.004536684602499008, 0.003698886139318347, -0.0034526267554610968, 0.01466167438775301, -0.020111851394176483], [0.010518481954932213, -0.00945604033768177, 0.011973693035542965, 0.004493644926697016, 0.0036501549184322357, -0.009921330027282238, 0.008177217096090317, 0.010858113877475262, 0.010690872557461262, 0.0052815633825957775, 0.011394777335226536, 0.01090260036289692, -0.010637850500643253, -0.010129939764738083, 0.012280246242880821, 0.012178420089185238, -0.009080699644982815, -0.0031706069130450487, -0.0033186841756105423, -0.009079661220312119, 0.0064254156313836575, -0.007778817787766457, 0.009285872802138329, 0.011423551477491856, -0.0042954422533512115, -0.010534136556088924, -0.0036764421965926886, -0.010158969089388847, 0.004167911596596241, -0.003550567664206028, 0.011201329529285431, -0.002931709634140134, 0.00905676744878292, 0.0030677528120577335, 0.013526758179068565, -0.009577605873346329, 0.010131560266017914, 0.011856352910399437, -0.00800721999257803, -0.0024399985559284687, -0.00883067399263382, -0.0027601956389844418, 0.010855530388653278, -0.0036818438675254583, 0.009644118137657642, 0.010507919825613499, 0.009597012773156166, -0.009666770696640015, 0.0033570309169590473, 0.010916399769484997, -0.009507291950285435, -0.002917980309575796, -0.008282404392957687, -0.00933072715997696, 0.004508580081164837, -0.00952429510653019, 0.010149250738322735, -0.009042946621775627, 0.006125723943114281, -0.010707288049161434, 0.012120671570301056, 0.00844403076916933, 0.01110270619392395, -0.003127609146758914, 0.009603201411664486, -0.0037203954998403788, -0.004625997040420771, -0.010513690300285816, 0.0031203285325318575, -0.010342693887650967, 0.00920364260673523, 0.010891054756939411, 0.003519204678013921, 0.0035698183346539736, -0.009252249263226986, -0.004532848484814167, 0.010521185584366322, -0.009479787200689316, 0.010367290116846561, 0.004706982523202896, 0.002940389094874263, -0.008343398571014404, 0.011216722428798676, -0.011265436187386513, 0.003483318956568837, -0.007855264469981194, 0.008494271896779537, 0.003001078963279724, 0.0030110266525298357, -0.012702815234661102, 0.005077835638076067, -0.008987543173134327, 0.008411009795963764, -0.00958649069070816, 0.00335957040078938, 0.011030781082808971, 0.010759045369923115, 0.010357636958360672, 0.009628646075725555, 0.011541963554918766, -0.010800759308040142, -0.008454459719359875, 0.006086327601224184, 0.003659778507426381, 0.0088352020829916, 0.007281758356839418, 0.003227084642276168, -0.003458746476098895, 0.003035136964172125, 0.012107505463063717, 0.010207519866526127, -0.008166726678609848, 0.011305117048323154, -0.0031352858059108257, 0.011557205580174923, 0.009218250401318073, 0.0048608905635774136, 0.01096318569034338, 0.0029628376942127943, -0.010118212550878525, 0.009114334359765053, -0.010319450870156288, 0.009255163371562958, 0.008476179093122482, 0.003524616127833724, -0.00920444168150425, 0.0036362814716994762, -0.009913831949234009], [0.0032512613106518984, -0.003365426557138562, 0.009507093578577042, 0.0035520324017852545, 0.010423172265291214, -0.00364468852058053, 0.011105060577392578, 0.0128628546372056, 0.011628626845777035, 0.013042531907558441, 0.00314119691029191, 0.01179877482354641, -0.006433093920350075, -0.013753189705312252, 0.010398268699645996, 0.010804346762597561, -0.013135089538991451, -0.014342078939080238, -0.013760676607489586, -0.01251076627522707, 0.012147306464612484, -0.007020637858659029, 0.010903693735599518, 0.011109579354524612, -0.011566775850951672, -0.0033697844482958317, -0.010641450993716717, -0.0027006668969988823, 0.006431367248296738, -0.003695334540680051, 0.01107365544885397, -0.011981508694589138, 0.0032465122640132904, 0.012158975005149841, 0.012701774016022682, -0.014074786566197872, 0.003279456403106451, 0.010076050646603107, -0.004805427044630051, -0.014080134220421314, -0.012405016459524632, -0.013105207122862339, 0.003270832123234868, -0.0038327269721776247, 0.012272655963897705, 0.01578148640692234, 0.0146204624325037, -0.014457697048783302, 0.014593226835131645, 0.0121860820800066, -0.009327167645096779, -0.0142682995647192, -0.009842155501246452, -0.003701017005369067, 0.010068907402455807, -0.010636510327458382, 0.010377218015491962, -0.0031001055613160133, 0.003022329416126013, -0.00948848482221365, 0.0030322957318276167, 0.01262038853019476, 0.016260383650660515, -0.01383193675428629, 0.0027252822183072567, -0.004199686925858259, -0.013586324639618397, -0.011196368373930454, 0.0026630882639437914, -0.008884526789188385, 0.0033504890743643045, 0.012982755899429321, 0.012629478238523006, 0.0037151991855353117, -0.013982136733829975, -0.010069921612739563, 0.013641029596328735, -0.01277706865221262, 0.011038224212825298, 0.014220008626580238, 0.014947841875255108, -0.0025510829873383045, 0.012192736379802227, -0.004058373160660267, 0.0036379778757691383, -0.013380078598856926, 0.0033936200197786093, 0.013749095611274242, 0.015115172602236271, -0.0033403830602765083, 0.003854396054521203, -0.015314681455492973, 0.0033371609169989824, -0.002925003180280328, 0.0128619484603405, 0.013109271414577961, 0.012669583782553673, 0.00411633588373661, 0.0037491614930331707, 0.006888159085065126, -0.007311775349080563, -0.010908776894211769, 0.0033295820467174053, 0.012042884714901447, 0.0028360469732433558, 0.014007416553795338, 0.0029197970870882273, -0.011707029305398464, 0.013051926158368587, 0.004326550755649805, 0.010608579963445663, -0.013441831804811954, 0.012239322066307068, -0.009541356936097145, 0.003693308448418975, 0.012657124549150467, 0.0029913298785686493, 0.014555852860212326, 0.01577487774193287, -0.011009136214852333, 0.012740236707031727, -0.003269389970228076, 0.004748281557112932, 0.011365863494575024, 0.014210892841219902, -0.0034040557220578194, 0.012170995585620403, -0.002903640503063798], [0.015556327998638153, -0.010677901096642017, 0.0124060632660985, 0.0035826812963932753, 0.013667887076735497, -0.014100906439125538, 0.0065106553956866264, 0.00283244950696826, 0.00388743681833148, 0.003934302367269993, 0.013333763927221298, 0.005849803332239389, -0.014274011366069317, -0.015296466648578644, 0.013131256215274334, 0.012825892306864262, -0.003530364017933607, -0.006444886792451143, -0.013951842673122883, -0.004414752125740051, 0.013714944012463093, -0.009248843416571617, 0.013889840804040432, 0.01564163528382778, -0.013046668842434883, -0.015220854431390762, -0.015348043292760849, -0.014291488565504551, 0.01580977812409401, -0.004374587442725897, 0.006384672597050667, -0.01432252861559391, 0.015791520476341248, 0.0033722848165780306, 0.013019123114645481, -0.012783733196556568, 0.012373612262308598, 0.012979458086192608, -0.004762466996908188, -0.014774409122765064, -0.008830954320728779, -0.01573069579899311, 0.01511328388005495, -0.012330976314842701, 0.013037147000432014, 0.01763651892542839, 0.01592533104121685, -0.014771733433008194, 0.012522713281214237, 0.014058899134397507, -0.004920477047562599, -0.014840959571301937, -0.011257065460085869, -0.01461381372064352, 0.015503575094044209, -0.014195650815963745, 0.00990926381200552, -0.0031405994668602943, 0.0073388442397117615, -0.006528038997203112, 0.015209752134978771, 0.00379375577904284, 0.0163727980107069, -0.003253442933782935, 0.0033754566684365273, -0.01298354659229517, -0.012233346700668335, -0.014983058907091618, 0.01393935177475214, -0.008181842043995857, 0.015835169702768326, 0.013638310134410858, 0.01458932738751173, 0.011225588619709015, -0.012579331174492836, -0.013077584095299244, 0.015629498288035393, -0.015506179071962833, 0.011412604711949825, 0.00367041677236557, 0.01649845950305462, -0.004810019861906767, 0.003286279970780015, -0.012545892037451267, 0.015253245830535889, -0.012197564356029034, 0.015584430657327175, 0.013016396202147007, 0.015730982646346092, -0.011870784685015678, 0.016322774812579155, -0.01677345298230648, 0.015256675891578197, -0.012235792353749275, 0.01567358523607254, 0.01238375436514616, 0.015867576003074646, 0.010841131210327148, 0.003405901836231351, 0.013361000455915928, -0.014180505648255348, -0.010214353911578655, 0.016648385673761368, 0.008622020483016968, 0.016656551510095596, 0.010203263722360134, 0.0031476598232984543, -0.015429520048201084, 0.014301986433565617, 0.012222963385283947, 0.0048209065571427345, -0.012940731830894947, 0.01422923430800438, -0.0035039912909269333, 0.003952407743781805, 0.013665491715073586, 0.015926506370306015, 0.007012057118117809, 0.018736157566308975, -0.0032618106342852116, 0.014245972968637943, -0.004132221452891827, 0.0027515990659594536, 0.010011015459895134, 0.00330060045234859, -0.01425978820770979, 0.004406035412102938, -0.01451713778078556], [0.011877473443746567, -0.0032210557255893946, 0.0034672787878662348, 0.009917167946696281, 0.00404938030987978, -0.011326927691698074, 0.01000621821731329, 0.010436086915433407, 0.00356318149715662, 0.0024422656279057264, 0.011077710427343845, 0.010481528006494045, -0.005372138228267431, -0.003137724008411169, 0.0035721526946872473, 0.010408573783934116, -0.009379693306982517, -0.010360633954405785, -0.011350372806191444, -0.0028404605109244585, 0.012919573113322258, -0.007669365033507347, 0.00969764031469822, 0.010217585600912571, -0.008691562339663506, -0.010572182945907116, -0.008202319033443928, -0.01023278757929802, 0.011024567298591137, -0.010414225049316883, 0.003540672594681382, -0.01153409294784069, 0.004207005724310875, 0.0028634266927838326, 0.005837154109030962, -0.01044776476919651, 0.0029113409109413624, 0.004688120912760496, -0.0068132877349853516, -0.004872515797615051, -0.002924148691818118, -0.009349646046757698, 0.00753822922706604, -0.009503470733761787, 0.009740369394421577, 0.012002463452517986, 0.002700359560549259, -0.010845983400940895, 0.0033997944556176662, 0.007783442735671997, -0.00992907676845789, -0.0037787994369864464, -0.009301641955971718, -0.010584079660475254, 0.008517804555594921, -0.008427992463111877, 0.0013605192070826888, -0.01134352758526802, 0.009240560233592987, -0.006203946657478809, 0.011836365796625614, 0.012226606719195843, 0.010461002588272095, -0.01065044291317463, 0.010969605296850204, -0.0033527903724461794, -0.003655104199424386, -0.008211677893996239, 0.010463252663612366, -0.008471010252833366, 0.010732450522482395, 0.009358656592667103, 0.003623922122642398, 0.010027513839304447, -0.005513853393495083, -0.0034864034969359636, 0.009307220578193665, -0.00744529627263546, 0.009115072898566723, 0.009586406871676445, 0.00286135938949883, -0.002756906673312187, 0.010199465788900852, -0.008765972219407558, 0.003154113655909896, -0.008798825554549694, 0.008550799451768398, 0.010261730290949345, 0.011113075539469719, -0.010162699967622757, 0.0031089354306459427, -0.01096491701900959, 0.010700508020818233, -0.009313486516475677, 0.00947907567024231, 0.0036540599539875984, 0.009608939290046692, 0.008716513402760029, 0.008309091441333294, 0.008955422788858414, -0.008288335986435413, -0.008308975026011467, 0.005965223535895348, 0.006341057829558849, 0.006869798060506582, 0.002730380743741989, 0.003935863263905048, -0.009183963760733604, 0.0035788977984339, 0.010356435552239418, 0.01121750008314848, -0.008550071157515049, 0.008104417473077774, -0.009108316153287888, 0.0029671508818864822, 0.010305729694664478, 0.010065579786896706, 0.012755540199577808, 0.008924747817218304, -0.003163409186527133, 0.009763038717210293, -0.009740851819515228, 0.01135396957397461, 0.003939783666282892, 0.0031021772883832455, -0.0032972695771604776, 0.010679436847567558, -0.002953978953883052], [-0.014962416142225266, 0.012375758029520512, -0.0036937289405614138, -0.010947336442768574, -0.013121012598276138, 0.014729280956089497, -0.010759994387626648, -0.00591387040913105, -0.0034859960433095694, -0.01414596289396286, -0.0034443035256117582, -0.013041570782661438, 0.012003599666059017, 0.01484138797968626, -0.0038227420300245285, -0.009667232632637024, 0.01106936763972044, 0.01319042593240738, 0.011140400543808937, 0.013480952940881252, -0.0033268469851464033, 0.009886810556054115, -0.014339632354676723, -0.012261910364031792, 0.011436834931373596, 0.014336721040308475, 0.0034176683984696865, 0.01174350269138813, -0.013860289007425308, 0.0036083355080336332, -0.012615323998034, 0.014156592078506947, -0.01105206273496151, -0.0028533784206956625, -0.012070625089108944, 0.013484465889632702, -0.009206204675137997, -0.0034398105926811695, 0.006777349393814802, 0.014261811971664429, 0.012472793459892273, 0.011251909658312798, -0.007538770791143179, 0.01270707044750452, -0.013418334536254406, -0.015054002404212952, -0.01563631184399128, 0.01546027883887291, -0.00610764417797327, -0.0034036918077617884, 0.0031482886988669634, 0.015019080601632595, 0.013602840714156628, 0.013633866794407368, -0.013292591087520123, 0.014525852166116238, -0.004707070998847485, 0.002922272076830268, -0.01274486631155014, 0.01165191549807787, -0.013436181470751762, -0.010932181030511856, -0.014565546996891499, 0.013533619232475758, -0.0038555131759494543, 0.01434309035539627, 0.012025999836623669, 0.013745337724685669, -0.0025947089307010174, 0.009638634510338306, -0.00308900885283947, -0.003576607909053564, -0.008637924678623676, -0.01215733215212822, 0.013832127675414085, 0.0123897735029459, -0.004142212215811014, 0.011849097907543182, -0.013810866512358189, -0.013805629685521126, -0.013743272982537746, 0.0028244974091649055, -0.012957597151398659, 0.01310393400490284, -0.010863253846764565, 0.00947560928761959, -0.011289233341813087, -0.014732667244970798, -0.011891728267073631, 0.011230136267840862, -0.014374909922480583, 0.015243226662278175, -0.012350974604487419, 0.011976547539234161, -0.013997090980410576, -0.007994667626917362, -0.0144477104768157, -0.011262677609920502, -0.008648144081234932, -0.0035175809171050787, 0.011142314411699772, 0.0119814807549119, -0.012590086087584496, -0.012914770282804966, -0.012284720316529274, -0.01613902486860752, -0.013195442967116833, 0.012354975566267967, -0.014165575616061687, -0.0036264772061258554, -0.01351658720523119, 0.012835025787353516, -0.014089973643422127, 0.003276734845712781, -0.013126983307301998, -0.011893217451870441, -0.012876543216407299, -0.0034180451184511185, -0.015736892819404602, 0.010351062752306461, -0.011901836842298508, 0.003815422300249338, -0.013453686609864235, -0.00440527917817235, -0.012584679760038853, 0.00648553716018796, -0.003708664793521166, 0.013722972013056278], [-0.008949116803705692, 0.012145274318754673, -0.012060991488397121, -0.011799690313637257, -0.011664374731481075, 0.00303698075003922, -0.012574023567140102, -0.004200359340757132, -0.01202543918043375, -0.011244597844779491, -0.014054154977202415, -0.008245953358709812, 0.013124500401318073, 0.013493388891220093, -0.012970024719834328, -0.010194734670221806, 0.005273191258311272, 0.013273180462419987, 0.01217665895819664, 0.006127585656940937, -0.013386048376560211, 0.01014886423945427, -0.009722654707729816, -0.010123918764293194, 0.01389486063271761, 0.01128002256155014, 0.012935534119606018, 0.013558369129896164, -0.014055030420422554, 0.010639925487339497, -0.010279969312250614, 0.01322578452527523, -0.01375605072826147, -0.009434081614017487, -0.010366368107497692, 0.012425265274941921, -0.01259163673967123, -0.0034209047444164753, 0.006779498420655727, 0.012383466586470604, 0.011001016944646835, 0.012490576133131981, -0.01185743696987629, 0.010036725550889969, -0.012620041146874428, -0.0026046631392091513, -0.003289966844022274, 0.012184196151793003, -0.010251414962112904, -0.012014308013021946, 0.012860579416155815, 0.012720602564513683, 0.011109139770269394, 0.011586260050535202, -0.013743669725954533, 0.010152049362659454, -0.004840748850256205, 0.011163214221596718, -0.002758887130767107, 0.008755020797252655, -0.0033321462105959654, -0.0029521442484110594, -0.014485032297670841, 0.012905360199511051, -0.01010351162403822, 0.01226667407900095, 0.008338813669979572, 0.012520188465714455, -0.011422991752624512, 0.009029335342347622, -0.003160258522257209, -0.010987218469381332, -0.012397633865475655, -0.01027422770857811, 0.011347148567438126, 0.003096779575571418, -0.003079760819673538, 0.011197255924344063, -0.009531858377158642, -0.012253076769411564, -0.014589319936931133, 0.0026874549221247435, -0.011998210102319717, 0.010213124565780163, -0.003690235083922744, 0.011033817194402218, -0.003255228977650404, -0.003247227519750595, -0.01042200904339552, 0.00935631524771452, -0.011200201697647572, 0.0106123685836792, -0.013260863721370697, 0.011746454983949661, -0.009688165970146656, -0.010250899940729141, -0.0033781593665480614, -0.010148094035685062, -0.01116837840527296, -0.010925259441137314, 0.013140215538442135, 0.012227087281644344, -0.01347124483436346, -0.012816468253731728, -0.013606235384941101, -0.002778726862743497, -0.0031061985064297915, 0.012654254212975502, -0.009092221967875957, -0.011766087263822556, -0.0037095670122653246, 0.010975773446261883, -0.011436497792601585, 0.01210299227386713, -0.01221943274140358, -0.0031963896472007036, -0.010324751026928425, -0.0035332527477294207, -0.014510679990053177, 0.003189936513081193, -0.011667381040751934, 0.011283299885690212, -0.013564490713179111, -0.011007065884768963, -0.010683545842766762, 0.01410822942852974, -0.003914134111255407, 0.014126858673989773], [-0.012674052268266678, 0.0035115384962409735, -0.009112364612519741, -0.012301815673708916, -0.0037707278970628977, 0.01277912501245737, -0.012653643265366554, -0.010160760022699833, -0.012883169576525688, -0.0037901552859693766, -0.013350216671824455, -0.011578589677810669, 0.01297468040138483, 0.0031237234361469746, -0.003567534266039729, -0.004432870075106621, 0.011270005255937576, 0.014349522069096565, 0.003058339934796095, 0.003335012122988701, -0.013309185393154621, 0.00748301250860095, -0.012263852171599865, -0.006090953480452299, 0.0034758758265525103, 0.012407983653247356, 0.01296237763017416, 0.013223688118159771, -0.004713138099759817, 0.003656241809949279, -0.005558391567319632, 0.014087351970374584, -0.013695938512682915, -0.008717957884073257, -0.011694991029798985, 0.011901426129043102, -0.010458900593221188, -0.011552338488399982, 0.006768342107534409, 0.003124919254332781, 0.0125917112454772, 0.012174157425761223, -0.011579347774386406, 0.012852792628109455, -0.01155869010835886, -0.014885835349559784, -0.006869410164654255, 0.0028704151045531034, -0.003292654175311327, -0.010482046753168106, 0.010985338129103184, 0.012748431414365768, 0.011303110048174858, 0.0036303051747381687, -0.011901779100298882, 0.0065285987220704556, -0.001349623897112906, 0.013321097008883953, -0.013600108213722706, 0.012079145759344101, -0.011572184041142464, -0.013459140434861183, -0.00336903496645391, 0.011410136707127094, -0.012666075490415096, 0.011428993195295334, 0.006423591170459986, 0.011352653615176678, -0.014661244116723537, 0.00843050703406334, -0.01227518729865551, -0.003592531895264983, -0.0036308218259364367, -0.013611258938908577, 0.0034753847867250443, 0.013029960915446281, -0.012731406837701797, 0.013480164110660553, -0.009161198511719704, -0.005029069259762764, -0.0029470163863152266, 0.013730756007134914, -0.0031512873247265816, 0.010784169659018517, -0.0034762914292514324, 0.003323931712657213, -0.013618512079119682, -0.013421096839010715, -0.004024832975119352, 0.003218330442905426, -0.003415656043216586, 0.012662719935178757, -0.01261906884610653, 0.003056169953197241, -0.011709478683769703, -0.011290867812931538, -0.012971161864697933, -0.010119345970451832, -0.010399064049124718, -0.011392484419047832, 0.0035184905864298344, 0.0032761991024017334, -0.008078133687376976, -0.012835657224059105, -0.003053923835977912, -0.013412877917289734, -0.011877371929585934, 0.009781782515347004, -0.01428874209523201, -0.004283567424863577, -0.0037928689271211624, 0.0034814896062016487, -0.0052594831213355064, 0.011843126267194748, -0.013868940994143486, -0.011039999313652515, -0.011906856670975685, -0.012187310494482517, -0.016143321990966797, 0.00994568970054388, -0.002715453039854765, 0.011561033315956593, -0.014325888827443123, -0.009757069870829582, -0.013824963010847569, 0.012631666846573353, -0.003589982632547617, 0.013543462380766869], [-0.012859731912612915, 0.0053505669347941875, -0.014371638186275959, -0.014163189567625523, -0.01317441463470459, 0.0036441637203097343, -0.01252300851047039, -0.0128758754581213, -0.013203705660998821, -0.012450291775166988, -0.012875815853476524, -0.013295939192175865, 0.0038869178388267756, 0.003168358001857996, -0.007737667299807072, -0.0038387340027838945, 0.005750145763158798, 0.003798633348196745, 0.013581235893070698, 0.012683140113949776, -0.012708012014627457, 0.012323284521698952, -0.012895960360765457, -0.0032245363108813763, 0.014281252399086952, 0.015102561563253403, 0.011983804404735565, 0.012406141497194767, -0.016012025997042656, 0.006064496468752623, -0.014539388939738274, 0.013424452394247055, -0.0035338171292096376, -0.011669360101222992, -0.010841828770935535, 0.01197091955691576, -0.01160123385488987, -0.014417409896850586, 0.00815668050199747, 0.0025447446387261152, 0.015345287509262562, 0.0031060988549143076, -0.013479875400662422, 0.011834035627543926, -0.003521398873999715, -0.01566791906952858, -0.0028355158865451813, 0.01412599254399538, -0.015138408169150352, -0.012601739726960659, 0.014219271019101143, 0.014417826198041439, 0.011159714311361313, 0.013898838311433792, -0.0054174321703612804, 0.014427296817302704, -0.005854065530002117, 0.014015712775290012, -0.011514169164001942, 0.009615996852517128, -0.013971713371574879, -0.01257452741265297, -0.003568215062841773, 0.003158945357427001, -0.0030626615043729544, 0.011925463564693928, 0.003922259900718927, 0.003026895225048065, -0.013162149116396904, 0.009844645857810974, -0.014871959574520588, -0.014742654748260975, -0.01613917574286461, -0.013251308351755142, 0.014371431432664394, 0.014125609770417213, -0.007289462722837925, 0.0036323906388133764, -0.003651875536888838, -0.012634449638426304, -0.015671750530600548, 0.014516372233629227, -0.0035317919682711363, 0.005701885558664799, -0.01339847594499588, 0.011156473308801651, -0.013582113198935986, -0.003725247923284769, -0.013464469462633133, 0.011245058849453926, -0.010836402885615826, 0.015034911222755909, -0.013286958448588848, 0.005466000642627478, -0.013376155868172646, -0.008600030094385147, -0.0061990669928491116, -0.012938053347170353, -0.011852828785777092, -0.0033671180717647076, 0.008167605847120285, 0.013025211170315742, -0.014238814823329449, -0.0038069812580943108, -0.015478923916816711, -0.013456486165523529, -0.007331561762839556, 0.012267137877643108, -0.003184717847034335, -0.0039007810410112143, -0.014980794861912727, 0.005517173558473587, -0.013992116786539555, 0.0050802091136574745, -0.014803721569478512, -0.003327044425532222, -0.014890666119754314, -0.01344272866845131, -0.017961066216230392, 0.012465685606002808, -0.0028751222416758537, 0.010639567859470844, -0.014548057690262794, -0.01204775646328926, -0.013616294600069523, 0.012138346210122108, -0.01165651436895132, 0.003273674286901951], [0.006228878162801266, -0.014202820137143135, 0.013746373355388641, 0.010706661269068718, 0.011587386019527912, -0.013540908694267273, 0.014313087798655033, 0.013801508583128452, 0.015450936742126942, 0.011741708032786846, 0.015540804713964462, 0.015062009915709496, -0.01435952726751566, -0.01581951603293419, 0.003499878803268075, 0.006364514119923115, -0.01407596468925476, -0.015802763402462006, -0.014229106716811657, -0.003304436570033431, 0.011147974990308285, -0.0077958847396075726, 0.01484723761677742, 0.013092628680169582, -0.012835845351219177, -0.01446325983852148, -0.003619428724050522, -0.014609347097575665, 0.01452244445681572, -0.012044725008308887, 0.012944421730935574, -0.014782831072807312, 0.013884704560041428, 0.013459472917020321, 0.0033125532791018486, -0.0027987833600491285, 0.010908092372119427, 0.012419325299561024, -0.0015172724379226565, -0.013206947594881058, -0.015008502639830112, -0.013956516981124878, 0.012759344652295113, -0.005650737322866917, 0.014651847071945667, 0.002671598456799984, 0.015140227973461151, -0.005072090774774551, 0.014542226679623127, 0.01008458063006401, -0.011513612233102322, -0.01555296964943409, -0.003719503991305828, -0.011045847088098526, 0.009646906517446041, -0.012667129747569561, 0.007902021519839764, -0.01371713262051344, 0.013422301970422268, -0.006572425365447998, 0.0031513336580246687, 0.003432836849242449, 0.01557092647999525, -0.004092694725841284, 0.011400646530091763, -0.012650848366320133, -0.012543121352791786, -0.012154570780694485, 0.0028990446589887142, -0.010095208883285522, 0.012811943888664246, 0.012145183980464935, 0.005880907643586397, 0.01336103118956089, -0.014818375930190086, -0.0030285632237792015, 0.00665509607642889, -0.014203611761331558, 0.010951164178550243, 0.015272078104317188, 0.005029303953051567, -0.0027102369349449873, 0.011868208646774292, -0.014206522144377232, 0.011957840994000435, -0.004867635201662779, 0.013455826789140701, 0.011933424510061741, 0.003394695231691003, -0.013352053239941597, 0.015256241895258427, -0.013681836426258087, 0.003586860140785575, -0.004927563946694136, 0.003398403525352478, 0.011092830449342728, 0.013976693153381348, 0.01250222697854042, 0.013890569098293781, 0.0034802278969436884, -0.003535320982336998, -0.009531143121421337, 0.0031691298354417086, 0.008414361625909805, 0.0029940155800431967, 0.003746516304090619, 0.012911565601825714, -0.012318780645728111, 0.0029947480652481318, 0.013508104719221592, 0.00962082203477621, -0.005031549837440252, 0.005174764897674322, -0.00457799294963479, 0.009288502857089043, 0.013981683179736137, 0.013019315898418427, 0.003533405950292945, 0.0172966867685318, -0.012882092967629433, 0.013532278127968311, -0.013011435978114605, 0.0034625655971467495, 0.012086358852684498, 0.012286254204809666, -0.0035282790195196867, 0.00581916281953454, -0.002899330575019121], [0.012141180224716663, -0.011813136748969555, 0.013647893443703651, 0.011279230006039143, 0.012748468667268753, -0.008792145177721977, 0.003136869054287672, 0.013520772568881512, 0.01489709410816431, 0.012314215302467346, 0.01178179495036602, 0.008558467961847782, -0.011372212320566177, -0.011826570145785809, 0.011043813079595566, 0.010938466526567936, -0.005252275615930557, -0.015475820749998093, -0.012018323875963688, -0.0033507647458463907, 0.01261751726269722, -0.010632737539708614, 0.012305079959332943, 0.014918175525963306, -0.01428088266402483, -0.015776198357343674, -0.012966154143214226, -0.01295794639736414, 0.012294245883822441, -0.012759337201714516, 0.012309065088629723, -0.011629615910351276, 0.0034708946477621794, 0.011360926553606987, 0.011867663823068142, -0.011570953764021397, 0.013803249225020409, 0.0033655259758234024, -0.012499399483203888, -0.014153636060655117, -0.014483907260000706, -0.013199754990637302, 0.003608674742281437, -0.010473821312189102, 0.010587167926132679, 0.0024985983036458492, 0.013739981688559055, -0.011174139566719532, 0.01209978386759758, 0.011670034378767014, -0.012301319278776646, -0.006420459598302841, -0.012670070864260197, -0.012326309457421303, 0.004063274711370468, -0.013957618735730648, 0.006896570324897766, -0.011251639574766159, 0.012123131193220615, -0.012770102359354496, 0.014783278107643127, 0.003385352436453104, 0.013154439628124237, -0.012796130031347275, 0.0104379216209054, -0.011979411356151104, -0.01312206033617258, -0.002977604977786541, 0.0029620726127177477, -0.009542899206280708, 0.013129184953868389, 0.009942143224179745, 0.015389823354780674, 0.011690465733408928, -0.013190166093409061, -0.003130323952063918, 0.014965836890041828, -0.01422068476676941, 0.009063276462256908, 0.013871236704289913, 0.014991422183811665, -0.012637022882699966, 0.011550460942089558, -0.014268762432038784, 0.01303164754062891, -0.011641427874565125, 0.01422983780503273, 0.01434472668915987, 0.01525816973298788, -0.013242275454103947, 0.015192277729511261, -0.014181303791701794, 0.013250324875116348, -0.01153531577438116, 0.015712732449173927, 0.004030544310808182, 0.014514626935124397, 0.013057173229753971, 0.011467092670500278, 0.007248089648783207, -0.0034660720266401768, -0.006136337295174599, 0.012992165982723236, 0.014474974945187569, 0.013094348832964897, 0.012477178126573563, 0.011607102118432522, -0.003494924632832408, 0.015290359035134315, 0.009080062620341778, 0.01528653409332037, -0.004058231599628925, 0.0032131012994796038, -0.014539419673383236, 0.014452684670686722, 0.013973015360534191, 0.01503616664558649, 0.012019244953989983, 0.014011097140610218, -0.013083201833069324, 0.010903151705861092, -0.010849202051758766, 0.002743285149335861, 0.01244637742638588, 0.011824352666735649, -0.0034968003164976835, 0.013583686202764511, -0.014423429034650326], [-0.013583946041762829, 0.015424082987010479, -0.012569031678140163, -0.013487741351127625, -0.011763911694288254, 0.0033602940384298563, -0.01450310554355383, -0.004140932112932205, -0.013978478498756886, -0.0031640182714909315, -0.0036264315713196993, -0.003229114692658186, 0.012252405285835266, 0.016030464321374893, -0.0072477394714951515, -0.010892132297158241, 0.01498491782695055, 0.013601171784102917, 0.013859457336366177, 0.013438545167446136, -0.0034126846585422754, 0.011235618963837624, -0.003523496678099036, -0.012154055759310722, 0.016209980472922325, 0.00447561452165246, 0.003652112791314721, 0.002757452195510268, -0.007138882763683796, 0.008706300519406796, -0.013499430380761623, 0.013799238950014114, -0.015048087574541569, -0.013032681308686733, -0.012741930782794952, 0.014239105395972729, -0.012854973785579205, -0.013297601602971554, 0.007573798764497042, 0.01386138517409563, 0.016195734962821007, 0.01322805043309927, -0.014522981829941273, 0.012320377863943577, -0.01467760931700468, -0.014986908994615078, -0.002813190221786499, 0.0028548119589686394, -0.012521712109446526, -0.004962616600096226, 0.0033003848511725664, 0.012224665842950344, 0.011018107645213604, 0.003810136578977108, -0.01397080346941948, 0.012783440761268139, -0.005659366492182016, 0.01371707208454609, -0.00482650101184845, 0.011139269918203354, -0.015212643891572952, -0.012995853088796139, -0.002838497282937169, 0.013832490891218185, -0.009240852668881416, 0.014988279901444912, 0.003835857380181551, 0.013822555541992188, -0.013485042378306389, 0.009587988257408142, -0.012587216682732105, -0.0037215433549135923, -0.013380791060626507, -0.003703685011714697, 0.011870128102600574, 0.00806936901062727, -0.003560432232916355, 0.015608975663781166, -0.0037502192426472902, -0.011385031044483185, -0.01444880198687315, 0.014716858975589275, -0.012918203137814999, 0.013028018176555634, -0.011974843218922615, 0.013766616582870483, -0.01167340762913227, -0.003156440332531929, -0.01294168271124363, 0.012006866745650768, -0.013940215110778809, 0.0035309845115989447, -0.014582355506718159, 0.01219169795513153, -0.015680234879255295, -0.013260443694889545, -0.0117484200745821, -0.006710979156196117, -0.003586223116144538, -0.003945955075323582, 0.014455162920057774, 0.004514257423579693, -0.013465436175465584, -0.011186519637703896, -0.01461541187018156, -0.017298558726906776, -0.012963596731424332, 0.012270181439816952, -0.014780092053115368, -0.01039001066237688, -0.011382265947759151, 0.012664602138102055, -0.01537944097071886, 0.015206963755190372, -0.014469561167061329, -0.014991271309554577, -0.005841100122779608, -0.012116235680878162, -0.01703537628054619, 0.013056261464953423, -0.0142814377322793, 0.013119787909090519, -0.005239705089479685, -0.012686656787991524, -0.0033126669004559517, 0.013574274256825447, -0.011898192577064037, 0.016139548271894455], [-0.010925759561359882, 0.012317795306444168, -0.0022913040593266487, -0.0030697553884238005, -0.0022367124911397696, 0.010835225693881512, -0.007776578422635794, -0.009811691008508205, -0.005958694498986006, -0.00566795514896512, -0.012228869833052158, -0.010709083639085293, 0.010240182280540466, 0.01018678117543459, -0.003470945404842496, -0.010200029239058495, 0.006725603714585304, 0.011046897619962692, 0.0038811720442026854, 0.010042770765721798, -0.002626674482598901, 0.009795808233320713, -0.0037936025764793158, -0.00468935864046216, 0.0031827378552407026, 0.01156587339937687, 0.011469695717096329, 0.01012593973428011, -0.0022636090870946646, 0.004642431158572435, -0.007819963619112968, 0.0027231464628130198, -0.0029587028548121452, -0.003075418993830681, -0.009852370247244835, 0.007182179484516382, -0.0021840594708919525, -0.012049203738570213, 0.007039881311357021, 0.000780022528488189, 0.0004067343834321946, 0.010471503250300884, -0.012314883060753345, 0.007529286667704582, -0.006649952381849289, -0.009514193050563335, -0.009672231040894985, 0.010294067673385143, -0.007078828755766153, -0.006776071153581142, 0.0033651774283498526, 0.010595271363854408, 0.011397361755371094, 0.012781375087797642, -0.012136239558458328, 0.011803966946899891, -0.008637708611786366, 0.0040415809489786625, -0.0015634113224223256, 0.0052312156185507774, -0.0037190548609942198, -0.0054214163683354855, -0.002200655173510313, 0.012899563647806644, -0.003608850296586752, 0.0015965878264978528, 0.00822338555008173, 0.009775926358997822, -0.0017480760579928756, 0.0073744989931583405, -0.003238384146243334, -0.013139785267412663, -0.006987926550209522, -0.0016820724122226238, 0.011011959984898567, 0.010363620705902576, -0.00818648561835289, 0.011521541513502598, -0.0042147040367126465, -0.006044816225767136, -0.011275069788098335, 0.01023583859205246, -0.01155064906924963, 0.0042535699903965, -0.011039798147976398, 0.010672315023839474, -0.0036356202326714993, -0.0033187081571668386, -0.004930257331579924, 0.014935816638171673, -0.009990179911255836, 0.01064956933259964, -0.008206477388739586, 0.010319904424250126, -0.00907056126743555, -0.009609214030206203, -0.004085966385900974, -0.010149210691452026, -0.003403760027140379, -0.006562590133398771, 0.00878463126718998, 0.0017280506435781717, -0.0017557765822857618, -0.007469735573977232, -0.0029227384366095066, -0.009878559969365597, -0.010541887022554874, 0.0008061760454438627, -0.0033608681987971067, -0.007486152462661266, -0.0021601628977805376, 0.01131485030055046, -0.010467800311744213, 0.0032348292879760265, -0.0030376038048416376, -0.0036860692780464888, -0.011068995110690594, -0.0026341464836150408, -0.003666619537398219, 0.0031701470725238323, -0.009695514105260372, 0.0034706215374171734, -0.009732751175761223, -0.010176094248890877, -0.005511004943400621, 0.006196706090122461, -0.008087744005024433, 0.011035127565264702], [0.009595060721039772, -0.0018875080859288573, 0.004841253627091646, 0.013104666024446487, 0.012350812554359436, -0.010085216723382473, 0.002340138191357255, 0.002330439630895853, 0.011971674859523773, 0.009692986495792866, 0.0037659823428839445, 0.0097334124147892, -0.011952393688261509, -0.002249212469905615, 0.006956486031413078, 0.008262252435088158, -0.0063203852623701096, -0.005521148908883333, -0.0018093216931447387, -0.003920811228454113, 0.0013896506279706955, -0.01074990164488554, 0.004710293374955654, 0.007952405139803886, -0.003491062903776765, -0.011093604378402233, -0.0066091218031942844, -0.008021083660423756, 0.0018487664638087153, -0.014698361046612263, 0.014512727968394756, -0.0038147459272295237, 0.0028053601272404194, 0.008905795402824879, 0.011460085399448872, -0.004743947647511959, 0.0056165847927331924, 0.002673513488844037, -0.0017808807315304875, -0.002261541550979018, -0.0077340854331851006, -0.004571292083710432, 0.011020761914551258, -0.0060188258066773415, 0.007814738899469376, 0.005323277786374092, 0.0015537821454927325, -0.006850936450064182, 0.009776320308446884, 0.0023299127351492643, -0.005435756407678127, -0.008154800161719322, -0.008071906864643097, -0.014194762334227562, 0.007210102863609791, -0.006006060168147087, 0.007552732713520527, -0.009595733135938644, 0.0008941976120695472, -0.005537401884794235, 0.0022807193454355, 0.007487912196666002, 0.004318928346037865, -0.007559991907328367, 0.0014081296976655722, -0.011091229505836964, -0.0036158098373562098, -0.005234527867287397, 0.0014431055169552565, -0.006487708538770676, 0.002557062543928623, 0.009830586612224579, 0.006678006611764431, 0.00873748678714037, -0.0004940705839544535, -0.005990391597151756, 0.008490221574902534, -0.0024041493888944387, 0.0025211633183062077, 0.006223332602530718, 0.005768850911408663, -0.003827911103144288, 0.0018086052732542157, -0.013959619216620922, 0.0027898068074136972, -0.002216493710875511, 0.0017285305075347424, 0.003952349536120892, 0.0084731075912714, -0.008733580820262432, 0.002465088851749897, -0.0065010786056518555, 0.007043128367513418, -0.005341638345271349, 0.00741329463198781, 0.010394352488219738, 0.00984368845820427, 0.012286358512938023, 0.0026867592241615057, 0.0027170104440301657, -0.005294408183544874, -0.010185625404119492, 0.0034070045221596956, 0.0074550393037498, 0.007366504520177841, 0.0052686710841953754, 0.008867205120623112, -0.0029562581330537796, 0.0026574493385851383, 0.017167868092656136, 0.008083226159214973, -0.002568232361227274, 0.005085587035864592, -0.003543005557730794, 0.004914859309792519, 0.002553381724283099, 0.005282366182655096, 0.012867609970271587, 0.003998877946287394, -0.008769492618739605, 0.0010755989933386445, -0.0023949542082846165, 0.005930331069976091, 0.0020643731113523245, 0.0028246950823813677, -0.006988764274865389, 0.011440600268542767, -0.009497572667896748], [0.01504695974290371, -0.01321910135447979, 0.014596734195947647, 0.0033111772499978542, 0.014698391780257225, -0.01380250696092844, 0.01449665892869234, 0.0029243098106235266, 0.003678623354062438, 0.003950311802327633, 0.0034255802165716887, 0.0037961110938340425, -0.00723825441673398, -0.013975306414067745, 0.012243627570569515, 0.010966912843286991, -0.0033727502450346947, -0.012914496473968029, -0.012886431999504566, -0.015401894226670265, 0.012990022078156471, -0.011918012984097004, 0.0035549504682421684, 0.0032618604600429535, -0.013632016256451607, -0.016112808138132095, -0.012737566605210304, -0.0028209921438246965, 0.012620084919035435, -0.013152992352843285, 0.014937972649931908, -0.014631657861173153, 0.012304961681365967, 0.012073270045220852, 0.01368009578436613, -0.014988569542765617, 0.01111904438585043, 0.012823575176298618, -0.011800503358244896, -0.008298560976982117, -0.015478490851819515, -0.014368529431521893, 0.0036357108037918806, -0.0036792270839214325, 0.012539529241621494, 0.014582481235265732, 0.015017862431704998, -0.013977871276438236, 0.01291288249194622, 0.01331885252147913, -0.013067247346043587, -0.013541976921260357, -0.013246944174170494, -0.007151378784328699, 0.013922126963734627, -0.014635995030403137, 0.00795594323426485, -0.0140997264534235, 0.014171520248055458, -0.012350216507911682, 0.013805428519845009, 0.012339715845882893, 0.012070938013494015, -0.015166121535003185, 0.012614261358976364, -0.013882587663829327, -0.01387012004852295, -0.013435674831271172, 0.013627022504806519, -0.009959487244486809, 0.0034191887825727463, 0.014282629825174809, 0.0035763769410550594, 0.0035810554400086403, -0.010118940845131874, -0.011848312802612782, 0.0029712722171097994, -0.013119172304868698, 0.013807203620672226, 0.007999700494110584, 0.015514192171394825, -0.013746216893196106, 0.014544536359608173, -0.0035122570116072893, 0.012123828753829002, -0.009787367656826973, 0.0045590950176119804, 0.0032921689562499523, 0.014755884185433388, -0.014605958014726639, 0.013992824591696262, -0.012178747914731503, 0.011872409842908382, -0.0029692254029214382, 0.014338945969939232, 0.003082102397456765, 0.008276436477899551, 0.004218326415866613, 0.00460082059726119, 0.010424329899251461, -0.012919651344418526, -0.003207382746040821, 0.014910493046045303, 0.003978379536420107, 0.012538240291178226, 0.015938101336359978, 0.013514206744730473, -0.004981011152267456, 0.013010242953896523, 0.013528447598218918, 0.012903209775686264, -0.0035223800223320723, 0.015086149796843529, -0.012315548956394196, 0.012654077261686325, 0.013570887967944145, 0.009018342941999435, 0.0035985701251775026, 0.01793820783495903, -0.010968460701406002, 0.0036214133724570274, -0.003386204829439521, 0.014105143025517464, 0.011904463171958923, 0.006708590779453516, -0.014093236066401005, 0.0058903475292027, -0.013765959069132805], [0.003288856940343976, -0.011122182942926884, 0.0038430849090218544, 0.014525352977216244, 0.003575759707018733, -0.01844426430761814, 0.014453839510679245, 0.017039969563484192, 0.017135733738541603, 0.013932829722762108, 0.015591403469443321, 0.018751153722405434, -0.012798036448657513, -0.01840742491185665, 0.01396426185965538, 0.003851476823911071, -0.012447279877960682, -0.005743390414863825, -0.017071306705474854, -0.003112287726253271, 0.013724520802497864, -0.010112665593624115, 0.0034170011058449745, 0.0035362469498068094, -0.014764560386538506, -0.019020985811948776, -0.013163261115550995, -0.015003204345703125, 0.003477690974250436, -0.016558125615119934, 0.013660827651619911, -0.018390171229839325, 0.014826121740043163, 0.017193693667650223, 0.0034502199850976467, -0.017196234315633774, 0.013213505037128925, 0.013558054342865944, -0.00032526219729334116, -0.01592816598713398, -0.017046110704541206, -0.016405778005719185, 0.00369474315084517, -0.016201335936784744, 0.01749507710337639, 0.01343609020113945, 0.015637099742889404, -0.01897989585995674, 0.014508088119328022, 0.014354242011904716, -0.015886155888438225, -0.015442186035215855, -0.004628075752407312, -0.014853308908641338, 0.01581653207540512, -0.01652119681239128, 0.001376262167468667, -0.016740264371037483, 0.01397860050201416, -0.00994421448558569, 0.015221633948385715, 0.0030353697948157787, 0.018733596429228783, -0.014417779631912708, 0.012979170307517052, -0.015096078626811504, -0.01297110877931118, -0.015495195053517818, 0.016246674582362175, -0.009221864864230156, 0.018204325810074806, 0.012851427309215069, 0.0035089943557977676, 0.011823750101029873, -0.0038633644580841064, -0.0032784552313387394, 0.006392207928001881, -0.017904633656144142, 0.014964576810598373, 0.014630792662501335, 0.01944233663380146, -0.018889503553509712, 0.016091609373688698, -0.0034538463223725557, 0.016414005309343338, -0.003482069121673703, 0.003664095886051655, 0.01803540624678135, 0.017265958711504936, -0.009539020247757435, 0.01850990019738674, -0.01682303473353386, 0.003448551520705223, -0.004916270263493061, 0.016246872022747993, 0.01405576802790165, 0.0037676531355828047, 0.01348165888339281, 0.0035154519136995077, 0.0035082625690847635, -0.0033700219355523586, -0.0034135112073272467, 0.01952018402516842, 0.01396408025175333, 0.016940608620643616, 0.016122741624712944, 0.003139028325676918, -0.0047388626262545586, 0.003164554014801979, 0.012190109118819237, 0.004576926119625568, -0.01679880917072296, 0.01929883286356926, -0.00664581498131156, 0.01683027297258377, 0.01499439962208271, 0.018269622698426247, 0.015147482976317406, 0.014431496150791645, -0.0033471956849098206, 0.017264772206544876, -0.01351560652256012, 0.020602328702807426, 0.004443507641553879, 0.0034948023967444897, -0.003611415857449174, 0.0036386363208293915, -0.01921095885336399], [0.014480373822152615, -0.012755926698446274, 0.011792017146945, 0.011844810098409653, 0.009779717773199081, -0.01328912191092968, 0.0037881883326917887, 0.010945088230073452, 0.0142062334343791, 0.013770277611911297, 0.00637842295691371, 0.0030136217828840017, -0.011798450723290443, -0.013119333423674107, 0.011523894034326077, 0.009076629765331745, -0.009768341667950153, -0.013966122642159462, -0.0033352135214954615, -0.013471188023686409, 0.0126350661739707, -0.011324852705001831, 0.013616286218166351, 0.003168367315083742, -0.014017662033438683, -0.003208540380001068, -0.01063534989953041, -0.010740822181105614, 0.013760396279394627, -0.003551483154296875, 0.004129990004003048, -0.012098339386284351, 0.0035464512184262276, 0.005317657254636288, 0.01318757701665163, -0.0040307124145329, 0.01082499697804451, 0.003888530656695366, -0.0016069436678662896, -0.012953708879649639, -0.010899331420660019, -0.0048326170071959496, 0.011498630978167057, -0.00721339974552393, 0.012040327303111553, 0.013468364253640175, 0.012583368457853794, -0.011565783992409706, 0.005480769090354443, 0.011108748614788055, -0.012590503320097923, -0.013509196229279041, -0.011147725395858288, -0.012126675806939602, 0.010021024383604527, -0.0032541973050683737, 0.0012246755650267005, -0.011582541279494762, 0.010593959130346775, -0.010994644835591316, 0.012252267450094223, 0.011783166788518429, 0.012452074326574802, -0.014066595584154129, 0.012225364334881306, -0.010676841251552105, -0.011319165118038654, -0.010826940648257732, 0.011439613066613674, -0.009586912579834461, 0.010794068686664104, 0.003636404173448682, 0.010875503532588482, 0.012333326041698456, -0.013426941819489002, -0.010348401963710785, 0.014398294501006603, -0.010885631665587425, 0.004145035520195961, 0.007864129729568958, 0.01196281984448433, -0.013003005646169186, 0.003547908505424857, -0.012053887359797955, 0.012209130451083183, -0.013429632410407066, 0.003562837839126587, 0.012139563448727131, 0.01096604485064745, -0.013023920357227325, 0.011147573590278625, -0.007153526414185762, 0.011791006661951542, -0.01146139856427908, 0.010642188601195812, 0.011087092570960522, 0.014006192795932293, 0.006307248957455158, 0.0118687953799963, 0.009553822688758373, -0.003421757835894823, -0.005548302084207535, 0.0028481436893343925, 0.007242976222187281, 0.012585589662194252, 0.0028954711742699146, 0.0029952151235193014, -0.011035963892936707, 0.0038160018157213926, 0.010713375173509121, 0.0036483940202742815, -0.013950684107840061, 0.01423337496817112, -0.0034642687533050776, 0.0026464476250112057, 0.013359076343476772, 0.009857075288891792, 0.0126261655241251, 0.013954609632492065, -0.009618159383535385, 0.005027645733207464, -0.0031523704528808594, 0.012682144530117512, 0.008433020673692226, 0.011386387050151825, -0.012862329371273518, 0.0035597707610577345, -0.014191800728440285], [-0.013059023767709732, 0.008634597063064575, -0.0032063329126685858, -0.006147954612970352, -0.00948057509958744, 0.0032757704611867666, -0.01076626405119896, -0.011522592976689339, -0.012100530788302422, -0.005193399265408516, -0.003512005787342787, -0.009321952238678932, 0.009390715509653091, 0.011106261983513832, -0.0032858450431376696, -0.005184221547096968, 0.010078564286231995, 0.007520490325987339, 0.010047892108559608, 0.00522199273109436, -0.012862027622759342, 0.010944864712655544, -0.009080651216208935, -0.011963753961026669, 0.01127655804157257, 0.009305043146014214, 0.0032446791883558035, 0.005136109888553619, -0.01273680292069912, 0.00909704901278019, -0.0035073368344455957, 0.011893629096448421, -0.008686837740242481, -0.008804073557257652, -0.0122600132599473, 0.005531167611479759, -0.01103142462670803, -0.011651847511529922, 0.006658969447016716, 0.012430607341229916, 0.011259600520133972, 0.01257541123777628, -0.010579690337181091, 0.009324918501079082, -0.01043013297021389, -0.01145209651440382, -0.002709733322262764, 0.007182862609624863, -0.003274136921390891, -0.003288192441686988, 0.004222534131258726, 0.01014990545809269, 0.010642731562256813, 0.0032421404030174017, -0.010091586038470268, 0.010924151167273521, -0.007399305235594511, 0.007334043737500906, -0.012387806549668312, 0.006598144304007292, -0.012161359190940857, -0.008919858373701572, -0.013529516756534576, 0.011419647373259068, -0.011315817944705486, 0.009453359059989452, 0.008255966007709503, 0.009746954776346684, -0.002802801551297307, 0.008725046180188656, -0.0031354189850389957, -0.012133386917412281, -0.008405566215515137, -0.012410277500748634, 0.012257108464837074, 0.01235209684818983, -0.010451279580593109, 0.012354143895208836, -0.009893842972815037, -0.01255526952445507, -0.013461096212267876, 0.013813522644340992, -0.011647922918200493, 0.008872746489942074, -0.0033010882325470448, 0.0030169959645718336, -0.011458604596555233, -0.005287966225296259, -0.009161308407783508, 0.00408419594168663, -0.011810504831373692, 0.0032485544215887785, -0.008736124262213707, 0.01230885460972786, -0.010456941090524197, -0.010758606716990471, -0.010660622268915176, -0.003994110971689224, -0.01179559901356697, -0.0041428678669035435, 0.009621486999094486, 0.00906772818416357, -0.012250338681042194, -0.0036954227834939957, -0.007487387862056494, -0.012497487477958202, -0.003351692110300064, 0.010436765849590302, -0.012892375700175762, -0.011241650208830833, -0.009854180738329887, 0.0032418505288660526, -0.01079112384468317, 0.011589058674871922, -0.010807165876030922, -0.00317836320027709, -0.01154357474297285, -0.010481946170330048, -0.002578649902716279, 0.01092618703842163, -0.01179193239659071, 0.0033653101418167353, -0.012086950242519379, -0.004040424712002277, -0.0035063005052506924, 0.0034857643768191338, -0.008885681629180908, 0.00955601129680872], [-0.003502323292195797, 0.01692635379731655, -0.020678769797086716, -0.016995998099446297, -0.01841663010418415, 0.022418320178985596, -0.019419778138399124, -0.01894999109208584, -0.014468885958194733, -0.014930234290659428, -0.017607690766453743, -0.00409559765830636, 0.014859139919281006, 0.0036124454345554113, -0.0036481651477515697, -0.016248060390353203, 0.01469297707080841, 0.003495885757729411, 0.00337200821377337, 0.003566657193005085, -0.003023183438926935, 0.0065489462576806545, -0.0038427093531936407, -0.019355909898877144, 0.005418857093900442, 0.003573706839233637, 0.016003254801034927, 0.01836630515754223, -0.0037247168365865946, 0.017251670360565186, -0.003985047806054354, 0.02121761068701744, -0.003682805923745036, -0.0189365204423666, -0.003385630203410983, 0.01930893585085869, -0.01644935831427574, -0.005977042485028505, 0.013146601617336273, 0.015822719782590866, 0.020192841067910194, 0.0028705846052616835, -0.0036373219918459654, 0.01612471416592598, -0.02008996345102787, -0.019028812646865845, -0.01766916550695896, 0.0027467820327728987, -0.018979014828801155, -0.0035963125992566347, 0.017875732854008675, 0.004582699853926897, 0.017226414754986763, 0.00444756681099534, -0.017135176807641983, 0.017073215916752815, -0.001376014668494463, 0.0031346993055194616, -0.005072977393865585, 0.013074119575321674, -0.003362968098372221, -0.0048745172098279, -0.004478272050619125, 0.012740382924675941, -0.015792855992913246, 0.02081807516515255, 0.01824202947318554, 0.01946900598704815, -0.016474014148116112, 0.00968437921255827, -0.018742380663752556, -0.005361214745789766, -0.02099771983921528, -0.0038534163031727076, 0.003595907473936677, 0.0035152570344507694, -0.003293377347290516, 0.0034688252490013838, -0.016870267689228058, -0.004746976308524609, -0.021320363506674767, 0.023034628480672836, -0.012025716714560986, 0.016738178208470345, -0.0172559916973114, 0.0032281624153256416, -0.003915432374924421, -0.018538938835263252, -0.021374091506004333, 0.003516104770824313, -0.020582502707839012, 0.004192599095404148, -0.003899169620126486, 0.0030810311436653137, -0.023655889555811882, -0.012246179394423962, -0.021693138405680656, -0.015446574427187443, -0.0034441782627254725, -0.003604457713663578, 0.0034988815896213055, 0.02003055438399315, -0.02139843814074993, -0.01735944114625454, -0.022760124877095222, -0.002920485334470868, -0.007445602212101221, 0.0034929390531033278, -0.019964996725320816, -0.01652529090642929, -0.017442503944039345, 0.0036993559915572405, -0.0030865068547427654, 0.003293640911579132, -0.019819723442196846, -0.018182916566729546, -0.019363945350050926, -0.0038187867030501366, -0.019796408712863922, 0.019158918410539627, -0.018632223829627037, 0.004213612526655197, -0.0031231276225298643, -0.011474579572677612, -0.018616316840052605, 0.003920688759535551, -0.01729845255613327, 0.003122270107269287], [-0.014329113997519016, 0.014097373932600021, -0.01398625411093235, -0.012504937127232552, -0.003235809737816453, 0.0029909219592809677, -0.003022527787834406, -0.014173127710819244, -0.0036853374913334846, -0.016029220074415207, -0.015092387795448303, -0.013196426443755627, 0.010887088254094124, 0.01552460715174675, -0.011705410666763783, -0.004229482263326645, 0.0034348503686487675, 0.003116180654615164, 0.013709373772144318, 0.014234594069421291, -0.002959705423563719, 0.010228830389678478, -0.014491338282823563, -0.0028781050350517035, 0.0033883776050060987, 0.003051746403798461, 0.0033396927174180746, 0.014238477684557438, -0.01463228091597557, 0.003604293568059802, -0.010530218482017517, 0.013450968079268932, -0.009039385244250298, -0.01217398326843977, -0.003791932947933674, 0.0028282967396080494, -0.010835180059075356, -0.011613479815423489, 0.012591732665896416, 0.002365840831771493, 0.013792330399155617, 0.0137712974101305, -0.003343888558447361, 0.011491759680211544, -0.012224437668919563, -0.010374846868216991, -0.0026344195939600468, 0.017270777374505997, -0.003335121786221862, -0.012509625405073166, 0.00342959095723927, 0.01412316132336855, 0.011737129651010036, 0.012559648603200912, -0.01296892762184143, 0.003736709011718631, -0.00905544962733984, 0.013579494319856167, -0.011991647072136402, 0.010242270305752754, -0.014552571810781956, -0.012972292490303516, -0.015160812065005302, 0.013836456462740898, -0.012760205194354057, 0.013204041868448257, 0.013718507252633572, 0.012527060694992542, -0.011826508678495884, 0.009834649972617626, -0.012078449130058289, -0.012981073930859566, -0.01197507232427597, -0.0045874458737671375, 0.014261109754443169, 0.01337041798979044, -0.003759390441700816, 0.0030633837450295687, -0.012402848340570927, -0.014732694253325462, -0.01580256223678589, 0.015357024036347866, -0.002974475035443902, 0.003695104969665408, -0.008744081482291222, 0.011542498134076595, -0.010502413846552372, -0.008071289397776127, -0.0048426007851958275, 0.013072540052235126, -0.012844580225646496, 0.013870496302843094, -0.012905649840831757, 0.012613384053111076, -0.003195425495505333, -0.012695908546447754, -0.012301944196224213, -0.01503921952098608, -0.012684442102909088, -0.003388021606951952, 0.013575716875493526, 0.013441460207104683, -0.01207433920353651, -0.007550820242613554, -0.004437311552464962, -0.012784892693161964, -0.009142749942839146, 0.014843219891190529, -0.002971065230667591, -0.01371024176478386, -0.013811449520289898, 0.0033436052035540342, -0.015382505021989346, 0.003112460719421506, -0.015822304412722588, -0.013475548475980759, -0.01204151101410389, -0.0035770356189459562, -0.0020740297622978687, 0.0032918830402195454, -0.002637786790728569, 0.003186102258041501, -0.01708970218896866, -0.004287765361368656, -0.012558947317302227, 0.0036564331967383623, -0.012573868967592716, 0.002814179752022028], [0.006729218643158674, -0.007595063652843237, 0.007896378636360168, 0.010487105697393417, 0.003435349091887474, -0.0027472609654068947, 0.00481776287779212, 0.005407250020653009, 0.003874868620187044, 0.003066588193178177, 0.010894354432821274, 0.00496975751593709, -0.006810666527599096, -0.0077505940571427345, 0.005308029241859913, 0.006935789715498686, -0.007622641045600176, -0.0026828732807189226, -0.008589758537709713, -0.007640902418643236, 0.0028547553811222315, -0.007589204236865044, 0.005934271961450577, 0.0062279426492750645, -0.007039496675133705, -0.004278731532394886, -0.007585631683468819, -0.009112969040870667, 0.008062094449996948, -0.009703231044113636, 0.008248074911534786, -0.002508234465494752, 0.00588487833738327, 0.007755921687930822, 0.010912040248513222, -0.010009254328906536, 0.004580373875796795, 0.01000906340777874, -0.001392688718624413, -0.013271038420498371, -0.0056891185231506824, -0.005205979570746422, 0.0010101206135004759, -0.002864415990188718, 0.0060792784206569195, 0.004381836857646704, 0.008283572271466255, -0.002674190094694495, 0.006620642729103565, 0.009946325793862343, -0.002661731792613864, -0.0028268699534237385, -0.0027846700977534056, -0.0060458132065832615, 0.0029788678511977196, -0.006926810368895531, 0.005073988810181618, -0.007844473235309124, 0.011221153661608696, -0.009684073738753796, 0.010971179232001305, 0.014232789166271687, 0.0019998871721327305, -0.013840915635228157, 0.008353057317435741, -0.006016972940415144, -0.0034736546222120523, -0.006524123251438141, 0.012411343865096569, -0.009422793984413147, 0.008356302045285702, 0.01300790999084711, 0.0028334669768810272, 0.011757493950426579, -0.008118050172924995, -0.009705157950520515, 0.0029010181315243244, -0.009005583822727203, 0.0057852426543831825, 0.010343817993998528, 0.004904505796730518, -0.00820417981594801, 0.006836285814642906, -0.010876456275582314, 0.0032590662594884634, -0.00312206638045609, 0.0035042804665863514, 0.002482158597558737, 0.0027164765633642673, -0.013141119852662086, 0.0023785720113664865, -0.002413343172520399, 0.005715850740671158, -0.0027654138393700123, 0.0030716483015567064, 0.009592506103217602, 0.0027364022098481655, 0.004158605821430683, 0.006314294878393412, 0.003167597111314535, -0.010284502990543842, -0.004694169852882624, 0.0024347954895347357, 0.010053376667201519, 0.005417629610747099, 0.007886089384555817, 0.009859269484877586, -0.004599208477884531, 0.007400515954941511, 0.011214320547878742, 0.0032204105518758297, -0.00671028159558773, 0.003791129682213068, -0.010117102414369583, 0.010208291001617908, 0.0044187880121171474, 0.0029641028959304094, 0.003264644416049123, 0.0020848854910582304, -0.003156414721161127, 0.004424195270985365, -0.007512328680604696, 0.007582062389701605, 0.010212619788944721, 0.008606481365859509, -0.0031464577186852694, 0.007384272757917643, -0.0027333057951182127], [0.01463145948946476, -0.015009687282145023, 0.0100413728505373, 0.011833874508738518, 0.003631757805123925, -0.013051236048340797, 0.015312664210796356, 0.014318244531750679, 0.013533616438508034, 0.014524071477353573, 0.003537445794790983, 0.004883995279669762, -0.012552252970635891, -0.0032494671177119017, 0.014424249529838562, 0.0040347217582166195, -0.003583883633837104, -0.014216875657439232, -0.003446712624281645, -0.01397289801388979, 0.008845429867506027, -0.009304230101406574, 0.01274107675999403, 0.01626177318394184, -0.0137643376365304, -0.013200301676988602, -0.013610477559268475, -0.003641195362433791, 0.011143656447529793, -0.012389682233333588, 0.01327735185623169, -0.0030451335478574038, 0.014179879799485207, 0.002839331980794668, 0.013647218234837055, -0.004141241777688265, 0.0031167955603450537, 0.008053883910179138, -0.012520228512585163, -0.0144188292324543, -0.012866879813373089, -0.013266322202980518, 0.012930504977703094, -0.015072409063577652, 0.0033088966738432646, 0.012689580209553242, 0.012520469725131989, -0.013739047572016716, 0.01396174170076847, 0.0033327529672533274, -0.012787949293851852, -0.016739124432206154, -0.015616201795637608, -0.003942905459553003, 0.0035377044696360826, -0.015529196709394455, 0.011563215404748917, -0.012399290688335896, 0.013751623220741749, -0.006583696231245995, 0.015182599425315857, 0.0012345792492851615, 0.008943676017224789, -0.003473861375823617, 0.014628013595938683, -0.01511344313621521, -0.01547976117581129, -0.013255398720502853, 0.002901862608268857, -0.010474423877894878, 0.01565594971179962, 0.013711265288293362, 0.015579367987811565, 0.0035255770199000835, -0.006425028666853905, -0.015193546190857887, 0.0031128129921853542, -0.016097525134682655, 0.013119759038090706, 0.012675471603870392, 0.014337415806949139, -0.01350653637200594, 0.01422106008976698, -0.007099890150129795, 0.003759013256058097, -0.014329484663903713, 0.0036254217848181725, 0.0036700775381177664, 0.015083745121955872, -0.015189791098237038, 0.01455026213079691, -0.014102458022534847, 0.0037093607243150473, -0.003590269945561886, 0.011980699375271797, 0.01102867629379034, 0.003386292839422822, 0.011279501020908356, 0.014532159082591534, 0.013137692585587502, -0.01617206260561943, -0.0157884880900383, 0.0028659505769610405, 0.01689944788813591, 0.013429530896246433, 0.003303872887045145, 0.013875046744942665, -0.015590474009513855, 0.012929114513099194, 0.0035715512931346893, 0.013629471883177757, -0.0035894913598895073, 0.012938067317008972, -0.0036779381334781647, 0.014675348065793514, 0.012594053521752357, 0.01544861774891615, 0.01430459599941969, 0.009974339976906776, -0.013151801191270351, 0.0028253644704818726, -0.013530710712075233, 0.012808913365006447, 0.0049314917996525764, 0.016348538920283318, -0.016304006800055504, 0.0038875648751854897, -0.013851107098162174], [0.014744334854185581, -0.004152365960180759, 0.0037345087621361017, 0.0033726412802934647, 0.01800970360636711, -0.003159173997119069, 0.017733367159962654, 0.015192003920674324, 0.01517612673342228, 0.012588144280016422, 0.02140568196773529, 0.010953684337437153, -0.016967300325632095, -0.003759654937312007, 0.004364572465419769, 0.016299579292535782, -0.020396538078784943, -0.00371166062541306, -0.0031616874039173126, -0.013633985072374344, 0.01351161953061819, -0.008793136104941368, 0.013144227676093578, 0.0031666967552155256, -0.019806917756795883, -0.003929387778043747, -0.0037209324073046446, -0.0029954384081065655, 0.01783146895468235, -0.02172873355448246, 0.006457400508224964, -0.004777382593601942, 0.019684026017785072, 0.01449211873114109, 0.0162599328905344, -0.006711794529110193, 0.01838960126042366, 0.00564374728128314, -0.007064872421324253, -0.017120979726314545, -0.004250851925462484, -0.015391658060252666, 0.013612667098641396, -0.017449306324124336, 0.015634750947356224, 0.009464762173593044, 0.003143829759210348, -0.0033275880850851536, 0.009913121350109577, 0.018803762272000313, -0.015584495849907398, -0.006634868681430817, -0.01948426105082035, -0.018365932628512383, 0.014033270999789238, -0.01877921260893345, 0.010217887349426746, -0.007056329399347305, 0.0029698521830141544, -0.01035518478602171, 0.01872086711227894, 0.013291270472109318, 0.009317898191511631, -0.0028211786411702633, 0.015353717841207981, -0.017177358269691467, -0.017397411167621613, -0.014755841344594955, 0.016083993017673492, -0.010411101393401623, 0.015685293823480606, 0.012467369437217712, 0.012122796848416328, 0.0038336331490427256, -0.018843596801161766, -0.018182601779699326, 0.014418542385101318, -0.0031887602526694536, 0.018663834780454636, 0.014001608826220036, 0.012978039681911469, -0.002038471633568406, 0.003428058233112097, -0.012401334941387177, 0.004948751535266638, -0.00322035257704556, 0.021678999066352844, 0.013578882440924644, 0.009200639091432095, -0.012680461630225182, 0.003206247929483652, -0.0041816928423941135, 0.017512034624814987, -0.01836114190518856, 0.012188530527055264, 0.0037164215464144945, 0.0035835313610732555, 0.0042213937267661095, 0.018584666773676872, 0.019375653937458992, -0.020015886053442955, -0.015603384003043175, 0.011228034272789955, 0.003595721675083041, 0.013202839531004429, 0.00993676483631134, 0.016119737178087234, -0.02056218311190605, 0.014218359254300594, 0.013633343391120434, 0.018637657165527344, -0.021901337429881096, 0.014564900659024715, -0.016298769041895866, 0.013780116103589535, 0.014783312566578388, 0.012358460575342178, 0.015600031241774559, 0.001940915361046791, -0.017333317548036575, 0.018840745091438293, -0.00360777135938406, 0.01294796448200941, 0.016427841037511826, 0.018978187814354897, -0.01910722255706787, 0.017420386895537376, -0.0031307749450206757], [0.0031066532246768475, -0.012584674172103405, 0.011684844270348549, 0.010262285359203815, 0.013486756943166256, -0.014431430958211422, 0.009228733368217945, 0.002986953826621175, 0.011763278394937515, 0.0038486230187118053, 0.010404289700090885, 0.014802458696067333, -0.011976463720202446, -0.015223078429698944, 0.007106596138328314, 0.012363657355308533, -0.012873045168817043, -0.0032116551883518696, -0.004890855401754379, -0.014051106758415699, 0.0066979327239096165, -0.01065623015165329, 0.003509843023493886, 0.01394001953303814, -0.01568189449608326, -0.009765143506228924, -0.013248729519546032, -0.012028492987155914, 0.014060640707612038, -0.008453214541077614, 0.012977343052625656, -0.00332324905321002, 0.01447653491050005, 0.014426742680370808, 0.00835808739066124, -0.013092830777168274, 0.010903948917984962, 0.005530918017029762, -0.012709329836070538, -0.014002020470798016, -0.015400434844195843, -0.013226672075688839, 0.015561367385089397, -0.0033657976891845465, 0.011358525604009628, 0.01611933670938015, 0.013503272086381912, -0.01357997115701437, 0.0037762040738016367, 0.013956689275801182, -0.014349470846354961, -0.012171910144388676, -0.013838319107890129, -0.003837243653833866, 0.003676916006952524, -0.009907933883368969, 0.008349956013262272, -0.012545842677354813, 0.013342729769647121, -0.006823134142905474, 0.013011940754950047, 0.01338268257677555, 0.01585143432021141, -0.003012609202414751, 0.013654706999659538, -0.012632640078663826, -0.010779174976050854, -0.013746988028287888, 0.012983185239136219, -0.009893113747239113, 0.013461492024362087, 0.003528087167069316, 0.009049513377249241, 0.013107778504490852, -0.014982481487095356, -0.0031882510520517826, 0.01030441652983427, -0.013627012260258198, 0.010794632136821747, 0.007738062646239996, 0.0030543559696525335, -0.014187101274728775, 0.011768562719225883, -0.003996588289737701, 0.012344672344624996, -0.011965416371822357, 0.01331425178796053, 0.015379450283944607, 0.0031057000160217285, -0.011729301884770393, 0.012591368518769741, -0.0033857051748782396, 0.010938780382275581, -0.012493052519857883, 0.008069788105785847, 0.006089112721383572, 0.003282746998593211, 0.00420638220384717, 0.01355638075619936, 0.011028540320694447, -0.014326663687825203, -0.011667322367429733, 0.01291674841195345, 0.013316472992300987, 0.014947603456676006, 0.016594525426626205, 0.013667777180671692, -0.0032671457156538963, 0.01634877175092697, 0.008173005655407906, 0.003743252716958523, -0.012392096221446991, 0.015066447667777538, -0.011881785467267036, 0.012076267972588539, 0.011592383496463299, 0.013983821496367455, 0.012824524194002151, 0.017768200486898422, -0.010532297194004059, 0.011530772782862186, -0.014244011603295803, 0.015180058777332306, 0.004036614205688238, 0.004658224992454052, -0.012380687519907951, 0.01062717940658331, -0.0158200953155756], [0.000936416385229677, -0.003250685054808855, 0.0073447576723992825, 0.01226795557886362, 0.004067741800099611, -0.0028157848864793777, 0.008297484368085861, 0.002982185920700431, 0.002982089528813958, 0.007443628273904324, 0.0034486844670027494, 0.0033382249530404806, -0.003099199151620269, -0.0009302727412432432, 0.0035023100208491087, 0.011568304151296616, -0.01373244822025299, -0.006007127929478884, -0.012404391542077065, -0.00237329863011837, 0.005051616579294205, -0.008115929551422596, 0.0027980348095297813, 0.0020583667792379856, -0.008717337623238564, -0.0017790879355743527, -0.003039219882339239, -0.002835469553247094, 0.003414780367165804, -0.0035855735186487436, 0.0035658697597682476, -0.0026503412518650293, 0.003452765289694071, 0.005775726865977049, 0.0031232221517711878, -0.0027080478612333536, 0.013473449274897575, 0.013670867308974266, -0.00568159855902195, -0.006680783350020647, -0.0016556126065552235, -0.002786238444969058, 0.001637099077925086, -0.002828132128342986, 0.002605778630822897, 0.0024349456652998924, 0.0029996554367244244, -0.0016453044954687357, 0.0035825304221361876, 0.015526089817285538, -0.012471825815737247, -0.007738551124930382, -0.014922138303518295, -0.012863676995038986, 0.0034306086599826813, -0.0063609895296394825, 0.0012185589876025915, -0.0026460704393684864, 0.0026383509393781424, -0.003018995514139533, 0.002837258856743574, 0.002274365397170186, 0.001956158084794879, -0.00218858290463686, 0.0032179325353354216, -0.012660077773034573, -0.003045741468667984, -0.0026693737599998713, 0.0031905556097626686, -0.009823826141655445, 0.0024489215575158596, 0.010104425251483917, 0.0008854668703861535, 0.0032742293551564217, -0.010407820343971252, -0.002935494063422084, 0.010294703766703606, -0.00210548285394907, 0.0029399257618933916, 0.013832787983119488, 0.0022151065059006214, -0.001549301901832223, 0.01654238998889923, -0.012574694119393826, 0.017076512798666954, -0.018069062381982803, 0.002889516530558467, 0.007909613661468029, 0.002037510508671403, -0.01374526135623455, 0.0016755423275753856, -0.0009482624591328204, 0.010855688713490963, -0.016958467662334442, 0.0016674535581842065, 0.008738958276808262, 0.0018629712285473943, 0.01160480547696352, 0.010286403819918633, 0.0033268239349126816, -0.007175823207944632, -0.0029562986455857754, 0.0025556019973009825, 0.0080567616969347, 0.0016147244023159146, 0.002344979904592037, 0.008654597215354443, -0.0030390589963644743, 0.002004058798775077, 0.01038086973130703, 0.013083824887871742, -0.003212774870917201, 0.0026498064398765564, -0.008533420972526073, 0.0017357382457703352, 0.0017093700589612126, 0.0019502979703247547, 0.0031928173266351223, 0.0023286116775125265, -0.007563628256320953, 0.0026246928609907627, -0.003070890437811613, 0.002842068439349532, 0.006009180564433336, 0.0030883171129971743, -0.0032801267225295305, 0.0029680279549211264, -0.002112411428242922], [0.003200329141691327, -0.0034258775413036346, 0.006602274253964424, 0.004766976460814476, 0.013373232446610928, -0.00320089771412313, 0.01243448257446289, 0.0030929415952414274, 0.013799858279526234, 0.01306853350251913, 0.0036988547071814537, 0.011960764415562153, -0.0037412401288747787, -0.012650039978325367, 0.011986004188656807, 0.00992979109287262, -0.01387826818972826, -0.011953570879995823, -0.003176165744662285, -0.0030666168313473463, 0.012219118885695934, -0.011451457627117634, 0.012059644795954227, 0.011457311920821667, -0.003526149783283472, -0.003357025096192956, -0.011757959611713886, -0.012472148984670639, 0.012431214563548565, -0.0040885633789002895, 0.012189667671918869, -0.013869719579815865, 0.010595082305371761, 0.011412560939788818, 0.013403736054897308, -0.011954407207667828, 0.0034232742618769407, 0.012229405343532562, -0.001568604726344347, -0.0024969864170998335, -0.003701567417010665, -0.012091219425201416, 0.011034728959202766, -0.005189799703657627, 0.012373317964375019, 0.015382879413664341, 0.012407471425831318, -0.014378021471202374, 0.011203575879335403, 0.009494001977145672, -0.013530432246625423, -0.013565411791205406, -0.012032619677484035, -0.01322582084685564, 0.010383057408034801, -0.011198027990758419, 0.012261650525033474, -0.003107258817180991, 0.004501806106418371, -0.009653893299400806, 0.013031432405114174, 0.011977014131844044, 0.014865645207464695, -0.003381088376045227, 0.011407442390918732, -0.013993003405630589, -0.012521057389676571, -0.013197839260101318, 0.006860668770968914, -0.00902208499610424, 0.011672216467559338, 0.0036036018282175064, 0.012104786932468414, 0.010946831665933132, -0.00447807414457202, -0.0032115031499415636, 0.01438926998525858, -0.012633777223527431, 0.006464467849582434, 0.0061033121310174465, 0.008270986378192902, -0.015016497112810612, 0.012136991135776043, -0.0033282225485891104, 0.003632435342296958, -0.011094525456428528, 0.0123894102871418, 0.014143142849206924, 0.012887878343462944, -0.011519947089254856, 0.011630208231508732, -0.013272632844746113, 0.010357331484556198, -0.012662012130022049, 0.011785316281020641, 0.01249023899435997, 0.012281323783099651, 0.008892027661204338, 0.013956546783447266, 0.003326711943373084, -0.0035612978972494602, -0.012048727832734585, 0.0075199780985713005, 0.0034949651453644037, 0.002893089083954692, 0.014608931727707386, 0.0029326966032385826, -0.013761736452579498, 0.013592507690191269, 0.012527749873697758, 0.01173444464802742, -0.0034528241958469152, 0.0029998780228197575, -0.012068160809576511, 0.002846549963578582, 0.012307466939091682, 0.013115442357957363, 0.012660486623644829, 0.01603860966861248, -0.003549202112480998, 0.010635088197886944, -0.013935776427388191, 0.014115842990577221, 0.009587346576154232, 0.014262650161981583, -0.012593167833983898, 0.004285601899027824, -0.012838597409427166], [0.01287777442485094, -0.005652325227856636, 0.005514530465006828, 0.01677928864955902, 0.019200818613171577, -0.0057085612788796425, 0.009682361967861652, 0.0049313027411699295, 0.006397515535354614, 0.009388788603246212, 0.007700805552303791, 0.0028305482119321823, -0.019096752628684044, -0.006817431189119816, 0.021012071520090103, 0.03915924206376076, -0.014744251035153866, -0.010668355971574783, -0.004988864995539188, -0.015676671639084816, 0.020103445276618004, -0.010612500831484795, 0.0028688861057162285, 0.004175763577222824, -0.00807411689311266, -0.00728577421978116, -0.003545373445376754, -0.0057491883635520935, 0.008985205553472042, -0.030054939910769463, 0.020019859075546265, -0.003715713042765856, 0.007472619879990816, 0.00271200155839324, 0.036930348724126816, -0.0027423424180597067, 0.015116268768906593, 0.03387216478586197, -0.0055930158123373985, -0.010120740160346031, -0.005513510201126337, -0.010590736754238605, 0.011914397589862347, -0.03071661666035652, 0.01690664514899254, 0.0021541661117225885, 0.009872234426438808, -0.006759549491107464, 0.0030984007753431797, 0.007305305916815996, -0.015416255220770836, -0.0028852615505456924, -0.00778217613697052, -0.03180409595370293, 0.007123143412172794, -0.014462505467236042, 0.008606920018792152, -0.0032445997931063175, 0.023489203304052353, -0.022759299725294113, 0.004669134505093098, 0.01410161517560482, 0.009998023509979248, -0.011311504989862442, 0.012767838314175606, -0.006399476435035467, -0.009914170019328594, -0.004176272079348564, 0.0053844633512198925, -0.008836193010210991, 0.0034391472581773996, 0.004430219531059265, 0.004697797819972038, 0.011137864552438259, -0.0059510511346161366, -0.005977726075798273, 0.006144379731267691, -0.012045037932693958, 0.016187818720936775, 0.0016519331838935614, 0.004464163910597563, -0.004878223408013582, 0.007609186694025993, -0.002735031768679619, 0.015483474358916283, -0.008433411829173565, 0.01992206834256649, 0.010899944230914116, 0.00411164341494441, -0.0036323564127087593, 0.0031918715685606003, -0.005017370916903019, 0.03463507443666458, -0.011301320046186447, 0.0069776298478245735, 0.031167615205049515, 0.007549407426267862, 0.010920317843556404, 0.006364708300679922, 0.03743138536810875, -0.005176491569727659, -0.0076650227420032024, 0.011517822742462158, 0.003330295905470848, 0.006937127094715834, 0.009621895849704742, 0.004764633718878031, -0.008100869134068489, 0.012256103567779064, 0.032434530556201935, 0.005490139592438936, -0.006434716284275055, 0.005553048104047775, -0.01667831651866436, 0.007964473217725754, 0.006469562649726868, 0.0034159717615693808, 0.023234400898218155, 0.007205440662801266, -0.015180439688265324, 0.003903574775904417, -0.01919199526309967, 0.004027294926345348, 0.06044149026274681, 0.007244017906486988, -0.004492009989917278, 0.004906897898763418, -0.004526152275502682], [-0.004606527276337147, 0.0059914616867899895, -0.007479343097656965, -0.005408443044871092, -0.004144670907407999, 0.007422829046845436, -0.008992967195808887, -0.005271388683468103, -0.0036816357169300318, -0.006562121212482452, -0.0066111283376812935, -0.005701219663023949, 0.006975693162530661, 0.006626027636229992, -0.008149602450430393, -0.006245876662433147, 0.0062710558995604515, 0.005014771595597267, 0.004993950016796589, 0.005027137231081724, -0.002695392584428191, 0.005129263270646334, -0.00529244402423501, -0.007024531252682209, 0.004428684711456299, 0.009059593081474304, 0.0059153297916054726, 0.007453799247741699, -0.011216209270060062, 0.006085457745939493, -0.00472212303429842, 0.005108229350298643, -0.0074989330023527145, -0.008470003493130207, -0.0031642813701182604, 0.00287614855915308, -0.004218075890094042, -0.006786886602640152, 0.005541478283703327, 0.0023096653167158365, 0.007417186163365841, 0.0044802045449614525, -0.006465026643127203, 0.007288726978003979, -0.006207016296684742, -0.0046727703884243965, -0.005016225390136242, 0.0037022249307483435, -0.005318677984178066, -0.005128670949488878, 0.004818747751414776, 0.006400288548320532, 0.005368584301322699, 0.009165722876787186, -0.01041501760482788, 0.0051587731577456, -0.006278879474848509, 0.0028665827121585608, -0.00405746977776289, 0.00882207415997982, -0.002086575608700514, -0.0037697034422308207, -0.006203081924468279, 0.002543829148635268, -0.002812118036672473, 0.006816152948886156, 0.004869637545198202, 0.004397205542773008, -0.005143881309777498, 0.008938650600612164, -0.005438873078674078, -0.007443226408213377, -0.0029174743685871363, -0.0052299825474619865, 0.006587321870028973, 0.002923138439655304, -0.0028762633446604013, 0.006763300392776728, -0.006385332904756069, -0.001677434891462326, -0.004486067220568657, 0.005220482125878334, -0.005253360141068697, 0.006093782372772694, -0.007283657323569059, 0.005848083645105362, -0.006408357527107, -0.010370905511081219, -0.004417429678142071, 0.0018583765486255288, -0.00332829263061285, 0.0054258122108876705, -0.005066463723778725, 0.003918788395822048, -0.005537211894989014, -0.005300893448293209, -0.006028603762388229, -0.0029909086879342794, -0.008784991689026356, -0.010950891301035881, 0.004959906917065382, 0.006443754769861698, -0.008052448742091656, -0.006397679913789034, -0.005142349749803543, -0.003624397562816739, -0.0057182167656719685, 0.00996183231472969, -0.005692584905773401, -0.003271673107519746, -0.011215963400900364, 0.006113213486969471, -0.00501377834007144, 0.00972023420035839, -0.003799211699515581, -0.005333407782018185, -0.005625582300126553, -0.004019491840153933, -0.008295598439872265, 0.006342549342662096, -0.004627246409654617, 0.0041780718602240086, -0.004965352360159159, -0.008514715358614922, -0.0062218913808465, 0.007854637689888477, -0.004808508325368166, 0.005083966534584761], [-0.0056771645322442055, 0.02317037060856819, -0.02860582433640957, -0.02245958335697651, -0.02415289916098118, 0.01528509333729744, -0.021656015887856483, -0.021144472062587738, -0.023723259568214417, -0.00862037856131792, -0.023285914212465286, -0.00599895603954792, 0.031222129240632057, 0.022699426859617233, -0.02679460495710373, -0.023856772109866142, 0.025686997920274734, 0.004321977496147156, 0.02347487024962902, 0.005982663482427597, -0.006865456700325012, 0.011289967224001884, -0.024153972044587135, -0.025840094313025475, 0.023735739290714264, 0.018065450713038445, 0.029165426269173622, 0.005507431924343109, -0.014951352961361408, 0.004958395380526781, -0.024993987753987312, 0.00594993494451046, -0.007723246235400438, -0.02089749276638031, -0.0047057089395821095, 0.018595607951283455, -0.02160448022186756, -0.016569755971431732, 0.0012508098734542727, 0.011898577213287354, 0.016496088355779648, 0.005582364741712809, -0.00906338356435299, 0.004664122126996517, -0.019004199653863907, -0.0014945230213925242, -0.018145231530070305, 0.0018306069541722536, -0.023808764293789864, -0.025368379428982735, 0.00492419209331274, 0.021589040756225586, 0.021637916564941406, 0.008168959990143776, -0.027551976963877678, 0.02339821867644787, -0.007351378910243511, 0.010848896577954292, -0.003782226238399744, 0.009499170817434788, -0.004848675336688757, -0.004192629363387823, -0.011799630708992481, 0.010106203146278858, -0.018672050908207893, 0.028261324390769005, 0.00526043027639389, 0.01776120997965336, -0.015520389191806316, 0.01003227662295103, -0.005312940571457148, -0.01701735332608223, -0.027688490226864815, -0.027134442701935768, 0.02675778605043888, 0.020572436973452568, -0.019698111340403557, 0.01620491035282612, -0.02304435893893242, -0.012763246893882751, -0.015838971361517906, 0.005812516435980797, -0.022503864020109177, 0.004494491498917341, -0.023055780678987503, 0.021845977753400803, -0.023771774023771286, -0.020765600726008415, -0.0122267697006464, 0.003236503340303898, -0.018783099949359894, 0.004217673558741808, -0.017020897939801216, 0.012262819334864616, -0.020789019763469696, -0.021450785920023918, -0.019353747367858887, -0.004624503664672375, -0.019337570294737816, -0.026173297315835953, 0.026532163843512535, 0.021348480135202408, -0.003566187806427479, -0.024808920919895172, -0.0038833694998174906, -0.010986987501382828, -0.020075010135769844, 0.004442084580659866, -0.01240351889282465, -0.012003610841929913, -0.008276090025901794, 0.023662304505705833, -0.017312096431851387, 0.02235596440732479, -0.019421661272644997, -0.020301949232816696, -0.021994534879922867, -0.018847765401005745, -0.0068214051425457, 0.014062746427953243, -0.01849149353802204, 0.0160888209939003, -0.00997099094092846, -0.02246844582259655, -0.017850806936621666, 0.02519187331199646, -0.022617952898144722, 0.01861671544611454], [0.005483331624418497, -0.0037071083206683397, 0.0006504832999780774, 0.004114409908652306, 0.004419771488755941, -0.005567495711147785, 0.0037898968439549208, 0.005365296732634306, 0.0008844404947012663, 0.0011083153076469898, 0.003921223804354668, 0.005302123725414276, -0.004747020546346903, -0.003667960874736309, 0.004244488663971424, 0.0023886587005108595, -0.003235965734347701, -0.0021657489705830812, -0.002386213978752494, -0.004244689363986254, 0.004771756008267403, -0.007681071758270264, 0.0006082874024286866, 0.0016624790150672197, -0.00430838018655777, -0.0038248298224061728, -0.004851900972425938, -0.0026806709356606007, 0.010692211799323559, -0.003757570404559374, 0.0017921191174536943, -0.004469431005418301, 0.004201723728328943, 0.0023648205678910017, 0.003570777364075184, -0.0013555660843849182, 0.004502805881202221, 0.0036371059250086546, -0.0126040605828166, -0.006520444061607122, -0.005207850597798824, -0.004450937267392874, 0.0032211029902100563, -0.001988424453884363, 0.0029064053669571877, 0.0042550768703222275, 0.002603188855573535, -0.0025055469013750553, 0.0030724324751645327, 0.0027163594495505095, -0.004450945183634758, -0.002631543902680278, -0.004675733856856823, -0.006246328353881836, 0.0063756415620446205, -0.0022535696625709534, 0.009096948429942131, -0.0012018976267427206, 0.004594759549945593, -0.00648843077942729, 0.004621658008545637, 0.004019163548946381, 0.0038792206905782223, -0.000323008542181924, 0.0054461960680782795, -0.0019576235208660364, -0.00184512825217098, -0.0046742320992052555, 0.004440878052264452, -0.007135411724448204, 0.004765682388097048, 0.0011741271009668708, 0.001360301161184907, 0.0034050028771162033, -0.006316118873655796, -0.009689455851912498, 0.005685875657945871, -0.004972353577613831, 0.0039998991414904594, 0.0006422098376788199, 0.004570265766233206, -0.00904739648103714, 0.0044652852229774, -0.001865434111095965, 0.005039595067501068, -0.002778629306703806, 0.003282140241935849, 0.011242610402405262, 0.006491541396826506, -0.0015809242613613605, 0.004721741657704115, -0.004387602675706148, 0.00587790971621871, -0.010200181975960732, 0.0017929254099726677, 0.0015233485028147697, 0.005702797323465347, 0.0019763452000916004, 0.005965610966086388, 0.004876669961959124, -0.0011265958892181516, -0.009777091443538666, 0.009864509105682373, 0.0036697611212730408, 0.004219566471874714, 0.005382204428315163, 0.004532345104962587, -0.003896629437804222, 0.004366246983408928, 0.000860173546243459, 0.002188402460888028, -0.003923375625163317, 0.004906506277620792, -0.005023191217333078, 0.0033679259940981865, 0.003813523566350341, 0.004255357664078474, 0.0002100334531860426, 0.00980313215404749, -0.004690734203904867, 0.003589638974517584, -0.006212450563907623, 0.0020601414144039154, 0.005616236478090286, 0.006291534285992384, -0.002577869687229395, 0.0014359825290739536, -0.0032905456610023975], [-0.0031746169552206993, 0.003699222579598427, -0.015564731322228909, -0.011716412380337715, -0.013679713942110538, 0.014681044034659863, -0.003066368168219924, -0.012230655178427696, -0.0035214319359511137, -0.01394246518611908, -0.015593220479786396, -0.01612788252532482, 0.013410580344498158, 0.003098225686699152, -0.0035463932435959578, -0.009397107176482677, 0.013721030205488205, 0.014730013906955719, 0.0033369078300893307, 0.013875659555196762, -0.013663438148796558, 0.01179953571408987, -0.015001365914940834, -0.014608264900743961, 0.0034359684213995934, 0.015143920667469501, 0.0036217530723661184, 0.01559011172503233, -0.01574048027396202, 0.011654499918222427, -0.011732548475265503, 0.016738083213567734, -0.005436253733932972, -0.0029995921067893505, -0.01276507880538702, 0.013110730797052383, -0.011978816241025925, -0.003660996910184622, 0.013120986521244049, 0.014671404846012592, 0.016172386705875397, 0.0029041641391813755, -0.015974348410964012, 0.014202984981238842, -0.00666635949164629, -0.01702909916639328, -0.0029865303076803684, 0.014125674962997437, -0.012626747600734234, -0.012567641213536263, 0.0037932826671749353, 0.015270265750586987, 0.012329603545367718, 0.014572281390428543, -0.003994867671281099, 0.0036746752448379993, -0.008205130696296692, 0.0028741923160851, -0.003571906825527549, 0.00695333257317543, -0.0034537639003247023, -0.013792966492474079, -0.002813316648826003, 0.014286221005022526, -0.014176992699503899, 0.013375651091337204, 0.013740972615778446, 0.01190054602921009, -0.015002863481640816, 0.009620707482099533, -0.015885857865214348, -0.013593163341283798, -0.003920377232134342, -0.013439754024147987, 0.014618396759033203, 0.012931489385664463, -0.00694365706294775, 0.014684803783893585, -0.01182547491043806, -0.012211493216454983, -0.015569777227938175, 0.01651614159345627, -0.010413011536002159, 0.013957575894892216, -0.01285554189234972, 0.0034408492501825094, -0.015080255456268787, -0.006924004759639502, -0.013042907230556011, 0.013627350330352783, -0.0030361514072865248, 0.01461094431579113, -0.006032632663846016, 0.010576329194009304, -0.0170846376568079, -0.010082416236400604, -0.015177123248577118, -0.0040655541233718395, -0.0034953244030475616, -0.012738446705043316, 0.013230124488472939, 0.014226138591766357, -0.016834067180752754, -0.01205048244446516, -0.00964690838009119, -0.014396275393664837, -0.013804317452013493, 0.015161532908678055, -0.016272369772195816, -0.011278941296041012, -0.012619104236364365, 0.0037885988131165504, -0.01412958838045597, 0.00476277619600296, -0.015034161508083344, -0.01401309110224247, -0.003401973517611623, -0.013128598220646381, -0.018363608047366142, 0.012565983459353447, -0.012713444419205189, 0.013228781521320343, -0.014757002703845501, -0.013701223768293858, -0.003367437981069088, 0.01297654677182436, -0.012289108708500862, 0.01537108514457941], [-0.0033422333654016256, 0.013435552828013897, -0.003995476756244898, -0.010625619441270828, -0.012337693944573402, 0.016658814623951912, -0.014032836072146893, -0.013977344147861004, -0.015404345467686653, -0.012147664092481136, -0.0034685551654547453, -0.016273992136120796, 0.0071515957824885845, 0.0030364186968654394, -0.013058159500360489, -0.01222637202590704, 0.011729872785508633, 0.014369480311870575, 0.003161125583574176, 0.015475833788514137, -0.013113635592162609, 0.009855618700385094, -0.013943490572273731, -0.013510513119399548, 0.016140755265951157, 0.006102097220718861, 0.01202052365988493, 0.015063640661537647, -0.003681486938148737, 0.00881560891866684, -0.006159509532153606, 0.016239197924733162, -0.012145922519266605, -0.00420687161386013, -0.012188379652798176, 0.014942639507353306, -0.011762674897909164, -0.010523729026317596, 0.005736951716244221, 0.0037407022900879383, 0.013398803770542145, 0.0031314347870647907, -0.016498666256666183, 0.011693000793457031, -0.014944244176149368, -0.014987844973802567, -0.01452361885458231, 0.015271235257387161, -0.013114655390381813, -0.0032896101474761963, 0.007082135882228613, 0.0138617604970932, 0.01367776095867157, 0.01368696242570877, -0.013920677825808525, 0.014811848290264606, -0.0072743892669677734, 0.014839519746601582, -0.013867122121155262, 0.00971867237240076, -0.0030915974639356136, -0.012147868052124977, -0.016373466700315475, 0.013945815153419971, -0.0029170592315495014, 0.0062936521135270596, 0.004926974885165691, 0.014257682487368584, -0.006810206454247236, 0.010179048404097557, -0.0033995406702160835, -0.015238095074892044, -0.0036160056479275227, -0.011557680554687977, 0.012833497487008572, 0.01429328229278326, -0.01563365012407303, 0.012825814075767994, -0.009470718912780285, -0.013548539020121098, -0.012706994079053402, 0.01574738137423992, -0.012259453535079956, 0.013980758376419544, -0.015441406518220901, 0.014132010750472546, -0.013067097403109074, -0.013616826385259628, -0.014754115603864193, 0.011828109622001648, -0.013616513460874557, 0.013429295271635056, -0.014039374887943268, 0.011704012751579285, -0.008476355113089085, -0.009829817339777946, -0.01318388432264328, -0.011660201475024223, -0.015127405524253845, -0.014133177697658539, 0.01274157129228115, 0.01497430820018053, -0.003107533324509859, -0.014779699966311455, -0.015036961995065212, -0.015955325216054916, -0.0031148274429142475, 0.003518713405355811, -0.015924863517284393, -0.003415121464058757, -0.015565886162221432, 0.015555507503449917, -0.014655065722763538, 0.013203836977481842, -0.01393576618283987, -0.014727487228810787, -0.01489697489887476, -0.003716062754392624, -0.018026093021035194, 0.012024099938571453, -0.01238076202571392, 0.014477741904556751, -0.002822046633809805, -0.00421002646908164, -0.013674519024789333, 0.015008299611508846, -0.014414353296160698, 0.002889383817091584], [0.011099415831267834, -0.007855195552110672, 0.02086731046438217, 0.014106765389442444, 0.0036962125450372696, -0.022842682898044586, 0.019388550892472267, 0.021899389103055, 0.008973406627774239, 0.01497303694486618, 0.020146509632468224, 0.019379911944270134, -0.016188550740480423, -0.0030325977131724358, 0.01764821447432041, 0.01267945859581232, -0.01570647582411766, -0.02980247512459755, -0.01836785487830639, -0.02203686535358429, 0.008692711591720581, -0.011699263006448746, 0.022593708708882332, 0.0031597090419381857, -0.00746039068326354, -0.0032639375422149897, -0.018236234784126282, -0.024771615862846375, 0.006930600851774216, -0.0036914243828505278, 0.015906428918242455, -0.026035241782665253, 0.0174004714936018, 0.0218600332736969, 0.0032943461555987597, -0.022336719557642937, 0.01653781719505787, 0.016681909561157227, -0.007077755872160196, -0.016573265194892883, -0.0030952421948313713, -0.02380441315472126, 0.010203716345131397, -0.01625346578657627, 0.02108149416744709, 0.006996650714427233, 0.002758259419351816, -0.0018516862764954567, 0.006198400165885687, 0.0033519850112497807, -0.01777910254895687, -0.01217354740947485, -0.003324638120830059, -0.014335697516798973, 0.01674247533082962, -0.018008673563599586, 0.005181578453630209, -0.02356036752462387, 0.014827887527644634, -0.011899461969733238, 0.01985885389149189, 0.015583286061882973, 0.0026977069210261106, -0.01603875495493412, 0.01810688152909279, -0.0038009071722626686, -0.0040750764310359955, -0.0027410711627453566, 0.016477903351187706, -0.008586414158344269, 0.02365775965154171, 0.01653042994439602, 0.0035170339979231358, 0.014946812763810158, -0.003735361387953162, -0.017185863107442856, 0.023033464327454567, -0.021618321537971497, 0.016306031495332718, 0.014764073304831982, 0.0019002577755600214, -0.002074070740491152, 0.017283009365200996, -0.01663021184504032, 0.0037694561760872602, -0.003433884121477604, 0.01703624427318573, 0.02170741930603981, 0.030489608645439148, -0.01589858904480934, 0.024251123890280724, -0.028163807466626167, 0.01679309643805027, -0.0029935373459011316, 0.0012932001845911145, 0.009205679409205914, 0.004919522907584906, 0.004239785950630903, 0.016604602336883545, 0.01484044548124075, -0.017430609092116356, -0.00334493862465024, 0.004322814289480448, 0.004227790981531143, 0.0052165077067911625, 0.002219576621428132, 0.0043913754634559155, -0.019244568422436714, 0.0029717369470745325, 0.003748205490410328, 0.00390530563890934, -0.016860337927937508, 0.00193388934712857, -0.022825593128800392, 0.0029888555873185396, 0.022440418601036072, 0.005121274851262569, 0.016099963337183, 0.002144286409020424, -0.020196139812469482, 0.0027075796388089657, -0.00341140222735703, 0.0048109060153365135, 0.004264851566404104, 0.022840099409222603, -0.019958753138780594, 0.016130885109305382, -0.0034903541672974825], [-0.009296555072069168, 0.00728271622210741, -0.005706334952265024, -0.006914621219038963, -0.003116658190265298, 0.00654139369726181, -0.008821739815175533, -0.006002645008265972, -0.003460200037807226, -0.010661913082003593, -0.005419823341071606, -0.003277131589129567, 0.007167230360209942, 0.008849707432091236, -0.006873792503029108, -0.003282051533460617, 0.0035809697583317757, 0.003527512773871422, 0.00914137251675129, 0.00822386983782053, -0.006129042711108923, 0.00913738738745451, -0.003017652779817581, -0.007387744728475809, 0.009611913934350014, 0.00753185898065567, 0.00885694194585085, 0.00601193169131875, -0.007341060787439346, 0.010334689170122147, -0.003786373184993863, 0.008128656074404716, -0.006384767591953278, -0.007373669184744358, -0.00946215819567442, 0.0024115375708788633, -0.0072854007594287395, -0.003191436408087611, 0.00752847408875823, 0.008936839178204536, 0.006838398985564709, 0.0026165384333580732, -0.0056726206094026566, 0.0031149873975664377, -0.006742487661540508, -0.007258821278810501, -0.0024445971939712763, 0.007813907228410244, -0.008726201020181179, -0.009424516931176186, 0.009029543027281761, 0.003545505227521062, 0.004884356167167425, 0.006973596755415201, -0.007412765175104141, 0.006406063213944435, -0.007918283343315125, 0.007953336462378502, -0.002646158915013075, 0.008576837368309498, -0.00904312077909708, -0.009072907269001007, -0.007273704744875431, 0.010270471684634686, -0.00690694572404027, 0.009559343568980694, 0.009297392331063747, 0.007038090843707323, -0.007450984790921211, 0.009724795818328857, -0.006972868461161852, -0.006899979431182146, -0.0076188682578504086, -0.010615887120366096, 0.006218624766916037, 0.0027819182723760605, -0.007415862753987312, 0.009528867900371552, -0.008663708344101906, -0.012334173545241356, -0.00792068149894476, 0.009184169583022594, -0.009332341141998768, 0.00905667431652546, -0.00898195430636406, 0.00667886808514595, -0.008950784802436829, -0.008909259922802448, -0.0054043312557041645, 0.007850339636206627, -0.00829364638775587, 0.008265017531812191, -0.0031247527804225683, 0.01019307505339384, -0.003034214023500681, -0.007356025278568268, -0.007381546311080456, -0.011270875111222267, -0.00790226086974144, -0.008934949524700642, 0.0065008061937987804, 0.0078616077080369, -0.006208453327417374, -0.0033627613447606564, -0.009303359314799309, -0.008028256706893444, -0.0068044234067201614, 0.006829291582107544, -0.00932296086102724, -0.0076464395970106125, -0.003501664847135544, 0.010373350232839584, -0.0030790853779762983, 0.002991847228258848, -0.007262304425239563, -0.00650290260091424, -0.005611668806523085, -0.008562158793210983, -0.008058570325374603, 0.006775158457458019, -0.007718538865447044, 0.007229045033454895, -0.003913002088665962, -0.007883959449827671, -0.008979002945125103, 0.003458617487922311, -0.0055258506909012794, 0.007212241645902395], [0.01009991392493248, -0.01041099801659584, 0.010630950331687927, 0.011580032296478748, 0.00918695516884327, -0.009863120503723621, 0.009632473811507225, 0.011343294754624367, 0.009001974947750568, 0.011206393130123615, 0.0032688970677554607, 0.011889622546732426, -0.009008832275867462, -0.01031669694930315, 0.010261082090437412, 0.008705846965312958, -0.009786710143089294, -0.012572407722473145, -0.009536335244774818, -0.012014735490083694, 0.0030202348716557026, -0.007026770617812872, 0.00910183135420084, 0.009848298504948616, -0.011856894940137863, -0.003351380117237568, -0.003479450009763241, -0.012581298127770424, 0.008990191854536533, -0.012470753863453865, 0.011608943343162537, -0.01043679565191269, 0.010751768946647644, 0.002837953856214881, 0.009229308925569057, -0.009297567419707775, 0.010025382041931152, 0.009442527778446674, -0.006996165495365858, -0.012311562895774841, -0.01207318902015686, -0.0033981665037572384, 0.004327489994466305, -0.009644760750234127, 0.010697752237319946, 0.01230444572865963, 0.01255036611109972, -0.012836361303925514, 0.003178367158398032, 0.011658324860036373, -0.003141011344268918, -0.009835715405642986, -0.003215279197320342, -0.009167570620775223, 0.011736071668565273, -0.011630591936409473, 0.00793710257858038, -0.010077163577079773, 0.003258560784161091, -0.009730378165841103, 0.01192807499319315, 0.013174383901059628, 0.0026463463436812162, -0.012522095814347267, 0.011233909986913204, -0.008881989866495132, -0.008049371652305126, -0.010082552209496498, 0.012788383290171623, -0.010626988485455513, 0.007608978543430567, 0.01304828841239214, 0.009630649350583553, 0.011992782354354858, -0.010969845578074455, -0.009986238554120064, 0.010150333866477013, -0.005367682781070471, 0.004221040289849043, 0.0017005170229822397, 0.002988963620737195, -0.01291508786380291, 0.01010840106755495, -0.009797533974051476, 0.012892959639430046, -0.004590834025293589, 0.0071475510485470295, 0.008894394151866436, 0.010300648398697376, -0.0036063757725059986, 0.002832566387951374, -0.009872718714177608, 0.0038325218483805656, -0.011657808907330036, 0.009744676761329174, 0.009131663478910923, 0.0031999615021049976, 0.004225796554237604, 0.011351772584021091, 0.010741950944066048, -0.011219285428524017, -0.010772112756967545, 0.002811444690451026, 0.01177862286567688, 0.009817837737500668, 0.013198441825807095, 0.012515541166067123, -0.011799218133091927, 0.003011485794559121, 0.0032645801547914743, 0.01255196426063776, -0.011925098486244678, 0.0029565526638180017, -0.003309203078970313, 0.0029672225937247276, 0.0035856012254953384, 0.003393724327906966, 0.0033642882481217384, 0.013237637467682362, -0.0030751314479857683, 0.012056104838848114, -0.0032620984129607677, 0.011308426968753338, 0.007629337254911661, 0.010288204066455364, -0.009654175490140915, 0.011054633185267448, -0.004625893197953701], [0.011723605915904045, -0.011034786701202393, 0.01153436116874218, 0.006079239770770073, 0.00995777826756239, -0.008973679505288601, 0.010466166771948338, 0.00903964601457119, 0.00958486832678318, 0.009462263435125351, 0.008628785610198975, 0.011043655686080456, -0.0038187718018889427, -0.00561984209343791, 0.00873073935508728, 0.009961511939764023, -0.009845241904258728, -0.005542428698390722, -0.00360503070987761, -0.0031299167312681675, 0.013014172203838825, -0.01320648193359375, 0.004007536917924881, 0.009891887195408344, -0.003282112069427967, -0.012175018899142742, -0.010657036677002907, -0.005828275810927153, 0.006302194204181433, -0.003349216189235449, 0.0072871046140789986, -0.0032627941109240055, 0.01077085267752409, 0.00824225228279829, 0.003239026525989175, -0.003133065067231655, 0.0031359780114144087, 0.0036154829431325197, -0.008824942633509636, -0.0024598899763077497, -0.009584990330040455, -0.009742156602442265, 0.009843572974205017, -0.0033061462454497814, 0.01099685113877058, 0.011836481280624866, 0.003105205949395895, -0.010804700665175915, 0.011187465861439705, 0.010368029586970806, -0.009489955380558968, -0.003155689686536789, -0.011364848352968693, -0.004978741519153118, 0.003708577947691083, -0.011405588127672672, 0.00730887521058321, -0.0029851202853024006, 0.011590279638767242, -0.008567632175981998, 0.011312931776046753, 0.004471954423934221, 0.011632388457655907, -0.003078703535720706, 0.010169843211770058, -0.003640713868662715, -0.009343518875539303, -0.010417280718684196, 0.0029417453333735466, -0.009219019673764706, 0.003190230578184128, 0.009651817381381989, 0.012352224439382553, 0.003969953861087561, -0.009996387176215649, -0.00926009751856327, 0.0033555529080331326, -0.010363700799643993, 0.010316274128854275, 0.012480046600103378, 0.0028404006734490395, -0.01198974996805191, 0.011009315960109234, -0.008162298239767551, 0.009539869613945484, -0.011233912780880928, 0.011711230501532555, 0.011950512416660786, 0.004913594573736191, -0.003285251324996352, 0.01145975198596716, -0.008856475353240967, 0.00852914247661829, -0.011009172536432743, 0.011658955365419388, 0.010605554096400738, 0.011242921464145184, 0.012500072829425335, 0.00922569539397955, 0.009092497639358044, -0.003340716240927577, -0.0030662212520837784, 0.01027277484536171, 0.009600565768778324, 0.009238971397280693, 0.01009075902402401, 0.011548529379069805, -0.0033125123009085655, 0.010095112025737762, 0.003457400482147932, 0.009985974058508873, -0.010115962475538254, 0.012012509629130363, -0.012540419586002827, 0.010513894259929657, 0.0106120640411973, 0.010347164236009121, 0.01008951012045145, 0.00950857438147068, -0.011489875614643097, 0.010169660672545433, -0.01189166959375143, 0.0028241665568202734, 0.00434237951412797, 0.011350324377417564, -0.00345415691845119, 0.009363749995827675, -0.011066079139709473], [-0.010889389552175999, 0.008237085305154324, -0.011032301932573318, -0.008284867741167545, -0.009660939686000347, 0.003683457151055336, -0.010536051355302334, -0.008180612698197365, -0.011250611394643784, -0.009969845414161682, -0.008946742862462997, -0.009596280753612518, 0.00857232790440321, 0.008044268935918808, -0.009640808217227459, -0.0035901633091270924, 0.011311420239508152, 0.0031590217258781195, 0.003033623332157731, 0.009379127994179726, -0.012303267605602741, 0.0099182752892375, -0.0074857608415186405, -0.005273039452731609, 0.00850643776357174, 0.007821827195584774, 0.009717272594571114, 0.002696236129850149, -0.004118617158383131, 0.003457555314525962, -0.009975183755159378, 0.00736005324870348, -0.00881822407245636, -0.0028655906207859516, -0.01217559538781643, 0.002560235559940338, -0.007092757150530815, -0.007432932499796152, 0.005675204563885927, 0.007026372477412224, 0.010357738472521305, 0.008695983327925205, -0.010429558344185352, 0.011026836931705475, -0.007082681637257338, -0.007821577601134777, -0.009899680502712727, 0.008811905048787594, -0.0074527026154100895, -0.008393826894462109, 0.0030919869896024466, 0.009844173677265644, 0.007836593315005302, 0.011122040450572968, -0.00980882067233324, 0.008999278768897057, -0.007257202640175819, 0.006634625606238842, -0.0028151818551123142, 0.006637634243816137, -0.004705579485744238, -0.011525376699864864, -0.01046849600970745, 0.0033653760328888893, -0.009053601883351803, 0.010629049502313137, 0.011202497407793999, 0.010371942073106766, -0.010375350713729858, 0.010680866427719593, -0.008303205482661724, -0.010650956071913242, -0.009272487834095955, -0.011111192405223846, 0.00402798829600215, 0.010953101329505444, -0.0106685571372509, 0.010096743702888489, -0.010004009120166302, -0.012079442851245403, -0.009568260051310062, 0.010341854766011238, -0.011209992691874504, 0.009056780487298965, -0.010400752536952496, 0.010942414402961731, -0.008424817584455013, -0.008231351152062416, -0.010505919344723225, 0.01179176103323698, -0.0048736990429461, 0.01040760800242424, -0.010148044675588608, 0.0035255984403192997, -0.0077772899530828, -0.009221253916621208, -0.009201589971780777, -0.004666037391871214, -0.0090424669906497, -0.005922638811171055, 0.0032270990777760744, 0.009056305512785912, -0.01029385719448328, -0.009478024207055569, -0.007222551852464676, -0.010393709875643253, -0.007151245605200529, 0.01059772539883852, -0.008121457882225513, -0.009261684492230415, -0.008835998363792896, 0.009408111684024334, -0.009249216876924038, 0.0033037324901670218, -0.008659888990223408, -0.006196681410074234, -0.009336699731647968, -0.0044761220924556255, -0.008749442175030708, 0.006962757557630539, -0.010049423202872276, 0.003397115273401141, -0.009303806349635124, -0.009625804610550404, -0.010950366966426373, 0.011918061412870884, -0.010943835601210594, 0.009862584993243217], [-0.0031535474117845297, 0.011550658382475376, -0.0037701106630265713, -0.01225038431584835, -0.003966719843447208, 0.013445300981402397, -0.011203532107174397, -0.013217794708907604, -0.008236201480031013, -0.013567806221544743, -0.003922507632523775, -0.013160471804440022, 0.003868313506245613, 0.012781749479472637, -0.013407539576292038, -0.010692454874515533, 0.011990359984338284, 0.014100858010351658, 0.013506799936294556, 0.013948475942015648, -0.003368631238117814, 0.0112717654556036, -0.012582146562635899, -0.0034580330830067396, 0.0035687258932739496, 0.013306060805916786, 0.012576287612318993, 0.014304905198514462, -0.004816957749426365, 0.0121253477409482, -0.003971337340772152, 0.014302286319434643, -0.012829291634261608, -0.00413681473582983, -0.011272314935922623, 0.013099277392029762, -0.0119253471493721, -0.011911403387784958, 0.006759973708540201, 0.014107631519436836, 0.013970501720905304, 0.0028029426466673613, -0.011178540997207165, 0.008139594458043575, -0.006101893726736307, -0.004805503413081169, -0.006616869010031223, 0.0029469220899045467, -0.0033750315196812153, -0.011876123957335949, 0.0133832897990942, 0.013701323419809341, 0.011529123410582542, 0.006956503726541996, -0.003823017468675971, 0.00986776314675808, -0.0072014047764241695, 0.008766042068600655, -0.011655483394861221, 0.011420540511608124, -0.013704088516533375, -0.01286613941192627, -0.015752989798784256, 0.0134340925142169, -0.002973951632156968, 0.012303951196372509, 0.012762432917952538, 0.012687033042311668, -0.007169694174081087, 0.010026979260146618, -0.006299937609583139, -0.0038321756292134523, -0.014070911332964897, -0.012150680646300316, 0.01132658589631319, 0.003200146369636059, -0.004408758133649826, 0.012279966846108437, -0.010502351447939873, -0.0047693755477666855, -0.014589816331863403, 0.01189887523651123, -0.0045700292102992535, 0.012517253868281841, -0.004712275695055723, 0.0095767667517066, -0.011947802267968655, -0.01249335054308176, -0.01411660946905613, 0.011857795529067516, -0.014430244453251362, 0.014807547442615032, -0.01220583077520132, 0.011799532920122147, -0.0035383987706154585, -0.009837156161665916, -0.0032672989182174206, -0.004393077455461025, -0.012344958260655403, -0.01108553260564804, 0.00989470910280943, 0.014012829400599003, -0.014157213270664215, -0.013836504891514778, -0.012688097544014454, -0.014426988549530506, -0.013364803045988083, 0.0116847800090909, -0.0031708180904388428, -0.012845193035900593, -0.012558521702885628, 0.0033864586148411036, -0.008341589011251926, 0.012769478373229504, -0.002981548197567463, -0.003458293154835701, -0.01311329286545515, -0.004747558850795031, -0.01671472378075123, 0.006176488474011421, -0.013161477632820606, 0.010893654078245163, -0.01458662934601307, -0.014472915790975094, -0.013573948293924332, 0.00667436933144927, -0.014777608215808868, 0.014523318968713284], [0.001382947899401188, -0.002560494700446725, 0.003693051403388381, 0.0035370218101888895, 0.0015608357498422265, -0.007690812926739454, 0.001353468163870275, 0.0023485030978918076, 0.006725822575390339, 0.006322405766695738, 0.007535549812018871, 0.002592747565358877, -0.005981994792819023, -0.0013097136979922652, 0.004076059907674789, 0.0037655674386769533, -0.003865770995616913, -0.003195502096787095, -0.0013730453792959452, -0.0024681375361979008, 0.009294578805565834, -0.007285485044121742, 0.002833261154592037, 0.001250416156835854, -0.004115739371627569, -0.002829584525898099, -0.001390482997521758, -0.0028664497658610344, 0.003975555766373873, -0.010863229632377625, 0.004016747232526541, -0.003545955289155245, 0.0038654280360788107, 0.0037913976702839136, 0.0032163269352167845, -0.0044171311892569065, 0.0034194830805063248, 0.0007953352760523558, -0.008894303813576698, -0.0022115230094641447, -0.0025654740165919065, -0.002514841500669718, 0.0025680395774543285, -0.004863917827606201, 0.002923911437392235, 0.0019879997707903385, 0.004002248868346214, -0.00204244302585721, 0.003722686553373933, 0.0034700054675340652, -0.004605662543326616, -0.0023283984046429396, -0.004475015215575695, -0.009589861147105694, 0.006375345401465893, -0.00339883123524487, 0.007545230910181999, -0.002218704205006361, 0.011213988997042179, -0.0098373182117939, 0.007059081923216581, 0.010479763150215149, 0.0019784567411988974, -0.0019967621192336082, 0.0034966543316841125, -0.002498239977285266, -0.0041373176500201225, -0.0029190501663833857, 0.0027004291769117117, -0.009210718795657158, 0.002498866990208626, 0.006493126507848501, 0.0037313448265194893, 0.0038066357374191284, -0.0039331647567451, -0.0033570623490959406, 0.003613524604588747, -0.0037372615188360214, 0.003929445520043373, 0.010363277047872543, 0.0025710491463541985, -0.0011106202146038413, 0.003635228844359517, -0.004962432198226452, 0.00320836016908288, -0.0027997454162687063, 0.005002858582884073, 0.002987988293170929, 0.002947240835055709, -0.009038176387548447, 0.003255120711401105, -0.0031895365100353956, 0.007485158275812864, -0.007566675543785095, 0.0034066883381456137, 0.003691023448482156, 0.003270320827141404, 0.011108066886663437, 0.002713389927521348, 0.011869343928992748, -0.003603565040975809, -0.0015866573667153716, 0.002327490132302046, 0.0075026159174740314, 0.004025605507194996, 0.003032423323020339, 0.001997488783672452, -0.003261385951191187, 0.00214989366941154, 0.012162372469902039, 0.014446777291595936, -0.008618372492492199, 0.002659017452970147, -0.003906626254320145, 0.002819737885147333, 0.0035015831235796213, 0.0013531764270737767, 0.009968225844204426, 0.0030762450769543648, -0.003093012375757098, 0.0014248640509322286, -0.009497072547674179, 0.0024929821956902742, 0.0045464420691132545, 0.002336598699912429, -0.0028945188969373703, 0.0058130137622356415, -0.004160827957093716], [0.011284743435680866, -0.0035885204561054707, 0.009792826138436794, 0.009269269183278084, 0.003635964822024107, -0.011426923796534538, 0.008695361204445362, 0.011094491928815842, 0.00951462984085083, 0.011580153368413448, 0.011320901103317738, 0.003042706521227956, -0.004113990347832441, -0.0031953847501426935, 0.0077126300893723965, 0.00345989759080112, -0.011300256475806236, -0.011319608427584171, -0.0100851496681571, -0.009504792280495167, 0.012524138204753399, -0.009245326742529869, 0.003163617802783847, 0.003806492779403925, -0.010846968740224838, -0.0049755447544157505, -0.009804712608456612, -0.011115162633359432, 0.011934217996895313, -0.01007045153528452, 0.003650907427072525, -0.0029425357934087515, 0.005930780898779631, 0.002788279438391328, 0.012467716820538044, -0.01047971099615097, 0.0031521408818662167, 0.01082532200962305, -0.012885459698736668, -0.002361788647249341, -0.0031239965464919806, -0.010127861984074116, 0.004200023133307695, -0.0032288574147969484, 0.010230244137346745, 0.002635276410728693, 0.011816485784947872, -0.0034614549949765205, 0.012612124904990196, 0.004355814773589373, -0.011494570411741734, -0.010329692624509335, -0.011141600087285042, -0.008238832466304302, 0.010186479426920414, -0.010668699629604816, 0.004123580642044544, -0.0028215518686920404, 0.010990063659846783, -0.00970609299838543, 0.011775330640375614, 0.012214616872370243, 0.012631234712898731, -0.012042694725096226, 0.010387185029685497, -0.0073613678105175495, -0.008425810374319553, -0.0028800845611840487, 0.01060583908110857, -0.009742665104568005, 0.0029156862292438745, 0.0035982986446470022, 0.003489579539746046, 0.011740565299987793, -0.0032244331669062376, -0.003211771138012409, 0.011238651350140572, -0.005290340166538954, 0.00410787807777524, 0.012572536244988441, 0.0035358553286641836, -0.0027070778887718916, 0.010862254537642002, -0.01185673475265503, 0.003506011562421918, -0.012371399439871311, 0.009234629571437836, 0.003305785357952118, 0.008213934488594532, -0.007933027110993862, 0.009175845421850681, -0.011666989885270596, 0.00873329397290945, -0.010335460305213928, 0.004360302351415157, 0.0030441121198236942, 0.0031651826575398445, 0.004588141571730375, 0.009669736959040165, 0.010535295121371746, -0.010526217520236969, -0.00847252830862999, 0.011720775626599789, 0.00933376420289278, 0.010830513201653957, 0.012427941896021366, 0.005876555573195219, -0.011157078668475151, 0.011714852415025234, 0.011191739700734615, 0.004286319948732853, -0.011617262847721577, 0.009058648720383644, -0.0097502451390028, 0.011537116952240467, 0.0031060075853019953, 0.008826084434986115, 0.01149547379463911, 0.011076023802161217, -0.010150927118957043, 0.0035116802901029587, -0.012777558527886868, 0.01137856487184763, 0.0064383908174932, 0.003369104815647006, -0.0033967553172260523, 0.004974927753210068, -0.003435177495703101], [0.009735766798257828, -0.007737086620181799, 0.003173388307914138, 0.0030793873593211174, 0.0030913562513887882, -0.007556347642093897, 0.007553943432867527, 0.0026652785018086433, 0.009637368842959404, 0.003148614428937435, 0.0032197448890656233, 0.003544391831383109, -0.006779306102544069, -0.00292467069812119, 0.010120691731572151, 0.003233949886634946, -0.007269277703016996, -0.00313500571064651, -0.007813315838575363, -0.008029717952013016, 0.012171754613518715, -0.011475063860416412, 0.0036729255225509405, 0.0074963946826756, -0.006953826639801264, -0.007670246995985508, -0.009097744710743427, -0.00868843961507082, 0.008848299272358418, -0.007473740726709366, 0.003362844232469797, -0.0029408650007098913, 0.006241572089493275, 0.006392324343323708, 0.011632869020104408, -0.009925824590027332, 0.0035543825943022966, 0.003186081536114216, -0.006765225902199745, -0.008881771937012672, -0.00950056966394186, -0.007937576621770859, 0.005492094438523054, -0.006836887449026108, 0.002673214999958873, 0.010963882319629192, 0.009775874204933643, -0.008502817712724209, 0.008340773172676563, 0.010184249840676785, -0.006986189633607864, -0.008405754342675209, -0.007584206759929657, -0.008130161091685295, 0.008878589607775211, -0.0028790440410375595, 0.007149562239646912, -0.0026350647676736116, 0.010050089098513126, -0.006089215632528067, 0.002733090193942189, 0.010766647756099701, 0.007967084646224976, -0.01034304965287447, 0.00861517433077097, -0.00606529600918293, -0.00850651040673256, -0.007890242151916027, 0.009898110292851925, -0.009798971936106682, 0.007461189292371273, 0.010789762251079082, 0.008109950460493565, 0.008343380875885487, -0.0031455857679247856, -0.007552170194685459, 0.010024021379649639, -0.009222754277288914, 0.002892422256991267, 0.007498839870095253, 0.008300580084323883, -0.0034677626099437475, 0.009532447904348373, -0.00870299618691206, 0.0073575773276388645, -0.008688556030392647, 0.006986663211137056, 0.009340808726847172, 0.005582178942859173, -0.008283250033855438, 0.00614596763625741, -0.005908609367907047, 0.0034524211660027504, -0.0090517308562994, 0.005321120843291283, 0.00779446167871356, 0.008433048613369465, 0.011048446409404278, 0.00680454820394516, 0.009636125527322292, -0.009242117404937744, -0.005284436512738466, 0.0074186138808727264, 0.008219298906624317, 0.00831267423927784, 0.00787381175905466, 0.006625923793762922, -0.008803143166005611, 0.008800354786217213, 0.003388555720448494, 0.0093136727809906, -0.002960898680612445, 0.006328378804028034, -0.006938579957932234, 0.009486326947808266, 0.005606879945844412, 0.007171249948441982, 0.008372185751795769, 0.0076888976618647575, -0.006901269778609276, 0.010649020783603191, -0.010161018930375576, 0.008010713383555412, 0.0037903590127825737, 0.007886107079684734, -0.007561663631349802, 0.009605350904166698, -0.008864739909768105], [0.010103101842105389, -0.0038002904038876295, 0.007532669231295586, 0.007609579712152481, 0.006963906344026327, -0.00961516797542572, 0.005806813947856426, 0.0036139453295618296, 0.010400773026049137, 0.010774369351565838, 0.009284899570047855, 0.006760608870536089, -0.0028359265998005867, -0.0028364872559905052, 0.0029944234993308783, 0.006715085823088884, -0.006357589736580849, -0.00865501444786787, -0.0032342278864234686, -0.0039547826163470745, 0.01149399671703577, -0.01112161111086607, 0.0026219452265650034, 0.0030153347179293633, -0.009158953092992306, -0.006556184496730566, -0.007166466675698757, -0.010684400796890259, 0.003370309015735984, -0.005089694168418646, 0.005725941155105829, -0.009963858872652054, 0.003349322360008955, 0.009298518300056458, 0.0030481305439025164, -0.0022172925528138876, 0.008207355625927448, 0.009775564074516296, -0.001082028727978468, -0.007297463249415159, -0.0030587862711399794, -0.009715857915580273, 0.010452264919877052, -0.006021504290401936, 0.006984506268054247, 0.012465359643101692, 0.012678368017077446, -0.010725246742367744, 0.003008414525538683, 0.008967014960944653, -0.011495749466121197, -0.003523462451994419, -0.00755659444257617, -0.005413239821791649, 0.005116073414683342, -0.0094582699239254, 0.009652401320636272, -0.009818864054977894, 0.010261141695082188, -0.006841712631285191, 0.011853180825710297, 0.003256566822528839, 0.010630501434206963, -0.007611589040607214, 0.0026412385050207376, -0.0038981218822300434, -0.010917998850345612, -0.009898531250655651, 0.0023513012565672398, -0.002850870369002223, 0.008858181536197662, 0.0030712259467691183, 0.00311036454513669, 0.007049061357975006, -0.00923286471515894, -0.0029608430340886116, 0.011403163895010948, -0.011244417168200016, 0.007224672008305788, 0.011376335285604, 0.0028682358097285032, -0.0025222667027264833, 0.010461037047207355, -0.006832547020167112, 0.0028689540922641754, -0.010928092524409294, 0.005786405876278877, 0.009337837807834148, 0.0014505815925076604, -0.0028528901748359203, 0.005828915163874626, -0.0073005021549761295, 0.004808955360203981, -0.011316511780023575, 0.009957018308341503, 0.007863433100283146, 0.007262250874191523, 0.008722021244466305, 0.007576816715300083, 0.006587010808289051, -0.003243179526180029, -0.003075978020206094, 0.006311559118330479, 0.007558987941592932, 0.009252662770450115, 0.008816545829176903, 0.002630449365824461, -0.006928107235580683, 0.009410825558006763, 0.007406901102513075, 0.0077505577355623245, -0.004984215367585421, 0.005773033015429974, -0.009643732570111752, 0.003038599155843258, 0.0027805210556834936, 0.0032389911357313395, 0.008598864078521729, 0.00661912327632308, -0.006348139140754938, 0.011555620469152927, -0.003930477425456047, 0.009279594756662846, 0.00443898094817996, 0.0031023542396724224, -0.006997352000325918, 0.003542278427630663, -0.010925399139523506], [0.011977030895650387, -0.01085701771080494, 0.003695264458656311, 0.010911968536674976, 0.009423927403986454, -0.01059193629771471, 0.010058240965008736, 0.002903791842982173, 0.011697577312588692, 0.003872883738949895, 0.003421972505748272, 0.003994399216026068, -0.00396249582991004, -0.009386789985001087, 0.009280181489884853, 0.0036032546777278185, -0.00973006896674633, -0.003147460287436843, -0.0036470957566052675, -0.0032086384017020464, 0.012955917045474052, -0.008261854760348797, 0.011709447018802166, 0.009562208317220211, -0.003501727245748043, -0.0035507152788341045, -0.008411398157477379, -0.002866999711841345, 0.011502400040626526, -0.011634171940386295, 0.0105550242587924, -0.005392187740653753, 0.010858193971216679, 0.011653877794742584, 0.012020889669656754, -0.010694286786019802, 0.010514319874346256, 0.0035322122275829315, -0.011358896270394325, -0.011063641868531704, -0.009527670219540596, -0.010728713124990463, 0.003882484044879675, -0.009117480367422104, 0.010248634964227676, 0.012018823996186256, 0.0032364786602556705, -0.011311971582472324, 0.003376422682777047, 0.008507310412824154, -0.009180842898786068, -0.012135911732912064, -0.0032524242997169495, -0.007827691733837128, 0.012087391689419746, -0.008238538168370724, 0.0044403281062841415, -0.010399372316896915, 0.011000942438840866, -0.009522562846541405, 0.01048052404075861, 0.01256028562784195, 0.011024748906493187, -0.011021057143807411, 0.009350176900625229, -0.009016633965075016, -0.011632885783910751, -0.002822760958224535, 0.00450451485812664, -0.008701189421117306, 0.008119084872305393, 0.0037714496720582247, 0.0038148968014866114, 0.011592437513172626, -0.0036785579286515713, -0.01203858945518732, 0.009632065892219543, -0.010144934058189392, 0.003545276587828994, 0.004682916682213545, 0.010220013558864594, -0.0090491259470582, 0.010852149687707424, -0.0036233188584446907, 0.009540491737425327, -0.009381137788295746, 0.010497687384486198, 0.00917659793049097, 0.00862982776015997, -0.01088522095233202, 0.011130234226584435, -0.009580585174262524, 0.008789502084255219, -0.0030834288336336613, 0.011183321475982666, 0.010651188902556896, 0.00953182764351368, 0.004862584173679352, 0.011334146372973919, 0.003803877392783761, -0.003299735952168703, -0.009271757677197456, 0.010866697877645493, 0.0034302067942917347, 0.009616205468773842, 0.010621602647006512, 0.004344657063484192, -0.011440305039286613, 0.011515720747411251, 0.011256148107349873, 0.010931304655969143, -0.012047466821968555, 0.011806881055235863, -0.009343013167381287, 0.009185207076370716, 0.009056126698851585, 0.0030987609643489122, 0.003844470949843526, 0.01181153766810894, -0.008764171041548252, 0.009566550143063068, -0.009074542671442032, 0.00993035826832056, 0.011572208255529404, 0.01110005658119917, -0.010525434277951717, 0.010471467860043049, -0.011464893817901611], [0.0029795165173709393, -0.003952141851186752, 0.003458051010966301, 0.013315332122147083, 0.014714383520185947, -0.005466984584927559, 0.012195948511362076, 0.013827641494572163, 0.012002897448837757, 0.013645156286656857, 0.015698852017521858, 0.017273904755711555, -0.014871875755488873, -0.003795627038925886, 0.012851297855377197, 0.01269360538572073, -0.011201047338545322, -0.01727810502052307, -0.014149651862680912, -0.01381807029247284, 0.008879309520125389, -0.010145016014575958, 0.013745858334004879, 0.01296773087233305, -0.015290636569261551, -0.005830783396959305, -0.01250780001282692, -0.016470564529299736, 0.0035053291358053684, -0.01105007715523243, 0.010926451534032822, -0.01593274064362049, 0.01348886638879776, 0.0029505551792681217, 0.012454451061785221, -0.013492465950548649, 0.004595624282956123, 0.012818781659007072, -0.006985088344663382, -0.002566139679402113, -0.016159435734152794, -0.01573699340224266, 0.003861619858071208, -0.012282145209610462, 0.0039294930174946785, 0.002835274673998356, 0.01658170111477375, -0.0029970721807330847, 0.0034451850224286318, 0.0034541364293545485, -0.012949308380484581, -0.0029907538555562496, -0.003114344784989953, -0.013782232068479061, 0.014738794416189194, -0.0030722138471901417, 0.0011344754602760077, -0.014742892235517502, 0.00285593094304204, -0.010795420035719872, 0.014650829136371613, 0.013117174617946148, 0.01867031864821911, -0.012652571313083172, 0.013093246147036552, -0.004068541806191206, -0.0037718380335718393, -0.015012443996965885, 0.002747309161350131, -0.009218055754899979, 0.006158795673400164, 0.012282682582736015, 0.015540720894932747, 0.014453878626227379, -0.013946782797574997, -0.014542176388204098, 0.015164281241595745, -0.016282131895422935, 0.014147117733955383, 0.013106155209243298, 0.003210623050108552, -0.017334528267383575, 0.0036964069586247206, -0.003491738112643361, 0.0032669547945261, -0.013547846116125584, 0.01499677449464798, 0.013218559324741364, 0.0030371868051588535, -0.01057402417063713, 0.014936237595975399, -0.014829457737505436, 0.003631049068644643, -0.014679198153316975, 0.014139567501842976, 0.008317369036376476, 0.0033007056917995214, 0.011031732894480228, 0.013986503705382347, 0.013660900294780731, -0.0033156778663396835, -0.014328503981232643, 0.01536014024168253, 0.012885146774351597, 0.016842372715473175, 0.01572309620678425, 0.0157256331294775, -0.015462283976376057, 0.004090447444468737, 0.012389706447720528, 0.003734511323273182, -0.0034367137122899294, 0.015331574715673923, -0.006621632259339094, 0.002854465739801526, 0.014327137731015682, 0.0031534582376480103, 0.011952457949519157, 0.003048845799639821, -0.014393151737749577, 0.014820984564721584, -0.013931237161159515, 0.016758320853114128, 0.004232458304613829, 0.0033279554918408394, -0.015391835011541843, 0.0037316216621547937, -0.01682841032743454], [0.01914994604885578, -0.017436029389500618, 0.0033036391250789165, 0.01543013472110033, 0.018050506711006165, -0.013661280274391174, 0.003065334167331457, 0.02076798491179943, 0.015900110825896263, 0.013488536700606346, 0.003301139222458005, 0.002884676679968834, -0.012021410278975964, -0.016382871195673943, 0.013661276549100876, 0.013444673269987106, -0.0036539114080369473, -0.003133439226076007, -0.019423585385084152, -0.0028630683664232492, 0.004942301195114851, -0.00886527169495821, 0.003713651094585657, 0.015742916613817215, -0.0034471142571419477, -0.014502044767141342, -0.013432151637971401, -0.019486133009195328, 0.0036663198843598366, -0.01655324175953865, 0.014939901418983936, -0.002877105725929141, 0.014743607491254807, 0.003111821599304676, 0.0147695392370224, -0.0026774632278829813, 0.005962430965155363, 0.003498017555102706, -0.0069912816397845745, -0.002398334676399827, -0.0029565608128905296, -0.0029174741357564926, 0.0030696208123117685, -0.0036464359145611525, 0.013688478618860245, 0.0015680791111662984, 0.015097012743353844, -0.006527996622025967, 0.0031038555316627026, 0.016070039942860603, -0.0164673812687397, -0.015423576347529888, -0.018178345635533333, -0.01371972355991602, 0.013885082677006721, -0.01679139770567417, 0.008793075568974018, -0.005899472162127495, 0.014887596480548382, -0.007674052380025387, 0.0029122736304998398, 0.013487149961292744, 0.0016503597144037485, -0.014051971957087517, 0.016934474930167198, -0.004748347215354443, -0.014375965110957623, -0.002748246071860194, 0.01655574142932892, -0.009187371470034122, 0.003596278140321374, 0.003638360183686018, 0.003209988120943308, 0.012850924395024776, -0.016252506524324417, -0.0029931003227829933, 0.02092798613011837, -0.0029191230423748493, 0.014455579221248627, 0.00454863253980875, 0.004031073767691851, -0.0026251873932778835, 0.003280885051935911, -0.003657966386526823, 0.018379777669906616, -0.016640260815620422, 0.015438186936080456, 0.0030551899690181017, 0.013598217628896236, -0.01350965816527605, 0.013076401315629482, -0.012667953036725521, 0.015393896028399467, -0.015269797295331955, 0.010522069409489632, 0.011685117147862911, 0.014417176134884357, 0.01387407910078764, 0.01621156744658947, 0.0135264927521348, -0.014686106704175472, -0.016321206465363503, 0.00292019615881145, 0.003820711048319936, 0.017065783962607384, 0.010042647831141949, 0.0031893791165202856, -0.003344472963362932, 0.0031712655909359455, 0.00356526137329638, 0.01603599637746811, -0.015599122270941734, 0.008857883512973785, -0.01698121801018715, 0.018977053463459015, 0.014135763980448246, 0.012279718182981014, 0.01631486974656582, 0.0021680467762053013, -0.01886957883834839, 0.02211989462375641, -0.0034682375844568014, 0.0026702689938247204, 0.01129418145865202, 0.0188448466360569, -0.016325363889336586, 0.01213584654033184, -0.002698662457987666], [0.01772991754114628, -0.01710519567131996, 0.019074533134698868, 0.013686371967196465, 0.0035963701084256172, -0.0029423339292407036, 0.0027962492313236, 0.009403957985341549, 0.0046844687312841415, 0.003950821235775948, 0.016581611707806587, 0.016030998900532722, -0.012432028539478779, -0.02008097991347313, 0.003549302462488413, 0.013045290485024452, -0.01330442726612091, -0.020278435200452805, -0.01755817048251629, -0.01848861761391163, 0.012415790930390358, -0.007211438845843077, 0.017688632011413574, 0.019364958629012108, -0.010557353496551514, -0.016769375652074814, -0.015870537608861923, -0.002822816837579012, 0.020365040749311447, -0.0036355629563331604, 0.015720531344413757, -0.017649449408054352, 0.014641517773270607, 0.0031398790888488293, 0.016020670533180237, -0.02009108103811741, 0.0031358131673187017, 0.012406407855451107, -0.006809958256781101, -0.01442152913659811, -0.002981700235977769, -0.019755642861127853, 0.0030781025998294353, -0.014746715314686298, 0.01596234366297722, 0.0023633469827473164, 0.01458708755671978, -0.006562352646142244, 0.018913693726062775, 0.0062751187942922115, -0.015734098851680756, -0.014684147201478481, -0.010288085788488388, -0.003455068450421095, 0.014581570401787758, -0.003719993866980076, 0.012198462150990963, -0.014825906604528427, 0.0026787647511810064, -0.00874901469796896, 0.016870884224772453, 0.0030706338584423065, 0.0028780708089470863, -0.003004511119797826, 0.015225573442876339, -0.004017984960228205, -0.016322966665029526, -0.007253765594214201, 0.014908241108059883, -0.011556456796824932, 0.015825564041733742, 0.012225454673171043, 0.019309494644403458, 0.0045860386453568935, -0.014814470894634724, -0.0030423528514802456, 0.02041308395564556, -0.004764355719089508, 0.015820976346731186, 0.0017335895681753755, 0.00898237619549036, -0.0024139229208230972, 0.009780996479094028, -0.003265448147431016, 0.016665304079651833, -0.003124726004898548, 0.004085958003997803, 0.016061650589108467, 0.020749181509017944, -0.003655532142147422, 0.0029406987596303225, -0.003188611939549446, 0.011653621681034565, -0.002771948464214802, 0.0032470666337758303, 0.01186869852244854, 0.006571498233824968, 0.004058121237903833, 0.014301816001534462, 0.013587969355285168, -0.014786339364945889, -0.0032447820995002985, 0.005608472507447004, 0.012172716669738293, 0.002733103232458234, 0.0030615334399044514, 0.016657190397381783, -0.003386571304872632, 0.0028064928483217955, 0.014873920008540154, 0.015451286919414997, -0.01620827056467533, 0.0029880679212510586, -0.015107233077287674, 0.0029110379982739687, 0.015596228651702404, 0.018614044412970543, 0.014672389253973961, 0.002103831386193633, -0.003187391208484769, 0.018420981243252754, -0.014971382915973663, 0.0040457346476614475, 0.004462940152734518, 0.0032951240427792072, -0.004133116919547319, 0.015447625890374184, -0.01666068471968174], [-0.009634844958782196, 0.009249015711247921, -0.004456267226487398, -0.011284017004072666, -0.00932092871516943, 0.01051937323063612, -0.008456612005829811, -0.009534146636724472, -0.003413754515349865, -0.012729543261229992, -0.010876201093196869, -0.011546829715371132, 0.010522573255002499, 0.0031445424538105726, -0.0035990159958601, -0.010173826478421688, 0.006850977428257465, 0.012820271775126457, 0.003166156355291605, 0.011008352041244507, -0.003015539376065135, 0.008062816224992275, -0.0039574564434587955, -0.01196231972426176, 0.011262483894824982, 0.0030408273451030254, 0.005804816726595163, 0.002860012464225292, -0.003440344240516424, 0.009093333035707474, -0.012253309600055218, 0.0031444281339645386, -0.00953986868262291, -0.0105772465467453, -0.010468530468642712, 0.011556588113307953, -0.0034717607777565718, -0.00932232290506363, 0.012808239087462425, 0.01184043101966381, 0.009624326601624489, 0.002670498099178076, -0.008323833346366882, 0.003381670219823718, -0.008857116103172302, -0.012663481757044792, -0.012101376429200172, 0.0034828181378543377, -0.009523161686956882, -0.009529093280434608, 0.009457239881157875, 0.003289039945229888, 0.003334576729685068, 0.009292722679674625, -0.003952963277697563, 0.011252555064857006, -0.0013072831789031625, 0.0030933686066418886, -0.011881379410624504, 0.006453995127230883, -0.012270249426364899, -0.0028545025270432234, -0.011118985712528229, 0.012362780049443245, -0.0037129190750420094, 0.010765689425170422, 0.003963202703744173, 0.011522012762725353, -0.00278291292488575, 0.008032828569412231, -0.011319017969071865, -0.004782864358276129, -0.010572759434580803, -0.012056651525199413, 0.009998428635299206, 0.0032216045074164867, -0.0031501036137342453, 0.011864963918924332, -0.0032888250425457954, -0.0050842612981796265, -0.011800500564277172, 0.010505614802241325, -0.0032980432733893394, 0.010932556353509426, -0.0034863401670008898, 0.010389942675828934, -0.011177482083439827, -0.011076988652348518, -0.002979869022965431, 0.011703151278197765, -0.0037192595191299915, 0.010066717863082886, -0.0038565760478377342, 0.0029542038682848215, -0.011901810765266418, -0.010883900336921215, -0.010508990846574306, -0.010127012617886066, -0.003997694700956345, -0.009681958705186844, 0.009623872116208076, 0.0032637417316436768, -0.010531983338296413, -0.0035682127345353365, -0.0028536543250083923, -0.011373326182365417, -0.004000374116003513, 0.012033629231154919, -0.0030902065336704254, -0.010901033878326416, -0.012453878298401833, 0.006809175480157137, -0.002981351688504219, 0.003486407222226262, -0.00294751999899745, -0.011012147180736065, -0.003495065728202462, -0.004536474589258432, -0.010621431283652782, 0.011108336970210075, -0.002655534539371729, 0.010041685774922371, -0.010792534798383713, -0.009093276225030422, -0.011333062313497066, 0.009799954481422901, -0.013644615188241005, 0.010877160355448723], [-0.00896455068141222, 0.003157819388434291, -0.009090553969144821, -0.007792929653078318, -0.010160557925701141, 0.009916158393025398, -0.009599173441529274, -0.007880598306655884, -0.009506341069936752, -0.011433390900492668, -0.010136853903532028, -0.009362741373479366, 0.006801949348300695, 0.009381892159581184, -0.00878880638629198, -0.008724645711481571, 0.01082404050976038, 0.011091971769928932, 0.003026352496817708, 0.008432416245341301, -0.008713795803487301, 0.009359173476696014, -0.00692596985027194, -0.009093423373997211, 0.008929524570703506, 0.0029228348284959793, 0.007335640024393797, 0.0051029580645263195, -0.006384593900293112, 0.009701785631477833, -0.011183610185980797, 0.0028070982079952955, -0.007990004494786263, -0.006686346605420113, -0.011234231293201447, 0.008277514949440956, -0.010052782483398914, -0.011417428031563759, 0.0007578160148113966, 0.0028850925154983997, 0.004121533129364252, 0.011548643931746483, -0.008064310997724533, 0.0038510069716721773, -0.009113459847867489, -0.011708114296197891, -0.010094140656292439, 0.01104440726339817, -0.007244240492582321, -0.009746477007865906, 0.009879331104457378, 0.0030210521072149277, 0.010249221697449684, 0.003565886290743947, -0.004109653644263744, 0.0032078654039651155, -0.0013316463446244597, 0.0028049584943801165, -0.008231015875935555, 0.009062744677066803, -0.01172286830842495, -0.004302704241126776, -0.01053687185049057, 0.009309590794146061, -0.010565590113401413, 0.0030468020122498274, 0.006481158081442118, 0.009629071690142155, -0.012129676528275013, 0.008820039220154285, -0.010394765064120293, -0.009446902200579643, -0.01026694756001234, -0.010911735706031322, 0.005110973492264748, 0.002973701572045684, -0.010790081694722176, 0.003664883319288492, -0.009206965565681458, -0.0015631376300007105, -0.010207419283688068, 0.012155902571976185, -0.008930187672376633, 0.01050478033721447, -0.005606415681540966, 0.009106178767979145, -0.0035022145602852106, -0.010065198875963688, -0.00725847901776433, 0.00867773499339819, -0.007694875821471214, 0.0041614556685090065, -0.004284492693841457, 0.002804064890369773, -0.003575593000277877, -0.006768874358385801, -0.008240621536970139, -0.003956758417189121, -0.009361464530229568, -0.011187434196472168, 0.003042658558115363, 0.009610112756490707, -0.009685993194580078, -0.007675367407500744, -0.00947102066129446, -0.00259054871276021, -0.010453624650835991, 0.011368033476173878, -0.003211159026250243, -0.008646415546536446, -0.011662041768431664, 0.009418033994734287, -0.009654457680881023, 0.0031623311806470156, -0.010173638351261616, -0.008398707956075668, -0.006444972008466721, -0.009785082191228867, -0.008221274241805077, 0.006809500511735678, -0.011811011470854282, 0.009498783387243748, -0.008473963476717472, -0.0038268771022558212, -0.012086929753422737, 0.00544761074706912, -0.01031128503382206, 0.00843307375907898], [0.0041282158344984055, -0.0032486505806446075, 0.003660360351204872, 0.00319915940053761, 0.0067162844352424145, -0.006728676613420248, 0.009255592711269855, 0.007783927023410797, 0.011205476708710194, 0.011758913286030293, 0.0031341256108134985, 0.007284855470061302, -0.005503814667463303, -0.008681048639118671, 0.008079336024820805, 0.0034763694275170565, -0.003584736492484808, -0.009452088735997677, -0.0028650539461523294, -0.0027634904254227877, 0.01247035525739193, -0.010336682200431824, 0.0030340575613081455, 0.00906060915440321, -0.009336639195680618, -0.008131857961416245, -0.0071084825322031975, -0.010240510106086731, 0.006867545191198587, -0.0033494848757982254, 0.0069859749637544155, -0.0076127429492771626, 0.0034002340398728848, 0.008059793151915073, 0.01056309137493372, -0.0025136072654277086, 0.002838390413671732, 0.008121372200548649, -0.0009723443654365838, -0.004399508703500032, -0.0074365707114338875, -0.002527376404032111, 0.003417119150981307, -0.009804677218198776, 0.005566898733377457, 0.011307370848953724, 0.0030904575251042843, -0.008134542964398861, 0.0031898163724690676, 0.0030800984241068363, -0.004873422905802727, -0.008194764144718647, -0.009280587546527386, -0.0035825639497488737, 0.0033472345676273108, -0.008166802115738392, 0.0045099942944943905, -0.007989591918885708, 0.009622534736990929, -0.006295089144259691, 0.008984842337667942, 0.010684697888791561, 0.008078046143054962, -0.008773180656135082, 0.0076997908763587475, -0.003599221119657159, -0.005385161377489567, -0.009341252967715263, 0.010581130161881447, -0.009563933126628399, 0.0075129177421331406, 0.008751370944082737, 0.009454905055463314, 0.003257329110056162, -0.0075864652171730995, -0.010671318508684635, 0.008072875440120697, -0.010821880772709846, 0.010025326162576675, 0.0046193902380764484, 0.008652192540466785, -0.010166779160499573, 0.00903333444148302, -0.008017634972929955, 0.008334252052009106, -0.0030139076989144087, 0.008972113020718098, 0.009459232911467552, 0.00541579257696867, -0.010669464245438576, 0.008523348718881607, -0.0034135098103433847, 0.006801996845752001, -0.010225689969956875, 0.002876121085137129, 0.009565308690071106, 0.006684216670691967, 0.012471565045416355, 0.00722499331459403, 0.009783558547496796, -0.006624832283705473, -0.005778769962489605, 0.0069057573564350605, 0.00926627404987812, 0.009026953019201756, 0.010150466114282608, 0.008835718035697937, -0.0051278164610266685, 0.008669765666127205, 0.010319157503545284, 0.009208613075315952, -0.008412563242018223, 0.007439094595611095, -0.007775642443448305, 0.0076648578979074955, 0.004782708827406168, 0.00561995804309845, 0.010798600502312183, 0.007342639844864607, -0.002828554017469287, 0.01006097812205553, -0.008843782357871532, 0.008320326916873455, 0.009886357001960278, 0.009855617769062519, -0.009978372603654861, 0.003333699656650424, -0.00273908581584692], [-0.011510331183671951, 0.003380576614290476, -0.007068701088428497, -0.004972441587597132, -0.010868661105632782, 0.012754097580909729, -0.012797835282981396, -0.010367247276008129, -0.013419147580862045, -0.012544814497232437, -0.011686204932630062, -0.003353519132360816, 0.0072313458658754826, 0.003151383250951767, -0.01317379716783762, -0.01227115560323, 0.013083686120808125, 0.0130546223372221, 0.0037377383559942245, 0.011625980027019978, -0.008943721652030945, 0.008763192221522331, -0.01139945350587368, -0.012884542346000671, 0.012073362246155739, 0.003356626955792308, 0.008926455862820148, 0.011658210307359695, -0.010171080939471722, 0.003655552165582776, -0.011472566053271294, 0.012637479230761528, -0.003511356422677636, -0.011005615815520287, -0.009192561730742455, 0.011566787026822567, -0.012270132079720497, -0.010338511317968369, 0.011790984310209751, 0.011941082775592804, 0.0030548027716577053, 0.0038077118806540966, -0.01184265036135912, 0.011756867170333862, -0.013318171724677086, -0.012623022310435772, -0.014255731366574764, 0.002814916195347905, -0.013887436129152775, -0.012553972192108631, 0.010585920885205269, 0.013318298384547234, 0.010572100058197975, 0.003635501256212592, -0.003787743393331766, 0.0033587331417948008, -0.009968678466975689, 0.011997589841485023, -0.012215683236718178, 0.010633949190378189, -0.012656192295253277, -0.012473084032535553, -0.013801885768771172, 0.012782844714820385, -0.010140546597540379, 0.013167323544621468, 0.010926869697868824, 0.011887536384165287, -0.011597810313105583, 0.011356920935213566, -0.01224497240036726, -0.011276179924607277, -0.012016342021524906, -0.013178776018321514, 0.014128551818430424, 0.013059835880994797, -0.006550147198140621, 0.0029932830948382616, -0.00350439571775496, -0.00464771781116724, -0.011553880758583546, 0.011591394431889057, -0.003275094088166952, 0.0034787682816386223, -0.0036200578324496746, 0.00945909321308136, -0.012022758834064007, -0.01106103416532278, -0.011110756546258926, 0.01193968951702118, -0.003104687901213765, 0.0032054856419563293, -0.011240177787840366, 0.010540449060499668, -0.013768220320343971, -0.012730135582387447, -0.012342001311480999, -0.012756029143929482, -0.010758240707218647, -0.011480570770800114, 0.01351043488830328, 0.011968279257416725, -0.012362509965896606, -0.011976559646427631, -0.013481509871780872, -0.0056285979226231575, -0.01257401518523693, 0.0137949138879776, -0.004190816078335047, -0.01210129726678133, -0.009644743986427784, 0.010764479637145996, -0.013254824094474316, 0.0034742774441838264, -0.012539833784103394, -0.003288502572104335, -0.013009273447096348, -0.003969475626945496, -0.013345738872885704, 0.011397461406886578, -0.0027295437175780535, 0.012396074831485748, -0.0134897381067276, -0.009960665367543697, -0.010574073530733585, 0.011443514376878738, -0.011260501109063625, 0.013769186101853848], [0.003513597883284092, -0.012132693082094193, 0.012906288728117943, 0.012803065590560436, 0.013900257647037506, -0.014062545262277126, 0.011731299571692944, 0.00321004306897521, 0.012817516922950745, 0.011846191249787807, 0.015476643107831478, 0.015580791980028152, -0.014978015795350075, -0.0030796565115451813, 0.0038192353677004576, 0.012866814620792866, -0.005793019663542509, -0.006707321386784315, -0.0032770864199846983, -0.013569585047662258, 0.013968442566692829, -0.00654790922999382, 0.012671483680605888, 0.011485053226351738, -0.01684662699699402, -0.01514286920428276, -0.012242819182574749, -0.012141960673034191, 0.013837423175573349, -0.012641544453799725, 0.012277800589799881, -0.014715648256242275, 0.012850342318415642, 0.0031167343258857727, 0.011267055757343769, -0.002875249832868576, 0.009494844824075699, 0.012767192907631397, -0.0018966125790029764, -0.013992412947118282, -0.009298200719058514, -0.014691428281366825, 0.015881117433309555, -0.004434216767549515, 0.01409959513694048, 0.013668768107891083, 0.0109049491584301, -0.014031948521733284, 0.015062578022480011, 0.012877807952463627, -0.007354922126978636, -0.014773853123188019, -0.007390093989670277, -0.014294703491032124, 0.01530432142317295, -0.00377587485127151, 0.009853060357272625, -0.014824794605374336, 0.00302600278519094, -0.012310376390814781, 0.0133904330432415, 0.0030454914085566998, 0.015449845232069492, -0.013229086063802242, 0.01106584444642067, -0.011904746294021606, -0.013866174966096878, -0.012187122367322445, 0.0029034323524683714, -0.008534476161003113, 0.013339407742023468, 0.01080289576202631, 0.015661627054214478, 0.005381366237998009, -0.007749509997665882, -0.0041733733378350735, 0.012307075783610344, -0.01342775858938694, 0.01232148613780737, 0.004858380649238825, 0.013756442815065384, -0.013673488050699234, 0.011930897831916809, -0.014512954279780388, 0.014929283410310745, -0.013973654247820377, 0.012211011722683907, 0.014146363362669945, 0.0035937156062573195, -0.01087095681577921, 0.0161688644438982, -0.012561626732349396, 0.014050270430743694, -0.013376850634813309, 0.014971574768424034, 0.010508093051612377, 0.013927287422120571, 0.010043222457170486, 0.01218006107956171, 0.013195195235311985, -0.0055666654370725155, -0.014901992864906788, 0.015763895586133003, 0.015295898541808128, 0.012045037001371384, 0.014485367573797703, 0.014231743291020393, -0.015534849837422371, 0.014786025509238243, 0.013094555586576462, 0.011507924646139145, -0.014749003574252129, 0.005872483830899, -0.005160958040505648, 0.012172049842774868, 0.012087038718163967, 0.013601034879684448, 0.012472986243665218, 0.016909772530198097, -0.012288413010537624, 0.0026917492505162954, -0.003657508408650756, 0.014562325552105904, 0.011332178488373756, 0.007345495279878378, -0.013111338019371033, 0.012587304227054119, -0.00341979437507689], [0.0032127252779901028, -0.012429162859916687, 0.014163171872496605, 0.012644381262362003, 0.011769786477088928, -0.015109099447727203, 0.003214856144040823, 0.012465019710361958, 0.0038181254640221596, 0.01388522144407034, 0.015077047049999237, 0.016050245612859726, -0.013796195387840271, -0.016879307106137276, 0.012785395607352257, 0.011375046335160732, -0.012553083710372448, -0.015602434985339642, -0.012774630449712276, -0.015890877693891525, 0.013559957966208458, -0.008240856230258942, 0.01378542184829712, 0.0031904978677630424, -0.0036343750543892384, -0.01608716882765293, -0.0035651521757245064, -0.006125018931925297, 0.01432409230619669, -0.005569858010858297, 0.00358705036342144, -0.017667613923549652, 0.014379465952515602, 0.014513489790260792, 0.0035570538602769375, -0.015027817338705063, 0.0034444788470864296, 0.0033912030048668385, -0.0075051309540867805, -0.014564994722604752, -0.003339475952088833, -0.0027335593476891518, 0.0035796361044049263, -0.0039181639440357685, 0.015102737583220005, 0.018718594685196877, 0.011392012238502502, -0.01397315226495266, 0.004459934309124947, 0.010553041473031044, -0.003331663552671671, -0.0032951270695775747, -0.01431629341095686, -0.0039815218187868595, 0.006982734426856041, -0.015092981979250908, 0.0013292675139382482, -0.015424932353198528, 0.003609356004744768, -0.005576735828071833, 0.002961538266390562, 0.013633531518280506, 0.0182969830930233, -0.013705327175557613, 0.01398751512169838, -0.015108361840248108, -0.01407083310186863, -0.0028134931344538927, 0.015612469054758549, -0.01029764860868454, 0.0169737059623003, 0.003951181657612324, 0.016145627945661545, 0.00382373109459877, -0.013451404869556427, -0.015318627469241619, 0.01654122769832611, -0.015849243849515915, 0.003422736655920744, 0.004796349909156561, 0.017419664189219475, -0.0045991758815944195, 0.01407840196043253, -0.003504232969135046, 0.010566101409494877, -0.003763265674933791, 0.003545718966051936, 0.0032419413328170776, 0.016263853758573532, -0.013576483353972435, 0.015640251338481903, -0.009119238704442978, 0.014367928728461266, -0.002897493075579405, 0.014990000985562801, 0.01037330087274313, 0.0036039557307958603, 0.004155460745096207, 0.010152023285627365, 0.012340366840362549, -0.014332843013107777, -0.014109108597040176, 0.013670295476913452, 0.013698174618184566, 0.0028563267551362514, 0.017340200021862984, 0.01367394719272852, -0.003542698686942458, 0.0031182102393358946, 0.012694835662841797, 0.01359040942043066, -0.0050294892862439156, 0.003194863675162196, -0.015715593472123146, 0.01433916762471199, 0.0032799867913126945, 0.0031727466266602278, 0.013854124583303928, 0.020886097103357315, -0.01471690833568573, 0.00903102196753025, -0.01557141449302435, 0.016460556536912918, 0.012761787511408329, 0.0034047795925289392, -0.012821420095860958, 0.011794441379606724, -0.01630225218832493], [0.008106105029582977, -0.008880929090082645, 0.015051144175231457, 0.010170100256800652, 0.009866737760603428, -0.014181875623762608, 0.005787791218608618, 0.008290545083582401, 0.009709504432976246, 0.0011686475481837988, 0.011602835729718208, 0.012184315361082554, -0.01812690682709217, -0.005538844503462315, 0.014654353260993958, 0.01458649430423975, -0.011159571819007397, -0.009388086386024952, -0.014662014320492744, -0.014951242133975029, 0.0004634200595319271, -0.006204231176525354, 0.01179104670882225, 0.008507704362273216, -0.015175844542682171, -0.017317699268460274, -0.00920578557997942, -0.0025637622456997633, 0.01443343237042427, -0.00883916299790144, 0.012422860600054264, -0.006499846000224352, 0.015800686553120613, 0.0057811313308775425, 0.006006384268403053, -0.010105307213962078, 0.014112644828855991, 0.010121574625372887, -0.006950691342353821, -0.005904237739741802, -0.012561039999127388, -0.002904088469222188, 0.011517071165144444, -0.016321567818522453, 0.015440438874065876, 0.0069602979347109795, 0.012341272085905075, -0.0018176994053646922, 0.011381218209862709, 0.014327194541692734, -0.010107810609042645, -0.014158531092107296, -0.01166023313999176, -0.010025983676314354, 0.013028433546423912, -0.013728844001889229, 0.008411682210862637, -0.0067550865933299065, 0.01175314374268055, -0.01432720385491848, 0.0095313536003232, 0.005302454344928265, 0.012606602162122726, -0.005130298435688019, 0.009602178819477558, -0.010865714401006699, -0.011288122273981571, -0.012338699772953987, 0.011522527784109116, -0.00708694476634264, 0.014570958912372589, 0.018556013703346252, 0.0016551605658605695, 0.017489323392510414, -0.013425825163722038, -0.009202705696225166, 0.007251595612615347, -0.00424637645483017, 0.00872640497982502, 0.001888373284600675, 0.008241862058639526, -0.0024906203616410494, 0.013703295029699802, -0.01099471002817154, 0.009188313037157059, -0.014468438923358917, 0.017963211983442307, 0.003655662527307868, 0.005855099763721228, -0.0009021038422361016, 0.010087423026561737, -0.006630480755120516, 0.01073483843356371, -0.009177755564451218, 0.014844153076410294, 0.014292878098785877, 0.007865706458687782, 0.008780007250607014, 0.013218650594353676, 0.008314767852425575, -0.010847833938896656, -0.011411439627408981, 0.013163118623197079, 0.010699399746954441, 0.009762173518538475, 0.009419023990631104, 0.013310153968632221, -0.009369753301143646, 0.010518009774386883, 0.005596376024186611, 0.01206024270504713, -0.010682917200028896, 0.006892139557749033, -0.015605124644935131, 0.004045356530696154, 0.008392193354666233, 0.00746239023283124, 0.009351805783808231, 0.008834431879222393, -0.011452329345047474, 0.0025282101705670357, -0.013889957219362259, 0.007641104981303215, 0.021131442859768867, 0.0031067775562405586, -0.01599407009780407, 0.012764202430844307, -0.005331105552613735], [-0.009997726418077946, 0.012481782585382462, -0.016105107963085175, -0.010283568874001503, -0.013363800942897797, 0.012106887996196747, -0.012404046021401882, -0.011070968583226204, -0.014566839672625065, -0.0019758318085223436, -0.01291837077587843, -0.011881253682076931, 0.012743611820042133, 0.011168749071657658, -0.012890633195638657, -0.011763227172195911, 0.016033727675676346, 0.013521594926714897, 0.012549369595944881, 0.011998975649476051, -0.0042777471244335175, 0.010165815241634846, -0.014973381534218788, -0.010926557704806328, 0.01346888393163681, 0.012316756881773472, 0.016605395823717117, 0.01040406059473753, -0.012902571819722652, 0.015270242467522621, -0.012310577556490898, 0.010846422985196114, -0.012773744761943817, -0.011461897753179073, -0.004836254753172398, 0.01072704792022705, -0.012115909717977047, -0.014495470561087132, 0.005612201988697052, 0.009269671514630318, 0.01127649936825037, 0.013885660097002983, -0.019261764362454414, 0.016697563230991364, -0.017158178612589836, -0.0015502040041610599, -0.010289992205798626, 0.008706058375537395, -0.013343572616577148, -0.012655896134674549, 0.011216608807444572, 0.011680679395794868, 0.011301334016025066, 0.012890455313026905, -0.013276658952236176, 0.011003559455275536, -0.008325496688485146, 0.01037015113979578, -0.010224229656159878, 0.010453023947775364, -0.011404489167034626, -0.014230793341994286, -0.0019324731547385454, 0.006595132406800985, -0.010135218501091003, 0.011016941629350185, 0.020310280844569206, 0.009333607740700245, -0.008487828075885773, 0.007169097661972046, -0.011613513343036175, -0.021586822345852852, -0.015623667277395725, -0.010180741548538208, 0.014008309692144394, 0.009996599517762661, -0.011419829912483692, 0.012618016451597214, -0.013469520956277847, -0.0022332470398396254, -0.007222356740385294, 0.009060796350240707, -0.011436404660344124, 0.011049153283238411, -0.016912370920181274, 0.010387244634330273, -0.01768789440393448, -0.01712200418114662, -0.009770337492227554, 0.003878773422911763, -0.016253136098384857, 0.01720729097723961, -0.016858093440532684, 0.010759690776467323, -0.013477248139679432, -0.013123681768774986, -0.018423212692141533, -0.02199428901076317, -0.01287812553346157, -0.013623463921248913, 0.01613682135939598, 0.013026650063693523, -0.015587757341563702, -0.01759399101138115, -0.013167347759008408, -0.014573369175195694, -0.01064247451722622, 0.011823461391031742, -0.015904944390058517, -0.010451721958816051, -0.012138502672314644, 0.012697485275566578, -0.01038041990250349, 0.012106047943234444, -0.009608804248273373, -0.017452504485845566, -0.012740137986838818, -0.0066948640160262585, -0.007118219509720802, 0.011620782315731049, -0.007704709656536579, 0.013161754235625267, -0.00941938254982233, -0.022694062441587448, -0.01330774649977684, 0.013812115415930748, -0.01775582693517208, 0.00978894904255867], [-0.01711510494351387, 0.016637001186609268, -0.014974918216466904, -0.014422191306948662, -0.013796896673738956, 0.018089577555656433, -0.016239719465374947, -0.0035587355960160494, -0.01773403212428093, -0.012341320514678955, -0.017497679218649864, -0.019514724612236023, 0.017407875508069992, 0.01951962523162365, -0.018566790968179703, -0.016041342169046402, 0.009281684644520283, 0.0034450977109372616, 0.014550374820828438, 0.01850462518632412, -0.013001786544919014, 0.010130303911864758, -0.017207937315106392, -0.015181594528257847, 0.009435683488845825, 0.0036515360698103905, 0.014975224621593952, 0.01567676290869713, -0.019807999953627586, 0.004899665247648954, -0.003990833647549152, 0.017913322895765305, -0.016405820846557617, -0.016262661665678024, -0.003771447576582432, 0.015065988525748253, -0.003589941654354334, -0.01352258026599884, 0.0056196339428424835, 0.01592007651925087, 0.01558611262589693, 0.017856143414974213, -0.018200132995843887, 0.01606590673327446, -0.01783815212547779, -0.020899713039398193, -0.017593055963516235, 0.01741395704448223, -0.018099475651979446, -0.014240989461541176, 0.01380865927785635, 0.017216531559824944, 0.0032675648108124733, 0.013720021583139896, -0.015862921252846718, 0.01564900390803814, -0.007660359609872103, 0.017821427434682846, -0.014100391417741776, 0.013307922519743443, -0.0031944820657372475, -0.006760702934116125, -0.009118612855672836, 0.015239461325109005, -0.015702825039625168, 0.004166433587670326, 0.015374282374978065, 0.014529211446642876, -0.015600724145770073, 0.009730253368616104, -0.015866635367274284, -0.004044022876769304, -0.018509889021515846, -0.011099069379270077, 0.016784939914941788, 0.014953495003283024, -0.017472954466938972, 0.017669646069407463, -0.012623284012079239, -0.01334376260638237, -0.004050815012305975, 0.019249368458986282, -0.0163335632532835, 0.0037222213577479124, -0.014102115295827389, 0.015233281999826431, -0.01572076976299286, -0.003457935992628336, -0.01628865860402584, 0.012745874933898449, -0.0048322114162147045, 0.017610393464565277, -0.0038715656846761703, 0.013534994795918465, -0.017053160816431046, -0.012379329651594162, -0.01792498491704464, -0.011532239615917206, -0.017359135672450066, -0.014918141067028046, 0.014714770950376987, 0.015373027883470058, -0.01922272890806198, -0.01691378653049469, -0.01734621450304985, -0.0028728097677230835, -0.016606416553258896, 0.01624250039458275, -0.0033666924573481083, -0.0037798758130520582, -0.014438146725296974, 0.014092709869146347, -0.003248329507187009, 0.01741187646985054, -0.017705297097563744, -0.01708940602838993, -0.01812264695763588, -0.013625620864331722, -0.025465641170740128, 0.015954051166772842, -0.013005748391151428, 0.0035444279201328754, -0.019313130527734756, -0.004782690666615963, -0.018382182344794273, 0.016290992498397827, -0.006650516297668219, 0.0030224137008190155], [0.01237181480973959, -0.0033944668248295784, 0.011338308453559875, 0.008831167593598366, 0.003423368325456977, -0.01241541188210249, 0.0029843372758477926, 0.013158546760678291, 0.00350774428807199, 0.011991090141236782, 0.01356296893209219, 0.011819858103990555, -0.010225602425634861, -0.012968450784683228, 0.011095473542809486, 0.009916920214891434, -0.003622424555942416, -0.01252665463835001, -0.011518627405166626, -0.011248886585235596, 0.012911400757730007, -0.008245140314102173, 0.01185869425535202, 0.01179459784179926, -0.012693625874817371, -0.014826752245426178, -0.011322315782308578, -0.0141612458974123, 0.01463768444955349, -0.00814603641629219, 0.012030566111207008, -0.015036004595458508, 0.011923981830477715, 0.011910023167729378, 0.013196992687880993, -0.0026558651588857174, 0.01281674299389124, 0.01144494116306305, -0.0056724874302744865, -0.012716775760054588, -0.0031203392427414656, -0.011949894018471241, 0.012121239677071571, -0.011095928028225899, 0.010871881619095802, 0.016159677878022194, 0.014838666655123234, -0.013958939351141453, 0.0033814036287367344, 0.013475249521434307, -0.006503993645310402, -0.013370776548981667, -0.013558121398091316, -0.010895738378167152, 0.012397941201925278, -0.0030223922803997993, 0.00973125547170639, -0.011513353325426579, 0.013303174637258053, -0.00877437274903059, 0.013180690817534924, 0.01217577327042818, 0.016374018043279648, -0.00808272510766983, 0.010740930214524269, -0.00899652112275362, -0.012579706497490406, -0.013633104041218758, 0.013960595242679119, -0.009759278036653996, 0.012586246244609356, 0.0037556730676442385, 0.015643319115042686, 0.010762497782707214, -0.010828744620084763, -0.013375459238886833, 0.012058726511895657, -0.011791971512138844, 0.008812899701297283, 0.013000466860830784, 0.0030911730136722326, -0.014700975269079208, 0.003156877588480711, -0.0034986380487680435, 0.01189899817109108, -0.010827749967575073, 0.013038299046456814, 0.014448242262005806, 0.014473805204033852, -0.004577231127768755, 0.012226450257003307, -0.008065051399171352, 0.012321045622229576, -0.004755136091262102, 0.0034033528063446283, 0.0041343350894749165, 0.0032787525560706854, 0.013982513919472694, 0.013986689038574696, 0.012934270314872265, -0.010498343966901302, -0.011285594664514065, 0.0045324815437197685, 0.014302548952400684, 0.01433803141117096, 0.013933420181274414, 0.003068621037527919, -0.0032271735835820436, 0.0054914141073822975, 0.004327008035033941, 0.013943931087851524, -0.013235809281468391, 0.014120119623839855, -0.006255550310015678, 0.008449211716651917, 0.0033382538240402937, 0.011269950307905674, 0.0036291261203587055, 0.0028267763555049896, -0.0030294901225715876, 0.010550620965659618, -0.011655937880277634, 0.014797443524003029, 0.008052591234445572, 0.01150490716099739, -0.014100201427936554, 0.008235989138484001, -0.014918765053153038], [-0.0033386400900781155, 0.003410646226257086, -0.010710938833653927, -0.01377958245575428, -0.0036416705697774887, 0.014437985606491566, -0.010286754928529263, -0.010694922879338264, -0.005041792057454586, -0.002345271175727248, -0.014648249372839928, -0.0031380956061184406, 0.01077814307063818, 0.008882454596459866, -0.0036125355400145054, -0.009641388431191444, 0.0035897616762667894, 0.009104941040277481, 0.012478906661272049, 0.003214835189282894, -0.013763675466179848, 0.009628091007471085, -0.004113736562430859, -0.012052434496581554, 0.003523025428876281, 0.014373404905200005, 0.011985543183982372, 0.013952679000794888, -0.013125044293701649, 0.0038029970601201057, -0.009402885101735592, 0.01262039877474308, -0.003407410578802228, -0.003227428300306201, -0.012026038952171803, 0.01290994044393301, -0.009038666263222694, -0.012148156762123108, 0.0008227659272961318, 0.008924465626478195, 0.015205610543489456, 0.01337204035371542, -0.012279837392270565, 0.01327331643551588, -0.003281716722995043, -0.0025909210089594126, -0.014134518802165985, 0.012932565994560719, -0.0144675737246871, -0.013055814430117607, 0.012905185110867023, 0.011955500580370426, 0.01138894073665142, 0.003631564322859049, -0.0035588969476521015, 0.013705229386687279, -0.009841755963861942, 0.015496820211410522, -0.00290499534457922, 0.010759765282273293, -0.0038028385024517775, -0.013973014429211617, -0.01461093407124281, 0.011912393383681774, -0.002939903875812888, 0.013682783581316471, 0.0037552383728325367, 0.011897572316229343, -0.014911461621522903, 0.010373173281550407, -0.01502436213195324, -0.010878629051148891, -0.004000278189778328, -0.006958012003451586, 0.012905250303447247, 0.014165874570608139, -0.010206102393567562, 0.014031409285962582, -0.006011369172483683, -0.013357650488615036, -0.01544837187975645, 0.014902857132256031, -0.012606464326381683, 0.0119137242436409, -0.012639363296329975, 0.012446409091353416, -0.013692420907318592, -0.0121297063305974, -0.011933138594031334, 0.013023368082940578, -0.003109757788479328, 0.012707168236374855, -0.01255793683230877, 0.003005143953487277, -0.013952892273664474, -0.011387704871594906, -0.015097188763320446, -0.0040030148811638355, -0.00343227363191545, -0.01064464170485735, 0.010842807590961456, 0.013419012539088726, -0.014499704353511333, -0.01072871033102274, -0.014882509596645832, -0.002958347089588642, -0.01306652557104826, 0.01219928078353405, -0.015909262001514435, -0.010615604929625988, -0.01188415102660656, 0.003487000009045005, -0.015292664989829063, 0.004528139717876911, -0.0028619354125112295, -0.011932345107197762, -0.011550451628863811, -0.0034550472628325224, -0.002707075560465455, 0.013400006107985973, -0.0027566333301365376, 0.011814460158348083, -0.013169878162443638, -0.004200452473014593, -0.013385421596467495, 0.011830796487629414, -0.011134076863527298, 0.014017240144312382], [0.005179135594516993, -0.006924203131347895, 0.004361243918538094, 0.005661568138748407, 0.0034492029808461666, -0.0026679392904043198, 0.004595729522407055, 0.0036482447758316994, 0.0036084249150007963, 0.0014210348017513752, 0.0026843990199267864, 0.003152113175019622, -0.0035610392224043608, -0.0037753803189843893, 0.003402615897357464, 0.00342381838709116, -0.0033591724932193756, -0.003990146331489086, -0.004688863176852465, -0.00411002105101943, 0.011643222533166409, -0.010160459205508232, 0.003853058675304055, 0.0030450483318418264, -0.002463425975292921, -0.003195795463398099, -0.0025166142731904984, -0.006724096834659576, 0.0037388030905276537, -0.006169147789478302, 0.0032632704824209213, -0.004959143232554197, 0.003002954414114356, 0.002864925656467676, 0.002680359408259392, -0.0024504256434738636, 0.003960527945309877, 0.005606418009847403, -0.0009841672144830227, -0.008810515515506268, -0.0038963500410318375, -0.006632499862462282, 0.007571853697299957, -0.003854869632050395, 0.002442083088681102, 0.005351102910935879, 0.006214444991201162, -0.0025137930642813444, 0.002102434867992997, 0.004367947578430176, -0.003613109467551112, -0.002423347206786275, -0.0029497414361685514, -0.0032485707197338343, 0.00320249330252409, -0.0025718731340020895, 0.005722374189645052, -0.007280429825186729, 0.0064215525053441525, -0.01093246042728424, 0.006768256425857544, 0.008803795091807842, 0.004603499546647072, -0.006048143375664949, 0.0023148758336901665, -0.0044820779003202915, -0.008773000910878181, -0.003974878694862127, 0.0021927545312792063, -0.011166821233928204, 0.0036850839387625456, 0.006858276668936014, 0.0048544504679739475, 0.0032238345593214035, -0.004695013631135225, -0.006062721833586693, 0.0057953763753175735, -0.007601312827318907, 0.00336949760094285, 0.0068650031462311745, 0.002612185897305608, -0.0022904558572918177, 0.0028881793841719627, -0.004775085020810366, 0.0027212633285671473, -0.0029468669090420008, 0.004976307041943073, 0.0035876149777323008, 0.0015700962394475937, -0.007546515669673681, 0.002966263797134161, -0.0017356346361339092, 0.002615926554426551, -0.005040342919528484, 0.009521673433482647, 0.005364750977605581, 0.0032818629406392574, 0.004145426210016012, 0.00537694338709116, 0.0029231898952275515, -0.0023223422467708588, -0.0031048681121319532, 0.002474159002304077, 0.005174426827579737, 0.0025174792390316725, 0.0032612907234579325, 0.0034968280233442783, -0.0045891860499978065, 0.0025575952604413033, 0.007737019099295139, 0.003347979858517647, -0.0034730490297079086, 0.004415063187479973, -0.0031772779766470194, 0.007065135985612869, 0.0024152786936610937, 0.008590571582317352, 0.007465817499905825, 0.0014778798213228583, -0.0024631426203995943, 0.007238821592181921, -0.00826205499470234, 0.005113563034683466, 0.007046588696539402, 0.006617898587137461, -0.005936389323323965, 0.0025409648660570383, -0.005301260389387608], [0.011113539338111877, -0.003283936530351639, 0.003490270348265767, 0.010045290924608707, 0.007756365463137627, -0.003127003088593483, 0.00748525932431221, 0.0026933704502880573, 0.011404067277908325, 0.0031640620436519384, 0.009201415814459324, 0.003495462704449892, -0.0036588460206985474, -0.011385921388864517, 0.009759697131812572, 0.0036706789396703243, -0.009868853725492954, -0.0033687762916088104, -0.011663378216326237, -0.010174678638577461, 0.012120692059397697, -0.008863498456776142, 0.00324172992259264, 0.01048046350479126, -0.010695542208850384, -0.007502052932977676, -0.003638501511886716, -0.002801355440169573, 0.003882533637806773, -0.011365091428160667, 0.0036440889816731215, -0.01047159917652607, 0.008996174670755863, 0.009941110387444496, 0.00799222756177187, -0.002589463023468852, 0.00898035243153572, 0.011256449855864048, -0.0015424208249896765, -0.011769612319767475, -0.01057683676481247, -0.010810736566781998, 0.009907284751534462, -0.011679856106638908, 0.003162397537380457, 0.01342915277928114, 0.013027556240558624, -0.013283121399581432, 0.00941967498511076, 0.010816721245646477, -0.003429301083087921, -0.003026387421414256, -0.0031977719627320766, -0.008915595710277557, 0.003572718473151326, -0.008394883945584297, 0.009421098977327347, -0.010241987183690071, 0.010576832108199596, -0.003424149239435792, 0.0023136120289564133, 0.01155954971909523, 0.012844057753682137, -0.007062995340675116, 0.003847738029435277, -0.010587365366518497, -0.00374530628323555, -0.0034276607912033796, 0.011576209217309952, -0.010049956850707531, 0.0032417161855846643, 0.011436746455729008, 0.0033338419161736965, 0.0036792440805584192, -0.010940819047391415, -0.011998374946415424, 0.0032904548570513725, -0.010926647111773491, 0.003156753722578287, 0.01350896805524826, 0.00300819193944335, -0.0027444763109087944, 0.011202158406376839, -0.01132999174296856, 0.010583077557384968, -0.003356102155521512, 0.0034307397436350584, 0.009586768224835396, 0.01053854450583458, -0.0027010682970285416, 0.010043871589004993, -0.0034699607640504837, 0.0037470259703695774, -0.0029477253556251526, 0.00871159229427576, 0.0036525342147797346, 0.011312967166304588, 0.012231196276843548, 0.003626334248110652, 0.010276932269334793, -0.006613805890083313, -0.0035357053857296705, 0.0029931655153632164, 0.012293167412281036, 0.012500097043812275, 0.003248922759667039, 0.011250985786318779, -0.012448539026081562, 0.011634031310677528, 0.004025491885840893, 0.003549822373315692, -0.003253591014072299, 0.011462805792689323, -0.0031388483475893736, 0.012510953471064568, 0.004758757539093494, 0.0034217152278870344, 0.01293090172111988, 0.013573826290667057, -0.010374498553574085, 0.0027895052917301655, -0.012112692929804325, 0.002636116463690996, 0.011997059918940067, 0.0033120533917099237, -0.004323700442910194, 0.01077976729720831, -0.012661700136959553], [0.003116779262199998, -0.005134156905114651, 0.003562954720109701, 0.0033849391620606184, 0.01022627018392086, -0.012448669411242008, 0.009239665232598782, 0.00843037199229002, 0.009400008246302605, 0.0031439834274351597, 0.005013741552829742, 0.011936319060623646, -0.012270794250071049, -0.00809226930141449, 0.01279366109520197, 0.010339386761188507, -0.0054200198501348495, -0.012173461727797985, -0.0115084582939744, -0.003581832628697157, 0.012706696055829525, -0.007909768261015415, 0.004654513206332922, 0.008747425861656666, -0.003561463439837098, -0.00321453926153481, -0.012231617234647274, -0.008703470230102539, 0.006820193491876125, -0.01081656850874424, 0.010129782371222973, -0.011955776251852512, 0.010271691717207432, 0.00878057535737753, 0.011723901145160198, -0.010535982437431812, 0.0033237363677471876, 0.009487934410572052, -0.012875059619545937, -0.0027643865905702114, -0.008922390639781952, -0.011671975255012512, 0.012062158435583115, -0.010806569829583168, 0.0036727336701005697, 0.0089737419039011, 0.002759935101494193, -0.010536553338170052, 0.0109381889924407, 0.011911313980817795, -0.011777585372328758, -0.009253434836864471, -0.008793339133262634, -0.012060384266078472, 0.009574436582624912, -0.01178375817835331, 0.0013156250352039933, -0.003143011825159192, 0.012309424579143524, -0.010030066594481468, 0.009974219836294651, 0.004725119099020958, 0.010200896300375462, -0.012420417740941048, 0.004286570940166712, -0.006370935123413801, -0.0039469460025429726, -0.009574281983077526, 0.008630948141217232, -0.010464579798281193, 0.01189191360026598, 0.003860320895910263, 0.009887774474918842, 0.003577924333512783, -0.01044449768960476, -0.0039012758061289787, 0.00308928987942636, -0.011858470737934113, 0.009016416035592556, 0.012166394852101803, 0.012439072132110596, -0.008583543822169304, 0.011856171302497387, -0.003510525682941079, 0.012063662521541119, -0.0112944720312953, 0.006451709661632776, 0.011795353144407272, 0.00905174482613802, -0.012226676568388939, 0.010628605261445045, -0.012391653843224049, 0.010453799739480019, -0.0029884183313697577, 0.012684676796197891, 0.008966085501015186, 0.010505803860723972, 0.010996317490935326, 0.009340894408524036, 0.006628421600908041, -0.003353619948029518, -0.012551064603030682, 0.010404965840280056, 0.005570786073803902, 0.01086248829960823, 0.008126527070999146, 0.0114805418998003, -0.012094174511730671, 0.00924433022737503, 0.011515018530189991, 0.010828291065990925, -0.0034361679572612047, 0.004040407948195934, -0.004741440527141094, 0.00992235355079174, 0.011886377818882465, 0.00907041784375906, 0.009794849902391434, 0.01026616245508194, -0.011450578458607197, 0.009442430920898914, -0.011301284655928612, 0.010948732495307922, 0.012818975374102592, 0.009510783478617668, -0.01068547461181879, 0.010335661470890045, -0.010005028918385506], [0.012086915783584118, -0.013145641423761845, 0.013957438059151173, 0.007493052631616592, 0.014706730842590332, -0.004744125530123711, 0.013588350266218185, 0.01178744900971651, 0.011729877442121506, 0.008138412609696388, 0.015179155394434929, 0.0037019806914031506, -0.012254000641405582, -0.014641364105045795, 0.0040012868121266365, 0.012188171036541462, -0.012752258218824863, -0.01484180148690939, -0.013568972237408161, -0.0034315779339522123, 0.012876668013632298, -0.009870770387351513, 0.00503016822040081, 0.011027571745216846, -0.004459148272871971, -0.0035947561264038086, -0.011920050717890263, -0.013772483915090561, 0.016643716022372246, -0.014771047979593277, 0.007028549909591675, -0.00363002042286098, 0.013838065788149834, 0.011562606319785118, 0.012808328494429588, -0.010491354390978813, 0.013902315869927406, 0.013488751836121082, -0.005099249072372913, -0.0027825392317026854, -0.01499304547905922, -0.013023062609136105, 0.004200710915029049, -0.013761709444224834, 0.015313084237277508, 0.0125293442979455, 0.012507972307503223, -0.011792398057878017, 0.004204872529953718, 0.004350372590124607, -0.0033637983724474907, -0.014198352582752705, -0.010715511627495289, -0.011845054104924202, 0.015690289437770844, -0.013553288765251637, 0.005279927048832178, -0.013102099299430847, 0.01211576722562313, -0.012641879729926586, 0.004418979864567518, 0.01213135290890932, 0.012315896339714527, -0.010414852760732174, 0.011799389496445656, -0.01404060423374176, -0.014786545187234879, -0.013481494970619678, 0.011776382103562355, -0.009425335563719273, 0.014863807708024979, 0.014501907862722874, 0.016038868576288223, 0.014280928298830986, -0.0036932576913386583, -0.012186597101390362, 0.013644348829984665, -0.0123513825237751, 0.00361044192686677, 0.013431382365524769, 0.014529905281960964, -0.012764171697199345, 0.014306441880762577, -0.01368648186326027, 0.0043333047069609165, -0.003476798301562667, 0.003726620227098465, 0.013481859117746353, 0.013349335640668869, -0.004700743593275547, 0.011931668035686016, -0.015263177454471588, 0.014450493268668652, -0.011479871347546577, 0.014485330320894718, 0.010105463676154613, 0.004809256177395582, 0.004078635014593601, 0.014882818795740604, 0.003793364390730858, -0.01373202819377184, -0.0036700046621263027, 0.012923038564622402, 0.011974009685218334, 0.0036914770025759935, 0.00297316606156528, 0.011891810223460197, -0.010680261068046093, 0.014012888073921204, 0.011466123163700104, 0.01436853501945734, -0.01172199659049511, 0.011934058740735054, -0.014774732291698456, 0.011638548225164413, 0.013405299745500088, 0.013355315662920475, 0.01363649033010006, 0.01580974832177162, -0.011096708476543427, 0.0027217352762818336, -0.012154938653111458, 0.013011648319661617, 0.013814754784107208, 0.012113824486732483, -0.013777070678770542, 0.012335093691945076, -0.012253138236701488], [0.0055426196195185184, -0.003394510829821229, 0.011508999392390251, 0.013759695924818516, 0.008775833994150162, -0.003036295296624303, 0.013094687834382057, 0.012317204847931862, 0.015787675976753235, 0.003115991596132517, 0.014499596320092678, 0.015207621268928051, -0.010953865945339203, -0.01772485114634037, 0.011787423864006996, 0.01264975406229496, -0.011550026945769787, -0.017138773575425148, -0.014526641927659512, -0.015896493569016457, 0.01314918976277113, -0.00865190289914608, 0.007620987482368946, 0.013487579300999641, -0.003296941751614213, -0.017303848639130592, -0.011294340714812279, -0.0173750352114439, 0.016163591295480728, -0.0034747100435197353, 0.012976774014532566, -0.017872445285320282, 0.003306362545117736, 0.0036469174083322287, 0.010969932191073895, -0.00979579333215952, 0.01173736248165369, 0.013830377720296383, -0.0019235832151025534, -0.014263213612139225, -0.018847675994038582, -0.01852041482925415, 0.003215337637811899, -0.011051510460674763, 0.0031131154391914606, 0.016613168641924858, 0.006093114614486694, -0.019310899078845978, 0.015092294663190842, 0.00360849522985518, -0.015346753410995007, -0.003035868750885129, -0.014825037680566311, -0.011118373833596706, 0.003581276396289468, -0.006250792648643255, 0.012204412370920181, -0.01752176135778427, 0.011962096206843853, -0.010055425576865673, 0.003060093615204096, 0.012880759313702583, 0.002642526291310787, -0.012548506259918213, 0.015933986753225327, -0.015010388568043709, -0.009306995198130608, -0.015283641405403614, 0.015391579829156399, -0.010099045000970364, 0.016639502719044685, 0.011772751808166504, 0.0036855777725577354, 0.012146620079874992, -0.012663431465625763, -0.013268480077385902, 0.0060945129953324795, -0.0054999785497784615, 0.012441843748092651, 0.011944117024540901, 0.003597044385969639, -0.0025322858709841967, 0.0031484500505030155, -0.004810779355466366, 0.003344878787174821, -0.014711876399815083, 0.013171716593205929, 0.014608963392674923, 0.01214289665222168, -0.009773917496204376, 0.014712466858327389, -0.0075606401078403, 0.003755914280191064, -0.0051656728610396385, 0.012049675919115543, 0.011773093603551388, 0.003294906113296747, 0.011160307563841343, 0.011693046428263187, 0.01235957071185112, -0.013195015490055084, -0.01443904172629118, 0.01934734359383583, 0.011411195620894432, 0.002891009906306863, 0.0026047115679830313, 0.002949660876765847, -0.013387390412390232, 0.018380748108029366, 0.0033754545729607344, 0.013690721243619919, -0.003666139906272292, 0.01693916879594326, -0.016380062326788902, 0.0026868346612900496, 0.01223771646618843, 0.003300061682239175, 0.012142522260546684, 0.015320456586778164, -0.0032617065589874983, 0.003670395351946354, -0.013368729501962662, 0.020296799018979073, 0.006660809274762869, 0.016555486246943474, -0.01596277765929699, 0.012268166057765484, -0.017777087166905403], [-0.0033013380598276854, 0.004363712389022112, -0.0032023878302425146, -0.003994910046458244, -0.013801133260130882, 0.002926988061517477, -0.0028559514321386814, -0.01588781736791134, -0.0033713362645357847, -0.014368180185556412, -0.010464750230312347, -0.002829317469149828, 0.003681399393826723, 0.0034664147533476353, -0.003952102269977331, -0.005546890199184418, 0.013329188339412212, 0.015245459973812103, 0.017012637108564377, 0.014055141247808933, -0.0125402407720685, 0.012000001966953278, -0.012068798765540123, -0.013493822887539864, 0.012394258752465248, 0.0030635963194072247, 0.0033167756628245115, 0.015463129617273808, -0.0156133733689785, 0.014129063114523888, -0.00803082063794136, 0.010944818146526814, -0.011990641243755817, -0.0030816213693469763, -0.003184482455253601, 0.017204491421580315, -0.013276958838105202, -0.014687307178974152, 0.012497222051024437, 0.0024150055833160877, 0.0031017197761684656, 0.0025925568770617247, -0.011420078575611115, 0.013478601351380348, -0.0030160103924572468, -0.005304128397256136, -0.014463616535067558, 0.01330642495304346, -0.013833067379891872, -0.003118297550827265, 0.003415457671508193, 0.012343531474471092, 0.0032232056837528944, 0.01292907353490591, -0.0034984571393579245, 0.012913732789456844, -0.008286913856863976, 0.010998859070241451, -0.015275094658136368, 0.0054178545251488686, -0.015752023085951805, -0.0062578837387263775, -0.0025871137622743845, 0.015524138696491718, -0.0028439683374017477, 0.013517244718968868, 0.003912906162440777, 0.014675242826342583, -0.014485109597444534, 0.009142362512648106, -0.014463509432971478, -0.00362115609459579, -0.012668105773627758, -0.003679444780573249, 0.014886943623423576, 0.014433587901294231, -0.0029018756467849016, 0.013095584698021412, -0.013295999728143215, -0.012164347805082798, -0.003023803234100342, 0.01207377016544342, -0.015588204376399517, 0.013777700252830982, -0.014414305798709393, 0.01534182671457529, -0.013431890867650509, -0.01257286872714758, -0.003018837422132492, 0.0034729621838778257, -0.007139187306165695, 0.012050407007336617, -0.012002294883131981, 0.003004662925377488, -0.011745519004762173, -0.013300919905304909, -0.013953936286270618, -0.004739479161798954, -0.013435842469334602, -0.012359258718788624, 0.014077173545956612, 0.011975476518273354, -0.011337663978338242, -0.003833580296486616, -0.0027280098292976618, -0.009841259568929672, -0.009767469018697739, 0.0042426674626767635, -0.015123986639082432, -0.013289502821862698, -0.013818996958434582, 0.014845862053334713, -0.003281740704551339, 0.003201532643288374, -0.002651203190907836, -0.012464025989174843, -0.010762451216578484, -0.011861853301525116, -0.0026228525675833225, 0.012058784253895283, -0.01945394091308117, 0.01343891117721796, -0.015119151212275028, -0.002367909997701645, -0.00332623184658587, 0.003593658795580268, -0.0034227187279611826, 0.012768850661814213], [-0.011857614852488041, 0.011096169240772724, -0.011418170295655727, -0.01111186295747757, -0.011194214224815369, 0.007692861370742321, -0.011333690024912357, -0.009414474479854107, -0.0035466039553284645, -0.009557303972542286, -0.01089599821716547, -0.012610837817192078, 0.011215209029614925, 0.012836123816668987, -0.010722894221544266, -0.0036202867049723864, 0.012699220329523087, 0.011415831744670868, 0.0032364830840379, 0.009274307638406754, -0.012645858339965343, 0.0078669972717762, -0.011095595546066761, -0.010809562169015408, 0.009842375293374062, 0.010190551169216633, 0.0033565082121640444, 0.005624633282423019, -0.009931319393217564, 0.012932581827044487, -0.0036920153070241213, 0.011908790096640587, -0.013085294514894485, -0.010100294835865498, -0.01110527478158474, 0.010928137227892876, -0.003337368369102478, -0.0035758796148002148, 0.006539797410368919, 0.0076282573863863945, 0.01245593186467886, 0.0036124293692409992, -0.012093107216060162, 0.011194218881428242, -0.0032966581638902426, -0.0045866514556109905, -0.013257087208330631, 0.011355847120285034, -0.010809295810759068, -0.009029492735862732, 0.008123848587274551, 0.005934724118560553, 0.008845514617860317, 0.009905749931931496, -0.008312137797474861, 0.008121074177324772, -0.008349682204425335, 0.011643378995358944, -0.011278577148914337, 0.008588249795138836, -0.010701295919716358, -0.004504889249801636, -0.010512654669582844, 0.010256564244627953, -0.002858261577785015, 0.011105279438197613, 0.009625294245779514, 0.011281800456345081, -0.010943529196083546, 0.009169417433440685, -0.009169837459921837, -0.012604810297489166, -0.009510507807135582, -0.008610849268734455, 0.011649846099317074, 0.010926136747002602, -0.0034333053044974804, 0.012010755948722363, -0.006151215173304081, -0.01312975026667118, -0.010119248181581497, 0.011413343250751495, -0.0032812145072966814, 0.012922528199851513, -0.013048054650425911, 0.012205819599330425, -0.009278904646635056, -0.011618371121585369, -0.011885820887982845, 0.010854118503630161, -0.003084395779296756, 0.012144464068114758, -0.005193088203668594, 0.003273153677582741, -0.012625664472579956, -0.009680010378360748, -0.011477753520011902, -0.012272962369024754, -0.012792530469596386, -0.00860050693154335, 0.010588397271931171, 0.011072260327637196, -0.011451635509729385, -0.012096535414457321, -0.009943420067429543, -0.005079040303826332, -0.008581285364925861, 0.011395546607673168, -0.011581119149923325, -0.008723879233002663, -0.011607968248426914, 0.012203923426568508, -0.003124791895970702, 0.010724615305662155, -0.010369155555963516, -0.003193292999640107, -0.01154383085668087, -0.010144831612706184, -0.010133975185453892, 0.00855606235563755, -0.009736998938024044, 0.003823463339358568, -0.010277512483298779, -0.004489298909902573, -0.0037649860605597496, 0.012394619174301624, -0.0040746028535068035, 0.012742696329951286], [0.00964041892439127, -0.007876965217292309, 0.008672947995364666, 0.008545849472284317, 0.008267277851700783, -0.01017236988991499, 0.007621684577316046, 0.007106900680810213, 0.00712731946259737, 0.008997519500553608, 0.008228975348174572, 0.005925413221120834, -0.004004591144621372, -0.009418639354407787, 0.008034774102270603, 0.007396334782242775, -0.003557338612154126, -0.009332285262644291, -0.00692869583144784, -0.01029122993350029, 0.012318074703216553, -0.008615619502961636, 0.00822785496711731, 0.008391481824219227, -0.007281436584889889, -0.007078127935528755, -0.008717574179172516, -0.010186498984694481, 0.003061526920646429, -0.009189517237246037, 0.007471333723515272, -0.003046098630875349, 0.009378801099956036, 0.007483925670385361, 0.011448395438492298, -0.008975331671535969, 0.0029565568547695875, 0.0044100298546254635, -0.006727139465510845, -0.004705723375082016, -0.007734041661024094, -0.009466649033129215, 0.006243110168725252, -0.007686293218284845, 0.0029025839176028967, 0.008971069939434528, 0.0026475773192942142, -0.006117865908890963, 0.00802687555551529, 0.0077969590201973915, -0.006861551199108362, -0.007271098904311657, -0.009647032245993614, -0.008570472709834576, 0.003368198871612549, -0.007633240893483162, 0.004799842368811369, -0.00927912350744009, 0.009153841994702816, -0.006205212324857712, 0.01032613217830658, 0.011368535459041595, 0.00949761550873518, -0.009193848818540573, 0.010349187068641186, -0.00954627525061369, -0.0035130123142153025, -0.00831054151058197, 0.003014229005202651, -0.00957981962710619, 0.01035276148468256, 0.011172590777277946, 0.008931602351367474, 0.00887360144406557, -0.008746940642595291, -0.008349486626684666, 0.00916343741118908, -0.009629341773688793, 0.005093175917863846, 0.005684957839548588, 0.009755995124578476, -0.0058969417586922646, 0.009076837450265884, -0.003345288336277008, 0.007962807081639767, -0.009506048634648323, 0.009728973731398582, 0.008438212797045708, 0.007084592245519161, -0.00803454127162695, 0.002926305867731571, -0.00881115347146988, 0.009631507098674774, -0.010034017264842987, 0.006740061566233635, 0.010245352983474731, 0.010117712430655956, 0.011284096166491508, 0.008780677802860737, 0.0032773020211607218, -0.007614522241055965, -0.007077276241034269, 0.0069044483825564384, 0.003526938846334815, 0.0028980684000998735, 0.010377446189522743, 0.008698656223714352, -0.00973940547555685, 0.004664157051593065, 0.0034701472613960505, 0.01129747275263071, -0.009398872964084148, 0.0031755799427628517, -0.01115961279720068, 0.01030128262937069, 0.010185500606894493, 0.008923201821744442, 0.010743184015154839, 0.0072083789855241776, -0.009607085026800632, 0.00787434820085764, -0.0071727074682712555, 0.01056798454374075, 0.007577530108392239, 0.010044817812740803, -0.003256166120991111, 0.004445643164217472, -0.010661916807293892], [0.003928647842258215, -0.012784415856003761, 0.011437533423304558, 0.008149305358529091, 0.008755282498896122, -0.01141040027141571, 0.005461869295686483, 0.011269890703260899, 0.010971316136419773, 0.0031622557435184717, 0.012538819573819637, 0.003005191683769226, -0.008222414180636406, -0.011992686428129673, 0.008965627290308475, 0.00367577257566154, -0.003954414278268814, -0.010858569294214249, -0.009360319003462791, -0.011140041053295135, 0.013192910701036453, -0.010995089076459408, 0.011200889945030212, 0.0034207901917397976, -0.012740088626742363, -0.011270801536738873, -0.003645488526672125, -0.0030310936272144318, 0.010727724991738796, -0.011850299313664436, 0.011333095841109753, -0.011724019423127174, 0.003616970032453537, 0.00314565422013402, 0.011370155960321426, -0.010578528977930546, 0.010637760162353516, 0.011765937320888042, -0.0057118721306324005, -0.012937059625983238, -0.010271037928760052, -0.011892950162291527, 0.007905958220362663, -0.003365525044500828, 0.008558284491300583, 0.012739991769194603, 0.013099351897835732, -0.010548366233706474, 0.010261006653308868, 0.011927849613130093, -0.00965410377830267, -0.010329076088964939, -0.003428810741752386, -0.010867916978895664, 0.004446109291166067, -0.010007922537624836, 0.007851316593587399, -0.012512820772826672, 0.002782197901979089, -0.01015547290444374, 0.005316882394254208, 0.0027960024308413267, 0.002611614065244794, -0.005005232524126768, 0.011350243352353573, -0.008837885223329067, -0.008690775372087955, -0.0027103018946945667, 0.01066034846007824, -0.009755638428032398, 0.010382191278040409, 0.004607092589139938, 0.011487539857625961, 0.010565198957920074, -0.009792346507310867, -0.0030282428488135338, 0.011307073757052422, -0.00544469291344285, 0.003333215368911624, 0.011534146964550018, 0.0029699739534407854, -0.010990440845489502, 0.006257228087633848, -0.009765894152224064, 0.0100310780107975, -0.008650226518511772, 0.0034624370746314526, 0.008709430694580078, 0.008718878962099552, -0.0035387228708714247, 0.0031340790446847677, -0.003268334548920393, 0.010070230811834335, -0.0031535725574940443, 0.0035552086774259806, 0.011012467555701733, 0.004954869393259287, 0.0038765298668295145, 0.003329887054860592, 0.008745771832764149, -0.009047267958521843, -0.01043820008635521, 0.008795935660600662, 0.010393235832452774, 0.0037521400954574347, 0.010625293478369713, 0.012034595012664795, -0.012254636734724045, 0.0031063412316143513, 0.01117547694593668, 0.006096906494349241, -0.009609676897525787, 0.011988211423158646, -0.012085993774235249, 0.0030682156793773174, 0.010048625990748405, 0.011407414451241493, 0.003609228180721402, 0.011894472874701023, -0.009153547696769238, 0.003679022891446948, -0.004965916741639376, 0.012375465594232082, 0.010010945610702038, 0.006023252848535776, -0.011131697334349155, 0.009157870896160603, -0.012435772456228733], [0.00988132692873478, -0.004067467525601387, 0.003703212132677436, 0.008298581466078758, 0.007905535399913788, -0.0031233199406415224, 0.007932373322546482, 0.009056606329977512, 0.003340784925967455, 0.013305113650858402, 0.010558427311480045, 0.002909504109993577, -0.003420041175559163, -0.01111049298197031, 0.003437211737036705, 0.0032740579918026924, -0.008991683833301067, -0.0028823858592659235, -0.009665008634328842, -0.004380014259368181, 0.006505678407847881, -0.008038331754505634, 0.0033084675669670105, 0.009734217077493668, -0.00999127421528101, -0.009707155637443066, -0.009182184003293514, -0.011498787440359592, 0.003060420975089073, -0.007340481970459223, 0.008543978445231915, -0.00984614435583353, 0.008648709394037724, 0.008674338459968567, 0.011230021715164185, -0.002588947070762515, 0.010647222399711609, 0.010078012943267822, -0.005251305643469095, -0.0076688798144459724, -0.010677463375031948, -0.010247851721942425, 0.007834645919501781, -0.008113013580441475, 0.0031623118557035923, 0.01024598628282547, 0.012435344979166985, -0.0112770302221179, 0.008902547881007195, 0.003263791324570775, -0.0029885785188525915, -0.008421679958701134, -0.004641945473849773, -0.0033447484020143747, 0.0031285348813980818, -0.00295282737351954, 0.007887136191129684, -0.009646919555962086, 0.0042144195176661015, -0.010061883367598057, 0.010947533883154392, 0.014162625186145306, 0.011789425276219845, -0.011621960438787937, 0.0028102598153054714, -0.010148727335035801, -0.004696813877671957, -0.01027256716042757, 0.010639021173119545, -0.009285655803978443, 0.009306412190198898, 0.00356616685166955, 0.0032320693135261536, 0.01139691099524498, -0.008965986780822277, -0.010539162904024124, 0.011530778370797634, -0.0030756662599742413, 0.007767831441015005, 0.012099145911633968, 0.0031046804506331682, -0.012719856575131416, 0.009134862571954727, -0.008782792836427689, 0.008771134540438652, -0.010486898943781853, 0.009729771874845028, 0.0027776111382991076, 0.004137586802244186, -0.003248627297580242, 0.007697387598454952, -0.007732865866273642, 0.007756505161523819, -0.009112977422773838, 0.006734734401106834, 0.009916247799992561, 0.00840613804757595, 0.003904435085132718, 0.008433973416686058, 0.003914381377398968, -0.00332801160402596, -0.004065161105245352, 0.008709666319191456, 0.0102025605738163, 0.009138626046478748, 0.011759709566831589, 0.0028850233647972345, -0.008064182475209236, 0.011493748053908348, 0.0033106859773397446, 0.00508489552885294, -0.007818130776286125, 0.003049417631700635, -0.010840331204235554, 0.0028165641706436872, 0.002848201896995306, 0.007661919575184584, 0.003535821568220854, 0.011363565921783447, -0.007875117473304272, 0.011044583283364773, -0.008969804272055626, 0.0026389050763100386, 0.008179621770977974, 0.0035280101001262665, -0.010744503699243069, 0.003365959506481886, -0.010639695450663567], [-0.012789610773324966, 0.012494197115302086, -0.011321377009153366, -0.003954690881073475, -0.004470530431717634, 0.013176556676626205, -0.011095996014773846, -0.013091410510241985, -0.004306660499423742, -0.014407048933207989, -0.012596133165061474, -0.012069011107087135, 0.013875337317585945, 0.003038152353838086, -0.012581718154251575, -0.006484990939497948, 0.012150034308433533, 0.013914105482399464, 0.012847887352108955, 0.013863340951502323, -0.0033709353301674128, 0.012568311765789986, -0.01256592757999897, -0.0034099051263183355, 0.011594782583415508, 0.014685948379337788, 0.013124583289027214, 0.01159586850553751, -0.013306083157658577, 0.0037650957237929106, -0.010569289326667786, 0.012163474224507809, -0.009711322374641895, -0.0032242806628346443, -0.003344910917803645, 0.012038321234285831, -0.003195424098521471, -0.011856426484882832, 0.012504040263593197, 0.008197917602956295, 0.014789738692343235, 0.0119742751121521, -0.012329276651144028, 0.008334102109074593, -0.0034083884675055742, -0.013662373647093773, -0.0031932401470839977, 0.0028435762505978346, -0.014492043294012547, -0.012213446199893951, 0.013628672808408737, 0.0032268506474792957, 0.011653897352516651, 0.009569795802235603, -0.010359898209571838, 0.003240006510168314, -0.00710395909845829, 0.01291363313794136, -0.012812520377337933, 0.012148123234510422, -0.01311742328107357, -0.012743186205625534, -0.015570636838674545, 0.013620259240269661, -0.010025613941252232, 0.0037297275848686695, 0.014277230948209763, 0.011929619126021862, -0.012778111733496189, 0.009655443951487541, -0.012290336191654205, -0.011583075858652592, -0.003681838046759367, -0.014271228574216366, 0.013891460373997688, 0.013872391544282436, -0.011949167586863041, 0.003075595013797283, -0.010192564688622952, -0.005110745783895254, -0.015009313821792603, 0.015355223789811134, -0.011242711916565895, 0.011098239570856094, -0.013428796082735062, 0.003130810335278511, -0.013169483281672001, -0.003507358254864812, -0.01392630860209465, 0.0035466384142637253, -0.01259747426956892, 0.014978732913732529, -0.014295285567641258, 0.010654915124177933, -0.012920399196445942, -0.00838285032659769, -0.013919669203460217, -0.011678732931613922, -0.003495627548545599, -0.012579451315104961, 0.014250797219574451, 0.013347914442420006, -0.014323856681585312, -0.012200165539979935, -0.00384436990134418, -0.013825681060552597, -0.013221299275755882, 0.0038770772516727448, -0.013188349083065987, -0.013791142031550407, -0.011956602334976196, 0.012703780084848404, -0.008140970021486282, 0.011716804467141628, -0.011388055048882961, -0.012547737918794155, -0.013040331192314625, -0.014468634501099586, -0.01610199175775051, 0.011241286061704159, -0.00809293333441019, 0.013472511433064938, -0.004957124590873718, -0.004218372516334057, -0.011142640374600887, 0.011466044001281261, -0.003633383195847273, 0.008142759092152119]], "sigmanet.nn.6.bias": [0.053483039140701294, 0.0012604201911017299, 0.016947653144598007, 0.007552743423730135, -0.015031436458230019, -0.013817017897963524, 0.012749291025102139, -0.019322188571095467, 0.02669176459312439, -0.01309809461236, 0.011891268193721771, 0.024635570123791695, -0.02698204107582569, -0.014558493159711361, -0.039214592427015305, 0.0362195149064064, -0.028001148253679276, -0.003131300210952759, -0.05923900380730629, -0.025241510942578316, -0.03570491448044777, -0.054637908935546875, 0.03967253863811493, 0.0425744391977787, -0.06730632483959198, 0.05580126494169235, 0.01549159549176693, 0.010927597060799599, 0.014965962618589401, 0.02225469797849655, -0.12380865961313248, -0.011857797391712666, 0.003342140233144164, -0.014049869030714035, -0.021387849003076553, 0.03808166831731796, -0.06568247824907303, 0.04866580292582512, 0.008881600573658943, 0.010598291642963886, 0.05543215200304985, 0.03152794390916824, 0.013489257544279099, 0.026375507935881615, 0.029477784410119057, -0.01244499534368515, 0.17406122386455536, 0.10867945104837418, 0.05216892063617706, 0.14338505268096924, 0.06086495518684387, 0.014341667294502258, -0.05957172438502312, 0.08619597554206848, -0.04736706614494324, 0.005577400326728821, -0.04664304852485657, 0.029804646968841553, 0.05951724573969841, 0.07506030052900314, 0.022159943357110023, 0.034214798361063004, -0.03275199607014656, -0.033631131052970886, 0.044947076588869095, 0.034411802887916565, 0.017859209328889847, -0.04281248897314072, 0.09125041961669922, -0.0698501393198967, -0.04230324923992157, -0.012455840595066547, -0.007112549152225256, 0.022988833487033844, -0.061942726373672485, 0.10233277827501297, 0.04413222149014473, 0.021349774673581123, -0.028094889596104622, 0.03095102868974209, 0.029278278350830078, 0.08627944439649582, 0.029057083651423454, 0.029563192278146744, 0.0007792659453116357, 0.029654651880264282, -0.00990560743957758, -0.014696353115141392, 0.07505448907613754, 0.02903226763010025, 0.044818636029958725, -0.037218134850263596, -0.029878808185458183, -0.01699642464518547, 0.04127187281847, -0.007153598126024008, 0.00492282398045063, 0.006848616059869528, -0.06444895267486572, -0.04329559579491615, 0.01740252412855625, -0.0036491674836724997, -0.06943798810243607, 0.143371120095253, 0.04876850172877312, 0.11557995527982712, 0.030684417113661766, 0.010265154764056206, -0.02041681483387947, 0.05669578164815903, -0.06484709680080414, 0.04289967939257622, 0.05621849745512009, 0.006559411995112896, 0.002573721343651414, -0.05915094166994095, -0.022142864763736725, 0.04501951485872269, -0.03421413525938988, -0.02336195856332779, 0.027823014184832573, -0.03321654349565506, 0.00010051247227238491, -0.05478677898645401, -0.015518384985625744, 0.06889651715755463, -0.028004178777337074, -0.04266278073191643], "sigmanet.nn.6.parametrizations.weight.original": [[-0.0051543982699513435, 0.008420221507549286, -0.005332396365702152, 0.004024130757898092, -0.0008176144328899682, 0.008410568349063396, 0.006568359211087227, 0.009159104898571968, 0.005199526436626911, 0.002383351093158126, 0.010043702088296413, 0.003361609997227788, -0.005011898931115866, -0.0032524922862648964, -0.006702867802232504, -0.003887097118422389, 0.002710140310227871, 0.009738749824464321, 0.007109710015356541, 0.00766547117382288, -0.0034557529725134373, -0.0008029909222386777, -0.007419422268867493, 0.0033942328300327063, -0.0027651230338960886, 0.009817480109632015, -0.001205357490107417, -0.002896146150305867, -0.007810823153704405, 0.0036276376340538263, -0.0035776617005467415, 0.009067586623132229, -0.003530868561938405, 0.002904200926423073, 0.010129603557288647, 0.005233592353761196, -0.0008021087269298732, 0.009431865066289902, -0.005820274818688631, -0.008721422404050827, -0.0034406385384500027, 0.005965346936136484, -0.00941354688256979, 0.0037361131981015205, -0.0076460083946585655, 0.010317442007362843, -0.006644334644079208, -0.002903733402490616, 0.007755229249596596, 0.008997893892228603, -0.0030861669220030308, 0.005802418105304241, -0.01023208536207676, 0.011001832783222198, -0.002838628366589546, -0.00558461481705308, -0.0032144272699952126, 0.009323883801698685, -0.009115695022046566, -0.008823600597679615, -0.008183920755982399, -0.007077900692820549, -0.0033607441000640392, -0.004310270771384239, -0.002837752690538764, 0.008891275152564049, 0.007216901518404484, 0.007647644728422165, -0.006929009687155485, 0.005417104810476303, -0.002972847083583474, 0.008263192139565945, -0.003358707530423999, 0.010989892296493053, -0.002607680857181549, -0.004253822844475508, -0.00686284014955163, 0.0031208964064717293, 0.0030652936547994614, 0.0012127411318942904, -0.0031790437642484903, -0.00753670372068882, -0.003075651591643691, -0.006956514902412891, -0.006770055275410414, -0.009455669671297073, -0.0031363118905574083, 0.007197024766355753, -0.008719769306480885, 0.00540077593177557, 0.006244324613362551, 0.004632060416042805, -0.0030366620048880577, 0.005581553094089031, -0.009422004222869873, -0.008111688308417797, 0.0035543683916330338, 0.008151073008775711, -0.007504515815526247, -0.008500739000737667, -0.002560370834544301, -0.007783316541463137, -0.003217678517103195, -0.00510559743270278, -0.004262564703822136, -0.0071230181492865086, 0.006367811933159828, 0.006385397631675005, -0.008516015484929085, 0.006219043862074614, -0.0029390077106654644, -0.002980664372444153, -0.008624603971838951, 0.0031974250450730324, -0.004198291804641485, 0.0047815460711717606, -0.005865761544555426, 0.006727082654833794, -0.005008629057556391, -0.00423512514680624, -0.002507915487512946, -0.004642933141440153, 0.003962483257055283, 0.006383299827575684, -0.00849753525108099, -0.006610526703298092, -0.0032395662274211645, 0.0037260008975863457], [-0.006776495836675167, 0.0031049626413732767, -0.010245355777442455, 0.004541597794741392, -0.0034817014820873737, 0.007576574571430683, 0.0042761340737342834, 0.0035047424025833607, 0.00432890048250556, 0.00410042516887188, 0.0118098771199584, 0.008046219125390053, -0.008119096048176289, -0.003379991976544261, -0.0033915333915501833, -0.009370461106300354, 0.010934827849268913, 0.008823869749903679, 0.008984015323221684, 0.011387750506401062, -0.008040165528655052, -0.005128036718815565, -0.00361296976916492, 0.0033918677363544703, -0.0040816799737513065, 0.009453489445149899, -0.00422708922997117, -0.004217298701405525, -0.011359059251844883, 0.006371795665472746, -0.010445107705891132, 0.008463290520012379, -0.003108017146587372, 0.0030153316911309958, 0.012217928655445576, 0.003728635376319289, -0.003193733748048544, 0.0038355370052158833, -0.0066446950659155846, -0.010779731906950474, -0.005794110242277384, 0.003836510470137, -0.007765886373817921, 0.010071584023535252, -0.009867166168987751, 0.004068718291819096, -0.00939255766570568, -0.007633327040821314, 0.003293063025921583, 0.011822518892586231, -0.0027872261125594378, 0.0028942571952939034, -0.012096171267330647, 0.01008628774434328, -0.005140230059623718, -0.010172013193368912, -0.0077234418131411076, 0.003217016113922, -0.004413700196892023, -0.009954232722520828, -0.004186572972685099, -0.0036561007145792246, -0.003139100968837738, -0.00788187887519598, -0.01211868692189455, 0.007226003799587488, 0.003170804586261511, 0.008381159976124763, -0.00763436034321785, 0.00391594460234046, -0.007650014478713274, 0.00972453597933054, -0.0039129843935370445, 0.011386414058506489, -0.004116373136639595, -0.010269477032124996, -0.010417538695037365, 0.00973554514348507, 0.008848641999065876, 0.007093686610460281, -0.005130578763782978, -0.010356564074754715, -0.003686028765514493, -0.009889781475067139, -0.008062007836997509, -0.00997039582580328, -0.008856497704982758, 0.0022464394569396973, -0.010677593760192394, 0.006410825997591019, 0.004559537395834923, 0.003540248144418001, -0.003460022620856762, 0.0034536628518253565, -0.005266515072435141, -0.003355899592861533, 0.006675563286989927, 0.011577365919947624, -0.010054634883999825, -0.011542383581399918, -0.003108647186309099, -0.003330505220219493, -0.00994705967605114, -0.004682057537138462, -0.003970814868807793, -0.003744348883628845, 0.0031855497509241104, 0.009981012903153896, -0.0028881269972771406, 0.006989168934524059, -0.006896559614688158, -0.006509610451757908, -0.011212562210857868, 0.00419937539845705, -0.003739434527233243, 0.0036849663592875004, -0.005418315064162016, 0.003881452837958932, -0.0036195176653563976, -0.008283885195851326, -0.010505764745175838, -0.004105413798242807, 0.0036342223174870014, 0.009393135085701942, -0.00329029094427824, -0.008490318432450294, -0.009910469874739647, 0.008036250248551369], [-0.0015107764629647136, 0.006371505558490753, -0.005893525667488575, 0.0032627496402710676, -0.002913102274760604, 0.0027342212852090597, 0.003956426400691271, 0.004945381544530392, 0.0035159317776560783, 0.0037599215283989906, 0.007475942373275757, 0.002725562546402216, -0.0030341504607349634, -0.005705547519028187, -0.002915652934461832, -0.0012279434595257044, 0.009847828187048435, 0.006347674876451492, 0.003431110642850399, 0.0057581039145588875, -0.0041611394844949245, -0.0033142599277198315, -0.0032881712540984154, 0.002951237605884671, -0.003878910792991519, 0.0067137680016458035, -0.006090668961405754, -0.0036761490628123283, -0.004800836089998484, 0.0007717116386629641, -0.0008247289224527776, 0.0022582977544516325, -0.0027147287037223577, 0.0011830555740743876, 0.0033829952590167522, 0.0036287272814661264, -0.0032983319833874702, 0.002367605222389102, -0.00036895021912641823, -0.009348014369606972, -0.009154265746474266, 0.0024012981448322535, -0.004146652761846781, 8.117011020658538e-05, -0.0017067742301151156, 0.006027183961123228, -0.0019647383596748114, -0.011677124537527561, 0.002425186103209853, 0.0032695617992430925, -0.011303110048174858, 0.003248866181820631, -0.008090144023299217, 0.010850206948816776, -0.0029768883250653744, -0.005834905430674553, -0.003734093625098467, 0.0052582742646336555, -0.004015600308775902, -0.007847745902836323, -0.0028849546797573566, -0.00405920622870326, -0.0014632812235504389, -0.003109123557806015, -0.004219932481646538, 0.0036206848453730345, 0.0014412766322493553, 0.0012104710331186652, -0.0028430274687707424, 0.0029079243540763855, -0.003376977751031518, 0.002146315760910511, -0.003096851287409663, 0.009479496628046036, -0.003213290823623538, -0.0033048682380467653, -0.0031541776843369007, 0.0025746170431375504, 0.0032043270766735077, 0.0010043096262961626, -0.0028983899392187595, -0.0053659239783883095, -0.0025881188921630383, -0.0019050993723794818, -0.002555481856688857, -0.0069707962684333324, -0.001205033273436129, 0.0019417688017711043, -0.00848646555095911, 0.001992249395698309, 0.003424985334277153, 0.004084880463778973, -0.002364934654906392, 0.004654227755963802, -0.00546506280079484, -0.0028310625348240137, 0.002716365270316601, 0.003220444545149803, -0.0024496950209140778, -0.002999338321387768, -0.007537387777119875, -0.006159200798720121, -0.003628401318565011, -0.0033862944692373276, -0.0015380270779132843, -0.0031007782090455294, 0.002230939920991659, 0.006678566336631775, -0.0025513232685625553, 0.0028431399259716272, -0.0030853478237986565, -0.009728546254336834, -0.01057832408696413, 0.001567835919559002, -0.0004950464935973287, 0.003696073777973652, -0.009471499361097813, 0.0020927651785314083, -0.004183512181043625, -0.0027988003566861153, -0.0025749176274985075, -0.003775512333959341, 0.0016839674208313227, 0.00232159486040473, -0.008181148208677769, -0.002861841581761837, -0.004700303077697754, 0.003437591716647148], [-0.007943172939121723, 0.013375252485275269, -0.009843098931014538, 0.001316675334237516, -0.0030630668625235558, 0.0034504421055316925, 0.00354732945561409, 0.0034780632704496384, 0.0029257535934448242, 0.002580600557848811, 0.009251200594007969, 0.007263494189828634, -0.0033913564402610064, -0.010494358837604523, -0.004013945814222097, -0.0036998314317315817, 0.004568067379295826, 0.011549500748515129, 0.012459681369364262, 0.0028690483886748552, -0.0031878401059657335, -2.1840138288098387e-05, -0.010427112691104412, 0.004935568664222956, -0.003970709163695574, 0.0087632080540061, -0.001400456763803959, -0.003561463439837098, -0.011120477691292763, 0.003336169756948948, -0.009987728670239449, 0.0036167199723422527, -0.0033107970375567675, 0.009184126742184162, 0.008830738253891468, 0.006255950778722763, -0.005965218413621187, 0.0032651976216584444, -0.007951691746711731, -0.008871660567820072, -0.003059007693082094, 0.010686538182199001, -0.009491288103163242, 0.007033361122012138, -0.0025984575040638447, 0.01190269272774458, -0.009259991347789764, -0.004466431215405464, 0.007667511235922575, 0.0033989381045103073, -0.0031807911582291126, 0.002604091539978981, -0.013558220118284225, 0.007862722501158714, -0.0037727891467511654, -0.008650454692542553, -0.008555581793189049, 0.014236737042665482, -0.008178680203855038, -0.00944484118372202, -0.010116426274180412, -0.00916825607419014, -0.002830134704709053, -0.007175111677497625, -0.0029642684385180473, 0.010377212427556515, 0.0083948764950037, 0.007034964859485626, -0.004863179288804531, 0.004906984977424145, -0.004475047346204519, 0.007385211996734142, -0.0039012636989355087, 0.01027238741517067, -0.0066613368690013885, -0.006384574342519045, -0.003454743418842554, 0.009090116247534752, 0.0034723069984465837, 0.002430723747238517, -0.003338487120345235, -0.010213948786258698, -0.008482677862048149, -0.00768560403957963, -0.008802914060652256, -0.00360719277523458, -0.003890091320499778, 0.009245538152754307, -0.0035223583690822124, 0.005552310962229967, 0.0040442761965096, 0.006202386692166328, -0.008192980661988258, 0.012458432465791702, -0.009995881468057632, -0.008303306996822357, 0.005289862863719463, 0.0035626611206680536, -0.0102248415350914, -0.003056778572499752, -0.013184037059545517, -0.0033840041141957045, -0.007729718927294016, -0.00267963414080441, -0.009933716617524624, -0.003462444292381406, 0.008465231396257877, 0.010240246541798115, -0.01231977716088295, 0.002917631296440959, -0.003030463121831417, -0.0033218595199286938, -0.012024983763694763, 0.008204588666558266, -0.0036268869880586863, 0.0034426942002028227, -0.014077126048505306, 0.00873204693198204, -0.009068715386092663, -0.008440583944320679, -0.0026249948423355818, -0.00404725968837738, 0.0035585432779043913, 0.006044683512300253, -0.00292767072096467, -0.0029537745285779238, -0.0034417682327330112, 0.004254722502082586], [0.004233352839946747, -0.016226613894104958, 0.016621999442577362, -0.020752815529704094, 0.0181899294257164, -0.018429722636938095, -0.01176366675645113, -0.016631197184324265, -0.02205592393875122, -0.02129935845732689, -0.011571059934794903, -0.017939595505595207, 0.017226828262209892, 0.017591508105397224, 0.01885285973548889, 0.01838667504489422, -0.021050898358225822, -0.01651487499475479, -0.016096606850624084, -0.01628780923783779, 0.006293736398220062, 0.019865604117512703, 0.01379801519215107, -0.020473934710025787, 0.014920919202268124, -0.016519488766789436, 0.006409591529518366, 0.016161177307367325, 0.004350045695900917, -0.004363414831459522, 0.01801273599267006, -0.004668083041906357, 0.00414438359439373, -0.019763417541980743, -0.01728924922645092, -0.005830616690218449, 0.021394476294517517, -0.009434005245566368, 0.004943872801959515, 0.010724645107984543, 0.02219427190721035, -0.018329106271266937, 0.007926596328616142, -0.01746254600584507, 0.005298875272274017, -0.017817838117480278, 0.008019350469112396, 0.023303259164094925, -0.004095743875950575, -0.008771393448114395, 0.01772528514266014, -0.014988732524216175, 0.00409691734239459, -0.010486030019819736, 0.019985856488347054, 0.014373885467648506, 0.01734423264861107, -0.016377154737710953, 0.0170609001070261, 0.0038073475006967783, 0.01935052126646042, 0.018797365948557854, 0.004083880223333836, 0.004635130986571312, 0.009744173847138882, -0.01679881103336811, -0.017466727644205093, -0.0045743598602712154, 0.019124088808894157, -0.02015245519578457, 0.012596276588737965, -0.004447428043931723, 0.017393045127391815, -0.010572011582553387, 0.005490749608725309, 0.017147503793239594, 0.016233377158641815, -0.01662369631230831, -0.02002790942788124, -0.0050164153799414635, 0.0218112301081419, 0.015550529584288597, 0.013641123659908772, 0.017673708498477936, 0.004523440729826689, 0.01650547981262207, 0.022650904953479767, -0.0038047379348427057, 0.009886655025184155, -0.004543619696050882, -0.00490910978987813, -0.004742386285215616, 0.02157914638519287, -0.019817622378468513, 0.017273634672164917, 0.004575933329761028, -0.021828189492225647, -0.017333779484033585, 0.021412601694464684, 0.004864853341132402, 0.0033392575569450855, 0.004350649658590555, 0.004363845102488995, 0.004348216112703085, 0.017044872045516968, 0.004162864293903112, -0.0039542801678180695, -0.003565850667655468, 0.0032342998310923576, -0.006785436533391476, 0.01963636465370655, 0.012680955231189728, 0.003620825707912445, -0.017568621784448624, 0.018565433099865913, -0.01805105060338974, 0.007659919559955597, -0.018090682104229927, 0.02180483378469944, 0.016601277515292168, 0.005261478945612907, 0.021963272243738174, -0.019001103937625885, -0.01761024445295334, 0.007853008806705475, 0.017934639006853104, 0.019059715792536736, -0.01838623359799385], [-0.038660258054733276, 0.003993842285126448, -0.020989470183849335, 0.03544630482792854, -0.03639048710465431, 0.004831817466765642, 0.031001528725028038, 0.0047151134349405766, 0.009983176365494728, 0.036170270293951035, 0.011706871911883354, 0.03358737751841545, -0.005070551298558712, -0.028536856174468994, -0.005730303004384041, -0.03198203444480896, 0.04139890521764755, 0.024233419448137283, 0.02902090921998024, 0.02627594769001007, -0.029373785480856895, -0.035428792238235474, -0.024263542145490646, 0.042782220989465714, -0.026807134971022606, 0.022997090592980385, -0.006087631452828646, -0.03047628328204155, -0.032652467489242554, 0.0050250208005309105, -0.030058758333325386, 0.005846173502504826, -0.02944829687476158, 0.037751562893390656, 0.005149154458194971, 0.00531607773154974, -0.006794894579797983, 0.005023010540753603, -0.03257923945784569, -0.009844708256423473, -0.039412420243024826, 0.03459933027625084, -0.01798580028116703, 0.03509382903575897, -0.023176081478595734, 0.007065329700708389, -0.029092852026224136, -0.005263336468487978, 0.0044400072656571865, 0.037005189806222916, -0.005404231138527393, 0.028211543336510658, -0.00413939543068409, 0.007206054870039225, -0.009849922731518745, -0.020122965797781944, -0.004962654318660498, 0.009818519465625286, -0.005077811889350414, -0.01641191355884075, -0.03315548971295357, -0.004633522126823664, -0.028895922005176544, -0.025842202827334404, -0.008356058038771152, 0.02971126139163971, 0.0320662260055542, 0.03273702412843704, -0.034304454922676086, 0.035897962749004364, -0.0047495304606854916, 0.004776853136718273, -0.004809500649571419, 0.014575036242604256, -0.03655175492167473, -0.02968267910182476, -0.02757093869149685, 0.03029443882405758, 0.004982083570212126, 0.023039259016513824, -0.006293457001447678, -0.009210227057337761, -0.033898986876010895, -0.024915356189012527, -0.004640183411538601, -0.005000627133995295, -0.036026135087013245, 0.0014806221006438136, -0.010348833166062832, 0.03152237832546234, 0.04195292294025421, 0.03244638815522194, -0.004856181796640158, 0.032090023159980774, -0.030200263485312462, -0.004795790184289217, 0.00615020701661706, 0.024203263223171234, -0.0044705248437821865, -0.015805905684828758, -0.021581441164016724, -0.024445831775665283, -0.026938049122691154, -0.01380213163793087, -0.03061535954475403, -0.03384045138955116, 0.02581370621919632, 0.0037097660824656487, -0.004738941323012114, 0.009507181122899055, -0.022250834852457047, -0.031496014446020126, -0.019063927233219147, 0.007653507869690657, -0.005385634023696184, 0.03898845985531807, -0.003175741760060191, 0.03301864489912987, -0.007601529359817505, -0.02857699617743492, -0.034821540117263794, -0.03646184876561165, 0.026369743049144745, 0.03032933734357357, -0.025912271812558174, -0.03375813364982605, -0.028400985524058342, 0.03554286062717438], [-0.003137428080663085, 0.010542556643486023, -0.007883870042860508, 0.0020968643948435783, -0.001881583477370441, 0.0028121296782046556, 0.0025839335285127163, 0.007800473365932703, 0.0009479010477662086, 0.0018169613322243094, 0.009627834893763065, 0.0042167105711996555, -0.004280883818864822, -0.003016908187419176, -0.003527689492329955, -0.006620859261602163, 0.0016919849440455437, 0.006241304334253073, 0.008072550408542156, 0.008313789963722229, -0.0032057338394224644, -0.00317492731846869, -0.007046593818813562, 0.0026367551181465387, -0.0019578710198402405, 0.006088259629905224, -0.013251893222332, -0.003930112812668085, -0.0055182697251439095, 0.0017325719818472862, -0.004492144100368023, 0.006375608965754509, -0.0031276836525648832, 0.002569152507930994, 0.0058064814656972885, 8.655332203488797e-05, -0.0038920175284147263, 0.0027248477563261986, -0.0034116168972104788, -0.009887211956083775, -0.0030426837038248777, 0.002076732460409403, -0.004782447125762701, 0.002608804265037179, -0.0019405835773795843, 0.007394143845885992, -0.005517025478184223, -0.0007521944935433567, 0.0032501504756510258, 0.004202809184789658, -0.002564861671999097, 0.004976885858923197, -0.009521318599581718, 0.0093696229159832, -8.102701394818723e-05, -0.002917315810918808, -0.004068897105753422, 0.004673994146287441, -0.00413152202963829, -0.010016598738729954, -0.0038062368985265493, -0.003480068640783429, -0.0018795820651575923, -0.0032225882168859243, -0.008503359742462635, 0.0030668422114104033, 0.0028287123423069715, 0.004689088091254234, -0.0017032873583957553, 0.0024204994551837444, -0.003784558502957225, 0.0015449282946065068, -0.00742753641679883, 0.010051487013697624, -0.0019669069442898035, -0.0029148883186280727, -0.006773602217435837, 0.004105568863451481, 0.002306882292032242, 0.003508101450279355, -0.002862735418602824, -0.004069063812494278, -0.002957029500976205, -0.006921937223523855, -0.0024315344635397196, -0.007518164347857237, -0.002796263201162219, 0.0013654227368533611, -0.009417330846190453, 0.0023117007222026587, 0.0017565384041517973, 0.003762424923479557, -0.0037308253813534975, 0.009740784764289856, -0.0059416466392576694, -0.007542237639427185, 0.003549196058884263, 0.003881811397150159, -0.005360694602131844, -0.008780562318861485, -0.009144999086856842, -0.006724435370415449, -0.006929466035217047, -0.0036211716942489147, -0.0028670274186879396, -0.0015809956239536405, 0.0037234434857964516, 0.002896263264119625, -0.008246283046901226, 0.002070085145533085, -0.0024520820006728172, -0.002813540631905198, -0.011386998929083347, 0.0010059414198622108, -0.002965677995234728, 0.0036763367243111134, -0.007103238254785538, 0.0030406208243221045, -0.004099682439118624, -0.006090117152780294, -0.0031992923468351364, -0.0024502358864992857, 0.005126501899212599, 0.0031339593697339296, -0.007679949048906565, -0.002869700314477086, -0.0029796797316521406, 0.0026588221080601215], [-0.003890313906595111, 0.013143422082066536, -0.01429727952927351, 0.012944931164383888, -0.010401993058621883, 0.01578810065984726, 0.0055411746725440025, 0.012783684767782688, 0.012144035659730434, 0.014080469496548176, 0.009802291169762611, 0.013027987442910671, -0.012035191059112549, -0.014957228675484657, -0.004410360939800739, -0.01587262935936451, 0.0037209808360785246, 0.0032787856180220842, 0.015351447276771069, 0.01403932087123394, -0.012283367104828358, -0.012894579209387302, -0.0036899864207953215, 0.015815846621990204, -0.01061119232326746, 0.0035452377051115036, -0.010662195272743702, -0.010810766369104385, -0.0034959297627210617, 0.01469512190669775, -0.009359843097627163, 0.009385048411786556, -0.004684885032474995, 0.013655011542141438, 0.008425243198871613, 0.014533932320773602, -0.004398188553750515, 0.013844598084688187, -0.011509958654642105, -0.011152544990181923, -0.014653772115707397, 0.01564549095928669, -0.01380077563226223, 0.013286536559462547, -0.0042896452359855175, 0.00402966421097517, -0.003643676172941923, -0.00392864178866148, 0.013887756504118443, 0.003735368838533759, -0.013661934994161129, 0.003214082447811961, -0.013312171213328838, 0.004192544147372246, -0.011916869319975376, -0.011800802312791348, -0.01239525992423296, 0.015091746114194393, -0.014744799584150314, -0.011313069611787796, -0.01564420945942402, -0.010340919718146324, -0.013819567859172821, -0.014814791269600391, -0.010232320986688137, 0.0038847581017762423, 0.01275721751153469, 0.004092080984264612, -0.0045714909210801125, 0.013158852234482765, -0.004043413791805506, 0.013010285794734955, -0.01468453835695982, 0.009876077063381672, -0.00426205899566412, -0.010872423648834229, -0.003761300817131996, 0.0036834918428212404, 0.013539018109440804, 0.008034863509237766, -0.004689143039286137, -0.014644987881183624, -0.006869522389024496, -0.014464224688708782, -0.005118133965879679, -0.013986224308609962, -0.01176880206912756, 0.008322212845087051, -0.009921349585056305, 0.0038308908697217703, 0.00569692300632596, 0.004379361867904663, -0.004377303179353476, 0.008840706199407578, -0.003958591725677252, -0.015182641334831715, 0.01377595029771328, 0.014219773933291435, -0.014696646481752396, -0.008483348414301872, -0.0028170619625598192, -0.012215730734169483, -0.011256152763962746, -0.016996098682284355, -0.006296047009527683, -0.015380182303488255, 0.012746681459248066, 0.012448903173208237, -0.002875101985409856, 0.011338329873979092, -0.004068279638886452, -0.007933782413601875, -0.003832777263596654, 0.01713612489402294, -0.0039044932927936316, 0.004547766875475645, -0.00955452024936676, 0.0038365803193300962, -0.0041033425368368626, -0.0031084378715604544, -0.0031446642242372036, -0.010719467885792255, 0.003914468921720982, 0.004028655122965574, -0.003637587185949087, -0.003715517930686474, -0.013940545730292797, 0.010080967098474503], [0.006350231822580099, -0.008988137356936932, 0.007279243785887957, -0.003401588648557663, 0.003565343329682946, -0.004443527199327946, -0.0076762312091887, -0.003162104170769453, -0.0030391854234039783, -0.0044579594396054745, -0.009670075960457325, -0.006863109301775694, 0.009138018824160099, 0.010110014118254185, 0.002473911503329873, 0.004010562319308519, -0.0059289163909852505, -0.007889729924499989, -0.00281541608273983, -0.008083377964794636, 0.008213344030082226, 0.0014731497503817081, 0.007160070352256298, -0.002405802719295025, 0.003020401345565915, -0.006654542870819569, 0.004308875650167465, 0.0018415715312585235, 0.003996407147496939, -0.003068511374294758, 0.008087324909865856, -0.009276069700717926, 0.007385199889540672, -0.007926191203296185, -0.007608640473335981, -0.00536275003105402, 0.0034961001947522163, -0.008377326652407646, 0.004990902729332447, 0.010345336981117725, 0.004880643915385008, -0.007092965301126242, 0.004601672757416964, -0.006310241296887398, 0.0061804852448403835, -0.007692005019634962, 0.008756092749536037, 0.0025083294603973627, -0.009200633503496647, -0.006539257243275642, 0.0028631689492613077, -0.005525846499949694, 0.008767196908593178, -0.01101121585816145, 0.006093395408242941, 0.009986287914216518, 0.005518923047930002, -0.00915476493537426, 0.003357399720698595, 0.009647171944379807, 0.005660170689225197, 0.008932644501328468, 0.0061893402598798275, 0.007426234893500805, 0.009541887789964676, -0.006137699820101261, -0.007061885204166174, -0.00345603097230196, 0.004987206310033798, -0.0029222541488707066, 0.002942892024293542, -0.00786014087498188, 0.010148679837584496, -0.004054080694913864, 0.006483475677669048, 0.0029404563829302788, 0.005806379951536655, -0.004211807623505592, -0.005428245756775141, -0.006946305278688669, 0.003549461718648672, 0.008349331095814705, 0.004516157787293196, 0.004358259495347738, 0.00530971260741353, 0.006849037483334541, 0.004683713894337416, -0.0040374319069087505, 0.008885189890861511, -0.006411504931747913, -0.0030735244508832693, -0.007677515968680382, 0.008209123276174068, -0.002955766161903739, 0.0051630293019115925, 0.005964391399174929, -0.007907644845545292, -0.0071306386962533, 0.006837063003331423, 0.0031185124535113573, 0.010411283932626247, 0.006050314288586378, 0.003286150749772787, 0.00556174386292696, 0.00950231496244669, 0.004276086110621691, -0.006654281634837389, -0.007541881874203682, 0.0065764207392930984, -0.002991521032527089, 0.0035306690260767937, 0.0046211532317101955, 0.0106319235637784, -0.006285847630351782, 0.0069879889488220215, -0.0008786693797446787, 0.01065179891884327, -0.006420773454010487, 0.0054139732383191586, 0.0028360565192997456, 0.006528072524815798, 0.004835931118577719, -0.00538598233833909, -0.005539645906537771, 0.00994892418384552, 0.004944615997374058, 0.008487115614116192, -0.0045316871255636215], [0.004870463628321886, -0.009720704518258572, 0.007871286012232304, -0.003331270534545183, 0.0034652575850486755, -0.0033638321328908205, -0.0030651262495666742, -0.008657298050820827, -0.0029172345530241728, -0.00177850725594908, -0.00592584814876318, -0.0024701126385480165, 0.0033796164207160473, 0.008549497462809086, 0.0007501569925807416, 0.003421113360673189, -0.0024743550457060337, -0.007019554264843464, -0.00844519305974245, -0.009034977294504642, 0.003188547445461154, 0.00048705015797168016, 0.004482078365981579, -0.003942534327507019, 0.0017819672357290983, -0.010562567971646786, 0.0032416933681815863, 0.0030661325436085463, 0.008543700911104679, -0.006314823403954506, 0.0031841781456023455, -0.003048429498448968, 0.003122549271211028, -0.002210638951510191, -0.006728800013661385, -0.004690519068390131, 0.0035506184212863445, -0.008082214742898941, 0.002789357677102089, 0.0091515202075243, 0.00029324585921131074, -0.007177749648690224, 0.003952088300138712, -0.0026716571301221848, 0.0028874080162495375, -0.010187404230237007, 0.005185321439057589, 0.00177877361420542, -0.004858487285673618, -0.008986163884401321, 0.0032218832056969404, -0.004437587223947048, 0.009163189679384232, -0.00920478068292141, 0.0036211293190717697, 0.0028332688380032778, 0.008443309925496578, -0.010434126481413841, 0.005756904371082783, 0.009392069652676582, 0.007199242245405912, 0.003031779546290636, 0.002792542101815343, 0.002745997626334429, 0.0029371578712016344, -0.002754389774054289, -0.005090906750410795, -0.008096220903098583, 0.0029181831050664186, -0.0030023392755538225, 0.007807455491274595, -0.0032503819093108177, 0.0035436192993074656, -0.011814978905022144, 0.002747073769569397, 0.002425381215289235, 0.00993130449205637, -0.005853582173585892, -0.0063729663379490376, -0.0017983015859499574, 0.007344521582126617, 0.0028678523376584053, 0.005679933819919825, 0.006585218012332916, 0.004359304439276457, 0.006780968047678471, 0.0026291762478649616, -0.0016186735592782497, 0.006471507251262665, -0.0029967138543725014, -0.003608220024034381, -0.005258442834019661, 0.007352911867201328, -0.00904601439833641, 0.006594788748770952, 0.007609642576426268, -0.00517673697322607, -0.003232823684811592, 0.007425152231007814, 0.0035957263316959143, 0.011168548837304115, 0.007451429031789303, 0.005327824968844652, 0.006964652333408594, 0.003133354941383004, 0.005291766487061977, -0.007884901016950607, -0.006328113377094269, 0.008038160391151905, -0.003078198293223977, 0.00675971619784832, 0.00280559784732759, 0.0029224446043372154, -0.007396378088742495, 0.002930940128862858, -0.0037128294352442026, 0.011425159871578217, -0.006983735132962465, 0.007787242531776428, 0.0025839810259640217, 0.0064307404682040215, 0.0021394197829067707, -0.007919923402369022, -0.007055418100208044, 0.009660757146775723, 0.0018652677536010742, 0.007669602986425161, -0.006305555813014507], [0.008987484499812126, -0.003469640389084816, 0.0201596487313509, -0.0051893568597733974, 0.00423207925632596, -0.03191128373146057, -0.027802608907222748, -0.004352204501628876, -0.005225086584687233, -0.028799036517739296, -0.011469537392258644, -0.02801082842051983, 0.0023136038798838854, 0.023956967517733574, 0.03368464857339859, 0.007378446403890848, -0.004302771296352148, -0.003528425469994545, -0.004622308537364006, -0.0036212054546922445, 0.004243323113769293, 0.030276697129011154, 0.023462746292352676, -0.03731996566057205, 0.025032633915543556, -0.024598300457000732, 0.03555726632475853, 0.01538845058530569, 0.03266102448105812, -0.006455043330788612, 0.005081847310066223, -0.030314402654767036, 0.027269458398222923, -0.0037109567783772945, -0.022207653149962425, -0.01229118276387453, 0.03070160746574402, -0.00448373518884182, 0.004750172607600689, 0.009776463732123375, 0.03687097132205963, -0.004888758063316345, 0.01706092804670334, -0.03676486387848854, 0.005006966646760702, -0.022931411862373352, 0.031072299927473068, 0.042353302240371704, -0.004770094528794289, -0.03193895146250725, 0.03253750130534172, -0.030241195112466812, 0.009182460606098175, -0.009931512176990509, 0.004591494332998991, 0.017471686005592346, 0.0043651326559484005, -0.013243180699646473, 0.030785968527197838, 0.014189042150974274, 0.006248249672353268, 0.02614150568842888, 0.02619246020913124, 0.0042665437795221806, 0.026511110365390778, -0.026748916134238243, -0.030062563717365265, -0.004424525424838066, 0.0052219778299331665, -0.03238963708281517, 0.00438756262883544, -0.03035333752632141, 0.02983141504228115, -0.012030059471726418, 0.03195851668715477, 0.025278978049755096, 0.006334659643471241, -0.003823100822046399, -0.02585584856569767, -0.029631422832608223, 0.005685171112418175, 0.023928530514240265, 0.030640743672847748, 0.022432943806052208, 0.00442236103117466, 0.02247653529047966, 0.025237789377570152, -0.015953343361616135, 0.010694094933569431, -0.025148434564471245, -0.03601279482245445, -0.00505156721919775, 0.026516152545809746, -0.005018990952521563, 0.027479829266667366, 0.004506099969148636, -0.004669295158237219, -0.03104582242667675, 0.004099911078810692, 0.01644008979201317, 0.003036455949768424, 0.022994058206677437, 0.02402077428996563, 0.0052638668566942215, 0.0024628944229334593, 0.024307657033205032, -0.0005019218660891056, -0.0036108007188886404, 0.023402275517582893, -0.035997338593006134, 0.0342383049428463, 0.014723401516675949, 0.005664081312716007, -0.00522184232249856, 0.004503935109823942, -0.0051433490589261055, 0.024712206795811653, -0.004720810800790787, 0.038844626396894455, 0.027028461918234825, 0.03351545333862305, 0.006044718902558088, -0.022903969511389732, -0.03173794597387314, 0.0035243236925452948, 0.03392713889479637, 0.02746083028614521, -0.03054674342274666], [-0.008291952311992645, 0.004755859263241291, -0.012085683643817902, 0.0038850693963468075, -0.003479864913970232, 0.0035610354971140623, 0.010595505125820637, 0.01034610252827406, 0.009789749048650265, 0.007633212488144636, 0.008489537984132767, 0.003659444395452738, -0.003884868696331978, -0.010656249709427357, -0.010065896436572075, -0.010121190920472145, 0.01006932370364666, 0.0031472949776798487, 0.01043419074267149, 0.010188457556068897, -0.007805382367223501, -0.005426823161542416, -0.011087704449892044, 0.011201031506061554, -0.004384488798677921, 0.007510651368647814, -0.0035578475799411535, -0.005807438865303993, -0.0116928331553936, 0.009167134761810303, -0.007002748548984528, 0.010708414949476719, -0.003359606023877859, 0.009407098405063152, 0.00422824127599597, 0.006435850169509649, -0.007849984802305698, 0.01025701966136694, -0.009252260439097881, -0.009541638195514679, -0.007233336102217436, 0.011107989586889744, -0.01045258529484272, 0.010980899445712566, -0.010165457613766193, 0.011426865123212337, -0.0030437936075031757, -0.008508590050041676, 0.006561441347002983, 0.003610785584896803, -0.00705254590138793, 0.006707053165882826, -0.010280032642185688, 0.009091557003557682, -0.007522575091570616, -0.010586876422166824, -0.011146795935928822, 0.0032673992682248354, -0.009394538588821888, -0.011923639103770256, -0.004748982843011618, -0.005798982456326485, -0.007616566028445959, -0.0037130420096218586, -0.01025196723639965, 0.007924835197627544, 0.0033421777188777924, 0.011397534050047398, -0.009117691777646542, 0.003221445716917515, -0.003520186757668853, 0.009509301744401455, -0.010902618058025837, 0.010059213265776634, -0.003786541987210512, -0.010673422366380692, -0.01120348647236824, 0.009960884228348732, 0.004730285611003637, 0.003734003286808729, -0.008088737726211548, -0.012335031293332577, -0.010326669551432133, -0.009408828802406788, -0.009419921785593033, -0.004012418445199728, -0.006038769148290157, 0.006449512206017971, -0.009987644851207733, 0.010270439088344574, 0.010458611883223057, 0.009615563787519932, -0.003976070787757635, 0.011605018749833107, -0.003005796577781439, -0.010558947920799255, 0.008737612515687943, 0.006088565103709698, -0.00426096934825182, -0.010146509855985641, -0.009346450679004192, -0.0035745971836149693, -0.008546392433345318, -0.008059423416852951, -0.01083406899124384, -0.004526997450739145, 0.010411469265818596, 0.009699437767267227, -0.0028884983621537685, 0.0077958423644304276, -0.0036106931511312723, -0.009711635299026966, -0.010823683813214302, 0.007907173596322536, -0.003640946000814438, 0.00811802875250578, -0.010714939795434475, 0.0033818145748227835, -0.0038188353646546602, -0.010037579573690891, -0.0032741494942456484, -0.004774824250489473, 0.00343799008987844, 0.0034750266931951046, -0.003099355846643448, -0.0075011844746768475, -0.012351006269454956, 0.011617276817560196], [-0.011265626177191734, 0.0032816720195114613, -0.004049232229590416, 0.004580765962600708, -0.006159464828670025, 0.010934886522591114, 0.012320722453296185, 0.003950448241084814, 0.009183486923575401, 0.009056856855750084, 0.00973114836961031, 0.012959237210452557, -0.003958491142839193, -0.0036564667243510485, -0.010510547086596489, -0.012462388724088669, 0.012889004312455654, 0.012003296986222267, 0.010050104930996895, 0.013661539182066917, -0.0035656983964145184, -0.006633926182985306, -0.00365566648542881, 0.008700212463736534, -0.004606236703693867, 0.01424759067595005, -0.003829525550827384, -0.004889515228569508, -0.013685355894267559, 0.008482280187308788, -0.012331491336226463, 0.0036231456324458122, -0.011320346966385841, 0.012088277377188206, 0.00413670064881444, 0.003485267050564289, -0.010515643283724785, 0.0038462048396468163, -0.01180699747055769, -0.009471289813518524, -0.0040028290823102, 0.01382426917552948, -0.004745785146951675, 0.009883484803140163, -0.013153727166354656, 0.008489763364195824, -0.01030880119651556, -0.010959022678434849, 0.011021684855222702, 0.014755986630916595, -0.007740571163594723, 0.01200270839035511, -0.014243559911847115, 0.007923495955765247, -0.0037652093451470137, -0.0036614600103348494, -0.0037102338392287493, 0.00318664638325572, -0.011699356138706207, -0.010804696008563042, -0.003572412533685565, -0.012897005304694176, -0.00640228483825922, -0.0034349695779383183, -0.004131678957492113, 0.01128559559583664, 0.008898365311324596, 0.010830678045749664, -0.009184126742184162, 0.0033073367085307837, -0.003614504123106599, 0.003918258938938379, -0.01063196174800396, 0.012921981513500214, -0.011246134527027607, -0.009331800974905491, -0.0100507577881217, 0.012806873768568039, 0.0128555316478014, 0.009774511680006981, -0.004605061840265989, -0.011251462623476982, -0.003979486878961325, -0.010684404522180557, -0.003775613382458687, -0.01285535842180252, -0.009333904832601547, 0.002718699397519231, -0.00984044186770916, 0.004823622293770313, 0.004590005613863468, 0.01145089790225029, -0.008973021060228348, 0.015001907013356686, -0.011672046035528183, -0.0038153387140482664, 0.010401624254882336, 0.01397691573947668, -0.0048085474409163, -0.010035176761448383, -0.0032886387780308723, -0.004637774545699358, -0.0036528902128338814, -0.011668238788843155, -0.008972208015620708, -0.01245567761361599, 0.004208810161799192, 0.010582130402326584, -0.010781838558614254, 0.010692892596125603, -0.011435468681156635, -0.0076488289050757885, -0.013087454251945019, 0.003943761344999075, -0.011564257554709911, 0.0042753443121910095, -0.002689198823645711, 0.007871665991842747, -0.0036862788256257772, -0.009183191694319248, -0.012574734166264534, -0.01063482090830803, 0.009548461996018887, 0.0032377061434090137, -0.012588358484208584, -0.004668582696467638, -0.006825968157500029, 0.010823051445186138], [0.0033788220025599003, -0.009883368387818336, 0.008342649787664413, -0.0011173607781529427, 0.0006606830283999443, -0.0030900065321475267, -0.008638901636004448, -0.003647751873359084, -0.0024508449714630842, -0.003947999328374863, -0.010512217879295349, -0.00583195686340332, 0.007897511124610901, 0.007830522023141384, 0.004878466483205557, 0.0032002751249819994, -0.004321752581745386, -0.0032169343903660774, -0.009545993991196156, -0.006120418664067984, 0.003892765147611499, 0.0008020406239666045, 0.0032830412965267897, -0.004054642282426357, 0.0007799688028171659, -0.0032948472071439028, 0.003820651676505804, 0.002363567939028144, 0.008443756960332394, -0.007553634233772755, 0.005088226404041052, -0.0033209926914423704, 0.005863199010491371, -0.007868852466344833, -0.011857210658490658, -0.004417921416461468, 0.002315125660970807, -0.008428693749010563, 0.003826167667284608, 0.010658769868314266, 0.0034086783416569233, -0.005072738975286484, 0.005086946301162243, -0.007231084629893303, 0.004728400148451328, -0.003700182307511568, 0.00773482583463192, 0.0036498282570391893, -0.007980382069945335, -0.009978285059332848, 0.002399632940068841, -0.00284629687666893, 0.011326019652187824, -0.009402628056704998, 0.004124032333493233, 0.0073499190621078014, 0.0032377929892390966, -0.009603573940694332, 0.0037467863876372576, 0.008131937123835087, 0.006552406121045351, 0.006855201907455921, 0.006912419572472572, 0.004989010747522116, 0.009448680095374584, -0.007696384564042091, -0.006450855638831854, -0.005760805681347847, 0.003957310691475868, -0.003367067314684391, 0.006072238087654114, -0.007142695132642984, 0.00761317927390337, -0.009497170336544514, 0.0058072879910469055, 0.003059630747884512, 0.006717946380376816, -0.0032170850317925215, -0.0037418347783386707, -0.005667251534759998, 0.004703911021351814, 0.0076250252313911915, 0.008568848483264446, 0.005350861232727766, 0.00831327773630619, 0.0029698321595788, 0.0026917634531855583, -0.0018993394915014505, 0.008702139370143414, -0.006924055051058531, -0.0025830951053649187, -0.003530639922246337, 0.004468034952878952, -0.009760378859937191, 0.007730869576334953, 0.003493616823107004, -0.003208630718290806, -0.006872742436826229, 0.007492749486118555, 0.009050101041793823, 0.009421365335583687, 0.006834167055785656, 0.00340418703854084, 0.003942623268812895, 0.009108726866543293, 0.004808321595191956, -0.0033626363147050142, -0.002740032970905304, 0.009117983281612396, -0.002804158953949809, 0.003594133071601391, 0.003044714219868183, 0.010129348374903202, -0.0033510413486510515, 0.004917927086353302, -0.003800221486017108, 0.010129879228770733, -0.00705155823379755, 0.005556902848184109, 0.006233988329768181, 0.005261266138404608, 0.007264904212206602, -0.0077718147076666355, -0.008764203637838364, 0.008578266948461533, 0.004488357342779636, 0.004997300915420055, -0.0033936903346329927], [-0.003417442785575986, 0.0116258030757308, -0.0040850271470844746, 0.0033890625927597284, -0.0038234577514231205, 0.0031573050655424595, 0.000886583817191422, 0.009543567895889282, 0.001602682750672102, 0.0015476365806534886, 0.010163364000618458, 0.002784793497994542, -0.0037375253159552813, -0.015932386741042137, -0.004282954148948193, -0.00687536783516407, 0.003058928530663252, 0.008169448934495449, 0.009725027717649937, 0.0029838327318429947, -0.0062402598559856415, -0.002981467405334115, -0.013503680936992168, 0.0007815718417987227, -0.006652109324932098, 0.020176654681563377, -0.0010156561620533466, -0.003519758116453886, -0.011740843765437603, 0.0037548765540122986, -0.0036991722881793976, 0.009128764271736145, -0.0075516486540436745, 0.0028580513317137957, 0.01215807069092989, 0.0019919227343052626, -0.0028597384225577116, 0.0031639160588383675, -0.002301214262843132, -0.008983640931546688, -0.0035745282657444477, 0.004000737331807613, -0.009193617850542068, 0.0005747724790126085, -0.001149426563642919, 0.0036117383278906345, -0.008989839814603329, -0.0021610965486615896, 0.009208439849317074, 0.005560289137065411, -0.0026851643342524767, 0.0012285527773201466, -0.018460208550095558, 0.011309945024549961, -0.00432418379932642, -0.003502879524603486, -0.0056095668114721775, 0.005379358306527138, -0.006327254697680473, -0.012634513899683952, -0.0072779725305736065, -0.0033383734989911318, -0.0025994135066866875, -0.0038177534006536007, -0.0031213995534926653, 0.003660849528387189, 0.003412059275433421, 0.004079941660165787, -0.004020608030259609, 0.0035933773033320904, -0.00386915379203856, 0.008491565473377705, -0.006447506137192249, 0.009445234201848507, -0.003921264782547951, -0.007817677222192287, -0.002851603552699089, 0.003954771906137466, 0.0101168192923069, 0.002737067872658372, -0.0031600994989275932, -0.0033548271749168634, -0.003032298292964697, -0.0050491937436163425, -0.008381091989576817, -0.014261405915021896, -0.007722306996583939, 0.0009398526162840426, -0.0067939963191747665, 0.007943336851894855, 0.005955484230071306, 0.0032833190634846687, -0.0029331305995583534, 0.002867849310860038, -0.0034962643403559923, -0.008667191490530968, 0.003442681161686778, 0.00304361991584301, -0.0037232425529509783, -0.0034699661191552877, -0.013087655417621136, -0.003638911060988903, -0.01214764453470707, -0.0023923430126160383, -0.0037375977262854576, -0.0036698889452964067, 0.003007082734256983, 0.00426463084295392, -0.014699693769216537, 0.0045266482047736645, -0.0041055865585803986, -0.000770842656493187, -0.012347391806542873, 0.00029950033058412373, -0.0036854990758001804, 0.003650820814073086, -0.005116102285683155, 0.003470828291028738, -0.001015961985103786, -0.009591662324965, -0.0028392751701176167, -0.004033474251627922, 0.009743249975144863, 0.00328453560359776, -0.010722012259066105, -0.0060025108978152275, -0.008474557660520077, 0.0030699309427291155], [-0.0023302817717194557, 0.008576694875955582, -0.005212291609495878, 0.003140117973089218, -0.0032502501271665096, 0.004320253152400255, 0.0071359057910740376, 0.002785814693197608, 0.0035135040525346994, 0.0011591346701607108, 0.011433656327426434, 0.00362432305701077, -0.00506681390106678, -0.007547633722424507, -0.001779550570063293, -0.002849151147529483, 0.0026785454247146845, 0.004233701154589653, 0.007414813619107008, 0.010580857284367085, -0.0031424565240740776, -0.0031734793446958065, -0.009803295135498047, 0.003138128900900483, -0.0019497645553201437, 0.008489474654197693, -0.003251855494454503, -0.003905797377228737, -0.0036058174446225166, 0.0008878587395884097, -0.0036731308791786432, 0.008503859862685204, -0.001867926912382245, 0.004255800507962704, 0.006543896161019802, 0.0017953430069610476, -0.0027126206550747156, 0.0016002842457965016, -0.0032485020346939564, -0.00867761205881834, -0.002371041337028146, 0.0038370576221495867, -0.003289088374003768, 0.002679817145690322, -0.0023157361429184675, 0.0028981429059058428, -0.0027019039262086153, -0.0017393808811903, 0.002300211461260915, 0.005974289961159229, -0.0006888526258990169, 0.00555886747315526, -0.003217050340026617, 0.00992597732692957, -0.002743910765275359, -0.0014375380706042051, -0.002484108554199338, 0.007697903551161289, -0.0029043222311884165, -0.008940440602600574, -0.00406479649245739, -0.007376500405371189, -0.000606024928856641, -0.002013634191825986, -0.002826906740665436, 0.004728815983980894, 0.0026622472796589136, 0.003958122804760933, -0.0019028570968657732, 0.0031198335345834494, -0.0057472651824355125, 0.0029423260129988194, -0.006004863418638706, 0.009152025915682316, -0.003204438602551818, -0.0005424434202723205, -0.0031125121749937534, 0.0026056531351059675, 0.0015812588389962912, 0.0018459106795489788, -0.000852094148285687, -0.006725954823195934, -0.003683954244479537, -0.0034452283289283514, -0.0026243908796459436, -0.005216782446950674, -0.002888774499297142, 0.004335245583206415, -0.008673831820487976, 0.0056102583184838295, 0.003380147973075509, 0.0011499763932079077, -0.0011099337134510279, 0.00924002006649971, -0.002628786489367485, -0.002674427814781666, 0.0018768087029457092, 0.0029184476006776094, -0.008446593768894672, -0.009742092341184616, -0.010266991332173347, -0.008191248401999474, -0.004755035042762756, -0.002322874963283539, -0.0033623436465859413, -0.0011360490461811423, 0.0038494521286338568, 0.007498759776353836, -0.010165132582187653, 0.003616701578721404, -0.002969289431348443, -0.0035759180318564177, -0.00945049524307251, 0.0031408406794071198, -0.0018342571565881371, 0.0031961638014763594, -0.01235173363238573, 0.0018438100814819336, -0.0026995555963367224, -0.0055478960275650024, -0.002714834874495864, -0.003238155972212553, 0.004424218088388443, 0.004746302496641874, -0.009011916816234589, -0.0019911080598831177, -0.005478742532432079, 0.002736847149208188], [-0.004669796209782362, 0.01923474483191967, -0.0122052151709795, 0.0037417549174278975, -0.0036211928818374872, 0.01223696954548359, 0.022510243579745293, 0.00382063677534461, 0.008801144547760487, 0.010376873426139355, 0.01192939281463623, 0.010983088985085487, -0.0039496952667832375, -0.014282481744885445, -0.004039356950670481, -0.012560349889099598, 0.016282591968774796, 0.014399489387869835, 0.017079953104257584, 0.003171429270878434, -0.013257507234811783, -0.004438058473169804, -0.014647446572780609, 0.016107510775327682, -0.004440524615347385, 0.009843054227530956, -0.003485950641334057, -0.0041540926322340965, -0.0032920062076300383, 0.004749628249555826, -0.004524434916675091, 0.0034888540394604206, -0.012983767315745354, 0.003447076538577676, 0.01287755835801363, 0.003820621408522129, -0.0037371062207967043, 0.01551827508956194, -0.014929842203855515, -0.010440434329211712, -0.0112046143040061, 0.010849208571016788, -0.0038641809951514006, 0.017814408987760544, -0.016078181564807892, 0.011583724059164524, -0.016820017248392105, -0.01414546649903059, 0.014988690614700317, 0.019087666645646095, -0.005889177322387695, 0.018020104616880417, -0.004410059656947851, 0.010505654849112034, -0.009997697547078133, -0.003217542776837945, -0.0158737413585186, 0.003082475159317255, -0.015608794055879116, -0.011091312393546104, -0.01742737926542759, -0.013373134657740593, -0.003418580861762166, -0.013532763347029686, -0.018659120425581932, 0.01402339618653059, 0.01203237660229206, 0.015090364962816238, -0.013552011922001839, 0.01127740740776062, -0.012210994027554989, 0.00377968093380332, -0.01508020143955946, 0.0069123851135373116, -0.005487252026796341, -0.011672353371977806, -0.004119528457522392, 0.012970279902219772, 0.0035958632361143827, 0.0036970549263060093, -0.01536212582141161, -0.01283571869134903, -0.0037629068829119205, -0.004202891606837511, -0.003698904998600483, -0.013086346909403801, -0.010735864751040936, 0.009321318939328194, -0.008790437132120132, 0.015530969947576523, 0.012743829749524593, 0.01407364010810852, -0.014987749047577381, 0.01622622460126877, -0.015531955286860466, -0.015962667763233185, 0.008705468848347664, 0.018556687980890274, -0.0034319187980145216, -0.013520019128918648, -0.01657715067267418, -0.0035731906536966562, -0.013824817724525928, -0.016770925372838974, -0.003968713339418173, -0.012370404787361622, 0.004245198797434568, 0.013467119075357914, -0.013144093565642834, 0.01247036550194025, -0.010904354974627495, -0.00937528908252716, -0.012047233991324902, 0.01411251351237297, -0.013554676435887814, 0.006200149655342102, -0.02192186750471592, 0.015723684802651405, -0.017354564741253853, -0.014673717319965363, -0.019567498937249184, -0.010026544332504272, 0.013748259283602238, 0.003110878635197878, -0.0030960028525441885, -0.01663757860660553, -0.003656901651993394, 0.01439291425049305], [-0.01881525106728077, 0.017118562012910843, -0.015757966786623, 0.01769997552037239, -0.016203492879867554, 0.01748044416308403, 0.017559731379151344, 0.01854323036968708, 0.005140781868249178, 0.017641661688685417, 0.010327684693038464, 0.016427572816610336, -0.017839698120951653, -0.017086774110794067, -0.0048743668012320995, -0.01944589614868164, 0.02027745731174946, 0.018219538033008575, 0.01893935166299343, 0.003475579433143139, -0.01723676174879074, -0.015030517242848873, -0.004073800519108772, 0.020464980974793434, -0.015142167918384075, 0.0033396275248378515, -0.011955142952501774, -0.015923190861940384, -0.01909010112285614, 0.004547593649476767, -0.01728089153766632, 0.019792161881923676, -0.01635623723268509, 0.020129160955548286, 0.01927410438656807, 0.01822529546916485, -0.019335562363266945, 0.015219166874885559, -0.0047607021406292915, -0.010858602821826935, -0.005025156773626804, 0.020797977223992348, -0.014924800954759121, 0.019142093136906624, -0.004616558086127043, 0.016902092844247818, -0.0036678749602288008, -0.021715469658374786, 0.019410036504268646, 0.019224457442760468, -0.015188781544566154, 0.016113774850964546, -0.003690586658194661, 0.010554204694926739, -0.01680963672697544, -0.012788672931492329, -0.01925162971019745, 0.018923629075288773, -0.018509026616811752, -0.011599007062613964, -0.017501207068562508, -0.016241945326328278, -0.01655283197760582, -0.010336872190237045, -0.003727580653503537, 0.004227214027196169, 0.01681508496403694, 0.01790521666407585, -0.004707184620201588, 0.004459449555724859, -0.01677863486111164, 0.005230451934039593, -0.01748799905180931, 0.012906625866889954, -0.0044405339285731316, -0.015463904477655888, -0.016721054911613464, 0.003827094566076994, 0.019749270752072334, 0.017248855903744698, -0.017329363152384758, -0.003921867813915014, -0.005334530957043171, -0.007888135500252247, -0.017428208142518997, -0.015408697538077831, -0.012221962213516235, 0.011877818964421749, -0.010696799494326115, 0.01730016991496086, 0.02234862931072712, 0.018953701481223106, -0.007126294542104006, 0.012213264591991901, -0.01734825037419796, -0.006185342092067003, 0.004469576291739941, 0.0038727973587810993, -0.007222948595881462, -0.015110144391655922, -0.014402738772332668, -0.008918816223740578, -0.017878718674182892, -0.021527040749788284, -0.004711312707513571, -0.017782606184482574, 0.017232758924365044, 0.01703517697751522, -0.01436813734471798, 0.021159974858164787, -0.012767958454787731, -0.011916382238268852, -0.013501805253326893, 0.01916765607893467, -0.004324800800532103, 0.018590617924928665, -0.003262648591771722, 0.004168946761637926, -0.007589591201394796, -0.018687665462493896, -0.017215950414538383, -0.018087342381477356, 0.004591837991029024, 0.0179147869348526, -0.01820741966366768, -0.0046546924859285355, -0.004908357281237841, 0.017289994284510612], [0.003521706908941269, -0.01187871489673853, 0.0034621672239154577, -0.0028306576423346996, 0.0034471487160772085, -0.003209823276847601, -0.01182317640632391, -0.01030737068504095, -0.006118949502706528, -0.0032435187604278326, -0.010231542401015759, -0.009074696339666843, 0.008707886561751366, 0.012509405612945557, 0.003755177604034543, 0.006628676317632198, -0.007060013711452484, -0.009466918185353279, -0.010602750815451145, -0.008742379024624825, 0.008283201605081558, 0.0050143650732934475, 0.005393229424953461, -0.004830023739486933, 0.0009738936205394566, -0.011266428977251053, 0.0016657658852636814, 0.0025797702837735415, 0.011459297500550747, -0.009088673628866673, 0.003843330778181553, -0.011073796078562737, 0.01044042594730854, -0.010952979326248169, -0.009972633793950081, -0.006922769360244274, 0.004659734666347504, -0.008627748116850853, 0.009787164628505707, 0.008975554257631302, 0.00395966786891222, -0.009485514834523201, 0.00879583228379488, -0.010066015645861626, 0.007037329487502575, -0.005054877605289221, 0.010461545549333096, 0.006900858599692583, -0.010851922444999218, -0.003358914516866207, 0.001003886223770678, -0.0029686070047318935, 0.012672978453338146, -0.009980466216802597, 0.004068419802933931, 0.010491136461496353, 0.008537433110177517, -0.011025897227227688, 0.008013838902115822, 0.0033084957394748926, 0.008484934456646442, 0.006924760062247515, 0.004862082190811634, 0.007858101278543472, 0.009382106363773346, -0.0033029818441718817, -0.00696116266772151, -0.008373280987143517, 0.00841614231467247, -0.006807932164520025, 0.008254367858171463, -0.003377866232767701, 0.0062991054728627205, -0.009761528111994267, 0.0063294293358922005, 0.005098152905702591, 0.008501041680574417, -0.010341109707951546, -0.007610689848661423, -0.003420337336137891, 0.00299443444237113, 0.010977462865412235, 0.009601789526641369, 0.004422524943947792, 0.008387966081500053, 0.010321357287466526, 0.006506683770567179, -0.00785305816680193, 0.008698214776813984, -0.0065689547918736935, -0.006459823343902826, -0.008477617055177689, 0.0034430779051035643, -0.011414901353418827, 0.007761205080896616, 0.011491704732179642, -0.0033796054776757956, -0.003074425971135497, 0.011064555495977402, 0.004266359843313694, 0.009673049673438072, 0.008729874156415462, 0.003360435366630554, 0.00987639743834734, 0.009826642461121082, 0.006199009716510773, -0.0032315438147634268, -0.010897527448832989, 0.011470731347799301, -0.008898810483515263, 0.008257976733148098, 0.0039056967943906784, 0.010562175884842873, -0.0005486021982505918, 0.0032390423584729433, -0.004966080188751221, 0.010843663476407528, -0.008968131616711617, 0.008932129479944706, 0.007889646105468273, 0.010276933200657368, 0.0026187016628682613, -0.006035521626472473, -0.007400767877697945, 0.004910983145236969, 0.006397892255336046, 0.009411737322807312, -0.007806457579135895], [0.002937210025265813, -0.005495182238519192, 0.003511663293465972, -0.0024805087596178055, 0.0020409119315445423, -0.0005711984704248607, -0.005218507256358862, -0.002609421731904149, -0.003397434251382947, -0.0008279274916276336, -0.009755711071193218, -6.0755384765798226e-05, 0.003376043401658535, 0.006874314043670893, 0.0026763679925352335, 0.0007191498298197985, -0.0020073177292943, -0.0029623652808368206, -0.0016829990781843662, -0.0068270741030573845, 0.0004488899721764028, 0.0017143486766144633, 0.0048145754262804985, -0.002788863144814968, 0.0023809897247701883, -0.0041788495145738125, 0.003445344278588891, 0.0013431065017357469, 0.005070774350315332, -0.0017951620975509286, 0.0026861480437219143, -0.002140297321602702, 0.0014058694941923022, -0.0025880460161715746, -0.0037501114420592785, -0.0012276694178581238, 0.0014666143106296659, -0.003037117887288332, 0.002190730068832636, 0.010791807435452938, 0.0030451579950749874, -0.0032939906232059, 0.004875781014561653, -0.0018943091854453087, 0.0015757662476971745, -0.0034620019141584635, 0.002707105129957199, 0.0014993395889177918, -0.00044158290256746113, -0.0008432987960986793, 0.00594832468777895, -0.001279240706935525, 0.0026824751403182745, -0.01083444058895111, 0.0031765680760145187, 0.006406289525330067, 0.0011117048561573029, -0.005920419469475746, 0.004066744353622198, 0.00320706469938159, 0.002327663591131568, 0.0026570698246359825, 0.0026142762508243322, 0.0012877146946266294, 0.005451806355267763, -0.002903187181800604, -0.0021564310882240534, -0.00020544925064314157, 0.0008235187269747257, -0.0029826301615685225, 0.003356167348101735, -0.0009761056862771511, 0.00495165167376399, -0.010180684737861156, 0.0023818034678697586, 0.0031463345512747765, 0.0044516026973724365, -0.00388543214648962, -0.003009750274941325, -0.0019085104577243328, 0.002964008366689086, 0.003984000999480486, 0.0032030013389885426, 0.003632159437984228, 0.0018055972177535295, 0.0028982318472117186, 0.0028480729088187218, -0.007813784293830395, 0.009077802300453186, -0.0014601042494177818, -0.0033685823436826468, -0.0020890042651444674, 0.0015296252677217126, -0.0036540671717375517, 0.0024374094791710377, 0.0016469795955345035, -0.0028477355372160673, -0.0056644766591489315, 0.00379194226115942, 0.002842473331838846, 0.00514398654922843, 0.002431131200864911, 0.005321228876709938, 0.0026042000390589237, 0.0037486397195607424, 0.003660899121314287, -0.00043395449756644666, -0.0022325473837554455, 0.002245859242975712, -0.002964955987408757, 0.0018297366332262754, 0.001006864127703011, 0.007241022307425737, -0.00331391510553658, 0.0029434619937092066, -0.003722425317391753, 0.006846442818641663, -0.0001100084773497656, 0.0013416297733783722, 0.0013486179523169994, 0.001989679178223014, 0.003951811697334051, -0.0013485507806763053, -0.001164235989563167, 0.002289394149556756, 0.0023709957022219896, 0.0025078277103602886, -0.0031581686343997717], [0.011401228606700897, -0.011161443777382374, 0.0070702917873859406, -0.00427590636536479, 0.007242642808705568, -0.003984019625931978, -0.0037856686394661665, -0.0037675327621400356, -0.004156886134296656, -0.01230567879974842, -0.011317437514662743, -0.013259698636829853, 0.010852313600480556, 0.008446073159575462, 0.004032494500279427, 0.004370971117168665, -0.011515739373862743, -0.004257689230144024, -0.0034008133225142956, -0.013988832011818886, 0.00790362898260355, 0.010553405620157719, 0.01277607399970293, -0.011378224939107895, 0.008605744689702988, -0.010527179576456547, 0.007155566476285458, 0.008018627762794495, 0.012097605504095554, -0.007903209887444973, 0.012761984951794147, -0.003519034944474697, 0.013220531865954399, -0.014033856801688671, -0.013383308425545692, -0.007866516709327698, 0.008599210530519485, -0.012850090861320496, 0.013177536427974701, 0.009073533117771149, 0.009107425808906555, -0.012554697692394257, 0.009661238640546799, -0.013376823626458645, 0.011441629379987717, -0.0125033650547266, 0.0040518674068152905, 0.003695440711453557, -0.011435270309448242, -0.015451540239155293, 0.006052725948393345, -0.012272072024643421, 0.011299552395939827, -0.006790565326809883, 0.008851255290210247, 0.009883849881589413, 0.010232321918010712, -0.014942128211259842, 0.005917278118431568, 0.003992942627519369, 0.012293967418372631, 0.009620634838938713, 0.009876206517219543, 0.011819319799542427, 0.013896672055125237, -0.010454687289893627, -0.009968866594135761, -0.004321280866861343, 0.014127201400697231, -0.009941057302057743, 0.0038573904894292355, -0.004037781618535519, 0.011201567947864532, -0.0037274034693837166, 0.009904645383358002, 0.009516697376966476, 0.011020813137292862, -0.012170867994427681, -0.005556014832109213, -0.010994432494044304, 0.007535417564213276, 0.012573403306305408, 0.013546978123486042, 0.012768629938364029, 0.004752832930535078, 0.01322903111577034, 0.013722900301218033, -0.009046562016010284, 0.009988494217395782, -0.0037885920610278845, -0.0040173036977648735, -0.0041455295868217945, 0.012589958496391773, -0.0034796346444636583, 0.013494668528437614, 0.013034666888415813, -0.003897123970091343, -0.013415168970823288, 0.01511631440371275, 0.010203921236097813, 0.011580763384699821, 0.011607210151851177, 0.008839038200676441, 0.011572685092687607, 0.004409870598465204, 0.010129046626389027, -0.011804221197962761, -0.005914737936109304, 0.01266576163470745, -0.003816187148913741, 0.010769086889922619, 0.004707984160631895, 0.012785508297383785, -0.010200555436313152, 0.008214118890464306, -0.004992182832211256, 0.012880556285381317, -0.006585506722331047, 0.010191517882049084, 0.01279381848871708, 0.010988724417984486, 0.005177387967705727, -0.0035410106647759676, -0.01145333144813776, 0.013979208655655384, 0.011294488795101643, 0.01209088135510683, -0.006187849212437868], [0.01070758793503046, -0.003310996340587735, 0.008944970555603504, -0.004423720762133598, 0.0035451455041766167, -0.007729826495051384, -0.01007041521370411, -0.011008817702531815, -0.005272924434393644, -0.00372282019816339, -0.006131258327513933, -0.0036439585965126753, 0.004048856440931559, 0.009725342504680157, 0.009303709492087364, 0.00608717231079936, -0.008981192484498024, -0.009319301694631577, -0.003515796270221472, -0.00898827239871025, 0.00851201917976141, 0.007173806894570589, 0.0037249312736094, -0.003520847763866186, 0.0011786505347117782, -0.00803916621953249, 0.00515773193910718, 0.003048395039513707, 0.012936683371663094, -0.008396703749895096, 0.004175927489995956, -0.009343390353024006, 0.008995507843792439, -0.010409926995635033, -0.010338878259062767, -0.003605420235544443, 0.006093161646276712, -0.011962941847741604, 0.007367776241153479, 0.00879328791052103, 0.004186821635812521, -0.010474932380020618, 0.007793958764523268, -0.0077034165151417255, 0.008684340864419937, -0.004061274230480194, 0.0032410172279924154, 0.0065429434180259705, -0.010686690919101238, -0.004062147345393896, 0.004891718737781048, -0.009586802683770657, 0.013585496693849564, -0.010194053873419762, 0.008316131308674812, 0.01008567027747631, 0.011194161139428616, -0.0037318295799195766, 0.011758195236325264, 0.0111287422478199, 0.011919115670025349, 0.009162619709968567, 0.008127449080348015, 0.010901233181357384, 0.009417531080543995, -0.012524456717073917, -0.008281528018414974, -0.011177608743309975, 0.0043410565704107285, -0.006630990654230118, 0.010002118535339832, -0.003470974275842309, 0.007205808535218239, -0.006215832661837339, 0.0034903003834187984, 0.003523093182593584, 0.010988566093146801, -0.011022623628377914, -0.008864493109285831, -0.010313515551388264, 0.010011914186179638, 0.011545519344508648, 0.007681657560169697, 0.009643502533435822, 0.0034099281765520573, 0.011960938572883606, 0.003842613659799099, -0.00919000618159771, 0.008362547494471073, -0.00866698194295168, -0.007922008633613586, -0.012294077314436436, 0.011006567627191544, -0.013599731028079987, 0.011324593797326088, 0.00429321825504303, -0.00926755741238594, -0.01262747123837471, 0.011725501157343388, 0.011663722805678844, 0.004087961744517088, 0.010925179347395897, 0.009784694761037827, 0.00893537886440754, 0.0077551184222102165, 0.004428571555763483, -0.004126338753849268, -0.012061635963618755, 0.012193418107926846, -0.009542461484670639, 0.009949554689228535, 0.0072174365632236, 0.0077474904246628284, -0.008764809928834438, 0.005292218644171953, -0.003856388619169593, 0.002849618438631296, -0.0034225734416395426, 0.008413690142333508, 0.011405752040445805, 0.003054778091609478, 0.005455350503325462, -0.010347798466682434, -0.010772577486932278, 0.011980786919593811, 0.010795715264976025, 0.0033627182710915804, -0.0074012260884046555], [0.003266989253461361, -0.012036886066198349, 0.009914156049489975, -0.003506253007799387, 0.006457053124904633, -0.010047195479273796, -0.0029566255398094654, -0.011773104779422283, -0.003654651576653123, -0.006250910926610231, -0.008494444191455841, -0.011692646890878677, 0.01014656014740467, 0.012937680818140507, 0.005186434369534254, 0.007897783070802689, -0.004225306678563356, -0.01474232692271471, -0.015436943620443344, -0.014326698146760464, 0.0038014473393559456, 0.0038874736055731773, 0.00841810368001461, -0.013132245279848576, 0.00397519813850522, -0.01277903188019991, 0.004090195521712303, 0.0016971692675724626, 0.003558060619980097, -0.010390243493020535, 0.0038657053373754025, -0.01229642890393734, 0.012811188586056232, -0.015422020107507706, -0.011738781817257404, -0.0074265566654503345, 0.005206602159887552, -0.011043946258723736, 0.009930236265063286, 0.00908190943300724, 0.00642639584839344, -0.012903549708425999, 0.010592451319098473, -0.005363140255212784, 0.012349862605333328, -0.013054425828158855, 0.013708101585507393, 0.012723453342914581, -0.012517212890088558, -0.01802678406238556, 0.004573599435389042, -0.014259321615099907, 0.015859106555581093, -0.009496595710515976, 0.011248595081269741, 0.003977975342422724, 0.011332397349178791, -0.017576230689883232, 0.009026501327753067, 0.009825881570577621, 0.015319797210395336, 0.0034954336006194353, 0.008843005634844303, 0.012760832905769348, 0.014576958492398262, -0.01387061644345522, -0.010373996570706367, -0.010487190447747707, 0.011310543864965439, -0.010029721073806286, 0.009668130427598953, -0.011886829510331154, 0.012866941280663013, -0.0101542379707098, 0.011470742523670197, 0.00843696016818285, 0.00521096820011735, -0.005050580482929945, -0.0104482751339674, -0.005214850418269634, 0.003925317898392677, 0.013095159083604813, 0.009342960081994534, 0.009285524487495422, 0.0038555290084332228, 0.00799624715000391, 0.00866860430687666, -0.006177746225148439, 0.009524326771497726, -0.0033830096945166588, -0.011847684159874916, -0.013355251401662827, 0.008988967165350914, -0.018061215057969093, 0.016065888106822968, 0.013327181339263916, -0.012310517951846123, -0.0032304173801094294, 0.013496268540620804, 0.011340304277837276, 0.005729385185986757, 0.012114542536437511, 0.01303158886730671, 0.013935703784227371, 0.004625531379133463, 0.004044373985379934, -0.011824852786958218, -0.012681308202445507, 0.014875611290335655, -0.009038449265062809, 0.014214863069355488, 0.003479062346741557, 0.012248799204826355, -0.006375569850206375, 0.011850077658891678, -0.005235154181718826, 0.017853710800409317, -0.010545963421463966, 0.014108644798398018, 0.012382769025862217, 0.01527420710772276, 0.004819548688828945, -0.009946983307600021, -0.014926453121006489, 0.0031814826652407646, 0.008182764984667301, 0.0033629508689045906, -0.006388259120285511], [0.014101210981607437, -0.012733918614685535, 0.004091291688382626, -0.00505217956379056, 0.004100145306438208, -0.013244516216218472, -0.01921924576163292, -0.010415700264275074, -0.007903034798800945, -0.01048724353313446, -0.01041855476796627, -0.010016071610152721, 0.012762339785695076, 0.012570103630423546, 0.0037995153106749058, 0.010014766827225685, -0.015493275597691536, -0.014404638670384884, -0.014306211844086647, -0.016579631716012955, 0.0036338630598038435, 0.003495001932606101, 0.014353843405842781, -0.010104548186063766, 0.0020732467528432608, -0.0031794998794794083, 0.0032239125575870275, 0.0034798928536474705, 0.01641877181828022, -0.013510182499885559, 0.004325585905462503, -0.003519886638969183, 0.005181844811886549, -0.00327289174310863, -0.004359331913292408, -0.009524131193757057, 0.008668086491525173, -0.0037594072055071592, 0.0036098682321608067, 0.009078611619770527, 0.01241396740078926, -0.014290457591414452, 0.008909584023058414, -0.014048661105334759, 0.003952693659812212, -0.013030045665800571, 0.013668285682797432, 0.012851365841925144, -0.012663046829402447, -0.017474107444286346, 0.00678627286106348, -0.013396929018199444, 0.01595459319651127, -0.009831485338509083, 0.007833443582057953, 0.012230372056365013, 0.010389347560703754, -0.01851930096745491, 0.012948750518262386, 0.011003091000020504, 0.013547930866479874, 0.004650231916457415, 0.003332828637212515, 0.011873666197061539, 0.015139872208237648, -0.013566306792199612, -0.005175480619072914, -0.012642143294215202, 0.012790882959961891, -0.003155166283249855, 0.013184181414544582, -0.0037020444869995117, 0.011915630660951138, -0.00402059918269515, 0.011877812445163727, 0.008713089860975742, 0.0042444816790521145, -0.01326135452836752, -0.01512856874614954, -0.006578855216503143, 0.011189848184585571, 0.010792490094900131, 0.011377609334886074, 0.00995667465031147, 0.0036009771283715963, 0.014720865525305271, 0.003896621521562338, -0.007837988436222076, 0.009280694648623466, -0.01313205249607563, -0.00929897092282772, -0.010454289615154266, 0.004810452926903963, -0.019267041236162186, 0.01557973027229309, 0.013893324881792068, -0.012622152455151081, -0.00362023850902915, 0.0034538982436060905, 0.003229403169825673, 0.016616057604551315, 0.003621552139520645, 0.013648304156959057, 0.015935998409986496, 0.011139053851366043, 0.00786513276398182, -0.014272702857851982, -0.015547133982181549, 0.012989487498998642, -0.0034348000772297382, 0.004517781548202038, 0.0036094060633331537, 0.011908471584320068, -0.0038115442730486393, 0.010768099687993526, -0.0068479799665510654, 0.0026985667645931244, -0.013199054636061192, 0.015589987859129906, 0.013835442252457142, 0.011722691357135773, 0.004093172959983349, -0.009910345077514648, -0.013452287763357162, 0.016883250325918198, 0.00451962323859334, 0.013440742157399654, -0.004426853731274605], [-0.011336596682667732, 0.02430419996380806, -0.02714010886847973, 0.051297273486852646, -0.03768596053123474, 0.04449355974793434, 0.005121948197484016, 0.004690890666097403, 0.04629003256559372, 0.03952161967754364, 0.006349946837872267, 0.04120254889130592, -0.03680329769849777, -0.016091184690594673, -0.05052633583545685, -0.005639099050313234, 0.0041716573759913445, 0.003876653965562582, 0.03718838468194008, 0.033006083220243454, -0.04360152408480644, -0.046935707330703735, -0.004438374191522598, 0.03795700520277023, -0.030321400612592697, 0.0044162278063595295, -0.006203596945852041, -0.006211421452462673, -0.005340911448001862, 0.048612236976623535, -0.03470885008573532, 0.004255295731127262, -0.042693860828876495, 0.03026437945663929, 0.027123648673295975, 0.04818795248866081, -0.04495570808649063, 0.04531627893447876, -0.04363623261451721, -0.009303203783929348, -0.013554226607084274, 0.021661799401044846, -0.005379620473831892, 0.02960101142525673, -0.01067681610584259, 0.028268028050661087, -0.04367661848664284, -0.011386922560632229, 0.046030767261981964, 0.005616100504994392, -0.05058300122618675, 0.036473240703344345, -0.017388151958584785, 0.009890216402709484, -0.041772279888391495, -0.02196633256971836, -0.022350015118718147, 0.0053125666454434395, -0.043814294040203094, -0.017290731891989708, -0.04039585590362549, -0.032376520335674286, -0.036381177604198456, -0.042322516441345215, -0.003908232785761356, 0.004582956898957491, 0.037441685795784, 0.03987451270222664, -0.005079863127321005, 0.04868825152516365, -0.04353649914264679, 0.046837616711854935, -0.03659755736589432, 0.0027380650863051414, -0.047480203211307526, -0.03645847365260124, -0.03726809099316597, 0.043565813452005386, 0.039171233773231506, 0.005543090403079987, -0.006164770107716322, -0.03523094579577446, -0.044605910778045654, -0.02963506244122982, -0.04349961876869202, -0.02643514797091484, -0.037574417889118195, 0.006289331708103418, -0.00974685326218605, 0.03370549529790878, 0.05658961459994316, 0.04095347970724106, -0.040209267288446426, 0.014368305914103985, -0.027335215359926224, -0.020177671685814857, 0.004889995325356722, 0.004296491853892803, -0.008687072433531284, -0.017470359802246094, -0.027395715937018394, -0.03447585925459862, -0.03516397997736931, -0.008073846809566021, -0.011160366237163544, -0.005729174707084894, 0.04700273647904396, 0.03656362369656563, -0.0313124917447567, 0.052383068948984146, -0.04697205126285553, -0.032344575971364975, -0.013713313266634941, 0.041308481246232986, -0.0366351492702961, 0.04992976039648056, -0.02544211968779564, 0.04057932645082474, -0.031403735280036926, -0.034532804042100906, -0.035280682146549225, -0.0065450542606413364, 0.019675208255648613, 0.038038093596696854, -0.032417118549346924, -0.05030239745974541, -0.036587029695510864, 0.039532460272312164], [0.003271791385486722, -0.013374751433730125, 0.012918472290039062, -0.0043932972475886345, 0.0019807310309261084, -0.003796868259087205, -0.0024293509777635336, -0.00847218930721283, -0.0034807806368917227, -0.004003030247986317, -0.009787025861442089, -0.0038598200771957636, 0.010474355891346931, 0.003453085431829095, 0.005886135622859001, 0.006811348721385002, -0.0091707156971097, -0.01248922199010849, -0.003386299591511488, -0.004374639131128788, 0.007655258756130934, 0.002588879084214568, 0.0034078345634043217, -0.0035301162861287594, 0.006080932449549437, -0.011162173002958298, 0.0015649450942873955, 0.0035037589259445667, 0.01119996514171362, -0.0056810216046869755, 0.00895952619612217, -0.011650146916508675, 0.009127258323132992, -0.003033166751265526, -0.013292128220200539, -0.004371332470327616, 0.004561226814985275, -0.008560425601899624, 0.007499575614929199, 0.009348574094474316, 0.005441877990961075, -0.003936861641705036, 0.004433285444974899, -0.0036260257475078106, 0.005347918719053268, -0.008904490619897842, 0.010287676937878132, 0.007496064528822899, -0.0034511168487370014, -0.008075972087681293, 0.0007282276055775583, -0.009531354531645775, 0.015023136511445045, -0.007100354880094528, 0.0033148350194096565, 0.015288038179278374, 0.009308761917054653, -0.012528290040791035, 0.004975610412657261, 0.014038912951946259, 0.008951809257268906, 0.010093552060425282, 0.007395496591925621, 0.007643292658030987, 0.010041710920631886, -0.009122098796069622, -0.00841689296066761, -0.00750467786565423, 0.0060143014416098595, -0.007719698827713728, 0.009522135369479656, -0.0071992771700024605, 0.0029150776099413633, -0.010440066456794739, 0.007250889670103788, 0.004036883823573589, 0.008215589448809624, -0.003336061956360936, -0.010406408458948135, -0.003952846862375736, 0.0037626957055181265, 0.01325901597738266, 0.0032074807677417994, 0.010167042724788189, 0.003357226261869073, 0.012041237205266953, 0.0032055454794317484, -0.0022859429009258747, 0.0068243383429944515, -0.0037494266871362925, -0.0056512681767344475, -0.00670037604868412, 0.0034314244985580444, -0.007375079672783613, 0.008657269179821014, 0.010083452798426151, -0.00934835895895958, -0.010191604495048523, 0.00799713097512722, 0.01308605819940567, 0.012204348109662533, 0.01177609246224165, 0.0034335507079958916, 0.00590974185615778, 0.008362937718629837, 0.004787372425198555, -0.011489011347293854, -0.012559410184621811, 0.013657812029123306, -0.008407042361795902, 0.004184476565569639, 0.0055749984458088875, 0.002932243514806032, -0.003976420499384403, 0.010278101079165936, -0.004120253957808018, 0.002952158683910966, -0.0033784916158765554, 0.0021884855814278126, 0.011623498983681202, 0.00717507628723979, 0.0030225254595279694, -0.0034673342015594244, -0.009039465337991714, 0.011475316248834133, 0.009188932366669178, 0.013985985890030861, -0.005458376370370388], [-0.0009339354583062232, 0.006822052411735058, -0.005241955164819956, 0.0031876428984105587, -0.011611878871917725, 0.0032707261852920055, 0.0023476819042116404, 0.0007566476124338806, 0.0034354832023382187, 0.003161950269713998, 0.011047528125345707, 0.0009222159860655665, -0.0047830925323069096, -0.0026682165917009115, -0.0032235514372587204, -0.0012885578908026218, 0.0028847118373960257, 0.001921962946653366, 0.003371244063600898, 0.004308450501412153, -0.0010767490603029728, -0.0023574361111968756, -0.0026249003130942583, 0.0014888980658724904, -0.0016333679668605328, 0.007763484958559275, -0.002263612812384963, -0.0032592713832855225, -0.00525091215968132, 0.0013244764413684607, -0.0027878456749022007, 0.004353108815848827, -0.0020374830346554518, 0.0011586607433855534, 0.003975433297455311, 0.0009837645338848233, -0.0033041229471564293, 0.0032373007852584124, -0.0003955117135774344, -0.010221910662949085, -0.0030712124425917864, 0.0032839388586580753, -0.005308228079229593, 0.0019189390586689115, -0.0001979917724383995, 0.003699647495523095, -0.003321165917441249, -0.0028934660367667675, 0.0029575307853519917, 0.0024776000063866377, -0.0021728661376982927, 0.002453360240906477, -0.0077857691794633865, 0.009545132517814636, -0.0011488574091345072, -0.006844840012490749, -0.001043831231072545, 0.005148072727024555, -0.0003339013201184571, -0.008982356637716293, -0.0001980073720915243, -0.004339567851275206, -0.0010745698818936944, -0.001226582215167582, -0.0024589882232248783, 0.0024564776103943586, 0.0008783150697126985, 0.004397191572934389, -0.002932144794613123, 0.0023463345132768154, -0.0019380872836336493, 0.0024445638991892338, -0.002698433818295598, 0.0033868837635964155, -0.0001122245448641479, -0.003142224159091711, -0.005073727574199438, 0.0038989840541034937, 0.00012289798178244382, 0.0035051454324275255, -0.002960077952593565, -0.005700099281966686, -0.0017504252027720213, -0.0020591423381119967, -0.0028461127076298, -0.0035060765221714973, -0.0028863861225545406, 0.0013662197161465883, -0.0067208316177129745, 0.002198572037741542, 0.003408324671909213, 0.0022095737513154745, -0.0034539552871137857, 0.006792269181460142, -0.0023396818432956934, -0.0022417993750423193, 0.002707279287278652, 0.006878976244479418, -0.0008470828179270029, -0.009774320758879185, -0.007884371094405651, -0.005062695126980543, -0.002628489164635539, -0.0017808680422604084, -0.00043994098086841404, -0.00023824849631637335, 0.00012820525444112718, 0.0025641971733421087, -0.0032041119411587715, 0.0030271015129983425, -0.0014777514152228832, -0.0019189940067008138, -0.0075513883493840694, 0.0027561935130506754, -0.00282195582985878, 0.0010296781547367573, -0.002507888711988926, 0.0026979586109519005, -0.0028510328847914934, -0.001971761230379343, -0.001373966340906918, -0.0041093723848462105, 0.0021526827476918697, 0.001983545022085309, -0.0078260013833642, -0.0019905860535800457, -0.002411654917523265, 0.00213822303339839], [-0.01333735790103674, 0.0034576926846057177, -0.012528499588370323, 0.011372155509889126, -0.00447216397151351, 0.013055345043540001, 0.012400452978909016, 0.004072149284183979, 0.004722596146166325, 0.004021751694381237, 0.01147948857396841, 0.004447475541383028, -0.005958753637969494, -0.003993334248661995, -0.01403290219604969, -0.014639394357800484, 0.012452608905732632, 0.0034000719897449017, 0.014935181476175785, 0.003534881165251136, -0.01421553548425436, -0.013149519450962543, -0.011114856228232384, 0.016111548990011215, -0.012876879423856735, 0.01145994197577238, -0.010650433599948883, -0.009918520227074623, -0.010403252206742764, 0.004807100165635347, -0.011099196039140224, 0.013088813051581383, -0.0037012791726738214, 0.015070930123329163, 0.013132411986589432, 0.004170524887740612, -0.010577766224741936, 0.004226588178426027, -0.006607014685869217, -0.007905108854174614, -0.011519929394125938, 0.004769376944750547, -0.013697003945708275, 0.014019366353750229, -0.00409938208758831, 0.003983253613114357, -0.013040847145020962, -0.012234249152243137, 0.0134406303986907, 0.006432578433305025, -0.010086635127663612, 0.013459980487823486, -0.013229005970060825, 0.009810876101255417, -0.011166834272444248, -0.0033145248889923096, -0.005298443138599396, 0.0137660913169384, -0.004027522634714842, -0.010094372555613518, -0.013309720903635025, -0.013989569619297981, -0.0038346252404153347, -0.0036703345831483603, -0.012450408190488815, 0.004008840769529343, 0.014246299862861633, 0.015415624715387821, -0.015570266172289848, 0.011599390767514706, -0.01135882455855608, 0.013616606593132019, -0.011020416393876076, 0.010245968587696552, -0.011831630952656269, -0.011054178699851036, -0.013257959857583046, 0.013755748979747295, 0.014275850728154182, 0.015087613835930824, -0.004916335456073284, -0.01398338470607996, -0.007008740678429604, -0.012712704949080944, -0.011700011789798737, -0.012872088700532913, -0.013209753669798374, 0.002945508109405637, -0.0067948815412819386, 0.01137146819382906, 0.01587635651230812, 0.012757706455886364, -0.004772697575390339, 0.0035082069225609303, -0.01226141769438982, -0.01246381364762783, 0.012286883778870106, 0.004179334733635187, -0.0037082782946527004, -0.003502246458083391, -0.004336315207183361, -0.010576068423688412, -0.011461940594017506, -0.01637970097362995, -0.013724908232688904, -0.012120120227336884, 0.0038000093773007393, 0.0034023644402623177, -0.00870103482156992, 0.011452379636466503, -0.009160538204014301, -0.011021032929420471, -0.013092026114463806, 0.004268196877092123, -0.013136976398527622, 0.00629573967307806, -0.012766927480697632, 0.014250470325350761, -0.014298440888524055, -0.01255087647587061, -0.008759338408708572, -0.012705031782388687, 0.010311542078852654, 0.012905672192573547, -0.011495457962155342, -0.006036571227014065, -0.0036685180384665728, 0.014793036505579948], [0.00596178974956274, -0.016381729394197464, 0.004460951779037714, -0.004784311167895794, 0.009543527849018574, -0.016172967851161957, -0.016738759353756905, -0.004107143729925156, -0.017472831532359123, -0.01548893190920353, -0.006495323963463306, -0.012005134485661983, 0.012864150106906891, 0.003629272570833564, 0.012972668744623661, 0.015896238386631012, -0.02012777142226696, -0.015796881169080734, -0.017118031159043312, -0.015415119007229805, 0.014387705363333225, 0.01381048746407032, 0.0038205748423933983, -0.01982959918677807, 0.006739369127899408, -0.014819900505244732, 0.015664316713809967, 0.0043909670785069466, 0.003713341196998954, -0.015106071718037128, 0.016089245676994324, -0.01816314272582531, 0.013254465535283089, -0.019073957577347755, -0.015657173469662666, -0.015234379097819328, 0.014863843098282814, -0.015443021431565285, 0.004226034507155418, 0.009059679694473743, 0.018435385078191757, -0.015016048215329647, 0.011576122604310513, -0.0038144292775541544, 0.01908351108431816, -0.01330925989896059, 0.016524191945791245, 0.016970818862318993, -0.003576012095436454, -0.019328255206346512, 0.012961425818502903, -0.016712144017219543, 0.010804614052176476, -0.00992253702133894, 0.0038968140725046396, 0.01296066865324974, 0.014329331927001476, -0.003278343938291073, 0.015143155120313168, 0.013060695491731167, 0.017484435811638832, 0.01487924624234438, 0.014163314364850521, 0.015225433744490147, 0.017432184889912605, -0.0039094421081244946, -0.01567331701517105, -0.0050831446424126625, 0.016605205833911896, -0.003608477534726262, 0.009456420317292213, -0.01364243496209383, 0.01246821042150259, -0.005150167737156153, 0.01508285291492939, 0.015356205403804779, 0.006788393948227167, -0.01624269410967827, -0.017010953277349472, -0.004316098056733608, 0.004786752630025148, 0.016370100900530815, 0.004120515193790197, 0.013257939368486404, 0.0042454758659005165, 0.01616555266082287, 0.004392668139189482, -0.003310378175228834, 0.007360629737377167, -0.0164701696485281, -0.016296133399009705, -0.014548161067068577, 0.015712246298789978, -0.0030755060724914074, 0.016724156215786934, 0.014604330062866211, -0.014867371879518032, -0.019227933138608932, 0.004324786365032196, 0.014438861049711704, 0.015680352225899696, 0.013363351114094257, 0.01451854407787323, 0.019615203142166138, 0.004506860394030809, 0.012179293669760227, -0.01806938275694847, -0.014246313832700253, 0.013689429499208927, -0.0156187629327178, 0.017869895324110985, 0.0056100995279848576, 0.013790208846330643, -0.01417884137481451, 0.01719260774552822, -0.011484276503324509, 0.010805648751556873, -0.014956305734813213, 0.01983204297721386, 0.014041189104318619, 0.01640385575592518, 0.008133430033922195, -0.012707116082310677, -0.0168108269572258, 0.01534916553646326, 0.01519700326025486, 0.01510761957615614, -0.004017726518213749], [-0.011124315671622753, 0.00988286454230547, -0.00911704357713461, 0.004848611541092396, -0.003288036910817027, 0.0038910419680178165, 0.009998460300266743, 0.009997651912271976, 0.01110030710697174, 0.009451973251998425, 0.010454896837472916, 0.0037194027099758387, -0.010346496477723122, -0.00904000736773014, -0.006254203151911497, -0.004382263869047165, 0.009427862241864204, 0.010854681953787804, 0.008146700449287891, 0.011071580462157726, -0.009571801871061325, -0.003922668285667896, -0.004312995821237564, 0.011476601473987103, -0.00587258767336607, 0.010340960696339607, -0.0035617141984403133, -0.007982821203768253, -0.0041569010354578495, 0.0036586958449333906, -0.011381242424249649, 0.010400970466434956, -0.009542292915284634, 0.01125760655850172, 0.0046286815777421, 0.0035712849348783493, -0.010019407607614994, 0.008137417957186699, -0.011462176218628883, -0.009854288771748543, -0.010047954507172108, 0.00745861092582345, -0.009246532805263996, 0.010558776557445526, -0.004629324655979872, 0.0038476004265248775, -0.009059467352926731, -0.009393701329827309, 0.009943702258169651, 0.003483569249510765, -0.008633023127913475, 0.008965800516307354, -0.01143170241266489, 0.008427620865404606, -0.007271602284163237, -0.009373070672154427, -0.007870158180594444, 0.012625535018742085, -0.010282661765813828, -0.00140373723115772, -0.004714876879006624, -0.00344845256768167, -0.005783525761216879, -0.00347195565700531, -0.011273306794464588, 0.011416926048696041, 0.01019464060664177, 0.011328783817589283, -0.009311651811003685, 0.00407633138820529, -0.0039135003462433815, 0.010293704457581043, -0.007024580612778664, 0.011182877235114574, -0.004852460231631994, -0.006583365611732006, -0.007025343831628561, 0.009818850085139275, 0.009368241764605045, 0.005579737015068531, -0.0039575956761837006, -0.009265621192753315, -0.009524947963654995, -0.010656453669071198, -0.00831817276775837, -0.006057716440409422, -0.007623760960996151, 0.010008960030972958, -0.010431365109980106, 0.010896953754127026, 0.007165861781686544, 0.0036387071013450623, -0.010718322359025478, 0.012216620147228241, -0.00947482232004404, -0.012400636449456215, 0.0041290465742349625, 0.00804041512310505, -0.011048546060919762, -0.009218940511345863, -0.010314492508769035, -0.0105929896235466, -0.010067480616271496, -0.010519769042730331, -0.008228427730500698, -0.012526326812803745, 0.008731387555599213, 0.011575299315154552, -0.00937916710972786, 0.007499994710087776, -0.009020424447953701, -0.003907148726284504, -0.0029742212500423193, 0.003979216795414686, -0.011044601909816265, 0.0071796574629843235, -0.011830074712634087, 0.01213853619992733, -0.00423922436311841, -0.007381137926131487, -0.011048857122659683, -0.004450717009603977, 0.00848418939858675, 0.009641343727707863, -0.011312036775052547, -0.010288195684552193, -0.0034494472201913595, 0.0052786716260015965], [-0.002715224865823984, 0.003019442083314061, -0.0025051110424101353, 0.004726376850157976, -0.0033457204699516296, 0.004530234728008509, 0.004186728503555059, 0.0035830268170684576, 0.001707078772597015, 0.004155455622822046, 0.016742363572120667, 0.005661251954734325, -0.0028994230087846518, -0.005920927040278912, -0.004454378038644791, -0.0038549716118723154, 0.004294202663004398, 0.002984215971082449, 0.004714320879429579, 0.0028719722758978605, -0.0044878278858959675, -0.004677108954638243, -0.002934519900009036, 0.0032314013224095106, -0.020789630711078644, 0.005778918508440256, -0.003313242457807064, -0.004592574201524258, -0.00436575710773468, 0.0034704585559666157, -0.003274235175922513, 0.0032058986835181713, -0.0031454036943614483, 0.003429552773013711, 0.00284727755934, 0.0028333619702607393, -0.004718014504760504, 0.002913320902734995, -0.0032294844277203083, -0.009338751435279846, -0.002983193611726165, 0.005360773764550686, -0.004691556096076965, 0.001602762727998197, -0.0016941106878221035, 0.005010964348912239, -0.003041459247469902, -0.004451206419616938, 0.0015258531784638762, 0.003126053838059306, -0.0025473854038864374, 0.0024603677447885275, -0.003081737784668803, 0.028084771707654, -0.0018315077759325504, -0.002933000447228551, -0.0035140712279826403, 0.0031739003024995327, -0.004348298534750938, -0.0030618098098784685, -0.0039936876855790615, -0.003927408251911402, -0.002700356999412179, -0.0033936614636331797, -0.0017002411186695099, 0.004380198195576668, 0.0014745080843567848, 0.0031432986725121737, -0.0019241044064983726, 0.003988238051533699, -0.0017217581626027822, 0.0032324453350156546, -0.004362222272902727, 0.005780959036201239, -0.0016206861473619938, -0.004506198223680258, -0.00478461105376482, 0.0021725697442889214, 0.004304421599954367, 0.004722274374216795, -0.0020890473388135433, -0.0025956302415579557, -0.0036798338405787945, -0.002086471766233444, -0.0018037332920357585, -0.005324782803654671, -0.006390814669430256, 0.04226357489824295, -0.01947084441781044, 0.003285104176029563, 0.00479156244546175, 0.004256649408489466, -0.00654789712280035, 0.0027148458175361156, -0.001681841560639441, -0.0033666780218482018, 0.003268978325650096, 0.0024847101885825396, -0.004407999571412802, -0.002275398001074791, -0.0025681746192276478, -0.0032018302008509636, -0.006562022492289543, -0.003318836446851492, -0.00335121457464993, -0.004526273813098669, 0.0016810933593660593, 0.0035372059792280197, -0.004424567334353924, 0.0017385510727763176, -0.0027217636816203594, -0.002705371705815196, -0.004662018734961748, 0.006646867375820875, -0.0044346582144498825, 0.003461696906015277, -0.003584427060559392, 0.003258890938013792, -0.003886832855641842, -0.0014755554730072618, -0.0024524338077753782, -0.004958730190992355, 0.00341224018484354, 0.0015727280406281352, -0.0029622812289744616, -0.0026536197401583195, -0.0034595325123518705, 0.004869422409683466], [-0.024533864110708237, 0.003871774300932884, -0.017456328496336937, 0.022602230310440063, -0.026292268186807632, 0.020365949720144272, 0.020705057308077812, 0.020834429189562798, 0.027493726462125778, 0.023421000689268112, 0.0069716861471533775, 0.023798437789082527, -0.004864245653152466, -0.021439678966999054, -0.026124797761440277, -0.02513691410422325, 0.028916306793689728, 0.004115902353078127, 0.023008912801742554, 0.020589573308825493, -0.01987365074455738, -0.02439076639711857, -0.01745552569627762, 0.005755727645009756, -0.02377566322684288, 0.0037919029127806425, -0.02882288582623005, -0.019802609458565712, -0.0041992818005383015, 0.022835996001958847, -0.022253654897212982, 0.010717449709773064, -0.004169282503426075, 0.02572997473180294, 0.005571664776653051, 0.004855155013501644, -0.0047792778350412846, 0.020874325186014175, -0.005040830001235008, -0.01038485299795866, -0.0206755343824625, 0.004873430822044611, -0.01891583390533924, 0.026073114946484566, -0.027783457189798355, 0.00619871960952878, -0.019767632707953453, -0.029060155153274536, 0.004380774684250355, 0.02601579576730728, -0.027367688715457916, 0.005516115576028824, -0.00392732722684741, 0.011248013004660606, -0.017903927713632584, -0.004945788066834211, -0.02286730892956257, 0.023269787430763245, -0.021093951538205147, -0.011728368699550629, -0.005285168997943401, -0.004584558308124542, -0.02212301269173622, -0.00450418796390295, -0.021945413202047348, 0.020463062450289726, 0.02227691374719143, 0.025630442425608635, -0.0056131761521101, 0.026340089738368988, -0.02077666111290455, 0.024702513590455055, -0.01747780665755272, 0.012959136627614498, -0.006516514346003532, -0.020816408097743988, -0.004771934822201729, 0.016221823170781136, 0.0045317369513213634, 0.026621626690030098, -0.005863963160663843, -0.0040722377598285675, -0.022011572495102882, -0.01977725327014923, -0.022928819060325623, -0.005018930416554213, -0.006666508503258228, 0.016966968774795532, -0.010140692815184593, 0.023847157135605812, 0.02783571369946003, 0.00496525876224041, -0.0055182455107569695, 0.023774858564138412, -0.022541165351867676, -0.01938629522919655, 0.024291878566145897, 0.004068934824317694, -0.004446692299097776, -0.016435645520687103, -0.017104165628552437, -0.01989983767271042, -0.005983006674796343, -0.02869868278503418, -0.02200598642230034, -0.005772460717707872, 0.02214764431118965, 0.017541667446494102, -0.018065765500068665, 0.025165801867842674, -0.022154973819851875, -0.027680769562721252, -0.014859967865049839, 0.0233108252286911, -0.022134363651275635, 0.023693902418017387, -0.018604878336191177, 0.02417192980647087, -0.004820834845304489, -0.021485917270183563, -0.02260410413146019, -0.024820849299430847, 0.020246801897883415, 0.00613641832023859, -0.02099642902612686, -0.02486875094473362, -0.023814070969820023, 0.021756606176495552], [0.0033724098466336727, -0.009777353145182133, 0.009016189724206924, -0.0019256594823673368, 0.0016639453824609518, -0.0038032878655940294, -0.009444431401789188, -0.007720469497144222, -0.003866727463901043, -0.0047243214212358, -0.011430731043219566, -0.0032475520856678486, 0.0060822139494121075, 0.008934219367802143, 0.0032452077139168978, 0.0031443508341908455, -0.006823016330599785, -0.00480310944840312, -0.008453723974525928, -0.009006441570818424, 0.0041124336421489716, 0.0028616171330213547, 0.008566085249185562, -0.004853338468819857, 0.004571452736854553, -0.009535511024296284, 0.0035378546454012394, 0.0028746267780661583, 0.005732095800340176, -0.005999480374157429, 0.007016327697783709, -0.0028748386539518833, 0.004922289401292801, -0.0026441027875989676, -0.008280771784484386, -0.004117476288229227, 0.0019890740513801575, -0.007086337544023991, 0.00563623895868659, 0.009869287721812725, 0.0008717083255760372, -0.004115464631468058, 0.0105813667178154, -0.006167284213006496, 0.0040312157943844795, -0.006241369992494583, 0.007823615334928036, 0.003250498091802001, -0.006268113851547241, -0.0061416965909302235, 0.0036294409073889256, -0.007042786106467247, 0.0031650986056774855, -0.009400098584592342, 0.0040374016389250755, 0.009676783345639706, 0.00808770302683115, -0.010111304931342602, 0.006446578074246645, 0.01109938696026802, 0.004047800321131945, 0.0076201376505196095, 0.0032463569659739733, 0.007494194433093071, 0.008034183643758297, -0.0050680371932685375, -0.004920518025755882, -0.0031567716505378485, 0.00363811943680048, -0.0008482704870402813, 0.0051664630882442, -0.006779923103749752, 0.006839273031800985, -0.007243284024298191, 0.004902920685708523, 0.005955858621746302, 0.00779853668063879, -0.0037302765995264053, -0.0046829297207295895, -0.003843986662104726, 0.0037145703099668026, 0.006978978402912617, 0.00294756842777133, 0.007808171212673187, 0.006193686742335558, 0.009690776467323303, 0.005327707622200251, -0.008393377996981144, 0.008452300913631916, -0.0035568270832300186, -0.0020620771683752537, -0.005563648883253336, 0.003768474794924259, -0.009656725451350212, 0.007077154703438282, 0.0037184676621109247, -0.003981997724622488, -0.007475210819393396, 0.006610849406570196, 0.012114389799535275, 0.008656381629407406, 0.007919696159660816, 0.006588958203792572, 0.005677943583577871, 0.006132908631116152, 0.0027098332066088915, -0.007274477276951075, -0.008864699862897396, 0.0028762866277247667, -0.0037129383999854326, 0.005325820297002792, 0.0015070788795128465, 0.0028478859458118677, -0.004475820809602737, 0.004745719954371452, -0.0014698089798912406, 0.0028172170277684927, -0.004869659896939993, 0.0028751215431839228, 0.003085220931097865, 0.002417550189420581, 0.004596552345901728, -0.007600962650030851, -0.0030777952633798122, 0.009409618563950062, 0.004649605602025986, 0.004500589333474636, -0.003663052571937442], [0.01658777706325054, -0.003713160054758191, 0.014028757810592651, -0.01190708763897419, 0.004391155205667019, -0.0068165273405611515, -0.01651129312813282, -0.014244956895709038, -0.004785222001373768, -0.016618533059954643, -0.012326475232839584, -0.013497116044163704, 0.013603154569864273, 0.015870237722992897, 0.013428790494799614, 0.011952348053455353, -0.016169289126992226, -0.0035531201865524054, -0.017124304547905922, -0.009831154718995094, 0.004202180542051792, 0.014016338624060154, 0.013179183006286621, -0.019218867644667625, 0.008768264204263687, -0.013468184508383274, 0.013340696692466736, 0.010298865847289562, 0.016361480578780174, -0.0038828107062727213, 0.01583227701485157, -0.004112881142646074, 0.005171711090952158, -0.018158338963985443, -0.013141901232302189, -0.010546199046075344, 0.013580716215074062, -0.004126966930925846, 0.016867920756340027, 0.011297653429210186, 0.01585943065583706, -0.015329230576753616, 0.014825808815658092, -0.01567157730460167, 0.017259646207094193, -0.014882409013807774, 0.014389337971806526, 0.004474962595850229, -0.014967910014092922, -0.0185609832406044, 0.01038237102329731, -0.014631882309913635, 0.014034640043973923, -0.007295313756912947, 0.015979716554284096, 0.013422725722193718, 0.013550490140914917, -0.015880519524216652, 0.014467488043010235, 0.011625662446022034, 0.015520474873483181, 0.009169104509055614, 0.013516142964363098, 0.004391585476696491, 0.0163322351872921, -0.012850075028836727, -0.003558180294930935, -0.016857435926795006, 0.004480098839849234, -0.01677800714969635, 0.015589163638651371, -0.016018781810998917, 0.01630060002207756, -0.0037600488867610693, 0.01655520871281624, 0.014370264485478401, 0.013326942920684814, -0.015310365706682205, -0.01780146174132824, -0.015481728129088879, 0.014571360312402248, 0.01507552620023489, 0.004230591468513012, 0.004615007899701595, 0.016877898946404457, 0.013534157536923885, 0.008605820126831532, -0.0006315151695162058, 0.00960421934723854, -0.015160075388848782, -0.014853589236736298, -0.016712570562958717, 0.0077072372660040855, -0.0032267854548990726, 0.015901027247309685, 0.0041128057055175304, -0.005683045834302902, -0.016509369015693665, 0.003982153255492449, 0.003378251800313592, 0.015164599753916264, 0.01398308016359806, 0.003801774000748992, 0.0042690192349255085, 0.014181133359670639, 0.004778404254466295, -0.005381720140576363, -0.015630239620804787, 0.01290260348469019, -0.0072900885716080666, 0.01019200962036848, 0.013967206701636314, 0.00392457190901041, -0.01809760369360447, 0.014609473757445812, -0.01358040887862444, 0.01532976794987917, -0.01484723947942257, 0.0040488941594958305, 0.013963259756565094, 0.016449347138404846, 0.012259405106306076, -0.014022774994373322, -0.015846410766243935, 0.016307497397065163, 0.00407227361574769, 0.013831092044711113, -0.016430234536528587], [-0.01445572730153799, 0.014848011545836926, -0.011301078833639622, 0.004177260212600231, -0.01021053921431303, 0.003913432825356722, 0.017365919426083565, 0.014111265540122986, 0.010816882364451885, 0.012268607504665852, 0.007651430554687977, 0.015892241150140762, -0.01356413122266531, -0.00992805790156126, -0.014101948589086533, -0.00494709238409996, 0.01570005528628826, 0.013510879129171371, 0.01357976719737053, 0.014079980552196503, -0.013024025596678257, -0.011508159339427948, -0.007446028757840395, 0.017658865079283714, -0.005817045923322439, 0.012500847689807415, -0.00983542948961258, -0.011257736012339592, -0.003852849593386054, 0.014428909868001938, -0.006594903767108917, 0.013319935649633408, -0.015502337366342545, 0.0036594343837350607, 0.014554094523191452, 0.005917907226830721, -0.0120429378002882, 0.012443335726857185, -0.013922827318310738, -0.01039816066622734, -0.0045643579214811325, 0.014916151762008667, -0.0050199562683701515, 0.017071587964892387, -0.014330136589705944, 0.007672105450183153, -0.012900886125862598, -0.015118185430765152, 0.003835922572761774, 0.01663151942193508, -0.013899550773203373, 0.015664832666516304, -0.014621416106820107, 0.01112473662942648, -0.008822900243103504, -0.005185248330235481, -0.013611067086458206, 0.013280228711664677, -0.006033827550709248, -0.01183315273374319, -0.01439841091632843, -0.012517844326794147, -0.014424961060285568, -0.016387376934289932, -0.017416080459952354, 0.0039650388062000275, 0.003458357648923993, 0.01715022511780262, -0.012510139495134354, 0.003969715442508459, -0.014098230749368668, 0.013638765551149845, -0.009237399324774742, 0.011470690369606018, -0.004981704987585545, -0.013089161366224289, -0.01377805881202221, 0.004714508540928364, 0.0038498903159052134, 0.01414430234581232, -0.014170043170452118, -0.015133408829569817, -0.004049934446811676, -0.010950649157166481, -0.016374964267015457, -0.014011448249220848, -0.014255265705287457, 0.009352868422865868, -0.008886745199561119, 0.010983588173985481, 0.014433632604777813, 0.011689365841448307, -0.0131156537681818, 0.018292540684342384, -0.015076018869876862, -0.016580872237682343, 0.013105160556733608, 0.016400020569562912, -0.004179882816970348, -0.014097698964178562, -0.012354647740721703, -0.015452360734343529, -0.0038725524209439754, -0.017864469438791275, -0.01105353981256485, -0.003665612079203129, 0.004038151353597641, 0.012566839344799519, -0.012982293032109737, 0.014626122079789639, -0.011245906352996826, -0.010525994934141636, -0.012281554751098156, 0.012960102409124374, -0.0037847240455448627, 0.013194321654736996, -0.002967673819512129, 0.014599397778511047, -0.018699662759900093, -0.01539673563092947, -0.014296574518084526, -0.011052113957703114, 0.010797722265124321, 0.003436559811234474, -0.015019649639725685, -0.015170613303780556, -0.0035705664195120335, 0.015578890219330788], [0.01698790304362774, -0.01541501097381115, 0.013847802765667439, -0.016202468425035477, 0.004336155951023102, -0.015564470551908016, -0.0031757508404552937, -0.01665220782160759, -0.0055209556594491005, -0.015579571947455406, -0.00640219496563077, -0.016939619556069374, 0.016496535390615463, 0.015142550691962242, 0.004888490773737431, 0.014311128295958042, -0.004011155106127262, -0.015453057363629341, -0.0036840676330029964, -0.017723210155963898, 0.017521824687719345, 0.004590758588165045, 0.014725356362760067, -0.012132269330322742, 0.009937845170497894, -0.015033849515020847, 0.018452772870659828, 0.0049196030013263226, 0.0036822110414505005, -0.01564907468855381, 0.0176229365170002, -0.005267688538879156, 0.016437148675322533, -0.0206057820469141, -0.004460456781089306, -0.01631087251007557, 0.015276585705578327, -0.014997308142483234, 0.017061345279216766, 0.010016297921538353, 0.0039176298305392265, -0.01181705016642809, 0.01377728208899498, -0.017506996169686317, 0.020009098574519157, -0.011505186557769775, 0.0034712832421064377, 0.02173769287765026, -0.011387307196855545, -0.02089822292327881, 0.011707204394042492, -0.016168907284736633, 0.016885684803128242, -0.009643925353884697, 0.004357985220849514, 0.01075979694724083, 0.004124458413571119, -0.010520038194954395, 0.017189081758260727, 0.00933761801570654, 0.0037209053989499807, 0.016511837020516396, 0.007337894290685654, 0.015874607488512993, 0.008486846461892128, -0.01698746345937252, -0.003741149790585041, -0.004359335172921419, 0.01840817928314209, -0.00390014355070889, 0.016962386667728424, -0.014262566342949867, 0.013683997094631195, -0.01195343118160963, 0.005965135060250759, 0.014326540753245354, 0.013747329823672771, -0.003706535790115595, -0.014902470633387566, -0.004572966136038303, 0.015621587634086609, 0.004538435488939285, 0.013746604323387146, 0.014829833060503006, 0.0157646331936121, 0.008853685110807419, 0.018685247749090195, -0.01175362803041935, 0.008959244936704636, -0.017532872036099434, -0.015413198620080948, -0.011561696417629719, 0.016752691939473152, -0.003862275741994381, 0.018423769623041153, 0.017298629507422447, -0.016075368970632553, -0.014087396673858166, 0.0038630031049251556, 0.003224459243938327, 0.015098784118890762, 0.01369343139231205, 0.004042316228151321, 0.018200097605586052, 0.016620051115751266, 0.01817598193883896, -0.015944818034768105, -0.014249436557292938, 0.003059685230255127, -0.01732032559812069, 0.016046226024627686, 0.009517265483736992, 0.012397365644574165, -0.004816860426217318, 0.015940910205245018, -0.013369042426347733, 0.015359233133494854, -0.003920906223356724, 0.004327228292822838, 0.017156997695565224, 0.01857909746468067, 0.01439489983022213, -0.016038253903388977, -0.01565582863986492, 0.01825718954205513, 0.01659916527569294, 0.018158933147788048, -0.004623339977115393], [-0.030138449743390083, 0.030060963705182076, -0.023868095129728317, 0.03903920203447342, -0.03045179881155491, 0.035671304911375046, 0.023520877584815025, 0.033976949751377106, 0.03671391308307648, 0.03340744227170944, 0.010014239698648453, 0.004619858227670193, -0.02744484320282936, -0.00394482584670186, -0.038749560713768005, -0.012067407369613647, 0.004661298356950283, 0.03309359773993492, 0.016665469855070114, 0.02978234738111496, -0.0352717749774456, -0.005251946393400431, -0.026273313909769058, 0.034850504249334335, -0.006390843074768782, 0.025745965540409088, -0.009733015671372414, -0.005633158143609762, -0.0350012369453907, 0.03817057982087135, -0.007611150853335857, 0.004099005833268166, -0.004360831342637539, 0.0038592324126511812, 0.008662539534270763, 0.03467830643057823, -0.036284927278757095, 0.03467995673418045, -0.03782559558749199, -0.0091006550937891, -0.039592254906892776, 0.04051213711500168, -0.005482797976583242, 0.004338676575571299, -0.04281441867351532, 0.024329205974936485, -0.033623386174440384, -0.0404290035367012, 0.03681604191660881, 0.030799707397818565, -0.03828772157430649, 0.032693177461624146, -0.01656355895102024, 0.009670911356806755, -0.032452236860990524, -0.01833830401301384, -0.004585934802889824, 0.03290374577045441, -0.0067369770258665085, -0.01693166047334671, -0.03494569659233093, -0.004441599827259779, -0.03162496164441109, -0.03402436524629593, -0.003965216688811779, 0.03202148154377937, 0.004319401457905769, 0.034627269953489304, -0.014646688476204872, 0.03816556930541992, -0.005260644946247339, 0.03659459948539734, -0.029519036412239075, 0.013094142079353333, -0.03921045735478401, -0.022925546392798424, -0.030677717179059982, 0.010809572413563728, 0.03109234757721424, 0.034325338900089264, -0.018476884812116623, -0.004295568913221359, -0.004793746396899223, -0.02498074620962143, -0.03570876643061638, -0.02489049732685089, -0.030156604945659637, 0.01484511885792017, -0.009542283602058887, 0.02992076799273491, 0.04210331290960312, 0.033159803599119186, -0.031976696103811264, 0.007936326786875725, -0.027020232751965523, -0.03233840689063072, 0.0409066267311573, 0.027301685884594917, -0.004231397528201342, -0.007345775607973337, -0.022399798035621643, -0.004413288552314043, -0.0043056984432041645, -0.033555351197719574, -0.004926587920635939, -0.03029564395546913, 0.037447791546583176, 0.031521253287792206, -0.024946505203843117, 0.0045271883718669415, -0.03895130380988121, -0.03821372240781784, -0.003372960025444627, 0.03411424160003662, -0.01205945573747158, 0.036833371967077255, -0.02464037947356701, 0.035384587943553925, -0.013252213597297668, -0.027146514505147934, -0.0348336286842823, -0.00731890881434083, 0.024832049384713173, 0.03143279626965523, -0.030683578923344612, -0.037373870611190796, -0.005457545630633831, 0.03443613275885582], [0.017083248123526573, -0.01747710257768631, 0.014249847270548344, -0.014613240025937557, 0.010717634111642838, -0.014652309007942677, -0.020357035100460052, -0.015552576631307602, -0.012436669319868088, -0.011657476425170898, -0.011118046939373016, -0.015054219402372837, 0.003988457378000021, 0.01634780317544937, 0.012850706465542316, 0.01357937790453434, -0.018859738484025, -0.016965709626674652, -0.01666591875255108, -0.003113152226433158, 0.014596848748624325, 0.011184783652424812, 0.0036311966832727194, -0.008354750461876392, 0.008615372702479362, -0.013764819130301476, 0.012594264931976795, 0.011671430431306362, 0.004515976179391146, -0.003931885585188866, 0.004687996115535498, -0.01997426711022854, 0.003538417397066951, -0.02110263705253601, -0.018006712198257446, -0.003863877383992076, 0.004341389052569866, -0.013389908708631992, 0.004014180041849613, 0.011329852975904942, 0.015573257580399513, -0.00881818775087595, 0.01536492072045803, -0.013285200111567974, 0.01680089347064495, -0.014163564890623093, 0.003914112225174904, 0.003872872097417712, -0.009561519138514996, -0.0036585782654583454, 0.011522188782691956, -0.017977705225348473, 0.01718657650053501, -0.007203543558716774, 0.003843321232125163, 0.015944212675094604, 0.0037225638516247272, -0.004099185578525066, 0.016292553395032883, 0.00525734294205904, 0.018821891397237778, 0.011861500330269337, 0.014552520588040352, 0.01535243820399046, 0.016581153497099876, -0.016140269115567207, -0.01565929315984249, -0.004660330712795258, 0.004301679320633411, -0.00911381933838129, 0.014786436222493649, -0.014941472560167313, 0.011898321099579334, -0.010917234234511852, 0.004220344591885805, 0.01441627461463213, 0.014103686437010765, -0.018114926293492317, -0.015822743996977806, -0.0072905560955405235, 0.004356230143457651, 0.018248405307531357, 0.016079416498541832, 0.012495085597038269, 0.014928627759218216, 0.004386214539408684, 0.005167475435882807, -0.0033910409547388554, 0.009397954680025578, -0.016216546297073364, -0.016232289373874664, -0.004104157444089651, 0.006068570539355278, -0.020417362451553345, 0.017526883631944656, 0.0039207832887768745, -0.016438409686088562, -0.018476523458957672, 0.019769880920648575, 0.00473761698231101, 0.016778096556663513, 0.0035746258217841387, 0.015316112898290157, 0.003671246347948909, 0.013421637006103992, 0.014199335128068924, -0.017321182414889336, -0.016673477366566658, 0.014968708157539368, -0.018528230488300323, 0.0037447523791342974, 0.0050517418421804905, 0.014356600120663643, -0.011221966706216335, 0.01650652289390564, -0.010006183758378029, 0.019536200910806656, -0.0048394575715065, 0.016897426918148994, 0.015575554221868515, 0.005210294853895903, 0.016983168199658394, -0.0035357463639229536, -0.01679662987589836, 0.01889464631676674, 0.017483651638031006, 0.01818894036114216, -0.004276439547538757], [0.004381977021694183, -0.0078610610216856, 0.007270716596394777, -0.0003664101823233068, 0.00327281909994781, -0.004649024456739426, -0.004890452604740858, -0.002911807969212532, -0.0016605568816885352, -0.0018472755327820778, -0.007402318529784679, -0.0010693835793063045, 0.007645879872143269, 0.00791251938790083, 0.0020231741946190596, 0.003428814234212041, -0.00043326319428160787, -0.004254730883985758, -0.0036710696294903755, -0.005995515733957291, 0.005940659437328577, 0.003316359594464302, 0.002795933047309518, -0.0010362626053392887, 0.0039605372585356236, -0.008094529621303082, 0.007032427005469799, 0.0038647139444947243, 0.006343118380755186, -0.0020108793396502733, 0.004142786376178265, -0.0048620086163282394, 0.0050051212310791016, -0.002651358488947153, -0.0034699190873652697, -0.0003469939692877233, 0.0015005541499704123, -0.002519697416573763, 0.0024805362336337566, 0.009316947311162949, 0.0005254725110717118, -0.003042733296751976, 0.003744418267160654, -0.0022286756429821253, 0.00498045701533556, -0.002917051315307617, 0.003201547544449568, 0.0031766300089657307, -0.005484124179929495, -0.0026688717771321535, 0.002577257575467229, -0.003745198482647538, 0.0067731402814388275, -0.009402809664607048, 0.0017321365885436535, 0.002705327235162258, 0.0025280641857534647, -0.005763375200331211, 0.00399530166760087, 0.0032869339920580387, 0.005808250047266483, 0.002057572826743126, 0.002162488643079996, 0.00386175699532032, 0.006430208683013916, -0.005179692525416613, -0.004643866326659918, -0.003374116960912943, 0.0018103538313880563, -0.0014399327337741852, 0.005138177890330553, -0.0051653459668159485, 0.008138836361467838, -0.009596386924386024, 0.0003940969763789326, 0.0030844705179333687, 0.002813217230141163, -0.002599873347207904, -0.005276645068079233, -0.0005808654241263866, 0.002239174209535122, 0.004674283787608147, 0.0033318165224045515, 0.005390424281358719, 0.0015189351979643106, 0.0034334147348999977, 0.009192426688969135, -0.006980754900723696, 0.00974905677139759, -0.0006402605795301497, -0.00415624026209116, -0.0027931900694966316, 0.0017947036540135741, -0.005852472502738237, 0.0022803330793976784, 0.0031788272317498922, -0.002698025666177273, -0.0070150368846952915, 0.00579759432002902, 0.008213604800403118, 0.007559543941169977, 0.00454547768458724, 0.004153040703386068, 0.0026971350889652967, 0.002828612457960844, 0.0027125827036798, -0.003909571561962366, -0.0033776857890188694, 0.007440241053700447, -0.001828986220061779, 0.0014907075092196465, 0.003957090433686972, 0.009081759490072727, -0.004354060627520084, 0.0024742286186665297, -0.0022615764755755663, 0.006608397234231234, -0.0029183009173721075, 0.003345432924106717, 0.004495394416153431, 0.002071967115625739, 0.0006850027129985392, -0.005729741416871548, -0.005701183807104826, 0.006425888277590275, 0.0011722305789589882, 0.0069027491845190525, -0.0031305234879255295], [0.003353346139192581, -0.008729372173547745, 0.0031185008119791746, -0.003408206859603524, 0.003401540219783783, -0.0020495194476097822, -0.008500873111188412, -0.002734874840825796, -0.003628949634730816, -0.003059424925595522, -0.009497961029410362, -0.0025407506618648767, 0.0025409935042262077, 0.007475899998098612, 0.003553555579856038, 0.00317804585210979, -0.003107383381575346, -0.006614437326788902, -0.0029350242111831903, -0.008114020340144634, 0.0030836332589387894, 0.003302330384030938, 0.0054677571170032024, -0.0015329935122281313, 0.003824292216449976, -0.007220497354865074, 0.0008254926069639623, 0.003885494312271476, 0.003322426462545991, -0.002991005778312683, 0.0023550211917608976, -0.005966512486338615, 0.005439803469926119, -0.006327331066131592, -0.004082826431840658, -0.0032141089905053377, 0.0001334152912022546, -0.0029930484015494585, 0.001362595590762794, 0.007667511701583862, 0.003066346747800708, -0.0022547603584825993, 0.0033457931131124496, -0.002345144748687744, 0.0012354572536423802, -0.005221479572355747, 0.006481446325778961, 0.002967371605336666, -0.004621707368642092, -0.0033281282521784306, 0.003120988141745329, -0.006426451727747917, 0.009413931518793106, -0.009813658893108368, 0.0038804677315056324, 0.008957135491073132, 0.0032562599517405033, -0.009519549086689949, 0.0018264532554894686, 0.007111987564712763, 0.0030160590540617704, 0.004725051578134298, 0.0022599538788199425, 0.003062149975448847, 0.0038589457981288433, -0.00483621284365654, -0.0033294453751295805, -0.002776975743472576, 0.002910781651735306, -0.0031858913134783506, 0.0019899329636245966, -0.0022683655843138695, 0.0038565550930798054, -0.0113217206671834, 0.0029153728391975164, 0.0031217343639582396, 0.0032522694673389196, -0.007015349343419075, -0.0031654760241508484, -0.003494399366900325, 0.0009407551842741668, 0.003311863634735346, 0.002872656797990203, 0.0031791934743523598, 0.004179253708571196, 0.00749785453081131, 0.002097679767757654, -0.001980285393074155, 0.009651468135416508, -0.0020526270382106304, -0.002553963800892234, -0.0025502201169729233, 0.0026381348725408316, -0.010544282384216785, 0.006898898631334305, 0.00631086528301239, -0.003506588051095605, -0.008771197870373726, 0.0031716786324977875, 0.009311024099588394, 0.009824742563068867, 0.0037765016313642263, 0.0034170793369412422, 0.0017782129580155015, 0.0020148600451648235, 0.0005660727620124817, -0.004133820068091154, -0.003087733406573534, 0.003327705431729555, -0.0011528831673786044, 0.0026880488730967045, 0.0014729248359799385, 0.0030052983202040195, -0.0033174685668200254, 0.0021239537745714188, -0.003698179963976145, 0.013717442750930786, -0.003826921572908759, 0.002730846405029297, 0.003080357564613223, 0.003252956783398986, 0.0036413685884326696, -0.0024623742792755365, -0.0029654293321073055, 0.0029312842525541782, 0.0016664265422150493, 0.002815794199705124, -0.0035484195686876774], [-0.0013874911237508059, 0.0012211642460897565, -0.002936156466603279, 0.0030600980389863253, -0.008662388660013676, 0.0029005103278905153, 0.0015278264181688428, 0.00046126748202368617, 0.003313728142529726, 0.0015862667933106422, 0.009706448763608932, 0.0028462877962738276, -0.00201701233163476, -0.0024203802458941936, -0.0033072917722165585, -0.0027705973479896784, 0.006845376454293728, 0.0008115957607515156, 0.0006943725165911019, 0.0006083309999667108, -0.0029455453623086214, -0.003291012719273567, -0.0003650504513643682, 0.002603627508506179, -0.0005063905846327543, 0.003909907769411802, -0.005106380209326744, -0.0022057900205254555, -0.00109713280107826, 0.010079347528517246, -0.0029288334771990776, 0.0020161832217127085, -0.0028590240981429815, 0.00882748607546091, 0.0036944514140486717, 0.0029794841539114714, -0.0009042503661476076, 0.0004644522559829056, -0.002704859711229801, -0.00803825818002224, -0.004354904405772686, 0.002816247520968318, -0.003119006985798478, 0.002966867294162512, -0.003762525040656328, 0.002538143889978528, -0.0024935537949204445, -0.0026681951712816954, 0.002123435726389289, 0.002870228374376893, -0.009519925341010094, 0.0024045242462307215, -0.003794535528868437, 0.007472877856343985, -0.0031005661003291607, -0.0021373722702264786, -0.002556814579293132, 0.0022871496621519327, -0.0013209119206294417, -0.005083593539893627, -0.0021786829456686974, -0.001939157024025917, -0.0007610733155161142, -0.002844057511538267, -0.0023918054066598415, 0.0027988837100565434, 0.0024594648275524378, 0.002060387982055545, -0.0032418917398899794, 0.012126538902521133, -0.002862306544557214, 0.0029937669169157743, -0.0009447606280446053, 0.003599977819249034, -0.009367575868964195, -0.0031503618229180574, -0.0007928789127618074, 0.002467269543558359, 0.004822541959583759, 0.0008348774281330407, -0.0030628524255007505, -0.0014265116769820452, -0.0026716040447354317, -0.003433678299188614, -0.0017207429045811296, -0.00019884829816874117, -0.002881815657019615, 0.006203862372785807, -0.006363240536302328, 0.0024714511819183826, 0.003796895034611225, 0.003125917399302125, -0.007188732735812664, 0.0012134050484746695, -0.0024993442930281162, -0.002995150862261653, 0.002021915279328823, 0.0005417617503553629, -0.0027955288533121347, -0.007253818679600954, -0.004202505573630333, -0.001799161545932293, -0.0009512732503935695, -0.002441879129037261, -0.0027470956556499004, -0.0030548374634236097, 0.0005588159547187388, 0.001921669114381075, -0.0015870322240516543, 0.009018033742904663, -0.0026157584507018328, -0.01097115408629179, -0.00248344917781651, 0.002489621751010418, -0.0028085748199373484, 0.003608271712437272, -0.0023973453789949417, 0.0008080290863290429, -0.0030082250013947487, -0.0014025344280526042, -0.002105482155457139, -0.006826687138527632, 0.001866749837063253, 0.00252188416197896, -0.0008894153288565576, -0.002384124556556344, -0.002507285214960575, 0.00513535737991333], [0.005274245981127024, -0.0014579235576093197, 0.0031316508539021015, -0.013502187095582485, 0.002323617460206151, -0.011089184321463108, -0.00219938182272017, -0.0010018969187512994, -0.003329769941046834, -0.003408647608011961, -0.0103123988956213, -0.002505551092326641, 0.002983163809403777, 0.004884475376456976, 0.003814252559095621, 0.003202123800292611, -0.0005224246415309608, -0.0030634545255452394, -0.0021198121830821037, -0.0019390112720429897, 0.0003728714946191758, 0.011145168915390968, 0.002266054041683674, -0.0027824388816952705, 0.003023818600922823, -0.003985843621194363, 0.003693514270707965, 0.0038183804135769606, 0.003085292177274823, -0.0024903807789087296, 0.0003744819841813296, -0.002422282239422202, 0.0033326882403343916, -0.0024529430083930492, -0.0013320433208718896, -0.007015119306743145, 0.010881083086133003, -0.003086675424128771, 0.003383200615644455, 0.009218979626893997, 0.005688042379915714, -0.0026769344694912434, 0.0014151862123981118, -0.011311217211186886, 0.010188046842813492, -0.0030696839094161987, 0.007891852408647537, 0.00966881774365902, -0.002799623878672719, -0.0009541775798425078, 0.011174635961651802, -0.0028802664019167423, 0.007284046616405249, -0.011207368224859238, 0.0023334678262472153, 0.007471948396414518, 0.003386067459359765, -0.002242152811959386, 0.003490312723442912, 0.003282130230218172, 0.0025674887001514435, 0.0034127940889447927, 0.0032874904572963715, 0.00204470194876194, 0.00636571878567338, -0.0002803705574478954, -0.008254550397396088, -0.0030659555923193693, 0.0012870372738689184, -0.0026532551273703575, 0.003565229242667556, -0.0006021476001478732, 0.0031156782060861588, -0.0058266641572117805, 0.003235012060031295, 0.0013238373212516308, 0.002309582894667983, -0.008945288136601448, -0.00277578248642385, -0.00838236790150404, 0.003602884942665696, 0.0044175717048347, 0.0018068640492856503, 0.0030373279005289078, 0.0018751632887870073, 0.0038221434224396944, 0.0028509709518402815, -0.0014894051710143685, 0.008671912364661694, -0.002181322779506445, -0.003404603572562337, -0.0007174923666752875, 0.003403943497687578, -0.00034260275424458086, 0.002413662150502205, 0.003265991574153304, -0.011022523045539856, -0.0022129728458821774, 0.008339797146618366, 0.008612711913883686, 0.0027417114470154047, 0.0017755618318915367, 0.0029693134129047394, 0.0005353118176572025, 0.003752775490283966, 0.0034666552674025297, -0.0018977225990965962, -0.006343148183077574, 0.004712545778602362, -0.004827912896871567, 0.0033729143906384706, 0.004673884250223637, 0.01124022901058197, -0.002758209127932787, 0.0015652180882170796, -0.0036880236584693193, 0.0040381671860814095, -0.002885597525164485, 0.0019674578215926886, 0.002224656054750085, 0.0009147229720838368, 0.0034527319949120283, -0.0023087267763912678, -0.00325825740583241, 0.0017596185207366943, 0.0022658640518784523, 0.0027375926729291677, -0.003351903986185789], [-0.009825817309319973, 0.009858949109911919, -0.012069105170667171, 0.006136567797511816, -0.006699580233544111, 0.008585851639509201, 0.003058936446905136, 0.010962861590087414, 0.009379814378917217, 0.0032989459577947855, 0.010672646574676037, 0.01140386238694191, -0.009689095430076122, -0.0037836565170437098, -0.005223753396421671, -0.004004708491265774, 0.009945476427674294, 0.010207071900367737, 0.011313163675367832, 0.011718717403709888, -0.0036623086780309677, -0.008136075921356678, -0.010311242192983627, 0.009684531949460506, -0.006335664074867964, 0.009454372338950634, -0.003013090929016471, -0.004798038396984339, -0.008031748235225677, 0.010459106415510178, -0.012283076532185078, 0.005332250613719225, -0.004756043199449778, 0.003408568911254406, 0.004244733136147261, 0.003958132583647966, -0.005903889890760183, 0.004195397719740868, -0.007955122739076614, -0.008930856361985207, -0.007697426248341799, 0.010382105596363544, -0.010142615996301174, 0.009447706863284111, -0.008080612868070602, 0.00387112726457417, -0.008444073610007763, -0.004016648977994919, 0.010877286083996296, 0.003985659219324589, -0.005872135981917381, 0.010192266665399075, -0.003242416772991419, 0.00785287655889988, -0.007629156578332186, -0.010466963052749634, -0.0035374246072024107, 0.012027447111904621, -0.0038328981027007103, -0.01117574144154787, -0.008615256287157536, -0.004673220217227936, -0.007267965003848076, -0.005543835461139679, -0.010323748923838139, 0.011077580973505974, 0.0033169600646942854, 0.010961644351482391, -0.007558366283774376, 0.0032241945154964924, -0.010061781853437424, 0.009738693945109844, -0.009050372056663036, 0.0035420763306319714, -0.0038425540551543236, -0.0038480539806187153, -0.0042960867285728455, 0.011025819927453995, 0.01090686209499836, 0.004098546225577593, -0.004050651099532843, -0.003443513298407197, -0.0040824804455041885, -0.0051552955992519855, -0.009064089506864548, -0.012322433292865753, -0.006675885058939457, 0.001535037299618125, -0.009811108000576496, 0.0033217058517038822, 0.008848747238516808, 0.0043257251381874084, -0.00384447630494833, 0.013430598191916943, -0.009942653588950634, -0.009609345346689224, 0.008748767897486687, 0.011165141128003597, -0.011335617862641811, -0.012443198822438717, -0.0027671782299876213, -0.003426173934713006, -0.007503550965338945, -0.008592688478529453, -0.004167783074080944, -0.006804782897233963, 0.0034458914306014776, 0.01175464503467083, -0.010769078508019447, 0.009969709441065788, -0.006191026885062456, -0.005231974646449089, -0.0034455307759344578, 0.009907564148306847, -0.003496506717056036, 0.004773946478962898, -0.012857766821980476, 0.0038165608420968056, -0.011805718764662743, -0.0032300420571118593, -0.008269226178526878, -0.0039178538136184216, 0.004564003553241491, 0.003710189601406455, -0.003787342458963394, -0.008242564275860786, -0.01035442017018795, 0.011873764917254448], [0.004281647503376007, -0.006165550090372562, 0.01943684183061123, -0.004515430424362421, 0.004871363285928965, -0.027256760746240616, -0.028759118169546127, -0.004129353445023298, -0.004774591885507107, -0.004589203279465437, -0.006439060904085636, -0.025987502187490463, 0.00746564008295536, 0.017914149910211563, 0.005585953127592802, 0.021916741505265236, -0.03660047426819801, -0.025538325309753418, -0.028685595840215683, -0.0035461087245494127, 0.025576956570148468, 0.006020456086844206, 0.021177759394049644, -0.030085744336247444, 0.011919999495148659, -0.01811697706580162, 0.029826773330569267, 0.01700662262737751, 0.030023351311683655, -0.03331798315048218, 0.022158784791827202, -0.02897799015045166, 0.027128048241138458, -0.033061906695365906, -0.01973710022866726, -0.004652098286896944, 0.02913305163383484, -0.026755979284644127, 0.004616693593561649, 0.011063813231885433, 0.033620622009038925, -0.004984223749488592, 0.015102270990610123, -0.00423799641430378, 0.03204970061779022, -0.020062793046236038, 0.027540644630789757, 0.026120148599147797, -0.030182410031557083, -0.004304165951907635, 0.024267682805657387, -0.02903776243329048, 0.0042312066070735455, -0.010217792354524136, 0.024564605206251144, 0.01621304638683796, 0.025649555027484894, -0.003960575442761183, 0.004399006254971027, 0.015191900543868542, 0.005523979663848877, 0.004150166176259518, 0.02275446429848671, 0.02378697693347931, 0.0038330794777721167, -0.025619007647037506, -0.02676435559988022, -0.0291991475969553, 0.004997173324227333, -0.02846645936369896, 0.004356088116765022, -0.024809744209051132, 0.029502306133508682, -0.007162655238062143, 0.004370221868157387, 0.016883432865142822, 0.004113905131816864, -0.025729017332196236, -0.024024782702326775, -0.027048615738749504, 0.023444944992661476, 0.003580863820388913, 0.004348402842879295, 0.014477169141173363, 0.026829823851585388, 0.018687447533011436, 0.012437775731086731, -0.015732416883111, 0.009285438805818558, -0.008609402924776077, -0.004633021540939808, -0.021514372900128365, 0.005149064119905233, -0.006744084879755974, 0.0035775331780314445, 0.004756017122417688, -0.004143186379224062, -0.0037877464201301336, 0.006645900662988424, 0.014207150787115097, 0.002928387373685837, 0.0038967265281826258, 0.004089666064828634, 0.031052470207214355, 0.021781517192721367, 0.006654640194028616, -0.004086608998477459, -0.026032747700810432, 0.007392503321170807, -0.03275350481271744, 0.02991499751806259, 0.026174576953053474, 0.01432481873780489, -0.0049974266439676285, 0.004821205977350473, -0.022023020312190056, 0.0028643528930842876, -0.024934327229857445, 0.029011884704232216, 0.025471938773989677, 0.0035451301373541355, 0.02718590945005417, -0.02186303399503231, -0.03165725618600845, 0.007016400806605816, 0.025052756071090698, 0.0036804387345910072, -0.025073373690247536], [-0.008734719827771187, 0.010778120718896389, -0.0075612617656588554, 0.003860032418742776, -0.0021573640406131744, 0.009917720220983028, 0.011366194114089012, 0.009244590066373348, 0.0026886826381087303, 0.006566413678228855, 0.009005067870020866, 0.00905088521540165, -0.006118944380432367, -0.011597538366913795, -0.005075540859252214, -0.0036124130710959435, 0.008951522409915924, 0.009700539521872997, 0.010605624876916409, 0.008961416780948639, -0.010516592301428318, -0.002368208719417453, -0.008544077165424824, 0.006144247017800808, -0.0031470204703509808, 0.010814646258950233, -0.002072093775495887, -0.0011789071140810847, -0.012149897404015064, 0.006694572512060404, -0.004586782306432724, 0.009835751727223396, -0.005948818288743496, 0.008403006941080093, 0.0080665098503232, 0.006464729551225901, -0.005161721725016832, 0.00688871880993247, -0.009187592193484306, -0.010416478849947453, -0.0028522529173642397, 0.007323524449020624, -0.010016842745244503, 0.010038654319941998, -0.00628892844542861, 0.007673787884414196, -0.008570327423512936, -0.007369005586951971, 0.0034191198647022247, 0.009271017275750637, -0.0028945710510015488, 0.00994004588574171, -0.012026169337332249, 0.010840055532753468, -0.00628794077783823, -0.009380600415170193, -0.005775735713541508, 0.004617813043296337, -0.009146058931946754, -0.00865508895367384, -0.004073804244399071, -0.008439870551228523, -0.008059878833591938, -0.006781440228223801, -0.008887634612619877, 0.008404133841395378, 0.009564709849655628, 0.010022974573075771, -0.008372812531888485, 0.006925826892256737, -0.003451467724516988, 0.008206452243030071, -0.009277218952775002, 0.006003126502037048, -0.0075729829259216785, -0.0068450975231826305, -0.011378881521522999, 0.009044652804732323, 0.003279606346040964, 0.005337546579539776, -0.007744214963167906, -0.004095656797289848, -0.009978664107620716, -0.004104651976376772, -0.0032674535177648067, -0.010687753558158875, -0.003420537570491433, 0.0017973745707422495, -0.007100237999111414, 0.005134153179824352, 0.009042143821716309, 0.007365265861153603, -0.009067944251000881, 0.010442469269037247, -0.010115513578057289, -0.01056000031530857, 0.008985720574855804, 0.011664604768157005, -0.003395064501091838, -0.009203415364027023, -0.0027913569938391447, -0.0073586078360676765, -0.0034269196912646294, -0.003305368358269334, -0.006957655772566795, -0.003074864624068141, 0.009641912765800953, 0.010521856136620045, -0.009365428239107132, 0.003189248964190483, -0.0032538799569010735, -0.006577281281352043, -0.010242694057524204, 0.0027831916231662035, -0.007967192679643631, 0.00554292555898428, -0.010526537895202637, 0.0035923593677580357, -0.003281115321442485, -0.007531164679676294, -0.010719668120145798, -0.004710148088634014, 0.0030069882050156593, 0.006774942856281996, -0.0030021665152162313, -0.005499450024217367, -0.003413589671254158, 0.005991825833916664], [0.003636664245277643, -0.008218342438340187, 0.008419143967330456, -0.003155946731567383, 0.001552485628053546, -0.005573338363319635, -0.0026228015776723623, -0.0035876005422323942, -0.0049134972505271435, -0.002669499022886157, -0.011547410860657692, -0.0061241681687533855, 0.00748453801497817, 0.00962754525244236, 0.0010533854365348816, 0.005170248448848724, -0.003405782161280513, -0.00893322192132473, -0.003004510886967182, -0.007278478238731623, 0.0068017118610441685, 0.004641047213226557, 0.008450180292129517, -0.0020474018529057503, 0.001586554222740233, -0.00776313804090023, 0.0017859273357316852, 1.2159260222688317e-05, 0.00861644372344017, -0.005623189266771078, 0.0037793219089508057, -0.0036513125523924828, 0.005798530764877796, -0.005744435358792543, -0.0070608085952699184, -0.004469765815883875, 0.0008155585965141654, -0.0048450385220348835, 0.002887779613956809, 0.009722975082695484, 0.001955827232450247, -0.0033437241800129414, 0.005444742739200592, -0.003995313309133053, 0.0031782796140760183, -0.003433611011132598, 0.007370376493781805, 0.0016181053360924125, -0.0038276740815490484, -0.008611148223280907, 0.0032225772738456726, -0.002557324944064021, 0.003684154711663723, -0.008086110465228558, 0.0019681197591125965, 0.007949227467179298, 0.003668522695079446, -0.0029775546863675117, 0.006040371488779783, 0.007413595914840698, 0.002735191024839878, 0.0030613504350185394, 0.0038294717669487, 0.0035388253163546324, 0.005418938118964434, -0.00312983151525259, -0.005514109041541815, -0.0033347816206514835, 0.003392885671928525, -0.0023602889850735664, 0.00730920722708106, -0.0033108277712017298, 0.009193490259349346, -0.009805575013160706, 0.0033263463992625475, 0.006151243578642607, 0.0036561687011271715, -0.0028679880779236555, -0.005564531311392784, -0.005207175388932228, 0.0061207725666463375, 0.0031506698578596115, 0.004713909700512886, 0.0042319223284721375, 0.0035414190497249365, 0.004609552677720785, 0.003679838264361024, -0.008356829173862934, 0.00937533937394619, -0.002445040037855506, -0.003946458920836449, -0.003800701117143035, 0.003515905700623989, -0.007596844807267189, 0.003774693002924323, 0.004334097728133202, -0.002525292569771409, -0.003075768006965518, 0.0051635513082146645, 0.01070229709148407, 0.009856323711574078, 0.0035479608923196793, 0.006890223827213049, 0.0024944606702774763, 0.005387381184846163, 0.005592574831098318, -0.002759306924417615, -0.005835925228893757, 0.002640193561092019, -0.002160596428439021, 0.0039813825860619545, 0.006256540771573782, 0.012092978693544865, -0.004672835115343332, 0.005666282493621111, -0.002797001041471958, 0.009550672955811024, -0.006452489644289017, 0.003478034632280469, 0.0052822246216237545, 0.004957813303917646, 0.0027155131101608276, -0.0037107067182660103, -0.003211859380826354, 0.002798225963488221, 0.0033651310950517654, 0.006978399585932493, -0.006353056523948908], [0.010326228104531765, -0.011938494630157948, 0.007800369057804346, -0.012080916203558445, 0.015079032629728317, -0.011107498779892921, -0.005525095388293266, -0.012910864315927029, -0.012859075330197811, -0.011723794974386692, -0.0011232243850827217, -0.011317731812596321, 0.00952963437885046, 0.009267277084290981, 0.012511399574577808, 0.00909785833209753, -0.009320580400526524, -0.008981569670140743, -0.0073534222319722176, -0.008424406871199608, 0.009077055379748344, 0.013323727995157242, 0.007420324254781008, -0.014732126146554947, 0.011346652172505856, -0.007492320612072945, 0.013216564431786537, 0.014273437671363354, 0.009771637618541718, -0.010763132013380527, 0.007790739182382822, -0.010010754689574242, 0.009143157862126827, -0.009586592204868793, -0.01225829217582941, -0.01058221235871315, 0.012812802568078041, -0.00904648657888174, 0.009675282053649426, 0.0013872931012883782, 0.008913260884582996, -0.01174129731953144, 0.005568003747612238, -0.008171607740223408, 0.011013766750693321, -0.011690189130604267, 0.012796531431376934, 0.010893709026277065, -0.009443655610084534, -0.01301070861518383, 0.011683820746839046, -0.008944675326347351, 0.010986129753291607, -0.0015444797463715076, 0.012459313496947289, 0.003455336904153228, 0.008614315651357174, -0.011010050773620605, 0.008694264106452465, 0.002422875724732876, 0.009768500924110413, 0.014261214062571526, 0.008762558922171593, 0.012962106615304947, 0.011679955758154392, -0.011409624479711056, -0.010513878427445889, -0.009720724076032639, 0.013307876884937286, -0.010853910818696022, 0.013521336950361729, -0.011047202162444592, 0.011836789548397064, -0.007027065381407738, 0.012740439735352993, 0.010622098110616207, 0.010215329006314278, -0.009177877567708492, -0.011884400621056557, -0.011457030661404133, 0.013662189245223999, 0.007688292767852545, 0.012361980974674225, 0.011713187210261822, 0.00862372200936079, 0.009322105906903744, 0.006297897547483444, -0.0017803803784772754, 0.0033331376034766436, -0.007514482364058495, -0.012731537222862244, -0.011262224987149239, 0.018893860280513763, -0.008224635384976864, 0.008739405311644077, 0.008863880299031734, -0.01349111832678318, -0.007089987397193909, 0.010234544053673744, 0.0034764425363391638, 0.006951045710593462, 0.007586917374283075, 0.010879957117140293, 0.009101231582462788, 0.009435387328267097, 0.01070475298911333, -0.010398577898740768, -0.009248551912605762, 0.00896957516670227, -0.010503236204385757, 0.011064499616622925, 0.014410868287086487, 0.005869024898856878, -0.012521461583673954, 0.01120623666793108, -0.014538268558681011, 0.009410473518073559, -0.011296783573925495, 0.010753259062767029, 0.006503566633909941, 0.009000339545309544, 0.015326646156609058, -0.010069907642900944, -0.009824145585298538, 0.00655375374481082, 0.009660362266004086, 0.007030725944787264, -0.016211679205298424], [-0.010274676606059074, 0.009210757911205292, -0.008931446820497513, 0.015613481402397156, -0.014445368200540543, 0.011680115945637226, 0.01040815282613039, 0.013277381658554077, 0.014734182506799698, 0.015946876257658005, 0.0010404093191027641, 0.009974929504096508, -0.01484932005405426, -0.008904711343348026, -0.014296459034085274, -0.015151876024901867, 0.012739012017846107, 0.012260375544428825, 0.012134517543017864, 0.011384899728000164, -0.013606900349259377, -0.010456734336912632, -0.010074911639094353, 0.01076836884021759, -0.007937605492770672, 0.006564318668097258, -0.010847100988030434, -0.017042560502886772, -0.010227947495877743, 0.012024273164570332, -0.00710792513564229, 0.009715612977743149, -0.014344185590744019, 0.01382557861506939, 0.012940065003931522, 0.014456040225923061, -0.010491648688912392, 0.011855615302920341, -0.01673959381878376, -0.0004687272885348648, -0.015565273351967335, 0.014197765849530697, -0.002392136724665761, 0.014201276004314423, -0.011936480179429054, 0.013972889631986618, -0.011265772394835949, -0.009677967056632042, 0.010598578490316868, 0.011836917139589787, -0.010164683684706688, 0.011287002824246883, -0.010181153193116188, 0.0012050701770931482, -0.014866373501718044, -0.0009045000770129263, -0.014533095061779022, 0.011920763179659843, -0.011676542460918427, -2.026484980888199e-05, -0.008721007034182549, -0.01345117762684822, -0.01173032633960247, -0.014270402491092682, -0.011284678243100643, 0.014147140085697174, 0.01215452142059803, 0.014605550095438957, -0.01675831526517868, 0.015790119767189026, -0.014047196134924889, 0.011881905607879162, -0.009612902998924255, 0.021878814324736595, -0.015582057647407055, -0.011736232787370682, -0.009865895844995975, 0.010363739915192127, 0.014858121983706951, 0.011581014841794968, -0.011873705312609673, -0.009369042702019215, -0.01209272537380457, -0.015156440436840057, -0.014073637314140797, -0.0074720680713653564, -0.01159022655338049, 0.0022257158998399973, -0.0026267878711223602, 0.011260091327130795, 0.016813017427921295, 0.012445756234228611, -0.01156121026724577, 0.012112528085708618, -0.011682533659040928, -0.015008759684860706, 0.015327350236475468, 0.008020143024623394, -0.01291273720562458, -0.0025761243887245655, -0.009274897165596485, -0.012886240147054195, -0.013570780865848064, -0.01152972225099802, -0.010668668895959854, -0.010807724669575691, 0.014094341546297073, 0.012519564479589462, -0.01128701027482748, 0.015323433093726635, -0.013807704672217369, -0.013742231763899326, -0.017849627882242203, 0.01675441861152649, -0.013762609101831913, 0.010201292112469673, -0.009994365274906158, 0.009611204266548157, -0.012487681582570076, -0.008662408217787743, -0.013189485296607018, -0.011199526488780975, 0.01126167457550764, 0.013579376973211765, -0.01080766785889864, -0.009339669719338417, -0.014415544457733631, 0.01646733656525612], [-0.009838112629950047, 0.009147855453193188, -0.000965371320489794, 0.011805891990661621, -0.0034173140302300453, 0.011411916464567184, 0.0007687420002184808, 0.010190621018409729, 0.0024361517280340195, 0.010589538142085075, 0.008292277343571186, 0.010573114268481731, -0.0035799862816929817, -0.00368441641330719, -0.0028361224103718996, -0.003249951871111989, 0.012806924059987068, 0.008771869353950024, 0.01127599086612463, 0.0007649713661521673, -0.010568703524768353, -0.010191013105213642, -0.0019595373887568712, 0.013728009536862373, -0.015504656359553337, 0.006100079044699669, -0.01149707566946745, -0.0037540949415415525, -0.00973820686340332, 0.010414493270218372, -3.990403911302565e-06, 0.010197515599429607, -0.009705298580229282, 0.001868378953076899, 0.003435688791796565, 0.011737007647752762, -0.0027279823552817106, 0.010829729959368706, -0.011767358519136906, -0.011033196933567524, -0.010082179680466652, 0.0014626061310991645, -0.0063611846417188644, 0.010408914647996426, -0.014176077209413052, 0.010326433926820755, -0.009227046743035316, -0.01001696940511465, 0.00969158299267292, 0.012138987891376019, -0.01079975813627243, 0.008161363191902637, -0.009098488837480545, 0.015209569595754147, -0.013976352289319038, -0.008499358780682087, -0.010731367394328117, 0.008543732576072216, -0.010803209617733955, -0.0068288748152554035, -0.0022501004859805107, -0.010466396808624268, -0.010065017268061638, -0.012684137560427189, -0.001733710989356041, 0.010642139241099358, 0.0020517620723694563, 0.011122440919280052, -0.005059417802840471, 0.013437552377581596, -0.010905800387263298, 0.011305750347673893, -0.014426705427467823, 0.018156873062253, -0.010776463896036148, -0.003101614536717534, -0.0019484981894493103, 0.009038188494741917, 0.0016693152720108628, 0.001595840323716402, -0.0053964341059327126, -0.0037264288403093815, -0.01068495400249958, -0.0036724430974572897, -0.010413215495646, -0.003725026035681367, -0.0006103875348344445, 0.003993018995970488, -0.012697632424533367, 0.008942859247326851, 0.011606141924858093, 0.005516061559319496, -0.011093289591372013, 0.00864139199256897, -0.008595389313995838, -0.013064583763480186, 0.010563505813479424, 0.014798185788094997, -0.010159988887608051, -0.003183393506333232, -0.0004085871623829007, -0.010145015083253384, -0.0008145342580974102, -0.0026142382994294167, -0.004055636469274759, -0.0035137010272592306, 0.0017070468747988343, 0.0015401694690808654, -0.0015049610519781709, 0.010488750413060188, -0.011072343215346336, -0.012248321436345577, -0.005226976238191128, 0.012693308293819427, -0.0022925962693989277, 0.0023807722609490156, -0.00028608113643713295, 0.002143800025805831, -0.011057424359023571, -0.0009391041239723563, -0.008866091258823872, -0.0030080375727266073, 0.0024071952793747187, 0.0016092765145003796, -0.0007458622567355633, -0.009820218198001385, -0.0012239289935678244, 0.011451581493020058], [0.008065483532845974, -0.0018257721094414592, 0.004552163183689117, -0.006117422133684158, 0.006334483623504639, -0.003063864540308714, -0.0028762230649590492, -0.004559384658932686, -0.004591106902807951, -0.007570505607873201, -0.006987779401242733, -0.007723782677203417, 0.008616305887699127, 0.008870713412761688, 0.005664441734552383, 0.017686519771814346, -0.002463446231558919, -0.0021673012524843216, -0.0042697954922914505, -0.0035343915224075317, 0.008295723237097263, 0.00614373292773962, 0.004928655456751585, -0.0053486027754843235, 0.10480180382728577, -0.0007348232320509851, 0.008494877256453037, 0.03926830738782883, 0.0025169190485030413, -0.006967056542634964, 0.008300188928842545, -0.005730497185140848, 0.005810245405882597, -0.0047560497187078, -0.011355971917510033, -0.00921535026282072, 0.006260777823626995, -0.00829716119915247, 0.0059387218207120895, 0.00804414413869381, 0.003142018336802721, -0.007616494316607714, 0.08849696069955826, -0.004254576284438372, 0.0032264876645058393, -0.006738875526934862, 0.002348929177969694, 0.00735516706481576, -0.002654427196830511, -0.002245131181553006, 0.015516805462539196, -0.0020297705195844173, 0.0033181996550410986, -0.04469408839941025, 0.011783569119870663, 0.015013359487056732, 0.004948716145008802, -0.00404015276581049, 0.00967321079224348, 0.037632983177900314, 0.0056199850514531136, 0.006813698448240757, 0.00972707848995924, 0.005932551342993975, 0.0045940750278532505, -0.0061020758002996445, -0.00576885836198926, -0.005144893191754818, 0.00985847320407629, -0.0074688768945634365, 0.0030416774097830057, -0.010404504835605621, 0.005863363388925791, -0.028634965419769287, 0.007717738393694162, 0.006561959162354469, 0.0039703864604234695, -0.0038579015526920557, -0.0063203200697898865, -0.009158112108707428, 0.021875688806176186, 0.0023633239325135946, 0.005383157171308994, 0.008313397876918316, 0.003429355565458536, 0.0034014808479696512, 0.008965487591922283, -0.054719604551792145, 0.037562593817710876, -0.011013410054147243, -0.0067999474704265594, -0.0054976074025034904, 0.005035430658608675, -0.003042240161448717, 0.0036847421433776617, 0.008771914057433605, -0.00555582856759429, -0.0019353354582563043, 0.006389295216649771, 0.04631859064102173, 0.0038374904543161392, 0.0037541526835411787, 0.0045492141507565975, 0.0029580327682197094, 0.012790837325155735, 0.004593958146870136, -0.00257838680408895, -0.0019906582310795784, 0.0015926881460472941, -0.006597802508622408, 0.005215860903263092, 0.004333955701440573, 0.005607007071375847, -0.02905217558145523, 0.006216804496943951, -0.006343236658722162, 0.001481079263612628, -0.006285702344030142, 0.004963585641235113, 0.0019350211368873715, 0.005135260056704283, 0.018399639055132866, -0.005199207458645105, -0.002177769085392356, 0.0032041496597230434, 0.00907856971025467, 0.005817714612931013, -0.0072591472417116165], [-0.002792451763525605, 0.006606739945709705, -0.0038344943895936012, 0.001847424660809338, -0.002084004459902644, 0.003314926289021969, 0.006598272360861301, 0.006382973399013281, 0.00045618964941240847, 0.0029654689133167267, 0.010145647451281548, 0.006314463913440704, -0.002873083809390664, -0.009260512888431549, -0.0024184875655919313, -0.002371033886447549, 0.00394843565300107, 0.0059773121029138565, 0.0060266125947237015, 0.002692336915060878, -0.004735010676085949, -0.0034825801849365234, -0.008514301851391792, 0.00020483236585278064, -0.0014533725334331393, 0.006051043979823589, -0.0030784672126173973, -0.0016709312330931425, -0.005135457497090101, 0.003225583815947175, -0.007323219906538725, 0.006036737468093634, -0.0038108443841338158, 0.0051615312695503235, 0.00892626866698265, 0.0020634641405194998, -0.003867899067699909, 0.003068538149818778, -0.003868317464366555, -0.00873145554214716, -0.00154199474491179, 0.002757944632321596, -0.006547657307237387, 0.0032056078780442476, -0.005374920554459095, 0.008067280054092407, -0.006246605888009071, -0.004059751983731985, 0.003544636070728302, 0.008528647944331169, -0.0030875904485583305, 0.004916422534734011, -0.00978985708206892, 0.009216333739459515, -0.002666381187736988, -0.00822322815656662, -0.00783910695463419, 0.00977003388106823, -0.007743106223642826, -0.006255079060792923, -0.0024735196493566036, -0.0031006450299173594, -0.0032747143413871527, -0.003905124729499221, -0.006438128650188446, 0.0029080186504870653, 0.0022073208820074797, 0.005850700195878744, -0.0023061935789883137, 0.0002482030831743032, -0.0030348659493029118, 0.0037758334074169397, -0.004044206812977791, 0.003669681027531624, -0.0014430544106289744, -0.0022901371121406555, -0.007895232178270817, 0.004012565594166517, 0.0036354768089950085, 0.0029572166968137026, -0.004189145285636187, -0.0028605570551007986, -0.003922563511878252, -0.003155017737299204, -0.0023269644007086754, -0.007538937963545322, -0.0006544740172103047, 0.003936557564884424, -0.009921835735440254, 0.0023462881799787283, 0.002582076471298933, 0.002724185585975647, -6.110638059908524e-05, 0.003397558117285371, -0.007803487591445446, -0.0031297486275434494, 0.0032712756656110287, 0.008577411994338036, -0.00658833235502243, -0.006362007465213537, -0.009889766573905945, -0.00940020103007555, -0.006309945601969957, -0.002741437405347824, -0.003442342160269618, -0.004356275778263807, 0.0029848625417798758, 0.00849726889282465, -0.0028415534179657698, 0.0020635309629142284, -0.0055526746436953545, -0.001700097694993019, -0.008649234659969807, 0.002447364619001746, -0.004663057159632444, 0.0037330305203795433, -0.007676011882722378, 0.007306085433810949, -0.003678024746477604, -0.006860827561467886, -0.006647670641541481, -0.003008935134857893, 0.0020841651130467653, 0.005984434857964516, -0.006131949834525585, -0.0017908330773934722, -0.0028818128630518913, 0.0020914035849273205], [0.004409755114465952, -0.0030429004691541195, 0.010094977915287018, -0.004287125542759895, 0.004152599722146988, -0.0039681182242929935, -0.0055910320952534676, -0.010165033861994743, -0.0066232536919415, -0.003301312681287527, -0.0100064966827631, -0.006260574329644442, 0.010485886596143246, 0.011596246622502804, 0.007862422615289688, 0.007821007631719112, -0.009184950031340122, -0.008279964327812195, -0.0033864695578813553, -0.00823570229113102, 0.0034098585601896048, 0.005475372541695833, 0.003638853318989277, -0.0029159041587263346, 0.0027509303763508797, -0.006754129659384489, 0.0027223152574151754, 0.0028301512356847525, 0.0032460500951856375, -0.007109095808118582, 0.008124416694045067, -0.007782044354826212, 0.0030496460385620594, -0.0029141053091734648, -0.008837865665555, -0.003674932522699237, 0.0032703946344554424, -0.010478600859642029, 0.008812325075268745, 0.009481514804065228, 0.006609887350350618, -0.005583880003541708, 0.013224033638834953, -0.0037286069709807634, 0.007408501580357552, -0.009115944616496563, 0.0032504096161574125, 0.0034085125662386417, -0.006981853861361742, -0.009695937857031822, 0.0037625408731400967, -0.0029842716176062822, 0.00344925862737, -0.00841000210493803, 0.004760907031595707, 0.007565486244857311, 0.0036389403976500034, -0.011398465372622013, 0.009622883051633835, 0.010619471780955791, 0.0033847417216748, 0.003240572288632393, 0.004628402646631002, 0.003227211767807603, 0.00960017554461956, -0.004266494885087013, -0.006739423610270023, -0.007067391648888588, 0.0038103244733065367, -0.00629501324146986, 0.009104043245315552, -0.0031460956670343876, 0.0036814850755035877, -0.0104765510186553, 0.003300669603049755, 0.008373974822461605, 0.003440198488533497, -0.007835390977561474, -0.006992857437580824, -0.004865320399403572, 0.006221708841621876, 0.004187052603811026, 0.004049481358379126, 0.006780286319553852, 0.007081951946020126, 0.005644511431455612, 0.0033028079196810722, -0.0021820003166794777, 0.009441842325031757, -0.0035510745365172625, -0.004121906589716673, -0.009429830126464367, 0.0035946290008723736, -0.009259001351892948, 0.0033685758244246244, 0.0038213692605495453, -0.00784224458038807, -0.010820557363331318, 0.0037251259200274944, 0.005430583842098713, 0.0026982577983289957, 0.0036503751762211323, 0.0032644609455019236, 0.009244424290955067, 0.007807031739503145, 0.010922235436737537, -0.0085183409973979, -0.0032936076167970896, 0.0029431763105094433, -0.0030713528394699097, 0.009377728216350079, 0.003404545597732067, 0.012029959820210934, -0.0060310582630336285, 0.00389662547968328, -0.0026277692522853613, 0.0026836299803107977, -0.008701863698661327, 0.004317367449402809, 0.008034254424273968, 0.002796958200633526, 0.003807150525972247, -0.008512661792337894, -0.00751635804772377, 0.009733653627336025, 0.006732907611876726, 0.010161567479372025, -0.0037888081278651953], [-0.027946632355451584, 0.020959949120879173, -0.01517401821911335, 0.02216058410704136, -0.01707049272954464, 0.022559912875294685, 0.025685491040349007, 0.021045777946710587, 0.023589804768562317, 0.01892494037747383, 0.0078059532679617405, 0.02064506895840168, -0.02065456286072731, -0.01970532163977623, -0.009973259642720222, -0.020258288830518723, 0.03152177110314369, 0.019959842786192894, 0.005416577681899071, 0.02241854928433895, -0.004160672891885042, -0.019767440855503082, -0.008933741599321365, 0.0313187837600708, -0.015588578768074512, 0.003471656935289502, -0.025807512924075127, -0.005262491758912802, -0.02329987846314907, 0.02489289827644825, -0.020994290709495544, 0.02150876261293888, -0.022918563336133957, 0.03260629624128342, 0.004975297953933477, 0.021386021748185158, -0.024653464555740356, 0.018702473491430283, -0.023392733186483383, -0.00954988319426775, -0.026027172803878784, 0.02424415946006775, -0.013515416532754898, 0.026730919256806374, -0.02672973833978176, 0.01789894886314869, -0.005221443250775337, -0.031329259276390076, 0.02077384851872921, 0.028162170201539993, -0.02101752907037735, 0.022278456017374992, -0.008365578018128872, 0.007535564247518778, -0.019478540867567062, -0.015061547979712486, -0.020497974008321762, 0.0037309296894818544, -0.020251210778951645, -0.0036203626077622175, -0.024809934198856354, -0.01796521432697773, -0.021108577027916908, -0.006650323048233986, -0.02137480303645134, 0.022229980677366257, 0.02011115476489067, 0.021835314109921455, -0.022604184225201607, 0.021895404905080795, -0.01805233769118786, 0.022079061716794968, -0.020847713574767113, 0.01266053132712841, -0.020774833858013153, -0.01742717996239662, -0.02040296606719494, 0.013978995382785797, 0.0042958855628967285, 0.019041627645492554, -0.01841268315911293, -0.021258505061268806, -0.008786365389823914, -0.002795523963868618, -0.01911199651658535, -0.014388751238584518, -0.005409715697169304, 0.01387421227991581, -0.011404776945710182, 0.02322758547961712, 0.007276677526533604, 0.004261537920683622, -0.021984461694955826, 0.003482584375888109, -0.00635133683681488, -0.019844671711325645, 0.02675621397793293, 0.02355022542178631, -0.02682630717754364, -0.014941888861358166, -0.018076216802001, -0.004795849323272705, -0.004083942621946335, -0.004150887485593557, -0.017963996157050133, -0.004930346272885799, 0.02370384708046913, 0.004088534973561764, -0.003280267585068941, 0.024853767827153206, -0.005488411523401737, -0.005354705266654491, -0.0031886338256299496, 0.005014645401388407, -0.004143859259784222, 0.009695801883935928, -0.018898863345384598, 0.00431824242696166, -0.006693009752780199, -0.02091061696410179, -0.003927458543330431, -0.00533774308860302, 0.016604237258434296, 0.022302478551864624, -0.02224564366042614, -0.021821197122335434, -0.02305855043232441, 0.02194223366677761], [0.056893203407526016, -0.039421893656253815, 0.004860205575823784, -0.041764035820961, 0.032857198268175125, -0.041517000645399094, -0.005039846524596214, -0.03864474594593048, -0.03925692290067673, -0.03301485255360603, -0.010462308302521706, -0.03244771435856819, 0.027605464681982994, 0.028241677209734917, 0.014366560615599155, 0.0043899123556911945, -0.003814958967268467, -0.03878653421998024, -0.03925512358546257, -0.03534718230366707, 0.039764244109392166, 0.036344364285469055, 0.0043885852210223675, -0.050098516047000885, 0.019610613584518433, -0.006737146060913801, 0.047918107360601425, 0.024792008101940155, 0.004133056849241257, -0.04942329600453377, 0.028758738189935684, -0.03896558657288551, 0.03657884523272514, -0.018893036991357803, -0.008705738000571728, -0.006369283422827721, 0.0106743723154068, -0.036800213158130646, 0.04356619343161583, 0.009379513561725616, 0.05075740069150925, -0.007429037243127823, 0.01780128665268421, -0.032002829015254974, 0.049980174750089645, -0.02348519302904606, 0.04192813113331795, 0.053928591310977936, -0.033074576407670975, -0.0384998582303524, 0.04069793224334717, -0.04218140244483948, 0.0096904831007123, -0.00969396997243166, 0.038623739033937454, 0.0046514421701431274, 0.03372662514448166, -0.04536920040845871, 0.03884151950478554, 0.014834890142083168, 0.04513426497578621, 0.029530275613069534, 0.03381427749991417, 0.036240845918655396, 0.033721815794706345, -0.03572124242782593, -0.03680025041103363, -0.01065631490200758, 0.04109354317188263, -0.0450764037668705, 0.036819204688072205, -0.03962548077106476, 0.017864126712083817, -0.013911612331867218, 0.008302364498376846, 0.03069230541586876, 0.030945852398872375, -0.03601185232400894, -0.03052520751953125, -0.03641580045223236, 0.029274461790919304, 0.03040999174118042, 0.03966205567121506, 0.021681269630789757, 0.036143217235803604, 0.011541164480149746, 0.00836097914725542, -0.018163276836276054, 0.011429955251514912, -0.02634277567267418, -0.0054003712721168995, -0.021214039996266365, 0.01293208822607994, -0.03556334227323532, 0.03348652645945549, 0.03393306955695152, -0.005910741165280342, -0.0361395888030529, 0.04280868172645569, 0.014558407478034496, 0.028035642579197884, 0.026015596464276314, 0.02912186086177826, 0.042745962738990784, 0.02848977968096733, 0.029388010501861572, -0.043440479785203934, -0.0331069678068161, 0.02923622913658619, -0.05026403069496155, 0.048066139221191406, 0.03705436736345291, 0.013104290701448917, -0.03481057658791542, 0.03706591576337814, -0.00826727319508791, 0.030701113864779472, -0.005636607762426138, 0.00165300362277776, 0.030415546149015427, 0.034412115812301636, 0.035000208765268326, -0.027118103578686714, -0.042747966945171356, 0.0054312655702233315, 0.019999738782644272, 0.004091511946171522, -0.03840867802500725], [-0.026997210457921028, 0.020272638648748398, -0.004164617974311113, 0.010133739560842514, -0.016941633075475693, 0.008252637460827827, 0.0038981614634394646, 0.023937052115797997, 0.005333433859050274, 0.02029995806515217, 0.011038863100111485, 0.022331634536385536, -0.015886489301919937, -0.007857833057641983, -0.024553576484322548, -0.01947316899895668, 0.004484940320253372, 0.02179793268442154, 0.003854965791106224, 0.003414629027247429, -0.0059912241995334625, -0.02207493595778942, -0.0176001638174057, 0.004502453841269016, -0.006317288614809513, 0.0036649759858846664, -0.005307118408381939, -0.016719350591301918, -0.022342272102832794, 0.026367880403995514, -0.021503614261746407, 0.024437637999653816, -0.0043588620610535145, 0.03072725422680378, 0.016488896682858467, 0.018919071182608604, -0.026041854172945023, 0.02006099931895733, -0.023361386731266975, -0.010804848745465279, -0.02412061206996441, 0.022338394075632095, -0.013155092485249043, 0.004176456481218338, -0.028420470654964447, 0.01728310063481331, -0.022563081234693527, -0.004919837228953838, 0.021093551069498062, 0.004776656627655029, -0.007146152202039957, 0.003950572572648525, -0.008823512122035027, 0.009532208554446697, -0.023329490795731544, -0.0159129835665226, -0.020627763122320175, 0.023129982873797417, -0.022044071927666664, -0.013406503014266491, -0.0037526090163737535, -0.019084421917796135, -0.013677907176315784, -0.023447295650839806, -0.02003355696797371, 0.023029547184705734, 0.020258355885744095, 0.02182566002011299, -0.023645978420972824, 0.023792171850800514, -0.004154118709266186, 0.022833632305264473, -0.023164503276348114, 0.004335644654929638, -0.023305917158722878, -0.004672682378441095, -0.020957447588443756, 0.003727114759385586, 0.021922186017036438, 0.013220545835793018, -0.017930157482624054, -0.020518062636256218, -0.0045844800770282745, -0.015020358376204967, -0.023267079144716263, -0.004374632146209478, -0.006162052974104881, 0.01457610260695219, -0.010323469527065754, 0.006174725946038961, 0.005258231423795223, 0.021132199093699455, -0.025210529565811157, 0.027472136542201042, -0.024290781468153, -0.004379255697131157, 0.0252887774258852, 0.0065324739553034306, -0.02728220447897911, -0.01294264942407608, -0.003980588633567095, -0.009664061479270458, -0.021349281072616577, -0.02982715517282486, -0.00868755578994751, -0.023528851568698883, 0.024743596091866493, 0.019753100350499153, -0.01919848471879959, 0.02374989353120327, -0.008547081612050533, -0.022487809881567955, -0.010501868091523647, 0.0048727733083069324, -0.022539261728525162, 0.02002914808690548, -0.020160285755991936, 0.02231970615684986, -0.02824767492711544, -0.018132634460926056, -0.0243473332375288, -0.021258845925331116, 0.0041195848025381565, 0.023409731686115265, -0.021643437445163727, -0.024954333901405334, -0.02145003341138363, 0.004694681614637375], [0.0110459104180336, -0.01570368930697441, 0.006498265545815229, -0.01671638898551464, 0.004874060861766338, -0.01521432027220726, -0.0030658801551908255, -0.014085156843066216, -0.016584454104304314, -0.0044096242636442184, -0.012431797571480274, -0.005048938095569611, 0.013084598816931248, 0.0037185591645538807, 0.0046811653301119804, 0.013233864679932594, -0.0199130829423666, -0.014970003627240658, -0.00347848329693079, -0.00342170218937099, 0.004056544974446297, 0.0172208771109581, 0.014193716458976269, -0.015766071155667305, 0.008387421257793903, -0.005643288139253855, 0.017284011468291283, 0.009905640035867691, 0.018343700096011162, -0.013649675995111465, 0.0058907377533614635, -0.003934863954782486, 0.01356985792517662, -0.005082217510789633, -0.017554793506860733, -0.012562830932438374, 0.018116768449544907, -0.004073471296578646, 0.014928859658539295, 0.00911766942590475, 0.015599381178617477, -0.005491913761943579, 0.006791931577026844, -0.004897806327790022, 0.004386100918054581, -0.0038359519094228745, 0.01530587300658226, 0.01143379881978035, -0.01641741581261158, -0.003749500960111618, 0.003961658105254173, -0.0033426624722778797, 0.014385389164090157, -0.008166446350514889, 0.0040740217082202435, 0.012882661074399948, 0.015305101871490479, -0.003783938940614462, 0.00512733543291688, 0.014419283717870712, 0.00378183601424098, 0.0038884906098246574, 0.0052870772778987885, 0.014448588714003563, 0.016211379319429398, -0.00793625321239233, -0.003606825601309538, -0.004319154191762209, 0.016979437321424484, -0.004066553898155689, 0.004347899928689003, -0.01697620376944542, 0.004100195597857237, -0.012942792847752571, 0.004216738510876894, 0.015165012329816818, 0.015389185398817062, -0.014606420882046223, -0.013421882875263691, -0.015033906325697899, 0.004999028984457254, 0.015169247053563595, 0.004293445032089949, 0.006525947712361813, 0.008245023898780346, 0.01645873673260212, 0.01015942171216011, -0.01300039142370224, 0.009158309549093246, -0.003930166829377413, -0.004452845547348261, -0.004637636709958315, 0.004805105272680521, -0.01901327818632126, 0.003514850279316306, 0.004302467219531536, -0.013159455731511116, -0.016839196905493736, 0.01680150255560875, 0.015181860886514187, 0.01403351966291666, 0.015717763453722, 0.01485244370996952, 0.004192080348730087, 0.013568688184022903, 0.01495402492582798, -0.0037171565927565098, -0.016353396698832512, 0.003084949916228652, -0.016286741942167282, 0.0044022127985954285, 0.01615062728524208, 0.013707445003092289, -0.012226861901581287, 0.01636645570397377, -0.017478948459029198, 0.015981139615178108, -0.005699614062905312, 0.003987887408584356, 0.003487560199573636, 0.016607562080025673, 0.005139712244272232, -0.0038493105676025152, -0.016483653336763382, 0.01671801693737507, 0.014498264528810978, 0.006289287935942411, -0.0042381444945931435], [0.007036135997623205, -0.0032604828011244535, 0.00961626973003149, -0.005699289496988058, 0.005466903559863567, -0.006596183404326439, -0.00919037964195013, -0.008036819286644459, -0.004294004291296005, -0.006711740046739578, -0.006717828568071127, -0.00427551195025444, 0.007313414942473173, 0.0033880374394357204, 0.00555024528875947, 0.007003625854849815, -0.008491890504956245, -0.010554387234151363, -0.01060440018773079, -0.010138625279068947, 0.009850208647549152, 0.003028881037607789, 0.010230081155896187, -0.008205409161746502, 0.0029382300563156605, -0.0032132905907928944, 0.001334857428446412, 0.0032689725048840046, 0.00942196138203144, -0.003442246001213789, 0.0069920895621180534, -0.009425592608749866, 0.009831717237830162, -0.009480839595198631, -0.004357671365141869, -0.005325338337570429, 0.003914227243512869, -0.007779237814247608, 0.0061255162581801414, 0.009713718667626381, 0.002929542912170291, -0.00836828164756298, 0.007574504241347313, -0.009019985795021057, 0.007256051059812307, -0.0036851607728749514, 0.01050327718257904, 0.004773396532982588, -0.009280422702431679, -0.011087987571954727, 0.002547935117036104, -0.008805413730442524, 0.012630344368517399, -0.009401962161064148, 0.007059082388877869, 0.0030820267274975777, 0.007777098566293716, -0.012404942885041237, 0.006293084938079119, 0.008662731386721134, 0.0032684539910405874, 0.006331073120236397, 0.005257848650217056, 0.009182870388031006, 0.010393626056611538, -0.00769027229398489, -0.008684856817126274, -0.007577675860375166, 0.004983267746865749, -0.005728218238800764, 0.00743259908631444, -0.010010916739702225, 0.006974530406296253, -0.003435059217736125, 0.005884585436433554, 0.00587165541946888, 0.007883058860898018, -0.00867636501789093, -0.009270724840462208, -0.0034714743960648775, 0.00549536757171154, 0.008392596617341042, 0.009254507720470428, 0.007869994267821312, 0.010468798689544201, 0.007847859524190426, 0.003977849613875151, -0.0055754114873707294, 0.006712045520544052, -0.00925627164542675, -0.005323947407305241, -0.003654067637398839, 0.006627220194786787, -0.011064711958169937, 0.009038597345352173, 0.01026812195777893, -0.00649300217628479, -0.004022687673568726, 0.003246623557060957, 0.01169006247073412, 0.0027517962735146284, 0.01142876222729683, 0.007047948427498341, 0.008687464520335197, 0.010775984264910221, 0.005611924454569817, -0.007988649420440197, -0.0029905440751463175, 0.010145837441086769, -0.004826554097235203, 0.005659142509102821, 0.0064842882566154, 0.01000844407826662, -0.0027314743492752314, 0.008528508245944977, -0.003924610558897257, 0.011644423939287663, -0.009483039379119873, 0.010240697301924229, 0.006800358649343252, 0.008504168130457401, 0.003760174149647355, -0.005390353500843048, -0.008296789601445198, 0.009501507505774498, 0.005579960532486439, 0.011694729328155518, -0.005889861844480038], [-0.0026130464393645525, 0.0030914945527911186, -0.002396919997408986, 0.0024626280646771193, -0.002366577973589301, 0.0026117083616554737, 0.0022733022924512625, 0.0008978726691566408, 0.003462680382654071, 0.0031212042085826397, 0.010581656359136105, 0.0013131782179698348, -0.0030567918438464403, -0.002884102053940296, -0.005499701481312513, -0.0015943507896736264, 0.0032750952523201704, 0.0026543813291937113, 0.0026380117051303387, 0.0013243209104984999, -0.0023876370396465063, -0.007550321985036135, -0.0038557734806090593, 0.002125002443790436, -0.0008705301443114877, 0.0016323040472343564, -0.00260256789624691, -0.0016793797258287668, -0.0008146659238263965, 0.002905273577198386, -9.461095032747835e-06, 0.0012906413758173585, -0.0028743338771164417, 0.003752772230654955, 0.005022049881517887, 0.001663889386691153, -0.0007429721881635487, 0.0003604532976169139, -0.003598774317651987, -0.009960448369383812, -0.005012007430195808, 0.0031870619859546423, -0.0023827089462429285, 0.00138140341732651, -0.003217949764803052, 0.0007383543415926397, -0.00013488723197951913, -0.012307332828640938, 0.002780175767838955, 0.0029105052817612886, -0.001052310923114419, 0.0023975579533725977, -0.002501947106793523, 0.011136275716125965, -0.0030898095574229956, -0.006004742346704006, -0.0031365894246846437, 0.002599514089524746, -0.003097481094300747, -0.009044707752764225, -0.0023545646108686924, -0.0029342309571802616, -0.0032066642306745052, -0.002962751779705286, -0.002428430365398526, 0.0028911347035318613, 0.007689995691180229, 0.0024750535376369953, -0.0012971454998478293, 0.00601959740743041, -0.0025159127544611692, 0.0034114562440663576, -0.0013115738984197378, 0.011148713529109955, -0.003118605585768819, -0.003180336207151413, -0.002823557471856475, 0.0022316675167530775, 0.0032757476437836885, 0.004181682597845793, -0.0021698970813304186, -0.0009463955648243427, -0.0024795413482934237, -0.000641226361040026, -0.0028594350442290306, -0.0028090220876038074, -0.0048905713483691216, 0.0021753059700131416, -0.006206204649060965, 0.0025688910391181707, 0.0035637926775962114, 0.0027702993247658014, -0.003440104890614748, 0.0005960380076430738, -0.0029028938151896, -0.00010061869397759438, 0.0019133009482175112, 0.0009492459357716143, -0.0022241149563342333, -0.008433018811047077, -0.006565871648490429, -0.0009633332956582308, -0.002830273937433958, -0.0016916650347411633, -0.00259355828166008, -0.0029031438753008842, 0.0003719502128660679, 0.0006205165991559625, -0.0033601068425923586, 0.002984896767884493, -0.001369334408082068, -0.0034131472930312157, -0.007030079141259193, 0.0029538923408836126, -0.002465165453031659, 0.00621824711561203, -0.005565235391259193, 0.0028753874357789755, -0.002809773664921522, -2.9037079229965457e-07, -0.0019964156672358513, -0.0038063651882112026, 0.0029525342397391796, 0.002019908046349883, -0.002398499520495534, -0.001897646114230156, -0.0011983329895883799, 0.0010352652752771974], [-0.007429248653352261, 0.009423856623470783, -0.003319761948660016, 0.0020567872561514378, -0.003408267628401518, 0.007248119916766882, 0.006857441272586584, 0.006212762091308832, 0.003173901466652751, 0.0023185135796666145, 0.007501250598579645, 0.002592136850580573, -0.006006989628076553, -0.006534262094646692, -0.003578283591195941, -0.002528710290789604, 0.002246060175821185, 0.008414140902459621, 0.006242625415325165, 0.0030267906840890646, -0.007126167416572571, -0.0024786670692265034, -0.009815514087677002, 0.001304888864979148, -0.0016777690034359694, 0.008878449909389019, -0.0032783469650894403, -0.003941195551306009, -0.007724875584244728, 0.005612424574792385, -0.007603829726576805, 0.0029924632981419563, -0.002795240841805935, 0.006150579545646906, 0.007048699073493481, 0.0036247645039111376, -0.001988212810829282, 0.007084197830408812, -0.007171735167503357, -0.008892622776329517, -0.002377452328801155, 0.0030262903310358524, -0.0038204665761440992, 0.0054475245997309685, -0.006205594167113304, 0.006689069326967001, -0.008220764808356762, -0.0014242044417187572, 0.00844049546867609, 0.008765037171542645, -0.0017543333815410733, 0.0026445183902978897, -0.01121404580771923, 0.0097881481051445, -0.003907278645783663, -0.008023419417440891, -0.005080436822026968, 0.008399032056331635, -0.0033604323398321867, -0.0018273888854309916, -0.005619657691568136, -0.002928450470790267, -0.0026172567158937454, -0.004872191231697798, -0.009735277853906155, 0.008159595541656017, 0.006064023822546005, 0.006223348900675774, -0.0029618325643241405, 0.0003684229450300336, -0.00661072414368391, 0.0038663428276777267, -0.003191703464835882, 0.00804485846310854, -0.0023348911199718714, -0.0032166019082069397, -0.005449376069009304, 0.002913642907515168, 0.0030773200560361147, 0.0025292886421084404, -0.003506116569042206, -0.006283801514655352, -0.006473020650446415, -0.003937927074730396, -0.006307985633611679, -0.003398492466658354, -0.002929145935922861, 0.005754044279456139, -0.008276090025901794, 0.002598400227725506, 0.0018503048922866583, 0.005866852588951588, -0.004555985331535339, 0.0070742652751505375, -0.0067578647285699844, -0.006525454577058554, 0.003149666590616107, 0.006290658842772245, -0.0076182084158062935, -0.008686295710504055, -0.008248423226177692, -0.01062555518001318, -0.009267869405448437, -0.00295884907245636, -0.003036063862964511, -0.001692672842182219, 0.0027633951976895332, 0.008173765614628792, -0.007099970709532499, 0.0027699049096554518, -0.005188473965972662, -0.0035841031931340694, -0.0029430962167680264, 0.0020947116427123547, -0.0031606159172952175, 7.142199319787323e-05, -0.009912596084177494, 0.008256255649030209, -0.003935590386390686, -0.00284227984957397, -0.005901271943002939, -0.00041275861440226436, 0.0022979460190981627, 0.005499142687767744, -0.008015172556042671, -0.007259508594870567, -0.005507445428520441, 0.007735402323305607], [0.003235091222450137, -0.005797484889626503, 0.038323886692523956, -0.0036818324588239193, 0.03296368569135666, -0.0028402209281921387, -0.0029540022369474173, -0.0015188503311946988, -0.04352600499987602, -0.03338439017534256, -0.0047515020705759525, -0.0017163377488031983, 0.04216819256544113, 0.0038508654106408358, 0.005361255723983049, 0.030301300808787346, -0.002658525248989463, -0.0029186299070715904, -0.004888460505753756, -0.00467959139496088, 0.002825985662639141, 0.002996992552652955, 0.030119724571704865, -0.004160186275839806, 0.027614841237664223, -0.008614220656454563, 0.023406028747558594, 0.025672592222690582, 0.0035893612075597048, -0.0016902920324355364, 0.005437314510345459, -0.00500517850741744, 0.0012366501614451408, -0.004400607198476791, -0.004865715745836496, -0.00506513612344861, 0.004569259937852621, -0.003550115739926696, 0.00537904491648078, 0.008968953043222427, 0.003960191272199154, -0.0035171585623174906, 0.020540598779916763, -0.004091792274266481, 0.0052414098754525185, -0.037947509437799454, 0.002114369999617338, 0.0037738000974059105, -0.0012801571283489466, -0.002722241450101137, 0.0016720680287107825, -0.00426876824349165, 0.003160140011459589, -0.009654547087848186, 0.02228868380188942, 0.021444523707032204, 0.008867396041750908, -0.0013915894087404013, 0.0037713004276156425, 0.0037388524506241083, 0.0037744080182164907, 0.032721128314733505, 0.009068626910448074, 0.0016253876965492964, 0.003818468190729618, -0.002234020968899131, -0.001412172568961978, -0.005548411048948765, 0.005765008740127087, -0.005684077739715576, 0.002259715460240841, -0.003052713815122843, 0.003276016330346465, -0.0072914306074380875, 0.0014901835238561034, 0.0356781892478466, 0.008977353572845459, -0.004889293573796749, -0.004518122877925634, -0.0382225401699543, 0.04280266910791397, 0.0012856328394263983, 0.002940855687484145, 0.026133617386221886, 0.008475943468511105, 0.006490651052445173, 0.03827899321913719, -0.02002108097076416, 0.010071034543216228, -0.005091528873890638, -0.01126603502780199, -0.005052258726209402, 0.010011733509600163, -0.0036465837620198727, 0.002333603100851178, 0.008025000803172588, -0.003064719494432211, -0.0013407586375251412, 0.011513404548168182, 0.0039875321090221405, 0.0019621928222477436, 0.009634976275265217, 0.030842715874314308, 0.0029551549814641476, 0.04077482968568802, 0.03814910352230072, -0.0028288206085562706, -0.0027814265340566635, 0.0013747934717684984, -0.003369224490597844, 0.002833740785717964, 0.028553718701004982, 0.0010765346232801676, -0.008917802944779396, 0.00520438002422452, -0.004982556216418743, 0.0011445226846262813, -0.0014712042175233364, 0.0033271261490881443, 0.002824201015755534, 0.0035814784932881594, 0.03497985005378723, -0.04090915620326996, -0.0024899777490645647, 0.0034516367595642805, 0.003531757043674588, 0.004680319223552942, -0.004929725080728531], [-0.016560912132263184, 0.012810327112674713, -0.012584403157234192, 0.011867718771100044, -0.011254612356424332, 0.013008899986743927, 0.003151534590870142, 0.014554884284734726, 0.013476560823619366, 0.014780964702367783, 0.010215193033218384, 0.0040167332626879215, -0.01483033038675785, -0.014964476227760315, -0.012727965600788593, -0.005419114138931036, 0.013913367874920368, 0.011546852067112923, 0.011623580008745193, 0.013687445782124996, -0.011122998781502247, -0.012479004450142384, -0.012202615849673748, 0.016792545095086098, -0.004879888612776995, 0.011476224288344383, -0.004181230906397104, -0.004428277723491192, -0.01331538986414671, 0.012074572965502739, -0.004813354462385178, 0.014914910309016705, -0.01489107683300972, 0.015373682603240013, 0.004701145924627781, 0.013179059140384197, -0.004627113230526447, 0.006941357161849737, -0.014801368117332458, -0.008309503085911274, -0.011321218684315681, 0.016574064269661903, -0.00980763603001833, 0.01613401621580124, -0.015859855338931084, 0.010592339560389519, -0.010083010420203209, -0.013195597566664219, 0.01086132787168026, 0.017415251582860947, -0.008919070474803448, 0.010917652398347855, -0.0035584464203566313, 0.009455062448978424, -0.006804464850574732, -0.006620132829993963, -0.015537960454821587, 0.013245384208858013, -0.015168866142630577, -0.010951168835163116, -0.014341884292662144, -0.011129572987556458, -0.004169733263552189, -0.014977463521063328, -0.014014115557074547, 0.007086676545441151, 0.01506076566874981, 0.015499914065003395, -0.004718806128948927, 0.0037701628170907497, -0.013689069077372551, 0.012198079377412796, -0.004446258768439293, 0.00674469256773591, -0.015104282647371292, -0.01036159135401249, -0.014447811990976334, 0.013941106386482716, 0.014664661139249802, 0.012517410330474377, -0.004916413687169552, -0.005476418416947126, -0.011614566668868065, -0.010247570462524891, -0.014051205478608608, -0.010036190040409565, -0.013620252721011639, 0.011419842019677162, -0.011103924363851547, 0.013161348178982735, 0.016397474333643913, 0.014152378775179386, -0.014016265980899334, 0.004172821529209614, -0.0034700569231063128, -0.009578297846019268, 0.014206117950379848, 0.004261964466422796, -0.004363656975328922, -0.01023232750594616, -0.01091313548386097, -0.0036248089745640755, -0.00536194397136569, -0.013360055163502693, -0.013272741809487343, -0.011607099324464798, 0.012560565024614334, 0.006285496521741152, -0.013277765363454819, 0.014114448800683022, -0.012620472349226475, -0.012565859593451023, -0.011072519235312939, 0.01759929582476616, -0.005144387483596802, 0.0066955541260540485, -0.012032187543809414, 0.012303898110985756, -0.01586298458278179, -0.01364836934953928, -0.012626404874026775, -0.008275206200778484, 0.00406485702842474, 0.014477422460913658, -0.012663918547332287, -0.004521792288869619, -0.011627051047980785, 0.015207366086542606], [-0.0014225346967577934, 0.005986953619867563, -0.0077950675040483475, 0.0034109449479728937, -0.0034804504830390215, 0.00015903676103334874, 0.006872939877212048, 0.002278480213135481, 0.003022319870069623, 0.003132693935185671, 0.01043869461864233, 0.0029293764382600784, -0.0030903597362339497, -0.0028692155610769987, -0.00032089464366436005, -0.003853947389870882, 0.002511030761525035, 0.006010300479829311, 0.003092637285590172, 0.005202258937060833, -0.0017287756782025099, -0.00043227034620940685, -0.006787735968828201, 0.0031144930981099606, -0.0015787415904924273, 0.0032538175582885742, -0.0022814166732132435, -0.0029564849101006985, -0.005927500315010548, 0.0015310320304706693, -0.0062481993809342384, 0.0027198344469070435, -0.0040236650966107845, 0.0025854420382529497, 0.005836902651935816, 0.00011796678882092237, -0.0032075061462819576, 0.002251133555546403, -0.0037592032458633184, -0.008726817555725574, -0.0028419422451406717, 0.00027741887606680393, -0.003684390801936388, 0.0027281418442726135, -0.0032691077794879675, 0.0028393310494720936, -0.0030516439583152533, -0.0010421393672004342, 0.005079710390418768, 0.0025004989001899958, -0.00280508934520185, 0.005401068367063999, -0.0033893485087901354, 0.009250161238014698, -0.000789501063991338, -0.006368232425302267, -0.0020854638423770666, 0.0029749830719083548, -0.004693224094808102, -0.007306113373488188, -0.002946393098682165, -0.002706862287595868, -0.0008326892857439816, -0.002127858344465494, -0.0029362451750785112, 0.003012067638337612, 0.003101469948887825, 0.005178236868232489, -0.001350099453702569, 0.0028112828731536865, -0.0031925186049193144, 0.0012550473911687732, -0.0014487686567008495, 0.010354029946029186, -0.0031258182134479284, -0.0018195105949416757, -0.004742973484098911, 0.004457359202206135, 0.0008112688665278256, 0.003512526163831353, -0.0026230309158563614, -0.00480817724019289, -0.002319592284038663, -0.004823078867048025, -0.0028473464772105217, -0.003517571836709976, -0.0028921961784362793, 0.0008202938479371369, -0.007108722813427448, 0.0033547142520546913, 0.00340052368119359, 0.0006933000986464322, -0.0013194701168686152, 0.0036127192433923483, -0.0025199521332979202, -0.005507372319698334, 0.0023429663851857185, 0.004541106056421995, -0.0031504856888204813, -0.008905638940632343, -0.009163236245512962, -0.003473465098068118, -0.005537471733987331, -0.003134723985567689, -0.0016955012688413262, -0.001462224405258894, 0.00293810130096972, 0.0024910562206059694, -0.002647704677656293, 0.0030348561704158783, -0.002333407523110509, -0.0029408030677586794, -0.008981267921626568, 0.0033320127986371517, -0.003610544139519334, 0.0036638861056417227, -0.008969739079475403, 0.0013704992597922683, -0.0018205068772658706, -0.0020713848061859608, -0.0030796038918197155, -0.0006722966209053993, 0.0020828114356845617, 0.001967632444575429, -0.007010940928012133, -0.001955424901098013, -0.005722973961383104, 0.002466933336108923], [0.016548383980989456, -0.012987855821847916, 0.014006679877638817, -0.011365574784576893, 0.011213582009077072, -0.0050308541394770145, -0.015596555545926094, -0.013598435558378696, -0.016753297299146652, -0.011349130421876907, -0.00949234887957573, -0.013029549270868301, 0.013138786889612675, 0.0038036759942770004, 0.012742817401885986, 0.01372468564659357, -0.014565341174602509, -0.013881904073059559, -0.0037904889322817326, -0.013136269524693489, 0.014799650758504868, 0.011949710547924042, 0.010995705612003803, -0.015619848854839802, 0.004532227758318186, -0.008453291840851307, 0.016218706965446472, 0.00475446367636323, 0.016896262764930725, -0.01471804641187191, 0.01506216824054718, -0.012269577942788601, 0.013374833390116692, -0.012635613791644573, -0.01139364019036293, -0.015039040707051754, 0.004181236494332552, -0.004553334321826696, 0.014486264437437057, 0.008791877888143063, 0.013745954260230064, -0.015641864389181137, 0.0048713660798966885, -0.00607092073187232, 0.005064045544713736, -0.013994782231748104, 0.010951612144708633, 0.017839418724179268, -0.014056354761123657, -0.015176057815551758, 0.012339976616203785, -0.0033927434124052525, 0.01566922478377819, -0.00836570281535387, 0.012280451133847237, 0.011272827163338661, 0.014419252052903175, -0.01645376719534397, 0.013888952322304249, 0.011317909695208073, 0.003980692941695452, 0.0106370123103261, 0.009257041849195957, 0.015554824844002724, 0.003583240322768688, -0.012760598212480545, -0.014446978457272053, -0.004386438988149166, 0.008691590279340744, -0.011480932123959064, 0.009422284550964832, -0.014557037502527237, 0.014205491170287132, -0.010206936858594418, 0.004594470839947462, 0.004309182055294514, 0.007038617506623268, -0.014067918062210083, -0.004342436324805021, -0.0117650106549263, 0.007753804791718721, 0.01201755739748478, 0.016509825363755226, 0.004466811660677195, 0.016547810286283493, 0.011861436069011688, 0.004552710801362991, -0.00973418913781643, 0.010040461085736752, -0.011449221521615982, -0.01601523347198963, -0.014845934696495533, 0.015944382175803185, -0.015876123681664467, 0.014002307318150997, 0.005289362743496895, -0.013136404566466808, -0.015188859775662422, 0.01692967489361763, 0.003100813366472721, 0.004347807727754116, 0.013490564189851284, 0.0117327980697155, 0.01798405312001705, 0.0047256299294531345, 0.014183218590915203, -0.013177919201552868, -0.003033852204680443, 0.013187182135879993, -0.011699005961418152, 0.013417238369584084, 0.013774456456303596, 0.012231087312102318, -0.01780531369149685, 0.0040070731192827225, -0.012019304558634758, 0.0027245585806667805, -0.013498511165380478, 0.017525343224406242, 0.015025680884718895, 0.014980338513851166, 0.005248973611742258, -0.0036564611364156008, -0.015046731568872929, 0.0033471810165792704, 0.011749736033380032, 0.013536793179810047, -0.014575120992958546], [0.014807295054197311, -0.013702234253287315, 0.008615748956799507, -0.015364925377070904, 0.01603868417441845, -0.013035905547440052, -0.015711713582277298, -0.012435859069228172, -0.010960032232105732, -0.014852622523903847, -0.010425944812595844, -0.0046440549194812775, 0.01478411816060543, 0.016762934625148773, 0.018843071535229683, 0.004791552200913429, -0.016703128814697266, -0.015679145231842995, -0.014055628329515457, -0.0033688547555357218, 0.015266348607838154, 0.00535361934453249, 0.013791129924356937, -0.004240189213305712, 0.004933332558721304, -0.010843830183148384, 0.015156358480453491, 0.012896724976599216, 0.014241351746022701, -0.010100397281348705, 0.016413813456892967, -0.01468915119767189, 0.014124790206551552, -0.018598468974232674, -0.01643417216837406, -0.01571870595216751, 0.006660637445747852, -0.014139854349195957, 0.01800593174993992, 0.009524216875433922, 0.00742698647081852, -0.015818268060684204, 0.005113991908729076, -0.017819160595536232, 0.0049711670726537704, -0.006173707079142332, 0.008893335238099098, 0.010442391037940979, -0.014597168192267418, -0.01628519408404827, 0.01678437367081642, -0.012438512407243252, 0.015354742296040058, -0.010408652946352959, 0.015646319836378098, 0.0025889507960528135, 0.01375423651188612, -0.01695823483169079, 0.015016014687716961, 0.012918242253363132, 0.0036108221393078566, 0.010817576199769974, 0.015453559346497059, 0.0039004867430776358, 0.003977946937084198, -0.01390932034701109, -0.013674543239176273, -0.013289197348058224, 0.017432834953069687, -0.01706871949136257, 0.011837848462164402, -0.005352098029106855, 0.017733417451381683, -0.01066506840288639, 0.004745568614453077, 0.014265205711126328, 0.004189874976873398, -0.015840701758861542, -0.013787134550511837, -0.004609032068401575, 0.01859401725232601, 0.017650440335273743, 0.013358390890061855, 0.004967261105775833, 0.017046688124537468, 0.01685558445751667, 0.01915602944791317, -0.013708489947021008, 0.011199956759810448, -0.014064430259168148, -0.006210770457983017, -0.004388175904750824, 0.015288724564015865, -0.0032129078172147274, 0.013047263957560062, 0.01271570660173893, -0.0041810753755271435, -0.013959146104753017, 0.018816739320755005, 0.012847204692661762, 0.013541845604777336, 0.014848917722702026, 0.016027159988880157, 0.018521148711442947, 0.0147485276684165, 0.013439714908599854, -0.013712776824831963, -0.015651242807507515, 0.011728516779839993, -0.004046635702252388, 0.010107514448463917, 0.014821212738752365, 0.003936439752578735, -0.005861945915967226, 0.003986002411693335, -0.0132445702329278, 0.006025924813002348, -0.01794247329235077, 0.01324259303510189, 0.003242296166718006, 0.01718813367187977, 0.0163970235735178, -0.012610052712261677, -0.01531402301043272, 0.005941289477050304, 0.014802396297454834, 0.012667824514210224, -0.017135122790932655], [-0.0004554767219815403, 0.0043823374435305595, -0.00444916682317853, 0.0021359818056225777, -0.002190839732065797, 5.206070636631921e-05, 0.0060218567959964275, 0.0020070320460945368, 0.001264842227101326, 0.0017017876962199807, 0.008927926421165466, 0.0016510182758793235, -0.003866544459015131, -0.007610897067934275, -0.0025639261584728956, -0.0018801913829520345, 0.001514796051196754, 0.0026886900886893272, 0.0036760654766112566, 0.003166695823892951, -0.0034115214366465807, -0.003302290104329586, -0.00577612966299057, 0.0031118756160140038, -0.0035102711990475655, 0.004122075624763966, -0.001684084883891046, -0.0037873866967856884, -0.005342056043446064, 0.0012475482653826475, -0.003354166867211461, 0.0020650699734687805, -0.0021600143518298864, 0.001819081138819456, 0.007061016280204058, 0.0003305738209746778, -0.0011502488050609827, 0.003863969584926963, -0.0032995915971696377, -0.010430863127112389, -0.00307295355014503, 0.003285987302660942, -0.007417562883347273, 0.004129359498620033, -0.0023713388945907354, 0.0038830311968922615, -0.005328153260052204, -0.00028222749824635684, 0.003417954547330737, 0.0030220092739909887, -0.00038942653918638825, 0.0014431853778660297, -0.007557481527328491, 0.011139042675495148, -0.0028622515965253115, -0.003001429606229067, -0.005666438024491072, 0.0040715537033975124, -0.0037400226574391127, -0.003503375221043825, -0.0024987277574837208, -0.0048735784366726875, -0.003230524715036154, -0.002453598892316222, -0.006333043333142996, 0.002530430443584919, 0.002428346313536167, 0.0008343741064891219, -0.0013385745696723461, 0.0029385555535554886, -0.0030595215503126383, 0.0023269029334187508, -0.005545015446841717, 0.008158368058502674, -0.0006669950671494007, -0.003150689648464322, -0.002446097321808338, 0.002062947489321232, 0.0038871264550834894, 0.0034243955742567778, -0.0026885487604886293, -0.0062055462040007114, -0.004513746127486229, -0.0008286093943752348, -0.003833163296803832, -0.0029068279545754194, -0.002889190334826708, 0.008843475952744484, -0.009637728333473206, 0.0027911101933568716, 0.003372214501723647, 0.0029956933576613665, -0.0033827272709459066, 0.003906832542270422, -0.003715270198881626, -0.00297677144408226, 0.0011344008380547166, 0.002708493499085307, -0.0032597838435322046, -0.004551005084067583, -0.002732827328145504, -0.0025618805084377527, -0.005058590788394213, -0.0022640181705355644, -0.004137281794101, -0.0009442722657695413, 0.0018925118492916226, 0.004499156028032303, -0.004183380398899317, 0.0004951576120220125, -0.00011040016397600994, -0.0022276202216744423, -0.0028166607953608036, 0.0008674730197526515, -0.002474135486409068, 0.003736306680366397, -0.005335560068488121, 0.0026197279803454876, -6.42153900116682e-05, -0.002732490887865424, -0.00036998523864895105, -0.00376791856251657, 0.0020759208127856255, 0.00442954245954752, -0.004886363632977009, -0.003433097852393985, -0.004457787610590458, 0.0004560158122330904], [-0.0029163106810301542, 0.008444669656455517, -0.006908097770065069, 0.0022457647137343884, -0.003489408642053604, 0.0028039400931447744, 0.002697426825761795, 0.005897389724850655, 0.0005979719571769238, 0.00012234690075274557, 0.011503489688038826, 0.0018883302109315991, -0.005330822430551052, -0.0077558159828186035, -0.003594263456761837, -0.005283670965582132, 0.005323818884789944, 0.002973206341266632, 0.00823555700480938, 0.008230944164097309, -0.006243553478270769, -0.001007138635031879, -0.006003264337778091, 0.004186972510069609, -0.0022541063372045755, 0.00326588680036366, -0.0030083172023296356, -0.004045683890581131, -0.002769045764580369, 0.004919241648167372, -0.007510656490921974, 0.008207809180021286, -0.0025254348292946815, 0.006792583502829075, 0.0038103261031210423, 0.003460552077740431, -0.0021847758907824755, 0.0032178040128201246, -0.0020300247706472874, -0.007883334532380104, -0.0011489010648801923, 0.003153872210532427, -0.004310508258640766, 0.004389227833598852, -0.0013184959534555674, 0.00398411275818944, -0.003368012374266982, -0.00104419921990484, 0.0032236892729997635, 0.0028802785091102123, -0.0031206985004246235, 0.00652997475117445, -0.008351256139576435, 0.00816633366048336, -0.0014947846066206694, -0.009331274777650833, -0.003560583805665374, 0.002896158257499337, -0.0029457099735736847, -0.0033217233140021563, -0.006459843832999468, -0.004530569072812796, -0.0033041611313819885, -0.0038027907721698284, -0.003983256872743368, 0.0029742741025984287, 0.0021357061341404915, 0.003028258914127946, -0.0017625587061047554, 0.0021584834903478622, -0.0027435750234872103, 0.0033711346331983805, -0.0031587323173880577, 0.0043285200372338295, -0.005196379031985998, -0.0011778880143538117, -0.008771024644374847, 0.005148874130100012, 0.003404070623219013, 0.003069026628509164, -0.0023876086343079805, -0.008859323337674141, -0.0027710404247045517, -0.0035169010516256094, -0.004192385356873274, -0.007017622701823711, -0.0004248819896019995, 0.006561212241649628, -0.008219071663916111, 0.0034966357052326202, 0.0013873511925339699, 0.0026350906118750572, -0.0029332214035093784, 0.009296661242842674, -0.006079950835555792, -0.007695399224758148, 0.0049802749417722225, 0.007721756584942341, -0.008533203043043613, -0.01020895317196846, -0.0027381121180951595, -0.0036220077890902758, -0.0031357656698673964, -0.0035720239393413067, -0.002367248758673668, -0.002180224284529686, 0.0030208295211195946, 0.00777292437851429, -0.007697863969951868, 0.003605358535423875, -0.005287454463541508, -0.00357356877066195, -0.009424185380339622, 0.0007232633070088923, -0.004792382009327412, 0.0037234376650303602, -0.010834637098014355, 0.002718859352171421, -0.0024062572047114372, -0.006302066147327423, -0.005592068657279015, -0.0009537995792925358, 0.004540350288152695, 0.006829831283539534, -0.006967886816710234, -0.002288286341354251, -0.007798411883413792, 0.003723821835592389], [0.009890507906675339, -0.003034270601347089, 0.006205675657838583, -0.0034481859765946865, 0.0021771984174847603, -0.0033207309897989035, -0.0115820886567235, -0.00994447898119688, -0.004379523452371359, -0.0064870142377913, -0.01024692039936781, -0.004462781827896833, 0.0037774539086967707, 0.0032543325796723366, 0.0041021062061190605, 0.011128786951303482, -0.006021545734256506, -0.003234941978007555, -0.0035944879055023193, -0.004491846542805433, 0.003800909034907818, 0.0030315443873405457, 0.003959363326430321, -0.0033183686900883913, 0.0008627901552245021, -0.005379727575927973, 0.004240469541400671, 0.002882826840505004, 0.0035500740632414818, -0.00842256285250187, 0.003904708893969655, -0.008639288134872913, 0.0036579298321157694, -0.009412255138158798, -0.01277057733386755, -0.003916384652256966, 0.008057111874222755, -0.003715655766427517, 0.003521633567288518, 0.011554726399481297, 0.005486328154802322, -0.007962497882544994, 0.013232658617198467, -0.009167262353003025, 0.004007927607744932, -0.0039917463436722755, 0.009766506031155586, 0.0032128437887877226, -0.008509449660778046, -0.003575775073841214, 0.003728990675881505, -0.0031939076725393534, 0.012640036642551422, -0.004506409168243408, 0.0034801617730408907, 0.01176547259092331, 0.0034308431204408407, -0.011137153953313828, 0.005422166083008051, 0.011363256722688675, 0.003208084497600794, 0.00680072046816349, 0.003807104891166091, 0.0032187073957175016, 0.009747124277055264, -0.0035122667904943228, -0.006826803088188171, -0.007465148810297251, 0.009803296998143196, -0.00307987118139863, 0.003418088424950838, -0.003896897891536355, 0.004077276214957237, -0.009566486813127995, 0.007685585413128138, 0.004137694835662842, 0.007933022454380989, -0.010916582308709621, -0.011199064552783966, -0.004111054819077253, 0.007597787771373987, 0.010210616514086723, 0.009068142622709274, 0.009328644722700119, 0.004218068439513445, 0.004166517406702042, 0.009280628524720669, -0.002443815814331174, 0.009025739505887032, -0.0032187392935156822, -0.007832196541130543, -0.004336352925747633, 0.0036056966055184603, -0.003071646438911557, 0.00916722510010004, 0.008226929232478142, -0.007327232509851456, -0.00340510462410748, 0.01081031933426857, 0.012810754589736462, 0.002657411154359579, 0.008756577968597412, 0.0101384986191988, 0.0034883935004472733, 0.008592327125370502, 0.007428899873048067, -0.010741090402007103, -0.002970761153846979, 0.009091595187783241, -0.006230887491255999, 0.007954047061502934, 0.0034718478564172983, 0.011855989694595337, -0.0030728282872587442, 0.003464174922555685, -0.0037232888862490654, 0.011023622006177902, -0.008113841526210308, 0.00894326251000166, 0.0027937302365899086, 0.009267707355320454, 0.0066996170207858086, -0.009091890417039394, -0.009911342523992062, 0.011053469963371754, 0.006505066994577646, 0.006050088442862034, -0.010372733697295189], [0.003159609390422702, -0.00897521898150444, 0.005396376829594374, -0.003643846372142434, 0.0034743761643767357, -0.006296008359640837, -0.0027213003486394882, -0.008899507112801075, -0.0034761105198413134, -0.0030601907055824995, -0.009180901572108269, -0.007259918376803398, 0.003814913798123598, 0.0072696697898209095, 0.0018258873606100678, 0.0039029542822390795, -0.004146635998040438, -0.003094889223575592, -0.004651059862226248, -0.008710364811122417, 0.003197136800736189, 0.0038206875324249268, 0.006500521209090948, -0.0032046285923570395, 0.003974256571382284, -0.003011943306773901, 0.003289681626483798, 0.002347590634599328, 0.005981177557259798, -0.006864836439490318, 0.0031781168654561043, -0.008432175032794476, 0.006380573846399784, -0.003926952835172415, -0.004425485618412495, -0.005316916853189468, 0.002246964955702424, -0.006192848086357117, 0.00488982954993844, 0.010269598104059696, 0.001419430016539991, -0.005890696309506893, 0.008286622352898121, -0.008307517506182194, 0.004023462068289518, -0.010239568538963795, 0.002847976516932249, 0.0033302975352853537, -0.005937742069363594, -0.01014323066920042, 0.0037722226697951555, -0.007147548720240593, 0.01059260405600071, -0.008265501819550991, 0.004405684769153595, 0.0027691342402249575, 0.008491218090057373, -0.008369231596589088, 0.007002733182162046, 0.008720576763153076, 0.008181161247193813, 0.0031253136694431305, 0.004779760725796223, 0.007097325287759304, 0.0075644394382834435, -0.005259349942207336, -0.003503719810396433, -0.0054868110455572605, 0.003083559451624751, -0.003190671093761921, 0.004975846037268639, -0.005648553371429443, 0.0035680709406733513, -0.011619365774095058, 0.005159892141819, 0.0028690146282315254, 0.008332359604537487, -0.006297670770436525, -0.0029986549634486437, -0.003508302615955472, 0.004059103317558765, 0.008467149920761585, 0.003657592460513115, 0.00724826892837882, 0.003794523188844323, 0.007233005948364735, 0.0006574094295501709, -0.008341806009411812, 0.008242830634117126, -0.006935145705938339, -0.0033401630353182554, -0.00614915881305933, 0.0038625337183475494, -0.0025990072172135115, 0.009035598486661911, 0.005328772589564323, -0.0021862699650228024, -0.008260217495262623, 0.0067511191591620445, 0.004510206636041403, 0.0025084589142352343, 0.005904178600758314, 0.0034359674900770187, 0.006512911058962345, 0.003623558208346367, 0.003156935330480337, -0.005798807833343744, -0.0027573539409786463, 0.0027041637804359198, -0.006187897175550461, 0.0031050213146954775, 0.003967897966504097, 0.011326530016958714, -0.006569828372448683, 0.0059050340205430984, -0.0029361299239099026, 0.0024722027592360973, -0.008809070102870464, 0.006804072298109531, 0.0025663436390459538, 0.0057172616943717, 0.00375338364392519, -0.003746378468349576, -0.0036635161377489567, 0.009529552422463894, 0.004289007745683193, 0.007002674043178558, -0.0030758280772715807], [0.004506152123212814, -0.004150706343352795, 0.004786990117281675, -0.06185692176222801, 0.043447211384773254, -0.0017111003398895264, -0.003826705040410161, -0.034232717007398605, -0.05091500282287598, -0.0070924642495810986, -0.015416550450026989, -0.004475309047847986, 0.03689378499984741, 0.0066781179048120975, 0.05481339618563652, 0.015992546454072, -0.00423726299777627, -0.0035496035125106573, -0.005947962403297424, -0.0028841220773756504, 0.00503973662853241, 0.06688354164361954, 0.03455628454685211, -0.004756981506943703, 0.00808744877576828, -0.03441975638270378, 0.06634701788425446, 0.04129762947559357, 0.005057281348854303, -0.007036982569843531, 0.03955966234207153, -0.004250930156558752, 0.04180522635579109, -0.0034100317861884832, -0.035647470504045486, -0.05429378151893616, 0.05449538677930832, -0.006737766321748495, 0.0019070933340117335, 0.01526742335408926, 0.011575866490602493, -0.006547633092850447, 0.007805947680026293, -0.005486168898642063, 0.004000149201601744, -0.004418779630213976, 0.002705698600038886, 0.007258161436766386, -0.027425751090049744, -0.008214707486331463, 0.05642145872116089, -0.002421950688585639, 0.03465243801474571, -0.014731200411915779, 0.045428115874528885, 0.006126283667981625, 0.012227492406964302, -0.002572360448539257, 0.0017538780812174082, 0.021518928930163383, 0.0033381625544279814, 0.03424404561519623, 0.04032216966152191, 0.05048547312617302, 0.0038842784706503153, -0.004551045596599579, -0.0014171400107443333, -0.006346472539007664, 0.005384059157222509, -0.005018985830247402, 0.04142236337065697, -0.04516022279858589, 0.005179659463465214, -0.01635589823126793, 0.062405720353126526, 0.048746563494205475, 0.03961217775940895, -0.005541663151234388, -0.021567292511463165, -0.056030210107564926, 0.04791770502924919, 0.039530884474515915, 0.038116954267024994, 0.038137130439281464, 0.04310869425535202, 0.014741620048880577, 0.017364811152219772, -0.004527436103671789, 0.014414156787097454, -0.041841089725494385, -0.005949851591140032, -0.005743972957134247, 0.006645740009844303, -0.002794245956465602, 0.0032792517449706793, 0.03549729287624359, -0.005401267670094967, -0.003946291282773018, 0.006192847620695829, 0.02491680160164833, 0.025338437408208847, 0.04280603677034378, 0.038219861686229706, 0.006026710383594036, 0.046455468982458115, 0.04897152632474899, -0.04088938981294632, -0.0037173780146986246, 0.033003486692905426, -0.005649125669151545, 0.009727693162858486, 0.005786405876278877, 0.02203591726720333, -0.006162330508232117, 0.05674854293465614, -0.0632546916604042, 0.020853469148278236, -0.004044577479362488, 0.003127811476588249, 0.03145689517259598, 0.003667091252282262, 0.06133275479078293, -0.04117409884929657, -0.007750416174530983, 0.003836318850517273, 0.005309713538736105, 0.03807712718844414, -0.005231884773820639], [-0.016136296093463898, 0.0033892025239765644, -0.004043969325721264, 0.013987814076244831, -0.004990064073354006, 0.013188391923904419, 0.010991725139319897, 0.012161004357039928, 0.024657465517520905, 0.021051660180091858, 0.013182590715587139, 0.01050491351634264, -0.01952538825571537, -0.02070048451423645, -0.0286091361194849, -0.027142787352204323, 0.00962735339999199, 0.0010065521346405149, 0.0033871945925056934, 0.02087540365755558, -0.00572100980207324, -0.004643701948225498, -0.02013283595442772, 0.006600057706236839, -0.007076872047036886, 0.01012387778609991, -0.004939218517392874, -0.0047272369265556335, -0.0025658782105892897, 0.014145655557513237, -0.005923150572925806, 0.02552088536322117, -0.025334211066365242, 0.013995076529681683, 0.011295787990093231, 0.023237058892846107, -0.028990743681788445, 0.02089935913681984, -0.025334497913718224, -0.013734383508563042, -0.014592714607715607, 0.0043914285488426685, -0.01680539920926094, 0.012032989412546158, -0.004291578661650419, 0.018211275339126587, -0.009854773990809917, -0.01317741721868515, 0.003974546678364277, 0.011045029386878014, -0.013609671965241432, 0.007637300528585911, -0.020094627514481544, 0.012380622327327728, -0.013239157386124134, -0.021089836955070496, -0.02352326177060604, 0.00791845377534628, -0.005095995496958494, -0.013305576518177986, -0.023264028131961823, -0.005890481639653444, -0.01991192065179348, -0.009284195490181446, -0.023596487939357758, 0.022005919367074966, 0.0029906793497502804, 0.022945208474993706, -0.0244379211217165, 0.00412813201546669, -0.013812136836349964, 0.007640891708433628, -0.0036295519676059484, 0.014247626066207886, -0.03008062019944191, -0.022783813998103142, -0.017370663583278656, 0.021870294585824013, 0.02904880791902542, 0.027698300778865814, -0.026632100343704224, -0.004077313467860222, -0.005072430707514286, -0.021262051537632942, -0.02418442815542221, -0.02492626942694187, -0.017536267638206482, 0.008890693075954914, -0.010552442632615566, 0.007007109932601452, 0.01463260967284441, 0.01314651221036911, -0.015611415728926659, 0.018281370401382446, -0.008689024485647678, -0.012827383354306221, 0.009840361773967743, 0.0044553871266543865, -0.009564831852912903, -0.018579790368676186, -0.019089391455054283, -0.012510286644101143, -0.018167834728956223, -0.00427302997559309, -0.02341732196509838, -0.010077866725623608, 0.008774235844612122, 0.023459332063794136, -0.019087472930550575, 0.004064121749252081, -0.01329670287668705, -0.005366291385143995, -0.0034195457119494677, 0.014128484763205051, -0.026933038607239723, 0.028742551803588867, -0.0028990749269723892, 0.0036487174220383167, -0.009814747609198093, -0.009659613482654095, -0.00802834052592516, -0.005374820902943611, 0.020717985928058624, 0.023404521867632866, -0.016592862084507942, -0.03107113018631935, -0.023016439750790596, 0.005957952234894037], [0.006675892975181341, -0.010589350014925003, 0.005882010329514742, -0.005038521718233824, 0.0007404346251860261, -0.00867342110723257, -0.0029733197297900915, -0.007118451874703169, -0.003906858153641224, -0.0025665818247944117, -0.009426936507225037, -0.008992883376777172, 0.0053756460547447205, 0.010469220578670502, 0.0025979485362768173, 0.004331332631409168, -0.003540254198014736, -0.009554555639624596, -0.00860152579843998, -0.007544436492025852, 0.005888653453439474, 0.0030350154265761375, 0.006949819158762693, -0.004755918402224779, 0.0032511777244508266, -0.003252435242757201, 0.0005226965295150876, 0.0026038959622383118, 0.008179954253137112, -0.006277860142290592, 0.007383930496871471, -0.004148217849433422, 0.004406863823533058, -0.0031055170111358166, -0.009218278340995312, -0.004267167299985886, 0.00322161428630352, -0.003340390743687749, 0.0056388541124761105, 0.010249427519738674, 0.0043594310991466045, -0.0040028709918260574, 0.007188852410763502, -0.005791851319372654, 0.0037027846556156874, -0.003571778303012252, 0.007435808889567852, 0.004813977982848883, -0.005119367502629757, -0.007815622724592686, 0.003041283693164587, -0.006153992842882872, 0.009910103864967823, -0.008383861742913723, 0.003082647919654846, 0.002256027888506651, 0.00646296376362443, -0.00830334983766079, 0.008074520155787468, 0.0025533782318234444, 0.006424021441489458, 0.007498898543417454, 0.0030059099663048983, 0.00313483364880085, 0.003453365759924054, -0.003350806189700961, -0.0071691363118588924, -0.009118743240833282, 0.00562511570751667, -0.005498058628290892, 0.006199422292411327, -0.0036694796290248632, 0.003978425171226263, -0.011824642308056355, 0.0044174399226903915, 0.005873840302228928, 0.003513203701004386, -0.0068556154146790504, -0.0035719042643904686, -0.004185845609754324, 0.004426263272762299, 0.007494557183235884, 0.008858704008162022, 0.0035059424117207527, 0.003997768275439739, 0.0038106837309896946, 0.005541294813156128, -0.008045773953199387, 0.009798223152756691, -0.007275474723428488, -0.005940188188105822, -0.0059909638948738575, 0.004509360529482365, -0.007482467219233513, 0.00679364986717701, 0.0059761423617601395, -0.003847760846838355, -0.006923623848706484, 0.006474822759628296, 0.009983958676457405, 0.010536319576203823, 0.009377111680805683, 0.007902943529188633, 0.003202848369255662, 0.00739982258528471, 0.0032369617838412523, -0.008494852110743523, -0.0032163087744265795, 0.002735855057835579, -0.005969332996755838, 0.005226009525358677, 0.0016144834225997329, 0.01074767392128706, -0.005475001409649849, 0.008524307981133461, -0.00407508434727788, 0.002830405253916979, -0.0031362222507596016, 0.009519863873720169, 0.002920652972534299, 0.005509139504283667, 0.0013576947385445237, -0.005673530511558056, -0.007715883664786816, 0.0029202646110206842, 0.004954212345182896, 0.004611389245837927, -0.0076043931767344475], [0.00873823557049036, -0.003577491035684943, 0.01010596938431263, -0.004152905661612749, 0.0026365395169705153, -0.005542857106775045, -0.00736093707382679, -0.00655179051682353, -0.006128345616161823, -0.0033579871524125338, -0.011669809930026531, -0.008518337272107601, 0.004079857841134071, 0.010003947652876377, 0.005675747990608215, 0.004099906422197819, -0.00846283882856369, -0.005485608242452145, -0.007476279512047768, -0.008197099901735783, 0.009366916492581367, 0.0045171091333031654, 0.007157772313803434, -0.003108255099505186, 0.0020546468440443277, -0.007331928238272667, 0.006324379704892635, 0.004253242630511522, 0.010176788084208965, -0.008782834745943546, 0.00753979105502367, -0.008222873322665691, 0.008385281078517437, -0.0072537316009402275, -0.00417693005874753, -0.0036412777844816446, 0.0034636440686881542, -0.0035191825591027737, 0.005119615234434605, 0.010254583321511745, 0.004480025265365839, -0.009655747562646866, 0.004774506203830242, -0.008439640514552593, 0.006811796687543392, -0.003345497651025653, 0.005670479498803616, 0.00416801031678915, -0.003305386286228895, -0.00853445753455162, 0.006284306291490793, -0.003075521672144532, 0.01046715583652258, -0.008327153511345387, 0.006726135965436697, 0.0103690717369318, 0.008912584744393826, -0.009381849318742752, 0.006096988916397095, 0.011297221295535564, 0.002895302837714553, 0.007094220723956823, 0.003196252975612879, 0.007865909487009048, 0.00480070523917675, -0.0069923996925354, -0.0031003854237496853, -0.007294209208339453, 0.0032974258065223694, -0.0028266364242881536, 0.006028907839208841, -0.0036694426089525223, 0.003634121734648943, -0.011070499196648598, 0.007044073659926653, 0.0037816304247826338, 0.0034477454610168934, -0.003064000280573964, -0.008922100998461246, -0.006421406287699938, 0.006728826090693474, 0.008861883543431759, 0.004801201168447733, 0.00764823192730546, 0.005778813734650612, 0.007176297716796398, 0.0031727601308375597, -0.008627556264400482, 0.008387831039726734, -0.0032791062258183956, -0.004630704410374165, -0.00592983141541481, 0.004807666409760714, -0.007485231384634972, 0.004853987134993076, 0.00950318668037653, -0.003516038879752159, -0.0034130278509110212, 0.006940837483853102, 0.01157097052782774, 0.007703132461756468, 0.003373226383700967, 0.003767645452171564, 0.0070788743905723095, 0.005583969876170158, 0.009086575359106064, -0.007348627783358097, -0.00742748286575079, 0.004653022158890963, -0.007735088001936674, 0.008519238792359829, 0.0054841237142682076, 0.008172466419637203, -0.007299504708498716, 0.008532783016562462, -0.0035632962826639414, 0.008930236101150513, -0.009028162807226181, 0.003492427757009864, 0.008938874118030071, 0.0027590859681367874, 0.005288451910018921, -0.0031742402352392673, -0.0028625496197491884, 0.008566438220441341, 0.004564934875816107, 0.007888819091022015, -0.008411460556089878], [0.016996722668409348, -0.015550527721643448, 0.016893019899725914, -0.01825689524412155, 0.015420971438288689, -0.0042982399463653564, -0.01633145473897457, -0.004332289565354586, -0.019228780642151833, -0.0043333363719284534, -0.01151584554463625, -0.00425603985786438, 0.0046264478005468845, 0.0041924938559532166, 0.016879981383681297, 0.01989622972905636, -0.01998313143849373, -0.003566078143194318, -0.015604807995259762, -0.0034908149391412735, 0.007893412373960018, 0.01831134594976902, 0.013365273363888264, -0.021162239834666252, 0.012806905433535576, -0.012642822228372097, 0.005047642160207033, 0.011039494536817074, 0.0037709069438278675, -0.0043720644898712635, 0.01927601359784603, -0.018477333709597588, 0.016823966056108475, -0.02021295763552189, -0.017493216320872307, -0.017839744687080383, 0.015456708148121834, -0.015192209742963314, 0.017242608591914177, 0.007942707277834415, 0.01707490347325802, -0.01865805685520172, 0.014349933713674545, -0.019911974668502808, 0.018402351066470146, -0.004464410245418549, 0.015803758054971695, 0.00437583215534687, -0.016862589865922928, -0.016722438856959343, 0.0191523227840662, -0.014316930435597897, 0.0035483497194945812, -0.008836529217660427, 0.01722150295972824, 0.014761178754270077, 0.004125943873077631, -0.004707033280283213, 0.004148100037127733, 0.010028313845396042, 0.003804235951974988, 0.013897707685828209, 0.004144630394876003, 0.015345399267971516, 0.016063613817095757, -0.003925166092813015, -0.0038121978286653757, -0.019097821786999702, 0.01055215671658516, -0.0057891132310032845, 0.004187273792922497, -0.004165323916822672, 0.01597106084227562, -0.012692391872406006, 0.01942172646522522, 0.014608405530452728, 0.015474597923457623, -0.017977094277739525, -0.00537341320887208, -0.01879161037504673, 0.012657522223889828, 0.00641784630715847, 0.016183482483029366, 0.013547185808420181, 0.004178972449153662, 0.006128410808742046, 0.011001757346093655, -0.011090724729001522, 0.010100334882736206, -0.003955320920795202, -0.018943244591355324, -0.017470715567469597, 0.004904510453343391, -0.019239818677306175, 0.009653047658503056, 0.017081035301089287, -0.0171100702136755, -0.018946845084428787, 0.01956765539944172, 0.01293373852968216, 0.015278777107596397, 0.013122713193297386, 0.016820363700389862, 0.017649265006184578, 0.005907267332077026, 0.019017526879906654, -0.004529731348156929, -0.014337928034365177, 0.01231885515153408, -0.01628716289997101, 0.016800206154584885, 0.0168173685669899, 0.012780169025063515, -0.02039881981909275, 0.00883268378674984, -0.005344761069864035, 0.015074579045176506, -0.018073996528983116, 0.020491601899266243, 0.01558191142976284, 0.017817597836256027, 0.007861493155360222, -0.01567061059176922, -0.01570628583431244, 0.01698450557887554, 0.00403631292283535, 0.0160199161618948, -0.00436357781291008], [-0.005421438720077276, 0.009055777452886105, -0.004946795757859945, 0.003405194031074643, -0.003460824489593506, 0.0036020700354129076, 0.008809025399386883, 0.006802727468311787, 0.0017881799722090364, 0.0007518056663684547, 0.011143416166305542, 0.003164328169077635, -0.003811117261648178, -0.006502422969788313, -0.0032381080090999603, -0.0018532023532316089, 0.0028268613386899233, 0.004057030193507671, 0.008261791430413723, 0.0076566217467188835, -0.006861982401460409, -0.003527545602992177, -0.00602685334160924, 0.004239220172166824, -0.003994053229689598, 0.008442803286015987, -0.007040962111204863, -0.003938185982406139, -0.006981149781495333, 0.003212699433788657, -0.0035714281257241964, 0.0074501424096524715, -0.00603602034971118, 0.004538016393780708, 0.006772065069526434, 0.00367612112313509, -0.001325479825027287, 0.0039281537756323814, -0.003847595537081361, -0.008938167244195938, -0.00243956851772964, 0.0035842445213347673, -0.0037292493507266045, 0.0031372292432934046, -0.002474247245118022, 0.006827265489846468, -0.006443493999540806, -0.0026133782230317593, 0.006492920219898224, 0.0029097457882016897, -0.002380669116973877, 0.005929451901465654, -0.0075165689922869205, 0.011017571203410625, -0.002644757740199566, -0.006396963261067867, -0.003999245353043079, 0.008246679790318012, -0.00591709278523922, -0.009203500114381313, -0.0029048712458461523, -0.0043997326865792274, -0.005752237513661385, -0.0029101187828928232, -0.0076652816496789455, 0.0037699260283261538, 0.0016767896013334394, 0.002963514532893896, -0.004599748644977808, 0.0029075839556753635, -0.004591945093125105, 0.0054855793714523315, -0.0073561398312449455, 0.010395980440080166, -0.002991855377331376, -0.0023163508158177137, -0.007218603976070881, 0.0025595210026949644, 0.006180691998451948, 0.0033174215350300074, -0.0014148270711302757, -0.002787747187539935, -0.005638292990624905, -0.003886426566168666, -0.006398852448910475, -0.005798213183879852, -0.0024250533897429705, 0.0011218172730877995, -0.009511974640190601, 0.003768190275877714, 0.002066865097731352, 0.005188357550650835, -0.00032502159592695534, 0.009318243712186813, -0.0026276959106326103, -0.007579779718071222, 0.002728915773332119, 0.0069960118271410465, -0.0028507148381322622, -0.010137435048818588, -0.010036412626504898, -0.006743893958628178, -0.007562931627035141, -0.004057842772454023, -0.005761387292295694, -0.0020247900392860174, 0.0063146622851490974, 0.006428611930459738, -0.007292828056961298, 0.0014765603700652719, -0.005030069500207901, -0.003571091452613473, -0.0027525690384209156, 0.0034891925752162933, -0.0022966801188886166, 0.0036297249607741833, -0.00858630333095789, 0.003914705477654934, -0.0043699052184820175, -0.0024860058911144733, -0.002555136801674962, -0.0015957485884428024, 0.0030494392849504948, 0.004795796237885952, -0.002929123118519783, -0.0026541997212916613, -0.0031858598813414574, 0.003128256881609559], [-0.006301354616880417, 0.008493765257298946, -0.0030484048184007406, 0.01224405225366354, -0.025853779166936874, 0.0031985437963157892, 0.004705970641225576, 0.005094101186841726, 0.008297913707792759, 0.016943547874689102, 0.013561584055423737, 0.013803680427372456, -0.013540778309106827, -0.017331358045339584, -0.013775015249848366, -0.016691124066710472, 0.003323824843391776, 0.0048139579594135284, 0.002703067846596241, 0.0079044159501791, -0.0033340142108500004, -0.01515741553157568, -0.00916697084903717, 0.0018721732776612043, -0.011702354066073895, 0.00843643955886364, -0.018036410212516785, -0.014484528452157974, -0.010103224776685238, 0.011596991680562496, -0.004725603852421045, 0.0027051386423408985, -0.010516333393752575, 0.0034243178088217974, 0.015203315764665604, 0.019405469298362732, -0.013469244353473186, 0.011436990462243557, -0.006582460831850767, -0.009826915338635445, -0.010120691731572151, 0.014299784786999226, -0.005986420437693596, 0.0019167546415701509, -0.007896057330071926, 0.016234494745731354, -0.007095959968864918, -0.005246782209724188, 0.008565225638449192, 0.0018838811665773392, -0.017074640840291977, 0.008281170390546322, -0.01146591268479824, 0.009836996905505657, -0.013886784203350544, -0.0032844890374690294, -0.005962781608104706, 0.010891126468777657, -0.012581174261868, -0.0029252059757709503, -0.00198134477250278, -0.01629445143043995, -0.014098411425948143, -0.012568357400596142, -0.0040220110677182674, 0.01151279266923666, 0.0019971674773842096, 0.0055945259518921375, -0.013495362363755703, 0.010509248822927475, -0.012767077423632145, 0.005837384611368179, -0.003434710903093219, 0.021638093516230583, -0.014662195928394794, -0.018442271277308464, -0.010839574038982391, 0.009350568987429142, 0.01260401401668787, 0.022405846044421196, -0.02389664575457573, -0.006552934646606445, -0.01642090454697609, -0.021711986511945724, -0.005098060704767704, -0.013891671784222126, -0.009507080540060997, 0.0022037567105144262, -0.014833839610219002, 0.01124015636742115, 0.004010584205389023, 0.013022420927882195, -0.010206427425146103, 0.004493372049182653, -0.007590418681502342, -0.011049441061913967, 0.006300138309597969, 0.0024493287783116102, -0.004743366036564112, -0.003313007764518261, -0.005158701911568642, -0.011486576870083809, -0.011804149486124516, -0.005996812134981155, -0.021633584052324295, -0.016755586490035057, 0.00693756528198719, 0.002670010318979621, -0.005883552599698305, 0.00189372303429991, -0.0132350604981184, -0.016525384038686752, -0.024990471079945564, 0.017864661291241646, -0.012415175326168537, 0.014585809782147408, -0.006342865992337465, 0.015580113977193832, -0.007816514931619167, -0.003911847248673439, -0.00790862925350666, -0.017307408154010773, 0.011805985122919083, 0.00441634189337492, -0.001257687690667808, -0.002846288960427046, -0.011253934353590012, 0.015301038511097431], [0.005620559677481651, -0.0025458987802267075, 0.02999621443450451, -0.029757974669337273, 0.06468677520751953, -0.008277811110019684, -0.0038440374191850424, -0.012461433187127113, -0.04147694632411003, -0.030651725828647614, -0.005781312473118305, -0.030729670077562332, 0.0319821797311306, 0.0056951348669826984, 0.03523821011185646, 0.05463835969567299, -0.006569091230630875, -0.008027080446481705, -0.0027411726769059896, -0.005217930302023888, 0.019731024280190468, 0.007899399846792221, 0.020913423970341682, -0.007053993176668882, 0.07306968420743942, -0.025339439511299133, 0.023493364453315735, 0.07315172255039215, 0.015421112067997456, -0.017063217237591743, 0.05181118845939636, -0.016071898862719536, 0.00910763069987297, -0.0020072306506335735, -0.0058896797709167, -0.041024431586265564, 0.03320809453725815, -0.021643364802002907, 0.019075047224760056, 0.010504091158509254, 0.006289381068199873, -0.0039051007479429245, 0.007055153138935566, -0.006017393432557583, 0.006533124949783087, -0.008589343167841434, 0.006474628113210201, 0.01165727712213993, -0.007364714052528143, -0.003148776013404131, 0.004734033718705177, -0.012206386774778366, 0.014542585238814354, -0.01947937346994877, 0.02407972700893879, 0.01731652207672596, 0.022820400074124336, -0.0026039890944957733, 0.022756537422537804, 0.012914934195578098, 0.006538917310535908, 0.0063780746422708035, 0.024726547300815582, 0.006890855263918638, 0.006416729651391506, -0.014427932910621166, -0.019299793988466263, -0.014061030931770802, 0.03218107670545578, -0.017103560268878937, 0.02137913927435875, -0.01389265339821577, 0.004184854216873646, -0.006252015940845013, 0.006465415470302105, 0.04008594900369644, 0.004056156612932682, -0.005063703749328852, -0.005974781699478626, -0.007923724129796028, 0.048377037048339844, 0.0052479845471680164, 0.02346900850534439, 0.05921462923288345, 0.02422691322863102, 0.011735975742340088, 0.008386382833123207, -0.025022756308317184, 0.018191035836935043, -0.006807774305343628, -0.028807738795876503, -0.014954829588532448, 0.04204457998275757, -0.004992615431547165, 0.002920991275459528, 0.006186926271766424, -0.012853997759521008, -0.0025964800734072924, 0.019067075103521347, 0.0036794722545892, 0.012557772919535637, 0.01834593527019024, 0.006847819313406944, 0.0037459097802639008, 0.05135253071784973, 0.05337198078632355, -0.012468457221984863, -0.015161275863647461, 0.011005772277712822, -0.008420011959969997, 0.0038457971531897783, 0.03998450189828873, 0.03685547038912773, -0.009473742917180061, 0.022849831730127335, -0.041950762271881104, 0.01056700013577938, -0.024359097704291344, 0.0037900335155427456, 0.0023503019474446774, 0.0048235077410936356, 0.04083026200532913, -0.02672659419476986, -0.006228722631931305, 0.010266740806400776, 0.0030409235041588545, 0.006458120886236429, -0.006139816716313362], [0.024408094584941864, -0.0035757224541157484, 0.017075272276997566, -0.004788225516676903, 0.017768964171409607, -0.004375385120511055, -0.024287473410367966, -0.004191223997622728, -0.0048821717500686646, -0.020450493320822716, -0.011389934457838535, -0.0043860310688614845, 0.017270561307668686, 0.004194126930087805, 0.02090856432914734, 0.01958298869431019, -0.02828587219119072, -0.0035332636907696724, -0.022055070847272873, -0.01990547962486744, 0.019759435206651688, 0.01836133375763893, 0.018716370686888695, -0.027850063517689705, 0.018928145989775658, -0.020173588767647743, 0.0259439367800951, 0.015025310218334198, 0.02367544360458851, -0.02410496212542057, 0.005096954293549061, -0.022653251886367798, 0.021921101957559586, -0.015730399638414383, -0.01723378524184227, -0.01763314940035343, 0.02304155007004738, -0.008809968829154968, 0.02106684446334839, 0.009171755984425545, 0.004581301938742399, -0.023132847622036934, 0.016716891899704933, -0.0043108840472996235, 0.026548977941274643, -0.017219141125679016, 0.01979994960129261, 0.0319792702794075, -0.02173665724694729, -0.0211519543081522, 0.018693922087550163, -0.003570407861843705, 0.018004197627305984, -0.0036950092762708664, 0.021553222090005875, 0.011731704697012901, 0.006506837904453278, -0.022931626066565514, 0.01375470869243145, 0.013212219811975956, 0.023771390318870544, 0.020452212542295456, 0.02051243931055069, 0.02005968615412712, 0.020934613421559334, -0.019648967310786247, -0.02135653793811798, -0.02486981824040413, 0.021841516718268394, -0.02432570978999138, 0.01862221397459507, -0.00460340641438961, 0.019977834075689316, -0.012578440830111504, 0.0044360533356666565, 0.00468335160985589, 0.01991075649857521, -0.01897851936519146, -0.004307830240577459, -0.005086576100438833, 0.01353695522993803, 0.0038011413998901844, 0.004622228909283876, 0.01891297660768032, 0.006754059344530106, 0.006700960453599691, 0.02577248215675354, -0.003764792112633586, 0.011383692733943462, -0.004162979312241077, -0.022249039262533188, -0.02125091291964054, 0.01990276761353016, -0.0276299100369215, 0.021850045770406723, 0.02112417295575142, -0.00457492470741272, -0.0242755226790905, 0.02574065700173378, 0.012324669398367405, 0.005290500819683075, 0.016492851078510284, 0.018026746809482574, 0.01509334146976471, 0.018041493371129036, 0.005060891155153513, -0.004187324084341526, -0.017545197159051895, 0.003347937949001789, -0.02327640727162361, 0.024438058957457542, 0.021532202139496803, 0.004038260318338871, -0.02202483080327511, 0.0049198344349861145, -0.020732317119836807, 0.021544570103287697, -0.00409272825345397, 0.03191881254315376, 0.004872096702456474, 0.00364819448441267, 0.023851193487644196, -0.012785540893673897, -0.023519575595855713, 0.0051736836321651936, 0.021532468497753143, 0.021878868341445923, -0.023326026275753975], [0.011854982934892178, -0.012382551096379757, 0.004643143154680729, -0.01186270173639059, 0.01217741146683693, -0.01434795930981636, -0.014282657764852047, -0.011331235989928246, -0.005001467186957598, -0.012847278267145157, -0.01037558913230896, -0.014182332903146744, 0.013522560708224773, 0.003706129500642419, 0.004186051897704601, 0.011670954525470734, -0.01380188763141632, -0.0043497467413544655, -0.013918574899435043, -0.0034266498405486345, 0.003899014089256525, 0.0138527387753129, 0.011682363227009773, -0.012599952518939972, 0.013207217678427696, -0.010864175856113434, 0.013241688720881939, 0.01284424401819706, 0.014965000562369823, -0.012263825163245201, 0.014158389531075954, -0.014633512124419212, 0.011290776543319225, -0.01572064869105816, -0.014135044068098068, -0.004490125924348831, 0.013590190559625626, -0.004124632105231285, 0.0045740604400634766, 0.009999576956033707, 0.00400518998503685, -0.004481625277549028, 0.005374768283218145, -0.014224587939679623, 0.004970642272382975, -0.005749077070504427, 0.003656641347333789, 0.015598518773913383, -0.003813250921666622, -0.00475661875680089, 0.004423648118972778, -0.007967252284288406, 0.012833175249397755, -0.009566893801093102, 0.004311957396566868, 0.007470307871699333, 0.005245218984782696, -0.015285252593457699, 0.013388562016189098, 0.006845034658908844, 0.012335801497101784, 0.003999300301074982, 0.0048873708583414555, 0.01146947592496872, 0.013642511330544949, -0.011784530244767666, -0.01260980125516653, -0.01236991211771965, 0.005590205546468496, -0.013643594458699226, 0.012776595540344715, -0.010728578083217144, 0.010277477093040943, -0.0037382766604423523, 0.012793614529073238, 0.01409709919244051, 0.011223534122109413, -0.012909353710711002, -0.014360455796122551, -0.0107823945581913, 0.004909830633550882, 0.013009726069867611, 0.013208802789449692, 0.004595444072037935, 0.0037695984356105328, 0.012974684126675129, 0.004703270737081766, -0.01075902208685875, 0.010048599913716316, -0.013950993306934834, -0.013083535246551037, -0.01449642051011324, 0.010843613184988499, -0.004387027118355036, 0.005585075356066227, 0.009752873331308365, -0.012452875263988972, -0.01333746500313282, 0.004407570697367191, 0.01400475762784481, 0.002924103057011962, 0.012146188877522945, 0.013294458389282227, 0.013895292766392231, 0.004432950634509325, 0.0064758434891700745, -0.014552908949553967, -0.003828205168247223, 0.0031286384910345078, -0.011855872347950935, 0.012522132135927677, 0.005597399547696114, 0.013131314888596535, -0.005792951676994562, 0.004124363884329796, -0.0045564379543066025, 0.0034069917164742947, -0.009837446734309196, 0.015511698089540005, 0.012159541249275208, 0.004366790875792503, 0.011263769119977951, -0.003798593068495393, -0.010494783520698547, 0.012336972169578075, 0.0036163099575787783, 0.012327700853347778, -0.012567841447889805], [-0.022680720314383507, 0.004129229113459587, -0.004287495277822018, 0.024233315140008926, -0.014635318890213966, 0.024272901937365532, 0.022196749225258827, 0.014146821573376656, 0.02675708942115307, 0.018177742138504982, 0.011030618101358414, 0.022568993270397186, -0.005178529303520918, -0.018655328080058098, -0.008035973645746708, -0.017300058156251907, 0.024134863168001175, 0.019650256261229515, 0.013799712993204594, 0.01244431734085083, -0.004390147048979998, -0.005757656879723072, -0.01621723547577858, 0.0067288922145962715, -0.005742826499044895, 0.0046340087428689, -0.014229748398065567, -0.018286872655153275, -0.022046245634555817, 0.023373592644929886, -0.005444907117635012, 0.021794170141220093, -0.020050154998898506, 0.006134203169494867, 0.016024095937609673, 0.022599227726459503, -0.021691633388400078, 0.019290287047624588, -0.02112600766122341, -0.011058122850954533, -0.004659836180508137, 0.02088049054145813, -0.013789422810077667, 0.023488860577344894, -0.02072765678167343, 0.01777040772140026, -0.01994803361594677, -0.00493462011218071, 0.021210793405771255, 0.022391270846128464, -0.008511614985764027, 0.019618362188339233, -0.016671856865286827, 0.00825708918273449, -0.022401444613933563, -0.003495265496894717, -0.020103802904486656, 0.01962571032345295, -0.014349229633808136, -0.01310498733073473, -0.021919764578342438, -0.02143085189163685, -0.01887703873217106, -0.01978730410337448, -0.00420768978074193, 0.010542967356741428, 0.004255606792867184, 0.021420296281576157, -0.02400101348757744, 0.020839732140302658, -0.020222822204232216, 0.010680189356207848, -0.017032440751791, 0.011312680318951607, -0.021312886849045753, -0.004704980179667473, -0.018404949456453323, 0.021113669499754906, 0.0052856700494885445, 0.022420259192585945, -0.020998865365982056, -0.019179871305823326, -0.023605458438396454, -0.018150227144360542, -0.020769748836755753, -0.018229926005005836, -0.005896913353353739, 0.010778144001960754, -0.01043547224253416, 0.023035245016217232, 0.006471988279372454, 0.01542106457054615, -0.02462223917245865, 0.021989254280924797, -0.02128192037343979, -0.019786130636930466, 0.025222761556506157, 0.02154790237545967, -0.004563524853438139, -0.014496361836791039, -0.015214003622531891, -0.016650162637233734, -0.007486467715352774, -0.0046666283160448074, -0.022065596655011177, -0.005510661285370588, 0.022052936255931854, 0.01945210061967373, -0.005636855028569698, 0.02274828962981701, -0.021121487021446228, -0.009255998767912388, -0.0031504330690950155, 0.024137895554304123, -0.018465664237737656, 0.02447374537587166, -0.019284503534436226, 0.022831283509731293, -0.025706466287374496, -0.019461173564195633, -0.014048987999558449, -0.02300567366182804, 0.01727345958352089, 0.005451695527881384, -0.01961403712630272, -0.02283116988837719, -0.019893314689397812, 0.011519556865096092], [-0.0029467176645994186, 0.002987031824886799, -0.006529953330755234, 0.003335582558065653, -0.003019151045009494, 0.0012601792113855481, 0.0029241973534226418, 0.0015083354664966464, 0.001013601548038423, 0.0034782695583999157, 0.010337373241782188, 0.0028445268981158733, -0.003065252210944891, -0.002786873374134302, -0.003361926879733801, -0.0033097683917731047, 0.0025737059768289328, 0.0029561417177319527, 0.0027641940396279097, 0.0026211445219814777, -0.0029663993045687675, -0.002986073959618807, -0.0032239784486591816, 0.0037857373245060444, -0.003912914544343948, 0.002699400996789336, -0.0007845111540518701, -0.0008073094068095088, -0.002726980485022068, 0.00021116272546350956, -0.00428999587893486, 0.0004052406002301723, -0.0022622731048613787, 0.0022187416907399893, 0.0035336154978722334, 0.0031318492256104946, -0.0024516114499419928, 0.0007935381727293134, -0.0031313826330006123, -0.01006929948925972, -0.0028121001087129116, 0.0028091915883123875, -0.00599659513682127, 0.003471404081210494, -0.002291177399456501, 0.003226937958970666, -0.00020280183525756001, -0.0024459739215672016, 0.0023222542367875576, 0.0029037161730229855, -0.004550858400762081, 0.0005868854350410402, -0.006554927211254835, 0.009252043440937996, -0.002183282282203436, -0.007798197213560343, -0.003289166372269392, 0.0020991007331758738, -0.0009099144372157753, -0.003106038784608245, -0.0023798998445272446, -0.002584414556622505, -0.0015739542432129383, -0.0013063052901998162, -0.0011190318036824465, 0.0001532478490844369, 0.0022641150280833244, 0.002065677661448717, -0.003071007551625371, 0.002933594398200512, -0.003034027758985758, 0.00222380249761045, -0.001869285129942, 0.007804366759955883, -0.0006510731182061136, -0.0031460162717849016, -0.0026610088534653187, 0.0013128042919561267, 0.0022476459853351116, 0.0035594541113823652, -0.002367251319810748, -0.003615375841036439, -0.0034425491467118263, -0.0029966665897518396, -0.0030183796770870686, -0.003470220137387514, -0.002812253776937723, 0.006231948733329773, -0.00931626372039318, 0.002688603475689888, 0.0032878213096410036, 0.0033243221696466208, -0.003448279807344079, 0.0033860327675938606, -0.002716910559684038, -0.0034750974737107754, 0.0028651675675064325, 0.003162173554301262, -0.0004831108672078699, -0.009877440519630909, -0.0047232829965651035, -0.0027755217161029577, -0.0004033911391161382, -0.002777308225631714, -0.003443986875936389, -0.002590598538517952, 0.0014070860343053937, 0.003303425619378686, -0.004972292575985193, 0.002962900558486581, -0.0001032973887049593, -0.003565142396837473, -0.003142068861052394, 0.0013818672159686685, -0.0028221120592206717, 0.001760396407917142, -0.0023806507233530283, 0.002858369378373027, -0.0006544602219946682, -0.0023941476829349995, -0.0007518809288740158, -0.0018443022854626179, 0.0011482499539852142, 0.0021472882945090532, -0.0024791297037154436, -0.0020529828034341335, -0.0022613743785768747, 0.0021749427542090416], [-0.006007094867527485, 0.004384506959468126, -0.011858580633997917, 0.0024931649677455425, -0.003178659128025174, 0.004097680561244488, 0.0058798096142709255, 0.0036961534060537815, 0.004716228693723679, 0.0031923723872750998, 0.008548078127205372, 0.008628102019429207, -0.004112187307327986, -0.00668729143217206, -0.005055659916251898, -0.009652580134570599, 0.008868475444614887, 0.008535906672477722, 0.0029624267481267452, 0.009478059597313404, -0.005327445920556784, -0.004112525377422571, -0.0032813777215778828, 0.005568194668740034, -0.0035567835438996553, 0.007798435166478157, -0.0028348166961222887, -0.0032099231611937284, -0.0033485160674899817, 0.005718622822314501, -0.004434340633451939, 0.007421114016324282, -0.006509157828986645, 0.010389754548668861, 0.00415777275338769, 0.0044859242625534534, -0.00535604590550065, 0.007099975366145372, -0.005632014479488134, -0.011102521792054176, -0.006341851782053709, 0.0050461371429264545, -0.007720405701547861, 0.003216691082343459, -0.003594542620703578, 0.003303749253973365, -0.006989683490246534, -0.007184446323662996, 0.003255280898883939, 0.009086509235203266, -0.003007919294759631, 0.007818774320185184, -0.0031626771669834852, 0.010314293205738068, -0.0034884989727288485, -0.011490121483802795, -0.00841544009745121, 0.0056581320241093636, -0.009313748218119144, -0.011143116280436516, -0.009313465096056461, -0.006824493873864412, -0.006465855520218611, -0.00619546277448535, -0.007602222729474306, 0.009304257109761238, 0.006933207623660564, 0.0034821429289877415, -0.0038853012956678867, 0.002909331349655986, -0.007835976779460907, 0.004618873354047537, -0.0033996461424976587, 0.00798497349023819, -0.005215633660554886, -0.008053054101765156, -0.00974841509014368, 0.007605265360325575, 0.008807510137557983, 0.006414649076759815, -0.005510004702955484, -0.01042646449059248, -0.008557670749723911, -0.011492551304399967, -0.003831427777186036, -0.00994733814150095, -0.0029229247011244297, 0.002392331138253212, -0.01013137400150299, 0.008084877394139767, 0.0031364758033305407, 0.0067078834399580956, -0.003676043590530753, 0.0034593394957482815, -0.0030591036193072796, -0.007329664658755064, 0.0031620641238987446, 0.007615978829562664, -0.00841980054974556, -0.004347736481577158, -0.002743395045399666, -0.003169155213981867, -0.00788307748734951, -0.0040292153134942055, -0.004201538860797882, -0.0064961728639900684, 0.00880405679345131, 0.010416827164590359, -0.009995196014642715, 0.005399598740041256, -0.008002511225640774, -0.0028708730824291706, -0.003389195306226611, 0.003439001040533185, -0.00785825215280056, 0.006843741051852703, -0.010447067208588123, 0.00790591724216938, -0.003554769791662693, -0.00854315422475338, -0.007740183267742395, -0.006971606519073248, 0.006065072491765022, 0.002927394350990653, -0.008580200374126434, -0.0035242282319813967, -0.0032795239239931107, 0.006307278759777546], [0.004272819496691227, -0.0029933173209428787, 0.003054724307730794, -0.005463114939630032, 0.007301524747163057, -0.004776152316480875, -0.004094960168004036, -0.0025858108419924974, -0.004399926867336035, -0.0067133246921002865, -0.0061628851108253, -0.007385896984487772, 0.008120479062199593, 0.0025361261796206236, 0.006207013502717018, 0.010045130737125874, -0.005454625003039837, -0.0031331107020378113, -0.0019393004477024078, -0.0017305680084973574, 0.007064213976264, 0.007881693542003632, 0.0044972700998187065, -0.00575364101678133, 0.0158077459782362, -0.007542554289102554, 0.0076725962571799755, 0.011293936520814896, 0.00421022716909647, -0.005936833098530769, 0.0069414242170751095, -0.002554488368332386, 0.004382394254207611, -0.004766571335494518, -0.004437117837369442, -0.005648094695061445, 0.011357005685567856, -0.0073728919960558414, 0.0033153805416077375, 0.011601060628890991, 0.004894985817372799, -0.005122758913785219, 0.005746338050812483, -0.0026024917606264353, 0.0031601584050804377, -0.005849243141710758, 0.004422037862241268, 0.006251505110412836, -0.004114737268537283, -0.0024632310960441828, 0.006417723372578621, -0.004492087755352259, 0.0021631200797855854, -0.014241868630051613, 0.0052040014415979385, 0.004788083024322987, 0.005491052288562059, -0.0043648527935147285, 0.0025171006564050913, 0.005480993539094925, 0.002464776858687401, 0.0031387475319206715, 0.007697202265262604, 0.0050026411190629005, 0.0036540424916893244, -0.005041202530264854, -0.004891677759587765, -0.005311185959726572, 0.005097294691950083, -0.005578139331191778, 0.0056168255396187305, -0.005160467699170113, 0.006292628590017557, -0.014142687432467937, 0.006515028886497021, 0.003551091067492962, 0.004988630302250385, -0.0022853845730423927, -0.005896511022001505, -0.006643286906182766, 0.006258197594434023, 0.003400092478841543, 0.003701666137203574, 0.008839132264256477, 0.006278332322835922, 0.005751124583184719, 0.008259259164333344, -0.007063762284815311, 0.01297691185027361, -0.0036701299250125885, -0.009138180874288082, -0.005352986045181751, 0.004725578241050243, -0.002910032868385315, 0.002121764700859785, 0.004289085045456886, -0.0049890861846506596, -0.004434332717210054, 0.007962443865835667, 0.002960322890430689, 0.003862591926008463, 0.004485040903091431, 0.00544344075024128, 0.005909460596740246, 0.0038263285532593727, 0.006582016125321388, -0.0050674984231591225, -0.004067646339535713, 0.002666473388671875, -0.005115070380270481, 0.005912880413234234, 0.006058697588741779, 0.007262344937771559, -0.00572618143633008, 0.0053087202832102776, -0.004158839583396912, 0.0026884744875133038, -0.002617764053866267, 0.0029829321429133415, 0.004465913865715265, 0.00368352048099041, 0.007495291065424681, -0.004495265427976847, -0.005800889804959297, 0.004214444663375616, 0.0041231419891119, 0.002159041352570057, -0.005847957916557789], [0.003389682387933135, -0.009413818828761578, 0.0037475242279469967, -0.006950455252081156, 0.0016955625033006072, -0.010414005257189274, -0.011077143251895905, -0.006910928059369326, -0.0041880193166434765, -0.003076200606301427, -0.011582553386688232, -0.009241249412298203, 0.00870105717331171, 0.009276316501200199, 0.003569719148799777, 0.008661068975925446, -0.007274235598742962, -0.0031241662800312042, -0.01107244472950697, -0.010091498494148254, 0.007368575315922499, 0.0032040351070463657, 0.007966729812324047, -0.006104064639657736, 0.005317029543220997, -0.011377138085663319, 0.0018565704813227057, 0.005788154900074005, 0.008298906497657299, -0.007040410302579403, 0.004292434547096491, -0.006058176048099995, 0.009586206637322903, -0.0027921346481889486, -0.009706039912998676, -0.0066017452627420425, 0.004352620802819729, -0.010296361520886421, 0.003741845954209566, 0.00751913757994771, 0.0035152938216924667, -0.010436051525175571, 0.006419602315872908, -0.010829425416886806, 0.003690688870847225, -0.009696622379124165, 0.008567123673856258, 0.0033480189740657806, -0.006930614821612835, -0.008899787440896034, 0.0026983623392879963, -0.0067411200143396854, 0.010159008204936981, -0.007876446470618248, 0.0058122617192566395, 0.009769394993782043, 0.010870705358684063, -0.011912338435649872, 0.011099978350102901, 0.0013666574377566576, 0.004042500630021095, 0.010949359275400639, 0.0032662798184901476, 0.00915602408349514, 0.003026179037988186, -0.0033775572665035725, -0.007068574894219637, -0.003503484418615699, 0.005826536566019058, -0.0038665805477648973, 0.003489995840936899, -0.010069147683680058, 0.0036471658386290073, -0.004136770498007536, 0.009421031922101974, 0.005172783974558115, 0.0114840567111969, -0.010038780979812145, -0.009589919820427895, -0.003840981749817729, 0.004193934146314859, 0.008159762248396873, 0.003406412433832884, 0.006904482841491699, 0.006072835065424442, 0.009868238121271133, 0.007186306174844503, -0.008928214199841022, 0.009794355370104313, -0.008833152242004871, -0.004400746431201696, -0.0034495240543037653, 0.009996706619858742, -0.009778275154531002, 0.010453810915350914, 0.0035436260513961315, -0.009561014361679554, -0.009642994962632656, 0.007049504201859236, 0.010030901990830898, 0.01212383434176445, 0.0033319559879601, 0.008638467639684677, 0.009703349322080612, 0.009232242591679096, 0.005289330612868071, -0.009543347172439098, -0.0029622758738696575, 0.008975454606115818, -0.007629589177668095, 0.008502244018018246, 0.0036298439372330904, 0.011953258886933327, -0.009377548471093178, 0.008237180300056934, -0.004632839933037758, 0.012700208462774754, -0.008165479637682438, 0.012062248773872852, 0.009942874312400818, 0.0073267752304673195, 0.00769834965467453, -0.0058633703738451, -0.010530320927500725, 0.010311723686754704, 0.003451797179877758, 0.007152397185564041, -0.01110193133354187], [-0.006767177022993565, 0.006200550124049187, -0.003689540084451437, 0.003128977492451668, -0.002162946853786707, 0.003329736180603504, 0.008719970472157001, 0.004495231434702873, 0.008775447495281696, 0.0030153756961226463, 0.011650962755084038, 0.009662756696343422, -0.009881356731057167, -0.012014482170343399, -0.00813364889472723, -0.010237272828817368, 0.008709062822163105, 0.007179190404713154, 0.010867368429899216, 0.008949740789830685, -0.006993690971285105, -0.003064841963350773, -0.0033211754634976387, 0.009697584435343742, -0.0030066075269132853, 0.0032374646980315447, -0.002795764245092869, -0.0038426758255809546, -0.009651071391999722, 0.009170438162982464, -0.004287523217499256, 0.010610275901854038, -0.0033015820663422346, 0.007732764817774296, 0.004053814336657524, 0.004856739658862352, -0.0036304392851889133, 0.010995697230100632, -0.007954871281981468, -0.007335323840379715, -0.0054704975336790085, 0.004389566369354725, -0.010483131743967533, 0.008345571346580982, -0.0077722989954054356, 0.0036852906923741102, -0.010232125408947468, -0.007059110328555107, 0.010639695450663567, 0.0034528623800724745, -0.0057835448533296585, 0.006743687205016613, -0.01246546395123005, 0.008064200170338154, -0.009247411042451859, -0.005997455678880215, -0.010423397645354271, 0.009819078259170055, -0.009955037385225296, -0.00355157651938498, -0.003000974655151367, -0.010021945461630821, -0.008444727398455143, -0.010148661211133003, -0.003777586854994297, 0.008348887786269188, 0.005733604077249765, 0.00439195241779089, -0.0047753723338246346, 0.006306584924459457, -0.004191888961941004, 0.0034235960338264704, -0.007141390349715948, 0.01051285583525896, -0.0073164994828403, -0.009479968808591366, -0.006081825587898493, 0.009882904589176178, 0.0076746451668441296, 0.007990976795554161, -0.003991154488176107, -0.008013898506760597, -0.010800525546073914, -0.008694706484675407, -0.007109764032065868, -0.01209842786192894, -0.0034528577234596014, 0.008974442258477211, -0.009474961087107658, 0.0035073512699455023, 0.0037472988478839397, 0.010273572988808155, -0.0034478241577744484, 0.011995871551334858, -0.007441667839884758, -0.008277601562440395, 0.005286586470901966, 0.003465332556515932, -0.009622628800570965, -0.010907122865319252, -0.008739270269870758, -0.009948843158781528, -0.007385564036667347, -0.008272120729088783, -0.007773056160658598, -0.006047781556844711, 0.007581926882266998, 0.008658033795654774, -0.010403093881905079, 0.005825333297252655, -0.0067358179949223995, -0.004064219072461128, -0.009469252079725266, 0.004101438447833061, -0.010741918347775936, 0.007943755015730858, -0.011491317301988602, 0.0072493827901780605, -0.011513812467455864, -0.002888408722355962, -0.006737200543284416, -0.004360570572316647, 0.0032708519138395786, 0.0032187234610319138, -0.0029322204645723104, -0.007116333581507206, -0.003185098757967353, 0.006728337146341801], [-0.014390544034540653, 0.003281441517174244, -0.007435956038534641, 0.011954174377024174, -0.009337177500128746, 0.012586159631609917, 0.014322356320917606, 0.01346041914075613, 0.004350387491285801, 0.0038580193649977446, 0.011949458159506321, 0.0037578539922833443, -0.010646575130522251, -0.003881800686940551, -0.013141363859176636, -0.016358373686671257, 0.013955074362456799, 0.01368563249707222, 0.003563155187293887, 0.01353791169822216, -0.011556179262697697, -0.011462227441370487, -0.003625722136348486, 0.013305975124239922, -0.0018734371988102794, 0.011260410770773888, -0.010852017439901829, -0.004524910356849432, -0.003917798865586519, 0.003673944156616926, -0.005228862166404724, 0.012832374311983585, -0.003591677872464061, 0.013243808411061764, 0.005818525794893503, 0.011611515656113625, -0.011298629455268383, 0.004223586060106754, -0.01184242032468319, -0.009251626208424568, -0.003674333682283759, 0.00438180984929204, -0.013713783584535122, 0.003774014301598072, -0.005515173077583313, 0.0031600899528712034, -0.01185540109872818, -0.012986387126147747, 0.01261927094310522, 0.004384824074804783, -0.011489075608551502, 0.004717954434454441, -0.0035517422948032618, 0.007009887136518955, -0.004256124142557383, -0.011413716711103916, -0.011480980552732944, 0.003251801012083888, -0.012615782208740711, -0.004912876524031162, -0.008986659348011017, -0.0075242421589791775, -0.012192850932478905, -0.0030512965749949217, -0.013408553786575794, 0.0038101726677268744, 0.01352514885365963, 0.011702248826622963, -0.00467173894867301, 0.012985315173864365, -0.003689559642225504, 0.004394061863422394, -0.013752283528447151, 0.01309285219758749, -0.003900481853634119, -0.006828899960964918, -0.0037310700863599777, 0.0037293825298547745, 0.012681391090154648, 0.004417091142386198, -0.006339986342936754, -0.0027309947181493044, -0.014243689365684986, -0.012693348340690136, -0.0037937515880912542, -0.01433567889034748, -0.013032643124461174, 0.0030308228451758623, -0.00988486222922802, 0.013923106715083122, 0.004498837515711784, 0.013665941543877125, -0.0043761879205703735, 0.016288818791508675, -0.010868897661566734, -0.012955390848219395, 0.014009491540491581, 0.0032778503373265266, -0.014280563220381737, -0.013679469004273415, -0.01381602231413126, -0.012654745951294899, -0.004044092260301113, -0.004191705957055092, -0.004289699252694845, -0.013401960022747517, 0.013970110565423965, 0.008944462984800339, -0.011710044927895069, 0.0038338061422109604, -0.014648129232227802, -0.004367511719465256, -0.0037343273870646954, 0.014467968605458736, -0.011927546001970768, 0.009875854477286339, -0.014156926423311234, 0.014904872514307499, -0.004076813813298941, -0.013707275502383709, -0.012991627678275108, -0.010999631136655807, 0.0038788076490163803, 0.0035727089270949364, -0.012324393726885319, -0.011946660466492176, -0.015297113917768002, 0.011889922432601452], [-0.011372550390660763, 0.011610163375735283, -0.0038587022572755814, 0.006158348638564348, -0.009032025933265686, 0.010059201158583164, 0.01200644951313734, 0.009327847510576248, 0.010198771953582764, 0.004839546047151089, 0.01152588427066803, 0.007035477552562952, -0.011573568917810917, -0.012862510979175568, -0.007772848475724459, -0.010332491248846054, 0.007803680840879679, 0.010574189014732838, 0.010358460247516632, 0.010647001676261425, -0.008945513516664505, -0.005252321716398001, -0.010568268597126007, 0.0036249582190066576, -0.0035174768418073654, 0.010560697875916958, -0.009525813162326813, -0.0036255931481719017, -0.00350659410469234, 0.008128019981086254, -0.00415309751406312, 0.01193432230502367, -0.011826302856206894, 0.010376080870628357, 0.004319292493164539, 0.003384623909369111, -0.0035260836593806744, 0.006963290739804506, -0.010091054253280163, -0.00920585822314024, -0.011270099319517612, 0.005312064196914434, -0.004628514405339956, 0.00396585650742054, -0.009603320620954037, 0.0038355786819010973, -0.010803152807056904, -0.008637878112494946, 0.011646565049886703, 0.011604851111769676, -0.003312272485345602, 0.011389809660613537, -0.0034614100586622953, 0.009550035931169987, -0.007152026053518057, -0.010732011869549751, -0.011189057491719723, 0.011305524967610836, -0.010346807539463043, -0.003589082043617964, -0.00972346868366003, -0.011512272991240025, -0.007329657208174467, -0.0037599154748022556, -0.009750855155289173, 0.01216638833284378, 0.0062710377387702465, 0.013474632054567337, -0.012059825472533703, 0.010248817503452301, -0.011318983510136604, 0.00939407479017973, -0.008318831212818623, 0.009818210266530514, -0.0077719781547784805, -0.009988605976104736, -0.011682300828397274, 0.01220198255032301, 0.009818238206207752, 0.008290773257613182, -0.010627427138388157, -0.011959822848439217, -0.012723689898848534, -0.003290424356237054, -0.0072190361097455025, -0.010719302110373974, -0.010709731839597225, 0.009444988332688808, -0.008751877583563328, 0.0048268577083945274, 0.009708967991173267, 0.00945774745196104, -0.003842720063403249, 0.014339557848870754, -0.012176581658422947, -0.009337439201772213, 0.005485867150127888, 0.013567612506449223, -0.0066802967339754105, -0.012060154229402542, -0.002897806465625763, -0.007796509191393852, -0.0036473358049988747, -0.012588831596076488, -0.004373453091830015, -0.007194570731371641, 0.003550358349457383, 0.009803668595850468, -0.012131775729358196, 0.010130456648766994, -0.010468446649610996, -0.00370236043818295, -0.009823777712881565, 0.009782174602150917, -0.0034895967692136765, 0.004627144895493984, -0.002853119047358632, 0.012035520747303963, -0.013184797950088978, -0.008846521377563477, -0.009849273599684238, -0.008894101716578007, 0.01147406455129385, 0.0036719574127346277, -0.010908868163824081, -0.00928044505417347, -0.003273171605542302, 0.0037693579215556383], [0.00921681523323059, -0.009988408535718918, 0.006465235725045204, -0.002171055180951953, 0.0032829928677529097, -0.004828684031963348, -0.008013375103473663, -0.008241655305027962, -0.00331401196308434, -0.004276238847523928, -0.010461390018463135, -0.0032544939313083887, 0.009624194353818893, 0.008082986809313297, 0.0034631735179573298, 0.006082459818571806, -0.005131332669407129, -0.010190717875957489, -0.003160457592457533, -0.008169212378561497, 0.003925839439034462, 0.004331203643232584, 0.00832320936024189, -0.00382653484120965, 0.0015917045529931784, -0.009949293918907642, 0.0011197957210242748, 0.0038936238270252943, 0.007751823402941227, -0.006481465883553028, 0.0073117767460644245, -0.0105741610750556, 0.00878002680838108, -0.009499670937657356, -0.009951897896826267, -0.003144563175737858, 0.002296182094141841, -0.005613161716610193, 0.004932643845677376, 0.010032317601144314, 0.007293464615941048, -0.007631720043718815, 0.004689269699156284, -0.006551509723067284, 0.008346582762897015, -0.008652472868561745, 0.006095584016293287, 0.007295224349945784, -0.00657171243801713, -0.010899783112108707, 0.0009733060724101961, -0.004186802543699741, 0.004054219461977482, -0.007245413959026337, 0.005776966921985149, 0.0077402894385159016, 0.00569132948294282, -0.007561001926660538, 0.007004507817327976, 0.010512486100196838, 0.006368227768689394, 0.005702817812561989, 0.00752445450052619, 0.006773391272872686, 0.006700737867504358, -0.0066527556627988815, -0.008339954540133476, -0.009943190030753613, 0.004730704706162214, -0.0029195358511060476, 0.003364579053595662, -0.00637535285204649, 0.009912623092532158, -0.009288179688155651, 0.0032068544533103704, 0.003093171399086714, 0.009020788595080376, -0.004281075671315193, -0.007954651489853859, -0.002217257861047983, 0.008295153267681599, 0.009173847734928131, 0.008480253629386425, 0.006276288069784641, 0.005551103502511978, 0.010025346651673317, 0.006773341912776232, -0.004881857428699732, 0.009330227971076965, -0.002824952360242605, -0.0035819413606077433, -0.006017642095685005, 0.008791714906692505, -0.008810503408312798, 0.00878146756440401, 0.009097221307456493, -0.003359058639034629, -0.009248439222574234, 0.009166033938527107, 0.007459745742380619, 0.0049121989868581295, 0.010663492605090141, 0.006172648631036282, 0.005913903936743736, 0.0033926726318895817, 0.006384902633726597, -0.0071244016289711, -0.01040345523506403, 0.002945316256955266, -0.004303732421249151, 0.005631537642329931, 0.004071625880897045, 0.0033001641277223825, -0.0028776770923286676, 0.005974424071609974, -0.003909602295607328, 0.010443203151226044, -0.010257639922201633, 0.008196198381483555, 0.007160239852964878, 0.006640825420618057, 0.0073964255861938, -0.008136666379868984, -0.005482401233166456, 0.01014716736972332, 0.005354070104658604, 0.009620754048228264, -0.00943987350910902], [-0.010404842905700207, 0.014406003057956696, -0.006127812899649143, 0.004295038990676403, -0.004522669594734907, 0.017314931377768517, 0.003447026014328003, 0.00380873866379261, 0.004744562786072493, 0.004113031551241875, 0.011747376061975956, 0.012797812931239605, -0.004456845577806234, -0.010374492965638638, -0.017916401848196983, -0.006020849104970694, 0.017561543732881546, 0.01377170067280531, 0.0035264932084828615, 0.015259895473718643, -0.016539394855499268, -0.006946976762264967, -0.010773839429020882, 0.010931321419775486, -0.01267324760556221, 0.003871533554047346, -0.005012706387788057, -0.009505118243396282, -0.003759808139875531, 0.0051733339205384254, -0.01364176720380783, 0.01561527419835329, -0.007371047977358103, 0.020340971648693085, 0.014957832172513008, 0.01326552964746952, -0.004372113849967718, 0.012795734219253063, -0.004136985167860985, -0.012236828915774822, -0.018569225445389748, 0.01843101531267166, -0.004676552023738623, 0.01528068259358406, -0.004220830276608467, 0.01184546947479248, -0.01598723791539669, -0.019082285463809967, 0.014873997308313847, 0.017940010875463486, -0.004407886415719986, 0.014661305584013462, -0.004035369027405977, 0.010691975243389606, -0.004389083944261074, -0.015171408653259277, -0.015092207118868828, 0.0033667010720819235, -0.0143178291618824, -0.014332421123981476, -0.01662284880876541, -0.01540387887507677, -0.014092378318309784, -0.016010593622922897, -0.004004063084721565, 0.005531067028641701, 0.003570985049009323, 0.01747487112879753, -0.015881016850471497, 0.014180535450577736, -0.014430622570216656, 0.0076104989275336266, -0.012629630975425243, 0.011890193447470665, -0.014719067141413689, -0.015965158119797707, -0.0038351574912667274, 0.003764535766094923, 0.017598018050193787, 0.017154837027192116, -0.01623600348830223, -0.004305803216993809, -0.01629812642931938, -0.012220398522913456, -0.003907614853233099, -0.016278525814414024, -0.015736721456050873, 0.004486463963985443, -0.011127757839858532, 0.0071534039452672005, 0.019077347591519356, 0.00406240439042449, -0.015174772590398788, 0.018285298720002174, -0.015382305718958378, -0.01574212685227394, 0.01807088777422905, 0.016010208055377007, -0.019490638747811317, -0.003878670511767268, -0.014581735245883465, -0.014226805418729782, -0.008228559046983719, -0.019040852785110474, -0.004310507792979479, -0.004556118045002222, 0.016232511028647423, 0.014267989434301853, -0.012372670695185661, 0.003929569385945797, -0.0066628362983465195, -0.01454720925539732, -0.004997218027710915, 0.015837514773011208, -0.016159286722540855, 0.015829306095838547, -0.016840942203998566, 0.015142278745770454, -0.008634661324322224, -0.015690932050347328, -0.01817464269697666, -0.016504596918821335, 0.003898239228874445, 0.0036985722836107016, -0.004526123870164156, -0.0174736175686121, -0.016736183315515518, 0.011848893016576767], [0.006658692844212055, -0.003917165100574493, 0.02925930544734001, -0.004641849081963301, 0.03555900603532791, -0.004537586122751236, -0.0012356882216408849, -0.009390369057655334, -0.005189043935388327, -0.02841537818312645, -0.009685073047876358, -0.008358093909919262, 0.0049544163048267365, 0.004439819138497114, 0.005458335392177105, 0.011005669832229614, -0.003611136693507433, -0.03141515329480171, -0.029903126880526543, -0.02375403419137001, 0.0375085286796093, 0.048092979937791824, 0.006594457197934389, -0.004983023274689913, 0.029125893488526344, -0.03810508921742439, 0.04446212202310562, 0.005477360915392637, 0.009783887304365635, -0.03441791981458664, 0.03095720335841179, -0.0039588939398527145, 0.03424154222011566, -0.0039565907791256905, -0.005036243703216314, -0.048964619636535645, 0.04389475658535957, -0.040393438190221786, 0.03343825787305832, 0.00948782917112112, 0.034055065363645554, -0.03293194621801376, 0.019822949543595314, -0.0015026852488517761, 0.0052169798873364925, -0.020724311470985413, 0.032033007591962814, 0.0014468031004071236, -0.003953676670789719, -0.001445092144422233, 0.04870257154107094, -0.022605152800679207, 0.005915726535022259, -0.008569596335291862, 0.03800595551729202, 0.02184556983411312, 0.00513623608276248, -0.004075793083757162, 0.036931104958057404, 0.017110632732510567, 0.015851186588406563, 0.03613842651247978, 0.039663735777139664, 0.004406524356454611, 0.026208674535155296, -0.04110417515039444, -0.03529348596930504, -0.006177741568535566, 0.04415759816765785, -0.03886498510837555, 0.04213786870241165, -0.0052991705015301704, 0.02896920032799244, -0.0106907794252038, 0.0457959845662117, 0.004734071437269449, 0.004309299401938915, -0.003996321931481361, -0.03737429156899452, -0.005195449572056532, 0.03496938943862915, 0.0037309732288122177, 0.0044610523618757725, 0.004982585087418556, 0.004451429471373558, 0.004779489245265722, 0.005665478762239218, -0.008074683137238026, 0.00990541372448206, -0.033096667379140854, -0.004948603454977274, -0.04241562262177467, 0.03814689815044403, -0.005458529107272625, 0.003907859791070223, 0.0287757720798254, -0.04640534147620201, -0.0040462384931743145, 0.04084412381052971, 0.016750004142522812, 0.022819748148322105, 0.03675493970513344, 0.03566008433699608, 0.006121794227510691, 0.03545107692480087, 0.03446871042251587, -0.03589393198490143, -0.03072284907102585, 0.02955128438770771, -0.03800220414996147, 0.00699769938364625, 0.04230942949652672, 0.003628259990364313, -0.009635630995035172, 0.03799644485116005, -0.039569057524204254, 0.001749910064972937, -0.020039478316903114, 0.0102485166862607, 0.029755443334579468, 0.006176621187478304, 0.00576090719550848, -0.03049694001674652, -0.001445837551727891, 0.012729385867714882, 0.0044941771775484085, 0.0041211387142539024, -0.004826884716749191], [-0.020571133121848106, 0.016873139888048172, -0.004234653431922197, 0.019793501123785973, -0.022223010659217834, 0.020479386672377586, 0.01741744950413704, 0.004946847911924124, 0.005162607412785292, 0.021284231916069984, 0.006112385541200638, 0.007944061420857906, -0.015569972805678844, -0.01939517632126808, -0.017603833228349686, -0.005297231022268534, 0.011891103349626064, 0.017139436677098274, 0.01713297702372074, 0.005070712883025408, -0.015779538080096245, -0.015352512709796429, -0.015449102967977524, 0.004986150190234184, -0.005415293388068676, 0.015286426991224289, -0.005307278595864773, -0.01941462978720665, -0.016193827614188194, 0.006308563519269228, -0.019095582887530327, 0.008732353337109089, -0.015019828453660011, 0.00864764116704464, 0.007822724059224129, 0.010501386597752571, -0.00879853405058384, 0.017707986757159233, -0.02086101658642292, -0.010141240432858467, -0.020718611776828766, 0.019302265718579292, -0.01673414744436741, 0.005794489290565252, -0.004809935577213764, 0.004474044777452946, -0.014588754624128342, -0.020317336544394493, 0.017464645206928253, 0.018308211117982864, -0.004881276749074459, 0.016194302588701248, -0.0038375798612833023, 0.00948961079120636, -0.006896422244608402, -0.013419131748378277, -0.009464207105338573, 0.014068839140236378, -0.004428727086633444, -0.0037997099570930004, -0.02006225660443306, -0.004525790456682444, -0.014748378656804562, -0.018088657408952713, -0.018340937793254852, 0.016089431941509247, 0.016451839357614517, 0.0066439686343073845, -0.01592257246375084, 0.018055906519293785, -0.018270723521709442, 0.004383264575153589, -0.007786070927977562, 0.0036466282326728106, -0.007318391930311918, -0.0167232695966959, -0.011829175055027008, 0.015559297055006027, 0.01935863494873047, 0.02194085717201233, -0.009977021254599094, -0.016355272382497787, -0.01330086775124073, -0.0049646832048892975, -0.020123930647969246, -0.016571111977100372, -0.00550332386046648, 0.004825528245419264, -0.009983490221202374, 0.01703854650259018, 0.005506725516170263, 0.005549784749746323, -0.0186175424605608, 0.016192525625228882, -0.017976408824324608, -0.004610612988471985, 0.020877502858638763, 0.01876133866608143, -0.020581556484103203, -0.013284184038639069, -0.012943278066813946, -0.017553826794028282, -0.015638956800103188, -0.020401302725076675, -0.015042902901768684, -0.018945224583148956, 0.01635231077671051, 0.016830546781420708, -0.014512144960463047, 0.01654820889234543, -0.00873826164752245, -0.012694412842392921, -0.007334044668823481, 0.020729361101984978, -0.017212888225913048, 0.005278325639665127, -0.014461519196629524, 0.017369115725159645, -0.011761386878788471, -0.017465341836214066, -0.01742817461490631, -0.005446366500109434, 0.015779316425323486, 0.015557284466922283, -0.01666560396552086, -0.017515987157821655, -0.017333216965198517, 0.02016664668917656], [0.0036793267354369164, -0.01951855979859829, 0.012131503783166409, -0.016544416546821594, 0.004050686955451965, -0.015385851263999939, -0.003158748149871826, -0.015010184608399868, -0.011934874579310417, -0.0039047838654369116, -0.010381667874753475, -0.004271581303328276, 0.013815409503877163, 0.00997078325599432, 0.004412483423948288, 0.004422302823513746, -0.022751975804567337, -0.016387764364480972, -0.017165465280413628, -0.010192500427365303, 0.01577567867934704, 0.012548980303108692, 0.015231701545417309, -0.004503147676587105, 0.00410563824698329, -0.014004596509039402, 0.011335176415741444, 0.008685589767992496, 0.018258363008499146, -0.003894159570336342, 0.01543451938778162, -0.0036219744943082333, 0.014939870685338974, -0.024333298206329346, -0.008955325931310654, -0.014383045956492424, 0.012832747772336006, -0.00395895354449749, 0.015014970675110817, 0.009198224171996117, 0.018869252875447273, -0.01658080890774727, 0.013219750486314297, -0.003937294706702232, 0.018130455166101456, -0.010517839342355728, 0.003550196997821331, 0.015692614018917084, -0.016220493242144585, -0.0037989672273397446, 0.012045521289110184, -0.018163729459047318, 0.016228748485445976, -0.009443860501050949, 0.014634959399700165, 0.0035022066440433264, 0.0176691897213459, -0.02161942608654499, 0.0040529039688408375, 0.013070054352283478, 0.017323223873972893, 0.01361225824803114, 0.0036621089093387127, 0.018133340403437614, 0.01813374273478985, -0.015026235952973366, -0.01585380733013153, -0.016772134229540825, 0.017133543267846107, -0.016622982919216156, 0.013256160542368889, -0.014373757876455784, 0.015670888125896454, -0.010416672565042973, 0.0169475469738245, 0.01594499498605728, 0.01566503196954727, -0.017988432198762894, -0.015518099069595337, -0.01276644878089428, 0.011284996755421162, 0.01785198226571083, 0.01578407734632492, 0.00887517724186182, 0.017727993428707123, 0.017589503899216652, 0.005252144765108824, -0.005069300532341003, 0.00849195383489132, -0.00387162109836936, -0.014165814965963364, -0.013408317230641842, 0.0042069279588758945, -0.006204552482813597, 0.018550436943769455, 0.015574607066810131, -0.014775104820728302, -0.005142186768352985, 0.009208902716636658, 0.014680088497698307, 0.016118479892611504, 0.0152804059907794, 0.017303617671132088, 0.01835699938237667, 0.012625879608094692, 0.01387687399983406, -0.018331890925765038, -0.01561444066464901, 0.016975341364741325, -0.006530595477670431, 0.018864937126636505, 0.01454371027648449, 0.013570167124271393, -0.004085270222276449, 0.017914872616529465, -0.012576551176607609, 0.0031298776157200336, -0.014696912840008736, 0.02253205142915249, 0.003109599929302931, 0.01797517202794552, 0.015314898453652859, -0.01330586802214384, -0.017255865037441254, 0.018935805186629295, 0.014952762983739376, 0.01566379703581333, -0.017566105350852013], [-0.012720756232738495, 0.012764149345457554, -0.011465935036540031, 0.0062201786786317825, -0.007706125266849995, 0.010599121451377869, 0.01601531356573105, 0.011087650433182716, 0.004103244282305241, 0.007146346382796764, 0.00935398694127798, 0.004769329447299242, -0.013317170552909374, -0.0036636872682720423, -0.01123031135648489, -0.004342191386967897, 0.014823462814092636, 0.013041597791016102, 0.013377626426517963, 0.013926682993769646, -0.013155154883861542, -0.010920805856585503, -0.01425459049642086, 0.012469587847590446, -0.0025677403900772333, 0.011596349067986012, -0.010661310516297817, -0.0058485278859734535, -0.01338223833590746, 0.013927082531154156, -0.009105193428695202, 0.011868846602737904, -0.01258467510342598, 0.0034144865348935127, 0.01104208268225193, 0.010518125258386135, -0.009281610138714314, 0.011576970107853413, -0.010586327873170376, -0.01074187271296978, -0.005365022923797369, 0.013129787519574165, -0.004803472198545933, 0.0036131602246314287, -0.012064301408827305, 0.012789770029485226, -0.011028033681213856, -0.003502549836412072, 0.012690462172031403, 0.01427843514829874, -0.009828918613493443, 0.013553461991250515, -0.013637235388159752, 0.006832253187894821, -0.011946545913815498, -0.009022443555295467, -0.00392250157892704, 0.01555563509464264, -0.011406897567212582, -0.004010280128568411, -0.012545526959002018, -0.010845432989299297, -0.009584695100784302, -0.003673116909340024, -0.01483725756406784, 0.010347791947424412, 0.010695074684917927, 0.01122103352099657, -0.011758229695260525, 0.0039034218061715364, -0.009693806059658527, 0.003997659310698509, -0.010648506693542004, 0.011319873854517937, -0.0037299511022865772, -0.00829116441309452, -0.011200211010873318, 0.011089140549302101, 0.004083382897078991, 0.004631686955690384, -0.008930829353630543, -0.011952181346714497, -0.01326704490929842, -0.0072595770470798016, -0.010476422496140003, -0.0039311666041612625, -0.00383255654014647, 0.007458899635821581, -0.00978473387658596, 0.012419077567756176, 0.012749138288199902, 0.0039598275907337666, -0.003878402290865779, 0.015210227109491825, -0.003403963055461645, -0.003862046869471669, 0.0035865383688360453, 0.015317224897444248, -0.01689198426902294, -0.003313141642138362, -0.01400173269212246, -0.0111088240519166, -0.004758242052048445, -0.004027209244668484, -0.009321310557425022, -0.008742677979171276, 0.0033063904847949743, 0.014663686975836754, -0.0034334841184318066, 0.0037137679755687714, -0.012452437542378902, -0.01205879170447588, -0.003611697116866708, 0.004290326032787561, -0.013482972048223019, 0.0038109696470201015, -0.003325456054881215, 0.00392642617225647, -0.012035023421049118, -0.014567236416041851, -0.01247348915785551, -0.007706841453909874, 0.004024298395961523, 0.011221337132155895, -0.0032643333543092012, -0.013356566429138184, -0.013900353573262691, 0.010389276780188084], [0.0033518876880407333, -0.004791783634573221, 0.0039499239064753056, -0.003703138092532754, 0.007916525937616825, -0.011008074507117271, -0.013602099381387234, -0.009629827924072742, -0.0050539663061499596, -0.0035677477717399597, -0.010086768306791782, -0.009019987657666206, 0.003820212325081229, 0.004242167342454195, 0.009125662967562675, 0.004469667561352253, -0.003611396299675107, -0.0034470197279006243, -0.009784989058971405, -0.010014629922807217, 0.007271165028214455, 0.007800919935107231, 0.01258636824786663, -0.01157621294260025, 0.00276539521291852, -0.0033046824391931295, 0.011646831408143044, 0.0043203202076256275, 0.010664128698408604, -0.008367174305021763, 0.013282990083098412, -0.011695302091538906, 0.003338053124025464, -0.010998157784342766, -0.004286629147827625, -0.0042520309798419476, 0.004358564503490925, -0.01234967540949583, 0.013136286288499832, 0.009536750614643097, 0.01314220018684864, -0.01045384630560875, 0.003835100680589676, -0.004804034251719713, 0.003993721213191748, -0.011220340617001057, 0.0031015006825327873, 0.014425709843635559, -0.003861590288579464, -0.004789704456925392, 0.010230669751763344, -0.008810129947960377, 0.011775212362408638, -0.003916837740689516, 0.009106169454753399, 0.012629358097910881, 0.009865577332675457, -0.011470596306025982, 0.009802543558180332, 0.01257227174937725, 0.01071520708501339, 0.0044162459671497345, 0.0036226899828761816, 0.010208589024841785, 0.005574401002377272, -0.0033960400614887476, -0.011152026243507862, -0.010214831680059433, 0.012529974803328514, -0.011791926808655262, 0.006796129979193211, -0.003942437935620546, 0.005801359191536903, -0.00979060959070921, 0.0072849164716899395, 0.003998017404228449, 0.003563595237210393, -0.01324093621224165, -0.009883532300591469, -0.003802246879786253, 0.0043632821179926395, 0.013951354660093784, 0.010307177901268005, 0.004199975170195103, 0.009518622420728207, 0.004086591769009829, 0.004038587212562561, -0.007237252313643694, 0.012191059067845345, -0.0036664344370365143, -0.009423820301890373, -0.011224109679460526, 0.004224709700793028, -0.010818211361765862, 0.003205342683941126, 0.009809938259422779, -0.013487016782164574, -0.012515678070485592, 0.004322092980146408, 0.011748721823096275, 0.0102757029235363, 0.009842035360634327, 0.010028662160038948, 0.012227484956383705, 0.004234109073877335, 0.00458559300750494, -0.0034546093083918095, -0.012545157223939896, 0.011177700012922287, -0.011777855455875397, 0.0036381285171955824, 0.004759261850267649, 0.010780716314911842, -0.009549511596560478, 0.012967660091817379, -0.004588933661580086, 0.002720284042879939, -0.012312797829508781, 0.009734582155942917, 0.009705675765872002, 0.013313820585608482, 0.00443193269893527, -0.010473400354385376, -0.01251460611820221, 0.007574848365038633, 0.012361027300357819, 0.003750365925952792, -0.010597980581223965], [0.009623616933822632, -0.003542918711900711, 0.003535330994054675, -0.00849535409361124, 0.004006744362413883, -0.010102047584950924, -0.012052422389388084, -0.009911227971315384, -0.00836421549320221, -0.008601603098213673, -0.010075598955154419, -0.008856471627950668, 0.008966061286628246, 0.00510773342102766, 0.004315587226301432, 0.005630166735500097, -0.008289268240332603, -0.010111376643180847, -0.013256634585559368, -0.011230198666453362, 0.011142434552311897, 0.003332400694489479, 0.003517033299431205, -0.004979561548680067, 0.003943022806197405, -0.011070607230067253, 0.005498084705322981, 3.527488297550008e-05, 0.0034728653263300657, -0.008444397710263729, 0.007425311952829361, -0.003284198697656393, 0.0033621438778936863, -0.013560503721237183, -0.009212936274707317, -0.0030239748302847147, 0.005309124477207661, -0.011059506796300411, 0.009647563099861145, 0.008856718428432941, 0.009008948691189289, -0.008586792275309563, 0.009396369569003582, -0.009391712956130505, 0.0036123336758464575, -0.011063006706535816, 0.0034468756057322025, 0.0047622984275221825, -0.010279457084834576, -0.013448699377477169, 0.006708739325404167, -0.011442027054727077, 0.012743193656206131, -0.007846683263778687, 0.009720955975353718, 0.009063059464097023, 0.0036221486516296864, -0.014083470217883587, 0.008692538365721703, 0.009634680114686489, 0.00961132999509573, 0.003315854584798217, 0.006949449423700571, 0.00846512708812952, 0.003156864084303379, -0.009124724194407463, -0.009139394387602806, -0.012354548089206219, 0.01039618905633688, -0.007932204753160477, 0.007757079321891069, -0.007976274937391281, 0.0073598711751401424, -0.011077896691858768, 0.00681007606908679, 0.0035796109586954117, 0.01021901797503233, -0.011593504808843136, -0.008164186030626297, -0.003015459282323718, 0.004432451445609331, 0.012617276050150394, 0.009150989353656769, 0.006154712755233049, 0.010426860302686691, 0.010878659784793854, 0.003853726200759411, -0.002417361130937934, 0.009956633672118187, -0.011257930658757687, -0.006546533666551113, -0.007857044227421284, 0.009489361196756363, -0.01295357197523117, 0.013103173114359379, 0.01286984607577324, -0.0036649734247475863, -0.01384452823549509, 0.006463587284088135, 0.004129395354539156, 0.00903704110532999, 0.012942485511302948, 0.007501451298594475, 0.010760135017335415, 0.00880669616162777, 0.004445313010364771, -0.011251118965446949, -0.010715840384364128, 0.00394413573667407, -0.003376344684511423, 0.003453340381383896, 0.00435167970135808, 0.011351375840604305, -0.0037004132755100727, 0.010878723114728928, -0.002707470441237092, 0.013856153935194016, -0.0033219209872186184, 0.009250382892787457, 0.010546674951910973, 0.009304951876401901, 0.007222972810268402, -0.010215425863862038, -0.003463323460891843, 0.01167781837284565, 0.0032839998602867126, 0.01170111820101738, -0.006929594092071056], [-0.007126323413103819, 0.010249976068735123, -0.00794597715139389, 0.0029692889656871557, -0.00502567645162344, 0.003023916156962514, 0.009650933556258678, 0.006249153986573219, 0.0026334014255553484, 0.00597737729549408, 0.00992161501199007, 0.009218336082994938, -0.004415098112076521, -0.008787085302174091, -0.0027107535861432552, -0.006717911921441555, 0.005654245615005493, 0.00298908818513155, 0.009939434006810188, 0.01004239171743393, -0.008482109755277634, -0.0019767878111451864, -0.010742311365902424, 0.005379498470574617, -0.0012073045363649726, 0.0033742503728717566, -0.0031377077102661133, -0.00167644745670259, -0.003073223866522312, 0.0070567321963608265, -0.003583779325708747, 0.009641995653510094, -0.0030089037027209997, 0.00759570486843586, 0.009787765331566334, 0.0032320094760507345, -0.004360223188996315, 0.005915440618991852, -0.006554911844432354, -0.009472686797380447, -0.0027846430893987417, 0.005721297115087509, -0.010164995677769184, 0.007680261507630348, -0.0031824505422264338, 0.008557966910302639, -0.002922405255958438, -0.006237828638404608, 0.005243100691586733, 0.009706706739962101, -0.00020726122602354735, 0.006243360228836536, -0.010516143403947353, 0.007688246201723814, -0.004928848706185818, -0.006833589635789394, -0.0032505004201084375, 0.007513911928981543, -0.0032931757159531116, -0.0034064974170178175, -0.005415036343038082, -0.00972682237625122, -0.006335995625704527, -0.0032420125789940357, -0.01012317556887865, 0.005409454461187124, 0.008621186949312687, 0.009832303039729595, -0.004357374273240566, 0.006050708703696728, -0.00313688931055367, 0.006943619344383478, -0.004843996372073889, 0.007208648603409529, -0.005630907602608204, -0.006913044489920139, -0.007118035573512316, 0.007466347422450781, 0.008887476287782192, 0.0018869373016059399, -0.0038503454998135567, -0.010009579360485077, -0.007808266673237085, -0.006254915148019791, -0.003191015450283885, -0.004004619549959898, -0.003821728751063347, 0.001372652594000101, -0.0031864845659583807, 0.00650101387873292, 0.003296918934211135, 0.0077901603654026985, -0.0032039328943938017, 0.0028776449616998434, -0.002957683289423585, -0.008577129803597927, 0.008185341022908688, 0.007626745849847794, -0.007525696884840727, -0.008494693785905838, -0.009379593655467033, -0.0073794107884168625, -0.009985116310417652, -0.00474315183237195, -0.009446210227906704, -0.004654465708881617, 0.006015547551214695, 0.00879710353910923, -0.008680250495672226, 0.0035325540229678154, -0.006538947578519583, -0.0019211816834285855, -0.00952372420579195, 0.002880473155528307, -0.004786863457411528, 0.0022546176332980394, -0.009494268335402012, 0.005439503118395805, -0.007174457889050245, -0.005408306606113911, -0.007611575536429882, -0.00662404578179121, 0.003006845014169812, 0.006090828683227301, -0.00819708313792944, -0.007499669212847948, -0.00871631782501936, 0.007455252110958099], [0.002322908490896225, -0.002998847048729658, 0.003074914449825883, -0.003284639911726117, 0.0034277450758963823, -0.00395172880962491, -0.00479027209803462, -0.0030735598411411047, -0.003508219728246331, -0.003231477690860629, -0.011097815819084644, -0.0022899555042386055, 0.002805914729833603, 0.003222476691007614, 0.0006274510524235666, 0.003299119183793664, -0.00226381653919816, -0.005868865642696619, -0.0029612777289003134, -0.00539853610098362, 0.002409024629741907, 0.0034166094847023487, 0.0028236876241862774, -0.0032008737325668335, 0.0025510559789836407, -0.005726140923798084, 0.002742603188380599, 0.003919003065675497, 0.0026972920168191195, -0.002624079817906022, 0.0009944441262632608, -0.004899830557405949, 0.001317614340223372, -0.003494327887892723, -0.009298122487962246, -0.002679421566426754, 0.003207280533388257, -0.004015031270682812, 0.003188574919477105, 0.01119264867156744, 0.0007807397632859647, -0.0013671615161001682, 0.007991664111614227, -0.002372334711253643, 0.002255032304674387, -0.0044883741065859795, 0.0026864551473408937, 0.0031550396233797073, -0.004047464579343796, -0.0024152277037501335, 0.0036206392105668783, -0.002292015589773655, 0.006472278386354446, -0.006837500259280205, 0.0031793578527867794, 0.008417820557951927, 0.005590020213276148, -0.0075689647346735, 0.00489753857254982, 0.008266863413155079, 0.001898609334602952, 0.0023307851515710354, 0.0013477546162903309, 0.003970892634242773, 0.003700408386066556, -0.003120571142062545, -0.0030149875674396753, -0.003707671770825982, 0.0010009012185037136, -0.0019303882727399468, 0.0035288319922983646, -0.0030923099257051945, 0.004652753006666899, -0.011054622940719128, 0.0023557371459901333, 0.0022490881383419037, 0.0035106029827147722, -0.003783778753131628, -0.002950910245999694, -0.004250275902450085, 0.0033532592933624983, 0.0025464477948844433, 0.00132694561034441, 0.0004938376368954778, 0.0027155992574989796, 0.005635036155581474, 0.001775904092937708, -0.003803418017923832, 0.008269847370684147, -0.0020871334709227085, -0.0027101195883005857, -0.0005314763402566314, 0.0008239942835643888, -0.0027981067541986704, 0.005768129136413336, 0.002205105498433113, -0.0014040860114619136, -0.006829812191426754, 0.001981134759262204, 0.00943603366613388, 0.0030332969035953283, 0.0032458764035254717, 0.002222070936113596, 0.0031237725634127855, 0.0014130655908957124, 0.0020848370622843504, -0.0011187102645635605, -0.0070899659767746925, 0.006529824808239937, -0.0027866510208696127, 0.0034796264953911304, 0.00353124993853271, 0.009700111113488674, -0.002147504361346364, 0.003999009262770414, -0.0012261320371180773, 0.003133718855679035, -0.003877872135490179, 0.0013927777763456106, 0.0038776162546128035, 0.00203521060757339, 0.0038514372427016497, -0.0011367343831807375, -0.004919700790196657, 0.005517513025552034, 0.00295798247680068, 0.002864529611542821, -0.0036237428430467844], [0.016822535544633865, -0.005623421631753445, 0.018325908109545708, -0.02485586702823639, 0.02638106420636177, -0.0045794411562383175, -0.022773338481783867, -0.023849740624427795, -0.005499357357621193, -0.00492596672847867, -0.011806665919721127, -0.02419719099998474, 0.013091608881950378, 0.021873539313673973, 0.0067346286959946156, 0.006205117329955101, -0.015099075622856617, -0.022014452144503593, -0.003860169555991888, -0.01989169418811798, 0.01618976518511772, 0.024099716916680336, 0.004111497662961483, -0.01099801529198885, 0.029732614755630493, -0.00464281439781189, 0.00529552111402154, 0.018968161195516586, 0.004210821818560362, -0.025306960567831993, 0.019804110750555992, -0.023698050528764725, 0.021404294297099113, -0.02584184892475605, -0.012307933531701565, -0.02397417277097702, 0.005078937858343124, -0.021670687943696976, 0.007556090597063303, 0.008791143074631691, 0.025741063058376312, -0.006395960692316294, 0.016860011965036392, -0.004562287591397762, 0.010861898772418499, -0.017993789166212082, 0.003991677425801754, 0.005813690833747387, -0.0041588242165744305, -0.004431253299117088, 0.0268417876213789, -0.004292544908821583, 0.006483444944024086, -0.009242478758096695, 0.004914091434329748, 0.01483066100627184, 0.005085455719381571, -0.004711507353931665, 0.021384574472904205, 0.0042907171882689, 0.01685813069343567, 0.009080790914595127, 0.021021991968154907, 0.023288998752832413, 0.017084259539842606, -0.0203530453145504, -0.02238352969288826, -0.004931026604026556, 0.005129511002451181, -0.02404680661857128, 0.004670985974371433, -0.025624020025134087, 0.015456350520253181, -0.005587819963693619, 0.022773735225200653, 0.00881817378103733, 0.004353269003331661, -0.004140314180403948, -0.005213766824454069, -0.016703523695468903, 0.025448059663176537, 0.0039017025846987963, 0.017826024442911148, 0.01699710637331009, 0.02359134890139103, 0.017724057659506798, 0.025414755567908287, -0.013782741501927376, 0.0036563470494002104, -0.004657167941331863, -0.007137738633900881, -0.023470012471079826, 0.027137789875268936, -0.003649139078333974, 0.02261740155518055, 0.005713306833058596, -0.027548573911190033, -0.023898698389530182, 0.025929149240255356, 0.004020837601274252, 0.01820315420627594, 0.004111104644834995, 0.020590275526046753, 0.007524767890572548, 0.005830736830830574, 0.011018333956599236, -0.01912006549537182, -0.009311646223068237, 0.01841951534152031, -0.005747940856963396, 0.02396240085363388, 0.022010164335370064, 0.014574240893125534, -0.027096828445792198, 0.020588459447026253, -0.018829094246029854, 0.01783471740782261, -0.02553141489624977, 0.004612635355442762, 0.003804255509749055, 0.004497920628637075, 0.023776764050126076, -0.019605230540037155, -0.013963037170469761, 0.003743919311091304, 0.024121100082993507, 0.004454773385077715, -0.023878445848822594], [0.02807130478322506, -0.00429832236841321, 0.013826721347868443, -0.005736237857490778, 0.014625310897827148, -0.02318483218550682, -0.02092612348496914, -0.02216365747153759, -0.02134975790977478, -0.018823709338903427, -0.00782851967960596, -0.01875087060034275, 0.02077007107436657, 0.011255692690610886, 0.02013402059674263, 0.019620228558778763, -0.028601061552762985, -0.021707694977521896, -0.0036158126313239336, -0.020391276106238365, 0.019138339906930923, 0.020081941038370132, 0.016814153641462326, -0.005075485445559025, 0.01065785251557827, -0.016690202057361603, 0.005119314882904291, 0.005139546934515238, 0.024288414046168327, -0.007256374228745699, 0.0007595426868647337, -0.024989470839500427, 0.02054857462644577, -0.020657401531934738, -0.017410529777407646, -0.020350517705082893, 0.02255413681268692, -0.019692901521921158, 0.004650299437344074, 0.007944573648273945, 0.004117551259696484, -0.004345675930380821, 0.01586281880736351, -0.026821235194802284, 0.026300594210624695, -0.01562472339719534, 0.006636572070419788, 0.007250161841511726, -0.022161392495036125, -0.018199941143393517, 0.005712237674742937, -0.024421878159046173, 0.0037691406905651093, -0.009717047214508057, 0.021814679726958275, 0.017089860513806343, 0.021964672952890396, -0.006271489895880222, 0.020981144160032272, 0.015003031119704247, 0.0035743899643421173, 0.016474978998303413, 0.018282519653439522, 0.005885102320462465, 0.021511264145374298, -0.004258093889802694, -0.003586628707125783, -0.019606683403253555, 0.02131880633533001, -0.003935897257179022, 0.02092987671494484, -0.004096050281077623, 0.003916120622307062, -0.011134601198136806, 0.022763751447200775, 0.018782975152134895, 0.01873112842440605, -0.02115662395954132, -0.00549610611051321, -0.020003564655780792, 0.008254817686975002, 0.003526135580614209, 0.02065948210656643, 0.005109674297273159, 0.020276028662919998, 0.005158869083970785, 0.015195476822555065, -0.012160323560237885, 0.007323292084038258, -0.01853541098535061, -0.015677791088819504, -0.02072705514729023, 0.004632122348994017, -0.0037747123278677464, 0.0035727296490222216, 0.01862463355064392, -0.021432597190141678, -0.008542852476239204, 0.017940521240234375, 0.010526481084525585, 0.004775395151227713, 0.003951376304030418, 0.019556351006031036, 0.019763922318816185, 0.004624529741704464, 0.015983672812581062, -0.004082683008164167, -0.0031521369237452745, 0.020075682550668716, -0.02606385201215744, 0.0066454787738621235, 0.0035928641445934772, 0.013304777443408966, -0.014603340066969395, 0.004132749047130346, -0.019907409325242043, 0.003003935096785426, -0.003847359213978052, 0.026457566767930984, 0.015998689457774162, 0.02603629231452942, 0.02083638496696949, -0.019096512347459793, -0.003566042985767126, 0.0033973129466176033, 0.022466253489255905, 0.02209530584514141, -0.02114781364798546], [-0.007632185705006123, 0.005643241107463837, -0.006434051785618067, 0.010198348201811314, -0.009149588644504547, 0.010206270962953568, 0.005398803856223822, 0.01800057664513588, 0.006831737235188484, 0.003326807403936982, 0.014499605633318424, 0.010572576895356178, -0.0031011532992124557, -0.004800895694643259, -0.003450918709859252, -0.007107800338417292, 0.0024732351303100586, 0.005155229475349188, 0.003877160605043173, 0.00418949406594038, -0.010823684744536877, -0.006568705663084984, -0.018719475716352463, 0.0053523569367825985, -0.10768113285303116, 0.0024109145160764456, -0.006018024869263172, -0.16008490324020386, -0.005211949814110994, 0.00492163235321641, -0.006643709726631641, 0.004235483705997467, -0.009101527743041515, 0.004729438107460737, 0.003276720643043518, 0.01968875341117382, -0.012742249295115471, 0.005962166003882885, -0.005878489464521408, -0.01304679736495018, -0.004580700304359198, 0.007371982559561729, -0.01351501140743494, 0.0019912675488740206, -0.006263439543545246, 0.0034752381034195423, -0.004720001481473446, -0.005487395450472832, 0.005508022848516703, 0.0051779975183308125, -0.00553888687863946, 0.0050894892774522305, -0.003751499345526099, 0.004048321396112442, -0.00633548479527235, -0.0654258206486702, -0.005723284557461739, 0.007823345251381397, -0.005315482150763273, -0.032409749925136566, -0.007552347611635923, -0.006117860786616802, -0.006327218376100063, -0.005664438009262085, -0.004546412266790867, 0.01269783079624176, 0.01508968323469162, 0.0048917257227003574, -0.007325856480747461, 0.0054023414850234985, -0.004561508074402809, 0.01350034773349762, -0.005163951311260462, 0.025940807536244392, -0.009562104940414429, -0.01024798583239317, -0.005730058532208204, 0.0022001590114086866, 0.011354762129485607, 0.006306585390120745, -0.006975570693612099, -0.01084232795983553, -0.005772235803306103, -0.006496657617390156, -0.0053267283365130424, -0.006419572979211807, -0.12123147398233414, 0.04795059561729431, -0.010672295466065407, 0.029856164008378983, 0.006646163295954466, 0.0059123472310602665, -0.008530774153769016, 0.003490941599011421, -0.007905948907136917, -0.011020272970199585, 0.00500546395778656, 0.007132801227271557, -0.004510121885687113, -0.03701174259185791, -0.001754470868036151, -0.002403179183602333, -0.003008549101650715, -0.008205313235521317, -0.0033786988351494074, -0.01065421849489212, 0.005016404204070568, 0.006045592948794365, -0.0031265250872820616, 0.005278585944324732, -0.00644043181091547, -0.005471487995237112, -0.05103515088558197, 0.02485976368188858, -0.00856800563633442, 0.006016337312757969, -0.002983187325298786, 0.020323926582932472, -0.006537110544741154, -0.003832432674244046, -0.00893856305629015, -0.007635863963514566, 0.005035425070673227, 0.006442699581384659, -0.003619900904595852, -0.00733345840126276, -0.0051132263615727425, 0.005279289558529854], [-0.01460947934538126, 0.01573587954044342, -0.0076268864795565605, 0.011213927529752254, -0.012971480377018452, 0.008778590708971024, 0.003061718540266156, 0.004090304020792246, 0.017391666769981384, 0.004024656489491463, 0.009290204383432865, 0.016405373811721802, -0.016207857057452202, -0.013987981714308262, -0.013654535636305809, -0.01453134510666132, 0.004846635274589062, 0.013436703011393547, 0.016019055619835854, 0.014471495524048805, -0.004674592986702919, -0.00871475413441658, -0.01273584458976984, 0.017408568412065506, -0.00850714836269617, 0.0033063588198274374, -0.015038978308439255, -0.013428113423287868, -0.01540878601372242, 0.014493176713585854, -0.005125091411173344, 0.013791154138743877, -0.003721194574609399, 0.00329840206541121, 0.01319999061524868, 0.014371564611792564, -0.014771501533687115, 0.013345080427825451, -0.01599218137562275, -0.010142749175429344, -0.0036230117548257113, 0.014392886310815811, -0.010128864087164402, 0.014826872386038303, -0.004469464533030987, 0.012174264527857304, -0.014115660451352596, -0.017974691465497017, 0.015422952361404896, 0.00946834683418274, -0.0059973751194775105, 0.01519986242055893, -0.015596350654959679, 0.010968748480081558, -0.0039048416074365377, -0.0032112759072333574, -0.015427891165018082, 0.016379304230213165, -0.014633954502642155, -0.012497263960540295, -0.017731158062815666, -0.01193834189325571, -0.012636860832571983, -0.013494057580828667, -0.016200248152017593, 0.009774577803909779, 0.014392761513590813, 0.014360864646732807, -0.005344991106539965, 0.015268377028405666, -0.011659332551062107, 0.013615655712783337, -0.0038046196568757296, 0.011693371459841728, -0.0038544863928109407, -0.0072545455768704414, -0.014994509518146515, 0.013420939445495605, 0.0058233109302818775, 0.0043557798489928246, -0.015632441267371178, -0.012380102649331093, -0.015546386130154133, -0.0046876356936991215, -0.014042604714632034, -0.014955210499465466, -0.016130533069372177, 0.008292805403470993, -0.009580194018781185, 0.014053186401724815, 0.016508419066667557, 0.015485922805964947, -0.004679798614233732, 0.003151677316054702, -0.0176338292658329, -0.003841845318675041, 0.012282894924283028, 0.012980006635189056, -0.01613391377031803, -0.0032220701687037945, -0.014825740829110146, -0.013832278549671173, -0.010298467241227627, -0.01727948524057865, -0.015123577788472176, -0.013380283489823341, 0.017222950235009193, 0.015161900781095028, -0.013039889745414257, 0.014916003681719303, -0.01391513366252184, -0.00719701312482357, -0.0030245149973779917, 0.004067337606102228, -0.014244064688682556, 0.010566852055490017, -0.01440585870295763, 0.012949561700224876, -0.004030088894069195, -0.014415807090699673, -0.016720697283744812, -0.013129400089383125, 0.015167005360126495, 0.0035209746565669775, -0.00938864890486002, -0.012053003534674644, -0.012823936529457569, 0.016704626381397247], [-0.013663265854120255, 0.01513731200248003, -0.013568357564508915, 0.01554609090089798, -0.004307565279304981, 0.014610568061470985, 0.015230363234877586, 0.011304010637104511, 0.012861557304859161, 0.016122201457619667, 0.010227967984974384, 0.004205919336527586, -0.01211918517947197, -0.012537432834506035, -0.010398764163255692, -0.012771585024893284, 0.004411724396049976, 0.015065616928040981, 0.015839148312807083, 0.010963612236082554, -0.013966144062578678, -0.004541362635791302, -0.014378150925040245, 0.016022149473428726, -0.0046791271306574345, 0.010346596129238605, -0.01570103131234646, -0.004715218208730221, -0.012723147869110107, 0.015410393476486206, -0.004732382949441671, 0.015483629889786243, -0.010657982900738716, 0.003796792821958661, 0.013940928503870964, 0.015813760459423065, -0.016192270442843437, 0.016221877187490463, -0.016159787774086, -0.009334581904113293, -0.011692930944263935, 0.01672532595694065, -0.012424532324075699, 0.015376938506960869, -0.017667626962065697, 0.011761569418013096, -0.013391068205237389, -0.0125192329287529, 0.015484991483390331, 0.004885092377662659, -0.011404696851968765, 0.0032919433433562517, -0.01453361939638853, 0.008661487139761448, -0.009735515341162682, -0.012465354986488819, -0.004386640153825283, 0.004450796637684107, -0.012699398212134838, -0.011838830076158047, -0.004787744954228401, -0.008473550900816917, -0.014775482937693596, -0.012401100248098373, -0.01590557210147381, 0.015715325251221657, 0.014232507906854153, 0.013750690966844559, -0.014302344061434269, 0.014508260414004326, -0.012409254908561707, 0.011834339238703251, -0.013923767022788525, 0.011667901650071144, -0.016299156472086906, -0.011420496739447117, -0.00425407150760293, 0.003657572902739048, 0.013192491605877876, 0.013583633117377758, -0.007409437093883753, -0.016775334253907204, -0.014484988525509834, -0.013037784956395626, -0.0054777092300355434, -0.013142485171556473, -0.014757398515939713, 0.00890293437987566, -0.008898995816707611, 0.012079542502760887, 0.01770106330513954, 0.014215834438800812, -0.013481148518621922, 0.0032753548584878445, -0.010896125808358192, -0.011697742156684399, 0.01705501228570938, 0.0158636886626482, -0.01608642190694809, -0.01118122972548008, -0.012569298036396503, -0.0150302117690444, -0.015120923519134521, -0.012646110728383064, -0.004414572846144438, -0.012429731898009777, 0.0038082180544734, 0.009264103136956692, -0.013162205927073956, 0.0114192059263587, -0.006575235165655613, -0.012874895706772804, -0.0047461786307394505, 0.012632645666599274, -0.012709230184555054, 0.004703810904175043, -0.002970721572637558, 0.015694964677095413, -0.0060760220512747765, -0.0034595851320773363, -0.006060345098376274, -0.006661107763648033, 0.012139909900724888, 0.012370734475553036, -0.01494640577584505, -0.01193977426737547, -0.005918659269809723, 0.004144981503486633], [-0.010744248516857624, 0.013516255654394627, -0.011231230571866035, 0.005386688746511936, -0.0015404496807605028, 0.003671532031148672, 0.0028347568586468697, 0.0032713960390537977, 0.005319191608577967, 0.003862933488562703, 0.010359877720475197, 0.009092344902455807, -0.010375818237662315, -0.012011343613266945, -0.008430516347289085, -0.010669603012502193, 0.0030598072335124016, 0.009921902790665627, 0.011563551612198353, 0.013967631384730339, -0.00827475544065237, -0.006751660257577896, -0.00954591203480959, 0.003171144984662533, -0.0037645252887159586, 0.012563958764076233, -0.000979241798631847, -0.005699722561985254, -0.003227776614949107, 0.0035637638065963984, -0.00800794642418623, 0.003310868749395013, -0.008383048698306084, 0.002965169958770275, 0.009980187751352787, 0.007734532468020916, -0.004405765328556299, 0.008659042418003082, -0.00360829196870327, -0.009787208400666714, -0.008417285978794098, 0.011123496107757092, -0.012302744202315807, 0.008817295543849468, -0.0035355931613594294, 0.009712941944599152, -0.010812158696353436, -0.007634417619556189, 0.00939504336565733, 0.010761975310742855, -0.003265852341428399, 0.009757707826793194, -0.003267084015533328, 0.008238626644015312, -0.008404966443777084, -0.0031031398102641106, -0.011645946651697159, 0.0031761263962835073, -0.01095366571098566, -0.01326226256787777, -0.010212711058557034, -0.005162402056157589, -0.007783226203173399, -0.006478308234363794, -0.011258051730692387, 0.003933264873921871, 0.00782118458300829, 0.0040808916091918945, -0.008546100929379463, 0.0036495719105005264, -0.009693516418337822, 0.009919790551066399, -0.010872961021959782, 0.012788072228431702, -0.008787578903138638, -0.00993420835584402, -0.011113732121884823, 0.00474013714119792, 0.003883471479639411, 0.007047588471323252, -0.004892344586551189, -0.011275858618319035, -0.0034555362071841955, -0.004202937241643667, -0.0035474803298711777, -0.0003248605353292078, -0.003482488915324211, 0.000996174174360931, -0.009147778153419495, 0.01085293386131525, 0.008836842142045498, 0.008513652719557285, -0.004454200621694326, 0.0030705449171364307, -0.003024631179869175, -0.0037725006695836782, 0.007309048902243376, 0.0036666258238255978, -0.011090453714132309, -0.0133860157802701, -0.0027284291572868824, -0.009554027579724789, -0.0036572120152413845, -0.004072956275194883, -0.004345669411122799, -0.0036947233602404594, 0.010629932396113873, 0.011572889052331448, -0.012429580092430115, 0.005951600149273872, -0.0037239149678498507, -0.003861580975353718, -0.010670799762010574, 0.00854968186467886, -0.007551305927336216, 0.0030275636818259954, -0.014208848588168621, 0.010784839279949665, -0.009050654247403145, -0.007980089634656906, -0.011046267114579678, -0.006412383634597063, 0.003765948349609971, 0.011156956665217876, -0.0032417301554232836, -0.007519684731960297, -0.013676738366484642, 0.007844789884984493], [-0.005046663340181112, 0.025620417669415474, -0.018425025045871735, 0.039171554148197174, -0.044334471225738525, 0.039985425770282745, 0.02528107911348343, 0.03393212705850601, 0.040365852415561676, 0.03904435411095619, 0.00550170848146081, 0.03547726199030876, -0.004729148466140032, -0.004623669199645519, -0.006324326153844595, -0.024904871359467506, 0.03780901059508324, 0.0063711912371218204, 0.006126302760094404, 0.005508550442755222, -0.031673070043325424, -0.028809839859604836, -0.0228034108877182, 0.03980438411235809, -0.011483164504170418, 0.013160784728825092, -0.04595787450671196, -0.02967967465519905, -0.03062567301094532, 0.026425614953041077, -0.024621697142720222, 0.02932436764240265, -0.005220831371843815, 0.030431650578975677, 0.01877128891646862, 0.005888151936233044, -0.03615749254822731, 0.005340268835425377, -0.0066033219918608665, -0.009431065991520882, -0.037319365888834, 0.00660467566922307, -0.005036532413214445, 0.0365217924118042, -0.04367074742913246, 0.0292985700070858, -0.012203901074826717, -0.04064230993390083, 0.00903463177382946, 0.03266363963484764, -0.043164242058992386, 0.02594171278178692, -0.023235920816659927, 0.014010514132678509, -0.03534319996833801, -0.003989099524915218, -0.03159946948289871, 0.017677081748843193, -0.007583100814372301, -0.0031726520974189043, -0.02824173867702484, -0.03294465318322182, -0.031615760177373886, -0.03083903342485428, -0.027776937931776047, 0.03119479864835739, 0.03545011579990387, 0.006422632373869419, -0.03766742721199989, 0.0060341740027070045, -0.03437463939189911, 0.0355071946978569, -0.04024688899517059, 0.004249837249517441, -0.036024317145347595, -0.01197334285825491, -0.029841966927051544, 0.029590124264359474, 0.01095783431082964, 0.04017585515975952, -0.006982034537941217, -0.027476821094751358, -0.03422244265675545, -0.025606561452150345, -0.035927411168813705, -0.011255865916609764, -0.026697982102632523, 0.006567601580172777, -0.012500660493969917, 0.02523605152964592, 0.0437774583697319, 0.03449096903204918, -0.040999334305524826, 0.027059247717261314, -0.0287771075963974, -0.033833347260951996, 0.03593044728040695, 0.029812801629304886, -0.005942721385508776, -0.0031883451156318188, -0.020494844764471054, -0.00449901819229126, -0.02651512809097767, -0.04371628537774086, -0.005651126150041819, -0.033027175813913345, 0.0054710120894014835, 0.004407248459756374, -0.02118230238556862, 0.010279102250933647, -0.043682169169187546, -0.040966857224702835, -0.004101458005607128, 0.05505996197462082, -0.028432106599211693, 0.038531120866537094, -0.0033788131549954414, 0.03410693630576134, -0.043433647602796555, -0.029015328735113144, -0.030168898403644562, -0.007598320487886667, 0.02748296596109867, 0.03105420619249344, -0.026191387325525284, -0.006352558266371489, -0.025744756683707237, 0.00557747483253479], [0.006355774588882923, -0.0056173778139054775, 0.005589145701378584, -0.008134507574141026, 0.008555964566767216, -0.004504496231675148, -0.004830003250390291, -0.010470631532371044, -0.00994411576539278, -0.008924754336476326, -0.005712499376386404, -0.016392020508646965, 0.006606094539165497, 0.0032926297280937433, 0.01713259145617485, 0.00673266313970089, -0.006237879395484924, -0.005270564462989569, -0.005386859178543091, -0.002970073139294982, 0.00631695194169879, 0.007734228856861591, 0.005676330998539925, -0.008245331235229969, 0.02036670781672001, -0.007704931311309338, 0.014067218638956547, 0.012452200055122375, 0.007261419668793678, -0.008665044791996479, 0.005601217970252037, -0.00572736794129014, 0.0032544841524213552, -0.008853321895003319, -0.008796904236078262, -0.008402687497437, 0.008499444462358952, -0.009029481559991837, 0.004856861662119627, 0.00953118409961462, 0.010330194607377052, -0.008272898383438587, 0.005357122514396906, -0.006150880362838507, 0.004724863916635513, -0.012720689177513123, 0.006045128684490919, 0.004794490523636341, -0.008808891288936138, -0.0058399164117872715, 0.008903770707547665, -0.006798997521400452, 0.0056834109127521515, -0.010800751857459545, 0.004486646968871355, 0.004563736263662577, 0.004550290293991566, -0.005923783872276545, 0.00452408567070961, 0.0036379622761160135, 0.008855805732309818, 0.015774335712194443, 0.008394412696361542, 0.010575924068689346, 0.00601492915302515, -0.007233881391584873, -0.0054068490862846375, -0.008593239821493626, 0.011443122290074825, -0.010713973082602024, 0.007927401922643185, -0.004998954478651285, 0.008955064229667187, -0.00991794839501381, 0.008293651044368744, 0.006954595446586609, 0.0070908525958657265, -0.006804567761719227, -0.006810107734054327, -0.006281439680606127, 0.009464002214372158, 0.00447447132319212, 0.014901449903845787, 0.021716594696044922, 0.004047892056405544, 0.005726369097828865, 0.015991335734725, -0.0884714275598526, 0.009586861357092857, -0.01250919234007597, -0.00904063880443573, -0.007764494977891445, 0.0147898830473423, -0.005424663424491882, 0.003275326220318675, 0.004191672895103693, -0.014464027248322964, -0.005874187219887972, 0.008212574757635593, 0.003964353818446398, 0.0044167619198560715, 0.008921493776142597, 0.01028593722730875, 0.010222986340522766, 0.009856062941253185, 0.010525327175855637, -0.007290147710591555, -0.00630172248929739, 0.0038935504853725433, -0.007337646093219519, 0.004692311864346266, 0.005249870475381613, 0.00607867818325758, -0.030299264937639236, 0.003905664198100567, -0.008266154676675797, 0.0043350099585950375, -0.004167628474533558, 0.010758595541119576, 0.006903544068336487, 0.00335517106577754, 0.01387394405901432, -0.004441441502422094, -0.006568812765181065, 0.004991286434233189, 0.0036427034065127373, 0.0038864619564265013, -0.008792297914624214], [-0.003154135774821043, 0.01171589270234108, -0.011023975908756256, 0.008653776720166206, -0.008041629567742348, 0.006279650144279003, 0.005749120842665434, 0.01101591158658266, 0.0037353169173002243, 0.006497828755527735, 0.010982351377606392, 0.005940204951912165, -0.003692755475640297, -0.010316764935851097, -0.0071062250062823296, -0.009404784068465233, 0.007044394034892321, 0.007589172106236219, 0.009356463328003883, 0.006175814662128687, -0.006624442059546709, -0.0035673731472343206, -0.01060959231108427, 0.008571593090891838, -0.0038556833751499653, 0.002927471650764346, -0.00795843917876482, -0.003960019908845425, -0.00798464473336935, 0.006353120319545269, -0.012159760110080242, 0.004655865021049976, -0.007033938076347113, 0.008834616281092167, 0.011016860604286194, 0.0037933913990855217, -0.009097207337617874, 0.010786737315356731, -0.003746833186596632, -0.009290901012718678, -0.0036127311177551746, 0.007437938824295998, -0.008438454009592533, 0.00978193711489439, -0.009089400991797447, 0.01124577596783638, -0.0063816457986831665, -0.004865733906626701, 0.008058036677539349, 0.00855619739741087, -0.0029915666673332453, 0.004742651246488094, -0.0039983708411455154, 0.008338434621691704, -0.003113881917670369, -0.009945230558514595, -0.004767290316522121, 0.010286221280694008, -0.007507926784455776, -0.009683550335466862, -0.00963335856795311, -0.0034154639579355717, -0.003015211084857583, -0.010097291320562363, -0.00830025877803564, 0.006500322371721268, 0.006543103605508804, 0.009902456775307655, -0.005149602424353361, 0.0050200666300952435, -0.007303101941943169, 0.007014727685600519, -0.007515634875744581, 0.004998724441975355, -0.009546592831611633, -0.009209319949150085, -0.009413755498826504, 0.009273435920476913, 0.009929829277098179, 0.008097207173705101, -0.010837571695446968, -0.009854498319327831, -0.005947829689830542, -0.00464966194704175, -0.00346760218963027, -0.012446206994354725, -0.00812678411602974, 0.002404407598078251, -0.009456093423068523, 0.005005957558751106, 0.005169754382222891, 0.010618268512189388, -0.006283106282353401, 0.011478078551590443, -0.007089999970048666, -0.01004919782280922, 0.005365634802728891, 0.010126443579792976, -0.009289651177823544, -0.00414716312661767, -0.010922731831669807, -0.0072875069454312325, -0.009566054679453373, -0.00836961716413498, -0.008783088997006416, -0.010840537026524544, 0.009556358680129051, 0.01056139636784792, -0.00283634290099144, 0.009756244719028473, -0.006896771024912596, -0.007580592762678862, -0.011822155676782131, 0.005822720937430859, -0.0033255305606871843, 0.0071131945587694645, -0.002597818849608302, 0.008050342090427876, -0.003515460528433323, -0.0028256122022867203, -0.009605873376131058, -0.0077987234108150005, 0.009163708426058292, 0.0032949328888207674, -0.00995368231087923, -0.008205996826291084, -0.003470146097242832, 0.004039738792926073], [0.005552885588258505, -0.003569440683349967, 0.005046594422310591, -0.005949252285063267, 0.01478502992540598, -0.002863879781216383, -0.0037709237076342106, -0.007070169318467379, -0.01420503854751587, -0.007050610613077879, -0.008211658336222172, -0.005672149360179901, 0.003422839567065239, 0.004007716663181782, 0.008423015475273132, 0.014076847583055496, -0.005536041688174009, -0.003994307015091181, -0.004518280271440744, -0.003814476076513529, 0.005163298454135656, 0.007552288006991148, 0.007652865722775459, -0.006645377725362778, 0.01499622967094183, -0.004833705257624388, 0.007865329273045063, 0.00837654247879982, 0.004614070523530245, -0.007034376263618469, 0.007043698336929083, -0.00718541769310832, 0.0029532217886298895, -0.004958036821335554, -0.005242801271378994, -0.010350087657570839, 0.006301672197878361, -0.005664907395839691, 0.0032831765711307526, 0.015023901127278805, 0.005105605348944664, -0.006375130731612444, 0.005253832787275314, -0.005474374163895845, 0.00808713585138321, -0.007697378750890493, 0.004209127742797136, 0.008887862786650658, -0.005361070856451988, -0.0044667827896773815, 0.007512839511036873, -0.0036545484326779842, 0.00506164226680994, -0.011488374322652817, 0.005717501975595951, 0.00556961540132761, 0.006908765994012356, -0.004642982501536608, 0.0077462149783968925, 0.005427422001957893, 0.0066673667170107365, 0.010645611211657524, 0.008442465215921402, 0.005717375781387091, 0.004833269864320755, -0.004956991411745548, -0.006937922444194555, -0.006521203555166721, 0.006309871096163988, -0.005379792768508196, 0.007194919511675835, -0.0076256440952420235, 0.005219062324613333, -0.008189672604203224, 0.006110078189522028, 0.010471668094396591, 0.0054794177412986755, -0.003806165885180235, -0.0035122972913086414, -0.00866822712123394, 0.005209868308156729, 0.0032737392466515303, 0.003554582130163908, 0.014842639677226543, 0.009052720852196217, 0.008336814120411873, 0.007993222214281559, -0.11001896113157272, 0.013970959931612015, -0.008099374361336231, -0.006927678361535072, -0.0073228636756539345, 0.013572187162935734, -0.002270275726914406, 0.0043280418030917645, 0.0044797444716095924, -0.006467572413384914, -0.004321066662669182, 0.006321146618574858, 0.005194158758968115, 0.003704376984387636, 0.004797396715730429, 0.006856617052108049, 0.007974619045853615, 0.011215816251933575, 0.007973110303282738, -0.005216910038143396, -0.006289261393249035, 0.00402851402759552, -0.008793357759714127, 0.002690616762265563, 0.004075678065419197, 0.003839039709419012, -0.007355115842074156, 0.004696758463978767, -0.008655661717057228, 0.004092314746230841, -0.00604135449975729, 0.005236231721937656, 0.005656718742102385, 0.004910741932690144, 0.004684965126216412, -0.011974653229117393, -0.005126279778778553, 0.005760787986218929, 0.005510184448212385, 0.002385142259299755, -0.0036782831884920597], [0.016486624255776405, -0.009176223538815975, 0.0039018939714878798, -0.011791164055466652, 0.004356203600764275, -0.013887346722185612, -0.017419029027223587, -0.004303968045860529, -0.004011399112641811, -0.009952064603567123, -0.009702987037599087, -0.013817505910992622, 0.004295738879591227, 0.003919700160622597, 0.010091988369822502, 0.009872221387922764, -0.0037302416749298573, -0.015140327624976635, -0.016765374690294266, -0.014685027301311493, 0.0124509921297431, 0.010066180489957333, 0.012969217263162136, -0.005043618846684694, 0.003491450799629092, -0.011985394172370434, 0.012289960868656635, 0.0037155593745410442, 0.015449599362909794, -0.005330618470907211, 0.010777669958770275, -0.017148250713944435, 0.0035886969417333603, -0.003454348770901561, -0.012416950426995754, -0.010532197542488575, 0.00956510379910469, -0.01018952950835228, 0.01510143093764782, 0.009966379031538963, 0.012881710194051266, -0.012453166767954826, 0.011737534776329994, -0.016612321138381958, 0.015658097341656685, -0.012184091843664646, 0.0053475238382816315, 0.0040677208453416824, -0.004306703340262175, -0.00358977192081511, 0.010453992523252964, -0.01634969189763069, 0.015012341551482677, -0.008418434299528599, 0.01318772416561842, 0.003243671730160713, 0.011129277758300304, -0.0172665324062109, 0.011863033287227154, 0.010556772351264954, 0.013029530644416809, 0.010885115712881088, 0.004098857287317514, 0.015545525588095188, 0.014356555417180061, -0.014357496984302998, -0.015089815482497215, -0.016668546944856644, 0.014423880726099014, -0.003888396779075265, 0.012130135670304298, -0.014589724130928516, 0.0036365657579153776, -0.00987493060529232, 0.008519059978425503, 0.0036869968753308058, 0.011826997622847557, -0.015281090512871742, -0.014770246110856533, -0.00911656953394413, 0.004386840388178825, 0.005262597464025021, 0.011799957603216171, 0.007366559002548456, 0.015488590113818645, 0.0126822330057621, 0.013709903694689274, -0.010704097338020802, 0.009592028334736824, -0.012009629048407078, -0.0083781648427248, -0.006038532126694918, 0.0038752758409827948, -0.018155386671423912, 0.015989527106285095, 0.01410332228988409, -0.016339438036084175, -0.01956282928586006, 0.003774242242798209, 0.010887820273637772, 0.015866637229919434, 0.0072863041423261166, 0.010909157805144787, 0.005057402420789003, 0.01294029876589775, 0.012508472427725792, -0.01389307714998722, -0.009910673834383488, 0.015824194997549057, -0.01290268823504448, 0.01039848942309618, 0.0040207249112427235, 0.012144450098276138, -0.004187556449323893, 0.00447335047647357, -0.00431503402069211, 0.01733703352510929, -0.011708926409482956, 0.01777072809636593, 0.012632451951503754, 0.01674041710793972, 0.004514714702963829, -0.011138707399368286, -0.012644884176552296, 0.017048455774784088, 0.0082571255043149, 0.0037403260357677937, -0.00624884944409132], [-0.011921166442334652, 0.01238061860203743, -0.013447392731904984, 0.004288958385586739, -0.004222165793180466, 0.012922268360853195, 0.00809280015528202, 0.011920318938791752, 0.012033140286803246, 0.007580148056149483, 0.012028000317513943, 0.01273572538048029, -0.00408590491861105, -0.012087519280612469, -0.01248785201460123, -0.012414449825882912, 0.007124179042875767, 0.005530348978936672, 0.012428146786987782, 0.012931236065924168, -0.0037931855767965317, -0.006504390854388475, -0.011706305667757988, 0.003872406203299761, -0.007098325528204441, 0.0035337305162101984, -0.00414698664098978, -0.01035389956086874, -0.013767721131443977, 0.003912976942956448, -0.012782485224306583, 0.00365866394713521, -0.007826532237231731, 0.004088733345270157, 0.004167812876403332, 0.01076084841042757, -0.011353796347975731, 0.01293802261352539, -0.004182255826890469, -0.009143609553575516, -0.0123639777302742, 0.012867189012467861, -0.01224891934543848, 0.011330200359225273, -0.012304047122597694, 0.012540572322905064, -0.0032711410894989967, -0.012627925723791122, 0.011081990785896778, 0.00548423221334815, -0.008636526763439178, 0.011609971523284912, -0.003350764513015747, 0.00685940170660615, -0.005544567480683327, -0.011811825446784496, -0.01121398713439703, 0.013226342387497425, -0.011713351123034954, -0.004886182956397533, -0.012913398444652557, -0.012381237931549549, -0.012137100100517273, -0.008521710522472858, -0.013525928370654583, 0.012266081757843494, 0.010775430127978325, 0.004024970810860395, -0.003986188676208258, 0.009266289882361889, -0.010156182572245598, 0.011867889203131199, -0.012090749107301235, 0.004194014705717564, -0.011077716015279293, -0.00963691994547844, -0.003708340460434556, 0.01042008213698864, 0.004448255989700556, 0.0043549141846597195, -0.010441198013722897, -0.007355179637670517, -0.01352445688098669, -0.0066706277430057526, -0.009759185835719109, -0.012223727069795132, -0.009388796053826809, 0.004405336920171976, -0.010358904488384724, 0.005863687489181757, 0.011511278338730335, 0.012640184722840786, -0.01019199751317501, 0.012823197059333324, -0.0034237937070429325, -0.004011627286672592, 0.004145513288676739, 0.0069831376895308495, -0.004176232032477856, -0.003302623052150011, -0.012783337384462357, -0.013139908201992512, -0.01094396784901619, -0.007661839947104454, -0.009360764175653458, -0.009976338595151901, 0.013108829967677593, 0.0031857509166002274, -0.010775357484817505, 0.00894702784717083, -0.0037830770015716553, -0.011375779286026955, -0.006380932871252298, 0.01351067703217268, -0.012273703701794147, 0.011263905093073845, -0.01366911269724369, 0.01390521414577961, -0.01205065380781889, -0.0029724929481744766, -0.003188076429069042, -0.0078736562281847, 0.011986291967332363, 0.011655684560537338, -0.01122716348618269, -0.01084042713046074, -0.012429274618625641, 0.00844747293740511], [0.00393999507650733, -0.003378625027835369, 0.01584356464445591, -0.012952531687915325, 0.015489472076296806, -0.007443082984536886, -0.010022738017141819, -0.016845781356096268, -0.012661171145737171, -0.017934193834662437, -0.0025608977302908897, -0.01004782970994711, 0.017200712114572525, 0.013620799407362938, 0.0196180772036314, 0.012825246900320053, -0.011436395347118378, -0.004070962313562632, -0.011140253394842148, -0.0032862958032637835, 0.013043119572103024, 0.01818717271089554, 0.003863751655444503, -0.013275299221277237, 0.012248631566762924, -0.010116545483469963, 0.012715817429125309, 0.015632327646017075, 0.004377943929284811, -0.009873165749013424, 0.012391368858516216, -0.005474516190588474, 0.01561313308775425, -0.0055665322579443455, -0.007564124651253223, -0.012862872332334518, 0.005021499469876289, -0.017465125769376755, 0.00599992461502552, 0.0004496209730859846, 0.011956579051911831, -0.004864855669438839, 0.005215631332248449, -0.00520198093727231, 0.014139143750071526, -0.016491174697875977, 0.003926902078092098, 0.005072250030934811, -0.01592293195426464, -0.013350162655115128, 0.0119790555909276, -0.010270270518958569, 0.002605702728033066, -0.0023099153768271208, 0.011182984337210655, 0.013443377800285816, 0.01619897037744522, -0.011026664637029171, 0.016972890123724937, 0.006582456640899181, 0.005450560245662928, 0.01188720390200615, 0.014921934343874454, 0.005115830805152655, 0.014746488071978092, -0.004821716342121363, -0.010668649338185787, -0.004539025016129017, 0.0176517553627491, -0.010720512829720974, 0.016677405685186386, -0.012742484919726849, 0.019253427162766457, -0.004197714384645224, 0.011785127222537994, 0.005541611462831497, 0.006060303188860416, -0.009518901817500591, -0.004076053388416767, -0.012891937978565693, 0.02050131931900978, 0.005683278199285269, 0.0038294815458357334, 0.012661755084991455, 0.012676453217864037, 0.015797555446624756, 0.01044271606951952, -0.010212737135589123, 0.0041716438718140125, -0.016226841136813164, -0.01470950897783041, -0.018036779016256332, 0.01979859732091427, -0.0031596808694303036, 0.00786101445555687, 0.0165881160646677, -0.012780613265931606, -0.010917593725025654, 0.003995113540440798, 0.008377035148441792, 0.0029505796264857054, 0.01071079820394516, 0.005677066743373871, 0.017540892586112022, 0.008462968282401562, 0.011347757652401924, -0.010860955342650414, -0.002985553350299597, 0.002586954738944769, -0.012186375446617603, 0.01742410659790039, 0.013654041104018688, 0.00618711719289422, -0.013944472186267376, 0.016198623925447464, -0.009252709336578846, 0.001855566049925983, -0.016212500631809235, 0.014617882668972015, 0.0029918127693235874, 0.010384283028542995, 0.0223015695810318, -0.015860004350543022, -0.0033961310982704163, 0.014126203022897243, 0.015438583679497242, 0.014347228221595287, -0.011060862801969051], [-0.011906788684427738, 0.011333760805428028, -0.013547172769904137, 0.012214344926178455, -0.014887828379869461, 0.012172072194516659, 0.005233804229646921, 0.007810536772012711, 0.008139098063111305, 0.012995654717087746, 0.0003170908021274954, 0.0063822707161307335, -0.01083625853061676, -0.004828153643757105, -0.01341966725885868, -0.006812944542616606, 0.005676730070263147, 0.00853582564741373, 0.0012632299913093448, 0.009628357365727425, -0.01009973231703043, -0.013286194764077663, -0.007459628861397505, 0.011255194433033466, -0.01650906726717949, 0.004334030207246542, -0.010930106043815613, -0.01273452676832676, -0.009416458196938038, 0.000581884931307286, -0.0067979334853589535, 0.008050101809203625, -0.009268462657928467, 0.01137201115489006, 0.005536675453186035, 0.011961687356233597, -0.008900758810341358, 0.0022387143690139055, -0.006621191278100014, -0.0003239786601625383, -0.00924388226121664, 0.004447746090590954, -0.0089013846591115, 0.01044532936066389, -0.01273883692920208, 0.004738481715321541, -0.010902107693254948, -0.012697300873696804, 0.011827759444713593, 0.012601339258253574, -0.016060316935181618, 0.008332143537700176, -0.004140336532145739, 0.0006165397353470325, -0.014268267899751663, -0.012056350708007812, -0.0014131645439192653, 0.010310905054211617, -0.0008981953142210841, -0.008806118741631508, -0.0038951407186686993, -0.009764879010617733, -0.011975785717368126, -0.008656381629407406, -0.008061375468969345, 0.010656177997589111, 0.010905778966844082, 0.009840057231485844, -0.008873028680682182, 0.01474724616855383, -0.012016186490654945, 0.009448578581213951, -0.00373790948651731, 0.003817595075815916, -0.008880292996764183, -0.008343325927853584, -0.0014219871954992414, 0.008940698578953743, 0.010784856975078583, 0.014879877679049969, -0.01853298954665661, -0.013258926570415497, -0.010899282060563564, -0.0057452525943517685, -0.006207427941262722, -0.004937449470162392, -0.01231760997325182, 0.0027989193331450224, -0.0007866567466408014, 0.005076045170426369, 0.004782801494002342, 0.010781794786453247, -0.015529020689427853, 0.008772643283009529, -0.00513799674808979, -0.008827080018818378, 0.014070252887904644, 0.006800650153309107, -0.00911187008023262, -0.006602836772799492, -0.0020706208888441324, -0.004526939243078232, -0.010232286527752876, -0.012373828329145908, -0.007897114381194115, -0.008209187537431717, 0.0037927431985735893, 0.009257317520678043, -0.001365506905131042, 0.006623529829084873, -0.012055467814207077, -0.012626766227185726, -0.0072854021564126015, 0.004898842889815569, -0.008306672796607018, 0.01010491419583559, -0.0014887666329741478, 0.010398483835160732, -0.007177430670708418, -0.008933725766837597, -0.007335650268942118, -0.020173219963908195, 0.005936298985034227, 0.005492114927619696, -0.006559156347066164, -0.010493465699255466, -0.011255808174610138, 0.010453296825289726], [0.005757397040724754, -0.0073251198045909405, 0.009207271970808506, -0.004455952439457178, 0.0026225484907627106, -0.005137384869158268, -0.008041291497647762, -0.008023180067539215, -0.0014382593799382448, -0.0031590673606842756, -0.005983242765069008, -0.005642407573759556, 0.009124952368438244, 0.006919541861861944, 0.003574453294277191, 0.003095332533121109, -0.006533366162329912, -0.006354199722409248, -0.003342924639582634, -0.007130567915737629, 0.005639094393700361, 0.0020028003491461277, 0.007385998032987118, -0.006652128417044878, 0.0029072528705000877, -0.0068539828062057495, 0.0025319072883576155, 0.003925969358533621, 0.009649354964494705, -0.005371355917304754, 0.005209035240113735, -0.007995998486876488, 0.004348712973296642, -0.0072217038832604885, -0.006039828062057495, -0.006269453559070826, 0.0018945123301818967, -0.0031282242853194475, 0.005924805998802185, 0.008965308777987957, 0.003747585928067565, -0.0066113644279539585, 0.006025832146406174, -0.008717836812138557, 0.008421756327152252, -0.00950477086007595, 0.00831244420260191, 0.002431795932352543, -0.005462217144668102, -0.009921014308929443, 0.00041357119334861636, -0.004860240500420332, 0.0032426875550299883, -0.009473918937146664, 0.0023984815925359726, 0.0029981289990246296, 0.00829419493675232, -0.0031540733762085438, 0.0030699516646564007, 0.00864569190889597, 0.00598833616822958, 0.003182917134836316, 0.002842913381755352, 0.005584368482232094, 0.006743900943547487, -0.007893860340118408, -0.005523261148482561, -0.008822474628686905, 0.007010492496192455, -0.005674687214195728, 0.007156887091696262, -0.006746852304786444, 0.0078065344132483006, -0.0032995007932186127, 0.005113267805427313, 0.004763628356158733, 0.009275802411139011, -0.008427556604146957, -0.003829581430181861, -0.001614934648387134, 0.007672559469938278, 0.006855965591967106, 0.0030714760068804026, 0.006680882535874844, 0.005384748801589012, 0.007672763895243406, 0.0018992271507158875, -0.00702704256400466, 0.008618149906396866, -0.005343697965145111, -0.0019013970158994198, -0.008462551981210709, 0.002542543923482299, -0.006627889350056648, 0.008714716881513596, 0.005783975124359131, -0.0034760746639221907, -0.009192017838358879, 0.0032333016861230135, 0.003730039345100522, 0.0027841038536280394, 0.01033790223300457, 0.004139842465519905, 0.006493347231298685, 0.004701643716543913, 0.0023715761490166187, -0.0056198216043412685, -0.006319939624518156, 0.008509129285812378, -0.0024744635447859764, 0.005021505057811737, 0.0042620315216481686, 0.00877726823091507, -0.005629361607134342, 0.0029037247877568007, -0.005416816100478172, 0.010253234766423702, -0.003090537851676345, 0.0086347796022892, 0.005082275718450546, 0.007176108658313751, 0.0038481145165860653, -0.002898921724408865, -0.008040429092943668, 0.009467773139476776, 0.002605171175673604, 0.007939906790852547, -0.005180734675377607], [0.006784604862332344, -0.0032400405034422874, 0.003816031152382493, -0.004051777068525553, 0.0009934778790920973, -0.008857453241944313, -0.003125766757875681, -0.008848958648741245, -0.008652648888528347, -0.005430650431662798, -0.00925828330218792, -0.0055477200075984, 0.008088978007435799, 0.004891131538897753, 0.005592215806245804, 0.004410830792039633, -0.007967913523316383, -0.009774209931492805, -0.003020779462531209, -0.013707862235605717, 0.006634273566305637, 0.004307089373469353, 0.011777964420616627, -0.009074789471924305, 0.003715772181749344, -0.011098797433078289, 0.002469777362421155, 0.0035993296187371016, 0.009823139756917953, -0.007898359559476376, 0.003904729150235653, -0.009190532378852367, 0.009963147342205048, -0.01231428049504757, -0.008579510264098644, -0.0029174331575632095, 0.0034140136558562517, -0.00935044139623642, 0.004282707814127207, 0.009106730110943317, 0.0032720104791224003, -0.009766120463609695, 0.008762278594076633, -0.007383828517049551, 0.005632844753563404, -0.00889776274561882, 0.01162545382976532, 0.006748258136212826, -0.009559954516589642, -0.003591635962948203, 0.0019182031974196434, -0.008497149683535099, 0.011554100550711155, -0.008012564852833748, 0.0060643102042376995, 0.009122566320002079, 0.01005360297858715, -0.01002861000597477, 0.009895815514028072, 0.012129697948694229, 0.009139521978795528, 0.01017975714057684, 0.0030402005650103092, 0.0089382603764534, 0.0030929858330637217, -0.008358283899724483, -0.008583953604102135, -0.003614597488194704, 0.00972113199532032, -0.007183434907346964, 0.009767120704054832, -0.0032204613089561462, 0.008676924742758274, -0.006112015340477228, 0.006129681598395109, 0.00310833309777081, 0.01196791511029005, -0.0032276110723614693, -0.008589022792875767, -0.0023398546036332846, 0.00956394337117672, 0.011559825390577316, 0.00962804351001978, 0.007381905801594257, 0.006569681689143181, 0.004288851283490658, 0.00588136725127697, -0.006061446852982044, 0.008349234238266945, -0.010507787577807903, -0.004265619907528162, -0.005920471623539925, 0.00571114756166935, -0.014868061058223248, 0.01071840524673462, 0.0035364169161766768, -0.008814916014671326, -0.012004583142697811, 0.013236938044428825, 0.011104630306363106, 0.013151074759662151, 0.009755346924066544, 0.008941107429564, 0.009567845612764359, 0.00805694330483675, 0.005704857409000397, -0.010478800162672997, -0.012055927887558937, 0.00292461970821023, -0.0060393791645765305, 0.003411379177123308, 0.002539518056437373, 0.003077919827774167, -0.004866333678364754, 0.009402770549058914, -0.005478881299495697, 0.012928370386362076, -0.003176410449668765, 0.007754616439342499, 0.002799364272505045, 0.0028477406594902277, 0.003193669719621539, -0.0033395481295883656, -0.010461855679750443, 0.0049005672335624695, 0.003143771318718791, 0.010683306492865086, -0.0034287143498659134], [0.01512974314391613, -0.011845621280372143, 0.011750679463148117, -0.01414700411260128, 0.009446796961128712, -0.015666816383600235, -0.012206312268972397, -0.011844000779092312, -0.012915404513478279, -0.0038412197027355433, -0.010784863494336605, -0.012933257967233658, 0.012665975838899612, 0.014168177731335163, 0.011867212131619453, 0.011052538640797138, -0.0035730444360524416, -0.01057166326791048, -0.0035141026601195335, -0.014021153561770916, 0.01274839323014021, 0.011517584323883057, 0.0041055320762097836, -0.0038475256878882647, 0.004333423916250467, -0.011406614445149899, 0.010031672194600105, 0.011022880673408508, 0.013859824277460575, -0.015263410285115242, 0.015644187107682228, -0.013733603060245514, 0.013583539053797722, -0.014608226716518402, -0.01471072155982256, -0.014614222571253777, 0.014942018315196037, -0.003768504597246647, 0.01455590408295393, 0.010536284185945988, 0.013932181522250175, -0.016630686819553375, 0.010095621459186077, -0.003989147953689098, 0.016746722161769867, -0.004151747561991215, 0.011125213466584682, 0.016397668048739433, -0.011148455552756786, -0.01369436178356409, 0.005919409915804863, -0.010596968233585358, 0.014121432788670063, -0.008757038041949272, 0.010635489597916603, 0.01142619177699089, 0.012683198787271976, -0.015813328325748444, 0.004040427505970001, 0.009903119876980782, 0.014901050366461277, 0.012561607174575329, 0.003807343076914549, 0.011131844483315945, 0.0039070104248821735, -0.014811147004365921, -0.014096101745963097, -0.015254989266395569, 0.015335215255618095, -0.012149430811405182, 0.012957924045622349, -0.010913117788732052, 0.012072980403900146, -0.009187409654259682, 0.01115727424621582, 0.01297809462994337, 0.014476089738309383, -0.003660286543890834, -0.012267977930605412, -0.004234015941619873, 0.016376949846744537, 0.013529025949537754, 0.015047085471451283, 0.009692217223346233, 0.014278680086135864, 0.00531285535544157, 0.004219207912683487, -0.008993931114673615, 0.008265764452517033, -0.013861005194485188, -0.00419899495318532, -0.011197824031114578, 0.016845431178808212, -0.01348836813122034, 0.01301578339189291, 0.013422103598713875, -0.012916309759020805, -0.012873126193881035, 0.013440250419080257, 0.012970284558832645, 0.006249401718378067, 0.005015412345528603, 0.010470537468791008, 0.008676000870764256, 0.01163463480770588, 0.00996934249997139, -0.014026106335222721, -0.013117972761392593, 0.013124325312674046, -0.012807349674403667, 0.005743755493313074, 0.004422683268785477, 0.01183990202844143, -0.004299821797758341, 0.012245063669979572, -0.01113835722208023, 0.011680793017148972, -0.013369301334023476, 0.016232522204518318, 0.010136228986084461, 0.015132317319512367, 0.0054704574868083, -0.012856424786150455, -0.011647280305624008, 0.013883335515856743, 0.011759287677705288, 0.013769792392849922, -0.0044408319517970085], [0.005897455848753452, -0.00805184431374073, 0.0035109741147607565, -0.00168976082932204, 0.01353934220969677, -0.006487227976322174, -0.0019672492053359747, -0.0024939593859016895, -0.007791086100041866, -0.011662415228784084, -0.006201713811606169, -0.0046732546761631966, 0.0018304765690118074, 0.001983227441087365, 0.006210338324308395, 0.003907865844666958, -0.0005753291770815849, -0.00894344411790371, -0.0023801466450095177, -0.0025607114657759666, 0.0028017708100378513, 0.006332364398986101, 0.0032110048923641443, -0.004110360983759165, 0.010196738876402378, -0.009339765645563602, 0.007249763701111078, 0.0035538184456527233, 0.006693853996694088, -0.006953119765967131, 0.003496157703921199, -0.0033293762244284153, 0.0012865099124610424, -0.0005660969181917608, -0.003759645391255617, -0.012905885465443134, 0.0032585598528385162, -0.0008907092269510031, 0.010431542061269283, 0.007646079640835524, 0.0021516159176826477, -0.011265355162322521, 0.00387375196442008, -0.007961764000356197, 0.003910797648131847, -0.001850210945121944, 0.00021241529611870646, 0.00861922837793827, -0.0030819864477962255, -0.007210493087768555, 0.01025640033185482, -0.004604141693562269, 0.006718822754919529, -0.006494118366390467, 0.0028610373847186565, 0.0030128215439617634, 0.0028086372185498476, -0.007824265398085117, 0.0004652414354495704, 0.010424713604152203, 0.0023966715671122074, 0.0005759576451964676, 0.008354068733751774, 0.008619416505098343, 0.0033106200862675905, -0.0028531914576888084, -0.006142841652035713, -0.006357850972563028, 0.010586725547909737, -0.00896359421312809, 0.004967699758708477, -0.0048348670825362206, 0.0026328556705266237, -0.008975844830274582, 0.002475948305800557, 0.0027022608555853367, 0.0003177621983923018, -0.010700607672333717, -0.0026200772263109684, -0.009265187196433544, 0.0036587861832231283, 0.0013052819995209575, 0.0029321075417101383, 0.0012948829680681229, 0.003029020968824625, 0.003314023604616523, 0.009302633814513683, -0.007321246899664402, 0.003982673864811659, -0.002751667285338044, -0.010427886620163918, -0.01068209670484066, 0.00663836020976305, -0.0007729880162514746, 0.00783782172948122, 0.0013172590406611562, -0.011216564103960991, -0.0013146509882062674, 0.006644899956882, 0.009508319199085236, 0.007659798953682184, 0.00047933627502061427, 0.00014279340393841267, 0.0015758998924866319, 0.003302623052150011, 0.003643065458163619, -0.006924007553607225, -0.002368762157857418, 0.005592158064246178, -0.0014176502590999007, 0.0019480882911011577, 0.00608872389420867, 0.007239073049277067, -0.0010385571513324976, 0.006005751434713602, -0.003636165987700224, 0.006904491223394871, -0.012200466357171535, 0.0004505366086959839, 0.006076235789805651, 0.007903858087956905, 0.002130699111148715, -0.0028624506667256355, -0.0013551634037867188, 0.0015933278482407331, 0.008083172142505646, 0.0023874586913734674, -0.0016310079954564571], [-0.0031142928637564182, 0.0020325419027358294, -0.010060815140604973, 0.016894420608878136, -0.00977875106036663, 0.0037648293655365705, 0.009778226725757122, 0.005315654445439577, 0.015652550384402275, 0.016119567677378654, 0.003032626351341605, 0.005144541151821613, -0.002890930511057377, -0.007416803389787674, -0.016421696171164513, -0.011530396528542042, 0.014702508226037025, 0.008392729796469212, 0.008719822391867638, 0.0032710551749914885, -0.014746013097465038, -0.016257481649518013, -0.005014305002987385, 0.00918432418256998, -0.0048222471959888935, 0.01321895606815815, -0.015484362840652466, -0.0034148406703025103, -0.003254665993154049, 0.0026142613496631384, -0.009925221092998981, 0.0035791757982224226, -0.013040808960795403, 0.0016569173894822598, 0.002339687431231141, 0.016032787039875984, -0.0019693835638463497, 0.015838220715522766, -0.01566476561129093, -0.00089261430548504, -0.0016061848727986217, 0.005767389200627804, -0.019333243370056152, 0.014166800305247307, -0.01635332591831684, 0.004544437397271395, -0.0038161531556397676, -0.0007392606348730624, 0.003905131248757243, 0.005434705410152674, -0.0016042733332142234, 0.0027153324335813522, -0.0021091513335704803, 0.001894367509521544, -0.0031122833024710417, -0.0105945048853755, -0.014211948029696941, 0.0029331864789128304, -0.0040195840410888195, -0.009494221769273281, -0.003004987956956029, -0.0053635891526937485, -0.004027131944894791, -0.014497474767267704, -0.0037164902314543724, 0.003156182821840048, 0.001784018473699689, 0.005388620309531689, -0.003142557106912136, 0.003169715404510498, -0.01613936573266983, 0.01317833922803402, -0.0029519894160330296, 0.0021536906715482473, -0.001403443398885429, -0.00573756406083703, -0.009600992314517498, 0.012229640036821365, 0.013352816924452782, 0.017176050692796707, -0.016543691977858543, -0.012536972761154175, -0.001138551626354456, -0.007192694582045078, -0.0034382427111268044, -0.010115782730281353, -0.01008139830082655, 0.004989131819456816, -0.003009356325492263, 0.002330133691430092, 0.0037127239629626274, 0.003918697126209736, -0.003824062179774046, 0.0023382939398288727, -0.002071607857942581, -0.015838440507650375, 0.003884147386997938, 0.0014902445254847407, -0.007773456163704395, -0.007457104977220297, -0.0012421001447364688, -0.011911659501492977, -0.014917738735675812, -0.0010758949210867286, -0.0032811963465064764, -0.0019395967246964574, 0.014481569640338421, 0.012473786249756813, -0.012149358168244362, 0.002912585623562336, -0.002664560219272971, -0.017471110448241234, -0.0066315229050815105, 0.010078661143779755, -0.013234362006187439, 0.010438110679388046, -0.004400213249027729, 0.00010503268276806921, -0.0071597471833229065, -0.0038754160050302744, -0.0030738171190023422, -0.01549471728503704, 0.013884195126593113, 0.002828839933499694, -0.0030467198230326176, -0.0048165773041546345, -0.006202699150890112, 0.015298262238502502], [0.002304720925167203, -0.0024038448464125395, 0.0075702667236328125, -0.00669044628739357, 0.003878925694152713, -0.00900325272232294, -0.008228926919400692, -0.007970576174557209, -0.001437265775166452, -0.010514817200601101, -0.0008509940817020833, -0.0011607013875618577, 0.013899547979235649, 0.007168155163526535, 0.014167629182338715, 0.004812102299183607, -0.00327077298425138, -0.0026606647297739983, -0.0030005190055817366, -0.006592934485524893, 0.00197599153034389, 0.005835410673171282, 0.0015193268191069365, -0.009523841552436352, 0.007953825406730175, -0.0023842311929911375, 0.006956738885492086, 0.002850509015843272, 0.003198170568794012, -0.00797700323164463, 0.007961628958582878, -0.006426941137760878, 0.0043853940442204475, -0.0032991860061883926, -0.004927240312099457, -0.0057788449339568615, 0.004512465093284845, -0.006529464852064848, 0.00830728281289339, 0.00222571799531579, 0.00897892378270626, -0.002634738339111209, 0.003064254065975547, -0.008830026723444462, 0.00538255088031292, -0.003322144038975239, 0.0024481189902871847, 0.007190583739429712, -0.005108178127557039, -0.0028702947311103344, 0.0040744091384112835, -0.00766151025891304, 0.0017878345679491758, -0.0008537916000932455, 0.010987911373376846, 0.01077081449329853, 0.012495916336774826, -0.0016749114729464054, 0.009494774043560028, 0.01007444504648447, 0.00704784132540226, 0.004187629558146, 0.002100161975249648, 0.0007458822219632566, 0.005490949843078852, -0.0014906853903084993, -0.009374398738145828, -0.00840653758496046, 0.01290270034223795, -0.011289728805422783, 0.010122325271368027, -0.0017736280569806695, 0.002338576829060912, -0.0041555133648216724, 0.004619532730430365, 0.004699056502431631, 0.009744042530655861, -0.006112872622907162, -0.005914958193898201, -0.005408361554145813, 0.005126194562762976, 0.0036899191327393055, 0.0019767829217016697, 0.014581645838916302, 0.0030107004567980766, 0.008041365072131157, 0.00425879517570138, -0.009753472171723843, 0.002290892880409956, -0.006389842368662357, -0.009000930935144424, -0.010645695962011814, 0.00479209516197443, -0.007787915412336588, 0.008145412430167198, 0.0063696508295834064, -0.0028574680909514427, -0.002939352998510003, 0.009744103997945786, 0.0037888686638325453, 0.007308936212211847, 0.003149427706375718, 0.003263861173763871, 0.006512428168207407, 0.006522078067064285, 0.005582395941019058, -0.00291861267760396, -0.0021642057690769434, 0.0007868129177950323, -0.011993566527962685, 0.005209385883063078, 0.009333659894764423, 0.0035688700154423714, -0.0037023297045379877, 0.0041316840797662735, -0.004994604736566544, 0.007165556773543358, -0.0005243465420790017, 0.008764487691223621, 0.011430216021835804, 0.004641887731850147, 0.01493105385452509, -0.00739930709823966, -0.008603353053331375, 0.001397377229295671, 0.00409623421728611, 0.004563154187053442, -0.0005294199800118804], [-0.0007937613991089165, 0.0031679137609899044, -0.004150161519646645, 0.0033772941678762436, -0.003418129403144121, 0.0031531292479485273, 0.005850853398442268, 0.002456225221976638, 0.0026807745452970266, 0.00343357608653605, 0.00909422431141138, 0.0034787205513566732, -0.0029896546620875597, -0.005918014328926802, -0.003539414843544364, -0.0026023187674582005, 0.0028034523129463196, 0.0025000839959830046, 0.0023286615032702684, 0.005405826959758997, -0.002832462079823017, -0.0032875428441911936, -0.0033247703686356544, 0.0017939115641638637, -0.0035874941386282444, 0.003161830361932516, -0.003484028158709407, -0.0006303070695139468, -0.0049300892278552055, 0.0020369715057313442, -0.003879028605297208, 0.004175852984189987, -0.0019593751057982445, 0.0012184740044176579, 0.005990209523588419, 0.0013743890449404716, -0.0032718132715672255, 0.0009445297182537615, -0.0033005939330905676, -0.008945613168179989, -0.0030136851128190756, 0.0034528423566371202, -0.004631662275642157, 0.0029885489493608475, -0.0031754313968122005, 0.0026952377520501614, -0.0012767947046086192, -0.0027121342718601227, 0.002641530940309167, 0.002656677970662713, -0.0017951609333977103, 0.0037010617088526487, -0.0080098956823349, 0.006039973348379135, -0.002313819481059909, -0.009394367225468159, -0.0031054853461682796, 0.008233665488660336, -0.0012937778374180198, -0.008569096215069294, -0.0029404873494058847, -0.0036978048738092184, -0.00294366548769176, -0.0016882694326341152, -0.0024412344209849834, 0.003157887142151594, 0.00014273280976340175, 0.0031219415832310915, -0.0032944907434284687, 0.002932431409135461, -0.0012744386913254857, 0.0030694850720465183, -0.0023722914047539234, 0.009354516863822937, -0.0024781522806733847, -0.002075347350910306, -0.0027006224263459444, 0.005195328034460545, 0.001186840352602303, 0.0027271988801658154, -0.0032816356979310513, -0.007733925711363554, -0.0008010629680939019, -0.0012862564763054252, -0.0006222150404937565, -0.0037103130016475916, -0.0028709410689771175, 0.0072729322127997875, -0.007150507532060146, 0.0026170648634433746, 0.002582140499725938, 0.0006278879009187222, -0.0029632223304361105, 0.0025673811323940754, -0.0023612359073013067, -0.0012671820586547256, 0.0030945041216909885, 0.005690122023224831, -0.0015627136453986168, -0.008068178780376911, -0.008606867864727974, -0.006233834661543369, -0.0020016958005726337, -0.002833698643371463, -0.003116213483735919, -0.0034930305555462837, 0.002626271452754736, 0.006241735070943832, -0.002618955448269844, 0.0034722648561000824, -0.0030675658490508795, -0.0034383691381663084, -0.0036592839751392603, 0.0030765575356781483, -0.0005295570590533316, 0.003180052852258086, -0.010138074867427349, 0.0009370970074087381, -0.0031932592391967773, -0.003083182265982032, -0.00038645739550702274, -0.004238286521285772, 0.0029063851106911898, 0.003212360432371497, -0.0028304792940616608, -0.0020210284274071455, -0.0056490665301680565, 0.0014935797080397606], [0.004157085902988911, -0.019837597385048866, 0.018043551594018936, -0.024001112207770348, 0.02173447608947754, -0.02324184589087963, -0.023499956354498863, -0.01749882847070694, -0.020646067336201668, -0.007899227552115917, -0.006997914053499699, -0.011920759454369545, 0.019671419635415077, 0.01853914186358452, 0.023887142539024353, 0.005082101561129093, -0.028209256008267403, -0.020497474819421768, -0.022454362362623215, -0.003556763054803014, 0.020772771909832954, 0.021754881367087364, 0.013225837610661983, -0.004190991632640362, 0.005348564591258764, -0.018564419820904732, 0.027147850021719933, 0.014875010587275028, 0.021998843178153038, -0.023071175441145897, 0.01878371834754944, -0.021069306880235672, 0.021518202498555183, -0.01480097696185112, -0.01605023443698883, -0.02135426737368107, 0.008466067723929882, -0.017221389338374138, 0.0216267891228199, 0.00901015568524599, 0.017041318118572235, -0.02214931696653366, 0.015632832422852516, -0.024726709350943565, 0.024506397545337677, -0.018566658720374107, 0.021731272339820862, 0.015433542430400848, -0.021039782091975212, -0.00558787165209651, 0.023943763226270676, -0.006723483558744192, 0.020674211904406548, -0.010513666085898876, 0.014935238286852837, 0.015473713167011738, 0.02240067906677723, -0.0036174103152006865, 0.004585422109812498, 0.012029046192765236, 0.024644330143928528, 0.01983068324625492, 0.018464867025613785, 0.023065797984600067, 0.022757945582270622, -0.006407435052096844, -0.020041635259985924, -0.02471763826906681, 0.004594443831592798, -0.02091105841100216, 0.004336908925324678, -0.0200809296220541, 0.016967907547950745, -0.010912938974797726, 0.006883956957608461, 0.018928131088614464, 0.0207360852509737, -0.021989857777953148, -0.0045189871452748775, -0.024006908759474754, 0.009427929297089577, 0.020600363612174988, 0.019384212791919708, 0.005131955724209547, 0.015512724407017231, 0.02080831304192543, 0.006887886207550764, -0.013056046329438686, 0.008812632411718369, -0.0177152082324028, -0.01184239611029625, -0.020878169685602188, 0.022455483675003052, -0.022613782435655594, 0.003983482718467712, 0.020242756232619286, -0.021777350455522537, -0.004044945351779461, 0.02588200755417347, 0.0038427396211773157, 0.01585526019334793, 0.015989243984222412, 0.0052497717551887035, 0.027896931394934654, 0.01985255815088749, 0.018250225111842155, -0.00638830941170454, -0.018535712733864784, 0.01768535003066063, -0.009535150602459908, 0.004212740808725357, 0.019812073558568954, 0.01423650048673153, -0.022067202255129814, 0.018543578684329987, -0.014886169694364071, 0.018130814656615257, -0.022942639887332916, 0.02961617521941662, 0.021032894030213356, 0.022853706032037735, 0.0052054161205887794, -0.020048022270202637, -0.020428210496902466, 0.019572988152503967, 0.02370583452284336, 0.019308321177959442, -0.020724747329950333], [0.011747983284294605, -0.015141094103455544, 0.009462977759540081, -0.003979441709816456, 0.002363531617447734, -0.008516338653862476, -0.013644709251821041, -0.013374149799346924, -0.010325239039957523, -0.007451632991433144, -0.01091804914176464, -0.003568134270608425, 0.01131308265030384, 0.01449667289853096, 0.005535950884222984, 0.010636730119585991, -0.013429846614599228, -0.01052140537649393, -0.01020458247512579, -0.012153347954154015, 0.008449633605778217, 0.0033244118094444275, 0.008747433312237263, -0.003429645672440529, 0.005049163941293955, -0.011840488761663437, 0.0032308956142514944, 0.0032583875581622124, 0.013318824581801891, -0.003600507276132703, 0.011991092935204506, -0.003569979453459382, 0.007098296657204628, -0.008132711052894592, -0.00426709558814764, -0.003369988640770316, 0.0076144542545080185, -0.0038489748258143663, 0.004554391372948885, 0.0072222682647407055, 0.009117950685322285, -0.0051424382254481316, 0.010867781937122345, -0.01296950038522482, 0.012117431499063969, -0.012526672333478928, 0.012867425568401814, 0.007977191358804703, -0.003284257370978594, -0.010370218195021152, 0.00721344817429781, -0.010731534101068974, 0.003325123805552721, -0.009763018228113651, 0.00374435493722558, 0.003660504939034581, 0.009467463940382004, -0.012946638278663158, 0.0037907245568931103, 0.0034297259990125895, 0.01072087325155735, 0.009454897604882717, 0.007855375297367573, 0.0033418121747672558, 0.00352094997651875, -0.012772269546985626, -0.010715482756495476, -0.011213135905563831, 0.003839257173240185, -0.01057689730077982, 0.009316105395555496, -0.003924194723367691, 0.010288286954164505, -0.009444628842175007, 0.0035014147870242596, 0.008794937282800674, 0.0035735408309847116, -0.012615992687642574, -0.008871916681528091, -0.005464667454361916, 0.004610054660588503, 0.01125685591250658, 0.009630374610424042, 0.00427501555532217, 0.011016622185707092, 0.012544972822070122, 0.0036587172653526068, -0.002017378341406584, 0.009470582939684391, -0.011240980587899685, -0.012555656023323536, -0.011711861938238144, 0.005565500818192959, -0.013324358500540257, 0.012108220718801022, 0.011288940906524658, -0.0036056393291801214, -0.012474124319851398, 0.011778676882386208, 0.011861535720527172, 0.009314603172242641, 0.011231799609959126, 0.011406983248889446, 0.012899081222712994, 0.012449420988559723, 0.0044401283375918865, -0.011022841557860374, -0.003086293349042535, 0.011430596932768822, -0.012132100760936737, 0.011900731362402439, 0.004020111635327339, 0.0030975171830505133, -0.007967712357640266, 0.012819238007068634, -0.004688830114901066, 0.009793910197913647, -0.007843541912734509, 0.011895474046468735, 0.00331740640103817, 0.004568752367049456, 0.003973974380642176, -0.009025967679917812, -0.011331060901284218, 0.014485145919024944, 0.003464258974418044, 0.004802001174539328, -0.008971301838755608], [-0.0018563782796263695, 0.00277983071282506, -0.011090004816651344, 0.0077119432389736176, -0.0037708249874413013, 0.0016997552011162043, 0.00625772075727582, 0.0019495106535032392, 0.0024582231417298317, 0.0030219070613384247, 0.007622905075550079, 0.0065154824405908585, -0.00788656622171402, -0.0029741732869297266, -0.004963436163961887, -0.005670625250786543, 0.001620092079974711, 0.005199884530156851, 0.0026649704668670893, 0.003098428715020418, -0.0023870677687227726, -0.008971602655947208, -0.0030577550642192364, 0.0007737109554000199, -0.0018757476937025785, 0.011014029383659363, -0.009380212984979153, -0.00302353547886014, -0.0032255372498184443, 0.003853122005239129, -0.004276713822036982, 0.002737143076956272, -0.008638761006295681, 0.002461978467181325, 0.009090549312531948, 0.0037197088822722435, -0.009198339655995369, 0.0016652002232149243, -0.0012168214889243245, -0.00896522868424654, -0.0027471748180687428, 0.0016218948876485229, -0.0045087505131959915, 0.0018108915537595749, -0.0027721880469471216, 0.000734710309188813, -0.006571149453520775, -0.0016278516268357635, 0.0011660287855193019, 0.0029474347829818726, -0.0028823581524193287, 0.0022049774415791035, -0.002979997545480728, 0.011497254483401775, -0.003771283430978656, -0.004190925508737564, -0.009264989756047726, 0.002890938427299261, -0.004828068893402815, -0.012368710711598396, -0.00678506912663579, -0.002671681810170412, -0.0038093195762485266, -0.0026346996892243624, -0.0029403360094875097, 0.008915914222598076, 0.001740876934491098, 0.002434065565466881, -0.002951917704194784, 0.0032320294994860888, -0.0030042543075978756, 0.0017184506868943572, -0.0020873742178082466, 0.009828119538724422, -0.006312984973192215, -0.0031829657964408398, -0.00382047425955534, 0.003066340461373329, 0.008921966888010502, 0.003437560284510255, -0.004321076907217503, -0.0034294414799660444, -0.004455869551748037, -0.00462748808786273, -0.0030925977043807507, -0.010750760324299335, -0.005185528192669153, 0.002425495767965913, -0.009909329935908318, 0.0032843800727277994, 0.009696226567029953, 0.005827843211591244, -0.0036169716622680426, 0.0025138473138213158, -0.0027850691694766283, -0.003625183831900358, 0.007414516061544418, 0.002846557879820466, -0.0018141367472708225, -0.010589937679469585, -0.0027488507330417633, -0.007824339903891087, -0.0008311819983646274, -0.0027657034806907177, -0.00753659987822175, -0.0029867603443562984, 0.002746900310739875, 0.0026674300897866488, -0.003544336184859276, 0.0027711146976798773, -0.007161262445151806, -0.003676576307043433, -0.009033138863742352, 0.00396985188126564, -0.002799976384267211, 0.012949961237609386, -0.008030668832361698, 0.0024170551914721727, -0.0018728793365880847, -0.0030391665641218424, -0.0018537217983976007, -0.004576764535158873, 0.006778130307793617, 0.0006627319380640984, -0.00796094536781311, -0.005302855744957924, -0.0038215790409594774, 0.009637078270316124], [-0.008960786275565624, 0.009805281646549702, -0.011531672440469265, 0.003374034073203802, -0.0060417912900447845, 0.009569833986461163, 0.009418584406375885, 0.012795415706932545, 0.009399446658790112, 0.0033764501567929983, 0.00603135209530592, 0.009582942351698875, -0.006043517030775547, -0.01305363979190588, -0.006267668213695288, -0.010039642453193665, 0.00828184001147747, 0.006715165916830301, 0.012079893611371517, 0.012583745643496513, -0.011126819998025894, -0.007951383478939533, -0.008870341815054417, 0.010419168509542942, -0.003045898862183094, 0.007676733657717705, -0.0038559287786483765, -0.008900138549506664, -0.003415593644604087, 0.007021715398877859, -0.009030867367982864, 0.009349479340016842, -0.009011751972138882, 0.007526404689997435, 0.009968914091587067, 0.00827481597661972, -0.00601885374635458, 0.012895808555185795, -0.009212467819452286, -0.009773842059075832, -0.009667137637734413, 0.012824121862649918, -0.01130110677331686, 0.011016598902642727, -0.010785029269754887, 0.00603443244472146, -0.008214076980948448, -0.003322974778711796, 0.0034914130810648203, 0.012742876075208187, -0.008935615420341492, 0.007726761046797037, -0.011475916020572186, 0.008475043810904026, -0.010232827626168728, -0.009610799141228199, -0.011836616322398186, 0.010445822961628437, -0.012111417017877102, -0.009752519428730011, -0.011164970695972443, -0.007863214239478111, -0.008829749189317226, -0.005110971163958311, -0.0049925437197089195, 0.0037235934287309647, 0.008014065213501453, 0.00374307157471776, -0.007575019262731075, 0.005994352512061596, -0.00809532217681408, 0.009521455504000187, -0.0035673342645168304, 0.008314636535942554, -0.008604832924902439, -0.004023448098450899, -0.009954131208360195, 0.009853853844106197, 0.00879187136888504, 0.004591229371726513, -0.006213882006704807, -0.013515089638531208, -0.0077254800125956535, -0.004057737533003092, -0.004937670659273863, -0.012082844972610474, -0.003415921237319708, 0.009066782891750336, -0.006783204153180122, 0.0032251903321594, 0.00803268514573574, 0.00903246644884348, -0.013118435628712177, 0.0090409517288208, -0.01061538327485323, -0.012715847231447697, 0.010387884452939034, 0.011175095103681087, -0.011179527267813683, -0.003065523225814104, -0.009774300269782543, -0.009076050482690334, -0.008917924016714096, -0.012430910021066666, -0.010933125391602516, -0.007273141294717789, 0.007945144549012184, 0.01064351573586464, -0.009033807553350925, 0.00844638142734766, -0.003632839536294341, -0.007968112826347351, -0.010653408244252205, 0.006342816632241011, -0.01088471058756113, 0.006372072733938694, -0.0034157494083046913, 0.010985435917973518, -0.01278296485543251, -0.003867529798299074, -0.011302334256470203, -0.008831238374114037, 0.011452361941337585, 0.007001376710832119, -0.011888432316482067, -0.009049839340150356, -0.010861576534807682, 0.00972726009786129], [0.002835451625287533, -0.007622758392244577, 0.002294661710038781, -0.0028583647217601538, 0.0023057886864989996, -0.003114561317488551, -0.004668280016630888, -0.001598043949343264, -0.0023744585923850536, -0.001338762347586453, -0.010058416984975338, -0.002970774658024311, 0.0006259820656850934, 0.00261487509123981, 0.0012277738424018025, 0.0035683002788573503, -0.0027991454117000103, -0.001549405395053327, -0.00166759779676795, -0.0036652011331170797, 0.0028808030765503645, 0.001715649152174592, 0.0061409855261445045, -0.0029985334258526564, 0.0032974460627883673, -0.005114893428981304, 0.009320042096078396, 0.000640563084743917, 0.0004482113872654736, -0.0030672347638756037, 0.0014892506878823042, -0.0017982407007366419, 0.0018525944324210286, -0.002542630536481738, -0.005053667817264795, -0.0011151343351230025, 0.000352557486621663, -0.0020055025815963745, 0.002496745903044939, 0.00895276851952076, 0.0020625698380172253, -0.003266269341111183, 0.005915766581892967, -0.002883672481402755, 0.0019746292382478714, -0.0022898532915860415, 0.0004973160685040057, 0.00295349326916039, -0.0026918903458863497, -0.0019564866088330746, 0.0006149008986540139, -0.0016186045249924064, 0.0073494683019816875, -0.01110998447984457, 0.0030678275506943464, 0.0027836149092763662, 0.0014152791118249297, -0.0038048517890274525, 0.0030671190470457077, 0.00865687895566225, 0.00015264732064679265, 0.0005907953600399196, 0.0013238638639450073, 0.0028967703692615032, 0.0030823976267129183, -0.002818147651851177, -0.0026508276350796223, -0.0015763979172334075, 0.0032949927262961864, -0.0015718562062829733, 0.002719487063586712, -0.0017012485768646002, 0.0044592902995646, -0.0071348994970321655, 0.0033425474539399147, 0.0036265088710933924, 0.0018200790509581566, -0.0023827378172427416, -0.003077005734667182, -0.0016138594364747405, 0.002784938085824251, 0.0019668482709676027, 0.00239095208235085, 0.0035983186680823565, 0.0030537256971001625, 0.0022778811398893595, 0.0029737947043031454, -0.007247657515108585, 0.00883676577359438, -0.00200362759642303, -0.001647011493332684, -0.0008019914384931326, 0.0033971983939409256, -0.0026456653140485287, 0.002130921697244048, 0.0011179805733263493, -0.0019978557247668505, -0.004327537026256323, 0.00027874414809048176, 0.008914128877222538, 0.006773342378437519, 0.003758625593036413, 0.0012425475288182497, 0.002814278472214937, 0.0011292262934148312, 0.003616910893470049, -0.0035342134069651365, -0.0020560487173497677, 0.006782913580536842, -0.002966952044516802, 0.002991586225107312, 0.003539599012583494, 0.007456783205270767, -0.003276704577729106, 0.0029228224884718657, -0.0014317395398393273, 0.005835642106831074, -0.00015899633581284434, 0.0014815565664321184, 1.4541285963787232e-05, 0.0023658836726099253, 0.0033740843646228313, -0.0008118490222841501, -0.002641825471073389, 0.006437372416257858, 0.002466365462169051, 0.0014112162170931697, -0.0032768717501312494], [-0.0003774684446398169, 0.002967255190014839, -0.0014447086723521352, 0.0033638698514550924, -0.0003029872023034841, 0.0028259269893169403, 0.0021563090849667788, 0.0025844424962997437, 0.004234940279275179, 0.0035123105626553297, 0.006047145929187536, 0.002830448793247342, -0.002786355558782816, -0.0024634860455989838, -0.001675838022492826, -0.0016326267505064607, 0.006109046284109354, 0.0021195970475673676, 0.002518828958272934, 0.004307021386921406, -0.006263196002691984, -0.008134671486914158, -0.002482469193637371, 0.0023248279467225075, -0.0006912386743351817, 0.004372569732367992, -0.0022175360936671495, -0.0007786470232531428, -0.002732236869633198, 0.010691696777939796, -0.0015305839478969574, 0.0009312793845310807, -0.002837447915226221, 0.0026016482152044773, 0.0017526308074593544, 0.003031435189768672, -0.002342132618650794, 0.00030515529215335846, -0.002422433579340577, -0.008751966059207916, -0.003730886848643422, 0.010909460484981537, -0.0009387077298015356, 0.0018436446553096175, -0.0030300153885036707, 0.0023490446619689465, -0.0023500986862927675, -0.008857998065650463, 0.006730828434228897, 0.003282228484749794, -0.011481480672955513, 0.00902690552175045, -0.0024288950953632593, 0.004410859663039446, -0.010461480356752872, -0.009314844384789467, -0.0028365387115627527, 0.0008826693519949913, -0.00039739199564792216, -0.010349594987928867, -0.0013145531993359327, -0.002596756676211953, -0.00721523305401206, -0.00285998173058033, -0.002537400694563985, 0.0022394685074687004, 0.002614115597680211, 0.0030631953850388527, -0.0055396948009729385, 0.010765383951365948, -0.0029910667799413204, 0.008507451973855495, -0.0021197448950260878, 0.008639094419777393, -0.010281729511916637, -0.005999038461595774, -0.0019917336758226156, 0.002158094197511673, 0.0013982723467051983, 0.001533792237751186, -0.011638184078037739, -0.0025646304711699486, -0.009610561653971672, -0.0017134628724306822, -0.006336623802781105, -0.0034985323436558247, -0.001667857519350946, 0.007996689528226852, -0.0070737311616539955, 0.0020383824594318867, 0.0026315555442124605, 0.0018702932866290212, -0.001223953440785408, 0.004263343755155802, -0.0024625184014439583, -0.0012984356144443154, 0.010612345300614834, 0.001316612120717764, -0.002942460821941495, -0.0037509030662477016, -0.002593556186184287, -0.0017632002709433436, -0.0028227048460394144, -0.007424923125654459, -0.0025755921378731728, -0.003436968196183443, 0.0012318457011133432, 0.0022251491900533438, -0.0025911247357726097, 0.010854499414563179, -0.01111550908535719, -0.007908902131021023, -0.009343723766505718, 0.0023731340188533068, -0.0014166943728923798, 0.0036300395149737597, -0.0031327640172094107, 0.0012461015721783042, -0.0004890415584668517, -0.002396135125309229, -0.007728169672191143, -0.010897601023316383, 0.0029267030768096447, 0.003984549548476934, -0.004423414822667837, -0.00846729427576065, -0.002699902281165123, 0.003009379841387272], [-0.015410095453262329, 0.014592241495847702, -0.012478511780500412, 0.0037997320760041475, -0.009523948654532433, 0.003910623025149107, 0.0163858775049448, 0.013351401314139366, 0.011019928380846977, 0.005739340092986822, 0.010100706480443478, 0.012286792509257793, -0.009992019273340702, -0.012659899890422821, -0.011178591288626194, -0.004266468342393637, 0.012477359734475613, 0.012787455692887306, 0.015433019027113914, 0.014134032651782036, -0.010976836085319519, -0.004334902390837669, -0.012419281527400017, 0.0128608588129282, -0.003968963399529457, 0.003262715879827738, -0.007128894794732332, -0.0030959248542785645, -0.013486767187714577, 0.011929385364055634, -0.010037923231720924, 0.015299461781978607, -0.01346595399081707, 0.01382859144359827, 0.010466227307915688, 0.009826422668993473, -0.010634339414536953, 0.01223721168935299, -0.01416790671646595, -0.009060326963663101, -0.01127589587122202, 0.015314263291656971, -0.004525742493569851, 0.014468972571194172, -0.013383098877966404, 0.012820519506931305, -0.01309463381767273, -0.011491937562823296, 0.012661219574511051, 0.003751734970137477, -0.010906696319580078, 0.012451370246708393, -0.013598714023828506, 0.009022883139550686, -0.008339335210621357, -0.003054568776860833, -0.012254669331014156, 0.0032466743141412735, -0.011128059588372707, -0.01011910941451788, -0.013173958286643028, -0.0122205326333642, -0.007568929344415665, -0.010733874514698982, -0.015148472972214222, 0.003509394358843565, 0.008700558915734291, 0.0038633488584309816, -0.011687259189784527, 0.008194140158593655, -0.012290974147617817, 0.003604323137551546, -0.0036821195390075445, 0.0035217145923525095, -0.011046618223190308, -0.003975373692810535, -0.012779074721038342, 0.011566371656954288, 0.012689062394201756, 0.0073394193314015865, -0.005240797996520996, -0.01309660729020834, -0.008678626269102097, -0.0056947097182273865, -0.013081529177725315, -0.013154951855540276, -0.009002254344522953, 0.00912344828248024, -0.008399910293519497, 0.012145411223173141, 0.00844829622656107, 0.006206984166055918, -0.01155406329780817, 0.01686624437570572, -0.014034085907042027, -0.0038103375118225813, 0.01242018211632967, 0.014648779295384884, -0.016338365152478218, -0.01019483432173729, -0.014359204098582268, -0.01337574701756239, -0.00944808404892683, -0.01550642866641283, -0.012235281988978386, -0.0040842280723154545, 0.011277939192950726, 0.0034421293530613184, -0.012677731923758984, 0.010948749259114265, -0.014350645244121552, -0.011263769119977951, -0.012287294492125511, 0.01032991986721754, -0.010910470969974995, 0.004558372311294079, -0.015755532309412956, 0.012438314035534859, -0.01808909885585308, -0.01371278241276741, -0.013920051045715809, -0.011187213473021984, 0.009257856756448746, 0.011123095639050007, -0.013624033890664577, -0.010761065408587456, -0.0034758853726089, 0.010182219557464123], [-0.0057522691786289215, 0.004160410724580288, -0.0038994518108665943, 0.0022583799436688423, -0.0017574066296219826, 0.0019025729270651937, 0.008339282125234604, 0.0028059089090675116, 0.0004420698678586632, 0.002707194536924362, 0.004561591427773237, 0.0036598537117242813, -0.004256967920809984, -0.01036529615521431, -0.0035529169254004955, -0.004317466635257006, 0.0025056798476725817, 0.0029583547729998827, 0.008300263434648514, 0.010680756531655788, -0.003115894738584757, -0.0033237352035939693, -0.007912791334092617, 0.00418810173869133, -0.0019230216275900602, 0.00907627958804369, -0.0013571835588663816, -0.0016059288755059242, -0.008818740025162697, 0.005741088651120663, -0.005634751636534929, 0.0031376986298710108, -0.003340852912515402, 0.0050322143360972404, 0.004985894076526165, 0.001071627950295806, -0.0032902290113270283, 0.0038037458434700966, -0.0053431447595357895, -0.007751150988042355, -0.0010271575301885605, 0.003001533215865493, -0.004024372436106205, 0.003053935943171382, -0.0015613145660609007, 0.006672301329672337, -0.0062161339446902275, -0.0021920092403888702, 0.004232852254062891, 0.005732453428208828, -0.0031793455127626657, 0.004854978062212467, -0.00790754146873951, 0.009846027940511703, -0.005161433480679989, -0.009153158403933048, -0.006271962076425552, 0.008742361329495907, -0.006019169930368662, -0.003215953940525651, -0.003958055749535561, -0.003026510588824749, -0.002174011431634426, -0.0036982898600399494, -0.006183105055242777, 0.004105711355805397, 0.0030638228636235, 0.004362029489129782, -0.00254587410017848, 0.0014726452063769102, -0.004879943560808897, 0.0058777183294296265, -0.005874136928468943, 0.003321645315736532, -0.0030273350421339273, -0.0020595344249159098, -0.005809470545500517, 0.003850288223475218, 0.006640463136136532, 0.0022752329241484404, -0.0008202174212783575, -0.007173567544668913, -0.004498959053307772, -0.0024654834996908903, -0.006688399706035852, -0.0037422305904328823, -0.0002848833682946861, 0.00838535651564598, -0.009372088126838207, 0.0022472247947007418, 0.003409783588722348, 0.004586705006659031, -0.00018369447207078338, 0.0036413553170859814, -0.002728702500462532, -0.0030924754682928324, 0.0017308200476691127, 0.010021355003118515, -0.007223994005471468, -0.003034768393263221, -0.011108937673270702, -0.0032450424041599035, -0.002933467971161008, -0.0010088065173476934, -0.0024512684904038906, -0.0029027885757386684, 0.00781261082738638, 0.008367656730115414, -0.006668211426585913, 0.005278748460114002, -0.005821394268423319, -0.003613755339756608, -0.0064592813141644, 0.0003710061137098819, -0.0034867054782807827, 0.0036182834301143885, -0.0029706726782023907, 0.0059629702009260654, -0.0015448672929778695, -0.006726094987243414, -0.002358901547268033, -0.0007289929781109095, 0.004266133066266775, 0.007931550964713097, -0.007243566680699587, -0.0029259321745485067, -0.0033684324007481337, 0.0023625579196959734], [0.010011972859501839, -0.014507847838103771, 0.01621381752192974, -0.002868201117962599, 0.0033595706336200237, -0.011099702678620815, -0.0030254109296947718, -0.019184403121471405, -0.011140126734972, -0.010685691609978676, -0.01097105536609888, -0.017565395683050156, 0.004425929859280586, 0.017566034570336342, 0.010664641857147217, 0.009746069088578224, -0.003095774445682764, -0.014672773890197277, -0.011846870183944702, -0.0030126285273581743, 0.011757124215364456, 0.00329293473623693, 0.019760359078645706, -0.0012105506611987948, 0.002254163846373558, -0.022180307656526566, 0.012769962660968304, 0.004151143133640289, 0.003494235686957836, -0.009934131987392902, 0.005253858398646116, -0.01284204050898552, 0.012206091545522213, -0.0031611488666385412, -0.014072028920054436, -0.008431673049926758, 0.003582537407055497, -0.014356455765664577, 0.008368655107915401, 0.009125909768044949, 0.008900276385247707, -0.003699548775330186, 0.008906424976885319, -0.006868220865726471, 0.006581781432032585, -0.01788981258869171, 0.015507318079471588, 0.004561195615679026, -0.015885764732956886, -0.000996468705125153, 0.004076316487044096, -0.012076507322490215, 0.003262055804952979, -0.010059265419840813, 0.010257864370942116, 0.0033416994847357273, 0.01956433616578579, -0.004216942470520735, 0.01566803827881813, 0.012310918420553207, 0.014532262459397316, 0.015007013455033302, 0.011260381899774075, 0.008770568296313286, 0.01529031153768301, -0.014192297123372555, -0.00908765010535717, -0.004368406254798174, 0.014074171893298626, -0.002875208854675293, 0.012766660191118717, -0.015300450846552849, 0.01804768107831478, -0.008801572024822235, 0.003467429196462035, 0.010908614844083786, 0.018495481461286545, -0.014029696583747864, -0.016761235892772675, -0.012370018288493156, 0.011097426526248455, 0.01492520421743393, 0.0146359046921134, 0.003901847405359149, 0.01569034717977047, 0.003800275269895792, 0.00399761600419879, -0.007675325032323599, 0.010199351236224174, -0.017626797780394554, -0.0036059825215488672, -0.00393577478826046, 0.014355504885315895, -0.0037280195392668247, 0.0008721370249986649, 0.013071052730083466, -0.003565769176930189, -0.0010193571215495467, 0.016785088926553726, 0.013241852633655071, 0.017946433275938034, 0.017932774499058723, 0.019381524994969368, 0.0010577915236353874, 0.016641953960061073, 0.014115083031356335, -0.013995666988193989, -0.01651846617460251, 0.020164577290415764, -0.008729363791644573, 0.009317029267549515, 0.006437789648771286, 0.015623344108462334, -0.003920470364391804, 0.013659077696502209, -0.0015224555972963572, 0.016544215381145477, -0.009905325248837471, 0.00327487476170063, 0.017362210899591446, 0.0028834256809204817, 0.0035629768390208483, -0.014077347703278065, -0.004033299162983894, 0.016192739829421043, 0.009245269000530243, 0.01591627113521099, -0.012109708972275257], [0.010932011529803276, -0.009003134444355965, 0.0037547622341662645, -0.003929808270186186, 0.008149967528879642, -0.011637120507657528, -0.008836433291435242, -0.0099906325340271, -0.004144171252846718, -0.005333377979695797, -0.007379801478236914, -0.0035828237887471914, 0.011771637946367264, 0.0069558098912239075, 0.009390350431203842, 0.00605392549186945, -0.00372472801245749, -0.011088688857853413, -0.009029310196638107, -0.011012950912117958, 0.003653236897662282, 0.004077793564647436, 0.0038604221772402525, -0.008156645111739635, 0.0073190052062273026, -0.011929667554795742, 0.006978851277381182, 0.006734135095030069, 0.008498342707753181, -0.007734301500022411, 0.004996194504201412, -0.009476780891418457, 0.00672360323369503, -0.0036250215489417315, -0.010722300969064236, -0.0034168881829828024, 0.00854240171611309, -0.0035281814634799957, 0.008163383230566978, 0.010209829546511173, 0.003469269024208188, -0.009556630626320839, 0.0062168617732822895, -0.010133529081940651, 0.003562655532732606, -0.003920057322829962, 0.008353741839528084, 0.009549345821142197, -0.007626124657690525, -0.005139938089996576, 0.0031525546219199896, -0.007986942306160927, 0.011335858143866062, -0.008259528316557407, 0.006160769611597061, 0.007718004751950502, 0.00374411977827549, -0.008527996018528938, 0.009233561344444752, 0.003389128716662526, 0.010395536199212074, 0.0034208029974251986, 0.00915275514125824, 0.003698155516758561, 0.003429671050980687, -0.007921827957034111, -0.008278770372271538, -0.0036357208155095577, 0.005532152485102415, -0.0036916460376232862, 0.009085269644856453, -0.007732147816568613, 0.009287748485803604, -0.0061846100725233555, 0.008966535329818726, 0.0064336033537983894, 0.011865578591823578, -0.010496546514332294, -0.00999764259904623, -0.007777341175824404, 0.004244585987180471, 0.003402267349883914, 0.0039746640250086784, 0.007728801108896732, 0.007512910757213831, 0.003727545263245702, 0.008949443697929382, -0.0025299033150076866, 0.008932441473007202, -0.010107612237334251, -0.004085775464773178, -0.008123056963086128, 0.008396423421800137, -0.008930837735533714, 0.01141031552106142, 0.005377787631005049, -0.010382439009845257, -0.008142495527863503, 0.0033784047700464725, 0.0053131915628910065, 0.00899863988161087, 0.011334292590618134, 0.00778160011395812, 0.008663608692586422, 0.0038545308634638786, 0.010357819497585297, -0.011165512725710869, -0.008557599037885666, 0.009030052460730076, -0.008310395292937756, 0.009097501635551453, 0.006316646002233028, 0.0030567713547497988, -0.010916134342551231, 0.01094183698296547, -0.009684787131845951, 0.007722651120275259, -0.00561848608776927, 0.008928711526095867, 0.008081983774900436, 0.008194154128432274, 0.004754604771733284, -0.005907231476157904, -0.00925388652831316, 0.010165907442569733, 0.0036711159627884626, 0.0076365056447684765, -0.003875171300023794], [0.00031323410803452134, -0.005438791122287512, 0.0037465773057192564, -0.0030516900587826967, 0.0031570277642458677, -0.0008525141747668386, -0.0023125994484871626, -0.002317975042387843, -0.0017619191203266382, -0.0022928835824131966, -0.009643874131143093, -0.0011923877755180001, 0.0010629898170009255, 0.006746672093868256, 0.0021287663839757442, 0.0015769983874633908, -0.002878547180444002, -0.005695329047739506, -0.003547301981598139, -0.0071303402073681355, 0.0028205011039972305, 0.003116950625553727, 0.002493117703124881, -0.0029349101241678, 0.0031935626175254583, -0.004840117413550615, 0.0032673284877091646, 0.0026609075721353292, 0.003976337146013975, -0.0009340039687231183, 0.002737285103648901, -0.0018957711290568113, 0.002026432193815708, -0.0019849538803100586, -0.002708734478801489, -0.0032529551535844803, 0.0029395183082669973, -0.001401706482283771, 0.0031326438765972853, 0.010069423355162144, 0.0020068143494427204, -0.0032869454007595778, 0.005038060247898102, -0.0014148815535008907, 0.00015027119661681354, -0.0020956392399966717, 0.003725003218278289, 0.002684324746951461, -0.0014220752054825425, -0.0009972514817491174, 0.0020610380452126265, -0.0016151178861036897, 0.0062681459821760654, -0.00657070055603981, 0.003168871160596609, 0.002859881380572915, 0.002797889057546854, -0.0027088189963251352, 0.001143702189438045, 0.007391124032437801, 0.0003164017980452627, 0.0024054020177572966, 0.0030580097809433937, 0.0017555821686983109, 0.001970551209524274, -0.003145950846374035, -0.001425259979441762, -0.0030746273696422577, 0.003275184892117977, -0.002572576282545924, 0.0021416156087070704, -0.0017531070625409484, 0.0026096398942172527, -0.0031323409639298916, 0.0032116849906742573, 0.0005010261666029692, 0.0037453516852110624, -0.002249066950753331, -0.0018240214558318257, -0.0034113244619220495, 0.0005861589452251792, 0.0028472773265093565, 0.0003193373268004507, 0.0035524480044841766, 0.003027891041710973, 0.003031827975064516, 0.0014038608642295003, -0.005663509014993906, 0.008298221044242382, -0.00237077078782022, -0.0032900578808039427, -0.0017677752766758204, 0.0034376755356788635, -0.0019990201108157635, 0.0027070273645222187, 0.001694349804893136, -0.0024561348836869, -0.004478904418647289, 0.004100690130144358, 0.0029873757157474756, 0.006487872917205095, 0.0061764162965118885, 0.002048684051260352, 0.0030951208900660276, 0.0009767913725227118, 9.499767475062981e-05, -0.0022710429038852453, -0.005106064490973949, 0.005240265280008316, -0.002874115016311407, 0.002088816836476326, 0.0032401932403445244, 0.008770260959863663, -0.0031135862227529287, 0.002284134039655328, -0.002193721942603588, 0.008111228235065937, -0.00209439336322248, 0.0022609103471040726, 0.0028448146767914295, 0.001352764549665153, 0.00388093083165586, -0.0018959474982693791, -0.003509926376864314, 0.0057906354777514935, 0.0017740554176270962, 0.003634019987657666, -0.001146610826253891]], "sigmanet.nn.8.bias": [-0.009666318073868752, 0.01681622862815857, -0.04722012206912041, 0.039755214005708694, 0.009616892784833908, 0.007371245883405209, 0.016492469236254692, 0.028279105201363564, -0.03156024217605591, -0.07050244510173798, 0.045847341418266296, -0.03873470798134804, 0.028708286583423615, 0.11189662665128708, 0.012978802435100079, -0.016258584335446358, -0.06624308228492737, -0.004054654389619827, 0.028138577938079834, -0.05795495584607124, 0.0014094143407419324, 0.01740824058651924, -0.013827643357217312, -0.003826023079454899, -0.0005490059847943485, 0.004947645124047995, 0.1982528567314148, 0.06328734755516052, 0.038276635110378265, 0.00613006204366684, 0.032686956226825714, 0.004044904373586178, -0.0070742093957960606, 0.015553710050880909, -0.005739075597375631, -0.15255334973335266, -0.007873098365962505, 0.02454821765422821, -0.017473706975579262, 0.03169823810458183, 0.05237339437007904, -0.04832183197140694, 0.04980834573507309, -0.03318914398550987, 0.024644384160637856, 0.038447994738817215, 0.029105469584465027, 0.012150139547884464, -0.023428289219737053, 0.00844029150903225, -0.006758793257176876, 0.038715485483407974, 0.07437685877084732, -0.04979754611849785, -0.08545798808336258, 0.019845955073833466, 0.04017152264714241, 0.02780945412814617, -0.0014969133771955967, -0.0074810148216784, 0.011272312141954899, -0.041193000972270966, 0.028169779106974602, 0.006280032452195883, 0.04080710560083389, -0.05638007074594498, -0.07605991512537003, -0.01487051509320736, 0.030128175392746925, 0.010623971000313759, 0.0002264581125928089, 0.01484694704413414, 0.02778952196240425, 0.03156920522451401, -0.001345873111858964, 0.0792640671133995, -0.03237020596861839, -0.09903480857610703, -0.048642348498106, 0.014487442560493946, -0.0505366325378418, -0.02499937079846859, 0.01645543798804283, 0.002845649840310216, -0.05999787151813507, -0.04725640267133713, 0.022800832986831665, -0.03057117387652397, -0.04081135615706444, -0.02833346650004387, -0.0975431352853775, 0.015211963094770908, 0.00382613274268806, -0.003590980777516961, 0.06619317829608917, 0.005717309191823006, 0.014830351807177067, -0.0711890459060669, -0.002275326522067189, -0.04388764500617981, 0.00309897493571043, -0.06008975952863693, -0.007146262098103762, -0.04467443376779556, 0.001960045425221324, -0.038528747856616974, 0.013210566714406013, -0.05286277458071709, 0.07736918330192566, -0.04685715213418007, 0.04563350975513458, 0.005955880507826805, -0.03659626096487045, -0.06804623454809189, 0.04707634449005127, -0.07764550298452377, -0.03143936023116112, 0.05326281860470772, 0.012304372154176235, 0.022847535088658333, 6.9812313086004e-06, 0.01556744147092104, -0.02056455984711647, 0.050045136362314224, 0.007951558567583561, 0.022061007097363472, 0.014230020344257355, -0.058145854622125626], "sigmanet.nn.8.parametrizations.weight.original": [[0.002566172741353512, 0.0049740904942154884, 0.005849380046129227, 0.002781282877549529, -0.00024439534172415733, 0.0010172310285270214, 0.00262873200699687, 0.0022668205201625824, -0.008101767860352993, -0.000922707375138998, -0.00204744772054255, 3.166453825542703e-05, -0.002385328058153391, 0.0006700612721033394, 0.002177142072468996, 0.004019204527139664, 0.00057170819491148, 0.0012764929560944438, -0.0014304001815617085, -0.00859209056943655, -0.0013460159534588456, -0.00236527225933969, -0.0026072822511196136, -0.0004228264733683318, -0.0027416800148785114, 0.00297502800822258, 0.006285761948674917, 0.0022459535393863916, -0.0015235854079946876, 0.0009929650695994496, 0.0044826120138168335, 0.001519818906672299, -0.0023327732924371958, -0.0038071847520768642, -0.00046985616791062057, 0.0025157176423817873, -0.0001736528502078727, 0.002225851872935891, -0.002158405026420951, -0.002507441211491823, -0.002937615616247058, 0.01374056376516819, -0.00099199078977108, 0.002023812383413315, -0.0008712894632481039, 0.0018757159123197198, -0.0021063177846372128, 0.011826088652014732, -0.002397828036919236, 0.003098973073065281, -0.0023938247468322515, 0.003499373560771346, -0.002492565428838134, 0.0011545789893716574, -0.0012088449439033866, 0.0024323821999132633, -0.002280196640640497, 0.0077361068688333035, -0.0024421806447207928, 0.006905627902597189, 0.0031799376010894775, 0.0023048140574246645, -0.0005304895457811654, -0.002259010449051857, 0.005782093852758408, 0.0015497533604502678, -0.01112475898116827, -0.0006992473499849439, -0.002080499893054366, 0.0026382124051451683, -0.0023966641165316105, -0.0014022961258888245, -0.0016296538524329662, 0.004509147256612778, -0.00045974814565852284, 0.0026119996327906847, -0.0012449194910004735, -0.00036024992004968226, 0.010118634440004826, 0.0008707329398021102, -0.003397308522835374, 0.0015236829640343785, -0.0026921466924250126, 0.0024864664301276207, 0.0006335105863399804, 0.0021005349699407816, -0.0010813734261319041, 0.0025655038189142942, -0.0004009549447800964, 0.0015800247201696038, -0.0022789319045841694, 0.0025878523010760546, -0.002448664978146553, -0.0005643049953505397, -0.0021964965853840113, 0.002279439475387335, -0.0017116365488618612, -0.0023349556140601635, 0.0027121813036501408, 0.0028039466124027967, 0.0008715591975487769, 0.0011737016029655933, -0.002181120915338397, 0.0016092428704723716, -0.001250031404197216, 0.0013225141447037458, -0.00020459179359022528, 0.0022459342144429684, -0.0006339320680126548, 0.0022388806100934744, -0.0019484451040625572, -0.0026884498074650764, -0.0011608083732426167, -0.005721131339669228, -0.004337364342063665, 0.0024483755696564913, -0.0014789021806791425, 0.005137383006513119, -0.0019028219394385815, 0.002592428121715784, -0.007145229261368513, 0.0024546594358980656, 0.009265067987143993, 0.0022674703504890203, -0.0028555882163345814, 0.0024382509291172028, -0.0006206429097801447, -0.001348818768747151], [0.0002590330841485411, 0.004012067336589098, 0.0026703306939452887, 0.0025807388592511415, -0.0019335211254656315, 0.00041540799429640174, 0.0027739841025322676, 0.0021516745910048485, -0.00932981725782156, -0.0025624192785471678, -0.0019204714335501194, 0.002266115043312311, -0.002018954372033477, 0.0020453559700399637, 0.0013130651786923409, 0.007365937810391188, 0.0023744823411107063, 0.0007735192775726318, -0.002406151033937931, -0.010762241668999195, -0.00224962062202394, -0.0013350057415664196, -0.0025151511654257774, -0.002671710681170225, -0.0012940106680616736, 0.002192089566960931, 0.009182650595903397, 0.001998575869947672, -0.0025169127620756626, 0.0023497568909078836, 0.00534186651930213, 0.0001515169715275988, -0.0025738573167473078, -0.00220828247256577, -0.0022825824562460184, 0.0007362351170741022, -0.002336425008252263, 0.0014373252633959055, -0.008559401147067547, -0.0027653181459754705, -0.006949933245778084, 0.005999487824738026, -0.0020394152961671352, 0.002516206819564104, -0.002643333747982979, 0.0010979513172060251, -0.0017448108410462737, 0.0012344986898824573, -0.0009067438077181578, 0.006435580085963011, -0.0009561084443703294, 0.004820151720196009, -0.002218961948528886, 0.0008633394609205425, -0.0009517316939309239, 0.0010968755232170224, -0.0011172160739079118, 0.007946169935166836, -0.0007373205153271556, 0.004161329008638859, 0.009046708233654499, 0.0005731856799684465, -0.001727897091768682, -0.0024194687139242887, 0.002635330194607377, 0.00274388468824327, -0.007281757425516844, -0.0009440525318495929, -0.0023806209210306406, 0.0022525321692228317, -0.00944413710385561, -0.0021491427905857563, -0.0020325419027358294, 0.007579750847071409, -0.0002946083259303123, 0.0026300533208996058, -0.0017406224505975842, -0.0013724640011787415, 0.003188587259501219, 0.002229210687801242, -0.0024660462513566017, 0.00042382150422781706, -0.002646818058565259, 0.002493618754670024, 0.0015099352458491921, 0.0007982165552675724, -6.830327038187534e-05, 0.0014056095387786627, -0.0026948805898427963, 0.0010297868866473436, -0.0023740993347018957, 0.002503043506294489, -0.002446375321596861, -0.0023822684306651354, -0.007051471620798111, 0.0005770103307440877, -0.0003644921525847167, -0.0014726592926308513, 0.002843457506969571, 0.0020788288675248623, 0.0025311314966529608, 0.0006638982449658215, -0.0015869505004957318, 0.0007023182697594166, -0.0026130478363484144, 0.001608405727893114, -0.0025677294470369816, 0.0010440093465149403, -0.002054043812677264, 0.0004919314524158835, -0.00568567356094718, -0.001313743181526661, -0.001517699216492474, -0.0038887998089194298, -0.0016029432881623507, 0.0024677731562405825, -0.00106979557313025, 0.003615889698266983, -0.0023791948333382607, 0.002260127803310752, -0.0041204276494681835, 0.0014322741189971566, 0.008681795559823513, 0.002139952266588807, -0.0017346790991723537, 0.005326057784259319, -0.00202030292712152, -0.00475725531578064], [-0.0011080873664468527, -0.0017812082078307867, -0.0007405681535601616, -0.001212580595165491, 0.0003706331772264093, -0.0008421657257713377, -0.0005745462258346379, -2.962640064652078e-05, 0.0018400236731395125, 0.002406500745564699, 0.001937722903676331, -0.0019702925346791744, 0.0013847599038854241, -4.3630501750158146e-05, -0.0013307799817994237, -0.0019067433895543218, -0.0004402823105920106, -0.0021845600567758083, 0.0020050862804055214, 0.0015715786721557379, 0.0017012290190905333, 0.0006671422743238509, 0.002436999464407563, 0.0007458064355887473, 0.0012505811173468828, -0.001248843502253294, -0.0008863462717272341, -0.002353016985580325, 0.0002857247309293598, -0.0007445182418450713, -0.001441623899154365, -0.0011684189084917307, 0.0008490241598337889, 0.0005676663713529706, 0.00017216050764545798, -0.0014377874322235584, 2.644973574206233e-05, -0.0009522180771455169, 0.0015587009256705642, 0.001525674480944872, 0.0007426836527884007, -0.002578804735094309, 0.00036735128378495574, -0.0021283207461237907, 0.0008297604508697987, -0.00036301036016084254, 0.00044825419900007546, -0.0005832765018567443, 0.0003539192257449031, -0.0008722098427824676, 0.002223423682153225, -0.0004039591585751623, 0.0003688107244670391, -0.0008894327329471707, 0.0010047478135675192, -0.0011811042204499245, 0.00046528340317308903, -0.0014434864278882742, 0.002309008501470089, -0.0002881737018469721, -0.001999571919441223, -0.0009473196696490049, 0.00108440185431391, 0.001148100709542632, -0.0003617970796767622, -0.0018281806260347366, 0.002376523334532976, 0.0007894516456872225, 0.0009517052094452083, -0.0017167470650747418, 0.0010558500653132796, 0.0006335668731480837, 0.00143461674451828, -0.00043339774128980935, 0.0007298220880329609, -0.0001335582201136276, 0.0009084272314794362, 0.0015321081737056375, -0.0014722776832059026, -0.0012901350855827332, 0.0021067692432552576, -0.0017176595283672214, 0.0006706950371153653, -0.0007908373954705894, -0.0016821169992908835, -0.0018396299565210938, 0.0008606106275692582, -1.3594479241874069e-05, 0.0012507166247814894, -0.000981818651780486, 0.001169516472145915, -0.0008578102570027113, 0.0010955848265439272, 0.0018548957305029035, 0.0009761960827745497, -0.0021069664508104324, 0.0013977816561236978, 0.0019569748546928167, -0.0021103941835463047, -0.00031118534388951957, -0.0024843616411089897, -0.0017858673818409443, 0.0011825094697996974, -0.0018262817757204175, 0.00038144364953041077, -0.001146456808783114, 0.0007332509267143905, -0.0016447448870167136, 0.0003288139996584505, -0.001504642190411687, 0.0002362538652960211, 0.0013890975387766957, 0.0013417840236797929, 0.0024423454888164997, 0.0020466879941523075, -0.00039913522778078914, 0.001196359982714057, -0.0005681438487954438, 0.00042570842197164893, -0.0008296888554468751, 0.0020344173535704613, -0.0024661109782755375, -0.0010718675330281258, -0.0005016546929255128, 0.0005830862210132182, -0.0011276720324531198, 0.0001653491344768554, 0.00042539971764199436], [0.0005246464861556888, 0.00010090477735502645, 0.002066404325887561, 0.002304370515048504, -0.0009331354522146285, 0.0005757564795203507, 0.0008435217896476388, 0.0017211198573932052, -0.0012437609257176518, -0.0007214705110527575, -0.0024271924048662186, 0.002045688685029745, -0.0010053905425593257, 0.0021053289528936148, 0.0011499290121719241, 0.001978437416255474, 0.001829413347877562, 0.00011801868095062673, -0.0013892343267798424, -0.0005956660024821758, -0.001435900223441422, -0.0012587058590725064, -0.0006223565433174372, -0.0016361884772777557, -0.0009111480321735144, 0.001970738172531128, 0.00042586561175994575, 0.0011026985011994839, -0.0016771516529843211, 0.0009744453709572554, 0.005117256660014391, 0.0020988828036934137, -0.0010945448884740472, -0.0020270254462957382, -0.0018088702345266938, 0.0009151041740551591, -0.0022685255389660597, 0.0009151353733614087, -0.0013251875061541796, -0.0018905405886471272, -0.00463080545887351, 0.00034895993303507566, -0.00355320330709219, 0.00029461426311172545, -0.002368163550272584, 0.000550874334294349, -0.0010588949080556631, 0.0008526483434252441, -0.0014628337230533361, 0.002662267070263624, -0.0009253263124264777, 0.0018036654219031334, -0.001296331058256328, 0.0014133644290268421, -0.0014278587186709046, 0.0015803896822035313, -0.0009864597814157605, 0.0025742657016962767, -0.0027265034150332212, 0.001204321626573801, 0.0011863731779158115, 0.001538748387247324, -0.0003815866366494447, -0.0009846006287261844, 0.001498134690336883, 0.0015959289157763124, -0.004186088684946299, -0.0009405342862010002, -0.002026437781751156, 0.002592845121398568, -2.586860091469134e-06, -0.0024362856056541204, -0.0016764599131420255, 0.0013545214897021651, -0.0014439700171351433, 0.002127695130184293, -0.0025225840508937836, -6.667777051916346e-05, 0.003940240945667028, 0.0020044948905706406, -0.00043391509098000824, 0.001447012065909803, -0.001918535097502172, 0.00247162370942533, 0.0009030448854900897, 0.0006048975046724081, -0.002011495176702738, 0.002545928582549095, -0.0015251683071255684, 0.0008921927656047046, -0.002333599841222167, 0.0017084073042497039, -0.001445646514184773, -0.0006273259059526026, -0.0004855594306718558, 0.0008893001358956099, -0.001809480949304998, -0.0022132222075015306, 0.00048645312199369073, 0.0027608205564320087, 0.0013635362265631557, 0.0031325258314609528, -0.0040954528376460075, 0.0028320446144789457, -0.0024751978926360607, 0.0008266399381682277, -0.0022751791402697563, 0.0009870536159723997, -0.00038584438152611256, 0.0012017819099128246, -0.002227864693850279, -0.001572818960994482, -0.002219841117039323, -0.0005062793497927487, -0.0013982962118461728, 0.0046835169196128845, -0.0002469662867952138, 0.0027644115034490824, -0.0024272094015032053, 0.0014542145654559135, -0.0016870021354407072, 0.0006376187084242702, 0.0010508638806641102, 0.001977242762222886, -0.0005411881138570607, 0.0018236213363707066, -0.00417704600840807, -0.0009272712632082403], [-0.03250102326273918, -0.005837645381689072, -0.03352029621601105, -0.032933302223682404, 0.003941814880818129, -0.011259276419878006, -0.04360673949122429, -0.0300288163125515, 0.005075214896351099, 0.02754930406808853, 0.02130253240466118, -0.037772588431835175, 0.03697395697236061, -0.037066493183374405, -0.02297854796051979, -0.035734787583351135, -0.035874731838703156, -0.004346498288214207, 0.03565126284956932, 0.035803958773612976, 0.03150425851345062, 0.03467828407883644, 0.004271154757589102, 0.004172831773757935, 0.02889821119606495, -0.011412614025175571, -0.036686547100543976, -0.03344382718205452, 0.028802718967199326, -0.032612722367048264, -0.018278485164046288, -0.021949704736471176, 0.009393865242600441, 0.007676105946302414, 0.029640940949320793, -0.03029690496623516, 0.004518053960055113, -0.016045913100242615, 0.04136795923113823, 0.038151971995830536, 0.028813807293772697, -0.03317489102482796, 0.0035011754371225834, -0.03436954319477081, 0.039285071194171906, -0.024541225284337997, 0.005483113694936037, -0.04002569243311882, 0.004219254478812218, -0.03735404089093208, 0.03271425887942314, -0.03580712899565697, 0.01079919096082449, -0.023485789075493813, 0.028964053839445114, -0.02370678074657917, 0.023683734238147736, -0.03434032201766968, 0.016705067828297615, -0.03638952970504761, -0.041193533688783646, -0.027765795588493347, 0.0293873380869627, 0.024128543213009834, -0.03688253089785576, -0.034605950117111206, 0.004161375109106302, 0.0068357279524207115, 0.009962501004338264, -0.004850638564676046, 0.032136641442775726, 0.029572397470474243, 0.02869170531630516, -0.00941244326531887, 0.0012128610396757722, -0.027990596368908882, 0.004224292002618313, 0.012438640929758549, -0.004122997634112835, -0.02501867152750492, 0.011084665544331074, -0.037422362715005875, 0.004501407966017723, -0.03835320472717285, -0.026969891041517258, -0.03645961359143257, 0.038118183612823486, -0.032476674765348434, 0.014509055763483047, -0.02889271266758442, 0.028338395059108734, -0.004182431381195784, 0.03468817472457886, 0.02648693509399891, 0.03624878451228142, -0.03371546417474747, 0.003977966029196978, 0.018983766436576843, -0.0014340576017275453, -0.03889987990260124, -0.03454938903450966, -0.02859409898519516, 0.0071963355876505375, -0.024306923151016235, 0.005184019450098276, -0.030330833047628403, 0.004343804437667131, -0.00421653687953949, 0.004703650716692209, -0.029305152595043182, 0.040456321090459824, 0.004196105524897575, 0.004563929978758097, 0.006540006957948208, 0.030651221051812172, -0.004350598435848951, 0.003832009853795171, -0.03835414722561836, 0.006870119832456112, -0.02539690025150776, 0.032737720757722855, -0.027252474799752235, -0.004786808975040913, -0.03565724194049835, 0.0045843422412872314, -0.03710896521806717, 0.03746123984456062, 0.036271244287490845], [9.265728294849396e-05, 0.001387567725032568, 0.0022641033865511417, 0.0010583397233858705, -0.001316328882239759, 0.0020639002323150635, 0.0013939784839749336, 0.0022242777049541473, -0.000728363636881113, -0.002397483214735985, -0.0016727325273677707, 0.0028150868602097034, -0.002049878239631653, 0.0021491553634405136, 0.00038989156018942595, 0.0007854161085560918, 0.0022681187838315964, 0.0001038486443576403, -0.0021613475400954485, -0.001806642976589501, -0.0031013255938887596, -0.0010768512729555368, -0.0009379787952639163, -0.002194188768044114, -0.00864082109183073, 0.0013132094172760844, 0.0014747509267181158, 0.0012508350191637874, -0.0035389719996601343, 0.0013234521029517055, 0.004497322253882885, 0.0018715630285441875, -0.00031904416391626, -0.0012530022067949176, -0.001507589709945023, 0.001991970930248499, -0.0014317573513835669, 0.0019673092756420374, -0.000961177283897996, -0.00141553720459342, -0.0007817384321242571, 0.0012306548887863755, -0.0009176077437587082, 0.0018653328297659755, -0.0012367707677185535, 0.0001225724263349548, -0.0010430969996377826, 0.002133691217750311, -0.0010407093213871121, 0.0006000138237141073, -0.001323792152106762, 0.0004657147219404578, -0.0018008002080023289, 0.0005198667058721185, -0.002026855479925871, 0.0022531230933964252, -0.002474868670105934, 0.0026313327252864838, -0.00012545002391561866, 0.0012014397652819753, 0.002223893767222762, 0.002174203982576728, -0.0015372673515230417, -0.0012389029143378139, 0.0007599208620376885, 0.0010879685869440436, -0.000831418321467936, -0.001902410527691245, -0.002193407155573368, 0.0018523643957450986, -0.0010393918491899967, -0.0024169518146663904, -0.0016929191770032048, 0.0022283790167421103, -0.0013311043148860335, 0.002600738313049078, -0.0019424892961978912, -0.0013588261790573597, 0.0016675920924171805, 0.0018535397248342633, -0.0019697793759405613, 3.422045847401023e-05, -0.0010233838111162186, 0.0016095814062282443, 0.001799146644771099, 0.0016224985010921955, -0.002113120164722204, 0.0020895861089229584, -0.0026882949750870466, 0.0014865405391901731, -0.0024245360400527716, 0.0008304007933475077, -0.002679340774193406, -0.0008266142103821039, -0.0009816187666729093, 0.0022905592340976, -0.0005131645011715591, -0.001857718569226563, 0.0015925767365843058, 0.0010954096214845777, 0.0024890911299735308, 0.0007949873106554151, -0.002271754201501608, 0.0024736218620091677, -0.002173704095184803, 0.001791217247955501, -0.002244488336145878, 0.0015576884616166353, -0.0018104823539033532, 0.002502269111573696, -0.0015556950820609927, -0.003625808283686638, -0.0020219674333930016, -0.0014791901921853423, -0.0019111131550744176, 0.0014885796699672937, -0.0020549760665744543, 0.0003231939917895943, -4.885362068307586e-05, 0.0015275062760338187, -0.005552973598241806, 0.0021717685740441084, 0.0003560696786735207, 0.0013859185855835676, -0.0019145658006891608, 0.003135032020509243, -0.004739765543490648, -0.00042643846245482564], [0.0057332077994942665, 0.029312923550605774, 0.005037844181060791, 0.025880012661218643, -0.023865990340709686, 0.008511422201991081, 0.0056964922696352005, 0.017470329999923706, -0.032723989337682724, -0.009151318110525608, -0.005579392425715923, 0.029204843565821648, -0.033381037414073944, 0.004511432722210884, 0.005560579244047403, 0.03175242990255356, 0.004545670934021473, 0.023367902263998985, -0.025621434673666954, -0.033412329852581024, -0.028118092566728592, -0.005219065118581057, -0.025953887030482292, -0.006527306046336889, -0.024515096098184586, 0.015896551311016083, 0.020006725564599037, 0.025941865518689156, -0.025655025616288185, 0.02841982990503311, 0.007736185099929571, 0.0038370336405932903, -0.006922936998307705, -0.03164279833436012, -0.0075887637212872505, 0.029456568881869316, -0.02327643148601055, 0.006427252199500799, -0.035483166575431824, -0.014107189141213894, -0.027794621884822845, 0.028318727388978004, -0.00432031461969018, 0.020314598456025124, -0.012731686234474182, 0.009886417537927628, -0.006931716576218605, 0.032568808645009995, -0.011324075050652027, 0.032682765275239944, -0.015701787546277046, 0.031724099069833755, -0.017068859189748764, 0.021938689053058624, -0.024891674518585205, 0.0210960041731596, -0.028742706403136253, 0.030564626678824425, -0.00489468639716506, 0.029575781896710396, 0.033078018575906754, 0.024534789845347404, -0.026228582486510277, -0.021582530811429024, 0.03361921012401581, 0.005913914646953344, -0.03302180394530296, -0.022008348256349564, -0.010618332773447037, 0.012603946961462498, -0.03572206571698189, -0.029282890260219574, -0.02326226606965065, 0.031109359115362167, -0.0031621719244867563, 0.026405254378914833, -0.027742911130189896, -0.013789993710815907, 0.02845025435090065, 0.02323894575238228, -0.011701575480401516, 0.032643452286720276, -0.03218323737382889, 0.005316806957125664, 0.020452382043004036, 0.03206734359264374, -0.031138449907302856, 0.02850969508290291, -0.017514267936348915, 0.02236011065542698, -0.02731606550514698, 0.008304997347295284, -0.004914304707199335, -0.025565508753061295, -0.030185747891664505, 0.03283638879656792, -0.004238980356603861, -0.01991916261613369, 0.001324783661402762, 0.006817393004894257, 0.02823227271437645, 0.026543617248535156, -0.007137764245271683, 0.015858512371778488, -0.0020389824640005827, 0.025720059871673584, -0.027547646313905716, 0.027975162491202354, -0.010334505699574947, 0.0252885352820158, -0.03487059473991394, -0.004203998018056154, -0.03090699575841427, -0.004894595127552748, -0.0064438339322805405, 0.004752418491989374, -0.02257118932902813, 0.035358671098947525, -0.028236880898475647, 0.025755537673830986, -0.026302309706807137, 0.025012457743287086, 0.022793741896748543, 0.012582547031342983, -0.019312482327222824, 0.03229108452796936, -0.027259306982159615, -0.03767335042357445], [0.0006671366281807423, 0.0010641968110576272, 0.0028321361169219017, 0.0027403393760323524, -0.0015999560710042715, 0.0016330465441569686, 0.0016271636122837663, 0.001006811042316258, -0.0024789979215711355, -0.0003619262424763292, -0.0022374847903847694, 0.0007215687655843794, -0.0019607441499829292, 0.0004946863045915961, 3.4094598959200084e-05, 0.0016100460197776556, 0.0016657030209898949, 0.001662695431150496, -0.0022049390245229006, -0.004202364012598991, -0.0009711032616905868, -1.1367905244696885e-05, -0.0006639062776230276, -0.005499568767845631, -0.0006963310297578573, 0.0006345528527162969, 0.002038688398897648, 0.0006390057969838381, -0.0008149478817358613, 0.001404883456416428, 0.000623217667452991, 0.001141702407039702, -0.00036890822229906917, -0.0007881033816374838, -0.0014560874551534653, 0.0014025263953953981, -0.0020732202101498842, 0.001710333744995296, -0.00041945677367039025, -0.0007831159164197743, -0.0018937167478725314, 0.0019344426691532135, -0.0007662083953619003, 0.0020696469582617283, -0.0020813043229281902, 0.001586889149621129, -0.001650353311561048, 0.0012742154067382216, -0.00024419903638772666, 0.005052910186350346, -0.0006117898155935109, 0.0015031113289296627, -0.00043522013584151864, 0.00012960436288267374, -0.0009739859960973263, 0.001511033158749342, -0.0018249375279992819, 0.0034613278694450855, -0.002669863635674119, 0.0007942608208395541, 0.0013912308495491743, 0.0013379589654505253, -0.0005988145712763071, -0.001522417413070798, 0.00037487279041670263, 0.001848859479650855, -0.001995565602555871, -0.0004422863421496004, -0.0017797740874812007, 0.0003154460864607245, -0.0025416759308427572, -0.0024174179416149855, -3.5257737181382254e-05, 0.0036483928561210632, -0.0015360654797405005, 0.002686668885871768, -0.0023394087329506874, -0.002315385267138481, 0.00240911147557199, 0.0013633233029395342, -0.0005734168225899339, 0.0014815708855167031, -0.00023264178889803588, 0.0020895253401249647, 0.001369024277664721, 0.0016657669330015779, -0.00046880514128133655, 0.0005193580873310566, -0.0017296591540798545, 0.000674141279887408, -0.002232237486168742, 0.0016067182878032327, -0.001781656057573855, -0.001551109948195517, -9.115365537581965e-05, 6.225546530913562e-05, -0.0017836542101576924, -0.0007661093259230256, 2.133215639332775e-05, 0.0008908045128919184, 5.1720027840929106e-05, 0.002113496419042349, -0.0008789923158474267, 0.0005882467958144844, -0.0015974955167621374, 0.0021057110279798508, -0.0003928715887013823, 0.0032843388617038727, -0.0006388223264366388, 0.00039623139309696853, -0.003157928353175521, -0.002999707590788603, -0.002019244944676757, -0.0030282000079751015, -0.0009015158866532147, 0.0019182662945240736, -0.0012714553158730268, 0.002543776063248515, -0.0012281344970688224, 0.0021046982146799564, -0.0010229581966996193, 0.0010648706229403615, 0.0009459031862206757, 0.00046488994848914444, -0.0013402848271653056, 0.0014094907091930509, -0.0014684241032227874, -0.0023415181785821915], [-0.0016397446161136031, -0.012253863736987114, -0.010008000768721104, -0.007949800230562687, 0.00040471949614584446, -0.003377097425982356, -0.002449573017656803, -0.000647718901745975, 0.013984080404043198, 0.002617722377181053, 0.0024569653905928135, -0.0021783935371786356, 0.0060130232013762, -0.0014668091898784041, -0.0024187942035496235, -0.012227318249642849, -0.002269102493301034, -0.0019308431074023247, 0.004484500270336866, 0.015865210443735123, 0.003230552887544036, 0.0007223885040730238, 0.0019069642294198275, 0.0004544991534203291, 0.0025343121960759163, -0.0015601470367982984, -0.014126193709671497, -0.0025224401615560055, 0.0017386754043400288, -0.0009592153364792466, -0.004168559797108173, -0.001098052249290049, 0.0025571975857019424, 0.005154070910066366, 0.000533058017026633, -0.0006917566643096507, 0.0010761342709884048, -0.0018640458583831787, 0.014003745280206203, 0.005264441017061472, 0.002398882294073701, -0.0037042342592030764, 0.0016291936626657844, -0.00484122708439827, 0.006591083016246557, -0.001849720603786409, 0.0019985365215688944, -0.00880412943661213, 0.002568993717432022, -0.003201907267794013, 0.0029803721699863672, -0.01328260637819767, 0.000780650123488158, -0.0002836491330526769, 0.001802267273887992, -0.0016306443139910698, 0.001590484636835754, -0.016390888020396233, 0.0016856595175340772, -0.0025728894397616386, -0.00610912824049592, -0.0021246918477118015, 0.0007180238026194274, 0.002388656372204423, -0.01553968247026205, -0.012310042046010494, 0.017689259722828865, 0.0025072945281863213, 0.0019194677006453276, -0.0017702474724501371, 0.014868561178445816, 0.0008787281694822013, 0.0009637906332500279, -0.012891060672700405, 0.00013564487744588405, -0.002957419026643038, 0.00013461890921462327, 0.001055413275025785, -0.017698271200060844, -0.0006895711994729936, 0.00637745251879096, -0.008769785985350609, 0.004631885793060064, -0.0022367346100509167, -0.002185477875173092, -0.006336047779768705, 0.004998188465833664, -0.0024190733674913645, 0.00025780752184800804, -0.0006051546661183238, 0.00016373932885471731, -0.00164128839969635, 0.0015847079921513796, 0.002365830820053816, 0.012768908403813839, -0.0007168677402660251, 0.0023159615229815245, 0.00048241548938676715, -0.001925768330693245, -0.0026853359304368496, -0.0018571628024801612, -0.002205428434535861, 0.0018494431860744953, -0.001130581134930253, 0.002485813805833459, -0.0015153269050642848, 0.002553387777879834, -0.0019087245455011725, 0.0010387141956016421, -0.000933400122448802, 0.016991762444376945, 0.0025845582131296396, 0.0016830416861921549, 0.008415349759161472, 0.006541703827679157, -0.0024900909047573805, 0.0009935254929587245, -0.0045685232616961, 0.0023909760639071465, -0.0025487288367003202, 0.01552910078316927, -0.002574606565758586, -0.0037370026111602783, -0.0025691958144307137, 0.003297197399660945, -0.007138218265026808, 0.00353722064755857, 0.01321002934128046], [-0.001848032814450562, -0.0022379050496965647, -0.00048181030433624983, -0.0022653101477771997, 0.001065643853507936, -0.0005974635714665055, -0.0013770353980362415, -0.0009857057593762875, 0.0022345678880810738, 0.0010455143637955189, 0.0021010523196309805, -0.0016153034521266818, 0.001826744177378714, -0.0002534750965423882, -0.0018845124868676066, -0.0023907464928925037, -0.0017581667052581906, -0.0019434496061876416, 0.0012154305586591363, 0.0010791526874527335, 0.000361034442903474, 0.0010539101203903556, 0.002150318119674921, 0.0019798811990767717, 0.0020828598644584417, -0.0020265327766537666, -0.0016365617047995329, -0.0013584305997937918, 0.001945108873769641, -0.0009817093377932906, -8.514188084518537e-05, -0.0015162825584411621, 0.001440619700588286, 0.0022757844999432564, 0.0021389033645391464, -0.0014328950783237815, 0.0015103403711691499, -0.0018469555070623755, 0.0014800867065787315, 0.0003403202281333506, 0.0021137113217264414, -0.0006788041791878641, 0.0003647654957603663, -0.00041204309673048556, 0.00211371504701674, -0.00016120374493766576, 0.0010424844222143292, -0.0015162809286266565, 0.0007936732727102935, -0.002005616668611765, 0.0006533108535222709, -0.0008191430242732167, 0.0020944965071976185, -0.0007481215288862586, 8.093532233033329e-05, -0.0008837403729557991, 0.0013657122617587447, -0.00021971091337036341, 0.0013028152752667665, -0.0014071004698053002, -0.001524273306131363, -0.0014221318997442722, 0.0011646781349554658, 0.0022442820481956005, -0.00010524229583097622, -0.0013539259089156985, 0.00092731649056077, 0.0014914203202351928, 0.002001146087422967, -0.0015755778877064586, 0.0006478394498117268, 0.0023207683116197586, 0.0018873149529099464, -0.0008457902004010975, 0.0019254654180258512, -0.0011517698876559734, 0.002034292323514819, 0.0021620485931634903, -0.0010999721707776189, -0.0014753871364519, 0.0008902312838472426, -0.0004002261266577989, 0.00038883130764588714, -0.0008443937986157835, -0.0015190477715805173, -0.0020412045996636152, 0.0006189815467223525, -0.0016092356527224183, 0.0013611007016152143, -0.001681287307292223, 0.0017226950731128454, -0.0001663038128754124, 0.0020707398653030396, 0.00047320127487182617, 0.0013080521021038294, -0.0003248504945077002, 7.628875755472109e-05, 0.001442670589312911, -0.0006027504568919539, -0.0014350872952491045, -0.0005039048846811056, -0.0010907514952123165, 0.000806704512797296, -0.0011512620840221643, 0.001278709969483316, -0.0013747988268733025, 0.001720383414067328, -0.0005228700465522707, 0.0007351280655711889, -0.0007165145361796021, 0.0016185629647225142, 0.001101694186218083, 0.002402754733338952, 0.0011012193281203508, 0.001679807435721159, -0.0005147179472260177, 0.0023739191237837076, -0.00096846220549196, 0.0005112180951982737, -1.8851327695301734e-05, 0.0021239849738776684, -0.0017659731674939394, -0.0003763067943509668, -0.001389932120218873, 0.0012057919520884752, -0.00031398035935126245, 0.0013587971916422248, 0.0015867913607507944], [0.0001295754627790302, 0.0015398621326312423, 0.0020469631999731064, 0.0019492348656058311, -0.00029861036455258727, 0.004152137786149979, 0.0011365489335730672, 0.0007922978838905692, -0.001080730464309454, -0.0014773090369999409, -0.0009927896317094564, 0.0004675871168728918, -6.526598554046359e-06, 0.0014398791827261448, 0.00016278754628729075, 0.0015476550906896591, 0.0018110442906618118, 2.2264806830207817e-05, -0.0011609764769673347, -0.0012634219601750374, -0.000664901512209326, -0.0037493095733225346, -0.002396954223513603, -0.0023438315838575363, -0.001828607521019876, 0.006512276828289032, 0.0017975850496441126, 0.0006748759769834578, -0.0006571576814167202, 0.004127106163650751, 0.0034790802747011185, 0.0012192686554044485, -0.002299506915733218, -0.0021027126349508762, -0.0016346133779734373, 0.0006669071153737605, -0.0015598500613123178, 2.474538814567495e-05, -0.00037852232344448566, -0.0023682210594415665, -0.00237240525893867, 0.0006530049722641706, -0.001417769817635417, 0.0015203151851892471, -0.0014422095846384764, 0.002684619277715683, -0.0013716105604544282, 0.0013327272608876228, -0.0007112768944352865, 0.0024200796615332365, -0.0019962466321885586, 0.0016322288429364562, -0.00247262348420918, 5.794093158328906e-05, -0.0021013428922742605, 0.0007725887116976082, -0.0013482734793797135, 0.001886255107820034, -0.001793559524230659, 0.0013307135086506605, 0.0016758064739406109, 0.001180854975245893, -0.0020314110442996025, -0.003481140825897455, 0.0014833277091383934, 0.001501567312516272, -0.0062060849741101265, -0.0016761741135269403, -0.0017027745489031076, 0.002288274932652712, -0.002787848934531212, -0.0019192186882719398, -0.0018938214052468538, 0.00020742510969284922, -0.0007500519277527928, 0.0008602052694186568, -0.0010982017265632749, -0.0011453521437942982, 0.001931375009007752, 0.0003571041452232748, -0.0012608079705387354, 0.00436018593609333, -0.0005635728011839092, 1.618360329302959e-05, 0.0009282035753130913, 0.0010087609989568591, -0.0004598397354129702, 0.0016920143971219659, -0.0025524471420794725, 0.00022713009093422443, -0.0022137293126434088, 0.0005610412918031216, -0.0024176493752747774, -0.0020856186747550964, -0.000651321024633944, 0.0006312152254395187, -0.0026077483780682087, -0.002237658714875579, 0.00195665517821908, 0.0027828847523778677, 0.0019959809724241495, 0.000877843180205673, -0.0010383568005636334, 0.0012551922118291259, -0.0024349193554371595, 3.002531775564421e-05, -0.0010004116920754313, 0.0009687639540061355, -0.002203931100666523, 0.0005009833257645369, -0.0009370564366690814, -0.0039609503000974655, -0.0042878747917711735, -0.002674648305401206, -0.0007880766643211246, 0.0007168670417740941, -0.0013050000416114926, 0.0011018740478903055, -0.001966110896319151, 0.0023787389509379864, -0.0022366715129464865, 0.0001735787809593603, 0.0024540454614907503, 0.001342184841632843, -0.0024522147141397, 0.001733271637931466, -0.0005035571521148086, -0.00633222796022892], [0.0032620623242110014, 0.003212696872651577, 0.0037486746441572905, 0.003526367712765932, -0.001156391459517181, 0.0015484645264223218, 0.002894393866881728, 0.0025717520620673895, -0.0014259041054174304, -0.0027686136309057474, -0.0020715671125799417, 0.002669488312676549, -0.00218583713285625, 0.0020292664412409067, 0.0017614056123420596, 0.003772750962525606, 0.00219170399941504, 0.002890929114073515, -0.0033816774375736713, -0.004254232160747051, -0.002116185612976551, -0.0013689514016732574, -0.003402368165552616, -0.0009400721755810082, -0.0024856787640601397, 0.0025016881991177797, 0.0038436774630099535, 0.0013033869909122586, -0.0031644219998270273, 0.0009372899075970054, 0.010655632242560387, 0.0023956173099577427, -0.002971287816762924, -0.0027600673492997885, -0.0010094691533595324, 0.0006109838141128421, -0.003277300391346216, 0.00130184565205127, -0.002379966201260686, -0.003720371052622795, -0.00423857755959034, 0.0042274026200175285, -0.0008283426868729293, 0.003090726910158992, -0.0027240654453635216, 0.0014198767021298409, -0.004795290995389223, 0.00169842888135463, -0.004440972115844488, 0.0036202536430209875, -0.0009806493762880564, 0.003393721766769886, -0.0022544111125171185, 0.0021289039868861437, -0.0008988105691969395, 0.0022789803333580494, -0.002318228594958782, 0.00159877457190305, -0.004214107990264893, 0.0033341224770992994, 0.002479292219504714, 0.002465446712449193, -0.0013870296534150839, -0.0028352243825793266, 0.0025078116450458765, 0.00247635948471725, -0.003566565690562129, -0.003274615854024887, -0.002437266521155834, 0.001643889700062573, -0.002236624015495181, -0.0014345560921356082, -0.0024219462648034096, 0.003946741111576557, -0.002094340045005083, 0.0033123164903372526, -0.002212194260209799, -0.0026324077043682337, 0.00453955540433526, 0.00023258713190443814, -0.0067979274317622185, 0.0020476202480494976, -0.0013720077695325017, 0.003483177861198783, 0.0029431243892759085, 0.002359170699492097, -0.0024626140948385, 0.0011859977385029197, -0.0025607645511627197, 0.00219141086563468, -0.002768495585769415, 0.001699356478638947, -0.0031888445373624563, -0.0032054493203759193, -0.0034601190127432346, 0.002264450304210186, -0.002037042984738946, -0.002206402365118265, 0.0019365857588127255, 0.003905118675902486, 0.0027378960512578487, 0.0012289901496842504, -0.007253222167491913, 0.0020841495133936405, -0.002662237733602524, 0.003045679535716772, -0.0016065783565863967, 0.0009594402508810163, -0.0020436986815184355, 0.0008877601940184832, -0.002062154933810234, -0.002443697303533554, -0.00045228286762721837, -0.0042436858639121056, -0.0023924631532281637, 0.008849428035318851, -0.0006719756056554615, 0.0024315337650477886, -0.00283005740493536, 0.0033998240251094103, -0.004996169824153185, 0.0020615560933947563, 0.002925791312009096, 0.0023463284596800804, -0.019755378365516663, 0.0034522004425525665, -0.003673350205644965, -0.002682199003174901], [0.0013861508341506124, 0.012809050269424915, 0.013402094133198261, 0.003028190927579999, -0.0022470017429441214, 0.0020582161378115416, 0.009875592775642872, 0.0017931779148057103, -0.005478965118527412, -0.0013047015527263284, -0.0017232646932825446, 0.00381416454911232, -0.0064660534262657166, 0.006521166767925024, 0.004135939758270979, 0.015522816218435764, 0.003180884988978505, 0.0018255008617416024, -0.007799810729920864, -0.01307724043726921, -0.005679449997842312, -0.004353283904492855, -0.008666324429214, -0.0027162209153175354, -0.005433158483356237, 0.002268362557515502, 0.013031309470534325, 0.00044574824278242886, -0.0027074983809143305, 0.005313816945999861, 0.011896239593625069, 0.002271943027153611, -0.0019984717946499586, -0.002999622840434313, -0.0025100912898778915, 9.430058526049834e-06, -0.002467754064127803, 0.0015685713151469827, -0.015183021314442158, -0.0028422516770660877, -0.0036333531606942415, 0.013047181069850922, -0.0013573237229138613, 0.00468043377622962, -0.003082849318161607, 0.010624757967889309, -0.001511849812231958, 0.01350447628647089, -0.0034381865989416838, 0.014636418782174587, -0.002227246528491378, 0.011862033978104591, -0.00214117718860507, 0.001909035025164485, -0.0012112845433875918, 0.0023512248881161213, -0.010246011428534985, 0.011581183411180973, -0.0006994314608164132, 0.003826575819402933, 0.018172210082411766, 0.002277559135109186, -0.0014659172156825662, -0.002426107879728079, 0.014355214312672615, 0.01461699977517128, -0.014234823174774647, -0.0010655235964804888, -0.0015782631235197186, 0.0008908523013815284, -0.01871943473815918, -0.0009027253836393356, -0.0020462446846067905, 0.006071476265788078, -0.0024544917978346348, 0.0031658182851970196, -0.000924637948628515, -0.0021076458506286144, 0.0196957029402256, 0.0022145328111946583, -0.003985942341387272, 0.006539465393871069, -0.006674298085272312, 0.0023650832008570433, 0.002254665596410632, 0.002209891565144062, -0.00812520831823349, 4.68896068923641e-05, -0.002113203052431345, 0.002169935032725334, -0.0023798870388418436, 0.004814932122826576, -0.003619581926614046, -0.0024006105959415436, -0.011362235061824322, 0.008797427639365196, -0.00257595581933856, -0.0006670112488791347, 0.0014668903313577175, 0.010392860509455204, 0.0047592720948159695, 0.0029521635733544827, -0.0024040834978222847, 0.001518821925856173, -0.005071528255939484, 0.0038527133874595165, -0.004666660912334919, 0.0022248676978051662, -0.0022051571868360043, 0.0023965334985405207, -0.015138327144086361, -0.002376405056566, -0.0027807550504803658, -0.011595410294830799, -0.006982479710131884, 0.0072733331471681595, -0.0021652632858604193, 0.01519385352730751, -0.0044271694496273994, 0.006382421124726534, -0.0033715134486556053, 0.0020991601049900055, 0.010197275318205357, 0.005823124200105667, -0.005082848481833935, 0.014174832962453365, -0.0047029899433255196, -0.015897268429398537], [-0.014592288993299007, -0.018573123961687088, -0.014549913816154003, -0.015137925744056702, 0.01033313199877739, -0.011702877469360828, -0.018177803605794907, -0.011854855343699455, 0.01440456323325634, 0.006510598585009575, 0.01860864832997322, -0.01214333064854145, 0.019016416743397713, -0.0175241120159626, -0.009508604183793068, -0.007042369805276394, -0.041347090154886246, -0.048409637063741684, 0.0109706474468112, 0.007576904725283384, 0.009920542128384113, 0.012691332958638668, 0.018144331872463226, 0.036457642912864685, 0.018541065976023674, -0.022957254201173782, -0.015483839437365532, -0.007687629200518131, 0.016280099749565125, -0.009055078960955143, -0.014326729811728, -0.01714584231376648, 0.01780351810157299, 0.013321802020072937, 0.01303129829466343, -0.015180184505879879, 0.0243988037109375, -0.02417854405939579, 0.008756870403885841, 0.013939546421170235, 0.010122444480657578, -0.01685897819697857, 0.013114462606608868, -0.018856866285204887, 0.012906057760119438, -0.009295068681240082, 0.07095299661159515, -0.008771253749728203, 0.16585491597652435, -0.010323954746127129, 0.011169160716235638, -0.018981024622917175, 0.027667172253131866, -0.03072238713502884, 0.02157779224216938, -0.022460220381617546, 0.027854960411787033, -0.012765741907060146, 0.1195078045129776, -0.0102322893217206, -0.008948929607868195, -0.021885210648179054, 0.019064294174313545, 0.007908415049314499, -0.013768268749117851, -0.010102014988660812, 0.01129360031336546, 0.04255601391196251, 0.08471094071865082, -0.053661979734897614, 0.005023828241974115, 0.02528000995516777, 0.04445713758468628, -0.025590911507606506, 0.013441300019621849, -0.024464759975671768, 0.02380545809864998, 0.03266696631908417, -0.024922529235482216, -0.02748865634202957, 0.07005199790000916, -0.009494215250015259, 0.011400734074413776, -0.010554349049925804, -0.04819266498088837, -0.012064546346664429, 0.01307994220405817, -0.04867877438664436, 0.0568196065723896, -0.013566087000072002, 0.01621684432029724, -0.01209908165037632, 0.012598332017660141, 0.010927269235253334, 0.005606893450021744, -0.014455143362283707, 0.012678960338234901, 0.03797273710370064, -0.20815573632717133, -0.009132564067840576, -0.022635268047451973, -0.009891156107187271, 0.15218301117420197, -0.010215358808636665, 0.188068225979805, -0.011025615967810154, 0.013000383041799068, -0.01688108593225479, 0.0672956183552742, -0.016729768365621567, 0.01242432463914156, 0.013613665476441383, 0.012719881720840931, 0.0177830271422863, 0.008250530809164047, -0.021623682230710983, 0.013288258574903011, -0.016310254111886024, 0.025128686800599098, -0.00795778539031744, 0.02413204312324524, -0.00736173614859581, -0.011796741746366024, -0.023169195279479027, 0.016648637130856514, -0.012996162287890911, 0.017548955976963043, 0.011066539213061333], [0.007044100668281317, 0.023153718560934067, 0.009348701685667038, 0.01968754082918167, -0.012402975000441074, 0.0021771835163235664, 0.02735539712011814, 0.018592560663819313, -0.014801999554038048, -0.018154067918658257, -0.00046243960969150066, 0.02012091688811779, -0.025030577555298805, 0.019019799306988716, 0.014100510627031326, 0.0227521825581789, 0.01706530712544918, 0.010188951157033443, -0.015563645400106907, -0.025609342381358147, -0.01777208037674427, -0.00862639769911766, -0.017085345461964607, -0.0034088995307683945, -0.014405375346541405, 0.0013587063876911998, 0.005435481667518616, 0.016614262014627457, -0.012043643742799759, 0.019700810313224792, 0.014369936659932137, 0.002821719041094184, -0.017492230981588364, -0.003964712377637625, -0.012596920132637024, 0.003954879008233547, -0.012573654763400555, 0.001160287531092763, -0.026941698044538498, -0.024034811183810234, -0.02068289741873741, 0.024716876447200775, -0.011538450606167316, 0.020180391147732735, -0.022331925109028816, 0.02065293677151203, -0.0020775548182427883, 0.024596769362688065, -0.009570145048201084, 0.02523196116089821, -0.019892005249857903, 0.003746510250493884, -5.472158591146581e-05, 0.0024711117148399353, -0.013738258741796017, 0.007207749877125025, -0.021301407366991043, 0.014961599372327328, -0.003031091531738639, 0.020446382462978363, 0.02596217393875122, 0.003592443186789751, -0.008579841814935207, -0.007669489830732346, 0.007446931675076485, 0.005793163087219, -0.004640395753085613, -0.014623254537582397, -0.00014085017028264701, 0.007491378113627434, -0.02866562455892563, -0.017715416848659515, -0.010479630902409554, 0.02416696771979332, -0.001415157108567655, 0.016191506758332253, -0.008078113198280334, -0.0033277287147939205, 0.02764884941279888, 0.007933419197797775, -0.005781847983598709, 0.00416788412258029, -0.008004902862012386, 0.022964749485254288, 0.015302333980798721, 0.022851085290312767, -0.024816466495394707, 0.013273447751998901, -0.00256369705311954, 0.0032132447231560946, -0.012144210748374462, 0.017098544165492058, -0.01974133774638176, -0.013419492170214653, -0.026335416361689568, 0.022829340770840645, -0.010446048341691494, -0.007603490725159645, 0.002279974054545164, 0.01925097219645977, 0.019146787002682686, 0.009292365051805973, -0.004541856702417135, 0.00853666290640831, -0.004415452014654875, 0.020522143691778183, -0.01675916276872158, 0.016895638778805733, -0.0022136117331683636, 0.003959625959396362, -0.02550746686756611, -0.014718355610966682, -0.018515100702643394, -0.018496140837669373, -0.02039242349565029, 0.012799270451068878, -0.006547323428094387, 0.020634850487113, -0.009616710245609283, 0.008256652392446995, -0.02098488062620163, 0.0036006364971399307, 0.004558338318020105, 0.017670344561338425, -0.01258604135364294, 0.02381557784974575, -0.01895870640873909, -0.028751838952302933], [-0.05278119444847107, -0.04553762078285217, -0.044766176491975784, -0.006116007454693317, 0.05369066819548607, -0.05046163499355316, -0.06196761876344681, -0.0457865372300148, 0.04772697389125824, 0.048666782677173615, 0.04108377918601036, -0.006611318793147802, 0.009621855802834034, -0.05790635198354721, -0.043391499668359756, -0.04132697731256485, -0.025758372619748116, -0.04566420242190361, 0.04514801874756813, 0.015696600079536438, 0.046603575348854065, 0.0093132508918643, 0.046698663383722305, 0.05493598431348801, 0.00699483510106802, -0.013548317365348339, -0.047744326293468475, -0.05234355106949806, 0.006015715654939413, -0.04974754527211189, -0.011984910815954208, -0.010585068725049496, 0.05729254335165024, 0.0528874546289444, 0.011240103282034397, -0.053468141704797745, 0.049060266464948654, -0.04939795285463333, 0.012104777619242668, 0.0544464997947216, 0.02051483280956745, -0.005057645961642265, 0.044462740421295166, -0.052118249237537384, 0.005719936452805996, -0.05364502593874931, 0.03991599380970001, -0.04965393990278244, 0.029051141813397408, -0.04695741832256317, 0.05202505365014076, -0.005444189067929983, 0.04584278538823128, -0.04624805226922035, 0.05280341953039169, -0.052476558834314346, 0.05073176696896553, -0.01993456296622753, 0.03948625922203064, -0.005477929022163153, -0.005632334388792515, -0.04121364280581474, 0.040171559900045395, 0.020307548344135284, -0.006371067371219397, -0.051232196390628815, 0.045049503445625305, 0.048788849264383316, 0.044546663761138916, -0.04175923019647598, 0.005234885029494762, 0.005567200481891632, 0.005635704379528761, -0.04725006967782974, 0.038756970316171646, -0.019288351759314537, 0.012814005836844444, 0.06580435484647751, -0.01869121380150318, -0.05406365916132927, 0.02996557019650936, -0.05320032313466072, 0.05642557144165039, -0.04361215978860855, -0.05048767849802971, -0.049171656370162964, 0.051844511181116104, -0.006989380810409784, 0.011090228334069252, -0.053480543196201324, 0.01122977863997221, -0.057093072682619095, 0.05046964809298515, 0.03503912314772606, 0.046574849635362625, -0.05335988476872444, 0.05418887734413147, 0.05461510643362999, -0.006801648996770382, -0.008739612996578217, -0.008921566419303417, -0.04899655655026436, 0.030714644119143486, -0.05325450375676155, 0.03493946045637131, -0.04559653624892235, 0.017082326114177704, -0.05128248408436775, 0.041058819741010666, -0.04349256679415703, 0.04972488060593605, 0.04982481151819229, 0.024444762617349625, 0.03971154987812042, 0.018749943003058434, -0.030599398538470268, 0.05099238455295563, -0.02906646393239498, 0.006295419298112392, -0.0057517834939062595, 0.04179007560014725, -0.04336011782288551, -0.007660295814275742, -0.025802386924624443, 0.03935984894633293, -0.04784013330936432, 0.006874518468976021, 0.029560450464487076], [-0.002356067067012191, -0.0002691122062969953, -0.00359642063267529, -0.001399852684698999, 0.0009074587724171579, -0.0016663905698806047, -0.002428497187793255, -0.00032537561492063105, 0.0005052057094871998, 0.0023301816545426846, 0.0018487493507564068, -0.0015913434326648712, 0.0010868256213143468, -0.0011059148237109184, -0.0017791826976463199, -0.0013539319625124335, -0.0014567445032298565, -0.000401227647671476, 0.004235384054481983, 0.002127782441675663, 0.0012873372761532664, 0.0006815092056058347, 0.0007538772188127041, 0.002571995137259364, 0.0003460093284957111, -0.0016404716297984123, -0.0007794338162057102, -0.0014714495046064258, 0.0019457360031083226, -0.0006854284438304603, -0.0033151814714074135, -0.0007341617019847035, 0.0004319672007113695, 0.0017081504920497537, 0.0014858923386782408, -0.001417702529579401, 0.00018468254711478949, -0.0008384839165955782, 0.004987006541341543, 0.0025934968143701553, 0.0005211745738051832, -0.0004020034393761307, 0.0010744063183665276, -0.0022410776000469923, 0.00021607227972708642, -0.0013737340923398733, 0.0014336558524519205, -0.0019477186724543571, 0.00034855538979172707, -0.0005781592917628586, 0.002141382545232773, -0.0034810437355190516, 0.0015857928665354848, -0.0019364802865311503, 0.00038480176590383053, -0.0011990427738055587, 0.0017199685098603368, -0.0025875079445540905, 0.0011106637539342046, -0.0011168969795107841, -0.0016620600363239646, -0.0019475214648991823, 0.0019725493621081114, 0.0007490532589145005, -0.0019441026961430907, -0.00019614353368524462, 0.0021180014591664076, 0.00042222579941153526, 0.00025247049052268267, -0.0016382678877562284, 0.0016891749110072851, 0.00019828334916383028, 0.0013300878927111626, -0.0006141228950582445, 0.001825688872486353, -0.00028049314278177917, 0.0015983493067324162, 0.0007867439417168498, -0.00042935420060530305, -0.002088405191898346, 0.0012525457423180342, -0.0012914532562717795, 0.0015958334552124143, -0.0002786489203572273, -0.0010281597496941686, -0.00017154330271296203, 0.0024794999044388533, -0.0022269028704613447, 0.0017991855274885893, -0.0016670041950419545, 0.0005034730420447886, -0.0007582500693388283, 0.00016747618792578578, 0.0008582597365602851, 0.0017760052578523755, -0.0016789629589766264, 0.0025907813105732203, 0.0010055836755782366, -0.002136670518666506, -0.0009141280315816402, -0.0007296664989553392, -0.0006553501589223742, 0.0011498413514345884, -0.0020354341249912977, 0.000692945730406791, -0.0005306997336447239, 0.0021916551049798727, -0.0011112431529909372, 0.0007078528869897127, -0.0015406114980578423, 0.0007615952636115253, 0.0015064566396176815, 0.0009679718059487641, 8.850215090205893e-05, 0.0006517853471450508, -0.0019817177671939135, 0.001028006081469357, -0.0010997902136296034, 0.0022374072577804327, -0.0014586083125323057, 0.0037460653111338615, -0.0015476207481697202, -0.0023220223374664783, -0.0020515674259513617, 4.637157326214947e-05, -0.001960936700925231, 0.0012054985854774714, 0.001188067370094359], [0.0006868342752568424, 0.0018260871293023229, 0.0026862886734306812, 0.0028175737243145704, -0.001972824102267623, 0.0011907877633348107, 0.002168552251532674, 0.0014177715638652444, -0.0007834247080609202, -0.00044633710058405995, -0.0018389278557151556, 0.0022617357317358255, -0.0023675933480262756, 0.0011330409906804562, 0.0021715015172958374, 0.0020397156476974487, 0.002498909365385771, 0.0019993341993540525, -0.0018351146718487144, -0.002699919743463397, -0.0022126194089651108, -0.001976415514945984, -0.0013043241342529655, -0.0021672649309039116, -0.001709663774818182, 0.002089130226522684, 0.0005304364021867514, 0.0009551527327857912, -0.001930773607455194, 0.0015996756264939904, 0.008113461546599865, 0.002174246357753873, -0.0017462304094806314, -0.002218708163127303, -0.0011212979443371296, 0.0017208814388141036, -0.0007204868597909808, 1.9250717741670087e-05, -0.0021380875259637833, -0.0024793464690446854, -0.0024006334133446217, 0.006073372904211283, -0.0005021130782552063, 0.0015718759968876839, -0.0009378879331052303, 0.0024634022265672684, -0.002273443154990673, 0.001000792719423771, -0.004615273792296648, 0.0026804206427186728, -0.0011052454356104136, 0.0017939571989700198, -0.0017619191203266382, 0.0014351391000673175, -0.0021660260390490294, 0.001459335908293724, -0.0024079575669020414, 0.004453842993825674, -0.0020818922203034163, 0.002412328962236643, 0.004322814755141735, 0.0017383091617375612, -0.0009883196325972676, -0.0020833695307374, 0.001421988708898425, 0.002341568935662508, -0.0004939216305501759, -0.0011324641527608037, -0.0008517747046425939, 0.002861923538148403, -0.0015324484556913376, -0.0024188472889363766, -0.0021789809688925743, 0.0002819632354658097, -0.0002100166748277843, 0.0024826214648783207, -0.001372910337522626, -0.000949347740970552, 0.004562753718346357, 0.0023114862851798534, -0.006579411216080189, 0.0015797766391187906, -0.0013027635868638754, 0.0010735319228842854, 0.0021041438449174166, 0.0022596910130232573, -0.0021419506520032883, 0.0013891813578084111, -0.001806369866244495, 0.0015344282146543264, -0.0013022134080529213, 0.002408526837825775, -0.002010410651564598, -0.0008694057469256222, -0.0016063929069787264, 0.0015451792860403657, -0.0011475126957520843, -0.0015380381373688579, 0.0014541295822709799, 0.002873105462640524, 0.0021837884560227394, 0.0017860860098153353, -0.00022731370700057596, 0.0019053133437409997, -0.0024025209713727236, 0.002240746980533004, -0.001311883213929832, 0.0010229275794699788, -0.0014583220472559333, 0.0009167877724394202, -0.0012701518135145307, -0.0016037276946008205, -0.0011961368145421147, -0.001954646548256278, -0.0024129662197083235, 0.0024583693593740463, -0.0017777462489902973, 0.0017127296887338161, -0.001290725776925683, 0.0004496632900554687, -0.005631817039102316, 0.002548852236941457, 0.004510850645601749, 0.0018891175277531147, -0.002652378985658288, 0.0023485086858272552, -0.002119786338880658, -0.0009119017049670219], [0.0007178295636549592, 0.0014722401974722743, 0.0024394430220127106, 0.0024828906171023846, -0.0015399273252114654, 0.0015972752589732409, 0.0013401361647993326, 0.0009326528524979949, -0.0025026064831763506, -0.001150035415776074, -0.001151019474491477, 0.0008474457426927984, -0.0016278760740533471, 0.0007344115292653441, 0.0023598603438585997, 0.0008182240999303758, 0.0057456111535429955, 0.0013955648755654693, -0.0008849096484482288, -0.00020352445426397026, -0.0020910752937197685, -0.0007192775956355035, -0.0012319340603426099, -0.0024372295010834932, -0.0026661260053515434, 0.0006876761326566339, 0.0022697318345308304, 0.0013057887554168701, -0.001852756948210299, 0.000782809394877404, 0.007692181970924139, 0.0011673147091642022, -0.0026509251911193132, -0.0019845133647322655, -0.0015393021749332547, 0.0025603657122701406, -0.001980169676244259, 0.0017527540912851691, -0.0025067925453186035, -0.0012277117930352688, -0.002474782057106495, 0.008448841981589794, -0.0007427789969369769, 0.0011539553524926305, -0.0024402581620961428, 0.0005125823663547635, -0.0011958623072132468, 0.0006005044560879469, -0.002188041340559721, 0.0024676283355802298, -0.000648978166282177, 0.002029285067692399, -0.0007206271402537823, 0.0013191386824473739, -0.0020509054884314537, 0.0012337049702182412, -0.001010571955703199, 0.005699946079403162, -0.0024307796265929937, 0.0008210763917304575, 0.0013063768856227398, 0.000815515173599124, -0.0012303724652156234, -8.209645602619275e-05, 0.0007860346231609583, 0.002306808717548847, -0.0024409168399870396, -0.0018068188801407814, -0.0014505586586892605, 0.0008995551033876836, -0.0021470629144459963, -0.0013674215879291296, -0.000892137351911515, 0.0024346497375518084, -0.0009684870601631701, 0.0017749752150848508, -0.003915289416909218, -0.0014408343704417348, 0.0024200088810175657, 0.0013971051666885614, -0.0009478922584094107, 0.001078340457752347, -0.0013209684984758496, 0.002249958459287882, 0.00188205495942384, 0.0015125120989978313, -0.0019448688253760338, 0.0023311700206249952, -0.002059845719486475, 0.0019322221633046865, -0.0035757641308009624, 0.0014803399099037051, -0.0012345454888418317, -0.0022656074725091457, -0.0009889223147183657, 0.0004682876169681549, -0.0018121707253158092, -0.0011710752733051777, 0.0008138507255353034, 0.0018207874381914735, 0.0008173754322342575, 0.005161858629435301, -0.0008269598474726081, 0.001482096267864108, -0.0013675112277269363, 0.0022051173727959394, -0.002570891985669732, 0.0018433643272146583, -0.0020445366390049458, 0.0015945746563374996, -0.0022430545650422573, -0.0027041775174438953, -0.0013591718161478639, -0.002939533209428191, -0.002388851949945092, 0.0017545927548781037, -0.006280230358242989, 0.0023123896680772305, -0.0008490977925248444, 0.0008267408120445907, -0.003158054780215025, 0.0016561170341446996, 0.0011917181545868516, 0.0014073761412873864, -0.0005135711980983615, 0.002263756701722741, -0.0016634183702990413, -0.002088498091325164], [0.0031293625943362713, 0.004445396363735199, 0.007617994211614132, 0.002079300582408905, -0.0018061113078147173, 0.001362142967991531, 0.001798972487449646, 0.002521681599318981, -0.0069782929494977, -0.0025278094690293074, -0.002355179050937295, 0.0013615464558824897, -0.0023973218630999327, 0.0025981864891946316, 0.0003736098587978631, 0.006538757123053074, 0.0024891586508601904, 0.002600207459181547, -0.0010639011161401868, -0.0007721369038335979, -0.001307721366174519, -0.00176930648740381, -0.0026832676958292723, -0.006976617965847254, -0.006872002966701984, 0.0052149537950754166, 0.001391666941344738, 0.0024948972277343273, -0.0020814312156289816, 0.002071874449029565, 0.00792898889631033, 0.001013270695693791, -0.005219501908868551, -0.0023450027219951153, -0.00171607022639364, 0.0019400231540203094, -0.005192914046347141, 0.0007451352430507541, -0.0022890036925673485, -0.004724390339106321, -0.006285680923610926, 0.00871795043349266, -0.0021514042746275663, 0.00294726830907166, -0.002455699723213911, 0.0036613531410694122, -0.006151687819510698, 0.00306470924988389, -0.0005180310108698905, 0.006040118169039488, -0.0003768833412323147, 0.00438164547085762, -0.002353271236643195, 0.0029394421726465225, -0.0014383678790181875, 0.002359755802899599, -0.0019297340186312795, 0.0031039284076541662, -0.0015558451414108276, 0.0003077523142565042, 0.0028402938041836023, 0.001937283668667078, -0.003347341902554035, -0.0017101526027545333, 0.0016881548799574375, 0.0006533346604555845, -0.007815154269337654, -0.0013652635971084237, -0.0002159494033548981, 0.002949046902358532, -0.0023988864850252867, -0.0011987397447228432, -0.00036740617360919714, 0.002205848228186369, -0.002346017397940159, 0.007809315342456102, -0.002371983602643013, -0.002591462805867195, 0.0022451914846897125, 0.0012266437988728285, -0.0010169465094804764, 0.001891197171062231, -0.0016125485999509692, 0.001736092264764011, 0.0022940312046557665, 0.00023668058565817773, -0.00043424934847280383, 0.0012663777451962233, -0.0027537676505744457, 7.341413584072143e-05, -0.006705101113766432, 0.0016978838248178363, -0.006134481634944677, -0.006282560992985964, -0.001487576519139111, 0.0026502672117203474, -0.0001874549634521827, -0.0011462538968771696, 0.0025968539994210005, 0.0028276995290070772, 0.0024253756273537874, 0.0019814884290099144, -0.002522660419344902, 0.0018502966267988086, -0.0024010504130274057, 0.001966992160305381, -0.004108494147658348, 0.0017475872300565243, -0.0020822903607040644, 0.002802959643304348, -0.0017075405921787024, -0.0010249644983559847, -0.01067245565354824, -0.004281089641153812, -0.005403087940067053, 0.0007252608775161207, -0.004459542687982321, 0.009132693521678448, -0.001092915772460401, 0.0026243957690894604, -0.0057814279571175575, 0.0018408667529001832, 0.0037843554746359587, 0.0009971559047698975, -0.0030379765667021275, 0.0038855825550854206, -0.0023447892162948847, -0.0025138412602245808], [0.0005503863212652504, 0.0005366476834751666, 0.00020009663421660662, 0.00243140896782279, -0.0008407452260144055, 0.0005412321188487113, 0.0009604631341062486, 0.0001884978119051084, -0.0011719794711098075, -0.00044619347318075597, -0.0021905952598899603, 0.001243645790964365, -0.0012768523301929235, 0.0025860979221761227, 0.00142567977309227, 0.0021222440991550684, 0.0014088860480114818, 0.002454448025673628, -0.0018657005857676268, -0.0002720882766880095, -0.0005748620606027544, -0.0019911068957298994, -0.00023030664306133986, -0.0024620667099952698, -0.0008655796409584582, 5.782336666015908e-05, 0.00045249646063894033, 0.0005748486146330833, -0.00027326849522069097, 0.0005376999615691602, 0.0017875531921163201, 0.002171567175537348, -0.0011492748744785786, -0.0033148108050227165, -0.0019406595965847373, 0.002165476093068719, -0.001955393236130476, 0.0012733760522678494, -0.0008744776132516563, -0.0026484201662242413, -7.295384421013296e-05, 0.001957253785803914, -0.0012263677781447768, 0.00032132084015756845, -0.0018678407650440931, 0.0005827262648381293, -0.0012169518740847707, 0.002030951203778386, -0.0024162628687918186, 0.000969640736002475, -0.003275820752605796, 0.0012452981900423765, -0.0017309391405433416, 0.0006083000916987658, -0.0015494863037019968, 0.0011151832295581698, -0.0020622669253498316, 0.0028597896452993155, -0.0027518323622643948, 0.0007604997954331338, 0.004505949094891548, 0.00156956457067281, -0.0016438706079497933, -0.0015330633614212275, 0.0008056023507378995, 0.002298992592841387, -0.0021036560647189617, -0.00045543123269453645, -0.001754578435793519, 0.0024392043706029654, -3.832398579106666e-05, -0.0025187807623296976, -0.0024630313273519278, 0.0024052653461694717, -0.0024946313351392746, 0.002213391475379467, -0.0012588008539751172, -0.0021174787543714046, 0.0026667704805731773, 0.0011905672727152705, -0.0019480627961456776, 0.0007624453864991665, -0.0015802211128175259, 0.0024390253238379955, 0.0016030333936214447, 0.0007135178311727941, -0.0005000673700124025, 0.002387500833719969, -0.0008596375118941069, 0.0009814470540732145, -0.0009473226964473724, 0.0019239353714510798, -0.0013535732869058847, -4.683586666942574e-05, -0.0007097573252394795, 0.002119100885465741, -0.0014536121161654592, -0.001658809371292591, 0.0016710801282897592, 8.337708277394995e-05, 0.0022502844221889973, 0.0017876463243737817, -0.002208184450864792, 0.0007578596123494208, -0.0012155446456745267, 0.00015321100363507867, -0.001081074820831418, 0.0008697822922840714, -0.0007327087223529816, 0.000817551335785538, -0.0006942184991203249, -0.002926068613305688, -0.0038681470323354006, -0.0033738266211003065, -0.0024260575883090496, 0.002277679042890668, -0.0023558910470455885, 0.00509133143350482, -0.0006197651382535696, 0.00039628849481232464, -0.0010933774756267667, 0.0025605596601963043, 0.003598698414862156, 0.0005906332517042756, -0.0005438279476948082, 0.002030337229371071, -0.00082439772086218, -0.0013593330513685942], [0.0013275417732074857, 0.002624941524118185, 0.0005729408585466444, 0.0018718137871474028, -0.0022523594088852406, 0.00012260046787559986, 0.0006085650529712439, 0.003601971548050642, -0.001334075233899057, -0.0012238757917657495, -0.0007663181168027222, 0.0008417472126893699, -0.0005619492148980498, 0.0010543761309236288, 5.587181658484042e-05, 0.0003927990037482232, 0.0020466726273298264, 0.0012173953000456095, -0.0014079774264246225, -7.348869257839397e-05, -0.002148627070710063, -0.0012160575715824962, -0.0010104142129421234, -0.00189704739023, -0.001343956682831049, 0.00032567777088843286, 0.0031264389399439096, 0.002338498132303357, -0.0009613592992536724, 0.0019690056797116995, 0.0008013258338905871, 0.0011222282191738486, -0.0015551880933344364, -0.0024547320790588856, -0.0010123976971954107, 0.00033090179204009473, -0.0011641965247690678, 0.0006167961400933564, -0.001502636936493218, -0.0014781414065510035, -0.004551124759018421, 0.00122304807882756, -0.002284890040755272, 0.0024260208010673523, -0.0016197793884202838, 0.0012094075791537762, -0.001944091753102839, 0.0006147348904050887, -0.0019409384112805128, 0.0014583230949938297, -0.002355301985517144, 0.0017489129677414894, -0.0019788406789302826, 0.0005626371712423861, -0.0019699865952134132, 0.0015819685067981482, -0.0005315546877682209, 0.007347851525992155, -0.0022350947838276625, 0.0005306677776388824, 0.000570154981687665, 0.001038233283907175, -0.001245196908712387, -0.00019023747881874442, 0.00420752540230751, 0.0011072116903960705, -0.00096351676620543, -0.0019990757573395967, -0.0008665642235428095, 0.00106303789652884, -0.0027161811012774706, -0.00019036646699532866, -0.0005484148859977722, 0.0031670292373746634, -0.002047809539362788, 0.0027019456028938293, -0.0015763880219310522, -0.0013636042131111026, 0.0018487776396796107, 0.00172576610930264, -0.0010235571535304189, 0.0008778243791311979, -0.0021022476721554995, 0.000251592107815668, 0.0003297307703178376, 0.00034716687514446676, -0.00011301704216748476, 0.0009381913696415722, -8.184646139852703e-05, 0.0017300922190770507, -0.0014215291012078524, 0.00038370434776879847, -0.0022315792739391327, -0.0008246808429248631, -0.001821579528041184, 0.001403596019372344, -0.0008668689406476915, -0.0019712767098098993, 0.0010200402466580272, 0.00018244716920889914, 0.0026236549019813538, 0.001972027588635683, -0.001815847004763782, 0.0004014744481537491, -0.0004198879760224372, 0.0001677839463809505, -0.0007643952267244458, 0.001149758230894804, -0.0006489123334176838, 0.0011499148095026612, -0.0013836872531101108, -0.001692710560746491, -0.0018357944209128618, -0.00126081018242985, -0.000762233801651746, 0.0001839436445152387, -0.0011299310717731714, 0.0020974897779524326, -0.00033941754372790456, 0.0017832292942330241, -0.0016374922124668956, 0.002557752188295126, 0.0031423394102603197, 0.0007299518911167979, -0.0021683641243726015, 0.0017171158688142896, -0.0006601412314921618, -0.000828981923405081], [-0.0029894548933953047, -0.0017932835035026073, -0.0022737670224159956, -0.00014330570411402732, 0.0019605138804763556, -0.00117879593744874, -0.0006625612732023001, -0.002358595374971628, 0.001947491429746151, 0.0006525649805553257, 0.0013810909586027265, -0.0019126069964841008, 0.003954662475734949, -0.0037481628824025393, -0.0037385239265859127, -0.0016989512369036674, -0.0012574582360684872, -0.002144106663763523, 0.0013729925267398357, 0.0016017066081985831, 0.0047175707295536995, 0.0022510949056595564, 0.0005634698318317533, 0.0018044967437162995, 0.001153753837570548, -0.001018389593809843, -0.001283694407902658, -0.0019129165448248386, 0.002228016499429941, -0.00042212402331642807, -0.001586742466315627, -0.00033891238854266703, 0.0005838577635586262, 0.0015082155587151647, 0.0008333692094311118, -0.001637619105167687, 0.0009854614036157727, -0.0006681333179585636, 0.0051209102384746075, 0.004463598132133484, 0.001882796990685165, -0.0005128262564539909, 0.00155745935626328, -0.0005711707635782659, 0.003033839864656329, -0.0010036483872681856, 0.0010442845523357391, -0.0011977023677900434, 0.0019063365180045366, -0.0005717272870242596, 0.0020435096230357885, -0.001645290176384151, 0.00037552783032879233, -0.0020640683360397816, 0.0012088788207620382, -0.0016507823020219803, 0.0009187302202917635, -0.0015378062380477786, 0.0009191352291963995, -0.006162125151604414, -0.00013305326865520328, -0.0015821565175428987, 0.004298150073736906, 0.0038705654442310333, -0.0013193633640184999, -0.002155340975150466, 0.000817325315438211, 0.0009872812079265714, 0.0007603145786561072, -0.0020319947507232428, 0.0001106879353756085, 0.0007553893374279141, 0.0005424286937341094, -0.0011315729934722185, 0.0004731539520435035, -0.002963015343993902, 0.0004629676986951381, 0.001412620535120368, -0.0012295583728700876, -0.0016724230954423547, 0.0011854233453050256, -0.0006479116273112595, 0.0015956301940605044, -0.006510043516755104, -0.0016002507181838155, -0.0017117721727117896, 0.0022757146507501602, -0.0005880333483219147, 0.0016673360951244831, -0.0004988019936718047, 0.00034292342024855316, -0.00021357822697609663, 0.0023240461014211178, 0.0006876953993923962, 0.001829440239816904, -0.0012218095362186432, 0.00044747479842044413, 0.0017802378861233592, -0.0009401634451933205, -0.0013877202291041613, -0.0010793698020279408, -0.0003940632741432637, 0.0011890145251527429, -0.0017965363804250956, 0.0002617020218167454, -0.0050362348556518555, 0.0008792817825451493, -0.0006961117614991963, 0.00041996341315098107, -0.00015069582150317729, 0.0008085739682428539, 0.000709718035068363, 0.002650965005159378, 0.0012311653699725866, 0.0019014199497178197, -0.00243550818413496, 0.00390642648562789, -0.0038238377310335636, 0.001327591366134584, -0.0020879621151834726, 0.0016170761082321405, -0.002324895467609167, -0.0022847128566354513, -0.0024366541765630245, 4.81125243823044e-05, -0.002354536671191454, 0.00017894382472150028, 0.002054379088804126], [-0.0031995626632124186, -0.001564467209391296, -0.002081352286040783, -0.001696073915809393, 0.0021476068068295717, -0.0021556750871241093, -0.003922120667994022, -0.002428017556667328, 0.0005783339729532599, 0.000992453540675342, 0.001506947330199182, -0.003634092630818486, 0.0033382459077984095, -0.0011108429171144962, -0.005374124273657799, -0.004380255937576294, -0.002448110142722726, -0.001004254212602973, 0.0066938865929841995, 0.0003607817634474486, 0.00031070937984623015, 0.005782587453722954, 0.0017141385469585657, 0.0006331811309792101, 0.0006412781658582389, -0.0021719930227845907, -0.0028052839916199446, -0.0012424072483554482, 0.00028342229779809713, -0.0010666509624570608, -0.002786628669127822, -0.00024742851383052766, 0.0012453945819288492, 0.0007188856252469122, 0.0009313106420449913, -0.0005455915816128254, 0.001641688053496182, -0.0015162527561187744, 0.004468401428312063, 0.005372526124119759, 0.000236510721151717, -0.0007398065063171089, 0.0019528133561834693, -0.0011454470222815871, 0.0025101876817643642, -0.003507287008687854, 0.0008071546326391399, -0.0004298478306736797, 0.0020888501312583685, -0.0023092678748071194, 0.0016215459909290075, -0.0010685628512874246, 0.0023681556340306997, -8.179009455488995e-05, 0.0010270669590681791, -0.001685664989054203, 0.0013240290572866797, -0.00676161190494895, 0.0032416521571576595, -0.0019026270601898432, -0.0015207837568596005, -0.000526550633367151, 0.00018458932754583657, 0.0022671674378216267, -0.006920164451003075, -0.0014315902953967452, 0.002451009349897504, 0.0016964462120085955, 0.0010297545231878757, -0.002963113831356168, 0.0012668821727856994, 0.0016642151167616248, 0.00038485476397909224, -0.0021088530775159597, 0.00039034156361594796, -0.0006967521621845663, 0.0008251341641880572, 0.0026106175500899553, -0.0019133606692776084, -0.0012071514502167702, 0.001978417159989476, -0.004032280296087265, 0.003540198551490903, -0.0012812574859708548, -0.004635046701878309, -0.006178736686706543, 0.0011117086978629231, -0.0015286068664863706, 9.643747034715489e-05, -0.0007440574700012803, 0.0016078854678198695, -0.0022194201592355967, 0.0007206311565823853, 0.0016451949486508965, 0.0017306505469605327, -0.0012664959067478776, 0.0006448559579439461, 0.00033539513242430985, -0.002707250416278839, -0.0028670968022197485, -0.001456337864510715, -0.0016362618189305067, 0.0018471113871783018, -0.0013908749679103494, 0.002010298427194357, -0.0010471706045791507, 0.0026547310408204794, -0.0004897716571576893, 0.0012106343638151884, -0.0010947966948151588, 0.0009841305436566472, 0.0019816202111542225, 0.0005217333091422915, 0.0005492136115208268, 0.0012150397524237633, -0.0011944500729441643, 0.0009377218666486442, -0.0005887650768272579, 0.003078688867390156, -0.002548173302784562, 0.0010072164004668593, -0.0007790250820107758, -0.0017358590848743916, -0.0015750090824440122, 0.0022985837422311306, -0.005079861264675856, 0.0009455632534809411, 0.004850206896662712], [0.0032975238282233477, 0.0006380333215929568, 0.0011636684648692608, 0.0002660883474163711, -0.0012741518439725041, 0.0018795967334881425, 0.0003676375199574977, 0.0007535819313488901, -5.763588342233561e-05, -0.00040425636689178646, -0.0012122245971113443, 0.0018520621815696359, -0.00047533350880257785, 0.0015749477315694094, 0.0006211266154423356, 0.0017304718494415283, 0.0008856097119860351, 0.001528061693534255, -0.00132422661408782, -0.0016074924496933818, -0.0014635113766416907, -0.0006029128562659025, -0.0018419832922518253, -0.002428766107186675, -0.0010322793386876583, 0.0015266099944710732, 0.0034380292054265738, 0.0024955281987786293, -0.0012653132434934378, 0.0013528456911444664, 0.0015096563147380948, 0.0016854233108460903, -0.0015119415475055575, -0.0005875182687304914, -0.0004612021439243108, 0.0015540352324023843, -0.00023253085964825004, 0.0020375761669129133, -0.002119152806699276, -0.0019558353815227747, -0.001813726732507348, 0.0007692750077694654, -0.001374274492263794, 0.002485038014128804, -0.0007044611847959459, 0.0007686267490498722, -0.0014263764023780823, 0.0010296371765434742, -5.055555811850354e-05, 0.0023367912508547306, -0.0023503138218075037, 0.00014459466910921037, -0.0015090092783793807, 0.0019186623394489288, -0.0009913474787026644, 0.001578815747052431, -0.0007246398599818349, 0.00032289637601934373, -0.0013468124670907855, 0.0009191655553877354, 0.003665029536932707, 5.509013499249704e-05, -0.00016572221647948027, -0.0022428021766245365, 0.001848126295953989, 0.0018314275657758117, -0.0019332425436004996, -0.0020849911961704493, -0.0007984484545886517, 0.0009011557558551431, -0.0010571755701676011, -0.0005920297699049115, -0.001792147639207542, 0.0019613003823906183, -0.0018720828229561448, 0.002761684823781252, -0.0005413630860857666, -0.0011163291055709124, 0.0003266040876042098, 0.0023157934192568064, -0.0008376389159820974, 0.0010912707075476646, -0.0007940798532217741, 0.0007321717566810548, 0.00048053983482532203, 0.0008168615167960525, -0.0013114683097228408, 0.0012181872734799981, -0.0023319467436522245, 0.00019832146062981337, -0.0022896199952811003, 0.0014698089798912406, -0.0006680558435618877, -0.0021732004825025797, -0.0014471327885985374, 0.0002792828599922359, -0.0023421377409249544, -0.00025370385264977813, 0.001681004767306149, 0.0029392996802926064, 0.001162477070465684, 0.0017581296851858497, -0.0013829838717356324, 0.002046970184892416, -0.0025791910011321306, 0.001127426396124065, -0.0012107145739719272, 0.0001440902560716495, -0.0013008509995415807, 0.000836093386169523, -0.00219514942727983, -0.00023404986131936312, -0.0018283488461747766, -0.0014769848203286529, -0.0005971285863779485, 0.0015105756465345621, -0.0017599791754037142, 0.002315209247171879, -2.679529643501155e-06, 0.0024200603365898132, -0.002449732506647706, 0.0027100855950266123, 0.0024896676186472178, 0.004840916022658348, -0.002118717646226287, 0.002207643585279584, -0.0008279110188595951, -0.0008441830868832767], [0.00369868497364223, 0.019196756184101105, 0.018000710755586624, 0.0169460941106081, -0.008825181983411312, 0.002152157248929143, 0.004057175014168024, 0.015089644119143486, -0.020509647205471992, -0.0033301599323749542, -0.0029060235247015953, 0.005977409891784191, -0.004351187497377396, 0.017735321074724197, 0.006068105809390545, 0.0036920905113220215, 0.0033019273541867733, 0.0033087972551584244, -0.013837925158441067, -0.022823113948106766, -0.014236697927117348, -0.013812643475830555, -0.013409302569925785, -0.012615012936294079, -0.012071306817233562, 0.00048702527419663966, 0.003670146455988288, 0.01346142403781414, -0.0119349779561162, 0.007823090068995953, 0.004448737017810345, 0.0029638486448675394, -0.009333241730928421, -0.0038446018006652594, -0.0040399376302957535, 0.006624682806432247, -0.011309385299682617, 0.00039221567567437887, -0.021759284660220146, -0.019953008741140366, -0.004322419408708811, 0.02071559429168701, -0.007982957176864147, 0.0041269767098128796, -0.005814385134726763, 0.005870338529348373, -0.0016578038921579719, 0.02045123092830181, -0.0014283363707363605, 0.0060044024139642715, -0.0036399359814822674, 0.02075532265007496, -0.002534726867452264, 0.005246022716164589, -0.012368101626634598, 0.004634613636881113, -0.0036490997299551964, 0.02226431295275688, -0.002358128549531102, 0.016257284209132195, 0.02146312966942787, 0.013112952932715416, -0.014510258100926876, -0.009019958786666393, 0.004377066623419523, 0.01451457291841507, -0.02336965873837471, -0.013336856849491596, -0.002604154171422124, 0.0027881984133273363, -0.02507617138326168, -0.01163003221154213, -0.002841697772964835, 0.0037371767684817314, -0.001653629238717258, 0.016329362988471985, -0.0030105996411293745, -0.005960184149444103, 0.025160271674394608, 0.0062856609001755714, -0.004092889372259378, 0.019533926621079445, -0.019451245665550232, 0.004989475943148136, 0.013150048442184925, 0.01770329661667347, -0.003618348389863968, 0.003217600053176284, -0.0027554885018616915, 0.006553045008331537, -0.01206925604492426, 0.013589279726147652, -0.004202768672257662, -0.011111580766737461, -0.020512009039521217, 0.016240103170275688, -0.0074097830802202225, -0.0013235335936769843, 0.0014813918387517333, 0.016629138961434364, 0.004017011262476444, 0.002892892574891448, -0.0005260789766907692, 0.001370387733913958, -0.0026578539982438087, 0.01525330264121294, -0.013057473115622997, 0.013692238368093967, -0.0021902895532548428, 0.0035307423677295446, -0.021630428731441498, -0.012151719070971012, -0.0035929137375205755, -0.014501271769404411, -0.01563386432826519, 0.003619458293542266, -0.00476339366286993, 0.021854890510439873, -0.0036456529051065445, 0.0036075226962566376, -0.017908580601215363, 0.013672699220478535, 0.01770816370844841, 0.0150819206610322, -0.012842768803238869, 0.018501512706279755, -0.0037764578592032194, -0.023183172568678856], [-0.025619173422455788, -0.01129554957151413, -0.01483287662267685, -0.024798115715384483, 0.018213624134659767, -0.03931162506341934, -0.03572491928935051, -0.014762488193809986, 0.019346514716744423, 0.011726613156497478, 0.058894798159599304, -0.018485911190509796, 0.02228662557899952, -0.013849600218236446, -0.02465958334505558, -0.017106574028730392, -0.010462277568876743, -0.026011696085333824, 0.012485239654779434, 0.006429718807339668, 0.01591607928276062, 0.02032790333032608, 0.010853043757379055, 0.018330197781324387, 0.012026178650557995, -0.06166234239935875, -0.011983897536993027, -0.02661704830825329, 0.01323024369776249, -0.017451589927077293, -0.01080392487347126, -0.033400971442461014, 0.03549259901046753, 0.017215808853507042, 0.01216072402894497, -0.011566263623535633, 0.020260047167539597, -0.03457840904593468, 0.01612720638513565, 0.015480070374906063, 0.029183292761445045, -0.007079826667904854, 0.012775033712387085, -0.009359616786241531, 0.01708708330988884, -0.016886500641703606, 0.029630133882164955, -0.027951663359999657, 0.07348787784576416, -0.01386307179927826, 0.009034004993736744, -0.007565327454358339, 0.01925276219844818, -0.022935261949896812, 0.014801903627812862, -0.00902217160910368, 0.012519803829491138, -0.008100861683487892, 0.027201080694794655, -0.016968687996268272, -0.010035060346126556, -0.027996694669127464, 0.02012004889547825, 0.010764400474727154, -0.014227689243853092, -0.006533944513648748, 0.007664289325475693, 0.00941371452063322, 0.029868021607398987, -0.014208832755684853, 0.01993381604552269, 0.01866830326616764, 0.011191065423190594, -0.018491098657250404, 0.021585049107670784, -0.015905318781733513, 0.029133187606930733, 0.022671271115541458, -0.014583065174520016, -0.026866164058446884, 0.1453232765197754, -0.02753329649567604, 0.024486789479851723, -0.012281334958970547, -0.011890207417309284, -0.019015438854694366, 0.021398525685071945, -0.03100370243191719, 0.02303995192050934, -0.026760267093777657, 0.01619245670735836, -0.016234517097473145, 0.019251668825745583, 0.03015870973467827, 0.010557643137872219, -0.012381140142679214, 0.03214328736066818, 0.03697643429040909, -0.04242482781410217, -0.01633411832153797, -0.01496085524559021, -0.01144482009112835, 0.13553006947040558, -0.03710086643695831, 0.01389335747808218, -0.024596525356173515, 0.016316285356879234, -0.025398598983883858, 0.06198127195239067, -0.025364916771650314, 0.016260605305433273, 0.009883765131235123, 0.028162313625216484, 0.013412927277386189, 0.008763366378843784, -0.07350984215736389, 0.014251263812184334, -0.010585416108369827, 0.01016438938677311, -0.01699664257466793, 0.007347045466303825, -0.028867725282907486, -0.006792176049202681, -0.024056611582636833, 0.010895385406911373, -0.01137743704020977, 0.027565108612179756, 0.020397784188389778], [0.005241464823484421, 0.0009042638121172786, 0.000740100396797061, 0.0057487026788294315, -0.0032105487771332264, 0.002141922013834119, 0.0016869385726749897, 0.007102245930582285, -0.005878697149455547, -0.0009309499873779714, -0.0025166866835206747, 0.0008108458132483065, -0.003448889823630452, 0.0049738031812012196, 0.006775663699954748, 0.0036493209190666676, 0.003890041261911392, 0.0016234420472756028, -0.0029162298887968063, -0.0008325729286298156, -0.0006369937909767032, -0.005924210883677006, -0.001222805818542838, -0.004296567291021347, -0.005196568090468645, 0.0014248498482629657, 0.006499364040791988, 0.001589133171364665, -0.0010090720606967807, 0.001036301488056779, 0.0022346300538629293, 0.0009488376090303063, -0.0010864142095670104, -0.004601021762937307, -0.0033194522839039564, 0.001468008034862578, -0.0007916378672234714, 0.0016988120041787624, -0.0063117071986198425, -0.004507776349782944, -0.0010412855772301555, 0.003756727324798703, -0.0009412344079464674, 0.005357928574085236, -0.005652166903018951, 0.00561211071908474, -0.0015451874351128936, 0.008994841016829014, -0.0008510812185704708, 0.007658695802092552, -0.0010077751940116286, 0.009057790040969849, -0.0014883618569001555, 0.0006851883954368532, -0.005303974729031324, 0.0005682298797182739, -0.005523191764950752, 0.0015127972001209855, -0.0018983562476933002, 0.005624412093311548, 0.001803519669920206, 0.0023647346533834934, -0.0012393287615850568, -0.0010827843798324466, 0.00178519485052675, 0.005134707782417536, -0.006163961719721556, -0.00018731779709924012, -0.0014507366577163339, 0.001768943970091641, -0.001278317766264081, -0.0011569545604288578, -0.004096708260476589, 0.000998942879959941, -0.0010698378318920732, 0.004012031480669975, -0.0016581800300627947, -0.006480792537331581, 0.0016155329067260027, 0.001823604921810329, -0.0008802338852547109, 0.0066194380633533, -0.0005802497616969049, 0.0014390324940904975, 0.00046259889495559037, 0.0006737489020451903, -0.0007678256370127201, 0.00010599252709653229, -0.002053640317171812, 0.00465657701715827, -0.0028772829100489616, 0.0039918068796396255, -0.0025087008252739906, -0.001148457988165319, -0.0019214743515476584, 0.004831519443541765, -0.003782678162679076, -0.0016082701040431857, 0.0012347386218607426, 0.005415822844952345, 0.0019304074812680483, 0.0017353628063574433, -0.00047350735985673964, 0.0019580863881856203, -0.0004897144972346723, 0.0014484593411907554, -0.0014670690288767219, 0.004595314152538776, -0.0010296222753822803, 0.004229342099279165, -0.001068359473720193, -0.008167007006704807, -0.0018134452402591705, -0.0022447456140071154, -0.0004656485980376601, 0.0022288344334810972, -0.002628497313708067, 0.004159838892519474, -0.004215973895043135, 0.0015020030550658703, -0.008325465954840183, 0.004105119034647942, 0.000777518842369318, 0.00215738732367754, -0.0035056457854807377, 0.002342651132494211, -0.004583270754665136, -0.00773130776360631], [-0.014441153965890408, -0.05897217616438866, -0.06326930969953537, -0.06923343986272812, 0.07576802372932434, -0.0767199769616127, -0.08366018533706665, -0.06698965281248093, 0.06751621514558792, 0.0700419470667839, 0.009423837065696716, -0.0661284476518631, 0.06178857013583183, -0.024877231568098068, -0.03156869113445282, -0.00931780505925417, -0.07917940616607666, -0.056602492928504944, 0.06410418450832367, 0.056754183024168015, 0.0631542056798935, 0.06674084067344666, 0.07010671496391296, 0.01208425685763359, 0.02612260915338993, -0.07864831387996674, -0.05877186730504036, -0.074214868247509, 0.0832291692495346, -0.06446602195501328, -0.049788616597652435, -0.03962036594748497, 0.08063340932130814, 0.07098734378814697, 0.08399922400712967, -0.08070284873247147, 0.07607001066207886, -0.07510023564100266, 0.06872647255659103, 0.01444968767464161, 0.028265055269002914, -0.05606161057949066, 0.06909619271755219, -0.0711192786693573, 0.07265692204236984, -0.07297123968601227, 0.06353269517421722, -0.060793302953243256, 0.043642353266477585, -0.0678028091788292, 0.07055127620697021, -0.05530575290322304, 0.07837168872356415, -0.07235027849674225, 0.07121554017066956, -0.08047850430011749, 0.05502921715378761, -0.06479525566101074, 0.06472345441579819, -0.00798121653497219, -0.062351930886507034, -0.06988868117332458, 0.0667041689157486, 0.06980612874031067, -0.06001831963658333, -0.051604364067316055, 0.008523142896592617, 0.07079428434371948, 0.0082977544516325, -0.008754855953156948, 0.05019986629486084, 0.009114054962992668, 0.07644982635974884, -0.06339425593614578, 0.01336241140961647, -0.010039051063358784, 0.0866570770740509, 0.011769664473831654, -0.04754963144659996, -0.07788509130477905, 0.019862204790115356, -0.007287780288606882, 0.08066290616989136, -0.06929805129766464, -0.07121428102254868, -0.0711512416601181, 0.0692153200507164, -0.08220969885587692, 0.08169771730899811, -0.07229448109865189, 0.0836096778512001, -0.08053596317768097, 0.07218284159898758, 0.06580927968025208, 0.06410126388072968, -0.008559086360037327, 0.020518602803349495, 0.07853611558675766, -0.06407879292964935, -0.08605007827281952, -0.0734662190079689, -0.06372004002332687, 0.05895930901169777, -0.07743283361196518, 0.013563661836087704, -0.06192890554666519, 0.011446940712630749, -0.06828515976667404, 0.054014284163713455, -0.07296575605869293, 0.03136816993355751, 0.0200066938996315, 0.08899810165166855, 0.008269201032817364, 0.059795722365379333, -0.06109202653169632, 0.08168905973434448, -0.07493993639945984, 0.07045763731002808, -0.006535534281283617, 0.05560579523444176, -0.06816225498914719, -0.006842406000941992, -0.022588243708014488, 0.0647282749414444, -0.06795227527618408, 0.06679588556289673, 0.056839700788259506], [0.0004472917353268713, 0.000694315938744694, 0.00151755940169096, 0.0024481320288032293, -0.0006985202780924737, 0.0009620736818760633, 0.0026823976077139378, 0.0010385256027802825, -0.0018956625135615468, -0.0022703027352690697, -0.0013379481388255954, 0.0012877751141786575, -0.001164877088740468, 0.0025826208293437958, 0.0021675792522728443, 0.0010449695400893688, 0.0010919141350314021, 0.0020422865636646748, -0.0022449723910540342, -0.0010348709765821695, -0.0015578953316435218, -0.0008100380073301494, -0.0011010071029886603, -0.0014749889960512519, -9.319487435277551e-05, 0.0019729456398636103, 0.0006884310278110206, 0.0010175114730373025, -0.000944931001868099, 0.001432629767805338, 0.0030704473610967398, 0.0023389486595988274, -0.0011078992392867804, -3.020897383976262e-05, -0.0010984597029164433, 0.002123770536854863, -0.00041968177538365126, 0.0018569754902273417, -0.0011926564620807767, -0.002127694198861718, -0.0025640439707785845, 0.00024240734637714922, -0.002214974258095026, 0.00195712991990149, -0.00110129383392632, 0.0008641869644634426, -0.0019105550600215793, 0.0017182478914037347, -0.0010697104735299945, 0.0010464348597452044, -0.002478276612237096, 0.004273355472832918, -0.0014455905184149742, 0.001805159728974104, -0.0015953406691551208, 0.0008712972048670053, -0.003852603491395712, 0.0003398388798814267, -0.0028085503727197647, 0.0005908737075515091, 0.00016200360551010817, 0.0019377554999664426, -0.001967796590179205, -0.0015515392879024148, 2.508299621695187e-05, 0.003501544939354062, -8.984415217128117e-06, -0.00020976492669433355, -0.0008406945853494108, 0.00235559418797493, -3.907166683347896e-05, -9.560533362673596e-05, -0.0017294824356213212, 0.0016394746489822865, -0.0021625589579343796, 0.0022738082334399223, -0.001055074157193303, -0.0018417448736727238, 0.00484893936663866, 0.00035976027720607817, -0.00020259636221453547, 0.0013758960412815213, -0.0015532615361735225, 0.0008725076331757009, 0.000788274803198874, 0.0007729078643023968, -0.0018065334297716618, 0.0011937145609408617, -0.0005133033264428377, 0.001365103293210268, -0.0019380600424483418, 0.0017356897005811334, -0.0006325104623101652, -0.0017484972486272454, -0.0006943671614862978, 0.0019009173847734928, -0.0025914793368428946, -0.00045335033792071044, 0.0005438601947389543, 0.0008099923143163323, 0.00211786525323987, 0.0005866035353392363, -0.0021294797770678997, 0.0007424544310197234, -0.0011631367960944772, 0.0002575106336735189, -0.0012782721314579248, 6.960553582757711e-05, -0.0022250814363360405, 0.0022600037045776844, -0.0012897015549242496, -0.0011102936696261168, -0.0015511373057961464, -0.0010730489157140255, -0.0023839809000492096, 0.002372757764533162, -0.001559325959533453, 0.0006090289680287242, -0.00013691652566194534, 8.593309757998213e-05, -0.0020613200031220913, 0.0011735159205272794, 0.0012952204560860991, 0.0025691904593259096, -0.002705671824514866, 0.002450190018862486, -0.000672479800414294, -0.0012904886389151216], [0.003910028375685215, 0.003030582796782255, 0.0014833738096058369, 0.0019952694419771433, -0.003999388311058283, 0.002015019068494439, 0.0011797687038779259, 0.0012028864584863186, -0.0007848467794246972, -0.00046072047553025186, -0.0013714405940845609, 0.001347235171124339, -0.0011744966031983495, 0.0010548924328759313, 0.0003516128927003592, 0.0021581307519227266, 0.0016276168171316385, 0.001959073357284069, -0.0029511244501918554, -0.0007631317130289972, -0.0014924593269824982, -0.0021057548001408577, -0.0024063093587756157, -0.00258338893763721, -0.004304549191147089, 0.0025455765426158905, 0.0011992637300863862, 0.0006283427355811, -0.0019064497901126742, 0.0023273902479559183, 0.0005871917237527668, 0.002296971157193184, -0.0024725827388465405, -0.0015839914558455348, -0.0018536862917244434, 0.004419065546244383, -0.0006656061159446836, 0.0022753679659217596, -0.0005036334623582661, -0.0027218805626034737, -0.00235962332226336, 0.0007818933809176087, -0.0015490641817450523, 0.002220981754362583, -0.002196249086409807, 0.0012324085691943765, -0.0005406488780863583, 0.0020781245548278093, -0.0005804298561997712, 0.0025178873911499977, -0.0020935602951794863, 0.0013085240498185158, -0.00012814358342438936, 0.0008296967134810984, -0.001601116731762886, 0.0008751149871386588, -0.0010027423268184066, 0.0026766033843159676, -0.0005167667404748499, 0.00023752239940222353, 0.0020959258545190096, 0.0008078723913058639, -0.0015355717623606324, -0.0025232138577848673, 0.0013367014471441507, 0.0029401553329080343, -0.002383454469963908, -0.000494586827699095, -0.002385050058364868, 0.002567300107330084, -0.0009423841256648302, -0.002653519855812192, -0.00047441499191336334, 0.002476442139595747, -0.0011820655781775713, 0.00013769396173302084, -0.002044475171715021, -0.0010800204472616315, 0.0005200827727094293, 0.0032010420691221952, -0.002407961757853627, 0.0018159563187509775, -0.000892842945177108, 0.002010441618040204, 0.002072130562737584, 0.0017952279886230826, -0.0005526692257262766, 0.0017360793426632881, -0.002188925165683031, 0.0010583094554021955, -0.0014045370044186711, 0.0005325729725882411, -0.0027507722843438387, -0.00030252538272179663, -0.004871103446930647, 0.0012037057895213366, -0.0013045993400737643, -0.0011978670954704285, 0.0014757929602637887, 0.002259118016809225, 0.0021665298845618963, 0.0018522714963182807, -0.001550921588204801, 0.0007010884000919759, -0.0012496771523728967, 0.0016166724963113666, -0.0018508642679080367, 0.0012041409499943256, -8.740490739000961e-05, 0.006157230120152235, -0.0027423410210758448, -0.0014892498729750514, -0.00150297989603132, -0.0004184128192719072, -0.0022001019679009914, 0.0009748202282935381, -0.0009328482556156814, 0.002873957622796297, -0.0006755375070497394, 0.0022201836109161377, -0.007211004383862019, 0.0023210407234728336, 0.0010130176087841392, 0.004214426502585411, -0.0018946530763059855, 0.001070770318619907, -0.004144059494137764, -0.0007753131212666631], [0.002246071118861437, 0.004614982288330793, 0.0014559437986463308, 0.003711314871907234, -0.002652530325576663, 0.0014121868880465627, 0.0018844136502593756, 0.0020922922994941473, -0.0024940078146755695, -0.0008417587960138917, -0.0001915120956255123, 0.0009584898361936212, -0.0010576320346444845, 0.00012502043682616204, 0.00035436899634078145, 0.0005967256729491055, 0.0019671074114739895, 0.0011150265345349908, -0.0010761808371171355, -0.002420006785541773, -0.0017755483277142048, -0.0054238722659647465, -0.0017834592144936323, -0.003815321484580636, -0.0026631811633706093, 0.002565436065196991, 0.0009699693182483315, 0.0014516169903799891, -0.002578988205641508, 0.004141343291848898, 0.0019419421441853046, 0.00014777309843339026, -0.0015658983029425144, -0.002094554714858532, -0.00037769158370792866, 0.002339832717552781, -0.0006501704338006675, 0.003160670166835189, -0.002118178876116872, -0.003177347593009472, -0.0027541378512978554, 0.0007866749074310064, -0.0022206578869372606, 0.0012688462156802416, -0.001833269139751792, 0.00204156874679029, -0.002379726618528366, 0.000794322113506496, -0.0011889644665643573, 0.002485944889485836, -0.0017974080983549356, 0.0017468673177063465, -0.0021887971088290215, 0.0008249775855802, -0.002145351842045784, 0.0009523512562736869, -0.0005180387524887919, 0.0024954592809081078, -0.0013202069094404578, 0.0015315614873543382, 0.0017373821465298533, 0.0010356580605730414, -0.0002683915663510561, -0.004343451000750065, 0.004710552282631397, 0.0022513659205287695, -0.004680822603404522, -0.0005530289490707219, -0.001240457408130169, 0.00293583981692791, -0.0021052842494100332, -0.001297823153436184, -0.0013252509525045753, 0.00014184728206600994, -0.0025659948587417603, 0.0020253947004675865, -0.0014085698639973998, -0.0006106972577981651, 0.0003865103062707931, 0.002023582113906741, -0.0021080730948597193, 0.0005271252011880279, -0.002425937680527568, 0.0007807251531630754, 0.0014074956998229027, 0.0018924688920378685, -0.002064818749204278, 0.0008466477156616747, -0.0007435571751557291, 0.0008874289342202246, -0.0007849883404560387, 0.0010039459448307753, -0.003517202800139785, -0.002728123217821121, -0.0018469782080501318, 0.0002988411288242787, -0.000993116875179112, -0.002161337062716484, 0.0010363934561610222, 0.001540113240480423, 0.0015708431601524353, 0.00230416189879179, -0.0009435043320991099, 0.0015595522709190845, -0.0016319529386237264, 0.0023775151930749416, -0.002294444013386965, 0.0016838937299326062, -0.0007876143790781498, 0.0023648827336728573, -0.0015638802433386445, -0.001624325872398913, -0.0026097726076841354, -0.001513326191343367, -0.000951011199504137, 0.001093140454031527, -0.0017169404309242964, 0.000518116052262485, -0.003172326600179076, 0.001634071348235011, -0.008607949130237103, 0.002089974470436573, 0.001741067855618894, 0.0015156209701672196, -0.0026046906132251024, 0.002322837710380554, -0.0006269788718782365, -0.0008966949535533786], [-0.03958302363753319, -0.004166767466813326, -0.00561151560395956, -0.007901627570390701, 0.019052712246775627, -0.02541971392929554, -0.0365527868270874, -0.004334962461143732, 0.04194846376776695, 0.036949217319488525, 0.03717707470059395, -0.03901292756199837, 0.04473543167114258, -0.04283732920885086, -0.004635803867131472, -0.004571063444018364, -0.0053686825558543205, -0.03277716413140297, 0.03603183850646019, 0.040953971445560455, 0.01677139475941658, 0.004247358534485102, 0.03582093492150307, 0.0393400564789772, 0.0352463573217392, -0.004246688913553953, -0.038807179778814316, -0.006169899366796017, 0.03928365930914879, -0.006688321940600872, -0.007969320751726627, -0.036160778254270554, 0.004877321422100067, 0.04075845330953598, 0.009293602779507637, -0.040590591728687286, 0.036600030958652496, -0.004200473427772522, 0.035365037620067596, 0.0043951719999313354, 0.03761064261198044, -0.03320090100169182, 0.029505563899874687, -0.041047658771276474, 0.042859625071287155, -0.04168936237692833, 0.01953291893005371, -0.04422387108206749, 0.008141371421515942, -0.005095514003187418, 0.03854905441403389, -0.039423711597919464, 0.02609650045633316, -0.0060733612626791, 0.006976613774895668, -0.036584217101335526, 0.036498017609119415, -0.022661566734313965, 0.022460056468844414, -0.039305347949266434, -0.005084791220724583, -0.036922529339790344, 0.004351209849119186, 0.03341211751103401, -0.004046469461172819, -0.04025764763355255, 0.004480551928281784, 0.03408208116889, 0.013888685964047909, -0.004491209518164396, 0.040317103266716, 0.04224450886249542, 0.014388959854841232, -0.004218761809170246, 0.013715061359107494, -0.028920430690050125, 0.01779143139719963, 0.047680117189884186, -0.03935890644788742, -0.003981701098382473, 0.01205157209187746, -0.04058849811553955, 0.046862758696079254, -0.012181648053228855, -0.037045981734991074, -0.04217090457677841, 0.03021639958024025, -0.04275919497013092, 0.027906818315386772, -0.036579180508852005, 0.03814274072647095, -0.005354216322302818, 0.04113870859146118, 0.004927357193082571, 0.041674740612506866, -0.01794409565627575, 0.035554952919483185, 0.0060861557722091675, -0.002940953243523836, -0.0434061624109745, -0.028430379927158356, -0.03676356002688408, 0.0031878123991191387, -0.03335747867822647, 0.010416470468044281, -0.03704674169421196, 0.010603622533380985, -0.039108842611312866, 0.024980252608656883, -0.008845595642924309, 0.0040787504985928535, 0.0393834263086319, 0.043740056455135345, 0.0056371018290519714, 0.01323661021888256, -0.028438737615942955, 0.02951204963028431, -0.046143271028995514, 0.004832929000258446, -0.006345332600176334, 0.018593842163681984, -0.03627757355570793, -0.02728630229830742, -0.042500339448451996, 0.02858380228281021, -0.004512322600930929, 0.00472472608089447, 0.04318908229470253], [0.0023415707983076572, 0.0036876569502055645, 0.0014709504321217537, 4.213094143779017e-05, -0.0015008550835773349, 0.0013015433214604855, 0.0020398611668497324, 0.00199303706176579, -0.0011145930038765073, -0.0008185524493455887, -0.0011848534923046827, 8.59502688399516e-05, -0.0007166709401644766, 0.0021135914139449596, 0.002213330240920186, 0.0020890086889266968, 0.001154329045675695, 0.0008420850499533117, -0.002253520069643855, -0.0004928166745230556, -0.0007954497705213726, -0.0015855557285249233, -0.0023606461472809315, -0.0012891951482743025, -0.000571827928069979, 0.0010332916863262653, 0.0009887457126751542, 0.0019693418871611357, -0.0014825219986960292, 0.001831979607231915, 0.0019062747014686465, 0.001434622216038406, -0.0020126481540501118, -0.001624284777790308, -0.0014964569127187133, 0.002034748438745737, -0.0008278547320514917, 0.0005747767281718552, -0.0011800340143963695, -0.0015356719959527254, -0.0016132042510434985, 0.0020897514186799526, -0.0010845555225387216, 0.0020048683509230614, -0.0025763993617147207, 0.00044434191659092903, -0.0013207581359893084, 0.0017154536908492446, -0.0021472880616784096, 0.0022117523476481438, -0.0010447680251672864, 0.004498430993407965, -0.0015801447443664074, 0.000327375833876431, -0.0004800434981007129, 0.0012133754789829254, -0.002272771904245019, 0.001204092986881733, -0.0005527003086172044, 0.00044381452607922256, 0.002375228563323617, 0.0012398735852912068, -0.00219115917570889, -0.0008653129334561527, 0.0015658667543902993, 0.0006474297842942178, -0.0012098868610337377, -0.00019254640210419893, -0.0012924926122650504, 0.0023661982268095016, -0.0010914065642282367, -0.0005634853732772171, -0.0002652210823725909, 0.0028384923934936523, -0.0006911457749083638, 0.001075498410500586, -0.0021102167665958405, -0.002393656875938177, 0.0012426655739545822, 0.002207804936915636, -0.002106567844748497, 0.001676490530371666, -0.0009671110892668366, 0.0007123503601178527, 0.0013821818865835667, 0.00024489325005561113, -0.0012889214558526874, 0.0014840178191661835, -0.00034264245186932385, 0.0018909942591562867, -0.002250896068289876, 0.0014844597317278385, -0.0012727678986266255, -0.0033896763343364, -0.0003099633613601327, 0.0016132224118337035, -0.0008361281943507493, -0.0011925547150895, 0.0005899537354707718, 7.956865738378838e-05, 0.0016705687157809734, 0.001400359789840877, -0.000928595953155309, 0.001325183897279203, -0.0015012057265266776, 0.0015672862064093351, -0.00044881319627165794, 2.4291484805871733e-05, -0.0006733766640536487, 0.0007604094571433961, -0.0017439265502616763, -0.0016737482510507107, -0.0015558741288259625, -0.0020303018391132355, -0.0010877323802560568, 0.0004814937710762024, -0.00017132605717051774, 0.0022222520783543587, -0.002150909509509802, 0.00022195963538251817, -0.001966136274859309, 0.0024384285788983107, 0.0028497602324932814, 0.0008793330052867532, -0.0016474829753860831, 0.00019282424182165414, -0.0017954505747184157, -0.0013160823145881295], [-0.0076571195386350155, -0.012753509916365147, -0.0034890403039753437, -0.00403664680197835, 0.008440788835287094, -0.0005514264921657741, -0.01847042702138424, -0.003292044624686241, 0.019896602258086205, 0.003237383672967553, 0.008530110120773315, -0.013595310971140862, 0.00325430347584188, -0.002756367903202772, -0.007414958905428648, -0.0034286631271243095, -0.009251748211681843, -0.002687101950868964, 0.012117214500904083, 0.019783923402428627, 0.01304556429386139, 0.010149655863642693, 0.006755041424185038, 0.0024945023469626904, 0.001482316991314292, -0.007894900627434254, -0.00294858799315989, -0.010380888357758522, 0.0031455932185053825, -0.0029581876005977392, -0.005500771105289459, -0.001087424112483859, 0.001906328834593296, 0.012485960498452187, 0.005783488508313894, -0.005423134658485651, 0.002447522711008787, -0.008035421371459961, 0.015013323165476322, 0.0036098072305321693, 0.007498353719711304, -0.0044713267125189304, 0.001973132835701108, -0.010223731398582458, 0.0181109681725502, -0.015290243551135063, 0.0015858542174100876, -0.02006751485168934, 0.00042342825327068567, -0.016611197963356972, 0.0025896925944834948, -0.01779879629611969, 0.002192950574681163, -0.0017141810385510325, 0.008586236275732517, -0.008213367313146591, 0.015286624431610107, -0.019724290817975998, 0.00201817718334496, -0.015267429873347282, -0.015489296056330204, -0.008473554626107216, 0.009668189100921154, 0.0024365829303860664, -0.015278573147952557, -0.014831270091235638, 0.02173776738345623, 0.002099460456520319, 0.0020417647901922464, -0.0014652136014774442, 0.01880314201116562, 0.002863909350708127, 0.0021610769908875227, -0.014352459460496902, 0.00199116300791502, -0.0024146849755197763, 0.006081518717110157, 0.0027338226791471243, -0.010493457317352295, -0.0047019245103001595, 0.001534179551526904, -0.011686396785080433, 0.0021294320467859507, -0.0030358294025063515, -0.006969287991523743, -0.006212221458554268, 0.014144440181553364, -0.0011286226799711585, 0.0021382151171565056, -0.002425434999167919, 0.004387696273624897, -0.0073610153049230576, 0.0028784757014364004, 0.004002123139798641, 0.012336057610809803, -0.019679538905620575, 0.0030617224983870983, 0.001606097212061286, -0.0002631181851029396, -0.0033535133115947247, -0.00899032037705183, -0.0024175916332751513, 0.0004963422543369234, -0.0019330139039084315, 0.0010324694449082017, -0.0038894549943506718, 0.006798667833209038, -0.006927506998181343, 0.022361697629094124, -0.005753397475928068, 0.0035350557882338762, 0.002404032740741968, 0.0023250081576406956, 0.014584938064217567, 0.021621759980916977, -0.022650940343737602, 0.001660192385315895, -0.013778693974018097, 0.012772450223565102, -0.0036183432675898075, 0.01638181507587433, -0.0037630898877978325, -0.012411478906869888, -0.0015134208370000124, 0.002755628200247884, -0.011380153708159924, 0.00416956702247262, 0.003728874959051609], [0.01878519169986248, 0.014817156828939915, 0.024942951276898384, 0.013304592110216618, -0.017702452838420868, 0.017493274062871933, 0.008501478470861912, 0.01807524263858795, -0.024514328688383102, -0.014643068425357342, -0.05401596799492836, 0.013247545808553696, -0.00748562254011631, 0.03225373849272728, 0.014688855037093163, 0.015055757947266102, 0.017255635932087898, 0.016077721491456032, -0.013232800178229809, -0.006164525635540485, -0.008224043995141983, -0.008350980468094349, -0.021496716886758804, -0.018537474796175957, -0.012316792272031307, 0.03713436797261238, 0.0056948186829686165, 0.022974474355578423, -0.02350674383342266, 0.021169641986489296, 0.018581392243504524, 0.020130835473537445, -0.01788613200187683, -0.015023453161120415, -0.009964235126972198, 0.02070855349302292, -0.010016294196248055, 0.016352059319615364, -0.0070212604478001595, -0.02316407859325409, -0.016695523634552956, 0.0062080309726297855, -0.016138218343257904, 0.02916722744703293, -0.007577766198664904, 0.016483362764120102, -0.025595473125576973, 0.017374584451317787, -0.04493233188986778, 0.012274128384888172, -0.016740940511226654, 0.012321054004132748, -0.024119649082422256, 0.00920139905065298, -0.00816182792186737, 0.0186423659324646, -0.012130721472203732, 0.006652098149061203, -0.03118809312582016, 0.0204695463180542, 0.012967297807335854, 0.011576239950954914, -0.011701027862727642, -0.03008989617228508, 0.006708131171762943, 0.017028653994202614, -0.017219364643096924, -0.021974598988890648, -0.02509906329214573, 0.01175475399941206, -0.013015810400247574, -0.012229537591338158, -0.017359072342514992, 0.014764535240828991, -0.02398492582142353, 0.018883027136325836, -0.040942709892988205, -0.01925230585038662, 0.005727686919271946, 0.017592601478099823, -0.13887396454811096, 0.013036990538239479, -0.014440946280956268, 0.019488533958792686, 0.008766897954046726, 0.024327050894498825, -0.006932194344699383, 0.02151820994913578, -0.023184651508927345, 0.01638086326420307, -0.010758294723927975, 0.02287292666733265, -0.00887195486575365, -0.014222697354853153, -0.010803385637700558, 0.007871093228459358, -0.04635271430015564, -0.020357225090265274, 0.12594085931777954, 0.00980136077851057, 0.01004051323980093, 0.007587424945086241, -0.05485689640045166, 0.021129021421074867, -0.1873360127210617, 0.01487596333026886, -0.018335415050387383, 0.013412276282906532, -0.021679796278476715, 0.016665343195199966, -0.018696822226047516, -0.01691526733338833, -0.009395713917911053, -0.011713295243680477, -0.013604437932372093, 0.014564776793122292, -0.010997559875249863, 0.022108281031250954, -0.009136143140494823, 0.007951418869197369, -0.0065130386501550674, 0.01915755495429039, 0.013691890053451061, 0.031525202095508575, -0.014607573859393597, 0.007082033436745405, -0.023976199328899384, -0.014259121380746365], [0.02373605966567993, 0.026567190885543823, 0.026030365377664566, 0.0245475172996521, -0.01696603372693062, 0.004654220771044493, 0.031926896423101425, 0.015057978220283985, -0.026178717613220215, -0.022142106667160988, -0.01699521765112877, 0.02646416611969471, -0.02725333161652088, 0.01974378526210785, 0.019027946516871452, 0.026994716376066208, 0.004138766787946224, 0.018593313172459602, -0.022716619074344635, -0.02874179556965828, -0.02389335446059704, -0.025762030854821205, -0.024696622043848038, -0.02226046472787857, -0.02174834907054901, 0.007912877947092056, 0.029459413141012192, 0.004630944691598415, -0.005131858866661787, 0.024480313062667847, 0.007114463485777378, 0.016111010685563087, -0.021345311775803566, -0.025938833132386208, -0.003734761383384466, 0.024267833679914474, -0.004349082708358765, 0.003202596213668585, -0.00684376759454608, -0.0265484806150198, -0.025974662974476814, 0.025814363732933998, -0.01558999065309763, 0.022519120946526527, -0.026296909898519516, 0.02868315950036049, -0.01099315844476223, 0.02965097315609455, -0.010527933947741985, 0.007512966170907021, -0.026015223935246468, 0.03026122972369194, -0.003143700771033764, 0.008888397365808487, -0.023818068206310272, 0.016239751130342484, -0.005831473041325808, 0.011295940726995468, -0.01352902315557003, 0.025538111105561256, 0.03267744556069374, 0.0049468898214399815, -0.01909642666578293, -0.017735900357365608, 0.029322776943445206, 0.028649015352129936, -0.005452441982924938, -0.019048206508159637, -0.005624927580356598, 0.012037310749292374, -0.03237534314393997, -0.023568060249090195, -0.018147071823477745, 0.02837487682700157, -0.0035833728034049273, 0.02380315028131008, -0.015089827589690685, -0.004526177421212196, 0.03347397968173027, 0.015673387795686722, -0.003024432575330138, 0.004246256314218044, -0.0266930740326643, 0.027195872738957405, 0.020532673224806786, 0.020606253296136856, -0.02633737213909626, 0.02449885569512844, -0.01164406631141901, 0.019783034920692444, -0.023091403767466545, 0.027660274878144264, -0.026632312685251236, -0.02377774380147457, -0.02899528294801712, 0.02683703415095806, -0.020471116527915, -0.01264213863760233, 0.002755383960902691, 0.028891630470752716, 0.026069434359669685, 0.021860864013433456, -0.005742599721997976, 0.019321933388710022, -0.001497050398029387, 0.0221965741366148, -0.02400320954620838, 0.025608088821172714, -0.011834089644253254, 0.02304273284971714, -0.031717363744974136, -0.006737453397363424, -0.025840837508440018, -0.02191956900060177, -0.023606309667229652, 0.020054835826158524, -0.015263054519891739, 0.028489507734775543, -0.00430374126881361, 0.0071954247541725636, -0.024184197187423706, 0.019409656524658203, 0.004434302449226379, 0.004393566399812698, -0.016195757314562798, 0.005311100743710995, -0.025576043874025345, -0.03172234445810318], [-0.002581200795248151, -0.0017747047822922468, -0.0017109328182414174, -0.002197341062128544, 0.0019973767921328545, -0.0010264908196404576, -0.0013889503898099065, -0.0015148528618738055, 0.004307684022933245, 0.001923576695844531, 0.000994921545498073, -0.0021997352596372366, 0.0027504684403538704, -0.0006146900122985244, -0.0023584773298352957, -0.0026711137033998966, -0.0001629455655347556, -0.001684086280874908, 0.0017933278577402234, 0.0027907586190849543, 0.0005980084533803165, 0.002345761051401496, 0.0016738114645704627, 0.0008800628711469471, 0.00176554499194026, -0.0025643755216151476, -0.0022902784403413534, -0.0015058673452585936, 0.0015385654987767339, -0.002678853226825595, -0.003633242566138506, -0.0024522857274860144, 0.0018988304072991014, 0.0010716530960053205, 0.0005127770709805191, -8.769480336923152e-05, 0.00032199977431446314, -0.0014546486781910062, 0.0034477566368877888, 0.005062861368060112, 0.0018353364430367947, -0.006641318555921316, 0.0020600375719368458, -0.0021949540823698044, 0.0020622843876481056, -1.8774766186169245e-09, 0.0019450881518423557, -0.0021172608248889446, 0.0022979658097028732, -0.0003237786004319787, 0.0017858002102002501, -0.004099911078810692, 0.002541256370022893, -0.0015598745085299015, 0.000980025390163064, -0.002358704339712858, 0.004301858134567738, -0.0026723500341176987, 0.0026432168669998646, -0.0004283374873921275, -0.0009098126902244985, -0.0019201665418222547, 0.0020870405714958906, 0.0023583730217069387, -0.0006119665340520442, -0.002131815766915679, 0.0008740974590182304, 4.5506592869060114e-05, 0.00413235230371356, -0.0022253713104873896, 0.0014603306772187352, 0.00022187651484273374, 0.005014596972614527, -0.0007212950731627643, 0.0004693860828410834, -0.009305371902883053, 0.0017830325523391366, 0.0002725092926993966, -0.0007659674738533795, -0.001206811866723001, 0.002193857915699482, -0.0013156617060303688, 0.0015200066845864058, -0.0013838211307302117, -0.0005794810131192207, -0.0005241204635240138, 0.0016272810753434896, -0.002578070852905512, 0.004869823809713125, -0.00044922364759258926, 0.002536021638661623, -0.00024567588116042316, 0.0008601145818829536, 0.0025859754532575607, 0.0016244177240878344, -0.002179055940359831, 0.0018200905760750175, 0.0019629213493317366, -0.0029333189595490694, -0.002673408482223749, -0.0026564793661236763, -0.0004678988188970834, 0.0021957189310342073, -0.0031276182271540165, 0.0007120408117771149, -0.0015977167058736086, 0.00213981862179935, -0.000971642613876611, 0.0008659433806315064, -0.0026182939764112234, 0.0011144125601276755, 9.414826490683481e-05, 0.003171640681102872, 0.002021663822233677, 0.0019938938785344362, -0.0023964124266058207, 0.0023378098849207163, -0.0015680771321058273, 0.0015695126494392753, -0.0022395437117666006, 0.0012040548026561737, -0.00029499520314857364, -0.0013415495632216334, -0.0006722589023411274, 0.0003680397348944098, -0.00446765823289752, 0.0019484516233205795, 5.0268095947103575e-05], [-0.0031873341649770737, -0.0022532008588314056, -0.0020965838339179754, -0.001322900759987533, 0.0005280449404381216, -0.001958486856892705, -0.00025979429483413696, -0.002154431538656354, 0.0021347948350012302, 0.0002675452269613743, 0.0011731947306543589, -4.5933247747598216e-05, 0.0041248067282140255, -0.000657659606076777, -0.0029569610487669706, -0.0021376272197812796, -0.0013897278113290668, -0.001541901845484972, 0.000589377770666033, 0.000715558067895472, 0.0004751924134325236, 0.0016876979498192668, 0.0015914755640551448, 0.0018388376338407397, 0.0006984955980442464, -0.0002829238655976951, -0.002261487068608403, -0.0004771813692059368, 0.0007081415969878435, -0.0013363766483962536, -0.0013002596097066998, -0.0009240435902029276, 0.0027962131425738335, 0.0023753996938467026, 9.394373773830011e-05, -0.0016761760925874114, 0.0013651864137500525, -0.0014928419841453433, 0.005053434520959854, 0.0020802896469831467, 0.0019320693099871278, -0.0013381590833887458, 0.0020861979573965073, -0.0022642542608082294, 0.0005794849712401628, -0.002302795182913542, 0.002241542562842369, -0.0020723065827041864, 0.001753494841977954, -0.0009732324397191405, 0.001956555526703596, -0.0007076368783600628, 0.0002107704640366137, -0.0012830955674871802, 0.002196658868342638, -0.0015839363913983107, 0.0012836272362619638, -0.0028192964382469654, 0.0022435723803937435, -0.00015284134133253247, -0.0007497324259020388, -0.0001748206268530339, 0.002042796229943633, 6.9952875492163e-05, -0.002339628990739584, -0.0009184129303321242, 0.0023393542505800724, 0.0005607606144621968, 0.0012338610831648111, -0.0022617231588810682, 0.0011860918020829558, 0.0030241503845900297, 0.00020937541557941586, -0.004193470347672701, 0.0008165707695297897, -0.0027872431091964245, 0.0023450448643416166, 0.00032133469358086586, -0.0016360554145649076, -0.0015640318160876632, 0.002489173086360097, -0.0013329657958820462, 0.002001408953219652, -0.002490679267793894, -0.0019270314369350672, -0.0010160418460145593, 0.0012416685931384563, -0.0012792469933629036, 0.0026698645669966936, -0.00016406562644988298, 6.759344250895083e-05, -0.0021149811800569296, 0.001852753572165966, 0.0020660795271396637, 0.0012579582398757339, -0.0006789169856347144, 2.1502193703781813e-05, 0.001246261177584529, -0.0026957886293530464, -0.0024655265733599663, -0.00038373286952264607, -0.0009880225406959653, 0.0006483674515038729, -0.001870139385573566, 0.0017020076047629118, -0.0013423957861959934, 0.0007818720187060535, -0.001884188735857606, 0.0021180687472224236, -0.002101697027683258, 0.00016736025281716138, 0.0023491305764764547, 0.0006542033515870571, 0.001298650517128408, 0.00019315742247272283, -0.0020945752039551735, 0.0005772003205493093, -0.0007524407701566815, 0.0009369406034238636, -0.0007353454711847007, 0.0016689884942024946, -0.0017441640375182033, -0.0011766076786443591, -0.0011088269529864192, 0.0038396501913666725, -0.0016618849476799369, 0.00241936556994915, 0.004092988092452288], [-0.0024040190037339926, -0.0007614009082317352, -0.0009263443644158542, -0.002348759211599827, 0.00229834346100688, -0.0015803494025021791, -0.0006939024315215647, -0.00241681351326406, 0.0026015578769147396, 0.0021444985177367926, 0.0021977685391902924, -0.0017695433925837278, 0.00128091499209404, -0.0015780833782628179, -0.0024213865399360657, -0.00394990062341094, -0.00020771579875145108, -0.0059624626301229, 0.001416817307472229, 0.0010406655492261052, 0.006710757035762072, 0.0004624385037459433, 0.0014509730972349644, 0.00224692071788013, 0.007092777173966169, -0.002072540344670415, -0.0051907761953771114, -0.002436363138258457, 0.0020073887426406145, -0.0017766626551747322, -0.005309662315994501, -0.0019815443083643913, 0.0005792848533019423, 0.0017333258874714375, 0.0018111859681084752, -0.0007989329751580954, 0.0019908796530216932, -0.0018385553266853094, 0.0009051752276718616, 0.003950555343180895, 0.002668671542778611, -0.0029499500524252653, 0.002222479786723852, -0.0005717669846490026, 0.0035549895837903023, -0.0007709668716415763, 0.0013162108371034265, -0.0011754933511838317, 0.0024975610431283712, -0.0017209021607413888, 0.0027990981470793486, -0.002166762249544263, 0.0023460453376173973, -0.0020711389370262623, 0.0010710959322750568, -0.0023551632184535265, 0.002200095448642969, -0.001614767941646278, 0.004361268132925034, -0.0018879545386880636, -0.00048705568769946694, -0.002652997151017189, 0.0003564873768482357, 0.0003402866132091731, -0.0008901650435291231, -0.0019348100759088993, 0.00117174640763551, 0.0018129221862182021, 0.001566456165164709, -0.0005905950092710555, 0.000991952489130199, 0.0015291973249986768, 0.0021336362697184086, -0.0018738361541181803, 0.0021531027741730213, -0.001579833566211164, 0.002481598872691393, 0.0019386730855330825, -0.00485091470181942, -0.0008713979041203856, 0.0019692929927259684, -0.000869559939019382, 0.00025392425595782697, -0.002327081048861146, -0.0003733052872121334, -0.0033335082698613405, 0.0017877138452604413, -0.0017524310387670994, 0.006430123466998339, -0.0022197705693542957, 0.0011473620543256402, -0.0011195630067959428, 0.0012766990112140775, 0.0003466287162154913, 0.002491498365998268, -0.0013582027750089765, 0.0019062638748437166, 0.00231084949336946, -0.0008373145828954875, -0.0015414459630846977, -0.002494937041774392, -0.0022174157202243805, 0.0023324608337134123, -0.0011801153887063265, 0.002162911696359515, -0.0009852529037743807, 0.002289148746058345, -0.002064774977043271, 0.0009014349197968841, -0.003464912995696068, 0.0003237993805669248, 0.001984810922294855, 0.0022204690612852573, 0.0013020264450460672, 0.00023202860029414296, -0.004144136793911457, 0.0020839557982981205, -0.0020440700463950634, 0.0010200648102909327, -0.0010806890204548836, 0.002149848733097315, -0.0013442934723570943, -0.002043649787083268, -0.0016036704182624817, 0.00034151418367400765, -0.0013284978922456503, 0.0015449218917638063, 0.0029961622785776854], [0.0001859828771557659, 0.0021171995904296637, 0.001557708834297955, 0.0011772930156439543, -0.00031488933018408716, 0.0010802526958286762, 0.0012514309491962194, 0.0018903606105595827, -0.0013904578518122435, -0.0007320761797018349, -0.0008817875641398132, 0.0009032873203977942, -0.002032265067100525, 0.0001863184297690168, 0.0006951796822249889, 0.0004821490147151053, 0.0005221250467002392, 0.00022844670456834137, -0.000116532581159845, -0.001455205725505948, -0.0013923587976023555, -0.0011638503056019545, -0.0009992350824177265, -0.0006230067228898406, -0.0014137937687337399, 0.0018623042851686478, 0.0005589394713751972, 0.002519636182114482, -0.001829574815928936, 0.0011818954953923821, 0.00014238437870517373, 0.00044075644109398127, -0.0015698359347879887, -0.0022346256300807, -0.0009449032368138433, 0.0020216957200318575, -0.0006301213288679719, 0.0012852235231548548, -0.0008889741147868335, -0.0015898315468803048, -0.000843329238705337, 0.00084176060045138, -0.0010156999342143536, 0.0017332473071292043, -0.0008664103806950152, 0.0007797607104294002, -0.001182203646749258, 0.001645488664507866, -0.0006367406458593905, 0.0024054429959505796, -0.0014957119710743427, 0.0016190006863325834, -0.0024240748025476933, 0.0008628378855064511, -0.0007681390270590782, 0.0012446754844859242, -0.000607767200563103, 0.0007867882959544659, -0.0015527128707617521, 0.002098345197737217, 0.0011432101018726826, 0.0011718608438968658, -0.0013583715772256255, -0.00033092990634031594, 2.2924932636669837e-05, 0.0022289755288511515, -0.0015724218683317304, -0.0017234625993296504, -0.002086176071316004, 0.0022261175327003, -0.0009865217143669724, -0.0008883819100446999, -0.0024586075451225042, 0.0015854483935981989, -0.001054334337823093, 0.0007882788777351379, -0.0013573045143857598, -0.0014284643111750484, 0.0027608536183834076, 0.0008314297301694751, -0.0002976549731101841, 0.001233411836437881, -0.0018314485205337405, 0.001519491197541356, 0.0019135556649416685, 0.0013994905166327953, -0.0016359195578843355, 0.00013573381875175983, -0.0006718070944771171, 0.0012632145080715418, -0.0006359150866046548, 0.001463132444769144, -0.0017372827278450131, -0.0012581141199916601, -0.0015348647721111774, 0.0007039973279461265, -0.00012400768173392862, -0.0009336378425359726, 0.0010338656138628721, 0.001161740510724485, 0.00043121931958012283, 0.0018907934427261353, -0.0003091598628088832, 0.0017152862856164575, -0.00248834234662354, 0.0013391306856647134, -0.002561479341238737, 0.0009859288111329079, -1.9333800082677044e-05, 0.002257738960906863, -0.0014549825573340058, -0.001000540447421372, -0.0027076611295342445, -0.0028090907726436853, -0.0016294902889057994, 0.001303727040067315, -6.324543210212141e-05, 0.002287433948367834, -0.0015320450766012073, 0.0038390818517655134, -0.002282520057633519, 0.0021862690337002277, 0.0005343388766050339, 0.0006769411847926676, -0.00021395097428467125, 0.00012669197167269886, -0.001445240806788206, -0.0015480531146749854], [-0.009677010588347912, -0.01477722730487585, -0.0038528412114828825, -0.014527954161167145, 0.00236444640904665, -0.0018636876484379172, -0.015883730724453926, -0.008426033891737461, 0.01576215960085392, 0.008536038920283318, 0.002158587332814932, -0.011038311757147312, 0.015134546905755997, -0.009243653155863285, -0.003202402498573065, -0.003309613559395075, -0.004440282471477985, -0.002412401605397463, 0.010967494919896126, 0.018038634210824966, 0.010512241162359715, 0.00675086909905076, 0.011214989237487316, 0.005521682556718588, 0.008816066198050976, -0.0025206422433257103, -0.015939751639962196, -0.005777169484645128, 0.001896850997582078, -0.01006164588034153, -0.013106775470077991, -0.0009992027189582586, 0.002890361938625574, 0.013063927181065083, 0.0018417557002976537, -0.002675594761967659, 0.0021232718136161566, -0.002333733020350337, 0.02130252867937088, 0.015429584309458733, 0.016684768721461296, -0.019368905574083328, 0.0021540983580052853, -0.009224647656083107, 0.015253810212016106, -0.009064989164471626, 0.0019101827638223767, -0.009166781790554523, 0.007680052425712347, -0.017908021807670593, 0.003251345595344901, -0.016303973272442818, 0.002519699977710843, -0.001349543104879558, 0.0025709522888064384, -0.0026033998001366854, 0.010111612267792225, -0.005177581682801247, 0.0026186939794570208, -0.011346149258315563, -0.019212808459997177, -0.004751961212605238, 0.007185289170593023, 0.0019101130310446024, -0.0032463702373206615, -0.01735411025583744, 0.00348924333229661, 0.001504802145063877, 0.0015733730979263783, -0.0014207386411726475, 0.019629964604973793, 0.004971352405846119, 0.0002635050914250314, -0.003245376516133547, 0.00038754133856855333, -0.008699462749063969, 0.0012758075026795268, 0.00356485228985548, -0.021327855065464973, -0.0024320350494235754, 0.0006165747181512415, -0.013670263811945915, 0.010149739682674408, -0.0033148035872727633, -0.0029882341623306274, -0.008089369162917137, 0.012634575366973877, -0.0037130184937268496, 0.0011848208960145712, -0.0023021288216114044, 0.004577816464006901, -0.006723917089402676, 0.010553460568189621, 0.00621423963457346, 0.017073532566428185, -0.0115358866751194, 0.002588848350569606, 0.0019632121548056602, -0.0018957427237182856, -0.009898804128170013, -0.004826440941542387, -0.0010743120219558477, 0.002790809143334627, -0.0018893294036388397, 0.002579562831670046, -0.009993577376008034, 0.002847065683454275, -0.006404038053005934, 0.0014726683730259538, -0.007388528902083635, 0.018275409936904907, 0.006501828785985708, 0.008511275984346867, 0.004010876640677452, 0.0031770525965839624, -0.0032442444935441017, 0.002739173360168934, -0.013511722907423973, 0.005900355521589518, -0.0034553655423223972, 0.01703369989991188, -0.009780345484614372, -0.015444338321685791, -0.0030023904982954264, 0.00826220028102398, -0.003244743449613452, 0.003113170387223363, 0.01836913265287876], [-0.00814858265221119, -0.007492699660360813, -0.06516912579536438, -0.006341284606605768, 0.06956833600997925, -0.08262981474399567, -0.08387232571840286, -0.00684069050475955, 0.07318880409002304, 0.006699728779494762, 0.08907733112573624, -0.05895067751407623, 0.008208593353629112, -0.006154254078865051, -0.062499213963747025, -0.007724392227828503, -0.006207420956343412, -0.07949387282133102, 0.018322104588150978, 0.002572224475443363, 0.0638171136379242, 0.06963720172643661, 0.005780661012977362, 0.0857229009270668, 0.08617433160543442, -0.08063062280416489, -0.05539434030652046, -0.0706770122051239, 0.09107920527458191, -0.005047411657869816, -0.035974424332380295, -0.0828934982419014, 0.048073217272758484, 0.006015466526150703, 0.08884446322917938, -0.051681678742170334, 0.08310522884130478, -0.07741370797157288, 0.06119079142808914, 0.07953480631113052, 0.009609180502593517, -0.010377494618296623, 0.07504542171955109, -0.017327701672911644, 0.07418939471244812, -0.020581398159265518, 0.06750442087650299, -0.0034210558515042067, 0.036143023520708084, -0.06976529955863953, 0.05614703521132469, -0.02385111339390278, 0.0812644436955452, -0.07261371612548828, 0.03811423107981682, -0.08607969433069229, 0.06705944985151291, -0.06441885977983475, 0.06075203791260719, -0.05853446200489998, -0.056210193783044815, -0.006022208835929632, 0.06637472659349442, 0.07629460841417313, -0.005619548726826906, -0.004493262153118849, 0.020836960524320602, 0.0737282857298851, 0.07715058326721191, -0.0805138573050499, 0.004526915960013866, 0.06658975780010223, 0.08010561019182205, -0.06105982884764671, 0.07107959687709808, -0.04083875194191933, 0.008200502954423428, 0.004270914010703564, -0.005564591847360134, -0.08249323070049286, 0.0343610942363739, -0.06735043972730637, 0.006690153852105141, -0.03625691682100296, -0.07871779054403305, -0.009705771692097187, 0.06222917139530182, -0.00963747501373291, 0.007905659265816212, -0.00464832317084074, 0.009421485476195812, -0.011802568100392818, 0.00587307196110487, 0.06449824571609497, 0.007848162204027176, -0.008386311121284962, 0.016727639362215996, 0.07477915287017822, -0.047543786466121674, -0.006573313847184181, -0.08090252429246902, -0.006659417878836393, 0.015340983867645264, -0.014949933625757694, 0.03941760212182999, -0.03238446265459061, 0.08316503465175629, -0.06334041059017181, 0.05777761712670326, -0.005426373332738876, 0.004908388946205378, 0.027326902374625206, 0.09225984662771225, 0.060394953936338425, 0.006525868084281683, -0.055742863565683365, 0.09139032661914825, -0.007356162648648024, 0.07566923648118973, -0.05438385531306267, 0.05569510906934738, -0.0074935718439519405, -0.05574370175600052, -0.012206153944134712, 0.009533889591693878, -0.05522418022155762, 0.06526155769824982, 0.002677729120478034], [0.0586061105132103, 0.024571148678660393, 0.048545077443122864, 0.016459647566080093, -0.061048753559589386, 0.05377357080578804, 0.03298833593726158, 0.055432237684726715, -0.05818190798163414, -0.055274106562137604, -0.06121690943837166, 0.056017737835645676, -0.01323945913463831, 0.062499985098838806, 0.04566556587815285, 0.05439368262887001, 0.06676685065031052, 0.05405323952436447, -0.053572166711091995, -0.05360712483525276, -0.05516509711742401, -0.05887007713317871, -0.04827585816383362, -0.06129990145564079, -0.054991114884614944, 0.050654180347919464, 0.05112822726368904, 0.05904537811875343, -0.010219689458608627, 0.05392547696828842, 0.01541559025645256, 0.06427410244941711, -0.06495580822229385, -0.0073227062821388245, -0.06741192936897278, 0.06449424475431442, -0.05729009956121445, 0.050265122205019, -0.061419446021318436, -0.05989257991313934, -0.050583913922309875, 0.046850211918354034, -0.04895567521452904, 0.057163599878549576, -0.05775991827249527, 0.006453555077314377, -0.03813132643699646, 0.056820496916770935, -0.014502429403364658, 0.03179069608449936, -0.056294724345207214, 0.03810136020183563, -0.029030816629529, 0.05112769082188606, -0.057661883533000946, 0.005322775803506374, -0.05869666486978531, 0.050908058881759644, -0.007696483284235001, 0.053792133927345276, 0.056002963334321976, 0.061535269021987915, -0.053951047360897064, -0.05245663598179817, 0.05360366031527519, 0.04852394759654999, -0.0529925674200058, -0.05361847206950188, -0.0467415452003479, 0.04844435304403305, -0.04477454721927643, -0.04918435588479042, -0.006208039820194244, 0.05536706745624542, -0.04317858815193176, 0.05444400757551193, -0.008471310138702393, -0.07221460342407227, 0.029552435502409935, 0.06190186366438866, -0.026023823767900467, 0.05950334668159485, -0.005661858711391687, 0.0064476532861590385, 0.05503484606742859, 0.06159185990691185, -0.05987232178449631, 0.06864476203918457, -0.010040711611509323, 0.06115798279643059, -0.015994518995285034, 0.026051979511976242, -0.05976590886712074, -0.05193211883306503, -0.056115955114364624, 0.05555257201194763, -0.056032996624708176, -0.05871863290667534, 0.0061891586519777775, 0.065496526658535, 0.056155014783144, 0.055443476885557175, -0.028125671669840813, 0.06183153763413429, -0.030071429908275604, 0.005347925703972578, -0.06325815618038177, 0.045278504490852356, -0.04318736866116524, 0.020847301930189133, -0.05214151367545128, -0.05564405024051666, -0.07176049798727036, -0.04268166422843933, -0.033467646688222885, 0.043124325573444366, -0.01361816469579935, 0.008089245297014713, -0.054357826709747314, 0.00660752272233367, -0.01611006073653698, 0.05372488871216774, 0.03843973949551582, 0.06999479979276657, -0.04529697820544243, 0.05679173767566681, -0.054270897060632706, -0.05296770855784416], [-0.031391579657793045, -0.03814626857638359, -0.03212730959057808, -0.012839687056839466, 0.004944271873682737, -0.0017551409546285868, -0.0434759221971035, -0.025750482454895973, 0.010916595347225666, 0.027417154982686043, 0.01510222814977169, -0.00414297915995121, 0.04136638343334198, -0.031491827219724655, -0.014851280488073826, -0.030341684818267822, -0.030791914090514183, -0.01829245500266552, 0.027804605662822723, 0.041450683027505875, 0.034507252275943756, 0.032459188252687454, 0.0279078371822834, 0.02374647557735443, 0.02468675747513771, -0.0026331343688070774, -0.003883922006934881, -0.029423125088214874, 0.004566277377307415, -0.03546430915594101, -0.00444179167971015, -0.016817910596728325, 0.027803879231214523, 0.03646402806043625, 0.02705243229866028, -0.024796362966299057, 0.01998753845691681, -0.013100063428282738, 0.04877288639545441, 0.01154393795877695, 0.0264919251203537, -0.005985588766634464, 0.014983434230089188, -0.03204021602869034, 0.03603978827595711, -0.035882722586393356, 0.002087918110191822, -0.009629318490624428, 0.008197637274861336, -0.04066548869013786, 0.030789662152528763, -0.0422692745923996, 0.009834492579102516, -0.017312396317720413, 0.024808939546346664, -0.01627979800105095, 0.03151756152510643, -0.005266438238322735, 0.0037695721257478, -0.0371268130838871, -0.04385723918676376, -0.017147714272141457, 0.005008132662624121, 0.019707808271050453, -0.0407373271882534, -0.039778877049684525, 0.043519243597984314, 0.00334527506493032, 0.00239919894374907, -0.011614838615059853, 0.026157008484005928, 0.027719249948859215, 0.02331194281578064, -0.038828980177640915, 0.0025559826754033566, -0.0047864243388175964, 0.021491991356015205, 0.03488193824887276, -0.04366573318839073, -0.02006949484348297, 0.00977740902453661, -0.0373847633600235, 0.00934856478124857, -0.041696347296237946, -0.025963827967643738, -0.0039159804582595825, 0.04255228489637375, -0.00618303706869483, 0.01274205930531025, -0.007149155717343092, 0.02628585696220398, -0.02955593727529049, 0.03238646686077118, 0.027080358937382698, 0.038366734981536865, -0.012679779902100563, 0.02298487164080143, 0.017538921907544136, -0.003489992581307888, -0.03408104181289673, -0.026934562250971794, -0.030765008181333542, 0.005092049483209848, -0.018770957365632057, 0.004484678618609905, -0.03320728614926338, 0.025698861107230186, -0.034259773790836334, 0.0065169609151780605, -0.02657454088330269, 0.04652247950434685, 0.024274524301290512, 0.004180156625807285, 0.0049151829443871975, 0.03242511674761772, -0.020073777064681053, 0.0032734691631048918, -0.004947187844663858, 0.02982926368713379, -0.006480321288108826, 0.033969856798648834, -0.029848484322428703, -0.01701664738357067, -0.02974972501397133, 0.01639576442539692, -0.03572160750627518, 0.03354387357831001, 0.04311477392911911], [-0.005116100888699293, -0.03300495445728302, -0.029786905273795128, -0.006442796904593706, 0.0038097223732620478, -0.0021603417117148638, -0.005172410514205694, -0.0038881879299879074, 0.035214778035879135, 0.027722269296646118, 0.006191936321556568, -0.03128226101398468, 0.03579266369342804, -0.03348184749484062, -0.021677561104297638, -0.030171135440468788, -0.03203774243593216, -0.02245606854557991, 0.004091784358024597, 0.03520635887980461, 0.031534306704998016, 0.032957255840301514, 0.027178840711712837, 0.01967824064195156, 0.027680937200784683, -0.013528318144381046, -0.0357050783932209, -0.028445707634091377, 0.01064636092633009, -0.03164462000131607, -0.01740899123251438, -0.022314775735139847, 0.030231298878788948, 0.0358007587492466, 0.02884281985461712, -0.0037657252978533506, 0.02666814811527729, -0.01594003103673458, 0.03058137558400631, 0.004171072039753199, 0.028924008831381798, -0.022347737103700638, 0.020025404170155525, -0.031340256333351135, 0.036218203604221344, -0.03439337760210037, 0.010334724560379982, -0.027268048375844955, 0.009956694208085537, -0.03613095358014107, 0.03130482882261276, -0.008085592649877071, 0.013321435078978539, -0.02253296785056591, 0.026019083335995674, -0.008354723453521729, 0.00391034921631217, -0.03186542168259621, 0.013221284374594688, -0.03389202803373337, -0.040308814495801926, -0.03104415349662304, 0.025875572115182877, 0.01622874289751053, -0.03584662452340126, -0.03823331370949745, 0.037011537700891495, 0.024634920060634613, 0.009655455127358437, -0.010612047277390957, 0.03740169480443001, 0.004493775777518749, 0.025583110749721527, -0.036727312952280045, 0.0017913038609549403, -0.025861062109470367, 0.004751602653414011, 0.0039517516270279884, -0.04051979258656502, -0.022699527442455292, 0.002730579813942313, -0.004423725418746471, 0.035560980439186096, -0.004930384922772646, -0.027579762041568756, -0.004131686873733997, 0.03663869574666023, -0.028426749631762505, 0.0036535211838781834, -0.024080390110611916, 0.027863848954439163, -0.03305492550134659, 0.030893554911017418, 0.02677037939429283, 0.01525452546775341, -0.0345824770629406, 0.00461586844176054, 0.006943350657820702, -0.0026714594569057226, -0.03549911081790924, -0.008545966818928719, -0.027786023914813995, 0.00580575643107295, -0.02123619243502617, 0.00814678892493248, -0.02853476069867611, 0.030450552701950073, -0.03320722654461861, 0.010276141576468945, -0.026663342490792274, 0.04078482463955879, 0.026205360889434814, 0.033454377204179764, 0.008583849295973778, 0.032621946185827255, -0.004577794577926397, 0.020873388275504112, -0.03602287173271179, 0.028154591098427773, -0.025732025504112244, 0.03004421480000019, -0.020245444029569626, -0.004480298608541489, -0.03382815793156624, 0.019654173403978348, -0.031978920102119446, 0.006103469058871269, 0.039660271257162094], [0.0012098916340619326, 0.0021511181257665157, 0.0008328685071319342, 0.0023406539112329483, -0.0006379854748956859, 0.0011721564223989844, 0.0007124496623873711, 0.0012707880232483149, -0.0018777430523186922, -0.0027053572703152895, -0.0012323645642027259, 0.0013981376541778445, -0.0024369400925934315, 0.004308787174522877, 0.002001839689910412, 0.0017435394693166018, 0.0016893516294658184, 8.22044603410177e-05, -0.0015245802933350205, -0.0025333466473966837, -0.0022796981502324343, -0.0013895595911890268, -0.00042075480450876057, -0.003955690655857325, -0.00016856624279171228, 0.0018156985752284527, 0.0013049872359260917, 0.0022495335433632135, -0.00244000437669456, 0.0010746796615421772, 0.0010781772434711456, 0.0021471725776791573, -0.002160206437110901, -0.001175219309516251, -0.001149744843132794, 0.0018152338452637196, -0.0009312549373134971, 0.0015705438563600183, -0.002176662441343069, -0.0003208171692676842, -0.0026271571405231953, 0.0009732588659971952, -0.0013106943806633353, 0.001123326364904642, -0.0013248977484181523, 0.0025347985792905092, -0.002152379835024476, 0.0008068284369073808, -0.0013787366915494204, 0.0021293836180120707, -0.0024524012114852667, 0.0018285168334841728, -0.0020911041647195816, 0.0003511966788209975, -0.0009897240670397878, 0.002363450126722455, -0.00012784721911884844, 0.0026942663826048374, -0.0017975784139707685, 0.0020682071335613728, 0.002479372313246131, 0.001140985987149179, -0.0010459257755428553, -0.0018570303218439221, 0.0009277670178562403, 0.0020137340761721134, -0.0022539286874234676, -0.000555656326469034, -0.0009110302198678255, 0.0017755264416337013, -0.0021268748678267, -0.0023170060012489557, -0.002269440097734332, 0.0024653032887727022, -0.0022351935040205717, 0.0010242980206385255, -0.0009863681625574827, -0.0006233247113414109, 0.0027048427145928144, 0.0016683071153238416, -0.0014085163129493594, 0.002506347605958581, -0.0015527444193139672, 0.0017491788603365421, 0.0010004490613937378, 0.0017037250800058246, -0.0010027762036770582, 0.001254762290045619, -0.001178093021735549, 0.002261367393657565, -0.0009556733421050012, 0.0014579619746655226, -0.00115275161806494, -0.00018918406567536294, -0.001699555548839271, 0.0002952944196294993, -0.0010449363617226481, -0.002231091959401965, 0.002800807124003768, 0.002760306466370821, 0.0008778437622822821, 0.0028896606527268887, -0.0022847752552479506, 0.002106814179569483, -0.0008949422626756132, 0.0015840143896639347, -0.0015641578938812017, 0.002562680747359991, -0.0021225635427981615, 0.0010001440532505512, -0.001300655072554946, -0.0007530924049206078, -0.0024979086592793465, -0.003361886367201805, -0.0016990596195682883, 0.002002267399802804, -0.0010650133481249213, 0.0024626534432172775, -0.0012127833906561136, 0.0024500475265085697, -0.0006552864797413349, 0.001752057345584035, 0.0013383777113631368, 0.0005773960729129612, -0.0005701737245544791, 0.002169388346374035, -0.0013110014842823148, -0.0024666739627718925], [0.001392144476994872, 0.0007736514089629054, 0.0009742161491885781, 0.0009623095975257456, -0.0008908241870813072, 0.0018847306491807103, 0.0011067072628065944, 0.0003147738752886653, -0.001873787958174944, -0.0013313695089891553, -0.0020520344842225313, 0.0019659430254250765, -0.0011112611973658204, 0.00182029337156564, 0.0008618845022283494, 0.0030210099648684263, 0.0004908235277980566, 0.002474242588505149, -0.0014995873207226396, -0.0005357465124689043, -0.0011193226091563702, -0.00035064294934272766, -0.0010533009190112352, -0.0003541033947840333, -0.001146871829405427, 0.0013103727251291275, 0.00038149012834765017, 0.001954171573743224, -0.00012660228821914643, 0.0010024408111348748, 1.309092994006278e-07, 0.001121359528042376, -0.0008902638219296932, -2.768243030004669e-05, -0.0050581879913806915, 0.0010185171850025654, -0.0008174445247277617, 0.0019754578825086355, -0.0011956710368394852, -0.0037865322083234787, -0.002045853529125452, 0.00023847092234063894, -0.001486151828430593, 0.0009127014200203121, -0.0019515251042321324, 0.0006465722108259797, -0.0010275178356096148, 0.0004279778804630041, -0.0007071172585710883, 0.0006870834622532129, -0.0018327190773561597, 0.00017034354095812887, -0.000309537019347772, 0.0001014419030980207, -0.00014248980733100325, 0.0002804151736199856, -0.000838642125017941, 0.005725922994315624, -0.0007395680877380073, 0.0016396300634369254, 0.0002268469543196261, 0.001037298934534192, -0.0018573879497125745, -0.0005608113715425134, 0.0029559799004346132, 0.000960822100751102, -0.0012789630563929677, -0.001436334801837802, -0.001596133690327406, 0.0008610737277194858, -0.0016464701620861888, -0.0017615697579458356, -0.0006543717463500798, 0.0019510476849973202, -0.0005003133555874228, 0.0025468971580266953, -0.0019030020339414477, -0.0017154437955468893, 0.0020547539461404085, 0.000628936686553061, -0.0015438060509040952, 0.0021895854733884335, -0.0024045584723353386, 0.0006886385381221771, 0.0016724138986319304, 0.0015612721908837557, -0.001808979082852602, 0.00010333167301723734, -0.00010198951349593699, 0.0009777984814718366, -0.0014718039892613888, 0.0011978383408859372, -0.0017231451347470284, -0.0015907009365037084, -0.0003305113350506872, 0.0021224399097263813, -0.0022083153016865253, -0.002188662765547633, 0.00273147807456553, 0.002203915733844042, 0.0010136710479855537, 0.0005421561654657125, -0.0005693675484508276, 0.0005578921991400421, -0.002142491051927209, 0.0010022702626883984, -0.0021087275817990303, 0.0020431550219655037, -0.001674923929385841, 0.001416468876414001, -0.0004972215974703431, -0.0022053595166653395, -0.0001801885082386434, -0.002702658995985985, -0.0016918343026190996, 0.0017176222754642367, -0.0002521934802643955, 0.0016414657002314925, -0.0005331697757355869, 0.0012420318089425564, -0.0006598077598027885, 0.0018806997686624527, 0.0005379729554988444, 0.0019097246695309877, -0.0011015112977474928, 0.001117522595450282, -0.0011632144451141357, -0.002863180823624134], [-4.165909922448918e-05, -0.0015983132179826498, -0.0008684233180247247, -0.0006780987605452538, 0.00099039520137012, -0.0001216048767673783, -0.001029284088872373, -0.000267238006927073, 0.002014709869399667, 0.00030573023832403123, 0.0005186577327549458, -0.0015571778640151024, 9.338661766378209e-05, -0.0005669659585691988, -8.763096411712468e-05, -4.992790854885243e-05, -0.0004636295197997242, -0.0008671846590004861, 0.001382585964165628, 0.0013252024073153734, 0.0014177430421113968, 0.000507919117808342, 0.0007632438209839165, 0.0010053617879748344, 0.000257249892456457, -0.000879801984410733, -0.004545403178781271, -0.0012058323482051492, 0.0015728982398286462, -0.00045447947923094034, -0.0007497220067307353, -0.0013384995982050896, 0.0008230048115365207, 0.0014335711020976305, 0.0016202919650822878, -0.00034167899866588414, 0.0019000276224687696, -0.00025674188509583473, 0.0010385155910626054, 0.0014471462927758694, 0.0005147351766936481, -0.00036716318572871387, 0.001070056576281786, -0.001559154479764402, 0.0012621980858966708, -0.0013173483312129974, 0.0018053322564810514, -0.001138388179242611, 0.0017987120663747191, -0.0007354061817750335, 0.0023659185972064734, -0.0021398302633315325, 0.0010142340324819088, -0.002144696656614542, 0.0005127931945025921, -0.0004593003250192851, 0.001638369052670896, -0.0002449859166517854, 0.0005500533152371645, -0.0007137643988244236, -0.0014714935095980763, -0.002170022577047348, 0.002151249907910824, 0.0010171164758503437, -0.00039271768764592707, -0.0001339618902420625, 0.0008162425947375596, 0.00012428486661519855, 0.0007016999879851937, -0.001784497289918363, 0.0020345314405858517, 0.00116807222366333, 0.001199986319988966, -0.0021856422536075115, 0.0011077187955379486, -0.000819955428596586, 0.00036655276198871434, 0.00013642973499372602, -0.0006215292378328741, -0.001642183749936521, 7.199270476121455e-05, -0.0017744106007739902, 0.00045854575000703335, -0.0006424389430321753, -0.0009545118664391339, -0.0018699340289458632, 0.0008579760324209929, -0.002288070973008871, 0.0015346367144957185, -0.0007353596738539636, 0.0007108805002644658, -0.00030193052953109145, 0.0015946278581395745, 0.0012765972642228007, 0.000945903651881963, -0.0012420749990269542, 0.0009224218665622175, 0.0001916322944452986, -0.002794074360281229, -0.0006993800634518266, -0.0022084300871938467, -0.0002738011535257101, 0.0007929931744001806, -0.0011075224028900266, 0.000516003870870918, -9.709856385597959e-05, 0.001785431755706668, -0.00032779661705717444, 0.0021200308110564947, -0.00019192577747162431, 0.0014784681843593717, 0.0011906134895980358, 0.0011041824473068118, 0.0017771226121112704, 0.0006770207546651363, -0.0006647347472608089, 0.0013476277235895395, -0.0007059183553792536, 0.0013619405217468739, -0.0007532939198426902, 0.0013327052583917975, -0.0017276890575885773, -0.0012227324768900871, -0.0006759084644727409, 0.0006760094547644258, -0.0006976227159611881, 0.0009839411359280348, 2.5729479602887295e-05], [0.018036574125289917, 0.024551983922719955, 0.021172789856791496, 0.00416108313947916, -0.007131410297006369, 0.00197556521743536, 0.005041689146310091, 0.0033619701862335205, -0.004230061545968056, -0.003493240801617503, -0.004438096657395363, 0.021503103896975517, -0.02421884983778, 0.00817936472594738, 0.015531276352703571, 0.0039518242701888084, 0.017910614609718323, 0.012098649516701698, -0.003343109507113695, -0.004252604208886623, -0.017400214448571205, -0.0189230814576149, -0.0036862425040453672, -0.00557146780192852, -0.01818738505244255, 0.002447744132950902, 0.025938406586647034, 0.003507837187498808, -0.0036372665781527758, 0.020128712058067322, 0.01072143204510212, 0.0023958778474479914, -0.015031392686069012, -0.006087928079068661, -0.012127489782869816, 0.0037779519334435463, -0.015709301456809044, 0.002272295532748103, -0.030242497101426125, -0.02140619419515133, -0.021336235105991364, 0.02481132373213768, -0.003004377940669656, 0.0041066366247832775, -0.02175360918045044, 0.010144604369997978, -0.002047682646661997, 0.003572817426174879, -0.007776846643537283, 0.0040718852542340755, -0.0035283095203340054, 0.02543650195002556, -0.00296533084474504, 0.010288720950484276, -0.014204991050064564, 0.00892193429172039, -0.02032076194882393, 0.004219357855618, -0.010143197141587734, 0.023900121450424194, 0.004040772560983896, 0.014904799871146679, -0.003184443572536111, -0.00924691278487444, 0.0053208088502287865, 0.016513319686055183, -0.0038070445880293846, -0.014320853166282177, -0.0022911408450454473, 0.0031044273637235165, -0.030917946249246597, -0.013941154815256596, -0.012943423353135586, 0.018237143754959106, -0.0024016122333705425, 0.009594326838850975, -0.010907459072768688, -0.020391857251524925, 0.003944720141589642, 0.008238383568823338, -0.005007060710340738, 0.00416169036179781, -0.020756127312779427, 0.01631263829767704, 0.012810220941901207, 0.006563934497535229, -0.003528920467942953, 0.003430228680372238, -0.0036766903940588236, 0.008992747403681278, -0.0038402648642659187, 0.016091248020529747, -0.022066885605454445, -0.014796090312302113, -0.0035474125761538744, 0.0036421255208551884, -0.003327352926135063, -0.002372976392507553, 0.0028164375107735395, 0.005197232589125633, 0.016558390110731125, 0.01560310646891594, -0.003385014133527875, 0.006523074582219124, -0.0019465053919702768, 0.0035531267058104277, -0.003840977791696787, 0.01916741207242012, -0.0022465174552053213, 0.018279727548360825, -0.004813427571207285, -0.017371661961078644, -0.017726264894008636, -0.01726631075143814, -0.003409604774788022, 0.011818534694612026, -0.009442007169127464, 0.02666076272726059, -0.019425787031650543, 0.015098044648766518, -0.021891912445425987, 0.0038483685348182917, 0.013639409095048904, 0.020158670842647552, -0.008113713003695011, 0.02406664378941059, -0.0036044486332684755, -0.0036904478911310434], [-0.002001906046643853, -0.006516389548778534, -0.0023132027126848698, -0.0006972653791308403, 0.002165603917092085, -0.0014628989156335592, -0.002476857043802738, -0.002048624912276864, 0.004709245637059212, 0.000253981736022979, 0.0006806729943491518, -0.0006629126728512347, 0.0012552920961752534, -0.001988152274861932, -0.0005689848330803216, -0.0008991970680654049, -0.002945977495983243, -0.00023079909442458302, 0.0010505723766982555, 0.0012716735946014524, 9.923020115820691e-05, 0.0039374809712171555, 0.002531467704102397, 0.001200107391923666, 0.001456185127608478, -3.9922069845488295e-05, -0.002174966037273407, -0.0002655108110047877, 0.0016459993785247207, -0.0009973726700991392, -0.006250731647014618, -0.0022184504196047783, 0.0010372467804700136, 0.003709951648488641, 0.0017681400058791041, -0.001824775361455977, 0.0030197782907634974, -0.001546380459330976, 0.0020823481027036905, 0.002143034478649497, 0.0012258836068212986, -0.0013783928006887436, 0.0014377277111634612, -0.0021254417952150106, 0.0012752582551911473, -0.0011048580054193735, 4.8758647608337924e-05, -0.0008927213493734598, 7.542045932495967e-05, -0.0026395530439913273, 0.002203144831582904, -0.004335926845669746, 0.00035534973721951246, -0.001948731136508286, 0.0012783993734046817, -0.0013092567678540945, 0.0009206155664287508, -0.005166541785001755, 0.0025119532365351915, -0.0011137337423861027, -0.0010351628297939897, -0.000913553754799068, 0.0021779565140604973, 0.002008401323109865, -0.0015832165954634547, -0.0008615937549620867, 0.006226180586963892, 0.0013543956447392702, 0.0019880328327417374, -0.0029052242171019316, 0.0005789087736047804, 0.002802753122523427, 0.001354094361886382, -0.00024016549286898226, 0.0007243079016916454, -0.0022973513696342707, 0.00033005530713126063, 0.002270318800583482, -0.0013903629733249545, -0.0010219502728432417, 0.00012895173858851194, -0.0008505522855557501, 0.0014273816486820579, -0.0009436124819330871, -0.0022366908378899097, -0.0024733736645430326, 3.890908192261122e-05, -0.0015772817423567176, 0.00015080052253324538, -0.00048738953773863614, 0.0010650679469108582, -0.0021892767399549484, 0.0019755251705646515, 0.00246326788328588, 0.002383780898526311, -0.001640299684368074, 0.0013348603388294578, 0.0004084802058059722, -0.0014112881617620587, -0.0020257155410945415, -0.000681089295540005, -3.460813968558796e-05, 0.002499018330127001, -0.0014460613019764423, 0.0005731520359404385, -0.0009790268959477544, 0.001594448578543961, -0.002066056476905942, 0.0019979490898549557, -0.004953807685524225, 0.000610398652497679, 0.002675809431821108, 0.0008793476154096425, 0.002706334460526705, 0.003258396638557315, -0.0020672534592449665, 0.0024401284754276276, -0.003887002356350422, 0.0007535733748227358, -0.0007653087377548218, 0.00037257542135193944, -0.00229844287969172, -0.002156327711418271, -0.0011812730226665735, 0.0011545665329322219, -0.0015699450159445405, 0.0005365469842217863, 0.00448252260684967], [-0.0021031643263995647, -0.00016946447431109846, -0.002615984994918108, -0.001066359574906528, 0.003983129747211933, -0.001808840548619628, -0.0001704059395706281, -0.0025175681803375483, 0.0018975244602188468, 0.0016026135999709368, 0.0014596694381907582, -0.0009180705528706312, 0.0023054040502756834, -0.005002900958061218, -0.001750111929140985, -0.001581893302500248, -0.0023363756481558084, -0.0019813613034784794, 0.002626492641866207, 0.003024682402610779, 0.0013822714099660516, 0.00022876008006278425, 0.0027371980249881744, 0.002128172665834427, 0.002646320266649127, -0.0016201280523091555, -0.0021021331194788218, -0.0015484654577448964, 0.001795229152776301, -0.00030239246552810073, -0.005464313551783562, -0.0022308246698230505, 0.002612888813018799, 0.0019405095372349024, 0.0007305357721634209, -0.006543236318975687, 0.001878082170151174, -0.002403875580057502, 0.002386634238064289, 0.002255741273984313, 0.0040726675651967525, -0.002613582881167531, 0.0014729963149875402, -0.003972796723246574, 0.0012596551096066833, -0.0005701333866454661, 0.00015653672744520009, -0.00016338938439730555, 0.0001468995469622314, -0.0005593749228864908, 0.0014684009365737438, -0.002050165319815278, 0.0022940542548894882, -0.0011101766722276807, 0.002490808255970478, -0.0016643083654344082, 7.097525667631999e-05, -0.0023715824354439974, 0.002520827343687415, -0.0023968422319740057, -0.0013607111759483814, -0.0030795843340456486, 0.002162535674870014, 0.006160062272101641, -0.0016511890571564436, -0.0003300819080322981, 0.0021384877618402243, 0.0019919031765311956, 0.002441522665321827, -0.0013233210192993283, 0.001702769543044269, 0.0024912890512496233, 0.0035638236440718174, -0.0012424603337422013, 0.001252098591066897, -0.0028669177554547787, 0.001769093214534223, 0.00572352297604084, -0.000528703210875392, -0.0013280233833938837, 0.0024440246634185314, -0.0015254283789545298, 0.0009852868970483541, -0.0003496364806778729, -0.0021876099053770304, -0.0015963647747412324, 0.002474551321938634, -0.006057764403522015, 0.0009276694618165493, -0.0023623814340680838, 0.0008000630186870694, -0.00210984842851758, 0.00370235787704587, 0.0025481730699539185, 0.0013330982765182853, -0.00059942138614133, 0.0023123929277062416, 0.004937069956213236, -0.0015540323220193386, -0.00476322416216135, -0.00024564479826949537, -0.0010781672317534685, 0.002313622971996665, -0.0020952103659510612, 0.0022366151679307222, -0.0014097546227276325, 0.0009630650747567415, -0.0056125023402273655, 0.003224517684429884, -0.0022419511806219816, 0.00012817748938687146, 0.002729903906583786, 0.00756382429972291, 0.002334767719730735, 0.003387134987860918, -0.0022489491384476423, 0.0008890358149074018, -0.007888609543442726, 0.0002683238126337528, -0.0011720178881660104, 0.0019327213522046804, -0.0019520414061844349, -0.002265268238261342, -0.00239254767075181, 0.0039051694329828024, -0.001382453483529389, 0.0030535252299159765, 0.00021712419402319938], [-0.0027246889658272266, -0.002607446862384677, -0.004509028047323227, -0.003928838763386011, 0.0015553629491478205, -5.942336792941205e-05, -0.002359219128265977, -0.002393286908045411, 0.0014455420896410942, 0.0021841551642864943, 0.002395050600171089, -0.0031390232034027576, 0.0034390180371701717, -0.0011141541181132197, -0.02763155847787857, -0.007390525657683611, -0.002046333160251379, -0.001839388394728303, 0.002516236389055848, 0.0034986974205821753, 0.0022687928285449743, 0.0021250692661851645, 0.0027986373752355576, 0.003329744329676032, 0.008789324201643467, -0.0007958579808473587, -0.006300962530076504, -0.0033273787703365088, 0.0028251504991203547, -0.0009969710372388363, -0.011900696903467178, -0.0015491936355829239, 0.0021423923317342997, 0.0065346877090632915, 0.001206746557727456, -0.0016270512714982033, 0.012462334707379341, -0.0025767378974705935, 0.0024971202947199345, 0.0012842891737818718, 0.027212640270590782, -0.006425623781979084, 0.006776819471269846, -0.0033790720626711845, 0.002464683260768652, -0.004203874617815018, 0.009095451794564724, -0.003444558009505272, 0.005755939055234194, -0.0016330385114997625, 0.0016504543600603938, -0.0038767484948039055, 0.004434394650161266, -0.0018270588479936123, 0.0016685441369190812, -0.0010894028237089515, 0.0010663357097655535, -0.005567737855017185, 0.002866169437766075, -0.0032840720377862453, -0.0019791971426457167, -0.001633686712011695, 0.0020637791603803635, 0.0009383373544551432, -0.0027989312075078487, -0.0024531660601496696, 0.004277293104678392, 0.002324955305084586, 0.0031354683451354504, -0.003627259749919176, 0.0023342983331531286, 0.002334571909159422, 0.0024131357204169035, -0.0028303253930062056, 0.002667992142960429, -0.004528659861534834, 0.0016637943917885423, 0.0019113466842100024, -0.0028047380037605762, -0.0007263693842105567, 0.006927270907908678, -0.0025810436345636845, 0.0038092213217169046, -0.0027012594509869814, -0.001831858535297215, -0.0024640478659421206, 0.004095528274774551, -0.003300724783912301, 0.0020550768822431564, -0.0010780117008835077, 0.0031036657746881247, -0.002520150737836957, 0.002878013765439391, 0.0031862494070082903, 0.00129247538279742, -0.003030369058251381, 0.0027058704290539026, 0.0006154131842777133, -0.0036199502646923065, -0.0013500000350177288, -0.002421422628685832, -0.001450967276468873, 0.006322231609374285, -0.0015653088921681046, 0.0037491018883883953, -0.002415261697024107, 0.0031977565959095955, -0.002809792524203658, 0.002595665631815791, -0.0033630651887506247, 0.003707453142851591, 0.004670983646064997, 0.001099017565138638, 0.031679797917604446, 0.003548662643879652, -0.027191445231437683, 0.002882148139178753, -0.0012521607568487525, 0.002639442216604948, -0.0035294636618345976, 0.005359219387173653, -0.0012067563366144896, -0.026939284056425095, -0.0034757317043840885, 0.001211983966641128, -0.0038274601101875305, 0.0036561789456754923, 0.004014715552330017], [-0.0012449899222701788, -0.0016346098855137825, -0.0012997733429074287, -0.005596658680588007, 0.0007599727250635624, -0.002914522076025605, -0.0024905928876250982, -0.0005529469344764948, 0.0014886350836604834, 8.173997048288584e-05, 0.0020271569956094027, -0.005792751908302307, 0.006632885430008173, -0.0017469670856371522, -0.0007035121088847518, -0.00144326186273247, -0.002717916388064623, -0.0007706070318818092, 0.00354049657471478, 0.0010928253177553415, 0.0013486507814377546, 0.0017022176180034876, 0.0038319812156260014, 0.002227148972451687, 0.0014935779618099332, -0.000737900089006871, -0.0018319091759622097, -0.0024885861203074455, 0.0015073863323777914, -0.00030221883207559586, -0.003062350209802389, -0.0010850479593500495, 0.004031740594655275, 0.0029930216260254383, 0.0019409270025789738, -0.0018605785444378853, 0.0038132593035697937, -0.001714465906843543, 0.0023521322291344404, 9.759385284269229e-05, 0.002458888804540038, -0.0001775902637746185, 0.0008971058414317667, -0.0005736579769290984, 0.002164403675124049, -0.0016706673195585608, 0.0020235907286405563, -0.0008882776601240039, 0.0032045089174062014, -0.0017527530435472727, 0.0011116965906694531, -0.00598246231675148, 0.0018831029301509261, -0.0010985461995005608, 0.001809186884202063, -0.0021051443181931973, 0.003165778238326311, -0.008732284419238567, 0.00151868409011513, -0.0007070190040394664, -0.0004644382861442864, -0.00043911547982133925, 0.0022414729464799166, 0.0007271256181411445, -0.003739883191883564, -0.00031938307802192867, 0.002013561548665166, 0.0008906134171411395, 0.0005354980239644647, -0.0019857280422002077, 0.0065178838558495045, 0.0023627758491784334, 0.0015001316787675023, -0.003830911125987768, 0.0024186025839298964, -0.0027253846637904644, 0.0011299391044303775, 0.0008772938163019717, -0.0014033138286322355, -0.001459785271435976, 0.002166473539546132, -0.00370111339725554, 0.00212475610896945, -0.0006737853982485831, -0.001831269240938127, -0.007835580967366695, 0.0009905742481350899, -0.00011747600365197286, 0.005319739226251841, -0.0026745302602648735, 0.0004824209026992321, -0.000719413859769702, 0.0008643962792120874, 3.254221519455314e-05, 0.0012344546848908067, -0.0029012924060225487, 0.0024539250880479813, 0.0010229694889858365, -0.00026025291299447417, -0.002506472636014223, -0.0004990832530893385, -0.0007099517970345914, 0.001526851556263864, -0.0010923086665570736, 0.0026121584232896566, -0.0006443308084271848, 0.0008341366774402559, -0.001377781038172543, 0.002240749541670084, -0.003736985381692648, 0.0047317855060100555, 0.002041024621576071, 0.0017014456680044532, 0.00019159603107254952, 0.0002585188194643706, -0.001511932467110455, 0.0014111571945250034, -0.000254891871009022, 0.00144606560934335, -0.002398095093667507, 0.008346747606992722, -0.004236810375005007, -0.008055206388235092, -0.0009413905208930373, 0.0023828702978789806, -0.003844828112050891, 0.003135387320071459, 0.0057205017656087875], [-0.00034256817889399827, -0.0039534191600978374, -0.002391982125118375, -0.0034111689310520887, 0.0003004975151270628, -0.000494276755489409, -0.0025030048564076424, -0.0020102872513234615, 0.0016580017982050776, 0.0017865648260340095, 0.0019003484630957246, -0.0039044790901243687, 0.000899170059710741, -0.0008860604139044881, -0.001503748819231987, -0.001935852924361825, -0.002257461193948984, -0.0007205839501693845, 0.0014787387335672975, 0.0015798903768882155, 0.0016145019326359034, 0.0016159845981746912, 0.004199704620987177, 0.0006638678023591638, 0.00142488454002887, -0.0020235031843185425, -0.002226071199402213, -0.00478546554222703, 0.00023716260329820216, -0.0015118662267923355, -0.0010992519091814756, -0.0013080468634143472, 0.0006916240090504289, 0.002554197097197175, 0.0008143691811710596, -0.0008670002571307123, 0.0018011918291449547, -0.002620117273181677, 0.002195338485762477, 0.0005729866679757833, 0.002226481679826975, -0.0010441432241350412, 0.00012395864177960902, -0.0002499013498891145, 0.002290902892127633, -0.004816715139895678, 0.0014915547799319029, -0.0005399056826718152, 0.001585947466082871, -0.0004049384733662009, 0.0010629823664203286, -0.0023016096092760563, 0.0015802138950675726, -0.0016158170765265822, 0.0020860196091234684, -0.001741343759931624, 0.0010110657894983888, -0.00042304923408664763, 0.0011695302091538906, -0.007253652438521385, -0.0018066357588395476, -0.0022340253926813602, 0.0019406937062740326, 0.0022874169517308474, -0.0027735137846320868, -0.0021773353219032288, 0.004005076363682747, 0.0008419838268309832, 0.0012159340549260378, -0.0010658740065991879, 0.0016708726761862636, 0.001673911465331912, 0.0007950363797135651, -0.0007737879641354084, 0.002263827947899699, -6.307654257398099e-05, 0.001387323485687375, 0.00230489787645638, -0.0009125236538238823, -0.0007217941456474364, 0.0012240548385307193, -0.001755944569595158, 0.001022593816742301, -0.000379518314730376, -0.0006740094977430999, -0.003048397833481431, 0.003906849771738052, -0.00133229186758399, 0.0009184477967210114, -0.0010722766164690256, 0.001221194164827466, -0.002502601593732834, 0.001990290591493249, 0.002165520330891013, 0.003142955480143428, -0.002295491984114051, 0.0015378696843981743, 0.001266750623472035, -0.001401326502673328, -0.0004480986390262842, -0.0007763070752844214, -0.002017044462263584, 0.005017782561480999, -0.0020059957168996334, 0.0015600479673594236, -0.00015059093129821122, 0.0015635830350220203, -0.0015665151877328753, 5.936091474723071e-05, -0.002522203838452697, 0.0006839580601081252, 0.0005181367741897702, 0.0009198039770126343, 0.002495330758392811, 0.0008444414706900716, -0.000294661324005574, 0.0020847695413976908, -0.0002971490321215242, 0.001312253181822598, -0.0018104321788996458, 0.0025159388314932585, -0.0012049198849126697, -0.0019270702032372355, -0.0008199974545277655, 0.0001774709962774068, -0.002091665519401431, 0.0006007202318869531, 0.00030492848600260913], [-0.002540732268244028, -0.0046531399711966515, -0.002072735456749797, -0.0017194920219480991, 0.00019184208940714598, -0.0009051096276380122, -0.0014347019605338573, -0.0025024977512657642, 0.007966098375618458, 0.0022266057785600424, 0.002189086517319083, -0.0023395561147481203, 0.001263729645870626, -0.0018264426616951823, -0.0018001452554017305, -0.002831424819305539, -0.0010550705483183265, -0.0011359534692019224, 0.0006008645286783576, 0.0059886216185987, 0.002239973982796073, 0.0026496965438127518, 0.0020722399931401014, 0.00162590853869915, 0.0031797843985259533, -0.0008763931109569967, -0.006339201238006353, -0.001994578167796135, 0.002381479600444436, -0.002687512431293726, -0.008043341338634491, -0.0015158135211095214, 0.0011233544209972024, 0.003674430539831519, 0.002404117025434971, -0.0010072528384625912, 0.0024591342080384493, -0.006041583139449358, 0.007629322819411755, 0.00040648842696100473, 0.002516950247809291, -0.012923678383231163, 0.002492315601557493, -0.0002801502705551684, 0.0002790970611386001, -0.002088711829856038, 0.0017589302733540535, -0.0017714565619826317, 0.0026122895069420338, -0.004409815650433302, 0.001355438376776874, -0.00521482527256012, 0.0022165579721331596, -0.0004213167412672192, 0.0015472590457648039, -0.001801296486519277, 0.002419530414044857, -0.003502198727801442, 0.0027731875889003277, -0.0007134688785299659, -0.008094800636172295, -0.00264445086941123, 0.0022704622242599726, 0.001732617267407477, -0.00498247379437089, -0.0068328240886330605, 0.0031019102316349745, 0.002135323127731681, 0.0012274929322302341, -0.0013930300483480096, 0.007586875930428505, 0.0015091946115717292, 0.002094252035021782, -0.0031109426636248827, 0.0012298893416300416, -0.0021149865351617336, 0.002591333817690611, 0.002547537675127387, -0.010331669822335243, -0.0018697116756811738, 0.004321724642068148, -0.0025175074115395546, 0.0006485908525064588, -0.0011177791748195887, -0.001827050233259797, -0.001177856931462884, 0.001306062564253807, -0.0018636317690834403, 0.0014054070925340056, -0.004285750444978476, 0.001258510397747159, -0.002021331572905183, 0.002401443663984537, 0.0014413237804546952, 0.0031505178194493055, -0.002629231894388795, 0.0010479260236024857, 0.0018555053975433111, -0.0023409011773765087, -0.0027768968138843775, -0.0021793199703097343, -0.0015043211169540882, 0.002224614378064871, -0.0025192569009959698, 0.002153115114197135, -0.0012392429634928703, 0.0017848217394202948, -0.0013469645055010915, 0.0005488079623319209, -0.002556929597631097, 0.002602141350507736, 0.0014128775801509619, 0.00025643332628533244, 0.0035887693520635366, 0.0015393294161185622, -0.0021970318630337715, 0.0014938467647880316, -0.0035681307781487703, 0.00048818258801475167, -0.0026134864892810583, 0.004976503551006317, -0.0005909278406761587, -0.010577403008937836, -5.421639798441902e-05, 0.0007902036886662245, -0.004229446407407522, 0.002531355945393443, 0.004578720312565565], [-0.0008262463379651308, -0.0011071055196225643, -0.0005461605032905936, -0.0015623449580743909, 0.001715178950689733, -0.0006930025410838425, -0.0010019795736297965, -0.0035563530400395393, 0.0010697019752115011, 0.002064553089439869, 0.0004256493994034827, -0.0009297954966314137, 0.003937946632504463, -0.002717633731663227, -0.0038539955858141184, -0.0010059494525194168, -0.0007720203720964491, -0.00043219930375926197, 0.0019657607190310955, 0.0014887157594785094, 0.0011882676044479012, 0.0032416966278105974, 0.005414432846009731, 0.005632669199258089, 0.0020732595585286617, -9.205251444655005e-06, -0.0008000700618140399, -0.000559008214622736, 0.0030754501931369305, -0.0011622576275840402, -0.001091034384444356, -0.0014343558577820659, 0.0033568525686860085, 0.0014919276582077146, 0.004507454577833414, -0.0014404377434402704, 0.000817672407720238, -0.006234269123524427, 0.0015898850979283452, 0.0017587566981092095, 0.0013148332946002483, -0.0006836045067757368, 0.002063754480332136, -0.00346036977134645, 0.0011578353587538004, -0.0009162347996607423, 0.0016161645762622356, -0.0004898275365121663, 0.004981482867151499, -0.0025084323715418577, 0.0012186658568680286, -0.0008534671505913138, 0.002470836043357849, -0.0021807909943163395, 0.0018942344468086958, -0.0005309564876370132, 0.0011388323036953807, -0.002356281504034996, 0.00012804889411199838, -0.0006440273718908429, -0.0003286968858446926, -0.0017158269183710217, 0.0012325767893344164, 0.0019359852885827422, -0.0031617027707397938, -0.0005215149722062051, 0.0007630885229445994, 0.0007292639347724617, 0.0025109879206866026, -0.0005540098063647747, 0.0008216117275878787, 0.0009084159974008799, 0.000850382843054831, -0.0006672439048998058, 0.0031024327035993338, -0.005494021810591221, 0.0007277459371834993, 0.0004411133995745331, -0.0006321939872577786, -0.0015877911355346441, 0.0015496498672291636, -0.0007180836983025074, 0.0019842933397740126, -0.0006688367575407028, -0.0028413021937012672, -0.0007672901265323162, 0.0005146311596035957, -0.0006608553230762482, 0.0012220736825838685, -0.0022636803332716227, 0.0006344460998661816, -0.0007867649546824396, 0.00044451211579144, 0.0009450603974983096, 0.002174576511606574, -0.0030723311938345432, 0.0008011905010789633, 0.0024489229544997215, -0.0021534410770982504, -0.001096978783607483, -0.00047904180246405303, -0.0013592200120911002, 0.002195193665102124, -0.000951031397562474, 0.0005986862233839929, -0.0019306517206132412, 0.003031158586964011, -0.0010108841815963387, 0.001920606940984726, -0.0031933647114783525, 0.0010200409451499581, 0.0015593611169606447, 0.00233491905964911, 0.004037987906485796, 0.0011745438678190112, -0.002425502985715866, 0.00408926559612155, -0.005579896736890078, 0.002559918910264969, -0.0028295342344790697, 0.00038044751272536814, -0.0034741603303700686, -0.002060889732092619, -0.003582328325137496, 0.00365916034206748, -0.000273434619884938, 0.0009421400027349591, 0.002483262214809656], [-0.0038793287239968777, -0.0017224750481545925, -0.0010175143834203482, -0.0017290071118623018, 0.0014602437149733305, -0.0008522663847543299, -0.003957606852054596, -0.0007631222251802683, 1.5515914128627628e-05, 0.0012518205912783742, 0.001981414621695876, -0.0012344043934717774, 0.0033404857385903597, -0.0014886227436363697, -0.0021129921078681946, -0.00405069999396801, -0.0009133514831773937, -0.0014020378002896905, 0.004039158578962088, 0.0001081597147276625, 0.000552821031305939, 0.003928932826966047, 0.004530825652182102, 0.001195598510093987, 0.0009114593849517405, -0.0014206005726009607, -0.0009689938160590827, -0.002961335238069296, 0.00120177969802171, -0.004460984840989113, -0.0014911862090229988, -0.002165593672543764, 0.0026353634893894196, 0.0007513652672059834, 0.001803811639547348, -0.0010975621407851577, 0.004122692625969648, -0.0038747084327042103, 0.00030958239221945405, 0.004987361840903759, 8.245895151048899e-05, -0.0006173612200655043, 0.000852123077493161, -0.0003217352495994419, 0.001389695331454277, -0.0019265715964138508, 0.00044673061347566545, -0.0015481124864891171, 0.0004033602890558541, -0.00322048575617373, 0.0036753229796886444, -0.003154435660690069, 0.002417691284790635, -0.0018115438288077712, 0.0003749564057216048, -0.00026509223971515894, 0.00435813469812274, -0.0003679697692859918, 0.00238376809284091, -0.002552022924646735, -0.001116640865802765, -0.004615926183760166, 0.0005067112506367266, 0.004389993846416473, -0.0026588879991322756, -0.0012362428242340684, 0.0016639191890135407, 0.0016042384086176753, 0.0015238000778481364, -0.00023831098224036396, 0.00228631473146379, 0.004354787524789572, 0.0025110708083957434, -0.004425463266670704, 0.0017554427031427622, -0.0029732033144682646, 0.004132857080549002, 0.0008961669518612325, -0.0008210549131035805, -0.002172386273741722, 0.0030160192400217056, -0.0010300801368430257, 0.0033764480613172054, -0.0008834361797198653, -0.0008516042144037783, -0.0009468381176702678, 0.0011770218843594193, -0.002458475064486265, 0.0008185264305211604, -0.0007137104985304177, 0.002560644643381238, -0.0018327420111745596, 0.004438586067408323, 0.0015772669576108456, 0.00022032094420865178, -0.0011863301042467356, 0.0019824104383587837, 0.0013335191179066896, -0.0020042057149112225, -0.0026189610362052917, -0.001954523380845785, -0.0027829944156110287, 0.00012583972420543432, -0.0017540643457323313, 0.0016381486784666777, -0.0013195552164688706, 0.005653084255754948, -0.00023050923482514918, 0.001981989247724414, -0.0053472151048481464, 0.0023517587687820196, 0.0007750084041617811, 0.0021077750716358423, 0.0061371903866529465, 0.002907802816480398, -0.0004503850359469652, 0.002105188788846135, -0.003083670511841774, 0.0017803764203563333, -9.320915705757216e-05, 0.0025733488146215677, -0.0014282593037933111, -0.0030200073961168528, -0.0014003063552081585, 0.0014237237628549337, -0.0018731761956587434, 0.0043065608479082584, 0.000857953040394932], [0.028092680498957634, 0.03145634010434151, 0.027716265991330147, 0.024835241958498955, -0.021460283547639847, 0.005337309557944536, 0.03455476090312004, 0.015381169505417347, -0.03152555599808693, -0.024438321590423584, -0.013155488297343254, 0.03125537186861038, -0.030871815979480743, 0.010907436721026897, 0.016489040106534958, 0.010428772307932377, 0.026203803718090057, 0.013490402139723301, -0.025291360914707184, -0.0333935022354126, -0.027964720502495766, -0.02545936591923237, -0.02212587371468544, -0.01997661590576172, -0.011019591242074966, 0.005336010828614235, 0.009657151065766811, 0.025400390848517418, -0.021949540823698044, 0.004677858669310808, 0.016794878989458084, 0.00624070642516017, -0.02548753283917904, -0.01752801612019539, -0.024423478171229362, 0.018370024859905243, -0.01903233863413334, 0.007486752234399319, -0.016539568081498146, -0.028921009972691536, -0.024029696360230446, 0.02901577576994896, -0.0032848967239260674, 0.006654336117208004, -0.004121566656976938, 0.02867922931909561, -0.002334529533982277, 0.03414863348007202, -0.0053083086386322975, 0.03333995118737221, -0.022163841873407364, 0.004303673282265663, -0.0031312918290495872, 0.017134174704551697, -0.0039670527912676334, 0.016857488080859184, -0.026788946241140366, 0.029049700126051903, -0.0037366910837590694, 0.006894592195749283, 0.03559694066643715, 0.026240646839141846, -0.025114119052886963, -0.006106342189013958, 0.033204205334186554, 0.03607110306620598, -0.033151645213365555, -0.02108013443648815, -0.0055849915370345116, 0.0038466453552246094, -0.024417106062173843, -0.017462700605392456, -0.02111167088150978, 0.028470300137996674, -0.003246086882427335, 0.005133839324116707, -0.013558554463088512, -0.032245974987745285, 0.03873080760240555, 0.018099118024110794, -0.006732585374265909, 0.031010901555418968, -0.029743468388915062, 0.03124968521296978, 0.02214854769408703, 0.030522765591740608, -0.005493171978741884, 0.025401873514056206, -0.0035354397259652615, 0.02126139961183071, -0.006045497953891754, 0.02843986265361309, -0.005964962765574455, -0.017900392413139343, -0.032951440662145615, 0.03158067911863327, -0.016705846413969994, -0.013712476007640362, 0.00027785779093392193, 0.029066825285553932, 0.005595874041318893, 0.003610344137996435, -0.00683630770072341, 0.014620058238506317, -0.006503297947347164, 0.026976807042956352, -0.02008626237511635, 0.0278890710324049, -0.000806126743555069, 0.02202804945409298, -0.007614101283252239, -0.005957712419331074, -0.025857016444206238, -0.0046419184654951096, -0.02597387507557869, 0.014210349880158901, -0.0033038079272955656, 0.030248165130615234, -0.02454620786011219, 0.01971735619008541, -0.02645760588347912, 0.01702203042805195, 0.02238195575773716, 0.02485557831823826, -0.0078358119353652, 0.009118680842220783, -0.02980789914727211, -0.03920688107609749], [-0.0005047628656029701, -0.0009349964675493538, -0.002608970971778035, -0.0063726091757416725, 0.00028434384148567915, -0.0006205035606399179, -0.0024338604416698217, -0.0019157625501975417, 0.0007683959556743503, 0.003151624696329236, 0.001659285044297576, -0.002527823904529214, 0.000991669250652194, -0.0007632111664861441, -0.0013741737930104136, -0.0015022290172055364, -0.002301867352798581, -0.00271585863083601, 0.0030208351090550423, 0.003479283070191741, 0.00038121844409033656, 0.0016403443878516555, 0.0003476878337096423, 0.001656202133744955, 0.0021362302359193563, -0.0012047747150063515, -0.0018069145735353231, -0.001567369094118476, 0.001204262487590313, -0.0018502336461097002, -0.0010947497794404626, -0.0016899609472602606, 0.00262332777492702, 0.002211306244134903, 0.00044205551967024803, -0.0024061407893896103, 0.0013285905588418245, -0.00229000230319798, 0.0008158527780324221, 0.00017875932098831981, 0.0028941803611814976, -0.00012172207061666995, 0.0021396169904619455, -0.0010894769802689552, 0.0028147913981229067, -0.0017217012355104089, 0.00012247553968336433, -0.0019148014253005385, 0.00044442026410251856, -0.002378887264057994, 0.001613083528354764, -0.002331518568098545, 0.0007360243471339345, -0.0017308831447735429, 0.0007784957415424287, -0.0008324834052473307, 0.0016526823164895177, -0.001288859755732119, 0.0023800416383892298, -0.002215095330029726, -0.0037559291813522577, -0.0018015610985457897, 0.0006521292962133884, 0.0016407945659011602, -0.0010021255584433675, -0.0013013738207519054, 0.0019434974528849125, 0.0010982501553371549, 0.0024255558382719755, -0.0019478612812235951, 0.0012553210835903883, 0.0001530836889287457, 0.0021571763791143894, -0.0004362083855085075, 0.00014285818906500936, -0.00034048542147502303, 0.002359955105930567, 0.0014462913386523724, -0.0005743899382650852, -0.0013467702083289623, 4.998189979232848e-06, -0.00232227542437613, 0.0006876480183564126, -0.002108958549797535, -0.0013570551527664065, -0.0023487266153097153, 0.0034457999281585217, -0.0033746431581676006, 0.0026785708032548428, -0.0017933110939338803, 0.0018119927262887359, -3.819747144007124e-05, 0.0011556465178728104, 0.0007740865694358945, 0.002157194074243307, -0.004155321046710014, 0.002035098383203149, 0.001203729072585702, -0.0013743345625698566, -0.004311004187911749, -0.0025532941799610853, -0.0022524038795381784, 0.0008063596324063838, -0.002096370095387101, 0.0026771570555865765, -0.004818926565349102, 0.0015403011348098516, -0.000605821842327714, 0.0020134523510932922, -5.463759589474648e-05, 0.0009087504004128277, 0.0019163050455972552, 0.002731640823185444, 0.0003002131707035005, 0.000947227468714118, -0.0008451474132016301, 0.00169107667170465, -0.0026023010723292828, 0.0023552021011710167, -0.0013585331616923213, 0.0005150216165930033, -0.002424083650112152, -0.0026893930044025183, -0.001939294976182282, 0.0019213873893022537, -0.0015917666023597121, 0.0005611597443930805, 0.002360935090109706], [-0.001508007408119738, -0.004115466959774494, -0.009654575027525425, -0.006787272170186043, 0.0019557734485715628, -0.0018195665907114744, -0.0029391394928097725, -0.005898204632103443, 0.01629665493965149, 0.00242088851518929, 0.0010884538060054183, -0.0046829828061163425, 0.01094115525484085, -0.005451416131108999, -0.0038592442870140076, -0.015521708875894547, -0.001098396023735404, -0.0025128035340458155, 0.008921675384044647, 0.013701988384127617, 0.002427960280328989, 0.004920396022498608, 0.0038003085646778345, 0.0021085431799292564, 0.006016792729496956, -0.002356463810428977, -0.013428105972707272, -0.004432323854416609, 0.00012039510329486802, -0.005395039916038513, -0.009074459783732891, -0.0014207694912329316, 0.002672667847946286, 0.010990649461746216, 0.0030650750268250704, -0.0007609327440150082, 0.0019229674944654107, -0.0024775753263384104, 0.013873466290533543, 0.01081906445324421, 0.011664285324513912, -0.016449596732854843, 0.0021717471536248922, -0.0030208416283130646, 0.010278073139488697, -0.009892350062727928, 0.0021735099144279957, -0.01598275825381279, 0.000780849892180413, -0.016515135765075684, 0.004826836753636599, -0.011083349585533142, 0.0001365320204058662, -0.002186991972848773, 0.0021967487409710884, -0.001390244229696691, 0.01085629127919674, -0.0163352582603693, 0.0026578563265502453, -0.012069516815245152, -0.011546316556632519, -0.00025672712945379317, 0.002444660756736994, 0.002450458938255906, -0.015313258394598961, -0.015883581712841988, 0.0137561010196805, 0.0023661265149712563, 0.0015451244544237852, -0.0028077224269509315, 0.00479676341637969, 0.002013219753280282, 0.0023364212829619646, -0.013499411754310131, 0.0018988403026014566, -0.007232335861772299, 0.0013275794917717576, 0.0019606337882578373, -0.019189734011888504, -0.00230487366206944, 0.0016725818859413266, -0.005371404811739922, 0.0032683059107512236, -0.0081918491050601, -0.002257566200569272, -0.007778060156852007, 0.010384404100477695, -4.166873623034917e-06, 0.002620405750349164, -0.002228880301117897, 0.0018349047750234604, -0.001033131149597466, 0.007158319000154734, 0.0022920933552086353, 0.014136478304862976, -0.011588506400585175, 0.0021223609801381826, 0.00014505870058201253, -0.0016173440963029861, -0.007170588709414005, -0.008808826096355915, -0.003294390393421054, 0.002439001575112343, -0.0010189996100962162, 0.002481566509231925, -0.006164928432554007, 0.005772261880338192, -0.005485407076776028, 0.004549792967736721, -0.008318684995174408, 0.013974604196846485, 0.006130625493824482, 0.00026259617879986763, 0.011626762337982655, 0.012164478190243244, -0.0028267763555049896, 0.0026939210947602987, -0.004615139216184616, 0.008087825030088425, -0.008518985472619534, 0.011998176574707031, -0.006004593335092068, -0.003984620328992605, -0.004968979861587286, 0.004126136191189289, -0.0035593060310930014, 0.010329892858862877, 0.01613239012658596], [-0.0006133376155048609, -0.00097982760053128, -0.004887097515165806, -0.00038445385871455073, 0.0002806223346851766, -0.0013499540509656072, -0.0018689152784645557, -0.002140215365216136, 0.0016415518475696445, 0.0024265130050480366, 0.00017789578123483807, -0.0012824760051444173, 0.0017957609379664063, -0.001869852771051228, -0.0006694681942462921, -0.001026347978040576, -0.0008035085629671812, -0.002382543170824647, 0.001724090427160263, 0.004790043458342552, 0.0007741698063910007, 0.0013946034014225006, 0.0020863041281700134, 0.0018559676827862859, 0.0013262676075100899, -0.0005216947756707668, -0.004878079053014517, -0.002223847433924675, 0.0006935155834071338, -0.0003214162716176361, -0.004112008959054947, -0.0018292538588866591, 0.002052963012829423, 0.0028909004759043455, 0.0014115527737885714, -0.0011718033347278833, 0.0013921456411480904, -0.002344724955037236, 0.003958980552852154, 0.000506622192915529, 0.0006896439590491354, -0.002089295769110322, 0.0005194586701691151, -0.0009473934187553823, 0.001829719403758645, -0.0005309699336066842, 0.0017717027803882957, -0.0009307849104516208, 0.001604125602170825, -0.0007195979123935103, 0.0006612248253077269, -0.00041457812767475843, 0.001714933430776, -0.00208722660318017, 0.0006259948131628335, -0.0015913991956040263, 0.0016705706948414445, -0.0014503553975373507, 0.0017417310737073421, -0.005826449487358332, -0.0015903374878689647, -0.0001589330640854314, 0.002185350051149726, 0.0003445420297794044, -0.0008472074987366796, -0.001600870513357222, 0.001847509411163628, 0.0020467140711843967, 0.002327707828953862, -0.0010410444810986519, 0.0017482746625319123, 0.002443910576403141, 0.0008089057519100606, -0.0008437018841505051, 0.00040287288720719516, -0.0006853467202745378, 0.0021948476787656546, 0.0013088081032037735, -0.0016696540405973792, -0.0011632944224402308, 0.000753356609493494, -0.0016336067346855998, 0.0022155113983899355, -0.0017745617078617215, -0.0016567885177209973, -0.0024032103829085827, 0.0023612957447767258, -0.002264374168589711, 0.00066516047809273, -0.0009568784735165536, 0.0025511460844427347, -0.0006271320744417608, 0.002358741359785199, 0.0006611650460399687, 0.001039212686009705, -0.00016406156646553427, 0.0005384350079111755, 0.0009076002752408385, -0.0006228573038242757, -0.0006756990915164351, -0.0017836102051660419, -0.001195720862597227, 0.0016777116106823087, -0.0006975124124437571, 0.0014353174483403563, -0.001813968876376748, 0.0014146924950182438, -0.001603354001417756, 0.0003760108957067132, -0.0009018715936690569, 0.0012933879625052214, 0.0005076362285763025, 0.002337015001103282, 0.0017331265844404697, 0.0012874924577772617, -0.0011597886914387345, 0.002254312625154853, -0.0010696470271795988, 0.0010718777775764465, -0.002504184376448393, 0.001444789581000805, -0.0003916806308552623, -2.484002470737323e-05, -0.00022131140576675534, 0.00031416292767971754, -0.0017674150876700878, 0.00123244256246835, 0.00020585286256391555], [0.00036700867349281907, 0.00010750186629593372, 0.004878015257418156, 0.0005450563621707261, -0.00014127767644822598, 0.0019110421417281032, 0.0018974383128806949, 0.0010702261934056878, -0.004185044206678867, -0.0023323153145611286, -0.0025244387798011303, 0.002005091169849038, -0.0005840081139467657, 0.002042219042778015, 0.0007816030411049724, 0.00034245458664372563, 0.0004033319419249892, 0.0015728557482361794, -0.0014194523682817817, -0.0022202583495527506, -0.0005363076343201101, -0.0007201028638519347, -0.0017664588522166014, -0.001416577841155231, -0.002322971588000655, 0.0002836597850546241, 0.0017051997128874063, 0.0006755159702152014, -0.0020485976710915565, 0.0003458774881437421, 0.001554092625156045, 0.0010086784604936838, -0.004640351049602032, -0.0013778721913695335, -0.0012889691861346364, 0.000881166139151901, -0.0002060897822957486, 0.0016311841318383813, -0.0011343054939061403, -0.0022928384132683277, -0.0008880423265509307, 0.00011593903764151037, -0.0007680802955292165, 0.002495489316061139, -0.001965283416211605, 0.0013923196820542216, -0.001639753463678062, 0.0019312944496050477, -0.00170846376568079, 0.0018974507693201303, -0.0017137624090537429, 0.0011967194732278585, -0.0019218993838876486, 0.00040587448165751994, -0.0008208671351894736, 0.0008787728729657829, -0.0007428523385897279, 0.002772092819213867, -0.0011394473258405924, 0.0003963742929045111, 0.0007884151418693364, 0.00016986264381557703, -0.0009292650502175093, -0.001525422208942473, 0.0007870780536904931, 0.003515890333801508, -3.418715641601011e-05, -0.0009315286297351122, -0.00014368850679602474, 0.002075113356113434, -0.0012886738404631615, -0.0013523336965590715, -0.0014175432734191418, 0.0005565765895880759, -0.0004892231081612408, 0.0015102496836334467, -0.0017945480067282915, -0.0005786787369288504, 0.003721308894455433, 0.00023912082542665303, -0.0011028933804482222, 0.0011393349850550294, -0.0018352947663515806, 0.0016511118737980723, 0.0011737578315660357, 0.0013718418776988983, -0.002202124334871769, 0.0011447466677054763, -0.0006968972156755626, 0.0026861410588026047, -0.002193586667999625, 0.0019781484734266996, -0.0023022559471428394, -0.0016475057927891612, -0.004394639283418655, 0.005186031572520733, -0.002299794927239418, -0.0021150384563952684, 0.0008564591407775879, 0.0027886084280908108, 0.0025116889737546444, 0.0028362679295241833, -0.00047517960774712265, 0.00023795639572199434, -0.001501657534390688, 0.0003148649411741644, -0.0010572136379778385, 0.000804038078058511, -0.0007028235122561455, 0.002351516392081976, -0.0012959660962224007, -0.0014055718202143908, -0.00248750951141119, -0.0018473949749022722, -0.00047022459330037236, 0.002247584518045187, -0.0008541728602722287, 0.006014746148139238, -0.0015211200807243586, 0.001898498274385929, -0.0012178457109257579, 0.0025206622667610645, 0.00031867873622104526, 0.0010034056613221765, -0.0005331250140443444, 0.004046284593641758, -0.001865540398284793, -0.002408263273537159], [-0.00220517348498106, -0.0023605749011039734, -0.0020720555912703276, -0.0018619959009811282, 0.0027294617611914873, -0.0003232963499613106, -0.00278491317294538, -0.004808856640011072, 0.0026850521098822355, 0.00788039993494749, 0.001103650196455419, -0.004293021280318499, 0.0011159790446981788, -0.006468699313700199, -0.003728522453457117, -0.0019131677690893412, -0.0017872521420940757, -0.003799687372520566, 0.002127346582710743, 0.0011929916217923164, 0.007061767391860485, 0.003879225580021739, 0.0022313054651021957, 0.004296989645808935, 0.0014863454271107912, -0.0006624835077673197, -0.0024402709677815437, -0.0022653616033494473, 0.0018498861463740468, -0.005227216053754091, -0.005156189203262329, -0.003434396581724286, 0.0046105473302304745, 0.0037504201754927635, 0.0023646496701985598, -0.0023844630923122168, 0.0014178345445543528, -0.005397455301135778, 0.002408658852800727, 0.0016236241208389401, 0.0006170416600070894, -0.006987143307924271, 0.0020822957158088684, -0.001789928530342877, 0.0024440502747893333, -0.0036385441198945045, 0.000150007545016706, -0.0020845651160925627, 0.0014353288570418954, -0.002640287857502699, 0.0012541897594928741, -0.0022083763033151627, 0.0028528552502393723, -0.00013044381921645254, 0.001618645852431655, -0.002074542688205838, 0.0012477058917284012, -0.00109868124127388, 0.0015151782426983118, -0.00074575754115358, -0.002501432318240404, -0.003180496161803603, 0.000518937420565635, 0.006849885452538729, -0.005732017569243908, -0.0013474925654008985, 0.00015413359506055713, 0.0011964531149715185, 0.002063724445179105, -0.0029243449680507183, 0.0013227778254076838, 0.001921605784446001, 0.006214207503944635, -0.00042564995237626135, 0.0025253223720937967, -0.002499770140275359, 0.0024114414118230343, 0.002441233489662409, -0.0022942014038562775, -0.003506849519908428, 0.006162200588732958, -0.0030493612866848707, 0.00473872572183609, -0.0013814150588586926, -0.0007226112065836787, -0.002875435631722212, 0.00637430977076292, -0.0024814759381115437, 0.00012139554746681824, -0.0022531296126544476, 0.00249639549292624, -0.001276049530133605, 0.0009096188005059958, 0.0015557961305603385, 0.000609228212852031, -0.008309869095683098, 0.0020624396856874228, 2.6763744244817644e-05, -0.002508675679564476, -0.0005836343043483794, -0.0011459317756816745, -0.002813642146065831, 0.0018490975489839911, -0.0018709615105763078, 0.0012777383672073483, -0.004283639136701822, 0.007008726708590984, -0.0018618319882079959, 0.0020647875498980284, -0.0005171216907911003, 0.0012658495688810945, 0.005674593150615692, 0.010485506616532803, 0.003103598952293396, 0.002386460779234767, -0.002516981214284897, 0.006004418712109327, -0.002660174388438463, 0.0022661350667476654, -0.007918113842606544, 0.0025290073826909065, -0.0035937135107815266, -0.004597521387040615, -0.00026689309743233025, 0.0025193355977535248, -0.0035711268428713083, 0.00242822733707726, 0.0019991754088550806], [0.0018901698058471084, 0.002164663514122367, 0.0024941153824329376, 0.0015102154575288296, -0.0009393224609084427, 0.001613930449821055, 0.0016669743927195668, 0.0020817576441913843, -0.0015267262933775783, -0.0020306296646595, -0.002039630664512515, 0.001007894636131823, -0.0018976125866174698, 0.002387175103649497, 0.0026164723094552755, 0.004059347789734602, 0.0018503207247704268, 0.001590280793607235, -0.001886989688500762, -0.002230270765721798, -0.0020319961477071047, -0.002412966452538967, -0.0015490609221160412, -0.002417208394035697, -0.0019295895472168922, 0.0022557571064680815, 0.0005326482933014631, 0.0023356350138783455, -0.004446389153599739, 0.0008977727848105133, 0.006525518372654915, 0.0007561816019006073, -0.0015819076215848327, -0.0024752584286034107, -0.0024173494894057512, 0.00133373006246984, -0.004604270216077566, 0.0020485639106482267, -0.00018515923875384033, -0.001664460520260036, -0.00014401537191588432, 0.0025097874458879232, -0.0022006200160831213, 0.002389291301369667, -0.001972563797608018, 0.00209984858520329, -0.001583968522027135, 0.001192036783322692, -0.00018431890930514783, 0.0010071577271446586, -0.00097101298160851, 0.001960635418072343, -0.0006020466098561883, 0.0009000960853882134, -0.0021697061602026224, 0.0014500545803457499, -0.0016828083898872137, 0.00283697503618896, -0.0013601192040368915, 0.0004986408166587353, 0.0005642570904456079, 0.0009880821453407407, -0.0012367886956781149, -0.0007666200399398804, 0.0004085667314939201, 0.0012528892839327455, -0.0006400386337190866, -0.0009585124207660556, -0.0012543968623504043, 0.001637572655454278, -0.0018072848906740546, -0.0008716178126633167, -0.0016266285674646497, 0.001009299186989665, -0.0008927720482461154, 0.0017129624029621482, -0.000257369625614956, -0.00039488449692726135, 0.005773024167865515, 0.0021578827872872353, -0.0016952517908066511, 0.0002892292395699769, -0.0019440660253167152, 0.0019946868997067213, 0.0015469242352992296, 0.0007187490700744092, -0.002424403093755245, 0.0013656956143677235, -0.0025722889695316553, 0.00032150925835594535, -0.005508179776370525, 0.0019561827648431063, -0.0019215238280594349, -0.001906203804537654, -0.0004191526095382869, 0.0018474519019946456, -0.0018631493439897895, -0.0007061671349219978, 0.00010639852553140372, 0.0009087705402635038, 0.0022869156673550606, 0.0019735400564968586, -0.0011259566526859999, 0.0012276647612452507, -0.001880419673398137, 0.006458232644945383, -0.00045673776185140014, 0.0017660148441791534, -4.3148069380549714e-05, 0.0023055393248796463, -0.0015289589064195752, -0.002190150087699294, -0.0025548783596605062, -0.001352942199446261, -0.0009059103904291987, 0.0019487785175442696, -0.0017857240745797753, 0.0007280228310264647, -0.0011250443058088422, 0.000635739357676357, -0.0009267752757295966, 0.002399984048679471, 0.002709912369027734, 0.0011141118593513966, -0.0021784857381135225, 0.0022588178981095552, -0.00225251168012619, -0.0003300112148281187], [0.004396934527903795, 0.0012075596023350954, 0.001136487815529108, 0.004534675739705563, -0.00041046267142519355, 0.003280199598520994, 0.0009399359696544707, 0.001370220328681171, -0.0034443149343132973, -0.0007254495867528021, -0.0012267837300896645, 0.002540907356888056, -0.0014330504927784204, 0.004422355908900499, 0.002645932137966156, 0.005673167761415243, 0.0018696323968470097, 0.0006026208866387606, -0.0013385082129389048, -0.002808724297210574, -0.001024257275275886, -0.0012656027683988214, -0.007117778528481722, -0.002748797880485654, -0.005756595637649298, 0.0013272243086248636, 0.004714071284979582, 0.002000523963943124, -0.00415642699226737, 0.001303980010561645, 0.0013891472481191158, 0.002513312269002199, -0.006611708551645279, -0.0014269007369875908, -0.007818828336894512, 0.002510243095457554, -0.0022368512582033873, 0.000494718668051064, -0.0007930785068310797, -0.002210110891610384, -0.004026473965495825, 0.0018706233240664005, -0.005752895027399063, 0.0023711244575679302, -0.005478100851178169, 0.0030566465575248003, -0.0013275910168886185, 0.0006607414106838405, -0.011241169646382332, 0.0032553132623434067, -0.0059431931003928185, 0.0010138768702745438, -0.002172763692215085, 0.0002455755020491779, -0.0021960705053061247, 0.004395039286464453, -0.0013176134089007974, 0.002790868515148759, -0.00022452123812399805, 0.0012085644993931055, 0.004615289159119129, 0.0007229584152810276, -0.00039076898247003555, -0.0017018745420500636, 0.008722511120140553, 0.0010145095875486732, -0.0016385854687541723, -0.0019108803244307637, -0.0015779291279613972, 0.0015221077483147383, -0.0014604610623791814, -0.000519775552675128, -0.005179267376661301, 0.0041669518686831, -0.001575653557665646, 0.006573796272277832, -0.0009980682516470551, -0.002924047876149416, 0.0016202084952965379, 0.0009296663920395076, -0.005780006293207407, 0.001258503645658493, -0.0007594174239784479, 0.0054147373884916306, 0.0020740856416523457, 0.0018046380719169974, -0.0037273888010531664, 0.00339891342446208, -0.002779965288937092, 0.001561539014801383, -0.0005847458960488439, 0.002565843751654029, -0.0059339930303394794, -0.001427407842129469, -0.00037873638211749494, 0.000747163372579962, -0.003740575397387147, -0.000442077056504786, 0.002833956154063344, 0.003704499453306198, 0.008251029066741467, 0.00115191878285259, -0.0019277272513136268, 0.0010348448995500803, -0.0025923806242644787, 0.0016955154715105891, -0.0006655032048001885, 0.0006877711857669055, -0.00013783114263787866, 0.002433296525850892, -0.00287458929233253, -0.0023392525035887957, -0.0042231157422065735, -0.003880283795297146, -0.003261206904426217, 0.0008477740921080112, -0.005763940513134003, 0.0027892610523849726, -0.004557861015200615, 0.0007908826810307801, -0.00445838226005435, 0.0016704890877008438, 0.0011774494778364897, 0.0016975095495581627, -0.003245874075219035, 0.0006324409623630345, -0.0022703916765749454, -0.0014394136378541589], [-0.000787940458394587, -0.0006400476559065282, -0.0004449512343853712, -0.0011186092160642147, 0.0008071030024439096, -0.0006007030024193227, -0.00029023451497778296, -0.0013602528488263488, 0.00259871082380414, 0.0016455724835395813, 0.00010926846880465746, -4.561512469081208e-05, 0.0017898352816700935, -0.00022105028619989753, -0.0013222378911450505, -0.0011234041303396225, -0.0008115767268463969, -0.001383492024615407, 0.0011315515730530024, 0.0012633620062842965, 0.0005142955342307687, 0.0015539029845967889, 0.0009239412029273808, 0.0015976192662492394, 0.00025912243290804327, -0.0001873693981906399, -0.0007917326875030994, -9.489726653555408e-05, 0.0019453206332400441, -0.001236695796251297, -0.003433746751397848, -0.00043180471402592957, 0.0025979485362768173, 0.0006464785546995699, 0.00020121833949815482, -0.001104796421714127, 0.0018512215465307236, -0.0009324820712208748, 0.004768691956996918, 0.00031070830300450325, 0.00238030101172626, -0.003097864333540201, 0.0010465248487889767, -0.002237553708255291, 0.001843179459683597, -0.0015218397602438927, 0.0015043078456074, -0.0008558275294490159, 0.0015919383149594069, -0.001556181930936873, 0.0014004417462274432, -0.0015436657704412937, 0.0013548042625188828, -0.002110747853294015, 0.0001973092876141891, -0.0012520598247647285, 0.0006406208267435431, -0.00023846898693591356, 0.00018648849800229073, -0.0008063451969064772, -0.0007326467894017696, -0.0007535013719461858, 0.0013161790557205677, 0.0013250020565465093, -0.0040524923242628574, -0.001220911624841392, 0.0012746035354211926, 0.0006716353236697614, 0.001964910887181759, -0.00012363684072624892, 0.0002828757860697806, 0.0014453176409006119, 0.0002660350000951439, -0.0009176757303066552, 0.002128577558323741, -0.0010900826891884208, 0.0007057287148199975, 0.0011695249704644084, -0.002235354157164693, -0.0009232016163878143, 0.0007995602209120989, -0.0005660825408995152, 7.26368889445439e-05, -0.000901172636076808, -0.0009663825039751828, -0.0013926198007538915, 0.0016816509887576103, -0.0013447627425193787, 0.0020242033060640097, -0.0002720937773119658, 0.0009088389342650771, -0.0010934119345620275, 0.0004618571256287396, 0.0012766816653311253, 0.0011951380874961615, -0.00203136820346117, 0.0007375246495939791, 0.0010240201372653246, -0.00014317050226964056, -0.0009606073726899922, -0.0010847559897229075, -0.0005941179115325212, 0.0007206836598925292, -0.0013756140833720565, 0.0023027793504297733, -0.0016849188832566142, 0.0023072687909007072, -0.0006868197815492749, 0.0008781409123912454, -0.000357784447260201, 0.0010222767014056444, 0.0019120138604193926, 0.0011513126082718372, 0.0018493948737159371, 0.0006463440950028598, -0.0008013446931727231, 0.0013403441989794374, -0.0010974844917654991, 0.0008026122231967747, -0.0009245506371371448, 0.001449732226319611, -0.0008476740913465619, -0.0007774909608997405, -0.001574801281094551, 0.002083482453599572, -0.002345940563827753, 0.0008781683864071965, 0.0018917855340987444], [0.0009229355491697788, 0.0008088526083156466, 0.004938097670674324, 0.0024026776663959026, -0.0011826095869764686, 0.0010070863645523787, 0.0006252112798392773, 0.0017586637986823916, -0.005468018818646669, -0.0018977063009515405, -0.0022521214559674263, 0.0004374157579150051, -0.0008445090497843921, 0.001975007588043809, 0.0014158041449263692, 0.002081870101392269, 0.0014285987708717585, 0.002103008795529604, -0.0015438315458595753, -0.001780710881575942, -0.001847368897870183, -0.003181988839060068, -1.1075171642005444e-05, -3.1073035643203184e-05, -0.0016410626703873277, 0.0021064032334834337, 0.001059226575307548, 0.0005159378051757812, -0.002343561267480254, 0.0015793422935530543, 0.004504165146499872, 0.001943916198797524, -0.0012722008395940065, -0.0015845515299588442, -0.0015859362902119756, 0.001546585001051426, -0.002405111212283373, 0.0015730508603155613, -0.0011356630129739642, -0.0014712761621922255, -0.0011712574632838368, 0.0021020176354795694, -0.002101651392877102, 0.0010188318556174636, -0.0016512266593053937, 0.0011161002330482006, -0.0018842103891074657, 0.000818036962300539, -0.001141093554906547, 0.0002714924921747297, -0.0014506232691928744, 0.0021981121972203255, -0.0012134555727243423, 0.00223744404502213, -0.0009507501381449401, 0.0005781124345958233, -0.0016507459804415703, 0.004305544774979353, -0.0023189003113657236, 0.0022187470458447933, 0.00026913470355793834, 0.001340320915915072, -0.0012468536151573062, -0.0009611135465092957, 0.0007403422496281564, 0.0007642236887477338, -0.0012478757416829467, -0.0009543190826661885, -0.001834917813539505, 0.0007876047166064382, -0.001476087374612689, -0.0025139336939901114, -0.0024537823628634214, 0.002039354294538498, -0.0020984674338251352, 0.0019149446161463857, -0.001970064826309681, -0.002291747136041522, 0.0002626031928230077, 0.0007110597798600793, -0.0025085480883717537, 9.605961531633511e-05, -0.0026419537607580423, 0.000641395861748606, 0.0031890978571027517, 0.0013230667682364583, -0.001200156519189477, 0.0011519042309373617, -0.0024975158739835024, 0.002209917176514864, -0.002196704037487507, 0.001710939104668796, -0.0014157133409753442, -0.0024736160412430763, -0.0007411749684251845, 0.00015257207269314677, -0.0016625798307359219, -0.001975598046556115, 0.0026809293776750565, 4.804944546776824e-05, 0.0022288220934569836, 0.001331936102360487, -0.0020066979341208935, 0.00045050325570628047, -0.001461749547161162, 0.002162580145522952, -0.0024013910442590714, 9.744580165715888e-05, -0.00042520801071077585, 0.001872768858447671, -0.001488352776505053, -0.0018461581785231829, -0.0009946374921128154, -0.001673103659413755, -0.0008616264094598591, 2.515331652830355e-05, -0.0007097204215824604, 0.002495590830221772, -0.0024778794031590223, 0.0006314362399280071, -0.0009749093442223966, 0.001622996642254293, 5.494872675626539e-05, 3.805240339715965e-05, -0.004834472201764584, 0.0013915018644183874, -0.0019347667694091797, -0.0013628676533699036], [0.0006674200412817299, 0.00012157341552665457, 0.0010681659914553165, 0.0016439425526186824, -0.0005845149862580001, 0.0003094676067121327, 0.0017234761035069823, 0.0016778124263510108, -0.00015871723007876426, -0.0019667516462504864, -0.0006400677957572043, 0.001755796023644507, -0.00045403410331346095, 0.0020377167966216803, 0.00045242029591463506, 0.001228187931701541, 0.002078429562970996, 0.00030280702048912644, -0.0008391649462282658, -0.001234820461831987, -0.0016686769668012857, -0.001542097539640963, -6.962261977605522e-05, -0.0008850175072439015, -0.001317855785600841, 0.000620452978182584, 0.0007180535467341542, 0.0012150555849075317, -0.0022573538590222597, 0.00012878455163445324, 0.0007795844576321542, 0.00032171900966204703, -0.0013943673111498356, -0.00026278774021193385, -0.0007154587656259537, 0.0005684291827492416, -0.0017129683401435614, 0.0009051905362866819, -0.0011800951324403286, -0.001033962587825954, -0.0003971432743128389, 0.0015641044592484832, -0.0003028714854735881, 0.0004815130669157952, -0.00012992325355298817, 0.0008776977774687111, -0.00040449819061905146, 0.0016633359482511878, -0.0008104449952952564, 0.0020087617449462414, -0.0015326438006013632, 0.0008958259131759405, -0.0021683459635823965, 0.000926613574847579, -0.002114608185365796, 0.001139637897722423, -0.001620722352527082, 0.00242153974249959, -0.002343218307942152, 0.002092275768518448, 0.001386046875268221, 0.0006903049652464688, -0.0011276114964857697, -0.002013756427913904, 0.0015470782527700067, 0.0014794928720220923, -0.001919754664413631, -0.0018813699716702104, -0.0017807171680033207, 0.0002855358470696956, -0.0005125395837239921, -0.0004958957433700562, -0.0009317660587839782, 0.0010857990710064769, -0.0002420659875497222, 5.615233021671884e-06, -0.001992302481085062, -0.0024982658214867115, 0.0006924046901986003, 0.0017548812320455909, -0.0005674874992109835, 0.00020468869479373097, -0.0004432789282873273, 0.0012406441383063793, 0.0016898312605917454, 0.0011706677032634616, -0.0020449941512197256, 0.002080397680401802, -0.0021357815712690353, 0.002031772630289197, -0.0021416156087070704, 0.0004824286443181336, -0.0023799040354788303, -0.002326179062947631, -0.000833668396808207, 0.0007003797218203545, -0.00013486179523169994, -0.00011829256254713982, 0.0014309515245258808, 0.0009114125859923661, 0.0023080019745975733, 0.0008461417746730149, -0.0020945968572050333, 0.0008842116803862154, -0.002508798846974969, 0.0016079397173598409, -0.0006932883989065886, 0.0020022126846015453, -0.0021431532222777605, 0.00041766680078580976, -0.0010832694824784994, -0.0015002366853877902, -0.0016242488054558635, -0.0017373968148604035, -0.0005636348505504429, 0.001955408835783601, -0.002295849611982703, 9.544025670038536e-05, -0.0009928499348461628, 0.0016844433266669512, -0.0012033955426886678, 0.0026966785080730915, 0.0017205560579895973, 3.509394218781381e-06, -0.001969706965610385, 0.0005939289112575352, -0.0010940780630335212, -0.0012159347534179688], [0.000993981841020286, 0.002291490323841572, 0.0011009444715455174, 0.002646499080583453, -0.0003551450208760798, 0.0013467336539179087, 0.0027075165417045355, 0.0016833064146339893, -0.0011576709803193808, -0.0025407648645341396, -0.0006665377877652645, 0.001236751559190452, -0.0022249885369092226, 0.00018651504069566727, 0.001784023130312562, 0.003492337418720126, 0.0017913604388013482, 0.0006512753898277879, -0.0015471047954633832, -0.005425752606242895, -0.0018712538294494152, -0.0022518569603562355, -0.00144189631100744, -0.0007054873276501894, -0.002714290050789714, 0.0021091867238283157, 0.003029005602002144, 0.002548029413446784, -0.002632433781400323, 0.0012904413742944598, 0.0018546173814684153, 0.002452649874612689, -0.0022681402042508125, -0.002430893015116453, -0.0025206594727933407, 0.0005161311710253358, -0.0012802851852029562, 0.003128842683508992, -0.0013165659038349986, -0.001900587696582079, -0.002436468843370676, 0.00911069568246603, -0.000439650408225134, 0.0025016325525939465, -0.0019979241769760847, 0.0008781469659879804, -0.0010589914163574576, 0.0005014054477214813, -0.0004985376726835966, 0.0013836710713803768, -0.000764222873840481, 0.0012591618578881025, -0.0019024843350052834, 0.0012101477477699518, -0.0019967732951045036, 0.001619442948140204, -0.0011251613032072783, 0.0030737752094864845, -0.0021040472202003, 0.0023672888055443764, 0.0039027954917401075, 0.0014018940273672342, -0.00046008912613615394, -0.0035370416007936, 0.00220808619633317, 0.002085954649373889, -0.0036474152002483606, -0.0022524252999573946, -0.0022044533398002386, 0.0010877352906391025, -0.0019855815917253494, -0.001150208874605596, -0.0006649481947533786, 0.0016354237450286746, -0.0022004267666488886, 0.001143064582720399, -0.0022391402162611485, -0.0018533075926825404, 0.0062177423387765884, 0.0004844851791858673, -0.00230126129463315, 0.0018794335192069411, -0.0025482187047600746, 0.0016343102324754, 0.0008290233090519905, 0.0017437328351661563, -0.0018752070609480143, 0.0016572375316172838, -0.0004155101487413049, 0.002167172497138381, -0.0013934859307482839, 0.002040907507762313, -0.0019985209219157696, -0.001597291324287653, -0.005764098837971687, 0.0006281210226006806, -0.0010897557949647307, -0.004366126377135515, 0.001969385426491499, 0.0022351944353431463, 0.0015921300509944558, 0.0012362011475488544, -0.0020675379782915115, 0.0009108849335461855, -0.0011698389425873756, 0.0022585729602724314, -0.0024190132971853018, 0.0009075411362573504, -0.0014185933396220207, 0.0011625800980255008, -0.0022556844633072615, -0.002591897500678897, -0.0008711519767530262, -0.0011752102291211486, -0.001688836608082056, 0.001194796059280634, -0.005669859703630209, 0.0025481977500021458, -0.001991953467950225, 0.0004946075496263802, -0.0027884969022125006, 0.00048214237904176116, 0.0055186259560287, 0.0012868719641119242, -0.002540172776207328, 0.0024914173409342766, -0.0019605769775807858, -0.002860321896150708], [0.0008558961562812328, 0.0033718296326696873, 2.224293893959839e-05, 0.0017935518408194184, -0.001768190530128777, 0.0007053225999698043, 0.002609285293146968, 0.005602756980806589, -0.0022631045430898666, -0.001679053995758295, -0.0003540263569448143, 0.0005525259766727686, -0.0011031173635274172, 0.004569256212562323, 0.002195530105382204, 0.0012194875162094831, 0.0009411544306203723, 0.0021300199441611767, -0.0005770759889855981, -0.0005576935946010053, -0.004716515075415373, -0.001961084781214595, -0.007280645426362753, -0.0034480614122003317, -5.874751150258817e-05, 0.00250030355527997, 0.0021687352564185858, 0.0021919915452599525, -0.0026832441799342632, 0.002981513738632202, 0.0034284722059965134, 0.001046582474373281, -0.0017964955186471343, -0.003618006594479084, -0.0007933208253234625, 0.0011144562158733606, -0.0013998652575537562, 0.0015944313490763307, -0.0023299329914152622, -0.002387837739661336, -0.004289732314646244, 0.0022515098098665476, -5.252322807791643e-05, 0.0021714726462960243, -0.00147971510887146, 0.002198181115090847, -0.00031105324160307646, 0.0019959979690611362, -0.0024756737984716892, 0.0017552367644384503, -0.0011284822830930352, 0.00017940964607987553, -0.002264587674289942, 0.0017809977289289236, -0.00019085958774667233, 0.0033502380829304457, -0.0012973456177860498, 0.006335420999675989, -0.0011497149243950844, 0.002345438115298748, 0.0008064666762948036, 0.0008233662229031324, -0.0019022990018129349, -0.0022105949465185404, 0.0007115290500223637, 0.003232361050322652, -0.007862338796257973, -0.0023765440564602613, -0.0015275009209290147, 0.0009840773418545723, -0.0008406077395193279, -0.0007784734480082989, -0.000983831356279552, 0.006989634595811367, -0.0016244306461885571, 0.0027629274409264326, -0.0020752642303705215, -0.0025109921116381884, 0.003024326404556632, 0.0013328203931450844, -0.00011536673991940916, 0.005501536186784506, -0.0007107409182935953, 0.0018436568789184093, 0.00228306045755744, 0.00015145748329814523, -0.00024116634449455887, 0.0018241304205730557, -0.002776987385004759, 0.001853513065725565, -0.0007556416094303131, 0.0021741355303674936, -0.0011856341734528542, -0.0011217996943742037, -0.001483739702962339, 0.0025540804490447044, -0.0020740735344588757, -0.0008586679468862712, 0.0014234264381229877, 0.00032345257932320237, 0.002618126105517149, 0.0012405107263475657, -0.006142372265458107, 0.00338776339776814, -0.0014476747019216418, 6.68595966999419e-05, -0.0026390065904706717, 0.00013727934856433421, -0.001317276619374752, 0.00036638398887589574, -0.0008476264192722738, -0.001894469722174108, -0.004464751109480858, -0.0019073381554335356, -0.0007564054103568196, 0.0006756804068572819, -0.002425765385851264, 0.0001828010572353378, -0.0015483059687539935, 0.004790172446519136, -0.0024750407319515944, 0.002535476814955473, 0.002296700142323971, 0.0048088389448821545, -0.0016012698179110885, 0.006795051507651806, -0.0014681139728054404, -0.0015194008592516184], [0.02867414616048336, 0.030882585793733597, 0.012963066808879375, 0.004619712941348553, -0.003506680950522423, 0.00924892257899046, 0.03808783367276192, 0.0044053709134459496, -0.03203406184911728, -0.02605075016617775, -0.02007664367556572, 0.029540620744228363, -0.019702062010765076, 0.004280969966202974, 0.02402578480541706, 0.03274725005030632, 0.030837569385766983, 0.003832473186776042, -0.008508771657943726, -0.0329943522810936, -0.02958403341472149, -0.030037712305784225, -0.02537846751511097, -0.004143459256738424, -0.00346733327023685, 0.010754257440567017, 0.0313027985394001, 0.004774700850248337, -0.004504872485995293, 0.027404900640249252, 0.02142374776303768, 0.018934814259409904, -0.004379924852401018, -0.004376365337520838, -0.02679784968495369, 0.006604995112866163, -0.00551190972328186, 0.013246380724012852, -0.037214022129774094, -0.00438385596498847, -0.0035773764830082655, 0.02944476716220379, -0.01818131096661091, 0.004025428555905819, -0.012881824746727943, 0.03096906840801239, -0.011238917708396912, 0.005240804050117731, -0.01004957128316164, 0.032486844807863235, -0.029514335095882416, 0.014375589787960052, -0.004952811636030674, 0.021202322095632553, -0.02498890459537506, 0.02011677622795105, -0.029001982882618904, 0.004545975010842085, -0.009635847993195057, 0.030498918145895004, 0.036277011036872864, 0.029641008004546165, -0.025239650160074234, -0.0209244005382061, 0.03351728245615959, 0.003801442217081785, -0.03395157679915428, -0.0051083629950881, -0.0031660175882279873, 0.015321701765060425, -0.035214368253946304, -0.008194032125175, -0.02682274393737316, 0.03333409130573273, -0.0018762192921712995, 0.002898952690884471, -0.026596512645483017, -0.03523130342364311, 0.004413815680891275, 0.003514990210533142, -0.003182855900377035, 0.03199082985520363, -0.03459666296839714, 0.033848293125629425, 0.023785319179296494, 0.0317281074821949, -0.0050281682051718235, 0.02818814106285572, -0.003836730495095253, 0.023499852046370506, -0.004221532493829727, 0.03216454014182091, -0.028774213045835495, -0.00406417204067111, -0.03302231803536415, 0.03164306655526161, -0.024525417014956474, -0.018581008538603783, 0.0024793827906250954, 0.022892866283655167, 0.027211518958210945, 0.02513580210506916, -0.007239102851599455, 0.02169419266283512, -0.0014997200341895223, 0.026669839397072792, -0.027964606881141663, 0.027356890961527824, -0.0027115948032587767, 0.025782136246562004, -0.037550654262304306, -0.005239661782979965, -0.010907747782766819, -0.013539773412048817, -0.028988806530833244, 0.02242356538772583, -0.003868415718898177, 0.03630731627345085, -0.017091825604438782, 0.02498345449566841, -0.0278799906373024, 0.004973816219717264, 0.023490367457270622, 0.0057199737057089806, -0.01967313513159752, 0.03205585107207298, -0.028378091752529144, -0.037568893283605576], [0.049917638301849365, 0.0438358336687088, 0.04378712922334671, 0.043892621994018555, -0.048399556428194046, 0.04009571671485901, 0.05804052948951721, 0.04598692059516907, -0.008209300227463245, -0.014506574720144272, -0.04760846123099327, 0.047243908047676086, -0.05121530592441559, 0.01368906069546938, 0.035684652626514435, 0.028264492750167847, 0.008202176541090012, 0.04235295206308365, -0.021462803706526756, -0.045313961803913116, -0.04572046920657158, -0.0511992946267128, -0.04300278425216675, -0.006085764151066542, -0.045633044093847275, 0.006949855480343103, 0.04550350829958916, 0.046982936561107635, -0.048042427748441696, 0.047180768102407455, 0.013314780779182911, 0.048692487180233, -0.05320369824767113, -0.008338872343301773, -0.02214239165186882, 0.0496385432779789, -0.04323924705386162, 0.040571428835392, -0.05365735664963722, -0.05061488598585129, -0.04131408408284187, 0.005352361127734184, -0.039117034524679184, 0.049539510160684586, -0.05004218965768814, 0.04958755522966385, -0.035708166658878326, 0.04661642760038376, -0.019969629123806953, 0.01044016145169735, -0.009183289483189583, 0.0470096655189991, -0.012923483736813068, 0.040633924305438995, -0.04834095016121864, 0.0469847097992897, -0.022929172962903976, 0.042355604469776154, -0.031878791749477386, 0.012945162132382393, 0.04937267303466797, 0.04904640465974808, -0.043418966233730316, -0.005845100153237581, 0.04456978663802147, 0.04585638642311096, -0.04576588794589043, -0.04533360153436661, -0.032892342656850815, 0.03286553546786308, -0.043194156140089035, -0.05159135162830353, -0.019787849858403206, 0.04749373346567154, -0.025535088032484055, 0.04484502598643303, -0.05462432652711868, -0.06031813099980354, 0.006911264266818762, 0.04793674871325493, -0.017488207668066025, 0.05039367079734802, -0.053660180419683456, 0.051494449377059937, 0.047278836369514465, 0.009887190535664558, -0.050624437630176544, 0.05443110689520836, -0.005964599549770355, 0.04805033653974533, -0.05137322098016739, 0.05665125325322151, -0.04140376299619675, -0.041878584772348404, -0.0468638613820076, 0.04819542169570923, -0.04829594865441322, -0.04701525345444679, 0.003835321869701147, 0.05351032316684723, 0.04635821655392647, 0.04313911125063896, -0.013604938052594662, 0.04521341621875763, -0.017831122502684593, 0.04398784786462784, -0.0454854778945446, 0.047015342861413956, -0.031553205102682114, 0.042342934757471085, -0.02014322578907013, -0.046299975365400314, -0.00819895975291729, -0.034483082592487335, -0.04456423968076706, 0.03277134895324707, -0.04659188538789749, 0.02502596005797386, -0.047202903777360916, 0.040556374937295914, -0.03344942629337311, 0.043605636805295944, 0.03322642669081688, 0.05550764128565788, -0.03497552126646042, 0.05017382279038429, -0.01449229009449482, -0.05100373178720474], [0.0036942646838724613, 0.02386460080742836, 0.02064463496208191, 0.005442191381007433, -0.008862829767167568, 0.0021410908084362745, 0.027929766103625298, 0.003944670781493187, -0.006683402229100466, -0.014655370265245438, -0.0017612578812986612, 0.020758377388119698, -0.02627446874976158, 0.021899068728089333, 0.015833493322134018, 0.021030912175774574, 0.01762019656598568, 0.012250409461557865, -0.003337552770972252, -0.003906977828592062, -0.018058910965919495, -0.003510095877572894, -0.003704466624185443, -0.0036863931454718113, -0.006323408335447311, 0.001658658147789538, 0.003465474583208561, 0.008909566327929497, -0.006240793038159609, 0.018608612939715385, 0.015797676518559456, 0.005500482860952616, -0.0034455610439181328, -0.02470036968588829, -0.009838830679655075, 0.014336091466248035, -0.015031152404844761, 0.0049605038948357105, -0.008512034080922604, -0.02460121549665928, -0.02084353379905224, 0.004572390113025904, -0.0031418162398040295, 0.021612923592329025, -0.02443312481045723, 0.003917159512639046, -0.0019742322620004416, 0.017443295568227768, -0.003383191768079996, 0.022038308903574944, -0.003767626592889428, 0.0035757615696638823, -0.0036050209309905767, 0.009810961782932281, -0.015893107280135155, 0.0045103952288627625, -0.009722577407956123, 0.01014407817274332, -0.0057827685959637165, 0.02074536308646202, 0.004579204134643078, 0.011789379641413689, -0.018057461827993393, -0.0032446880359202623, 0.024242911487817764, 0.003905485151335597, -0.026863081380724907, -0.0075630806386470795, -0.0014138142578303814, 0.009048115462064743, -0.0035156297963112593, -0.016520826146006584, -0.0050970870070159435, 0.003699961584061384, -0.0016700484557077289, 0.016399355605244637, -0.011941992677748203, -0.003578410018235445, 0.029819289222359657, 0.0026732010301202536, -0.003620225004851818, 0.0038240242283791304, -0.022968079894781113, 0.02165142260491848, 0.01860283501446247, 0.023301949724555016, -0.02442692592740059, 0.017415383830666542, -0.004691049922257662, 0.002864656737074256, -0.004904764238744974, 0.02060007117688656, -0.003702157409861684, -0.003652728395536542, -0.024097908288240433, 0.006400831509381533, -0.009122555144131184, -0.007335082162171602, 0.0026459190994501114, 0.023558111861348152, 0.004956360440701246, 0.013874923810362816, -0.006862359121441841, 0.002874259138479829, -0.002371060661971569, 0.019978255033493042, -0.0036128542851656675, 0.018969915807247162, -0.0003203636151738465, 0.006767071317881346, -0.026729963719844818, -0.014994854107499123, -0.016500242054462433, -0.019291521981358528, -0.02004156820476055, 0.012543139047920704, -0.007754556369036436, 0.004376289434731007, -0.005047968123108149, 0.014393188059329987, -0.004108204506337643, 0.003941837698221207, 0.007356732618063688, 0.020139239728450775, -0.006355164106935263, 0.008553124964237213, -0.021554434671998024, -0.029924539849162102], [-0.06805489957332611, -0.011550398543477058, -0.005455607082694769, -0.060948505997657776, 0.0731939896941185, -0.07146202027797699, -0.007982379756867886, -0.06377305090427399, 0.06348439306020737, 0.06365738064050674, 0.0770389512181282, -0.06528358906507492, 0.06596928834915161, -0.0748240277171135, -0.05442654341459274, -0.006621415261179209, -0.07473867386579514, -0.06278786808252335, 0.058867260813713074, 0.058318812400102615, 0.06081034988164902, 0.006670949049293995, 0.006313478574156761, 0.0713348314166069, 0.06438615173101425, -0.007164176553487778, -0.014018812216818333, -0.06849481165409088, 0.07190530002117157, -0.06227327883243561, -0.041587382555007935, -0.07762008160352707, 0.007438975386321545, 0.06582500785589218, 0.07971475273370743, -0.007436270359903574, 0.005951260216534138, -0.06903685629367828, 0.009493239223957062, 0.01234681997448206, 0.006565016228705645, -0.05178194120526314, 0.06106250733137131, -0.030469192191958427, 0.06793632358312607, -0.06761355698108673, 0.06479933112859726, -0.005700452718883753, 0.039159145206213, -0.006215021014213562, 0.02190329320728779, -0.058962155133485794, 0.06731458008289337, -0.0634804517030716, 0.06688382476568222, -0.020013317465782166, 0.013040670193731785, -0.056483395397663116, 0.05176254361867905, -0.06048344075679779, -0.03327283263206482, -0.06766277551651001, 0.014540554024279118, 0.06350123882293701, -0.007176099345088005, -0.007644578814506531, 0.05851854011416435, 0.06290189921855927, 0.06460924446582794, -0.006788597907871008, 0.03172267973423004, 0.06792764365673065, 0.0705086886882782, -0.019897039979696274, 0.003337196772918105, -0.06705009192228317, 0.07762476056814194, 0.08232148736715317, -0.005784673150628805, -0.0725376158952713, 0.009208571165800095, -0.006468708161264658, 0.07327581942081451, -0.005890043452382088, -0.005438629537820816, -0.0662531703710556, 0.06881846487522125, -0.07814498245716095, 0.07042880356311798, -0.06859845668077469, 0.006062851753085852, -0.00919998250901699, 0.026500267907977104, 0.06207273527979851, 0.004981872625648975, -0.06184189394116402, 0.011899580247700214, 0.044098153710365295, -0.046549610793590546, -0.0745750218629837, -0.00989790540188551, -0.06360114365816116, 0.006081107538193464, -0.06314504146575928, 0.03454150632023811, -0.005531253293156624, 0.020700572058558464, -0.06363171339035034, 0.06725242733955383, -0.0658097043633461, 0.008206980302929878, 0.06424196809530258, 0.08145704865455627, 0.027509164065122604, 0.0606234073638916, -0.056024469435214996, 0.07459612935781479, -0.006740317679941654, 0.0625331699848175, -0.056207772344350815, 0.00584337767213583, -0.0628904178738594, -0.04346403852105141, -0.012581557035446167, 0.051773082464933395, -0.00541108101606369, 0.06483478844165802, 0.013459884561598301], [0.0005051223561167717, 0.00036709941923618317, 0.0073191579431295395, 5.5730120948283e-05, -0.0008400366641581059, 0.0011170190991833806, 0.0026416010223329067, 0.0009605009690858424, -0.0024513478856533766, -0.001524242921732366, -0.0002383493265369907, 0.0005912820342928171, -0.0010641879634931684, 0.00017174621461890638, 0.0022398922592401505, 0.000681353616528213, 0.0009938079165294766, 0.0001228818582603708, -0.0005043275887146592, -0.0015424985904246569, -0.0012745275162160397, -0.0009870134526863694, -0.0015418896218761802, -0.002263907575979829, -0.0027190307155251503, 0.0004894148441962898, 0.0022977637127041817, 0.004017870873212814, -0.002472239313647151, 0.0016636077780276537, 0.0042316364124417305, 0.0008085417211987078, -0.0032101343385875225, -0.0008483493002131581, -0.0021617270540446043, 0.001962850568816066, -0.0006265098345465958, 0.000720941461622715, -0.0023810099810361862, -0.0013339202851057053, -0.004924210719764233, 0.006576505023986101, -0.000455769564723596, 0.001963025890290737, -0.0009155705338343978, 0.001975470455363393, -0.0019181338138878345, 0.0006423743907362223, -0.0018177469028159976, 0.0013897571479901671, -0.0006591574638150632, 0.0042181313037872314, -0.001952999155037105, 0.0018807579763233662, -0.004384729079902172, 0.0008356181788258255, -0.0018172268755733967, 0.0033986694179475307, -0.0024168784730136395, 0.003020315198227763, 0.0003939159505534917, 0.0008081221603788435, -0.0006391934002749622, -0.0004329934890847653, 0.0018583822529762983, 0.0007649308536201715, -0.0004830460238736123, -0.0005395289626903832, -0.0016402194742113352, 0.0005152817466296256, -0.00011672914843074977, -0.0023426252882927656, -0.0011752700665965676, 0.0009737910586409271, -0.0017931516049429774, 0.00018583860946819186, -0.00013108673738315701, -0.0011997348628938198, 0.0003402581496629864, 0.0013413331471383572, -0.0025727858301252127, 0.0009788748575374484, -0.0020466302521526814, 0.0012707257410511374, 0.0012418858241289854, 0.0021250091958791018, -0.00045201621833257377, 0.0010188849410042167, -0.0015038136625662446, 0.0017602015286684036, -0.001826500054448843, 0.0011300963815301657, -0.0010057059116661549, -0.0018639910267665982, -0.0020001705270260572, 0.0019500111229717731, -0.002189106307923794, -0.0007837168523110449, 0.002578796586021781, 0.001608850434422493, 0.0032975636422634125, 0.0005063113057985902, -0.0004333950928412378, 0.0013697962276637554, -3.410490171518177e-05, 0.0018889340572059155, -0.0007201260887086391, 0.0018447124166414142, -0.0003568657848518342, 0.0011341882636770606, -0.0011191604426130652, -0.00020362086070235819, -0.002022761618718505, -0.001353834755718708, -0.001318797585554421, 0.005782822147011757, -0.0006586160161532462, 0.001207631197758019, -0.001631939667277038, 0.0007116759079508483, -0.0022758711129426956, 0.0007140041561797261, 0.002703784964978695, 0.0008778235642239451, -0.0009953032713383436, 0.0016571558080613613, -0.0010921643115580082, -0.0006922825705260038], [-0.0017660664161667228, -0.001814232557080686, -0.0029116130899637938, -0.0037087935488671064, 0.0009832544019445777, -0.002090032445266843, -0.00070668087573722, -0.0004538720240816474, 0.004154023714363575, 0.0016895282315090299, 0.0014661125605925918, -0.004414560738950968, 0.0009353936184197664, -0.0020810291171073914, -0.0028183350805193186, -0.0021312464959919453, -0.00022686146257910877, -0.0018791328184306622, 0.0064864088781178, 0.006650079041719437, 0.0018867135513573885, 0.0024440502747893333, 0.0004780543386004865, 0.002257353626191616, 0.0009297007927671075, -0.00273794773966074, -0.004518049769103527, -0.0016878973692655563, 0.0021541218739002943, -0.002233796287328005, -0.0013142061652615666, -4.897957114735618e-05, 0.00032450095750391483, 0.00199205637909472, 0.0012116152793169022, -0.0013489474076777697, 0.004570396151393652, -0.002130605513229966, 0.0007330821827054024, 0.003344262484461069, 0.0004958492354489863, -0.00733933737501502, 0.001702004112303257, -0.0017513063503429294, 0.000509110395796597, -0.000652463233564049, 0.0018698021303862333, -0.0058634583838284016, 0.001345849479548633, -0.0018761883256956935, 0.0023038943763822317, -0.001409123302437365, 0.00030330781009979546, -0.00020118197426199913, 0.0015136152505874634, -0.0018766566645354033, 0.0029422936495393515, -0.0005770311690866947, 0.0014312120620161295, -0.004187867045402527, -0.0018714757170528173, -0.002801750786602497, 0.002246592892333865, 0.0015133230481296778, -0.0036033669020980597, -0.0021779611706733704, 0.0002644457563292235, 0.0012802574783563614, 0.0001609239261597395, -0.0009047559578903019, 0.0018716821214184165, 0.00503125786781311, 0.0009345764410682023, -0.0008021427202038467, 0.0021952989045530558, -0.0008199013536795974, 0.0005489084287546575, 0.0011737683089450002, -0.0012021075235679746, -0.0003816650132648647, 0.0023712695110589266, -0.0018466858891770244, 0.001860997173935175, -0.0010366891510784626, -0.0008945217705331743, -0.001722495537251234, 0.0019253791542723775, -0.0019444874487817287, 0.00028462952468544245, -0.0018295934423804283, 0.0002721427590586245, -0.0006264669937081635, 0.0009791026823222637, 0.004347281064838171, 0.0007270049536600709, -0.007169959135353565, 0.002255434403195977, 0.0013414034619927406, -0.0009369833278469741, -0.002228030702099204, -0.001454999903216958, -0.0012471380177885294, 0.002322755753993988, -0.0013166244607418776, 0.00165312341414392, -0.000938868906814605, 0.00409757299348712, -0.0011443939292803407, 0.0009026026236824691, -0.0015853869263082743, 0.0006693063187412918, 0.002377826953306794, 0.0026165228337049484, 0.00216876738704741, 0.0032465183176100254, -0.0011474557686597109, 0.0013154724147170782, -0.002707888139411807, 0.004207033198326826, -0.0022747027687728405, 0.000960722507443279, -0.0051938630640506744, -0.002102874219417572, -0.0019121317891404033, 0.0018937255954369903, -0.00189089379273355, 0.003047076053917408, 0.0034387903288006783], [0.007047504652291536, 0.029258795082569122, 0.010260220617055893, 0.013807134702801704, -0.019836340099573135, 0.017411788925528526, 0.014378494583070278, 0.014802328310906887, -0.011334897950291634, -0.012936703860759735, -0.020634854212403297, 0.01407330110669136, -0.00596584239974618, 0.016503944993019104, 0.013653255067765713, 0.013482742011547089, 0.02543068304657936, 0.019265640527009964, -0.009971881285309792, -0.004849136807024479, -0.0254121832549572, -0.030865516513586044, -0.013107098639011383, -0.014653634279966354, -0.009692390449345112, 0.014328556135296822, 0.004797536414116621, 0.010511289350688457, -0.018997494131326675, 0.010861552320420742, 0.12114513665437698, 0.02886052057147026, -0.016109341755509377, -0.005841867998242378, -0.019874753430485725, 0.01330662239342928, -0.011411705054342747, 0.05878497287631035, -0.012528801336884499, -0.011573699302971363, -0.01542129646986723, 0.021640509366989136, -0.01965724676847458, 0.026219239458441734, -0.009928521700203419, 0.026358533650636673, -0.0685562789440155, 0.009243751876056194, -0.12803499400615692, 0.012286469340324402, -0.006121265236288309, 0.011446650139987469, -0.02582911029458046, 0.04254748299717903, -0.011302218772470951, 0.01977725327014923, -0.010464838705956936, 0.025951098650693893, -0.1035640686750412, 0.00809528399258852, 0.022205062210559845, 0.005949245300143957, -0.010033312253654003, -0.04707663133740425, 0.009348941966891289, 0.014718431979417801, -0.009617459028959274, -0.006441292352974415, -0.020697420462965965, 0.00975003745406866, -0.010609211400151253, -0.029897745698690414, -0.019644170999526978, 0.0054643102921545506, -0.19896399974822998, 0.012324972078204155, -0.01675662025809288, -0.013417460955679417, 0.00813906081020832, 0.02447354421019554, -0.11572911590337753, 0.02869599126279354, -0.024569710716605186, 0.011001772247254848, 0.020680002868175507, 0.01626966893672943, -0.005296942312270403, 0.011730005964636803, -0.018973687663674355, 0.021495701745152473, -0.014311036095023155, 0.017208687961101532, -0.011771498247981071, -0.015550807118415833, -0.01576055772602558, 0.010115929879248142, -0.015074247494339943, -0.011580544523894787, 0.18077994883060455, 0.044628776609897614, 0.017846114933490753, 0.019683457911014557, -0.1425265371799469, 0.013570212759077549, -0.16060173511505127, 0.01262236200273037, -0.021872712299227715, 0.00884104985743761, -0.13553477823734283, 0.011348806321620941, -0.02026769332587719, -0.024756012484431267, -0.013511844910681248, -0.02379606105387211, -0.011358304880559444, 0.013689134269952774, -0.021611707285046577, 0.006849532015621662, -0.015711184591054916, 0.02345040813088417, -0.01506779808551073, 0.010913589969277382, 0.01094213966280222, 0.008291439153254032, -0.017282292246818542, 0.012761136516928673, -0.009689683094620705, -0.009212493896484375], [-0.0010554699692875147, -0.0011876365169882774, -0.0007113137980923057, -0.0019333637319505215, 0.000831604702398181, -0.0009563461644575, -0.0018783843843266368, -0.0011730007827281952, 0.0015584338689222932, 0.0006117708398960531, 0.0014058036031201482, -0.000937789969611913, 0.0019083163933828473, -0.0009335048962384462, -0.0005529720219783485, -0.0009566089138388634, -0.0013972391607239842, -0.001404489390552044, 0.002962882863357663, 7.72074781707488e-05, 0.0009602561476640403, 0.0021281337831169367, 0.0009730489691719413, 0.0009961373871192336, 0.001754743861965835, -0.0016050785779953003, -0.0008142212172970176, -0.0009548161178827286, 0.0015055020339787006, -0.0006165512022562325, -0.000974246475379914, -0.0010352720273658633, 0.000534898426849395, 9.360365947941318e-05, 0.000977878225967288, -0.0019472881685942411, 0.001392852864228189, -0.0006610324489884079, 0.00042441723053343594, 0.000957242853473872, 0.0008806251571513712, -0.0013989415019750595, 0.0009096234571188688, -0.0015406436286866665, 0.0007459795451723039, -0.0008748995023779571, 0.0016498600598424673, -0.0011615833500400186, 0.00032007996924221516, -0.0017298664897680283, 0.0017217672429978848, -0.00024239275080617517, 0.0006358198006637394, -0.0008399664075113833, 0.0016204662388190627, -0.0006622655200771987, 0.0009318723459728062, -0.0012757591903209686, 0.0021105376072227955, -0.0007739477441646159, -0.0021588108502328396, -0.0020030804444104433, 0.0010629240423440933, 0.0018810571637004614, -0.0014294037828221917, -0.001622011885046959, 0.002255249535664916, 0.0016902841161936522, 0.0015633435687050223, -0.0005121670546941459, 0.0011994747910648584, 0.0017948938766494393, 0.0010528038255870342, -0.0008727940148673952, 0.0017972574569284916, -0.001677946886047721, 0.0015506399795413017, 0.001989044714719057, -0.0015723929973319173, -2.933063797172508e-06, 0.0021931235678493977, -0.001837481977418065, 0.00022984700626693666, -0.0011323579819872975, -0.0008944092551246285, -0.0019633080810308456, 0.0008647663053125143, -0.0009096305584535003, 0.0006857085390947759, -0.001597702270373702, 0.0018848000327125192, -0.0011521251872181892, 0.0016906200908124447, 0.001554563525132835, 0.003894834080711007, -0.001563890604302287, 0.0002871680771932006, 0.0009141428745351732, -0.0012507173232734203, -0.0011677106376737356, -0.0012743404367938638, -0.0021199234761297703, 0.0022971744183450937, -0.0006384915905073285, 0.0013896817108616233, -0.0022496660239994526, 0.0014431894524022937, -0.0005984121817164123, 0.0022097539622336626, -0.00129806122276932, 0.0015415223315358162, 0.0008464697166346014, 0.0009520275052636862, 0.002065241103991866, 0.0007994612096808851, -0.0011556657264009118, 0.0005840160883963108, -0.004634594079107046, 0.0005511132767423987, -5.122835864312947e-05, 0.0004142063844483346, -0.0009860808495432138, -0.0016242938581854105, -0.0019191604806110263, 0.002142246812582016, -0.001600475050508976, 0.0008815418696030974, 0.0019415901042521], [0.06848349422216415, 0.05719476565718651, 0.05824023112654686, 0.06333719938993454, -0.07242678105831146, 0.07057003676891327, 0.007120216730982065, 0.0618717260658741, -0.007578310091048479, -0.06337203085422516, -0.007855462841689587, 0.0056983670219779015, -0.06656119972467422, 0.006611251272261143, 0.05769607052206993, 0.05787021666765213, 0.054339490830898285, 0.05247063562273979, -0.05806655064225197, -0.00605710968375206, -0.06098829582333565, -0.06644335389137268, -0.05993954837322235, -0.07272850722074509, -0.006565244868397713, 0.008294894360005856, 0.041063737124204636, 0.06799593567848206, -0.07504922896623611, 0.051117632538080215, 0.04282550886273384, 0.05785501375794411, -0.07549352198839188, -0.06837795674800873, -0.062370091676712036, 0.07278820872306824, -0.006510906387120485, 0.008497831411659718, -0.00794137641787529, -0.013638847507536411, -0.006870945915579796, 0.0190421175211668, -0.06348185986280441, 0.006749914959073067, -0.019409822300076485, 0.03881709650158882, -0.06133436784148216, 0.061699531972408295, -0.011541053652763367, 0.007258501369506121, -0.010268915444612503, 0.059869226068258286, -0.06895799189805984, 0.0650123730301857, -0.01586831733584404, 0.06813782453536987, -0.05358089506626129, 0.0559505894780159, -0.05699510499835014, 0.006540477275848389, 0.005774710793048143, 0.06735247373580933, -0.06119699403643608, -0.0619124099612236, 0.010164146311581135, 0.06089818477630615, -0.06031607836484909, -0.055726468563079834, -0.007978640496730804, 0.06477619707584381, -0.021957511082291603, -0.07261746376752853, -0.07071835547685623, 0.06028541922569275, -0.06755578517913818, 0.008654587902128696, -0.0790756568312645, -0.08239710330963135, 0.05432302504777908, 0.0714612826704979, -0.011234193108975887, 0.06669870018959045, -0.006767080165445805, 0.06554566323757172, 0.027332501485943794, 0.04143630340695381, -0.005926490295678377, 0.07656124979257584, -0.07248661667108536, 0.06934233009815216, -0.07450097799301147, 0.02183755673468113, -0.04540492594242096, -0.06229332089424133, -0.009463251568377018, 0.06799200922250748, -0.07152499258518219, -0.006758902221918106, 0.011118631809949875, 0.07564464956521988, 0.007662326097488403, 0.06375124305486679, -0.04774511978030205, 0.06983941793441772, -0.048863485455513, 0.05789613351225853, -0.0734153762459755, 0.006467989180237055, -0.01697820983827114, 0.06353619694709778, -0.060793858021497726, -0.0648420974612236, -0.0854930430650711, -0.0417858324944973, -0.0605069063603878, 0.056150857359170914, -0.07184897363185883, 0.006836908869445324, -0.06314202398061752, 0.006330954842269421, -0.0057648587971925735, 0.006359190214425325, 0.01688207872211933, 0.07846402376890182, -0.010694146156311035, 0.06405078619718552, -0.06340639293193817, -0.023696472868323326], [-0.001584923593327403, -0.00010657651728251949, -0.0005152986850589514, -0.0024186435621231794, 0.0021566920913755894, -0.0015437996480613947, -0.0018594806315377355, -0.0017024282133206725, 3.1324201700044796e-05, 0.00017045202548615634, 0.000451415020506829, -0.0002644132764544338, 0.002088527660816908, -0.0021502883173525333, -0.002356812357902527, -0.0012439076090231538, -0.0023659251164644957, -0.0013701739953830838, 0.0015888221096247435, 0.0005085017764940858, 0.0011806588154286146, 0.003240877529606223, 0.00245636235922575, 0.0006830187630839646, 0.002600997919216752, -0.0016347945202142, -0.0011767626274377108, -0.00043518279562704265, 0.002215336775407195, -0.0009167489479295909, -0.0015119672752916813, -0.00133984733838588, 0.0030078229028731585, 0.0023016000632196665, 0.0023017413914203644, -0.0018507252680137753, 0.0022347155027091503, -0.00042709417175501585, 2.2938089387025684e-05, 0.0012833250220865011, 0.0018853152869269252, -0.0010547759011387825, 0.00023493863409385085, -0.002242392161861062, 0.002229183679446578, -0.0026507461443543434, 0.0002723886864259839, -0.0020966161973774433, 0.002486299956217408, -0.0018895165994763374, 0.00024519095313735306, -0.0024639235343784094, 0.0022934034932404757, -0.0020135361701250076, 0.0012217892799526453, -0.002828033175319433, 0.0020259071607142687, -0.002824766095727682, 0.0022934135049581528, -0.0035380187910050154, -0.00039324205135926604, -0.0015922095626592636, 0.0013112431624904275, 0.0022653762716799974, -0.0016124676913022995, -0.0018856714013963938, 9.816222882363945e-05, 0.001654712250456214, 0.00012011403305223212, -0.0015722913667559624, 0.0033952384255826473, 0.0012854973319917917, 0.0012375187361612916, -0.0006071704556234181, 0.00038350102840922773, -0.0010024134535342455, 0.0009853965602815151, 0.0024502791929990053, -0.0010803932091221213, -0.00041624720324762166, 0.0010177812073379755, -0.00027165201026946306, 0.0018215238815173507, -0.0031579206697642803, -0.001434103585779667, -0.0005937705282121897, 0.0009156307205557823, -0.0007743395981378853, 0.00056611088803038, -0.0014299998292699456, 0.0033590488601475954, -0.0014357911422848701, 0.0018520404119044542, 0.003865412436425686, 0.0014044932322576642, -0.004543882794678211, 0.0013213071506470442, 0.002646330976858735, -0.0029697599820792675, -0.0020796917378902435, -0.0023729796521365643, -0.000805495772510767, 0.004400135949254036, -0.0003879202122334391, 0.0025332157965749502, -0.004035366233438253, 0.002342837629839778, -0.0012280094670131803, 0.0021186291705816984, -0.001602492411620915, 0.002315144520252943, 0.0022888549137860537, 0.0023050857707858086, 0.001057266490533948, 0.0018871445208787918, -0.0021998463198542595, 0.0002866873692255467, -0.0005268998211249709, 0.00160126737318933, -0.0016958938213065267, 0.002504308708012104, -0.0011266107903793454, -0.00695172930136323, -0.000506165437400341, 0.0023310689721256495, -0.002293928526341915, 0.0016401138855144382, 0.0008372017182409763], [-0.0016803315375000238, -0.002210216596722603, -0.0016527443658560514, -0.0066560921259224415, 0.0017520932015031576, -0.0020609311759471893, -0.002136221621185541, -0.00011891727626789361, 0.003636762499809265, 0.00041725431219674647, 3.0510102078551427e-05, -0.004196536727249622, 0.0006224600365385413, -0.0007095300825312734, -0.0016256860690191388, -0.002162884920835495, -0.0021120149176567793, -0.0020352795254439116, 0.0009284132975153625, 0.0002838834188878536, 0.0008357010083273053, 0.002062623156234622, 0.001420936663635075, 0.0007385369972325861, 0.0029588802717626095, -0.0012441283324733377, -0.0003764009161386639, -0.005550780799239874, 0.0018658350454643369, -0.0019463157514110208, -0.006188294850289822, -0.0009214330930262804, 0.000488646503072232, 0.0031589833088219166, 0.0020049188751727343, -0.005100661423057318, 0.0006277907523326576, -0.002376775722950697, 0.003550156019628048, 0.005421651527285576, 0.0010679429396986961, -0.000986743252724409, 0.0002542154397815466, -0.0017337262397632003, 0.0014105138834565878, -0.0015845008892938495, 0.00037499837344512343, -0.0004690620116889477, 0.002044025808572769, -0.001594549510627985, 0.0022888018283993006, -0.0008388270507566631, 0.0007270946516655385, -0.0017935242503881454, 0.0012114561395719647, -0.0021471865475177765, 0.0025040805339813232, -0.0072108362801373005, 0.0029288476798683405, -0.0017791182035580277, -0.005201341584324837, -0.0017698853043839335, 0.0002004536218009889, 0.0004344959743320942, -0.005118827801197767, -0.001198704238049686, 0.0018977641593664885, 0.0007032116409391165, 0.0017839530482888222, -0.00021578084852080792, 0.0006123367929831147, 0.002264293609187007, 0.000378758879378438, -0.0008066879818215966, 0.002467322861775756, -0.0023816965986043215, 0.001232275040820241, 0.002132589463144541, -0.0014352360740303993, -0.00027971278177574277, 0.004951878450810909, -0.001740116043947637, 0.005776938516646624, -0.00018484570318832994, -0.00013483257498592138, -0.001344433519989252, 0.0011363554513081908, -0.0024849518667906523, 0.0067916205152869225, -0.0020939474925398827, 0.0008529785554856062, -0.001785953645594418, 0.0029687872156500816, 0.0024694548919796944, 0.0005704830982722342, -0.0010547259589657187, 0.00028239411767572165, 0.0017772779101505876, -0.0021331897005438805, -0.002572402125224471, -0.0006370262708514929, -0.0019032092532142997, 0.0009808243485167623, -0.0015893852105364203, 0.0021303610410541296, -0.0005124532617628574, 0.002363149542361498, -0.0005511791678145528, 0.0020060695242136717, -0.0024989377707242966, 0.004625792149454355, 0.0001239106641151011, 0.0020337640307843685, 0.0019106011604890227, 0.0008292671991512179, -0.001584152691066265, 0.0004105323750991374, -0.0015400726115331054, 0.0017499994719401002, -0.0009391539497300982, 0.002192941028624773, -0.001212756847962737, -0.0019893439020961523, -8.125320164253935e-05, 0.0013130911393091083, -0.0002666563377715647, 0.0015140519244596362, 0.006222537253051996], [-0.0011655532289296389, -0.0005419199587777257, -0.0025071578565984964, -0.0004695706011261791, 0.0022774271201342344, -0.0015840129926800728, -0.0025389455258846283, -0.001290863729082048, 0.002042407402768731, 0.00026769519899971783, 0.0015048140194267035, -0.005021202377974987, 3.329027094878256e-05, -0.0015724585391581059, -0.0037005601916462183, -0.0016021758783608675, -0.0010630206670612097, -0.0009801620617508888, 0.003455894533544779, 0.0011358085321262479, 0.0004958108183927834, 0.0014047856675460935, 0.0003606226237025112, 0.0010878361063078046, 0.004272682126611471, -0.0015980284661054611, -0.0004799698363058269, -0.003053483087569475, 0.0031730872578918934, -0.00043195270700380206, -0.005163989961147308, -0.001227504457347095, 0.002666163956746459, 0.000216218875721097, 0.002513731364160776, -0.0009950150270015001, 0.002733158878982067, -0.0004098698846064508, 0.004421106074005365, 0.004374183248728514, 0.0020229408983141184, -3.902353273588233e-05, 0.0011471989564597607, -0.0009797036182135344, 9.205145761370659e-05, -0.0008265459327958524, 0.0015247402479872108, -0.0019746979232877493, 0.0034249976743012667, -0.0009890699293464422, 0.006455154623836279, -0.0021884434390813112, 0.00028771295910701156, -0.000868774252012372, 0.001062632305547595, -0.0018308634171262383, 0.0003159366315230727, -0.0015275876503437757, 0.004037254024296999, -0.0012542713666334748, -0.001882054377347231, -0.00010042183566838503, 0.0009176517487503588, 0.0017666355706751347, -0.0010122733656316996, -0.0006452747038565576, 0.002408301690593362, 0.0003956193686462939, 0.0013521265937015414, -0.0024088025093078613, 0.001797750941477716, 0.0008960169507190585, 0.002336736535653472, -0.00016872206469997764, 0.0012116704601794481, -0.0006298053776845336, 0.002418050542473793, 0.0012184265069663525, -0.001465431647375226, -0.002276319544762373, 0.001653577433899045, -0.0013946827966719866, 0.0016892669955268502, -0.0022869352251291275, -0.00024910870706662536, -0.0009398933034390211, 0.0011571096256375313, -0.0036860855761915445, 0.0024606469087302685, -0.0022484934888780117, 0.0018831558991223574, -0.002544957445934415, 0.0006001041037961841, 0.002576557919383049, 0.00010813961853273213, -0.001798930112272501, 0.0025464205536991358, 0.002540732268244028, -0.0014352374710142612, -0.0010304677998647094, -0.001293712412007153, -0.003246956504881382, 0.0025013675913214684, -0.003538313554599881, 0.0019838043954223394, -0.005341221112757921, 0.005350335966795683, -0.002513597486540675, 0.0018036175752058625, -0.0021017405670136213, 0.004387000575661659, 0.0013142640236765146, 0.002030160278081894, 0.0013013475108891726, 0.0019014637218788266, -0.0007726678741164505, 0.002483791671693325, -0.008611326105892658, 0.005542444530874491, -0.0010178559459745884, 0.0029306074138730764, -0.0012987022055312991, -0.0053205303847789764, -0.002513360697776079, 0.0029167337343096733, -0.0015120857860893011, 0.0007955514593049884, 0.0011073742061853409], [0.004276388790458441, 0.03850553184747696, 0.03219790756702423, 0.03257514163851738, -0.032391104847192764, 0.019266707822680473, 0.047837793827056885, 0.03272303193807602, -0.0047622439451515675, -0.03155837580561638, -0.004233187064528465, 0.03797299042344093, -0.007773861289024353, 0.03985805809497833, 0.028211627155542374, 0.012648230418562889, 0.0401151068508625, 0.029249977320432663, -0.03621836006641388, -0.0061070965602993965, -0.008798748254776001, -0.03850724548101425, -0.031512413173913956, -0.03676021844148636, -0.01704317145049572, 0.004476428963243961, 0.03923178091645241, 0.004260651301592588, -0.03613560274243355, 0.03693261742591858, 0.01882980950176716, 0.003699537366628647, -0.036720044910907745, -0.03946981206536293, -0.0390697605907917, 0.03684652969241142, -0.0325462706387043, 0.019441140815615654, -0.04672610014677048, -0.040176872164011, -0.03162615746259689, 0.030678803101181984, -0.008521045558154583, 0.03950155898928642, -0.022937964648008347, 0.004373779054731131, -0.023171162232756615, 0.04233240708708763, -0.0062908572144806385, 0.04279468581080437, -0.01684069074690342, 0.00494779460132122, -0.02404560148715973, 0.02628832310438156, -0.033914804458618164, 0.029218144714832306, -0.040058910846710205, 0.004595181439071894, -0.019801143556833267, 0.024447638541460037, 0.01725892350077629, 0.037063367664813995, -0.032964229583740234, -0.004041277803480625, 0.02966015599668026, 0.03959333524107933, -0.0047942399978637695, -0.03187108412384987, -0.0035343430936336517, 0.009760703891515732, -0.04003193974494934, -0.03895517811179161, -0.035590510815382004, 0.005216656718403101, -0.01002908032387495, 0.02629471942782402, -0.034170668572187424, -0.00645728874951601, 0.04047470539808273, 0.029100459069013596, -0.010807839222252369, 0.039830151945352554, -0.005929751321673393, 0.041129693388938904, 0.03474444895982742, 0.010309511795639992, -0.0040770298801362514, 0.004476347006857395, -0.015447641722857952, 0.034357983618974686, -0.03387247025966644, 0.04130467027425766, -0.03755749389529228, -0.03137451037764549, -0.0038549499586224556, 0.04179514944553375, -0.004824883304536343, -0.028774911537766457, 0.002783706644549966, 0.038611844182014465, 0.03533981367945671, 0.03138638660311699, -0.003379920730367303, 0.02989771030843258, -0.007975518703460693, 0.03423206880688667, -0.009347343817353249, 0.0372038334608078, -0.01890132576227188, 0.032650068402290344, -0.042839571833610535, -0.03166654333472252, -0.007678491063416004, -0.026976900175213814, -0.03491168096661568, 0.005201688036322594, -0.003845967585220933, 0.044467274099588394, -0.03737100958824158, 0.02873421087861061, -0.03179052472114563, 0.03449961543083191, 0.024554451927542686, 0.039982523769140244, -0.023336919024586678, 0.004715105518698692, -0.035040732473134995, -0.03904192894697189], [0.006802626885473728, 0.005314578767865896, 0.012420263141393661, 0.024080149829387665, -0.0072838980704545975, 0.006414635572582483, 0.006241380702704191, 0.009222134947776794, -0.013428828679025173, -0.012571488507091999, -0.00956474058330059, 0.0073119718581438065, -0.016634320840239525, 0.0125731835141778, 0.09599089622497559, 0.004887263290584087, 0.007035288494080305, 0.07286300510168076, -0.006447991821914911, -0.010661331005394459, -0.009316391311585903, -0.005114058498293161, -0.023440400138497353, -0.004032450262457132, -0.10408761352300644, 0.10983851552009583, 0.008687279187142849, 0.0034422720782458782, -0.006887689232826233, 0.008536669425666332, 0.04033973067998886, 0.019228463992476463, -0.006194522604346275, -0.027113052085042, -0.008386203087866306, 0.00620831735432148, -0.006277956534177065, 0.00721655273810029, -0.004973331466317177, -0.005978688597679138, -0.006688528228551149, 0.005553866270929575, -0.015478634275496006, 0.017580803483724594, -0.02822873182594776, 0.0055038053542375565, -0.04842210188508034, 0.01049316581338644, -0.03907525911927223, 0.010595566593110561, -0.01311664842069149, 0.008362280204892159, -0.091891810297966, 0.06479743123054504, -0.005415224004536867, 0.020096467807888985, -0.018712680786848068, 0.004402710124850273, -0.007104857824742794, 0.005194502416998148, 0.017037712037563324, 0.004928071983158588, -0.009955066256225109, -0.006088211666792631, 0.019430644810199738, 0.0055084554478526115, -0.007293522357940674, -0.006478306837379932, -0.10602406412363052, 0.11377375572919846, -0.005272712558507919, -0.006156792398542166, -0.00641458248719573, 0.004680340643972158, -0.12432326376438141, 0.010781904682517052, -0.004974918905645609, -0.01433400996029377, 0.00509429769590497, 0.006009313743561506, -0.0035934920888394117, 0.005280864425003529, -0.011354966089129448, 0.005803384352475405, 0.009651211090385914, 0.0075461105443537235, -0.004666929133236408, 0.0038303949404507875, -0.008132870309054852, 0.006297992542386055, -0.023592865094542503, 0.013833945617079735, -0.008444314822554588, -0.005997295957058668, -0.008017146028578281, 0.0067922938615083694, -0.011679700575768948, -0.0032908935099840164, 0.00660665612667799, 0.008706565946340561, 0.04536379873752594, 0.006223644129931927, -0.04010516777634621, 0.004163823556154966, -0.008844265714287758, 0.005097156390547752, -0.004015432670712471, 0.006830051075667143, -0.02470044046640396, 0.02461894415318966, -0.011135951615869999, -0.005713907536119223, -0.012201657518744469, -0.01170365046709776, -0.006523424759507179, 0.009722238406538963, -0.011766857467591763, 0.01907839998602867, -0.014169746078550816, 0.09300517290830612, -0.007958540692925453, 0.021755075082182884, 0.08351241052150726, 0.012129058130085468, -0.008125066757202148, 0.009136810898780823, -0.009898893535137177, -0.005911562591791153], [0.08579420298337936, 0.05978591740131378, 0.07161825150251389, 0.08283616602420807, -0.019075952470302582, 0.09525280445814133, 0.09185313433408737, 0.07958124577999115, -0.006696383003145456, -0.07298261672258377, -0.09805501997470856, 0.010529162362217903, -0.06627466529607773, 0.08816207945346832, 0.07440368831157684, 0.07214173674583435, 0.007873098365962505, 0.0835636630654335, -0.06838737428188324, -0.008493630215525627, -0.00588248623535037, -0.07613641023635864, -0.006447792053222656, -0.09299532324075699, -0.09723742306232452, 0.0931384339928627, 0.059676866978406906, 0.07731544226408005, -0.10336059331893921, 0.01870829612016678, 0.04703575000166893, 0.09434349089860916, -0.08803505450487137, -0.08108081668615341, -0.008492368273437023, 0.09868604689836502, -0.09093500673770905, 0.09418082237243652, -0.012975329533219337, -0.08638656884431839, -0.07922016084194183, 0.01808183826506138, -0.07908768206834793, 0.013009968213737011, -0.006570042110979557, 0.017016137018799782, -0.07791968435049057, 0.01575600914657116, -0.01677616499364376, 0.07512868940830231, -0.07510649412870407, 0.012588825076818466, -0.0947442352771759, 0.010131468996405602, -0.07750798016786575, 0.008287365548312664, -0.07054493576288223, 0.015253596007823944, -0.06416529417037964, 0.0072401901707053185, 0.00946750957518816, 0.07366582751274109, -0.07196932286024094, -0.08322002738714218, 0.023090200498700142, 0.02806280180811882, -0.014885324984788895, -0.007209595758467913, -0.08810332417488098, 0.09435950219631195, -0.0028521278873085976, -0.0766909122467041, -0.08627662062644958, 0.06554076075553894, -0.08419998735189438, 0.09215895086526871, -0.10233370959758759, -0.00696601253002882, 0.0026731998659670353, 0.08889726549386978, -0.044017672538757324, 0.008240895345807076, -0.0885448306798935, 0.02084401436150074, 0.08190098404884338, 0.02587967738509178, -0.0038577334489673376, 0.015983005985617638, -0.09645918756723404, 0.07408933341503143, -0.09985414892435074, 0.02152552455663681, -0.07968249171972275, -0.07240450382232666, -0.004418111871927977, 0.003508542664349079, -0.0920843780040741, -0.08637943863868713, 0.06838289648294449, 0.010861537419259548, 0.08668379485607147, 0.05559037625789642, -0.05101689323782921, 0.017583847045898438, -0.006610349752008915, 0.06172828748822212, -0.09215054661035538, 0.0689624473452568, -0.06924670189619064, 0.08729639649391174, -0.012080743908882141, -0.056718260049819946, -0.0993572548031807, -0.04983465373516083, -0.07120460271835327, 0.008756715804338455, -0.09907494485378265, 0.008063523098826408, -0.08202776312828064, 0.07810311019420624, -0.05965292453765869, 0.08155494183301926, 0.006007482297718525, 0.09958074986934662, -0.05829291418194771, 0.006029547657817602, -0.07111597061157227, -0.028012966737151146], [0.001375485328026116, 0.0012796454830095172, 0.000351914408383891, 0.0020837041083723307, -0.0017554176738485694, 0.0018773942720144987, 0.0025174948386847973, 0.0014179027639329433, -0.0010900769848376513, -0.0010901318164542317, -0.002042155945673585, 0.00023394830350298434, -0.001989491516724229, 0.0009180381312035024, 0.002358650788664818, 5.8146968513028696e-05, 0.002363302046433091, 0.001106716226786375, -0.0015553534030914307, -0.0004693686496466398, -0.0013069978449493647, -0.001744212699122727, -0.0024715817999094725, -0.0023013369645923376, -0.0013050734996795654, 0.002286265604197979, 0.0003716612991411239, 0.0004102989623788744, -0.0009160682675428689, 0.001132264849729836, 0.0016810038359835744, 0.0018422057619318366, -0.0024508843198418617, -0.0009042590390890837, -0.00140240672044456, 0.0016117044724524021, -0.0009772353805601597, 0.0010655014775693417, -0.0008941606502048671, -0.00013253783981781453, -0.0020578051917254925, 0.0024977412540465593, -6.11326231592102e-06, 0.0006169649423100054, -0.001574046676978469, 0.00045804015826433897, -0.0006811082130298018, 0.001977441133931279, -3.6406901926966384e-05, 0.0016221674159169197, -0.0015516943531110883, 0.001209226786158979, -0.002271357923746109, 0.0015132758999243379, -0.00023868503922130913, 0.0012547551887109876, -0.0005728226969949901, 0.0006197567563503981, -0.0012998052407056093, 0.0019906286615878344, 0.0016870967810973525, 0.0009116323199123144, -0.0014793691225349903, -0.0007356873829849064, 0.002432548440992832, 0.0012310852762311697, -0.00017140309500973672, -0.0013363927137106657, -0.0005721552879549563, 0.0006769647588953376, -0.0008391697774641216, -0.0005111356149427593, -0.002196698449552059, 0.0017688842490315437, -0.0013725771568715572, 0.00015351489128079265, -0.00201262510381639, -0.0002609594666864723, 0.000522999616805464, 0.0017554479418322444, -0.0010957976337522268, 0.0004696608812082559, -0.0013717402471229434, 0.0012660195352509618, 0.001946352538652718, 0.0019395740237087011, -0.00142523308750242, 0.0007533347816206515, -0.0009367960155941546, 0.0007330577936954796, -0.002361748833209276, 0.0022462636698037386, -0.00020355892775114626, -0.0003773881180677563, -0.0012027756310999393, 0.0007024001097306609, -0.0001979156513698399, -0.0016921679489314556, 0.0022823663894087076, 0.0006687878048978746, 0.0015305698616430163, 0.00018021187861450016, -0.0014643834438174963, 0.0009831743082031608, -0.0016034289728850126, 0.0009355653310194612, -0.001285059261135757, 0.0002488574245944619, -0.00012253817112650722, 0.001044361968524754, -0.0008407789282500744, -0.0007470901473425329, -0.00017917224613483995, -0.0009811290074139833, -0.0001825082435971126, 0.0018854155205190182, -0.0009925998747348785, 0.0003053500549867749, -0.0016158520011231303, 0.0009007734479382634, -0.0013001360930502415, 0.0006099862512201071, 0.0012718880316242576, 0.001182229840196669, -0.0006737074581906199, 0.0022509791888296604, -0.0015047715278342366, -0.0017767315730452538], [-0.019091613590717316, -0.010964388959109783, -0.022167053073644638, -0.023558543995022774, 0.002686025109142065, -0.0021674579475075006, -0.02698654495179653, -0.01948278397321701, 0.028670793399214745, 0.018901200965046883, 0.009801150299608707, -0.006638837978243828, 0.00893382541835308, -0.02398514561355114, -0.01725935935974121, -0.025846699252724648, -0.007540598511695862, -0.014214816503226757, 0.020536459982395172, 0.004397957120090723, 0.004403925966471434, 0.02223687618970871, 0.022226225584745407, 0.020608121529221535, 0.016010789200663567, -0.006488346960395575, -0.02764291688799858, -0.02154402807354927, 0.01891576126217842, -0.020079417154192924, -0.004747361410409212, -0.008839791640639305, 0.017218947410583496, 0.02366059646010399, 0.016854828223586082, -0.017905322834849358, 0.005755212623625994, -0.002708157291635871, 0.03209351748228073, 0.022489679977297783, 0.02389313280582428, -0.023078298196196556, 0.010796296410262585, -0.024855347350239754, 0.02045036293566227, -0.025422558188438416, 0.0027184365317225456, -0.029621412977576256, 0.005121055990457535, -0.027651337906718254, 0.021681364625692368, -0.0296050813049078, 0.0022490716073662043, -0.012775792740285397, 0.016690492630004883, -0.012774101458489895, 0.023185081779956818, -0.027577757835388184, 0.012422590516507626, -0.02559308521449566, -0.013976708985865116, -0.01759217493236065, 0.01642266847193241, 0.013539118692278862, -0.02700638771057129, -0.03215934336185455, 0.00908105168491602, 0.01814277097582817, 0.0009938599541783333, -0.006413905415683985, 0.03128596022725105, 0.019341696053743362, 0.013521897606551647, -0.027414996176958084, 0.001452170079573989, -0.021944910287857056, 0.016370074823498726, 0.02411879412829876, -0.03177346661686897, -0.0038683824241161346, 0.008576164953410625, -0.023530570790171623, 0.02635449729859829, -0.025949964299798012, -0.01595047116279602, -0.02292622998356819, 0.017575012519955635, -0.022014454007148743, 0.0029486774001270533, -0.015344073064625263, 0.020778149366378784, -0.02407000958919525, 0.0248459093272686, 0.018984634429216385, 0.024731701239943504, -0.0045006233267486095, 0.018054895102977753, 0.0025564569514244795, -0.0004524404648691416, -0.02491113543510437, -0.010912458412349224, -0.003358013229444623, 0.0044071548618376255, -0.0027027265168726444, 0.0051890485920012, -0.022853180766105652, 0.019974680617451668, -0.01593085750937462, 0.004403198137879372, -0.021725883707404137, 0.03191814571619034, 0.008272913284599781, 0.021080199629068375, 0.010968668386340141, 0.021322807297110558, -0.0042938911356031895, 0.012972773052752018, -0.029278801754117012, 0.02111087366938591, -0.01914398744702339, 0.023182740435004234, -0.006903546862304211, -0.00472221476957202, -0.025274580344557762, 0.009267019107937813, -0.02642376534640789, 0.021718531847000122, 0.029736371710896492], [-0.002154160523787141, -0.006424399092793465, -0.00918398518115282, -0.002478796523064375, 0.0018739172955974936, -0.0067069572396576405, -0.0011413332540541887, -0.0022421053145080805, 0.0033756273332983255, 0.0011149977799504995, 0.0023501249961555004, -0.0020420465152710676, 0.004966801963746548, -0.0025214320048689842, -0.00241368287242949, -0.008317813277244568, -0.0024111010134220123, -0.002564561553299427, 0.0027699030470103025, 0.010266928933560848, 0.000274382735369727, 0.0024369682651013136, 0.0006039912695996463, 0.0020886280108243227, 0.0008744783699512482, -0.0017572783399373293, -0.0026782334316521883, -0.0023965835571289062, 0.002236881060525775, -0.0014820131473243237, -0.0018883092561736703, -0.0020887090358883142, 0.001031919615343213, 0.004365361295640469, 0.0018597347661852837, -0.0010627347510308027, 0.002343393163755536, -0.00051417964277789, 0.009050749242305756, 0.002083864528685808, 0.009007014334201813, -0.011883636005222797, 0.0012049369979649782, -0.0008200515294447541, 0.0017467986326664686, -0.00032230676151812077, 0.0016965417889878154, -0.006075476761907339, 0.002440290292724967, -0.0030462821014225483, 0.0003764226858038455, -0.002642584266141057, 0.002119900891557336, -0.0014566490426659584, 0.0012412862852215767, -0.0003071556275244802, 0.004339919425547123, -0.009502289816737175, 0.0018227682448923588, -0.004607602953910828, -0.0077148438431322575, -0.0020212598610669374, 0.0020033144392073154, 0.001452022697776556, -0.005854303017258644, -0.002835380844771862, 0.008799070492386818, 0.002090752124786377, 0.0024133119732141495, -0.002270582364872098, 0.01103659626096487, 0.0023546230513602495, 0.001411123783327639, -0.008668568916618824, 0.001820768928155303, -0.002658870304003358, 0.0008690344984643161, 0.0023238230496644974, -0.013212114572525024, -0.0009363279677927494, 0.0025787658523768187, -0.0034414103720337152, 0.0037732915952801704, -0.001721086329780519, -0.002000621287152171, -0.0024618515744805336, 0.0033985483460128307, -0.002436748705804348, 0.002152317902073264, -0.001215204712934792, 0.002315214369446039, -0.0023983237333595753, 0.00134844274725765, 0.001552585163153708, 0.008706028573215008, -0.0023691982496529818, 0.0025308358017355204, 0.0020883039105683565, -0.0004132753238081932, -0.001115705817937851, -0.002711005276069045, -0.00168598850723356, 0.0002008951414609328, -0.0019884053617715836, 0.002555473241955042, -0.0021020525600761175, 0.0015724616823717952, -0.0012256056070327759, 0.002079183468595147, -0.0010134370531886816, 0.00656535429880023, 0.0013889771653339267, 0.00208835955709219, 0.00964608695358038, 0.0016807562205940485, -0.0013343838509172201, 0.0015946817584335804, -0.005457136780023575, 0.002501595299690962, -0.0037173740565776825, 0.0059928810223937035, -0.002717443974688649, -0.008796188980340958, -0.0019467382226139307, 0.0028015421703457832, -0.006417246535420418, 0.0009705660049803555, 0.00775900250300765], [-0.0018704597605392337, -0.0015980236930772662, -0.0020940997637808323, -0.00018972398538608104, 0.0023691533133387566, -0.0012420782586559653, -0.0017470376333221793, -0.00012103061453672126, 0.0010753731476143003, 0.000698690302670002, 0.002451607957482338, -0.00020556480740197003, 0.0012482715537771583, -0.0003200358187314123, -0.002428172854706645, -4.9510404096508864e-06, -0.0019771158695220947, -0.0006733685149811208, 0.002120613818988204, 0.0010088946437463164, 0.00093793187988922, 0.0032239235006272793, 0.0009235654142685235, 0.0017214299878105521, 0.0006618460174649954, -0.0004928669659420848, -0.003384815761819482, -0.0020730893593281507, 0.0004982564132660627, -0.0012996481964364648, -0.002030434086918831, -0.0015800193650647998, 0.0022152101155370474, 0.0007640192052349448, 0.0006653247401118279, -0.0022794322576373816, 0.0003353795618750155, -0.0002456433139741421, 0.0009815312223508954, 4.545691626844928e-05, 0.0010345116024836898, -0.004413335584104061, 0.0015655007446184754, -0.0010330233490094543, 0.0019618261139839888, -0.000818633649032563, 0.0003829121997114271, -0.0011003059335052967, 0.0012195175513625145, -0.0001827491942094639, 7.523551175836474e-05, -0.0010307595366612077, 0.0018540024757385254, -0.0013044622028246522, 0.0014690787065774202, -0.0020068001467734575, 0.0010708930203691125, -0.0013881290797144175, 0.0010017137974500656, -0.0003307155566290021, -0.00038350600516423583, -0.002262182766571641, 0.00044983881525695324, 0.0008959847036749125, -0.0010992559837177396, -0.0010019156616181135, 0.00040398878627456725, 0.001470145070925355, 0.0010371638927608728, -0.0015162152703851461, 0.0002706284576561302, 0.002587363123893738, 0.00041657459223642945, -0.0008211099193431437, 0.0024169485550373793, -0.0004948310670442879, 0.0015724414261057973, 0.0015028351917862892, -0.0006440600263886154, -0.001937167369760573, 0.0002449388266541064, -0.0011305487714707851, 0.0011646264465525746, -0.00035849912092089653, -0.00045707557001151145, -0.0023436013143509626, 0.0013756619300693274, -0.0013352006208151579, 0.0006680837250314653, -0.0006150845438241959, 0.001851877779699862, -0.0005873777554370463, 0.0014183318708091974, 0.002489704405888915, 0.0007462801295332611, -0.0025524841621518135, 0.00042268336983397603, 0.0021423904690891504, -0.0001784094492904842, -0.0018821291159838438, -0.002312986645847559, -0.001089500728994608, 0.00023252439859788865, -0.0020269008819013834, 0.0012716464698314667, -0.000634680618532002, 0.0014193723909556866, -0.0016310862265527248, 0.0009119969909079373, -0.001767613342963159, 0.0006460373988375068, 0.0024918378330767155, 0.0018128855153918266, 0.001075094100087881, 0.002088166307657957, -0.0015264268731698394, 0.000446486083092168, -0.0019877527374774218, 0.001609961036592722, -0.0009545789216645062, 0.00035661066067405045, -0.0006933847325854003, -0.0009781877743080258, -0.00013149397273082286, 0.00019101118959952146, -0.001021021162159741, 0.00016443952335976064, 7.090329745551571e-05], [0.006238598842173815, 0.0035387168172746897, 0.0070604742504656315, 0.0022639408707618713, -0.0032705608755350113, 0.0018772531766444445, 0.004063221625983715, 0.0037056724540889263, -0.008750068955123425, -0.004868683870881796, -0.005271121859550476, 0.006522782146930695, -0.004437176510691643, 0.0035757950972765684, 0.04749954119324684, 0.0019931760616600513, 0.0032650884240865707, 0.003897839691489935, -0.003520737402141094, -0.008725752122700214, -0.0036233814898878336, -0.004338371567428112, -0.0062310048379004, -0.004245594143867493, -0.003611079417169094, 0.0031571616418659687, 0.003167978720739484, 0.0031937523745000362, -0.004663633648306131, 0.0030768734868615866, 0.006644281093031168, 0.0025958677288144827, -0.004492431879043579, -0.0048365117982029915, -0.003079148707911372, 0.002762231742963195, -0.007968937046825886, 0.007691926788538694, -0.007159618195146322, -0.004027963150292635, -0.006389807444065809, 0.0019146169070154428, -0.0029365546070039272, 0.004320951644331217, -0.003543822793290019, 0.001819017343223095, -0.008730613626539707, 0.0057315463200211525, -0.014230044558644295, 0.0085733812302351, -0.004543435759842396, 0.0033296532928943634, -0.004453964065760374, 0.0019415741553530097, -0.001309161656536162, 0.005921686068177223, -0.007944781333208084, 0.004005075432360172, -0.0021794759668409824, 0.004705609288066626, 0.0020185222383588552, 0.004186006262898445, -0.0033906977623701096, -0.00466194236651063, 0.0031826922204345465, 0.004228240344673395, -0.004504899028688669, -0.003623181488364935, -0.016937801614403725, 0.003294043242931366, -0.0013407906517386436, -0.0034758897963911295, -0.0032209509517997503, 0.003192414063960314, -0.0380316898226738, 0.06333407759666443, -0.004147818312048912, -0.003975252620875835, 0.0042716427706182, 0.006203198805451393, -0.01477537676692009, 0.001454914570786059, -0.005989791825413704, 0.0049833012744784355, 0.008355747908353806, 0.0021541123278439045, -0.003022009739652276, 0.005447478033602238, -0.0028038709424436092, 0.002948832232505083, -0.0034324838779866695, 0.0037181724328547716, -0.0032252855598926544, -0.003613750683143735, -0.004598618485033512, 0.0015700384974479675, -0.001748741720803082, -0.002056167460978031, 0.0024899898562580347, 0.004282022826373577, 0.006865800358355045, 0.0038239918649196625, -0.005963754840195179, 0.0016433546552434564, -0.010198485106229782, 0.005871825851500034, -0.004035117570310831, 0.005833963863551617, -0.02070917934179306, 0.004545314237475395, -0.00306338956579566, -0.0034328773617744446, -0.0042521958239376545, -0.04135918989777565, -0.0019718981347978115, 0.054900605231523514, -0.0036152813117951155, 0.01073138415813446, -0.0042792027816176414, 0.039833951741456985, -0.0034400762524455786, 0.009466803632676601, 0.015359838493168354, 0.007824976928532124, -0.004584113135933876, 0.004971654154360294, -0.0047833798453211784, -0.003845963394269347], [0.005330995190888643, 0.013072452507913113, 0.00790515635162592, 0.011895384639501572, -0.0013390445383265615, 0.0012806718004867435, 0.003130226628854871, 0.0034562537912279367, -0.015561451204121113, -0.0046187457628548145, -0.0025394675321877003, 0.005876252893358469, -0.007716489024460316, 0.0046495795249938965, 0.007057643495500088, 0.01068168319761753, 0.004031057469546795, 0.005340442061424255, -0.008201182819902897, -0.012553122825920582, -0.00612460495904088, -0.005717251915484667, -0.007914001122117043, -0.0018230699934065342, -0.005064269062131643, 0.0014430831652134657, 0.01059885136783123, 0.005243375897407532, -0.004176917485892773, 0.005986533127725124, 0.007222803775221109, 0.00352478981949389, -0.0019968096166849136, -0.010188385844230652, -0.009776761755347252, 0.0025225349236279726, -0.0013884013751521707, 0.0010149793233722448, -0.009971274994313717, -0.008232188411056995, -0.009187686257064342, 0.01453822199255228, -0.0003636616456788033, 0.0067655304446816444, -0.010469271801412106, 0.009267966262996197, -0.0020353125873953104, 0.014770224690437317, -0.0026042957324534655, 0.018079137429594994, -0.008004904724657536, 0.010800263844430447, -0.0025180489756166935, 0.00042176200076937675, -0.0030703337397426367, 0.0027680429629981518, -0.004436431918293238, 0.013437815010547638, -0.0014719576574862003, 0.0032290720846503973, 0.010583993047475815, 0.0025968533009290695, -0.0037367558106780052, -0.0052341315895318985, 0.009338234551250935, 0.003490893403068185, -0.004709792323410511, -0.0008309242548421025, -0.0025598499923944473, 0.002830465557053685, -0.01615460030734539, -0.000636902404949069, -0.0012841515708714724, 0.011998235248029232, -0.0019896100275218487, 0.010727165266871452, -0.004343241918832064, -0.005908692255616188, 0.010178562253713608, 0.0012819896219298244, -0.002794391242787242, 0.0031572498846799135, -0.007914222776889801, 0.0077886926010251045, 0.002573097124695778, 0.008174989372491837, -0.004901866894215345, 0.0024112232495099306, -0.00014671999088022858, 0.0016414719866588712, -0.005212921183556318, 0.003233110997825861, -0.004611575976014137, -0.004965528380125761, -0.009663923643529415, 0.010501124896109104, -0.004797336645424366, -0.0029891636222600937, 0.0010008008684962988, 0.006959112361073494, 0.00756479986011982, 0.006328565068542957, -0.0024990178644657135, 0.004149808082729578, -0.004498758353292942, 0.008972332812845707, -0.007918315008282661, 0.0023935260251164436, -0.0042393091134727, 0.008223087526857853, -0.012596103362739086, -0.0037187037523835897, -0.0030297995544970036, -0.004375682212412357, -0.010752018541097641, 0.008934385143220425, -0.001311430474743247, 0.003603766905143857, -0.00822148285806179, 0.006211958359926939, -0.010277743451297283, 0.0040685515850782394, 0.012322153896093369, 0.003018246265128255, -0.005270484369248152, 0.0045090727508068085, -0.007700781803578138, -0.011954058893024921], [-0.07994697242975235, -0.00501554599031806, -0.06559944897890091, -0.06677690148353577, 0.08590108901262283, -0.0766204297542572, -0.006901046726852655, -0.0698213279247284, 0.006380899343639612, 0.07479584217071533, 0.013758889399468899, -0.07250022888183594, 0.005712634418159723, -0.08554992824792862, -0.0058320495299994946, -0.06631831079721451, -0.08468863368034363, -0.006377947051078081, 0.020040886476635933, 0.01618734747171402, 0.0723533034324646, 0.005712304729968309, 0.06592350453138351, 0.008409218862652779, 0.006620934698730707, -0.008527232334017754, -0.005862466525286436, -0.005715633276849985, 0.006387101951986551, -0.07403691858053207, -0.040175922214984894, -0.07947160303592682, 0.00616869144141674, 0.005915727466344833, 0.013610092923045158, -0.0065555935725569725, 0.06968299299478531, -0.07256477326154709, 0.005635356530547142, 0.006398563273251057, 0.006406488828361034, -0.06057334318757057, 0.06422295421361923, -0.06868893653154373, 0.005674838554114103, -0.0845663771033287, 0.04458754137158394, -0.0052283150143921375, 0.03774787113070488, -0.005821220576763153, 0.0764179527759552, -0.008014977909624577, 0.059812285006046295, -0.06953766942024231, 0.07903289794921875, -0.074858158826828, 0.036484185606241226, -0.00578952906653285, 0.055101364850997925, -0.06593584269285202, -0.05613670498132706, -0.005686406046152115, 0.06723746657371521, 0.0743623748421669, -0.06737563759088516, -0.0060669733211398125, 0.06929183006286621, 0.07517503201961517, 0.06780918687582016, -0.06973563134670258, 0.013796735554933548, 0.08348209410905838, 0.08001923561096191, -0.008930277079343796, 0.04819237068295479, -0.007393138948827982, 0.0842660665512085, 0.039579346776008606, -0.021685944870114326, -0.029713228344917297, 0.035871122032403946, -0.07544602453708649, 0.07204000651836395, -0.07237505912780762, -0.025136789306998253, -0.014952434226870537, 0.006183108314871788, -0.08971910178661346, 0.03198821842670441, -0.07933609187602997, 0.0826498419046402, -0.08470471948385239, 0.006231724750250578, 0.01889503188431263, 0.03500325605273247, -0.02118355594575405, 0.07748544961214066, 0.08599633723497391, -0.049509499222040176, -0.010121325962245464, -0.006464679725468159, -0.07384540885686874, 0.013304006308317184, -0.07926667481660843, 0.042573291808366776, -0.06485199183225632, 0.07754391431808472, -0.00719934469088912, 0.012650073505938053, -0.06489945203065872, 0.006054920144379139, 0.0739438384771347, 0.009099139831960201, 0.0540422722697258, 0.07225603610277176, -0.048028215765953064, 0.08261056244373322, -0.006329655647277832, 0.02870040573179722, -0.051173653453588486, 0.059848565608263016, -0.07660006731748581, -0.04930369183421135, -0.006212032400071621, 0.007322545163333416, -0.00987900048494339, 0.0059742103330791, 0.0029400207567960024], [0.005503972992300987, 0.025960955768823624, 0.0072363922372460365, 0.005970690865069628, -0.07044035196304321, 0.06306224316358566, 0.008950579911470413, 0.0522771030664444, -0.00978307705372572, -0.059303879737854004, -0.06625918298959732, 0.06485359370708466, -0.023714061826467514, 0.005966543685644865, 0.005521593149751425, 0.055385202169418335, 0.0064363316632807255, 0.05490181967616081, -0.043392591178417206, -0.053663626313209534, -0.04402874410152435, -0.06429549306631088, -0.006560772657394409, -0.0653267502784729, -0.006107168272137642, 0.05685604736208916, 0.03486040607094765, 0.0053891343995928764, -0.06808678060770035, 0.05886868014931679, 0.02102714218199253, 0.07401599735021591, -0.06903728097677231, -0.06343856453895569, -0.0736575797200203, 0.06850407272577286, -0.059047095477581024, 0.05733148753643036, -0.005756844766438007, -0.005640923511236906, -0.04867837205529213, 0.04936918988823891, -0.046975404024124146, 0.06407447159290314, -0.015112978406250477, 0.012073970399796963, -0.045095596462488174, 0.04672441631555557, -0.008469238877296448, 0.009151180274784565, -0.06182838976383209, 0.05680162459611893, -0.05800563469529152, 0.005031793378293514, -0.03457441180944443, 0.06370588392019272, -0.005136044695973396, 0.05277037248015404, -0.045157935470342636, 0.05886904522776604, 0.06208319589495659, 0.04799993336200714, -0.05759110301733017, -0.05896779149770737, 0.03147736191749573, 0.054070740938186646, -0.04670039191842079, -0.06078857183456421, -0.0523088313639164, 0.05228209123015404, -0.049860645085573196, -0.005946354474872351, -0.006617796141654253, 0.006419672630727291, -0.04644785076379776, 0.05924531817436218, -0.07127223163843155, -0.08066897094249725, 0.05134149268269539, 0.0696382001042366, -0.027554314583539963, 0.05925013870000839, -0.007677043788135052, 0.06374046951532364, 0.03594431281089783, 0.06536262482404709, -0.06378143280744553, 0.067080058157444, -0.05973206087946892, 0.06620316952466965, -0.017755454406142235, 0.07160863280296326, -0.06165238842368126, -0.057151950895786285, -0.059808578342199326, 0.06182940676808357, -0.06588735431432724, -0.06957592070102692, 0.03381820023059845, 0.018015356734395027, 0.0625709593296051, 0.05930880457162857, -0.0053353020921349525, 0.06567729264497757, -0.03337150439620018, 0.04392451047897339, -0.006024273112416267, 0.062064625322818756, -0.0036821707617491484, 0.0070581999607384205, -0.05706554651260376, -0.06154683604836464, -0.006805791985243559, -0.044712577015161514, -0.05484632030129433, 0.014769033528864384, -0.059593506157398224, 0.03122604638338089, -0.06156407296657562, 0.014927517622709274, -0.05136118084192276, 0.061169374734163284, 0.04237145185470581, 0.07300812005996704, -0.04878326132893562, 0.005294003523886204, -0.005505080800503492, -0.057372719049453735], [0.0025302416179329157, 0.0004573158221319318, 0.00163269171025604, 0.001513559021987021, -0.002025528810918331, 0.0003422290028538555, 0.000876260397490114, 0.0015275398036465049, -0.0010348426876589656, -0.0019398591248318553, -0.001788641675375402, 5.5851491197245196e-05, -0.0011925137368962169, 0.0019977649208158255, 0.0019150408916175365, 0.0005399798974394798, 0.0013596644857898355, 0.002315238583832979, -0.003375521395355463, -0.0012833507498726249, -0.0015780689427629113, -0.0002495529770385474, -0.0009977082954719663, -0.0006024145986884832, -0.001421651802957058, 0.002405009465292096, 0.00183208251837641, 0.0009432112565264106, -0.002417844720184803, 0.000825266819447279, 0.0011050591710954905, 0.0015033746603876352, -0.0013046528911218047, -0.0023844237439334393, -0.0015068064676597714, 0.001343892770819366, -0.0016812876565381885, 0.00022503668151330203, -0.005076604429632425, -0.0014866609126329422, -0.000369519111700356, 0.0009460187866352499, -0.00021301631932146847, 0.0020093724597245455, -0.002314078388735652, 0.002316536381840706, -0.00038323618355207145, 0.0012106216745451093, -0.002009877935051918, 0.00021375568758230656, -0.0005507937748916447, 0.001250289031304419, -0.0021424703299999237, 0.00015415741654578596, -0.0021075287368148565, 0.00030964400502853096, -0.0023282829206436872, 0.0003106596996076405, -0.0019543603993952274, 0.0018789184978231788, 0.0010489202104508877, 0.0015436942921951413, -0.0011668712832033634, -0.0003308232990093529, 0.0010419943137094378, 0.0029919068329036236, -0.0015027952613309026, -0.0006609606207348406, -0.0013311471557244658, 0.0028103156946599483, -0.0007562490645796061, -0.001374881132505834, -0.001617885660380125, 0.0018259850330650806, -0.0009956334251910448, 0.0016807685606181622, -0.0024281363002955914, -0.0009446273907087743, 0.0006467084167525172, 0.0019626838620752096, -0.0006747703300788999, 0.0002444949932396412, -0.0006076922290958464, 0.002241568174213171, 0.0007050926215015352, 0.00011811006697826087, -0.0019186056451871991, 0.0012485930928960443, -1.0951634976663627e-05, 0.0015265578404068947, -0.0005499960971064866, 0.0015508594224229455, -0.001243740669451654, -0.0019472548738121986, -0.001466431887820363, 0.002143134828656912, -0.00017380630015395582, -0.0007309680804610252, 0.0013520579086616635, 0.0028790337964892387, 0.0014586546458303928, 0.0007702151779085398, -0.0003845371538773179, 0.00041677491390146315, -0.0008835252374410629, 0.0005587528576143086, -0.001799627672880888, 0.0008259291062131524, -0.0015233228914439678, 0.00214000279083848, -0.0013318710261955857, -0.0013273109216243029, -0.002309019211679697, -0.0013404241763055325, -0.002152474131435156, 0.0014469544403254986, -0.0012763200793415308, 0.0011231184471398592, -0.0007003449136391282, 0.0013262979919090867, -0.0014260495081543922, 0.0004401547193992883, 0.0016925414092838764, 0.00046463191392831504, -0.0025716761592775583, 0.0020326932426542044, -0.003041768679395318, -0.0004472610307857394], [-0.0012005988974124193, -0.0019198323134332895, -0.00028822815511375666, -0.0029671976808458567, 0.0014449252048507333, -0.0003929349477402866, -0.002690140623599291, -0.0022026761434972286, 0.0008760974742472172, 0.002283097244799137, 0.0025173169560730457, -0.0021932986564934254, 0.0008250996470451355, -0.0012980607571080327, -0.0018003038130700588, -0.0005366613040678203, -0.0018416251987218857, -0.002134820679202676, 0.0005948527832515538, 0.0025744945742189884, 0.0020442332606762648, 0.0017505730502307415, 0.00097998371347785, 0.002423117635771632, 0.002374080242589116, -0.00092378503177315, -0.0008988461922854185, -0.0016030647093430161, 6.557406595675275e-05, -0.001790301059372723, -0.0035106176510453224, -0.0016635648207738996, 0.0009323558188043535, 0.0015355641953647137, 0.0058943647891283035, -0.0012618042528629303, 0.0018817854579538107, -0.0016891410341486335, 0.001790726324543357, 0.0022880672477185726, 0.0015280924271792173, -0.003300957614555955, 0.0018636457389220595, -0.002516169799491763, 0.0011984268203377724, -0.004509201738983393, 0.0018050781218335032, -0.0013045549858361483, 0.0014687301591038704, -0.0011744810035452247, 0.0004998640506528318, -0.004332695621997118, 0.002387792570516467, -0.0007871018024161458, 0.002220091177150607, -0.0023620249703526497, 0.002228865632787347, -0.0014128831680864096, 0.0019335708348080516, -0.004621418658643961, -0.0025236988440155983, -0.001452930737286806, 0.0011879182420670986, 0.002472109626978636, -0.005827005486935377, -0.001635691849514842, 0.005335280671715736, 0.0012394501827657223, 0.0006141370977275074, -0.0023627285845577717, 0.005257982760667801, 0.001857982249930501, 0.0008668219670653343, -0.003140081185847521, 0.0018308889120817184, -0.001230862457305193, 0.0022974403109401464, 0.0016440663021057844, -0.006241832859814167, -0.002329509239643812, 0.001323651522397995, -0.0004745372280012816, 0.0010199607349932194, -0.002763201016932726, -0.002282466972246766, -0.000609900860581547, 0.0023767161183059216, -0.0027902673464268446, 0.001526993582956493, -0.002342761494219303, 0.002382898237556219, -0.004399545956403017, 0.0022731292992830276, 0.0012485579354688525, 0.0009466024930588901, -0.005841931793838739, 0.0011143535375595093, 0.0006390996277332306, -0.002911994466558099, -0.004141116980463266, -0.00166423583868891, -0.00036252944846637547, 0.000990012544207275, -0.001977579202502966, 0.0031460016034543514, -0.000552301062270999, 0.004598910454660654, -0.0006077055004425347, 0.0030266414396464825, -0.0021217516623437405, 0.0020791622810065746, 0.0017297490267083049, 0.002295785117894411, 0.0025443886406719685, 0.0029579561669379473, -0.0006344784633256495, 0.0006468595238402486, -0.0030786755960434675, 0.001354802050627768, -0.001677166554145515, 0.0005805400433018804, -0.00031301152193918824, -0.0003354775544721633, -0.0007989655714482069, 0.002557391533628106, -0.0005076620145700872, 0.003998303320258856, 0.0016356994165107608], [-0.00042368832509964705, -0.00039994862163439393, -0.002296574879437685, -0.0025097259785979986, 0.00046650361036881804, -0.0012396423844620585, -0.0010173370828852057, -0.00026352802524343133, 0.0027988965157419443, 0.0001339451118838042, 0.0054297358728945255, -0.0023213184904307127, 0.004323646426200867, -8.477288065478206e-05, -0.0013902620412409306, -0.0016296746907755733, -0.0014450756134465337, -0.0014520189724862576, 0.0001378611195832491, 0.0003016078844666481, 0.0004632005584426224, 0.001562360324896872, 0.0022566919215023518, 0.0010723439045250416, 0.0014092952478677034, -0.0009090590174309909, -0.005137088242918253, -0.0031909914687275887, 0.0013174348277971148, -0.0034311709459871054, -0.0005830998416058719, -0.002351305913180113, 0.0005345061654224992, 0.005131333135068417, 0.0017549879848957062, -0.0009544522035866976, 0.0010330500081181526, -0.003182351589202881, 0.0014939416432753205, 0.0007633293862454593, 0.001615038956515491, -0.0069307140074670315, 0.0017698344308882952, -0.0013005711371079087, 0.0007839400204829872, -0.005967902485281229, 0.0007250962080433965, -0.0005575044779106975, 0.0024071461521089077, -0.0007276645046658814, 0.0025269989855587482, -0.005196608603000641, 0.0012439570855349302, -0.0012503881007432938, 2.6880414225161076e-05, -0.0007557197823189199, 0.001372053986415267, -0.006810818798840046, 0.0019930275157094, -0.0009823833825066686, -0.0009508298244327307, -0.005487933289259672, 0.0003612127620726824, 0.0013157569337636232, -0.0001863305806182325, -0.0031081761699169874, 0.003958950750529766, 0.0009826704626902938, 0.0017703917110338807, -0.0002729624684434384, 2.6694111511460505e-05, 0.004017664585262537, 0.002288305899128318, -0.006553682964295149, 0.001343433978036046, -0.001599455252289772, 0.002952035516500473, 0.00184041413012892, -0.00022251273912843317, -0.0019433707930147648, 0.0019803536124527454, -0.00010769713117042556, 0.00016545596008654684, -0.00021165139332879335, -0.0007141345413401723, -0.0038529825396835804, 0.004449071362614632, -0.002483377931639552, 2.6548861569608562e-05, -0.0016741862054914236, 0.0019249189645051956, -0.0015218383632600307, 0.002265601884573698, 0.0018068316858261824, 0.003347227815538645, -0.0021166319493204355, 0.001200124155730009, 0.00146195269189775, -0.0006387422326952219, -6.96155839250423e-05, -0.00613319082185626, -0.00043347073369659483, 0.001074352883733809, -0.0021184685174375772, 0.0022353932727128267, -0.00478389160707593, 5.0245540478499606e-05, -0.005695464555174112, 0.0022440857719630003, -0.0013042960781604052, 0.003115613479167223, 0.001398557797074318, 0.00152999022975564, 0.002710367552936077, 0.0007957011694088578, -0.0015603398205712438, 0.0005341764772310853, -0.0003820819256361574, 0.006135925184935331, -0.002591723343357444, 0.0019289784831926227, -0.00014660169836133718, -0.008099119178950787, -0.006478189956396818, 0.0015487632481381297, -0.0037788506597280502, 0.0003988338285125792, 0.0016114952741190791], [0.010012511163949966, 0.006628007162362337, 0.02573120966553688, 0.016253512352705002, -0.011501885950565338, 0.04264315590262413, 0.015080341137945652, 0.008245566859841347, -0.008031655102968216, -0.021083684638142586, -0.03798820078372955, 0.01625082828104496, -0.01798444241285324, 0.0055265771225094795, 0.009093924425542355, 0.005016053561121225, 0.02961074188351631, 0.011079019866883755, -0.0075921169482171535, -0.006365764420479536, -0.004600155167281628, -0.01134732086211443, -0.020780693739652634, -0.009450363926589489, -0.008065948262810707, 0.13454248011112213, 0.019445735961198807, 0.009128724224865437, -0.01479816809296608, 0.006669982336461544, 0.0867321714758873, 0.008287367410957813, -0.013677069917321205, -0.010411372408270836, -0.014951362274587154, 0.0062675741501152515, -0.00995933823287487, 0.03410057723522186, -0.010680165141820908, -0.00821965653449297, -0.010132989846169949, 0.02117893658578396, -0.02614000253379345, 0.028370128944516182, -0.012468352913856506, 0.007120851427316666, -0.06321225315332413, 0.007263472303748131, -0.09390372037887573, 0.007693187799304724, -0.010318277403712273, 0.006966384593397379, -0.024393506348133087, 0.005634512286633253, -0.007734679616987705, 0.056035418063402176, -0.004812358878552914, 0.015273401513695717, -0.011307728476822376, 0.006609467323869467, 0.016944339498877525, 0.009855249896645546, -0.017706982791423798, -0.007641210686415434, 0.018735753372311592, 0.007019117474555969, -0.00690075010061264, -0.021369805559515953, -0.020455418154597282, 0.06076161935925484, -0.012173911556601524, -0.00818695966154337, -0.011034735478460789, 0.00889012310653925, -0.006807328667491674, 0.012205020524561405, -0.009471516124904156, -0.02430410124361515, 0.012432361952960491, 0.007999745197594166, -0.08840948343276978, 0.004531627520918846, -0.007631806191056967, 0.021524110808968544, 0.026715869084000587, 0.008589286357164383, -0.007240461651235819, 0.008685637265443802, -0.17282520234584808, 0.023921534419059753, -0.021076219156384468, 0.019514543935656548, -0.005010046064853668, -0.014660038985311985, -0.008464447222650051, 0.020869681611657143, -0.04423623904585838, -0.012142430990934372, 0.015491001307964325, 0.014245660044252872, 0.014994440600275993, 0.019707737490534782, -0.07681525498628616, 0.014079312793910503, -0.017887873575091362, 0.008023939095437527, -0.032721489667892456, 0.008088956587016582, -0.024983443319797516, 0.008722039870917797, -0.015915345400571823, -0.016966216266155243, -0.030658716335892677, -0.018002642318606377, -0.006503406446427107, 0.020109323784708977, -0.01630590483546257, 0.021193481981754303, -0.008117587305605412, 0.009511813521385193, -0.006678074132651091, 0.016236934810876846, 0.006712853442877531, 0.009013578295707703, -0.14249512553215027, 0.02218390628695488, -0.01623464561998844, -0.008436115458607674], [-0.0025548904668539762, -0.007189399562776089, -0.0015156660228967667, -0.0027513422537595034, 0.005679007153958082, -0.003909251186996698, -0.0026530823670327663, -0.0006892370292916894, 0.0035624573938548565, 0.0013361675664782524, 0.002320399507880211, -0.0022289229091256857, 0.000887169677298516, -0.00464315852150321, -0.0019154185429215431, -0.0023141487035900354, -0.008178922347724438, -0.0009407092002220452, 0.0007907603867352009, 0.008648386225104332, 0.0022830411326140165, 0.007322539575397968, 0.002391054527834058, 0.003616579342633486, 0.0025465923827141523, -0.001952498685568571, -0.001866307109594345, -0.00028334869421087205, 0.002332275500521064, -0.0023839357309043407, -0.003544794861227274, -0.004306678660213947, 0.0026803407818078995, 0.001240093377418816, 0.0011569864582270384, -0.008733803406357765, 0.0012379372492432594, -8.766087557887658e-05, 0.003060184419155121, 0.001054846914485097, 0.001672537298873067, -0.0035825916565954685, 0.001761271501891315, -0.0013044363586232066, 0.0009534377604722977, -0.0022827519569545984, 0.005105595104396343, -0.0010287653421983123, 0.002147272229194641, -0.005031310487538576, 0.0018660577479749918, -0.005727514158934355, 0.001602907432243228, -0.005542720668017864, 0.005954654421657324, -0.004206700716167688, 0.00253885006532073, -0.009418601170182228, 0.0026360300835222006, -0.0025927566457539797, -0.00394114525988698, -0.0021491285879164934, 0.002323121065273881, 0.001504617277532816, -0.007318603340536356, -0.006410789676010609, 0.007600342854857445, 0.004155522678047419, 0.00242299260571599, -0.00041207988397218287, 0.005260197911411524, 0.0023631835356354713, 0.0018525761552155018, -0.005271568428725004, 0.0008893675985746086, -0.0029891100712120533, 0.0025145045947283506, 0.004554538521915674, -0.009072544984519482, -0.00371548836119473, 0.0016561420634388924, -0.0016505338717252016, 0.001507383189164102, -0.000791817728895694, -0.0021113089751452208, -0.002447435399517417, 0.0023313111159950495, -0.004666701890528202, 0.0016157305799424648, -0.005182643420994282, 0.0006220180657692254, -0.002323148539289832, 0.0008858057553879917, 0.008185730315744877, 0.0015983841149136424, -0.002541172783821821, 0.0014036258216947317, 0.0034382063895463943, -0.0010175724746659398, -0.0011298387544229627, -0.0024457487743347883, -0.004541434813290834, 0.0008942011627368629, -0.0006202221848070621, 0.0011472621699795127, -0.0016334664542227983, 0.002095466945320368, -0.00224194279871881, 0.0060148476622998714, -0.006859475281089544, 0.007525990717113018, 0.0008109094342216849, 0.00023595428501721472, 0.0031010196544229984, 0.0037085257936269045, -0.0020935649517923594, 0.005149427801370621, -0.0010335309198126197, 0.0017454551998525858, -0.002236194210126996, 0.009908795356750488, -0.002296168589964509, -0.0029290341772139072, -0.0017452293541282415, 0.00102093571331352, -0.0012520813615992665, 0.0022429460659623146, 0.005977435503154993], [-0.0002643376064952463, -0.001213587005622685, -0.0022024447098374367, -0.0012999604223296046, 0.001124970498494804, -0.0011126066092401743, -0.0006639874191023409, -0.00033605011412873864, 0.001591482199728489, 0.0023886412382125854, 0.0010532933520153165, -5.5005868489388376e-05, 0.0019883285276591778, -0.0016811584355309606, -0.0017349953996017575, -0.002367517678067088, -0.00025925246882252395, -0.0013678078539669514, 0.0009391154162585735, 0.0013054057490080595, 0.002059829654172063, 0.0007251112256199121, 0.0013118375791236758, 0.001405168790370226, 0.0022416359279304743, -9.872514965536539e-06, -0.0006506133358925581, -0.0005311269196681678, 5.197364225750789e-05, -0.0002843250404112041, -0.00348729663528502, -0.0006923574837855995, 0.0003123861679341644, 0.001189226983115077, 0.002125814091414213, -0.0010773508111014962, 0.0008773574372753501, -0.001020237454213202, 0.0022962531074881554, 0.002451410284265876, 0.0012934121768921614, -0.00020248374494258314, 0.0005436765495687723, -0.0004890981945209205, 0.001329874387010932, -0.00020552120986394584, 0.0013271607458591461, -0.001043672556988895, 0.001042600953951478, -0.0014792351284995675, 0.0021451995708048344, -0.0008037910447455943, 0.00023353067808784544, -0.0012201372301205993, 0.00010542867676122114, -0.0008270745747722685, 0.0011640771990641952, -0.001083078794181347, 0.0023387502878904343, -0.001315561356022954, -0.0013797299470752478, -0.0011172707891091704, 0.0015933273825794458, 0.0008748546824790537, -0.0008468694286420941, -0.0002891337207984179, 0.00039469797047786415, 0.0008829471189528704, 0.0024682849179953337, -0.0008946090238168836, 0.0010777629213407636, 0.0014246634673327208, 0.002325658220797777, -0.000536663515958935, 0.001298716408200562, -0.0026274798437952995, 0.001689896802417934, 0.0010011257836595178, -0.0016719180857762694, -0.0015806346200406551, 0.001844062120653689, -0.0005274942959658802, 0.0018724586116150022, -0.0017120263073593378, -0.000642378581687808, -0.0014846386620774865, 0.0019095148891210556, -0.0007929105195216835, 0.0021070833317935467, -0.0008981951395981014, 0.000981929013505578, -0.0009144815267063677, 0.0019114664755761623, 0.0014197195414453745, 0.0021424817387014627, -0.0004244802112225443, 0.000713706249371171, 0.0015536471037194133, -0.0003748576855286956, -0.0018855868838727474, -0.0009851400973275304, -0.0002884281857404858, 0.0016736157704144716, -0.002022705040872097, 0.000188945239642635, -0.00020905798010062426, 0.001700574648566544, -0.000490249483846128, 0.00017414834292139858, -0.0020592212677001953, 0.0015786972362548113, 0.0014322813367471099, 0.0019500143826007843, 0.0002678937162272632, 0.0018817922100424767, -0.0008867312571965158, 0.001233032438904047, -0.0029120889957994223, 0.0007949534337967634, -0.00015180179616436362, 0.0010955414036288857, -0.00041062646778300405, -0.0009167820098809898, -0.0010496460599824786, 0.0028120814822614193, -0.0008436603238806129, 0.0011209716321900487, 0.0013374509289860725], [-0.0014292175183072686, -0.0023072990588843822, -0.0006769114406779408, -0.002754648681730032, 0.0036529230419546366, -0.0009487435454502702, -0.0003572050773072988, -0.0023428560234606266, 0.003352116560563445, 0.002500258618965745, 0.0020564913284033537, -0.00040038564475253224, 0.0011333395959809422, -0.0016003078781068325, -0.002332097152248025, -0.0010686888126656413, -0.0024865148589015007, -0.002213304163888097, 0.0020472228061407804, 0.0018087448552250862, 0.0011090125190094113, 0.0008835415937937796, 0.001846928265877068, 0.0011395275359973311, 0.0026415169704705477, -0.0018612155690789223, -0.0017274162964895368, -0.0011535572120919824, 0.0001231877540703863, -0.0010972688905894756, -0.004601155407726765, -0.0019995449110865593, 0.001708197989501059, 0.0020348450634628534, 0.0008147046319209039, -0.0021649266127496958, 0.0007773002726025879, -0.0015537136932834983, 0.0004406155494507402, 0.0017146903555840254, 0.0024595947470515966, -0.003299032337963581, 0.001222214661538601, -0.0024415147490799427, 0.0020359179470688105, -0.0017509807366877794, 0.0018804338760674, -0.002173701534047723, 0.0021541398018598557, -0.0026477959472686052, 0.0016047692624852061, -0.0010446066735312343, 0.0027537683490663767, -0.0018448735354468226, 0.0015524044865742326, -0.0030425831209868193, 0.0009921749588102102, -0.003334106644615531, 0.002311516087502241, -0.002324179280549288, -0.0024301211815327406, -0.0020423680543899536, 0.0018905815668404102, 0.0016687517054378986, -0.0005842938553541899, -0.002346135675907135, 0.0009823149302974343, 0.002033266704529524, 0.002004986396059394, -0.0028873563278466463, 0.0016086121322587132, 0.0005613068933598697, 0.001381652313284576, -0.0011000740341842175, 0.00230726832523942, -0.0029510939493775368, 0.002234477549791336, 0.0012677025515586138, -0.001782404026016593, -0.0002471749612595886, 0.0022504394873976707, -0.0024290261790156364, 0.0026911466848105192, -0.00040228775469586253, -0.002430330030620098, -0.0014717949088662863, 0.0008541959687136114, -0.0036666085943579674, 0.0015050459187477827, -0.0015105964848771691, 0.0008931700140237808, -0.00132438272703439, 0.00024317587667610496, 0.0018792820628732443, 0.0006881787558086216, -0.0005257305456325412, 0.002554352628067136, 0.002254865597933531, -0.0007081357762217522, -0.0016841605538502336, -0.00207925820723176, -0.0017982865683734417, 0.0001240220299223438, -0.0014513542409986258, 0.001945813070051372, -0.0003158590116072446, 0.002555307699367404, -0.0008697907323949039, 0.0005976782413199544, -0.0006890923250466585, 0.0003000146825797856, 0.001921619288623333, 0.0020223348401486874, 0.0031346871983259916, 0.002048666588962078, -0.0030770613811910152, 0.001050278078764677, -0.0012670550495386124, 0.0015899071004241705, -0.0019927879329770803, 0.002925548003986478, -0.0007296110270544887, -0.002752481959760189, -0.0008886706782504916, 0.0030921907164156437, -0.0017376999603584409, 0.002303989138454199, 0.0010834310669451952], [-0.0022109884303063154, -0.0009992796694859862, -0.0006757042137905955, -0.0027008592151105404, 0.001822947757318616, -0.001263146405108273, -0.001296030473895371, -0.0012759562814608216, 0.002427937462925911, 0.0012944061309099197, 0.00191461481153965, -0.0007397462613880634, 0.0005939947441220284, -0.002515373518690467, -0.0015061288140714169, -0.0012043244205415249, -0.0012745471904054284, -0.0020247139036655426, 0.0012136726872995496, 0.0014368330594152212, 0.002188330516219139, 0.0006347486050799489, 0.0011474068742245436, 0.0011820349609479308, 0.001915415283292532, -0.0020080450922250748, -0.0013944022357463837, -0.0013016702141612768, 0.000933014031033963, -0.0016396790742874146, -0.0016847875667735934, -0.0011304228100925684, 0.002308637835085392, 0.006092130206525326, 0.0012685966212302446, -0.0013221899280324578, 0.002402306767180562, -0.0019392430549487472, 0.0013634253991767764, 0.0025042924098670483, 0.005930464249104261, -0.00020518751989584416, 0.00039523778832517564, -0.000495464657433331, 0.0008733708527870476, -0.0017606362234801054, 0.00045131458318792284, -0.00014363310765475035, 0.0010713358642533422, -0.00148972833994776, 0.0018159934552386403, -0.002896612510085106, 0.0013343144673854113, -0.0011420235969126225, 0.004816494416445494, -0.0005344825331121683, 0.0016563659301027656, -0.00201870477758348, 0.0018068150384351611, -0.002314645331352949, -0.0006832563085481524, -0.0012188374530524015, 0.00033000821713358164, 0.0038055849727243185, -0.001579848350957036, -0.001923722680658102, 0.002450921107083559, 0.00039169160299934447, 0.002215815708041191, -0.0025388377252966166, 0.0010649248724803329, 0.002181543968617916, 0.0023013867903500795, -0.0015599873149767518, 0.0003602120850700885, -0.0010054904269054532, 0.0017081089317798615, 0.0023282435722649097, -0.0005826780688948929, -0.0017510944744572043, 0.001364662661217153, -0.0008522821590304375, 0.0007298643467947841, -0.0036528590135276318, -0.0015065059997141361, -0.0019283455330878496, 0.004835894331336021, -0.0012812938075512648, 0.0005003163823857903, -0.0017983802827075124, 0.00019140289805363864, -0.0005781860672868788, 0.0026544020511209965, 0.0018263522069901228, 0.001157832914032042, -0.002592763165012002, 0.0009014875977300107, 0.0010942614171653986, -0.0017197541892528534, -0.0016302150906994939, -0.0007625510916113853, -0.00317127606831491, 0.0019454535795375705, -0.0008176202536560595, 0.001755899516865611, -0.0010970188304781914, 0.001662424299865961, -0.0015505310148000717, 0.0014603219460695982, -0.0012867613695561886, 0.0008494703797623515, 0.0022593061439692974, 0.0009875191608443856, 0.0028622939717024565, 0.0007877657189965248, -0.002034694654867053, 0.0023181336000561714, -0.0012566259829327464, 0.0009134446154348552, -0.0010696037206798792, 0.002021061023697257, -0.0010985855478793383, -0.0008362612570635974, -0.0006604772643186152, 0.002447734586894512, -0.0019075286109000444, 3.668641147669405e-05, 0.0014056036015972495], [0.002524293726310134, 0.007743409834802151, 0.002818015171214938, 0.006789770442992449, -0.0022815035190433264, 0.0018149946117773652, 0.0028273926582187414, 0.0015445484314113855, -0.011486360803246498, -0.0002359556092415005, -0.0021093247924000025, 4.974741750629619e-05, -0.003902108408510685, 0.002491361228749156, 2.4774677513050847e-05, 0.010415432043373585, 0.002090174239128828, 0.0003381206770427525, -0.002170116873458028, -0.003267280524596572, -0.0002516899548936635, -0.0015235114842653275, -0.005597531329840422, -0.002495646709576249, -0.0006853091181255877, 0.0022053339052945375, 0.010195714421570301, 0.001657986780628562, -0.002537856809794903, 0.0007462640642188489, 0.008637613616883755, 0.0023558742832392454, -0.00217507709749043, -0.0059895701706409454, -0.0025019848253577948, 0.0015356381190940738, -0.0011993595398962498, 0.0004264766466803849, -0.01136979553848505, -0.00387403042986989, -0.003535656491294503, 0.0124170808121562, -0.0008352523436769843, 0.0013156275963410735, -0.0016882703639566898, 0.00021676193864550442, -0.0010728823253884912, 0.002368421759456396, -0.0026333911810070276, 0.009654229506850243, -0.001450021518394351, 0.0076223756186664104, -0.002712606219574809, 0.000920846126973629, -0.0018384655704721808, 0.002242065267637372, -0.0011619863798841834, 0.0035156451631337404, -0.0021437297109514475, 0.00479520158842206, 0.011637402698397636, 0.0012373279314488173, -0.0007142983959056437, -0.002018407918512821, 0.010431730188429356, 0.01056674961000681, -0.012103886343538761, -0.0013252926291897893, -0.002891566138714552, 0.0024906378239393234, -0.01379346288740635, -0.00016771887021604925, -0.002275198930874467, 0.010067570954561234, -0.0011923721758648753, 0.0029581929557025433, -0.0019190293969586492, -0.002058111596852541, 0.012939684092998505, 0.001031607622280717, -0.0029373038560152054, 0.0011879289522767067, -0.00401788717135787, 0.0047036283649504185, 0.002281632274389267, 0.0016870094696059823, -0.004531671293079853, 0.0011135542299598455, -0.000617903599049896, 0.0004492452717386186, -0.0022759484127163887, 0.0011896734358742833, -0.0031623700633645058, -0.0016498721670359373, -0.007856723852455616, 0.004239653702825308, -0.0014544734731316566, -0.00931674987077713, 0.0020341912750154734, 0.0028372204396873713, 0.0006605327944271266, 0.0022016684524714947, -0.004902851767838001, 0.0007869466789998114, -0.004367823712527752, 0.0020382648799568415, -0.002609818708151579, 0.0013761440059170127, -0.0011530418414622545, 0.0012878354173153639, -0.010522980242967606, -0.0002303814108017832, -0.0023490770254284143, -0.007258501369506121, -0.0012700998922809958, 0.0006531024118885398, -0.00205138954333961, 0.004293359350413084, -0.0016626921715214849, 0.0019086535321548581, -0.011874648742377758, 0.001363673829473555, 0.008431880734860897, 0.002522146562114358, -0.0032844948582351208, 0.006142895203083754, -0.0015278038335964084, -0.004121191333979368], [-7.869225555623416e-06, -0.0014662585454061627, -0.000582485634367913, -0.000582563632633537, 0.002280095824971795, -0.0005892397020943463, -0.0015915438998490572, -0.002352363895624876, 0.000747757323551923, 0.0015840820269659162, 0.0015168670797720551, -0.0009069874649867415, 0.00223993556573987, -0.00010728760389611125, -0.00018145730427931994, -0.001659576897509396, -0.0012030268553644419, -0.0019114199094474316, 0.001110524870455265, 3.488506990834139e-05, 0.001224387320689857, 0.0035445746034383774, 0.0011920386459678411, 0.0018354052444919944, 0.0007571907481178641, -0.0013343020109459758, -0.0001647267781663686, -0.0021675731986761093, 5.092543869977817e-05, -0.001193359144963324, -0.003741911379620433, -0.0008016098872758448, 0.0015441818395629525, 0.0007923704106360674, 0.00042158635915257037, -0.002445409307256341, 0.0018956989515572786, -1.923288255056832e-05, 0.001964953960850835, 0.0010404555359855294, 0.0013965065591037273, -0.001893151318654418, 0.0001894467422971502, -0.0005374085740186274, 0.0011566150933504105, -0.0024339298252016306, 0.0016988218994811177, -0.001922296010889113, 0.0022432117257267237, -0.0020603446755558252, 0.0022509978152811527, -0.00018613880092743784, 0.0021626625675708055, -0.0018536212155595422, 0.0011761210625991225, -0.0016094411257654428, 0.00039410486351698637, -0.00031783722806721926, 0.0017618441488593817, -0.0012469697976484895, -7.702920265728608e-05, -0.0013938157353550196, 0.0014436413766816258, 0.00029589919722639024, -0.0021130829118192196, -0.00219548842869699, 0.0012723015388473868, 0.0021543295588344336, 0.0012444929452612996, -0.0021648332476615906, 0.0011733387364074588, 8.729444380151108e-05, 0.0012295151827856898, -0.0006595766171813011, 0.0011898670345544815, -0.0009828610345721245, 0.001823988975957036, 0.0011704894714057446, -0.00040499743772670627, -0.0011069836327806115, 0.0004742612363770604, -0.0015103380428627133, 0.00010055476741399616, -0.00043487863149493933, -0.0018961395835503936, -0.002237789100036025, 0.001862025703303516, -0.002092178212478757, 0.001220399746671319, -0.0011877757497131824, 0.0003007812483701855, -0.0009294336196035147, 0.002302733017131686, 0.0013497815234586596, 6.033921454218216e-05, -0.0008343661320395768, 0.0017734664725139737, 0.000509845616761595, -0.0011907074367627501, -0.0004041554348077625, -0.0015778254019096494, -0.002146570710465312, 0.002107881475239992, -0.00016934875748120248, 0.0016034709988161922, -0.001382252899929881, 0.0020946934819221497, -0.000618400052189827, 0.001290924847126007, -0.002103866310790181, 0.0005232385592535138, 0.0011133941588923335, 0.00142852240242064, 0.0015054548857733607, 0.0013457322493195534, -0.0005620475276373327, 0.002419076394289732, -0.00016794227121863514, 7.032086432445794e-05, -0.001929344842210412, 0.0015910565853118896, -0.002044317312538624, -0.00038245905307121575, -0.001387899392284453, 0.00075544259743765, -0.0012256281916052103, 0.0024369636084884405, 0.0007161856628954411], [0.0016078198095783591, 0.0009210319840349257, 0.00014924952120054513, 0.0005515048978850245, -0.0020570734050124884, 0.0005146975163370371, 0.0027278794441372156, 0.001456302241422236, -0.0003916794084943831, -0.0016925095114856958, -0.0018102284520864487, 0.0011055313516408205, -0.0023106024600565434, 0.0025064717046916485, 0.0023728180676698685, 0.0016516703180968761, 0.0013425424695014954, 0.0021626041270792484, -0.0006327684386633337, -0.0017779985209926963, -0.0018754963530227542, -0.0005978102562949061, -0.0005999380373395979, -0.00036044756416231394, -0.0020372739527374506, 0.0016441675834357738, 0.0004864922957494855, 0.0014415683690458536, -0.002460136078298092, 0.00029209605418145657, 0.0024821970146149397, 2.7007861262973165e-06, -0.0023653123062103987, -0.0009788456372916698, -0.0010241183917969465, 0.0015868796035647392, -0.0022854062262922525, 0.0017113644862547517, -0.0019635725766420364, -0.0012635804014280438, -0.0026013904716819525, 0.0042634219862520695, -0.001348567195236683, 0.0016565924743190408, -0.00042286867392249405, 0.000987651408649981, -0.0012096392456442118, 0.0008308342075906694, -0.0012790211476385593, 0.0025130563881248236, -0.0018967840587720275, 0.00012573107960633934, -0.0010736834956333041, 0.0020914359483867884, -0.0017541565466672182, 0.0016542358789592981, -0.0009932267712429166, 0.006383806467056274, -0.0017431856831535697, 0.0005367950070649385, 0.0010711334180086851, 0.0020355067681521177, -0.002252192236483097, -0.0009486423805356026, 0.003232870949432254, 0.0013774697436019778, -0.00030524336034432054, -0.0020466309506446123, -0.0018024765886366367, 0.0017767759272828698, -0.0005754597368650138, -0.0018655237508937716, -0.0019537480548024178, 0.0009868526831269264, -0.002173912711441517, 0.00040315743535757065, -0.0016721072606742382, -0.0011245566420257092, 0.0007735550170764327, 0.002340426668524742, -0.002453599590808153, 0.0011225800262764096, -0.002489014295861125, 0.0006845534662716091, 0.001640181988477707, 0.003908256068825722, -0.0010010171681642532, 0.0016260723350569606, -0.002616625279188156, 0.0008517716778442264, -0.002326070796698332, 0.005141792353242636, -0.000997625757008791, -0.0009638635674491525, -0.0018334923079237342, 0.0008357283077202737, -0.002321225358173251, -0.0024883972946554422, 0.0008508071769028902, 0.0019918116740882397, 0.0019283846486359835, 0.0017519616521894932, -0.002962098689749837, 0.00041704470640979707, -0.0022777344565838575, 0.0023248379584401846, -0.0011314101284369826, 0.0013407779624685645, -3.5720455343835056e-05, 0.0015651658177375793, -0.0011246862122789025, -0.005702994763851166, -0.002755745081230998, -0.0019789135549217463, -0.0006801019771955907, 0.002452986780554056, -0.0013292704243212938, 0.002198621863499284, -0.002051121089607477, 0.001708203461021185, -0.0021291235461831093, 0.0004644540313165635, 0.0016524923266842961, 0.0024834165815263987, -0.0005511384806595743, 0.0014015828492119908, -0.002429086249321699, -0.005288173910230398], [-0.0002958191907964647, -0.00137221475597471, -0.001849014894105494, -0.0015865706373006105, 0.0010851812548935413, -0.00020707567455247045, -0.0017974335933104157, -0.0023268223740160465, 0.005194160155951977, 0.0024994383566081524, 0.001504284911789, -0.0018778343219310045, 0.0007304600439965725, -0.001239640056155622, -0.004597051069140434, -0.004643564578145742, -0.0016317191766574979, -0.0005134095554240048, 0.0012644227826967835, 0.0010351988021284342, 0.0011104713194072247, 0.002296317834407091, 0.0013306466862559319, 0.0006071201642043889, 0.0018152209231629968, -0.002545034745708108, -0.004012496210634708, -0.0013871107948943973, 0.001466234098188579, -0.0006681949598714709, -0.005393101368099451, -0.0014664462069049478, 0.0004565473645925522, 0.0009368130704388022, 0.0004166120779700577, -0.000913264520931989, 0.0005314375157468021, -0.0011869403533637524, 0.0015296457568183541, 0.0011445089476183057, 0.0002869594027288258, -0.002218213863670826, 0.002223755232989788, -0.0022300691343843937, 0.001703812275081873, -0.002571613062173128, 0.0018392550991848111, -0.001921464572660625, 0.0017630787333473563, -0.0011691536055877805, 0.0020344171207398176, -0.0009891632944345474, 0.0015915351686999202, -0.0010644426802173257, 0.00011228378571104258, -0.0014987114118412137, 0.00044494474423117936, -0.007143192458897829, 0.0010305526666343212, -0.00022341811563819647, -0.000336404365953058, -0.00026867506676353514, 0.0021045629400759935, 0.0007753167301416397, -0.0001972096652025357, -0.002561819041147828, 0.00020570194465108216, 0.0006048519862815738, 0.001462145010009408, -0.002817590720951557, 0.0013916537864133716, 0.0021078428253531456, 0.0016378473956137896, -0.0023757934104651213, 0.0010089799761772156, -0.0029238304123282433, 0.0006203507073223591, 0.002450789324939251, -0.0023778914473950863, -0.0010052296565845609, 0.0016820656601339579, -0.001020702999085188, 0.00044305258779786527, -0.0004107510903850198, -0.0001215036609210074, -0.0018948508659377694, 0.0008911184850148857, -0.0003001041477546096, 0.0009773041820153594, -0.0012754439376294613, 0.0003217036137357354, -0.0021504508331418037, 0.0008398001664318144, 0.0001580834068590775, 0.0017976134549826384, -0.0017734746215865016, 0.001906422316096723, 0.002152495551854372, -0.00061939493753016, -0.001593360211700201, -0.0014032245380803943, -0.002043219516053796, 0.0013280101120471954, -0.002226176904514432, 0.0025558725465089083, -0.001620693365111947, 0.002689708024263382, -0.0005733504076488316, 0.0020961188711225986, -0.0005960700800642371, 0.0019180289236828685, 0.0025014146231114864, 0.0003336298104841262, 0.0018075206317007542, 0.0014302984345704317, -0.0006438093259930611, 0.0015219448832795024, -0.0006780073745176196, 0.0034293129574507475, -0.0021273652091622353, 0.0012938982108607888, -0.00018207494576927274, -0.004440705757588148, -0.0011307124514132738, 0.00150398351252079, -0.0009837262332439423, 0.0012404341250658035, 0.0023578726686537266], [-0.0025357515551149845, -0.0046412707306444645, -0.004463769029825926, -0.0018527242355048656, 0.002376380143687129, -0.0018261882942169905, -0.00489618256688118, -0.0024453129153698683, 0.005201432853937149, 0.0007262024446390569, 0.0008676592842675745, -0.002259583678096533, 0.0023752974811941385, -0.0006718033109791577, -0.001297599170356989, -0.0010201806435361505, -0.0019402361940592527, -0.002049640752375126, 0.0009284329717047513, 0.00694638816639781, 0.001736036385409534, 0.001173121389001608, 0.0010109564755111933, 0.00036607470246963203, 0.002155977301299572, -0.003465387737378478, -0.00041918703936971724, -0.0014696763828396797, 0.001915158238261938, -0.0005491737392731011, -0.003964815754443407, -0.0023622873704880476, 0.0015690091531723738, 0.0024007936008274555, 0.0018707301933318377, -0.002180725336074829, 0.0016563332173973322, -0.0012879817513749003, 0.002478764858096838, 0.0008902358240447938, 0.004031528253108263, -0.0016067492542788386, 0.0010505859972909093, -0.0024779371451586485, 0.0026103563141077757, -0.0024441012647002935, 0.00023834938474465162, -0.0010745072504505515, 0.0019470612751320004, -0.00048072682693600655, 0.00012084924674127251, -0.0023778476752340794, 7.038890908006579e-05, -0.00030739742214791477, 0.0003305990539956838, -0.0022982514929026365, 0.0007403941708616912, -0.0005333646549843252, 0.0020443827379494905, -0.005043738521635532, -0.00045547206536866724, -0.0022182415705174208, 0.004051063675433397, 0.002465847646817565, -7.589736924273893e-05, -0.0009942845208570361, 0.0035056262277066708, 0.0020456984639167786, 0.0012767721200361848, -0.0011721801711246371, 0.0016062435461208224, 0.0018919151043519378, 0.0003471365780569613, -0.001924852724187076, 0.0015691443113610148, -0.0011699743336066604, 0.0010810364037752151, 0.0017534497892484069, -0.0021906753536313772, -0.003069815691560507, 0.002600307110697031, -0.00032824758091010153, 0.0010148757137358189, -5.1358907512621954e-05, -0.0014024765696376562, -0.003078162670135498, 0.0005807371344417334, -0.00043306199950166047, 0.005142830312252045, -0.0021601596381515265, 0.0021933317184448242, -0.0010432725539430976, 0.0014038293156772852, 0.007651114836335182, 0.004083739127963781, -0.003542135236784816, 0.0010799349984154105, 0.0005844663246534765, -0.0023646363988518715, -0.0015008565969765186, -0.00022922293283045292, -0.0006038298015482724, 0.0024198428727686405, -0.0019156151684001088, 0.002487166551873088, -0.0005875552305951715, 0.001485211425460875, -0.00213588192127645, 0.0035762896295636892, -0.0010450598783791065, 0.00415034219622612, 0.001570201711729169, 0.002235886873677373, 0.0029430927243083715, 0.0013281528372317553, -0.0013536952901631594, 0.0011861975071951747, -0.0028077098540961742, 0.0013501732610166073, -0.0014798757620155811, 0.0017097739037126303, -0.00036620727041736245, -0.001514769857749343, -0.006121890619397163, 0.0003646527766250074, -0.0005243654013611376, 0.00210181693546474, 0.00027007225435227156], [-0.0011469207238405943, -0.002326361835002899, -0.00040892703691497445, -0.002226817887276411, 0.0019993565510958433, -0.0002593093377072364, -0.0010022216010838747, -0.0013519312487915158, 0.0023828439880162477, 0.0020677116699516773, 0.0006392420618794858, -0.0016800765879452229, 0.0013705496676266193, -0.0010298296110704541, -0.0022714498918503523, -0.0019104363163933158, -0.0015039213467389345, -0.0021470338106155396, 0.0020404395181685686, 0.0021244280505925417, 0.0018074300605803728, 0.0011418717913329601, 0.00149486493319273, 0.002082884544506669, 6.272651080507785e-05, -0.0020950189791619778, -0.001992129487916827, -0.0024935356341302395, 0.0018518747529014945, -0.0017689979868009686, -0.0014573740772902966, -0.0010076320031657815, 0.0017733612330630422, 0.00248651672154665, 0.0021396875381469727, -0.0017144829034805298, 0.0022447828669101, -0.0010397848673164845, 0.0023742879275232553, 0.0012271282030269504, 0.0015453690430149436, -0.001406254479661584, 0.0008354494930244982, -0.002047197660431266, 5.352785956347361e-05, -0.0014004932017996907, 0.0013570534065365791, -0.0006703677936457098, 0.0026223391760140657, -0.00035635827225632966, 0.002343366853892803, -0.0003854072710964829, 0.0009379943949170411, -0.0009162158821709454, 0.0011044132988899946, -0.001417699852026999, 0.001269016764126718, -0.0015003737062215805, 0.0021011526696383953, -0.0010329765500500798, -0.0025013245176523924, -0.0016008539823815227, 9.197628969559446e-05, 0.0007748485077172518, -0.001403026282787323, -0.0007402888732030988, 0.0014192481758072972, 0.0011820707004517317, 0.0021563745103776455, -0.0026111321058124304, 0.0006817372050136328, 0.002266965340822935, 0.0013558531645685434, -2.551124089222867e-05, 0.002323199063539505, -0.003829956753179431, 0.0008623229805380106, 0.0005568516789935529, -0.0017034847987815738, -0.00150133459828794, 0.0019329345086589456, -0.002428983571007848, 0.0007554629119113088, -0.0012044190661981702, -0.0014280950417742133, -0.0007812920957803726, 0.0006980352918617427, -0.0011954455403611064, 0.0013123254757374525, -0.0020700101740658283, 0.0010738541604951024, -0.0019620286766439676, 0.001491103321313858, 0.00427348492667079, 0.0010316673433408141, -0.0022012917324900627, 0.001849456108175218, 0.006588518153876066, -0.0025551223661750555, -0.0026796169113367796, -0.00032780447509139776, -0.0012728028232231736, 0.0008433290058746934, -0.0013018574099987745, 0.0002314061130164191, -0.0009470615186728537, 0.0024881630670279264, -0.001496948883868754, 0.0025505484081804752, -0.0007964986143633723, 0.0019346796907484531, 0.001763458363711834, 0.002322848653420806, 0.0024225423112511635, 0.002178081776946783, -0.0011161054717376828, 0.0014378975611180067, -0.0009890898363664746, 0.0014971938217058778, -0.000220559595618397, 0.005804290063679218, -0.0003878768184222281, -0.0027159827295690775, -0.002508880803361535, 0.0019289093324914575, -0.002292446093633771, 0.001189058762975037, 0.0008215614943765104], [-0.03215039148926735, -0.002869345946237445, -0.004412440583109856, -0.03875396028161049, 0.0033046326134353876, -0.01884322427213192, -0.004332029260694981, -0.03609928861260414, 0.01241487916558981, 0.009439576417207718, 0.029316848143935204, -0.0030203554779291153, 0.0031180046498775482, -0.02991684153676033, -0.032246679067611694, -0.004588217008858919, -0.0071246265433728695, -0.03319152817130089, 0.008638179861009121, 0.007387824356555939, 0.011053497903048992, 0.003118553664535284, 0.04255006089806557, 0.04059528931975365, 0.00540834991261363, -0.019130345433950424, -0.0015289721777662635, -0.004014494363218546, 0.041535452008247375, -0.010914190672338009, -0.0023232027888298035, -0.0033131868112832308, 0.0014227336505427957, 0.00389189925044775, 0.0013654804788529873, -0.010416866280138493, 0.04060252383351326, -0.0234303567558527, 0.001827426254749298, 0.03579065576195717, 0.042421016842126846, -0.01462592277675867, 0.026751866564154625, -0.007474005222320557, 0.004489605315029621, -0.006182157900184393, 0.016898026689887047, -0.003123450092971325, 0.009160852991044521, -0.0019965816754847765, 0.004144304431974888, -0.00416956190019846, 0.0034190528094768524, -0.033493511378765106, 0.002972458954900503, -0.003617597511038184, 0.005842303857207298, -0.03519255295395851, 0.004523740615695715, -0.002940356731414795, -0.0069497632794082165, -0.002864176407456398, 0.002516654087230563, 0.0039648874662816525, -0.004913369193673134, -0.009768402203917503, 0.004555126186460257, 0.032872434705495834, 0.003073106985539198, -0.01905113272368908, 0.006413605064153671, 0.003061105730012059, 0.005446162540465593, -0.012091605924069881, 0.0044772205874323845, -0.035391807556152344, 0.0044221580028533936, 0.004101557657122612, -0.0031909069512039423, -0.0023061432875692844, 0.010991563089191914, -0.009962365962564945, 0.004279133398085833, -0.006172638852149248, -0.003903837874531746, -0.0031817953567951918, 0.003419607412070036, -0.004413358401507139, 0.021971451118588448, -0.0024343659169971943, 0.040329109877347946, -0.03567967936396599, 0.00331195630133152, 0.004337487742304802, 0.0031869045924395323, -0.0035483227111399174, 0.030620072036981583, 0.0032944711856544018, -0.0027522470336407423, -0.004490725230425596, -0.03908861055970192, -0.006376536563038826, 0.004142253194004297, -0.030626004561781883, 0.009860443882644176, -0.0015649907290935516, 0.03841284662485123, -0.005374162457883358, 0.025294147431850433, -0.04137127101421356, 0.0055519044399261475, 0.003963508643209934, 0.004970828536897898, 0.002832797821611166, 0.007486862130463123, -0.005416482221335173, 0.031518369913101196, -0.005139539949595928, 0.026478905230760574, -0.03665109723806381, 0.00666806660592556, -0.002779547590762377, -0.036179352551698685, -0.021106915548443794, 0.004633680917322636, -0.007610822096467018, 0.0029636318795382977, 0.0015689617721363902], [-0.014330079779028893, -0.018411967903375626, -0.01761174574494362, -0.020319169387221336, 0.010014630854129791, -0.0016699042171239853, -0.016119034960865974, -0.013824942521750927, 0.009565027430653572, 0.01351969875395298, 0.010026724077761173, -0.016994358971714973, 0.019611094146966934, -0.01850784197449684, -0.013391147367656231, -0.01838678866624832, -0.016328148543834686, -0.01088546309620142, 0.01590542122721672, 0.020148852840065956, 0.01445024088025093, 0.01617380790412426, 0.012201044708490372, 0.015741484239697456, 0.013907068409025669, -0.010196863673627377, -0.003773800330236554, -0.018746161833405495, 0.013566840440034866, -0.012281754054129124, -0.010664477944374084, -0.008415678516030312, 0.003682936541736126, 0.020589526742696762, 0.014489879831671715, -0.014916941523551941, 0.014039208181202412, -0.004046977963298559, 0.022944945842027664, 0.015911346301436424, 0.015639400109648705, -0.019577935338020325, 0.004481764510273933, -0.014675290323793888, 0.004737399984151125, -0.005504962522536516, 0.002000869018957019, -0.026984965428709984, 0.005916545633226633, -0.010179522447288036, 0.0038962215185165405, -0.01973528228700161, 0.008193310350179672, -0.010808488354086876, 0.01282041147351265, -0.009431791491806507, 0.019401630386710167, -0.020671073347330093, 0.005707242991775274, -0.019062118604779243, -0.018568741157650948, -0.015118987299501896, 0.011977855116128922, 0.010801984928548336, -0.017880480736494064, -0.017616689205169678, 0.013198737055063248, 0.0031062199268490076, 0.0018276056507602334, -0.004470749758183956, 0.024470500648021698, 0.011243385262787342, 0.012368018738925457, -0.018822209909558296, 0.0009217924671247602, -0.019787298515439034, 0.006589473690837622, 0.017101455479860306, -0.022450532764196396, -0.007653180044144392, 0.004296114668250084, -0.016738012433052063, 0.016381138935685158, -0.015368021093308926, -0.01213484350591898, -0.0163744930177927, 0.01658712886273861, -0.014658632688224316, 0.009499983862042427, -0.01027523074299097, 0.003781325416639447, -0.015428168699145317, 0.00465779984369874, 0.0191374309360981, 0.017494458705186844, -0.0216384194791317, 0.017220046371221542, 0.009366615675389767, -0.005876007955521345, -0.0102841816842556, -0.016435028985142708, -0.01466021966189146, 0.003415928455069661, -0.01674835756421089, 0.0038913669995963573, -0.014037827029824257, 0.01651061326265335, -0.015880810096859932, 0.007843495346605778, -0.018784169107675552, 0.01997525990009308, 0.012053722515702248, 0.005101845134049654, 0.01585874706506729, 0.01867893524467945, -0.009060516953468323, 0.007513217628002167, -0.020026253536343575, 0.018329864367842674, -0.0158242154866457, 0.017509544268250465, -0.014709729701280594, -0.013573750853538513, -0.0042213392443954945, 0.012613880448043346, -0.017654141411185265, 0.015609391033649445, 0.021856172010302544], [0.0022020521573722363, 0.0023822856601327658, 0.0030570111703127623, 0.002367538632825017, -0.0015555494464933872, 0.0021737946663051844, 0.002840212546288967, 0.0018319763476029038, -0.0007595191127620637, -0.0019699104595929384, -0.0014569703489542007, 0.002153178211301565, -0.0015818316023796797, 0.002336681354790926, 0.002016823971644044, 0.0024225825909525156, 0.0012478961143642664, 0.0018555844435468316, -0.0009646147373132408, -0.004299729131162167, -0.002213485771790147, -0.0018271302105858922, -0.0019363678293302655, -0.0017811988946050406, -0.002370551461353898, 0.002117288764566183, 0.001965306466445327, 0.0020602145232260227, -0.0023727668449282646, 0.001464050030335784, 0.007236470002681017, 0.0016167857684195042, -0.0004998897784389555, -0.002932427218183875, -0.002463205484673381, 0.0016898107714951038, -0.0015273273456841707, 0.00023872460587881505, -0.0024249933194369078, -0.0024675026070326567, -0.0027716513723134995, 0.0029319915920495987, -0.0005149334319867194, 0.0009346792357973754, -0.0021257922053337097, 0.0004943526000715792, -0.001056765322573483, 0.0010396980214864016, -0.0009896383853629231, 0.0025205789133906364, -0.0015951812965795398, 0.0018812717171385884, -0.001723565743304789, 0.0008362465887330472, -0.002137394854798913, 0.0018770606257021427, -0.00226040743291378, 0.0025374600663781166, -0.0019146985141560435, 0.0013278776314109564, 0.00273573724552989, 0.0011968696489930153, -0.0013687624596059322, -0.0013029025867581367, 0.0005613159737549722, 0.0020695640705525875, -0.0011338985059410334, -0.0017846995033323765, -0.0005647140787914395, 0.003032600972801447, -0.0012654531747102737, -0.0020256435964256525, -0.0019793701358139515, 0.0014717787271365523, -0.0006120337056927383, 0.0028254298958927393, -0.002572238678112626, -0.0014685040805488825, 0.0024017600808292627, 0.002351225819438696, -0.001727017923258245, 0.0017508325399830937, -0.0025857575237751007, 0.0022571550216525793, 0.0021538150031119585, 0.002311278134584427, -0.002368564484640956, 0.0008947912137955427, -0.0021090894006192684, 0.0008350236457772553, -0.002034716075286269, 0.0023014333564788103, -0.001740892301313579, -0.0020441256929188967, -0.0033300314098596573, 0.0025762710720300674, -0.002149361651390791, -0.00146771059371531, 0.0014657265273854136, 0.002423653146252036, 0.0025444442871958017, 0.0018680960638448596, -0.0022274130024015903, 0.0011660673189908266, -0.0024849167093634605, 0.0022063241340219975, -0.0007901016506366432, 0.0018579174065962434, -0.001143626170232892, 0.0024337912909686565, -0.0005402144161053002, -0.0023578647524118423, -0.0015626500826328993, -0.002655724762007594, -0.0018524205079302192, 0.0022128154523670673, -0.0003872837987728417, 0.003036715090274811, -0.0017727022059261799, 0.0021281023509800434, -0.005391496233642101, 0.002689945977181196, 0.0020571143832057714, 0.000979555887170136, -0.002955745905637741, 0.0025972977746278048, -0.0020639942958950996, -0.00014475610805675387], [-0.0017511341720819473, -0.0011259533930569887, -0.0016273235669359565, -0.002511724131181836, 0.0013361623277887702, -0.002079034922644496, -0.0004153450718149543, -0.0021108859218657017, 0.000794870313256979, 0.0020478591322898865, 0.0014880788512527943, -0.001749410410411656, 0.002122995676472783, -0.0011915476061403751, -0.003527201944962144, -0.008059520274400711, -0.001139665488153696, -0.002372177317738533, 0.000994298723526299, 0.002288195537403226, 0.0012921459274366498, 0.0008233735570684075, 0.0022047734819352627, 0.0022589436266571283, 0.0007254168740473688, -0.0002348185225855559, -0.0009468969656154513, -0.0019007108639925718, 0.0005849237786605954, -0.0008237567381002009, -0.0048347595147788525, -0.0021515802945941687, 0.0024919917341321707, 0.002951971022412181, 0.003979964181780815, -0.0021248620469123125, 0.0006101048784330487, -0.0021766158752143383, 0.0013100425712764263, 0.000571435724850744, 0.0015356304356828332, -0.0021608504466712475, 0.0008085325243882835, -0.0020679058507084846, 0.006394378840923309, -0.0023568468168377876, 0.00170212856028229, -0.0012576923472806811, 0.0018382563721388578, -0.0010663517750799656, 0.006940010469406843, -0.0019249394536018372, 0.0010556926717981696, -0.0013987311394885182, 0.0018384949071332812, -0.0009392990032210946, 0.001521285972557962, -0.0011072029592469335, 0.0022252954076975584, -0.002291696146130562, -0.002263647271320224, -0.0012515360722318292, 0.004763944540172815, 0.002410152228549123, -1.2602758033608552e-05, -0.002083410043269396, 0.0018469674978405237, 0.0015217261388897896, 0.004981364123523235, -0.0023998578544706106, 0.0007310362416319549, 0.0025715387891978025, 0.0010257798712700605, -0.0008817855268716812, 0.0025157672353088856, -0.002862767083570361, 0.0018440919229760766, 0.0047422838397324085, -0.0021861467976123095, -0.0020901865791529417, 0.002630433766171336, -0.0014009954174980521, 0.0015423360746353865, -0.0008400968508794904, -0.0002574327227193862, -0.004771580453962088, 0.0004871092678513378, -0.002516060834750533, 0.0021153173875063658, -0.0003963709168601781, 0.0023994818329811096, -0.0014627191703766584, 0.0020766817033290863, 0.0004916637553833425, 0.005717170424759388, -0.00292203389108181, 0.0025095536839216948, 0.0043432218953967094, -0.0003814140800386667, -0.0012468408094719052, -0.0029912900645285845, -0.0003054713597521186, 0.006837381981313229, -0.0029708610381931067, 0.0033800401724874973, -0.0018025411991402507, 0.0018257016781717539, -0.0016167262801900506, 0.00207514688372612, -0.0016540091019123793, 0.0012597880559042096, 0.0014588481280952692, 0.004680305253714323, 0.0016458785394206643, 0.0021692588925361633, -0.0023457063362002373, 0.002187565667554736, -0.002557361964136362, 0.002115235896781087, -0.001741707674227655, 0.002778585534542799, -0.0014230330707505345, -0.0026900991797447205, -0.002255902625620365, 0.00027804513229057193, -0.0022007657680660486, 0.001657912158407271, 0.0025409001391381025], [-0.0007375502027571201, -0.0053113121539354324, -0.00031103790388442576, -0.0018391376361250877, 0.0001611175248399377, -0.0007849030080251396, -0.0024558603763580322, -0.0015368865570053458, 0.0019628864247351885, 0.00045153687824495137, 0.0018857024842873216, -0.0014038246590644121, 0.003438306739553809, -8.509601320838556e-05, -0.0008050258038565516, -0.007927562110126019, -0.0012548487866297364, -0.0010026464005932212, 0.0010244910372421145, 0.00015334371710196137, 0.0007792242686264217, 0.004240181762725115, 0.0012943132314831018, 9.330691682407632e-06, 0.0018661993090063334, -0.001060648588463664, -0.002106684260070324, -0.0025646768044680357, 0.0009422731818631291, -0.0016572183230891824, -0.0015762472758069634, -0.0007469236734323204, 0.001059233327396214, 0.0024259404744952917, 0.0014348839176818728, -0.0005655423738062382, 0.0012416086392477155, -0.0012374402722343802, 0.002136966912075877, 0.0006035090773366392, 0.001142387744039297, -0.0025509740225970745, 0.00196114182472229, -0.0016831993125379086, 0.0012819408439099789, -0.0012678565690293908, 0.0020186048932373524, -0.0017626472981646657, 0.001151600619778037, -0.0012744534760713577, 0.0010581372771412134, -0.0014598071575164795, 0.0006902017048560083, -0.0007587162544950843, 0.0006318678497336805, -0.0003226243716198951, 0.0017197543056681752, -0.000910943141207099, 0.0019814716652035713, -0.001624941942282021, -0.0018393895588815212, -0.0021360202226787806, 0.0009380326955579221, 0.001397902611643076, -3.152259159833193e-05, -0.0014655744889751077, 0.0011744461953639984, 0.0016797390999272466, 0.001442314707674086, -0.0013255272060632706, 0.0007044953526929021, 0.0004619319224730134, 0.0021283330861479044, -0.0010980002116411924, 0.001219799742102623, -0.002773943357169628, 0.0024686544202268124, 0.00216367794200778, -0.0018922918243333697, -0.001333121326752007, 0.0015247233677655458, -0.0006037981365807354, 0.0017442331882193685, -0.0017402683151885867, -0.00024772886536084116, -0.0008721983758732677, 0.003271677764132619, -0.00162246054969728, 0.0018470388604328036, -0.001178937265649438, 0.0008289010147564113, -0.001490777125582099, 0.000327492190990597, 0.0003007721097674221, 0.0014291463885456324, -0.0020667845383286476, 0.001998663879930973, 0.00012701319064944983, -0.0012186110252514482, -0.002099801553413272, -0.00011152060324093327, -0.0011850993614643812, 0.002302894601598382, -0.0007625810103490949, 0.0013684638543054461, -0.0014231231762096286, 0.0010345673654228449, -0.0010265323799103498, 0.0019246210576966405, -0.0029610255733132362, 0.0006569658289663494, 0.0019516905304044485, 3.613131048041396e-05, 5.985019379295409e-05, 0.0003967053780797869, -0.0007433819118887186, 0.0009737160871736705, -0.005635388661175966, 0.001532254391349852, -0.001843202393501997, 0.0007545211701653898, -0.0007177029037848115, -0.00239234184846282, -0.0019263556459918618, 0.0022049997933208942, -0.0019127848790958524, 0.0022694184444844723, 0.004063513595610857], [0.0048755500465631485, 0.005469685420393944, 0.002998243784531951, 0.006099098362028599, -0.004698357544839382, 0.006586023140698671, 0.012622693553566933, 0.005761421751230955, -0.009327576495707035, -0.0048235934227705, -0.004157624673098326, 0.008394405245780945, -0.0046991524286568165, 0.005462442524731159, 0.00519614527001977, 0.0030520197469741106, 0.006775218527764082, 0.0058998530730605125, -0.007882514037191868, -0.004311926197260618, -0.008256201632320881, -0.005672107916325331, -0.040217410773038864, -0.008479513227939606, -0.009337229654192924, 0.10106954723596573, 0.007937879301607609, 0.007336670067161322, -0.01697736792266369, 0.005773255135864019, 0.007402137853205204, 0.005290066357702017, -0.003333630971610546, -0.0029575361404567957, -0.005902270320802927, 0.0062775216065347195, -0.016550295054912567, 0.0072142593562603, -0.0026614286471158266, -0.0028843898326158524, -0.006313818506896496, 0.004423016216605902, -0.06681223213672638, 0.0028186689596623182, -0.006108057219535112, 0.003154235891997814, -0.005849720444530249, 0.008989600464701653, -0.029058149084448814, 0.007376782596111298, -0.007289748173207045, 0.004338556434959173, -0.02042492851614952, 0.0537152960896492, -0.00526309572160244, 0.0034586675465106964, -0.005366629455238581, 0.010325777344405651, -0.013293396681547165, 0.004180173855274916, 0.005592447239905596, 0.005153190344572067, -0.003151906421408057, -0.004294890444725752, 0.004188263323158026, 0.004044285509735346, -0.0046867504715919495, -0.006726883817464113, -0.10261102020740509, 0.08570681512355804, -0.002308585913851857, -0.002635503187775612, -0.005436474457383156, 0.002585637615993619, -0.04425070434808731, 0.006644453387707472, -0.012974632903933525, -0.005773502867668867, 0.0076133450493216515, 0.013636495918035507, -0.007569959852844477, 0.007287917193025351, -0.007506416644901037, 0.0053625525906682014, 0.005701273679733276, 0.005125170573592186, -0.004530292470008135, 0.0034419791772961617, -0.007101383991539478, 0.004974904004484415, -0.009434341453015804, 0.007737007923424244, -0.0029461595695465803, -0.002914602169767022, -0.004632081836462021, 0.002770468359813094, -0.04136606305837631, -0.005376721732318401, 0.0515255443751812, 0.003617816837504506, 0.019435634836554527, 0.005763488356024027, -0.009429894387722015, 0.013531750999391079, -0.007376042660325766, 0.006188527215272188, -0.01692873053252697, 0.011487406678497791, -0.056953974068164825, 0.009180136024951935, -0.005974802188575268, -0.02409251406788826, -0.0134947020560503, -0.08224654197692871, -0.0062605165876448154, 0.08891609311103821, -0.008672919124364853, 0.010946366004645824, -0.022431761026382446, 0.08851265162229538, -0.00538663612678647, 0.0049742707051336765, 0.07611379027366638, 0.007531237788498402, -0.11576465517282486, 0.011594834737479687, -0.005788448732346296, -0.006234475411474705], [0.0015536431455984712, 0.0013056726893410087, 0.00048737163888290524, 0.0004183900891803205, -0.0015222796937450767, 0.001008177176117897, 0.0009024486062116921, 0.0005551434587687254, -0.0014380131615325809, -0.00013238878455013037, -0.0013424670323729515, 0.0013235541991889477, -0.0006295181810855865, 0.0011966025922447443, 0.00036224815994501114, 0.00016798639262560755, 0.001505790394730866, 0.00018912456289399415, -0.002130893524736166, -0.0019052124116569757, -0.0005438961670733988, -0.0007709289202466607, -0.0019363494357094169, -0.0015021666185930371, -0.0011378468479961157, 0.0006533339037559927, 0.00043851297232322395, 0.002286325441673398, -0.0014792080037295818, 1.2464601240935735e-05, 0.001550554414279759, 0.0005923120770603418, -0.0012141980696469545, -0.00029620397253893316, -0.00047036202158778906, 0.00222250958904624, -0.0018994485726580024, 0.001080317422747612, -0.0009419735288247466, -0.0011952936183661222, -0.002790783764794469, 0.0004921656218357384, -0.0015708329156041145, 0.00032040828955359757, -0.00020658946596086025, 0.00028054724680259824, -0.0021891584619879723, 0.001488698530010879, -0.0020564242731779814, 0.000421143660787493, -6.448992644436657e-05, 0.0006282329559326172, -0.0015742260729894042, 2.562410918471869e-05, -0.0014770862180739641, 0.0002680709585547447, -0.00138590089045465, 0.0004277096886653453, -0.0015923146856948733, 0.0016530490247532725, 0.0005091247730888426, 0.0018851461354643106, -0.0008386275148950517, -0.0012283287942409515, 0.0005247151129879057, 4.9850070354295895e-05, -0.0017476268112659454, -0.0016245298320427537, -0.0016750680515542626, 0.00163103302475065, -0.0011801552027463913, -4.528932549874298e-05, -0.0010993094183504581, 0.0015475837280973792, -0.0019916919991374016, 0.0019338966812938452, -0.0017526618903502822, -0.0015021681319922209, 0.0024062092415988445, 0.0019419505260884762, -0.002052485477179289, 0.001394925406202674, -0.0006468755891546607, 0.0005832601455040276, 0.00040375959360972047, 0.0019483831711113453, -0.0015511400997638702, 0.0005162481102161109, -0.0016834053676575422, 0.0018995697610080242, -0.0010885162046179175, 0.0016125113470479846, -0.0006072347750887275, -0.0018767910078167915, -0.0022694969084113836, 8.431704191025347e-05, -0.0008277213200926781, -0.0005121566937305033, 7.698717672610655e-05, 0.0023863688111305237, 0.0003806872118730098, 0.0021029668860137463, -0.001449612551368773, 0.0013919584453105927, -0.0020783464424312115, 0.0009678079513832927, -0.0018921007867902517, 0.001978932647034526, -0.001992825185880065, 0.002274629892781377, -0.0003686603158712387, -0.002208138583227992, -0.0012626482639461756, -0.002451724838465452, -0.00017510625184513628, 0.000615422788541764, -0.0009465459734201431, 0.005104221869260073, -0.0005768263363279402, 0.0021701627410948277, -0.002202000003308058, 0.0018691528821364045, 0.00025529120466671884, 0.0012861923314630985, -0.0008765592356212437, 0.0023562938440591097, -0.001303172204643488, -0.0017235338455066085], [-0.0010765301994979382, -0.0001924937532749027, -0.0007701499853283167, -0.0008506629965268075, 0.001513572526164353, -0.0015771235339343548, -0.0008107642643153667, -0.00010887634562095627, 0.0019157439237460494, 0.002062777988612652, 0.00029879788053222, -0.001299264607951045, 0.0014025878626853228, -0.0008212102111428976, -0.0020671787206083536, -0.0008928148890845478, -0.0008894977509044111, -0.0015604119980707765, 0.0009070597006939352, 0.0008284408831968904, 0.0012729117879644036, 0.001543780555948615, 0.0017253862461075187, 0.0018501818412914872, 0.0002588092174846679, -0.00193957204464823, -0.002023446373641491, -0.0016295997193083167, 0.0026216888800263405, -0.0011826488189399242, -0.0008493165369145572, -0.001201199134811759, 0.002589873969554901, 0.0008883734117262065, 0.0009177838219329715, -0.0013893659925088286, 0.0007514188182540238, -0.0006447042687796056, 0.0007490102434530854, 0.0005046400474384427, 0.0012495600385591388, -0.0003248808498028666, 0.0006433288217522204, -0.0006731231114827096, 0.001083288574591279, -0.003430785611271858, 0.0011487745214253664, -0.00027030977071262896, 0.0017083165002986789, -0.00023789764964021742, 0.0003946157230529934, -0.0007270224159583449, 0.0008975340169854462, -0.0015837695682421327, 0.001445563044399023, -0.002185940509662032, 0.002046809997409582, -0.001685347524471581, 0.0005723941721953452, -0.001221945509314537, -0.0009460071451030672, -0.0008148893248289824, 0.0008008789154700935, 4.124759652768262e-05, -7.125903357518837e-05, -0.00033850918407551944, 0.0007176625658757985, 0.0006103350897319615, 0.0002259448083350435, -0.0026744846254587173, 0.0012669991701841354, 0.0006002318114042282, 0.0019859462045133114, -0.00027530125225894153, 0.002061388688161969, -0.00013459176989272237, 0.00117900175973773, 0.0017273923149332404, -4.788376827491447e-05, -1.4258657756727189e-05, 0.0005052729975432158, -0.0004786040517501533, 0.00024453765945509076, -0.0008922797860577703, -0.0010785977356135845, -0.0014201110461726785, 0.001591382548213005, -5.6172120821429417e-05, 0.001239323290064931, -0.0013879587640985847, 0.0010615658247843385, -0.0021835521329194307, 0.0013404549099504948, 0.00027226240490563214, 0.0020717282313853502, -0.0005868859007023275, 0.0009652730659581721, 0.0018773232586681843, -0.0022565661929547787, -0.0005413824692368507, -0.0008403019746765494, -0.0015068448847159743, 0.00166116573382169, -0.0019935080781579018, 0.00022720829292666167, -0.0006584978546015918, 0.002052515745162964, -0.0006789795006625354, 0.001678191707469523, -0.0010212450288236141, 0.0006999384495429695, 0.001683793612755835, 0.0023407198023051023, 0.00019554339814931154, 0.0018319461960345507, -0.002339598722755909, 0.00025522118085063994, -0.0009293168550357223, 0.0019219211535528302, -0.0008706379448994994, 0.00039158377330750227, -0.0008617332787252963, -0.00013676068920176476, -0.001217987504787743, 0.0022400387097150087, -0.0016986678820103407, 0.0010018529137596488, 0.0017905202694237232], [-0.002936306409537792, -0.0015923805767670274, -0.000930434965994209, -0.0004413887218106538, 0.0015113957924768329, -0.0008893652120605111, -4.1084731492446736e-05, -0.0022100843489170074, 0.0013917677570134401, 0.0025278080720454454, 0.00019842492474708706, -0.0013514262391254306, 0.0024015596136450768, -0.0009682130767032504, -0.0014822412049397826, -0.001654626103118062, -0.0008093819487839937, -0.0006450998480431736, 0.0015762526309117675, 0.0018134022830054164, 0.0018415737431496382, 0.001532717258669436, 0.0022256835363805294, 0.00023655268887523562, 0.00150562752969563, -0.0010930995922535658, -0.0037935194559395313, -0.0017171173822134733, 0.0013911091955378652, -0.001850584289059043, -0.00486031686887145, -0.000631284317933023, 0.002476580673828721, 0.0014552401844412088, 0.0013100390788167715, -0.001833609421737492, 0.0015090812230482697, -0.0006577931926585734, 0.002287485171109438, 0.00066813372541219, 0.0018410305492579937, -0.0020651540253311396, 0.0012907241471111774, -0.0006701198290102184, 0.00028014081181026995, -0.0010869954712688923, 0.0018791072070598602, -0.0010904866503551602, 0.0017080180114135146, -0.0020926687866449356, 0.0006991615518927574, -0.001102127367630601, 9.667778067523614e-05, -0.0014709834940731525, 0.001076044631190598, -0.002261106390506029, 0.0005585947073996067, -0.0015801871195435524, 0.0003799473633989692, -0.002137716393917799, -0.002233052160590887, -0.002547993091866374, 0.0013482444919645786, 0.0018948331708088517, -0.0022188578732311726, -0.0019272860372439027, 0.0007477034232579172, 0.00042654963908717036, 0.002144833095371723, -0.001299111288972199, 0.0010965765686705709, 0.0013976306654512882, 3.911479143425822e-05, -0.004297389183193445, 0.0010792401153594255, -0.00207132357172668, 0.001272561145015061, 0.000550691329408437, -0.0012751159956678748, -0.0021800983231514692, 0.0002861802058760077, -0.0012217002222314477, 0.0016568695427849889, -0.0012049132492393255, -0.0007391663966700435, -0.0021365219727158546, 0.0015561464242637157, -0.0013835164718329906, 0.001671899575740099, -0.0005392291932366788, 0.0008012711768969893, -0.0019279720727354288, 0.000280242704320699, 0.0003886873309966177, 0.0018331316532567143, -0.0013683655997738242, 0.0008613733807578683, 0.0011280982289463282, -0.0012069091899320483, -0.0011564745800569654, -0.0003268063301220536, -2.384180152148474e-05, 0.0001545335107948631, -0.001706935465335846, 0.0021805560681968927, -0.0009732773178257048, 0.0007275512325577438, -0.0014781394274905324, 0.002213354455307126, -0.0003876519331242889, 0.0004932258161716163, 8.898913802113384e-05, 0.0022120990324765444, 0.0023627919144928455, 0.0012428350746631622, -0.0021629936527460814, 0.0028817839920520782, -0.00037162864464335144, 0.004067905712872744, -0.00016961587243713439, 0.0030365879647433758, -0.0011379382340237498, -0.00046759095857851207, -0.002615471137687564, 0.0017251111567020416, -0.003009543986991048, 0.002024475485086441, 0.005505545064806938], [0.022728050127625465, 0.029098281636834145, 0.01036387961357832, 0.00425735954195261, -0.015325021930038929, 0.0012382165296003222, 0.004238021560013294, 0.019536839798092842, -0.026475615799427032, -0.0034294358920305967, -0.006881972774863243, 0.02611951343715191, -0.028129618614912033, 0.021227894350886345, 0.019405536353588104, 0.010493061505258083, 0.024772243574261665, 0.0041225808672606945, -0.024600263684988022, -0.03129687160253525, -0.02186737023293972, -0.024872316047549248, -0.021066604182124138, -0.02060813084244728, -0.00402407580986619, 0.0021862031426280737, 0.016818396747112274, 0.021154947578907013, -0.007582142949104309, 0.015640612691640854, 0.013208952732384205, 0.007483217865228653, -0.010360611602663994, -0.02709440514445305, -0.017663566395640373, 0.005108215846121311, -0.019274801015853882, 0.006822805851697922, -0.006332960445433855, -0.027538182213902473, -0.02204655483365059, 0.02773146517574787, -0.010524716228246689, 0.02564910240471363, -0.024738863110542297, 0.026867195963859558, -0.0020825588144361973, 0.03051244094967842, -0.0021942714229226112, 0.006479148752987385, -0.02520352229475975, 0.03189200907945633, -0.0036122179590165615, 0.0031069815158843994, -0.020170053467154503, 0.0131780244410038, -0.0038722525350749493, 0.004454615991562605, -0.010567895136773586, 0.026343710720539093, 0.00874465424567461, 0.01826479099690914, -0.01848013326525688, -0.003380873706191778, 0.02831386774778366, 0.03270260989665985, -0.029179004952311516, -0.0030884265433996916, -0.0026890398003160954, 0.003253502305597067, -0.014150784350931644, -0.022445891052484512, -0.015435582026839256, 0.028530776500701904, -0.0021184489596635103, 0.02041311375796795, -0.01419992744922638, -0.02749207802116871, 0.035157058387994766, 0.005680419504642487, -0.007499790284782648, 0.02792416512966156, -0.02791696973145008, 0.024512946605682373, 0.01628287136554718, 0.027914132922887802, -0.027312755584716797, 0.017032397910952568, -0.005324712023139, 0.003775883000344038, -0.017597956582903862, 0.004710388835519552, -0.02496509812772274, -0.0035324746277183294, -0.021356677636504173, 0.02638731710612774, -0.016800807788968086, -0.002451048931106925, 0.002934724558144808, 0.02504357136785984, 0.022800493985414505, 0.007970340549945831, -0.0049249641597270966, 0.010447774082422256, -0.00047856909804977477, 0.023902228102087975, -0.019512733444571495, 0.022509239614009857, -0.001993439393118024, 0.01789349690079689, -0.03634946048259735, -0.004031213000416756, -0.005284491460770369, -0.018516482785344124, -0.020728828385472298, 0.013219159096479416, -0.011916935443878174, 0.02887742593884468, -0.022785354405641556, 0.020047007128596306, -0.004225081764161587, 0.019914990290999413, 0.004398993216454983, 0.022040270268917084, -0.0045851971954107285, 0.02618170902132988, -0.02280842699110508, -0.003968792501837015], [-0.0011869000736624002, -0.0010592960752546787, -0.0011906662257388234, -0.0026676810812205076, 0.0023153487127274275, -0.002154049463570118, -0.002648513298481703, -0.0017435488989576697, 0.00203520804643631, 0.0016306465258821845, 0.0018847056198865175, -0.0010686063906177878, 0.0010528895072638988, -0.000571514421608299, -0.0018983932677656412, -0.0008949945913627744, -0.0013805218040943146, -0.0023506763391196728, 0.0003942231123801321, 0.00043753316276706755, 0.0004991825553588569, 0.0007591285975649953, 0.0023969411849975586, 0.0003923390759155154, 0.002135911025106907, -0.00011642320896498859, -0.0005073037464171648, -0.0017735650762915611, 0.0026381867937743664, -0.0029393117874860764, -0.003264609258621931, -0.0011991377687081695, 0.000657444994430989, 0.0004862544883508235, 0.004481556359678507, -0.0019330234499648213, 0.002160876290872693, -0.0017418664647266269, 0.0009835881646722555, 0.0033786685671657324, 0.0007395937573164701, -0.0024408719036728144, 0.0016341367736458778, -0.0022347946651279926, 0.0011940521653741598, -0.005036723334342241, 0.0006487174541689456, -0.0017615502001717687, 0.0017807825934141874, -0.0022176492493599653, 0.002312519121915102, -0.006355812307447195, 0.002542471280321479, -0.0007126930868253112, 0.001827509026043117, -0.0021940802689641714, 0.0014555428642779589, -0.0024519055150449276, 0.002185208722949028, -0.0011882532853633165, -0.0006906846538186073, -0.0005702174385078251, 0.0006648583803325891, 0.001268357620574534, -0.0022523123770952225, -0.0006485668709501624, 0.000869510811753571, 0.00242652278393507, 0.0024839818943291903, -0.0019007474184036255, 0.000662235775962472, 0.0016434434801340103, 0.0048486823216080666, -0.0013988064602017403, 0.002193107735365629, -0.0007244764710776508, 0.0020270037930458784, 0.0012140601174905896, -0.0019522110233083367, -0.0007985275587998331, 0.0013615068746730685, -0.00196657027117908, 0.0004885224043391645, -0.002472794381901622, -0.001323313219472766, -0.005986110772937536, 0.002113176044076681, -0.0022917049936950207, 0.0004481421783566475, -0.0019093963783234358, 0.002332074334844947, -0.0004218065005261451, 0.002392109017819166, 0.0003615333407651633, 0.001034551882185042, -0.0013525080867111683, 0.0021226885728538036, 0.0022581899538636208, -0.0011423340765759349, -0.002705118153244257, -0.002126181498169899, -0.0005852794274687767, 0.002444236306473613, -0.0012754080817103386, 0.0019221173133701086, -0.002121812431141734, 0.0008092554053291678, -0.001213841256685555, 0.0018497892888262868, -0.0003598779148887843, 0.0018425406888127327, 0.0021923379972577095, 0.00213113846257329, 0.002853597281500697, 0.0012242438970133662, -0.0019631560426205397, 0.0022149744909256697, -0.0007292999071069062, 0.0012775530340149999, -0.00024389266036450863, 0.0006369951879605651, -0.0008500062976963818, -0.0058022974990308285, -0.0017539787804707885, 0.0019063192885369062, -0.0007842719205655158, 0.0005411406746134162, 0.0018355118809267879], [-0.037914469838142395, -0.04706719517707825, -0.03337166830897331, -0.04552142694592476, 0.054080892354249954, -0.044571634382009506, -0.006232720799744129, -0.04572470113635063, 0.00579269602894783, 0.017442503944039345, 0.04649226367473602, -0.05319790542125702, 0.005119177978485823, -0.01599564589560032, -0.03996459022164345, -0.049164216965436935, -0.059007272124290466, -0.005479791201651096, 0.04806274548172951, 0.04896164312958717, 0.04988204687833786, 0.053811896592378616, 0.044709961861371994, 0.05462266504764557, 0.05088943988084793, -0.005272683221846819, -0.019412126392126083, -0.052213866263628006, 0.051986370235681534, -0.04980446398258209, -0.020188143476843834, -0.022616224363446236, 0.020779961720108986, 0.054816316813230515, 0.05788912624120712, -0.05333460122346878, 0.016055695712566376, -0.04451192170381546, 0.05761978030204773, 0.05382224917411804, 0.04619342461228371, -0.03467468172311783, 0.043093692511320114, -0.005372663494199514, 0.053042035549879074, -0.053296834230422974, 0.03806580975651741, -0.010943170636892319, 0.024072734639048576, -0.04818052798509598, 0.050065938383340836, -0.04990570247173309, 0.007931326515972614, -0.0478164404630661, 0.05288958549499512, -0.051980700343847275, 0.05109844729304314, -0.008720450103282928, 0.011510895565152168, -0.04899857938289642, -0.027319064363837242, -0.05185464769601822, 0.047567278146743774, 0.04730033874511719, -0.04776995629072189, -0.052504751831293106, 0.005417371168732643, 0.04914698004722595, 0.008139627985656261, -0.005693475715816021, 0.04826532304286957, 0.030312633141875267, 0.05126010626554489, -0.04940833896398544, 0.03590814024209976, -0.006368555594235659, 0.05827655643224716, 0.06754205375909805, -0.047857657074928284, -0.05211837962269783, 0.014671466313302517, -0.008516928181052208, 0.058469705283641815, -0.05447772517800331, -0.03049207292497158, -0.052388738840818405, 0.054062534123659134, -0.005330755840986967, 0.04818136245012283, -0.048571113497018814, 0.052397146821022034, -0.05930133908987045, 0.0527740940451622, 0.04430904611945152, 0.05039740726351738, -0.054123397916555405, 0.005817141849547625, 0.05183255672454834, -0.02242816984653473, -0.04274323210120201, -0.0476677231490612, -0.050270747393369675, 0.02705436572432518, -0.043183740228414536, 0.016599733382463455, -0.044951051473617554, 0.05414396524429321, -0.007378008216619492, 0.03639071062207222, -0.04561513289809227, 0.05317026376724243, 0.05071762204170227, 0.005692926701158285, 0.0062241642735898495, 0.010781088843941689, -0.019547592848539352, 0.051764294505119324, -0.05648472532629967, 0.0052954391576349735, -0.04328198730945587, 0.010261456482112408, -0.038738951086997986, -0.03755497932434082, -0.057463496923446655, 0.007875618524849415, -0.0532064363360405, 0.04955410957336426, 0.008119176141917706], [0.0015670576831325889, 0.006151607725769281, 0.0023755000438541174, 0.0019695924129337072, -0.00174843764398247, 0.0013864246429875493, 0.0015115871792659163, 0.0018529786029830575, -0.0011283106869086623, -0.003267050487920642, -0.001998655963689089, 0.0013631664915010333, -0.002552348654717207, 0.001765596098266542, 0.005935834255069494, 0.0008870303863659501, 0.0018177651800215244, 0.0008653176482766867, -0.005634770728647709, -0.005629347171634436, -0.0009024699684232473, -0.001635654247365892, -0.0028197786305099726, -0.0014524169964715838, -0.004773816559463739, 0.0023672531824558973, 0.001200225087814033, 0.0010176461655646563, -0.0014485216233879328, 0.0018186912639066577, 0.004934126976877451, 0.0015201655915006995, -0.007492177188396454, -0.000965824699960649, -0.002380059100687504, 0.00111495447345078, -0.0023588428739458323, 0.0013095570029690862, -0.0024582771584391594, -0.0010253861546516418, -0.002248067408800125, 0.001221837941557169, -0.0005477659869939089, 0.002027232199907303, -0.00151253177318722, 0.0021166109945625067, -0.0008831433951854706, 0.0012492671376094222, -0.00206190487369895, 0.0014226494822651148, -0.0006655105389654636, 0.003456680802628398, -0.0008437930373474956, 0.0022514776792377234, -0.0021610877010971308, 0.0020968555472791195, -0.0009050515363924205, 0.0016240290133282542, -0.001956043066456914, 0.0012659936910495162, 0.0031498714815825224, 0.001839879434555769, -0.0004493734741117805, -0.0021673664450645447, 8.229379454860464e-05, 0.0017977739917114377, -0.0005244551575742662, -0.0018060895381495357, -0.0015619376208633184, 0.0023602216970175505, -0.0009155565639957786, -0.0015992545522749424, -0.0004251427890267223, 0.001048041507601738, -0.0001483867090428248, 0.00298123387619853, -0.004405091982334852, -0.00023308652453124523, 0.002050162060186267, 0.0007603546255268157, -0.0037718068342655897, 0.0007274455856531858, -0.0009444319293834269, 0.0010110875591635704, 0.0010763927130028605, 0.0009998094756156206, -0.005574753042310476, 0.0023395130410790443, -0.0009821731364354491, 0.0008190837106667459, -0.002547822892665863, 0.006996337790042162, -0.002325433073565364, -0.0006627849070355296, -0.001300598494708538, 0.0004460684140212834, -0.000849048316013068, -0.0013561919331550598, 0.003262333106249571, 0.0028163508977741003, 0.0023557727690786123, 0.0008731104317121208, -0.0019779237918555737, 0.001839362783357501, -0.0015111899701878428, 0.004670097958296537, -0.0025674402713775635, 0.0012970782117918134, -0.0012417563702911139, 0.0014850765001028776, -0.0011658092262223363, -0.0013754131505265832, -0.0016778071876615286, -0.0005511018680408597, -0.00037375427200458944, 0.0019242636626586318, -0.0016130611766129732, 0.002722155535593629, -0.002959011821076274, 0.004520202986896038, -0.00019311571668367833, 0.0022796804551035166, 0.0008778810151852667, 0.0011820297222584486, -0.002218284411355853, 0.0066492315381765366, -0.002329677576199174, -0.003816115204244852], [0.00046879376168362796, 0.0004054387682117522, 0.00208514672704041, 0.002561362460255623, -0.0022822204045951366, 0.0017819639761000872, 0.002610806142911315, 0.002037467435002327, -0.0011951986234635115, -0.00242891744710505, -0.0008813939057290554, 0.0003805949236266315, -0.0009935017442330718, 0.0005498172831721604, 0.0018988854717463255, 0.000798280059825629, 0.0023919441737234592, 0.0007854432333260775, -0.0012793561909347773, -0.002286819973960519, -0.004435268230736256, -0.0005119796842336655, -0.0024203802458941936, -0.0001230323687195778, -0.0025665294378995895, 0.0025259749963879585, 0.005105286370962858, 0.0013051485875621438, -0.0002085449086735025, 0.00034259940730407834, 0.0032220669090747833, 0.0017648078501224518, -0.002089389134198427, -0.0024814128410071135, -0.0005902138655073941, 0.0022670612670481205, -0.0010679559782147408, 0.0010440887417644262, -0.0033279519993811846, -0.0022621694952249527, -0.00245168199762702, 0.0021698379423469305, -0.00047963589895516634, 0.0022361704614013433, -0.0015866050962358713, 0.0007222028216347098, -0.0014887916622683406, 0.0007933820597827435, -0.0024358220398426056, 0.002124016173183918, -0.0023821680806577206, 0.000693036534357816, -0.0014005909906700253, 0.0005144535098224878, -0.0018298764480277896, 0.0020180668216198683, -0.001869655679911375, 0.0034096601884812117, -0.002283412264660001, 0.005241066217422485, 0.0008793289307504892, 0.001541110803373158, -0.0009971152758225799, -0.0013418697053566575, 0.0018576084403321147, 0.0033545782789587975, -0.00040619526407681406, -0.003944845404475927, -0.0019125464605167508, 0.0024662089999765158, -0.0016740806167945266, -0.0015026982873678207, -0.0003375388332642615, 0.0018637054599821568, -0.0023731153924018145, 0.0005022837431170046, -0.000478242029203102, -0.0017491716425865889, 0.001876521622762084, 0.0018875938840210438, -0.002385730156674981, 0.001167813315987587, -0.0021981149911880493, 0.0003879454161506146, 0.0006375433295033872, 0.0014866088749840856, -0.0011975682573392987, 0.0021481846924871206, -0.002680564299225807, 0.0011127096367999911, -0.0022809491492807865, 0.0019047113601118326, -0.001290327636525035, -0.0015129700768738985, -0.002096878131851554, 0.0006223308155313134, -0.0023683030158281326, -0.001786999637261033, 0.001519269309937954, 0.0009835673263296485, 0.0018940416630357504, 0.0015604248037561774, -0.002348034642636776, 0.0019580968655645847, -0.002340133534744382, 0.0029768752865493298, -0.0022358002606779337, 0.002711795037612319, -0.0007761351298540831, 0.001413425081409514, -0.0013050968991592526, -0.00645521329715848, -0.004378455225378275, -0.001926841214299202, -0.001119463937357068, 0.000701869314070791, -0.0005294415168464184, 0.0013414827408269048, -0.0023980445694178343, 0.0007467468967661262, -0.0016978896455839276, 0.0024149329401552677, 0.0022987620905041695, 0.002043335698544979, -0.002778958762064576, 0.0033334349282085896, -0.0019635590724647045, -0.00010069153358926997], [-0.0009627421386539936, -0.0020664280746132135, -0.0021296036429703236, -0.00097789173014462, 0.0017247566720470786, -0.0013817264698445797, -8.212119428208098e-05, -0.0009722074610181153, 0.0027058101259171963, 0.0003148061514366418, 0.0012808364117518067, -0.0017734734574332833, 0.001386184711009264, -0.003917032852768898, -0.0012684196699410677, -0.0024284988176077604, -0.0017728098900988698, -0.00020210887305438519, 0.0006432918598875403, 0.0004237590474076569, 0.0006597741157747805, 0.00023089992464520037, 0.0002743550867307931, 0.0008793260203674436, 0.0008398799109272659, -0.0003583106736186892, -0.0006998584722168744, -0.0020472814794629812, 0.0007364379125647247, -0.001191277988255024, -0.001356249675154686, -0.0009349914034828544, 0.0009807230671867728, 0.0010480602504685521, 0.0021092433016747236, -0.002394587965682149, 0.0012820033589378, -0.0031852014362812042, 0.0015208261320367455, 0.0005642870091833174, 0.002363611711189151, -0.0023019714280962944, 0.0020635444670915604, -0.0021630367264151573, 0.0014853113098070025, -0.002225948730483651, 0.0016865234356373549, -0.0016541777877137065, 0.001955714775249362, -0.002226811833679676, 0.0010031103156507015, -0.0016487454995512962, 0.00012784326099790633, -0.0016847876831889153, 0.0014126694295555353, -0.0016532373847439885, 0.002693303395062685, -0.0017248009098693728, 0.0024771287571638823, -0.0016667104791849852, -0.0015913868555799127, -0.0011596466647461057, 0.0005819805664941669, 0.0009987163357436657, -0.0009590553236193955, -0.0024080791044980288, 0.001969460165128112, 0.0022640074603259563, 0.0007352589163929224, -0.002133479341864586, 0.0021431862842291594, 0.0019700368866324425, 0.0011903252452611923, -0.0008138144039548934, 0.002362858969718218, -0.0010998055804520845, 0.0018941150046885014, 0.000796720152720809, -0.0006189691484905779, -0.0014066124567762017, 0.0028540294151753187, -0.00039073635707609355, 0.0017521749250590801, -0.0009243492968380451, -0.0009406919125467539, -0.00045914005022495985, 0.0018112675752490759, -0.0017687445506453514, 0.002016486832872033, -0.0015689922729507089, 0.0009998517343774438, -0.000844289839733392, 0.0011199149303138256, 0.003973220940679312, 0.00041878598858602345, -0.0022036926820874214, 0.001367364078760147, 0.001586658414453268, -0.0017631470691412687, -0.0014397476334124804, -0.0013042412465438247, -0.0001796690048649907, 0.0022942195646464825, -0.0009367790771648288, 0.0023193981032818556, -0.0011977202957496047, 0.0010073973098769784, -0.0013409866951406002, 0.0019071471178904176, -0.001911562867462635, 0.0010602930560708046, 0.002263569738715887, 0.0019420124590396881, 0.0025332195218652487, 0.0011681298492476344, -0.0021992295514792204, 0.0016512920847162604, -0.0008469962049275637, 0.0018873204244300723, -0.0013397091533988714, 0.0017048920271918178, -0.0010074228048324585, -0.0006593533325940371, -0.0012564088683575392, 0.0004025553062092513, -0.0015269264113157988, 0.0011903502745553851, 0.0021742950193583965], [0.0016888617537915707, 0.01217803917825222, 0.010871605016291142, 0.0032977047376334667, -0.0019029637333005667, 0.0055881766602396965, 0.007747085299342871, 0.00492293294519186, -0.0039033188950270414, -0.005940858740359545, -7.402920164167881e-05, 0.003022613236680627, -0.009794313460588455, 0.002991429064422846, 0.004692649468779564, 0.0033760990481823683, 0.0024600590113550425, 0.002293873345479369, -0.007720007561147213, -0.0034653199836611748, -0.002725378843024373, -0.004266777075827122, -0.0029283638577908278, -0.0038877681363373995, -0.0024378946982324123, 0.0010257598478347063, 0.0032299866434186697, 0.0015798751264810562, -0.0026524525601416826, 0.002054861281067133, 0.005164537113159895, 0.0009224023087881505, -0.002809670986607671, -0.009856893680989742, -0.001882468699477613, 0.0010005416115745902, -0.0011807436821982265, 0.001961258240044117, -0.0035758267622441053, -0.005752216558903456, -0.011143623851239681, 0.003763924352824688, -0.0020530116744339466, 0.005189106334000826, -0.009048962034285069, 0.007743599824607372, -0.0019362859893590212, 0.010077432729303837, -0.00463699409738183, 0.009892481379210949, -0.0029252341482788324, 0.012208162806928158, -0.0017665417399257421, 0.0010858459863811731, -0.0009538094745948911, 0.0022763556335121393, -0.0034279609099030495, 0.014746667817234993, -0.0027010198682546616, 0.00784820131957531, 0.013488619588315487, 0.0004087673733010888, -0.002377420198172331, -0.0024852296337485313, 0.014222819358110428, 0.012414716184139252, -0.014961850829422474, -0.001078182365745306, -0.0007259331759996712, 0.002981228521093726, -0.015558900311589241, -0.0023057220969349146, -0.0023200593423098326, 0.004675904754549265, -0.0007627454469911754, 0.0023705277126282454, -0.0025489958934485912, -0.00020576515817083418, 0.019444508478045464, 0.002179675502702594, -0.0028245444409549236, 0.004304119385778904, -0.00898765493184328, 0.0076417746022343636, 0.00135221634991467, 0.0028174675535410643, -0.0030368950683623552, 0.0025704766158014536, -0.0015203806106001139, 0.0022356559056788683, -0.002659004647284746, 0.0025514494627714157, -0.004087873734533787, -0.0025855302810668945, -0.01377200335264206, 0.0028116449248045683, -0.002357478952035308, -0.001430940581485629, 0.0013580507365986705, 0.006351351737976074, 0.004464632831513882, 0.0012941259192302823, -0.0008335968595929444, 6.858387496322393e-05, -0.0003034962574020028, 0.002581949345767498, -0.0017678180010989308, 0.0028916618321090937, -0.002225492149591446, 0.002327942056581378, -0.014020226895809174, -0.006224035285413265, -0.003017020644620061, -0.011316987685859203, -0.002559866989031434, 0.0031624187249690294, -0.0022325008176267147, 0.011191816069185734, -0.005992160644382238, 0.0031489008106291294, -0.014095799066126347, 0.0032007975969463587, 0.014006497338414192, 0.002685928251594305, -0.0053887260146439075, 0.012920008972287178, -0.007276799995452166, -0.0034149496350437403], [0.0002168727369280532, 7.947470294311643e-05, 0.003168097697198391, 0.0007293453672900796, -0.0007757861167192459, 0.0005670938408002257, 0.002340218285098672, 0.0001986490242416039, -0.0010494445450603962, -0.002126603154465556, -0.0004552995669655502, 0.0013300435384735465, -0.00428127683699131, 0.0021639245096594095, 0.0012588876998052, 0.002407854190096259, 0.0022037960588932037, 0.0011898815864697099, -0.0013520877109840512, -0.0016923421062529087, -0.000794671883340925, -0.0021725245751440525, -0.0019080429337918758, -0.0037998866755515337, -0.0016627045115455985, 0.0011890018358826637, 0.0010973629541695118, 0.0019739277195185423, -0.0013266889145597816, 0.0005063627031631768, 0.0038921998348087072, 0.0016363458707928658, -0.0007340697920881212, -0.0018341197865083814, -0.00027935951948165894, 0.002161787822842598, -0.000659934536088258, 0.0023180614225566387, -0.0015494839753955603, -0.0014303902862593532, -0.0005775491590611637, 0.0025452447589486837, -0.0019248934695497155, 0.0001548835716675967, -0.0009410350467078388, 0.0033022076822817326, -0.00016192324983421713, 0.0001597424125066027, -0.0015431306092068553, 0.00215631234459579, -6.094926720834337e-05, 0.001483455183915794, -0.0017356190364807844, 0.00032251462107524276, -0.0009753144113346934, 0.0021965547930449247, -0.0014466833090409636, 0.0010827480582520366, -0.0016705208690837026, 0.0012248439015820622, 0.0012707487912848592, 0.0003622301737777889, -0.0021826180163770914, -0.0017400650540366769, 0.0016700392588973045, 0.00041805050568655133, -0.001423953683115542, -0.0014981310814619064, -0.0022679411340504885, 0.001089434139430523, -0.0008787139668129385, -7.56483495933935e-05, -0.0003873045207001269, 0.002359186764806509, -0.0021837477106601, 0.0019382491009309888, -3.1996150937629864e-05, -0.0019324986496940255, 0.0022089402191340923, 0.0014103710418567061, -0.0014969630865380168, 0.0009922059252858162, -0.000952302711084485, 0.001510964590124786, 0.0010377693688496947, 0.0005946063320152462, -0.0008755110902711749, 0.0009316296200267971, -0.0013480177149176598, 0.0005975760868750513, -0.001573442481458187, 0.0004507711564656347, -0.00018822206766344607, -0.0015456444816663861, -3.8072150346124545e-05, 0.0013187568401917815, -0.002008944284170866, -0.0020007395651191473, 0.00015033571980893612, 0.0018445843597874045, 0.0019523890223354101, 0.002600601641461253, -0.003502605715766549, 0.0014185127802193165, -0.0006114095449447632, 0.0010955954203382134, -0.0011916616931557655, 5.931673149461858e-05, -0.0021469423081725836, 0.0019919355399906635, -0.0013620671816170216, -0.0006316223298199475, -0.0005026363069191575, -0.0006185394013300538, -0.0005058404640294611, 0.00173572835046798, -0.0010268323821946979, 0.0006479320582002401, -0.0012124152854084969, 0.0015885605243965983, -0.0035933982580900192, 0.0010576248168945312, 0.0003355761873535812, 0.0022869878448545933, -0.0005662544281221926, 0.0021603514906018972, -0.0022606910206377506, -0.000484856020193547], [-0.0076325624249875546, -0.003752215299755335, -0.00494668073952198, -0.015146029181778431, 0.002290047239512205, -0.001770928269252181, -0.01451833639293909, -0.006064954213798046, 0.0191059447824955, 0.008426743559539318, 0.0023143922444432974, -0.01013404130935669, 0.012524035759270191, -0.0034923201892524958, -0.003806393127888441, -0.019102366641163826, -0.006317208521068096, -0.0035694059915840626, 0.013380291871726513, 0.019132759422063828, 0.0052970778197050095, 0.007143599446862936, 0.009973911568522453, 0.003544535720720887, 0.005186880007386208, -0.002289052354171872, -0.019662782549858093, -0.004114669281989336, 0.003995658829808235, -0.005802495405077934, -0.008951934985816479, -0.0023430052679032087, 0.0023857278283685446, 0.011467629112303257, 0.00030359200900420547, -0.004924684297293425, 0.0015445008175447583, -0.0016082574147731066, 0.02042756974697113, 0.011779092252254486, 0.013333630748093128, -0.014150142669677734, 0.002270240569487214, -0.009019614197313786, 0.01280791312456131, -0.003226298838853836, 0.00021989726519677788, -0.02015892043709755, 0.0026581077836453915, -0.019663823768496513, 0.011584285646677017, -0.019328517839312553, 0.00236471276730299, -0.0022858167067170143, 0.0002243286871816963, -0.002369833178818226, 0.01280098594725132, -0.0042944131419062614, 0.002878090599551797, -0.016463905572891235, -0.00587413040921092, -0.005321611650288105, 0.008266950957477093, 0.0016021066112443805, -0.017966432496905327, -0.003634115681052208, 0.0196888018399477, 0.0025371930096298456, 0.0014823991805315018, -0.003007821273058653, 0.022063594311475754, 0.004335548263043165, 0.0016914195148274302, -0.01663270965218544, 0.0008514007786288857, -0.010770443826913834, 0.0007611005567014217, 0.005144557449966669, -0.021553456783294678, -0.002327355556190014, 0.002886441769078374, -0.011100911535322666, 0.010568502359092236, -0.003350162645801902, -0.00021169005776755512, -0.011916196905076504, 0.013082397170364857, -0.0006914240075275302, 0.0011707745725288987, -0.0022008197847753763, 0.0033799707889556885, -0.006403716746717691, 0.012685364112257957, 0.007647258695214987, 0.018884796649217606, -0.013585259206593037, 0.002616222482174635, 0.0004485531826503575, -0.00017886421119328588, -0.01079120859503746, -0.003121033776551485, -0.005921413656324148, 0.00574113754555583, -0.0010558727663010359, 0.0026491936296224594, -0.00879752915352583, 0.009433708153665066, -0.00833370815962553, 0.0012417652178555727, -0.01196205709129572, 0.019580639898777008, 0.008011450991034508, 0.005226511042565107, 0.013146383687853813, 0.01389817614108324, -0.0029926712159067392, 0.002380609279498458, -0.015726732090115547, 0.009543835185468197, -0.007306909654289484, 0.015576866455376148, -0.00879093911498785, -0.015326643362641335, -0.00542077561840415, 0.0059466310776770115, -0.016281628981232643, 0.013349807821214199, 0.019834477454423904], [-0.002458497416228056, -0.0027004964649677277, -0.002924594096839428, -9.190014679916203e-05, 0.0007204641005955637, -0.0018002373399212956, -0.001242319238372147, -0.000506932963617146, 0.006005074363201857, 0.0008566918550059199, 0.0014735800214111805, -0.001592881977558136, 0.002454891335219145, -0.0016971107106655836, -0.0019702729769051075, -0.008372295647859573, -0.0018121952889487147, -0.002082561142742634, 0.002606944879516959, 0.006201596464961767, 0.002147574443370104, 0.000704556645359844, 0.0025172054301947355, 0.00206741108559072, 0.002577834762632847, -0.001484735868871212, -0.006885524373501539, -0.0023854596074670553, 0.0014478156808763742, -0.0014469641027972102, -0.0022576458286494017, -0.002412228612229228, 0.002287044655531645, 0.00365687464363873, 0.00032481359085068107, -0.0008158734999597073, 0.0010764788603410125, -0.0012784382561221719, 0.002471997868269682, 0.0016765912296250463, 0.0033603257033973932, -0.011402944102883339, 0.0020084423013031483, -0.0024201779160648584, 0.002539253095164895, -9.14266929612495e-05, 0.0008278901223093271, -0.004732202738523483, 0.0011517248349264264, -0.0028155208565294743, 0.0023632345255464315, -0.004873794503509998, 0.002228650264441967, -0.0013644397258758545, 0.0017571753123775125, -0.00047350407112389803, 0.001909855054691434, -0.006636994890868664, 0.0013269054470583797, -0.004548938013613224, -0.0064884149469435215, -0.0004644807195290923, 0.0016163100954145193, 0.002193020423874259, -0.00462891161441803, -0.005428379867225885, 0.0076965102925896645, 0.0011511491611599922, 0.0007484937668778002, -0.0012542152544483542, 0.007459021173417568, 0.0024109226651489735, 0.0014272817643359303, -0.003862678771838546, 0.0017142636934295297, -0.0030018752440810204, 0.0012238245690241456, 0.0023188225459307432, -0.010148552246391773, -0.001186732784844935, 0.0022649308666586876, -0.0022992005106061697, 0.0025898898020386696, -0.0018039854476228356, -0.0022099101915955544, -0.002279620850458741, 0.002035809215158224, -0.0011469997698441148, 0.002314857207238674, -0.00043167697731405497, 0.0005064809811301529, -0.002027451526373625, 0.0024694118183106184, 0.00041106928256340325, 0.0021834000945091248, -0.0010104129323735833, 0.0017415941692888737, 0.0022230898030102253, -0.002241143025457859, -0.002774407621473074, -0.002631072886288166, -0.002097529359161854, 0.0020929856691509485, -0.002134434413164854, 0.0024198992177844048, -3.965370069636265e-06, 0.001968177268281579, -0.002025173744186759, 2.829313416441437e-06, -0.00102932658046484, 0.005579944234341383, 0.002536451444029808, 0.002307565649971366, 0.00345417857170105, 0.0033695329912006855, -0.001665303367190063, 0.0007104741525836289, -0.0030527543276548386, 0.0020322503987699747, -0.0023206425830721855, 0.009717690758407116, -0.0026715693529695272, -0.008246147073805332, -0.002321100328117609, 0.0023659204598516226, -0.005087157711386681, 0.0007506481488235295, 0.006445279344916344], [0.07646466046571732, 0.061569251120090485, 0.005260287318378687, 0.06104537844657898, -0.06807821989059448, 0.0676208958029747, 0.00603181216865778, 0.056605491787195206, -0.07012511044740677, -0.07091168314218521, -0.0706682801246643, 0.011981910094618797, -0.07027103006839752, 0.07679509371519089, 0.0057940552942454815, 0.06385895609855652, 0.07959053665399551, 0.030015448108315468, -0.06448066979646683, -0.0577186718583107, -0.004869065713137388, -0.022344060242176056, -0.0613577701151371, -0.012564650736749172, -0.06876987963914871, 0.0232373233884573, 0.061829935759305954, 0.06783290952444077, -0.006156546995043755, 0.061588458716869354, 0.008100519888103008, 0.07962123304605484, -0.0801829993724823, -0.007581972051411867, -0.08303531259298325, 0.04615338519215584, -0.06255281716585159, 0.06299325078725815, -0.0057450346648693085, -0.0762302353978157, -0.05700599402189255, 0.00982269924134016, -0.057367533445358276, 0.07052339613437653, -0.0735931321978569, 0.07409650832414627, -0.029051916673779488, 0.057892169803380966, -0.028657205402851105, 0.0685122087597847, -0.06374944001436234, 0.04937450587749481, -0.06177445501089096, 0.04634353891015053, -0.06723364442586899, 0.0714908093214035, -0.06962722539901733, 0.005644584074616432, -0.05058818310499191, 0.06622437387704849, 0.006444844417273998, 0.07106705009937286, -0.06394698470830917, -0.0696055144071579, 0.06292872130870819, 0.05350296199321747, -0.05835943669080734, -0.06659144163131714, -0.057626623660326004, 0.027163906022906303, -0.040408529341220856, -0.0730157345533371, -0.07448191195726395, 0.010941841639578342, -0.04917541891336441, 0.06516850739717484, -0.0065788812935352325, -0.019089849665760994, 0.012471594847738743, 0.005571672692894936, -0.028340311720967293, 0.07161513715982437, -0.014227780513465405, 0.07140906155109406, 0.05605297535657883, 0.0714808776974678, -0.06812319159507751, 0.03241253271698952, -0.0635901689529419, 0.019656645134091377, -0.07436101883649826, 0.049711596220731735, -0.0696062371134758, -0.05720512196421623, -0.06820458918809891, 0.06363699585199356, -0.06611267477273941, -0.06986312568187714, 0.014545246958732605, 0.007186607923358679, 0.006216373294591904, 0.06418060511350632, -0.013117915019392967, 0.06735727190971375, -0.03188551962375641, 0.06344445049762726, -0.0071079181507229805, 0.06372997909784317, -0.04530923813581467, 0.0052963788621127605, -0.0028641775716096163, -0.06931401044130325, -0.0059911934658885, -0.04981595650315285, -0.06575295329093933, 0.046532753854990005, -0.005442021414637566, 0.07815639674663544, -0.014713501557707787, 0.05319922789931297, -0.007672610692679882, 0.0654517263174057, 0.04439175873994827, 0.011158119887113571, -0.04952583461999893, 0.06842875480651855, -0.0686861202120781, -0.00520281819626689]], "sigmanet.nn.10.bias": [0.028846872970461845, -0.07675418257713318, 0.06817208230495453, 0.1685153990983963, -0.17448291182518005, -0.02782757766544819, -0.10808805376291275, -0.1076401025056839, 0.01694801077246666, -0.14904282987117767, -0.03200448304414749, 0.1627023071050644, -0.06335119158029556, -0.06668725609779358, -0.055990658700466156, -0.004455288406461477, 0.03934432566165924, 0.16617873311042786, 0.18736189603805542, 0.08380065858364105, 0.08140746504068375, 0.1845421940088272, -0.08763979375362396, -0.039635032415390015, -0.022598203271627426, 0.004048136528581381, -0.023825326934456825, -0.17168499529361725, 0.05062345415353775, -0.07334192842245102, 0.06185583770275116, -0.05583588778972626, 0.1000300720334053, 0.15600475668907166, 0.1336149126291275, -0.09530840069055557, -0.062189023941755295, 0.019693905487656593, -0.10470361262559891, -0.10722924023866653, 0.05916661024093628, 0.06529388576745987, -0.1874089539051056, 0.1019633337855339, 0.15611359477043152, 0.14412431418895721, -0.07791294902563095, -0.07467804104089737, 0.2102801650762558, -0.11351735144853592, 0.03212633356451988, 0.05648932233452797, 0.05010833963751793, -0.032492149621248245, -0.06396745145320892, -0.17958404123783112, -0.039408598095178604, 0.08004312217235565, -0.07143332064151764, -0.005495662335306406, -0.18649660050868988, -0.14534848928451538, -0.12905314564704895, 0.06883379817008972, -0.028218848630785942, 0.006027805153280497, 0.08380543440580368, 0.013582294806838036, -0.17217427492141724, -0.2102157026529312, -0.12068668007850647, 0.40620675683021545, -0.5383949875831604, 0.1758902668952942, -0.20898403227329254, -0.013974999077618122, 0.054731838405132294, -0.011163697578012943, 0.002215034095570445, 0.10206283628940582, -0.025278178974986076, -0.041630469262599945, 0.19842614233493805, -0.18569307029247284, -0.09438357502222061, -0.02780650556087494, -0.02799304574728012, 0.039919398725032806, 0.07430430501699448, 0.05867476761341095, -0.04798255115747452, -0.0045632971450686455, -0.08094586431980133, -0.015264095738530159, -0.16121169924736023, 0.15482018887996674, -0.040415018796920776, -0.1773272156715393, -0.16578029096126556, 0.12501725554466248, 0.20069478452205658, 0.13778908550739288, -0.10751446336507797, 0.019265219569206238, 0.03886318579316139, 0.01371991727501154, -0.08892641216516495, -0.1364724338054657, -0.047565359622240067, -0.03199698030948639, -0.1145123690366745, -0.04150920361280441, -0.004423806443810463, 0.08445705473423004, -0.19825699925422668, 0.18889069557189941, -0.069919154047966, 0.02327006869018078, 0.21207118034362793, -0.055764347314834595, -0.07942087203264236, 0.15379810333251953, 0.10779164731502533, -0.0628335177898407, -0.14527063071727753, -0.09951727092266083, -0.018634265288710594, 0.07611434906721115], "sigmanet.nn.10.parametrizations.weight.original": [[0.00028669548919424415, 3.168728653690778e-05, -0.0001324219920206815, 0.0003574944566935301, -0.00032206455944105983, 0.0006768207531422377, 0.0004926403053104877, 0.00018636540335137397, -0.00011026478750864044, -0.0008012396865524352, 0.0002626878267619759, 0.0003798412508331239, -0.00041354462155140936, 0.00020651509112212807, -3.0410030831262702e-06, 0.0004679179401136935, -0.00022423661721404642, 0.00015856964455451816, 0.0005892462795600295, 0.0007236434612423182, 0.00024650926934555173, 0.00025081151397898793, -0.00034004257759079337, -0.0010340712033212185, 0.000973462883848697, 0.0005097246612422168, -0.0005561410216614604, 0.00013318992569111288, -0.00022207583242561668, 0.0015752442413941026, 0.00045684221549890935, 0.0003152376739308238, -0.00014247630315367132, 0.0008771553402766585, -0.0009434641688130796, 0.00010442906204843894, -0.0004252866201568395, 0.0005971186328679323, -0.00021003754227422178, -0.000303436245303601, -0.00029901787638664246, 0.00022599998919758946, -0.0007359925075434148, 2.294425939908251e-05, -0.0001393315033055842, -0.0006028732750564814, 0.00028069602558389306, 0.0004181848489679396, -0.0002444026176817715, 0.0003193391894455999, -0.00030930701177567244, -0.0005075115477666259, -0.000448444887297228, -0.0001748055510688573, -0.00039046755409799516, -0.0002185413904953748, -0.0010736776748672128, -0.0001919522910611704, -0.00021022807050030679, 0.00028038278105668724, -0.000606858404353261, -0.0001690069620963186, -0.00018462483421899378, 0.00014691172691527754, 0.00029333270504139364, 0.00011492078192532063, -0.00010199419921264052, 0.00018419610569253564, 0.0002561124856583774, 0.000192338164197281, 0.0004054925811942667, 7.022789941402152e-05, 0.00026768905809149146, 0.0002851721365004778, -0.000448948034318164, 0.000988529296591878, -0.0009598706965334713, 0.0001768876245478168, -0.00010948116687359288, 8.840289228828624e-05, -0.0001118126674555242, -0.00047710115904919803, -4.522925883065909e-05, 0.0003451530646998435, 0.0003413054801058024, 0.00021918740822002292, -0.00039614716661162674, 0.0002781408838927746, -2.5958242986234836e-05, -0.0002760671777650714, 0.00041050647269003093, 0.000221510577830486, -0.0005169089417904615, 6.484444747911766e-05, -0.00017833280435297638, 0.00010237637616228312, -0.0006483406759798527, 0.0005434180493466556, -0.00035649194614961743, -0.0007589746965095401, -0.0005421002861112356, -0.00012766466534230858, -0.0003759430255740881, 0.0010822570184245706, -0.00029410410206764936, 0.0005386678967624903, -0.00033540293225087225, -0.0007958032656461, -0.00033986521884799004, -1.1812427146651316e-05, -3.261970414314419e-05, 8.058009552769363e-05, -0.0001675751555012539, 0.0002011980686802417, -4.418883327161893e-05, 0.0001267436018679291, -9.884888277156278e-05, 0.0002446790458634496, -9.326828876510262e-05, -6.0590329667320475e-05, 0.00012777844676747918, 0.0008143082377500832, -0.0005012896726839244, 0.0003784519212786108, -0.0004947047564201057, 0.0006431491929106414, -0.00014300331531558186, 0.0002016311336774379], [-0.00014976483362261206, -8.225328929256648e-05, 2.179442162741907e-05, -2.6378018446848728e-05, 7.231074414448813e-05, -2.598522223706823e-05, -8.253049600170925e-05, -0.00041172379860654473, -1.4469742382061668e-06, 6.547180964844301e-05, -0.00033334988984279335, 2.4386686163779814e-06, 4.894682206213474e-05, -0.00010345243208575994, 0.00011682300828397274, -4.459917909116484e-05, 0.0002537905820645392, -9.977577428799123e-05, -0.0001019830015138723, -0.00010508976993151009, -4.198007445666008e-05, -3.3123086495834286e-07, 0.0001416821323800832, 0.0005257484735921025, -9.682978270575404e-05, -0.00018666077812667936, 0.00035307928919792175, -0.00016968927229754627, 6.240494985831901e-05, -0.00012874465028289706, -3.516738070175052e-05, -9.567210508976132e-05, 7.138500222936273e-05, -7.720699795754626e-05, 8.954459917731583e-05, -1.3869514987163711e-05, 6.3416468947252724e-06, -4.4192045606905594e-05, 4.3969685066258535e-05, 6.807465251768008e-05, -7.481095849470876e-07, -0.00015786036965437233, 0.00015093978436198086, -5.714532744605094e-05, 0.00013428037345875055, 6.372893403749913e-05, -2.5741626814124174e-05, -5.974810119369067e-05, 0.00018519484729040414, -2.4277482225443237e-05, 0.0002541934954933822, 5.345618410501629e-05, 0.0003715601924341172, 9.90596799965715e-06, 4.234728839946911e-05, 9.818502439884469e-05, 9.463494643568993e-05, 2.409497210464906e-05, 0.000288050010567531, -2.88799601548817e-05, 1.9985386643384118e-06, 4.073727177456021e-05, 0.00016396574210375547, -9.363668505102396e-05, -6.35507094557397e-05, -6.968749221414328e-05, 0.00042397939250804484, -0.00018126872600987554, -7.667757745366544e-05, -1.669950142968446e-05, -8.682676707394421e-05, -9.66693460213719e-06, -2.3463657271349803e-05, -3.9600676245754585e-05, 7.973906576808076e-06, -7.77763343648985e-05, 9.90803018794395e-05, -0.00010346808267058805, 0.00010584262054180726, -6.599796324735507e-05, 0.000108903601358179, 7.84652820584597e-06, 1.3388274055614602e-05, -6.0936978115933016e-05, -8.930798685469199e-06, -2.5545443349983543e-05, 1.3117200069245882e-05, -0.00019260885892435908, 0.0002367593697272241, 0.0002963078150060028, -5.262734703137539e-05, -0.00010341303277527913, 3.208005864507868e-06, -6.291999306995422e-05, 3.661750815808773e-05, -0.0002601334417704493, 6.465974729508162e-05, -2.9514500056393445e-05, 0.00010734769603004679, 0.0003514404525049031, 1.5390987755381502e-05, 1.2540388524939772e-05, 1.9530521967681125e-05, -3.128790922346525e-05, 6.134891009423882e-05, -0.00022847038053441793, 0.00018152942357119173, 0.00018064233881887048, 0.00029773273854516447, 3.410155841265805e-05, 3.555015427991748e-05, -9.334420610684901e-05, 0.00013605716230813414, -3.0499855711241253e-05, 0.00013569377188105136, -0.00025170177104882896, 5.3649218898499385e-05, -5.4100230045150965e-05, 1.3341429621505085e-05, 3.5007793485419825e-05, -8.835396874928847e-05, -0.00019377502030692995, 3.7755686207674444e-05, -6.424620369216427e-05, 3.927221041521989e-05, -0.00011005892156390473, 2.796038461383432e-05, -6.711338210152462e-05], [0.0005141961737535894, 0.0002142084704246372, -0.0002464366261847317, 0.00012111625983379781, -0.00036505560274235904, 0.0009307520813308656, 0.0005172165692783892, 0.0007176637300290167, -0.0007289383211173117, -0.00024095710250549018, 0.0010068077826872468, 0.00021541639580391347, -5.222891559242271e-05, 3.1851934181759134e-05, -2.8407117497408763e-05, 9.849844354903325e-05, -0.00028970869607292116, 6.643466349487426e-06, 0.0008778302581049502, 0.0005178789142519236, 0.0005502179265022278, 0.0016915397718548775, -0.0005177530110813677, -0.0006567576783709228, 0.00047202565474435687, 0.00029071932658553123, -0.0001458653568988666, 0.0004945711116306484, -0.0003999341279268265, 0.0004530981823336333, 3.850610664812848e-05, 0.0008946197922341526, -0.0005144585738889873, 0.0010379340965300798, -0.0002219775051344186, 0.0008397278725169599, -0.00017612204828765243, 0.0009540566825307906, -0.0004846242081839591, -0.0006852911901660264, -0.000758218695409596, 0.000360153237124905, -0.0006970611284486949, 0.0006350890616886318, -0.00044239097042009234, -0.0008410522132180631, 0.0016208605375140905, 2.1869960619369522e-05, -0.0014075544895604253, 0.00032907433342188597, -0.000188275080290623, -0.0001252015063073486, -0.00048433407209813595, -0.00020034467161167413, -0.0004478679329622537, -0.00010294108506059274, -0.0012478615390136838, -0.00035449714050628245, -0.0013386370847001672, 0.00035169010516256094, -0.0007283049635589123, -8.845399133861065e-05, -0.00016399552987422794, 1.901288669614587e-05, 0.0005198980798013508, 0.00021662237122654915, -0.00035424629459157586, 0.0004273138183634728, 0.0002755661844275892, 0.0002915322547778487, 6.665207911282778e-05, 0.0005928358295932412, 0.0005548368790186942, 0.0010766307823359966, -8.021767280297354e-05, 0.0005576922558248043, -0.0015061366138979793, 0.00011560333223314956, -0.0002833111793734133, 0.00047068981803022325, -0.0003450102230999619, -0.0002655198913998902, -0.0005615703412331641, 0.0005791473085992038, 4.949518188368529e-05, 0.00044590208563022316, -0.0007993566687218845, 0.00044150452595204115, -0.000484120799228549, -0.0007894029840826988, 0.0002725220692809671, 0.00041953762411139905, -0.00034650153247639537, 1.278423223993741e-05, -0.0009737537475302815, 0.0005691450787708163, -0.0014239306328818202, 0.00044132262701168656, -0.0002772122679743916, -0.0010312688536942005, -0.001888024853542447, -0.0008534134831279516, -6.806235614931211e-05, 0.0012708784779533744, -0.00020278262672945857, 0.0007761719753034413, -8.876460924511775e-06, -0.00010402647603768855, -0.00030635923030786216, -0.000843083078507334, -0.0001253145164810121, 0.0012777714291587472, -0.0012283275136724114, 0.0007436669548042119, -0.00034263310953974724, 0.000429254665505141, -0.0009986462537199259, 9.567765664542094e-05, -0.00016056493041105568, -0.0009591298294253647, 0.0015795596409589052, 0.0015085595659911633, -0.0026454301550984383, 4.067853296874091e-05, -7.133460167096928e-05, 0.0010461619822308421, -0.0007754566613584757, 0.00039092529914341867], [-0.034628044813871384, -0.04321343079209328, 0.02373325452208519, -0.029198553413152695, 0.037082038819789886, -0.024276142939925194, -0.014174328185617924, -0.03720327094197273, 0.021964803338050842, 0.029774131253361702, -0.04814973101019859, -0.02084442600607872, 0.03293457254767418, -0.038571856915950775, 0.03283088654279709, -0.03832106664776802, 0.024113573133945465, -0.03209468349814415, -0.028137115761637688, -0.028515605255961418, -0.02904418297111988, -0.01667175441980362, 0.024634622037410736, 0.016026372089982033, -0.024337882176041603, -0.02160736918449402, 0.10143305361270905, -0.03247440233826637, 0.03405975550413132, -0.03368180990219116, -0.01524878479540348, -0.015303289517760277, 0.026339111849665642, -0.015316798351705074, 0.019026335328817368, -0.08494410663843155, 0.018201317638158798, -0.032629285007715225, 0.02033025212585926, 0.015145489014685154, 0.03045015037059784, -0.02008610963821411, 0.03204496204853058, -0.05207157880067825, 0.040168773382902145, 0.03696759045124054, -0.014908787794411182, -0.032343484461307526, 0.009895401075482368, -0.02211085706949234, 0.016028035432100296, 0.028799233958125114, 0.02057349868118763, 0.02048088237643242, 0.023101121187210083, 0.017662478610873222, 0.019764920696616173, 0.018982956185936928, 0.019906701520085335, -0.022791840136051178, 0.03721907362341881, 0.014062176458537579, 0.035456158220767975, -0.012988973408937454, -0.033100876957178116, -0.030891604721546173, 0.021591968834400177, -0.02349814958870411, -0.026545962318778038, -0.023223742842674255, -0.031497981399297714, -0.04199337959289551, -0.03426492586731911, -0.04071326181292534, 0.02896150015294552, -0.020907044410705566, 0.023349279537796974, -0.028674613684415817, 0.023364713415503502, -0.04212116822600365, 0.027283502742648125, 0.019885685294866562, 0.029905427247285843, -0.0261243749409914, -0.0375954769551754, -0.04803885519504547, 0.04163671284914017, -0.018192647024989128, 0.03506343439221382, 0.016970321536064148, -0.027885466814041138, -0.013918462209403515, 0.0468008928000927, -0.028590558096766472, 0.015098492614924908, -0.022871553897857666, 0.019007114693522453, -0.0545182041823864, 0.027047909796237946, 0.02892875112593174, 0.02585803158581257, 0.03855552151799202, 0.025382637977600098, -0.024408333003520966, 0.030190588906407356, -0.014279399067163467, 0.02790413424372673, 0.02263805642724037, 0.01843196526169777, 0.026633761823177338, 0.025261737406253815, -0.017780661582946777, 0.013843221589922905, -0.033497296273708344, 0.0258698221296072, -0.024636181071400642, 0.023001778870821, -0.03804611414670944, 0.03727858141064644, 0.026505902409553528, -0.0223699938505888, -0.016251668334007263, 0.020603526383638382, -0.02806253172457218, 0.03764189034700394, -0.01375980582088232, 0.03758665919303894, -0.03833412006497383], [-1.9669356333906762e-05, -3.25519431498833e-05, 2.405100349278655e-05, -7.686008757445961e-06, 1.8398101019556634e-05, -5.476967271533795e-05, -9.868443885352463e-05, -1.795874413801357e-05, 0.00014491895854007453, 9.19187004910782e-05, -4.750472271553008e-06, -9.225520625477657e-05, -1.9237172637076583e-06, -2.588631332400837e-06, 1.833326132327784e-05, -2.5303117581643164e-05, 4.891363641945645e-05, -2.921028499258682e-05, -9.782197594176978e-06, 3.762658479899983e-06, -3.617069523897953e-05, -0.00017212869715876877, 5.428979420685209e-06, 2.2353880922310054e-05, -6.977357770665549e-06, 6.548626174662786e-07, -1.523753098808811e-06, -8.442498801741749e-05, 3.5968917018180946e-06, -1.1292446288280189e-05, -1.7791778361697652e-07, -4.5401055103866383e-05, 1.4457887118624058e-05, -1.1206101589777973e-05, -8.653939403302502e-06, -2.671146285138093e-05, 2.702923438846483e-06, 1.4852702179268817e-06, 6.054902314645005e-06, 7.554978765256237e-06, -9.578235221852083e-06, -1.2825724297726993e-05, 3.093476698268205e-05, -9.892241359921172e-05, 1.7637121345615014e-05, 1.3682023563887924e-05, -2.317923872396932e-06, -3.9427101000910625e-05, 8.950028131948784e-05, -3.318791277706623e-05, 6.955063145142049e-05, 7.2321690822718665e-06, 5.394016989157535e-05, 1.1404546967241913e-05, 1.0863295756280422e-05, 3.509265661705285e-05, 6.604909685847815e-06, 1.638680805626791e-05, 4.427068415679969e-05, 2.0418547137524e-06, 5.654777851304971e-05, 3.958133220294258e-06, 4.474693923839368e-05, -3.6852485209237784e-05, -9.376031812280416e-06, -3.843256490654312e-05, 3.729080344783142e-05, -6.340003164950758e-05, -2.818401662807446e-05, 8.971554052550346e-06, -2.422030047455337e-05, -5.0812599511118606e-05, -4.053617885801941e-05, 2.7840437724080402e-06, 2.293138277309481e-05, -4.55732733826153e-05, 7.262672443175688e-05, -9.16030603548279e-06, 1.9748496924876235e-05, -1.3192430742492434e-05, 0.0001850943372119218, 3.518187077133916e-05, 7.961870142025873e-05, -2.208570367656648e-05, 5.91204707234283e-06, -4.069568240083754e-05, 5.703723581973463e-05, -0.000108613348857034, 9.769060125108808e-05, 6.360864790622145e-05, 1.4245243846744415e-06, -4.271402576705441e-05, 3.4320062241022242e-06, -2.3605011847394053e-06, 2.698312164284289e-05, 6.542284609167837e-06, -8.515322065250075e-07, 4.871352757618297e-06, 0.00010827453661477193, 2.293457328050863e-05, 2.360001963097602e-05, -9.689964599601808e-07, 0.00020660337759181857, -1.2423293810570613e-05, 8.789820276433602e-05, -1.1098951290477999e-05, 4.3108964746352285e-05, 4.841068948735483e-05, 3.1551851407130016e-06, -1.8057895658785128e-06, 1.3209017197368667e-05, -2.9903438189649023e-05, 7.678716792725027e-05, 1.2442861816452933e-06, 1.6981164662865922e-05, -1.848132160375826e-05, 4.002820060122758e-05, 1.2442958450264996e-06, 3.2576441299170256e-05, 8.33686408441281e-06, 1.0262938303640112e-05, -7.692693543503992e-06, 5.709889956051484e-05, -6.0295878938632086e-05, -2.2071592411521124e-06, 2.278156443935586e-06, 1.1058571544708684e-05, -3.618333721533418e-05], [0.04323377087712288, 0.022632896900177002, -0.02127683535218239, 0.00937310978770256, -0.05269602686166763, 0.029718300327658653, 0.010439055971801281, 0.03253307193517685, -0.04031587764620781, -0.017336905002593994, 0.015476169995963573, 0.009538340382277966, -0.08435973525047302, 0.044711001217365265, -0.028001196682453156, 0.032725244760513306, -0.025205686688423157, 0.017195800319314003, 0.012842808850109577, 0.023894792422652245, 0.02153182029724121, 0.05981947109103203, -0.016622962430119514, -0.02287488803267479, 0.018853001296520233, 0.04054442048072815, -0.11247996240854263, 0.032112400978803635, -0.037733085453510284, 0.011520293541252613, 0.024560917168855667, 0.020712653174996376, -0.03520934656262398, 0.017083533108234406, -0.03251069039106369, 0.02655419521033764, -0.01260449644178152, 0.029109736904501915, -0.03691425174474716, -0.016615530475974083, -0.03719553351402283, 0.010379950515925884, -0.022811148315668106, 0.03225569799542427, -0.051120299845933914, -0.021996598690748215, 0.010345669463276863, 0.017951220273971558, -0.007975123822689056, 0.04658333584666252, -0.02475489117205143, -0.029611647129058838, -0.020371491089463234, -0.019152868539094925, -0.01904311031103134, -0.03519102931022644, -0.04492880403995514, -0.04001524671912193, -0.02306055836379528, 0.027357395738363266, -0.017719939351081848, -0.01702149584889412, -0.011086501181125641, 0.018237920477986336, 0.014696046710014343, 0.043221715837717056, -0.0341460183262825, 0.018199795857071877, 0.010220158845186234, 0.04276282712817192, 0.01874418742954731, 0.03632407262921333, 0.0162199679762125, 0.038570839911699295, -0.04962069168686867, 0.019753366708755493, -0.011969764716923237, 0.08550600707530975, -0.0088942376896739, 0.026385214179754257, -0.022799018770456314, -0.017704389989376068, -0.04770922288298607, 0.04214324429631233, 0.0409499928355217, 0.048751577734947205, -0.04825551435351372, 0.027402067556977272, -0.02936476841568947, -0.011913551948964596, 0.04482107609510422, 0.02247958816587925, -0.055841345340013504, 0.04238587245345116, -0.024505801498889923, 0.02433549053966999, -0.03436729311943054, 0.023281322792172432, -0.0317889042198658, -0.03380630910396576, -0.025249525904655457, -0.03032655082643032, -0.01906364969909191, 0.021090174093842506, -0.025417063385248184, 0.016408680006861687, -0.024354474619030952, -0.033290427178144455, -0.021035613492131233, -0.035973161458969116, -0.041975200176239014, 0.03777208551764488, -0.025877483189105988, 0.03049570694565773, -0.019230561330914497, 0.023646816611289978, -0.018229465931653976, 0.025309620425105095, -0.02837527170777321, -0.015488067641854286, 0.0195893794298172, 0.01705181412398815, -0.027679402381181717, 0.0416116937994957, -0.02719702385365963, 0.03810793161392212, -0.014574727974832058, 0.03827355429530144], [-4.5552700612461194e-05, -6.976636359468102e-05, -1.2125453849876067e-06, 1.5502990208915435e-05, 8.78317077877e-05, -0.00012046569463564083, -5.971262726234272e-05, -2.8201589884702116e-05, -1.1369235153324553e-06, 0.00010287582699675113, -1.362838338536676e-05, -6.86026833136566e-05, 2.9643942980328575e-05, -2.0678226064774208e-05, 6.813227810198441e-05, -4.34440589742735e-05, 0.00016541693184990436, -2.7626721930573694e-05, -1.2417637663020287e-05, -5.109095582156442e-05, 1.995246520891669e-06, -0.00026239262660965323, 5.4750009439885616e-05, 1.35562927994215e-07, -2.66502993326867e-05, -2.58101244980935e-05, 1.6534469978068955e-05, 4.9023833526007365e-06, 3.9116002881200984e-05, -0.00028001292957924306, -7.41513940738514e-05, -6.003561065881513e-05, 6.279582885326818e-05, -1.2207896361360326e-05, 5.711233461624943e-05, -4.154130510869436e-05, 2.8147869670647196e-05, -7.592624024255201e-05, 0.00011212522076675668, 5.13202503498178e-05, -8.596759926149389e-07, -0.00021823337010573596, 4.965649713994935e-05, -7.928584818728268e-05, 4.083589374204166e-05, 2.5494267902104184e-05, 1.0138406651094556e-05, 6.757207756891148e-06, 0.00026768026873469353, -6.473164830822498e-06, 0.00011432699830038473, 2.664006569830235e-05, 3.316543370601721e-05, -1.5283167442703416e-07, -1.1525443369464483e-05, 6.949268572498113e-05, -3.77563011966231e-08, 3.399743218324147e-05, 2.378639328526333e-05, -9.845221029536333e-06, 0.00017792840662878007, -3.99188911615056e-06, 1.4836714399280027e-05, -4.710233042715117e-05, -2.1946883862256072e-05, -0.00010640469554346055, -1.7985903468797915e-06, -3.29841386701446e-05, -4.796880148205673e-06, -5.5122731282608584e-05, -3.3677973988233134e-05, -5.210106792219449e-06, -2.308552575414069e-05, -0.00010575377382338047, -2.872592403946328e-06, -4.808502126252279e-06, 4.820473986910656e-05, -1.6196379874600098e-05, 2.9134547730791382e-05, -2.2034073481336236e-05, 7.865656516514719e-05, 3.925509736291133e-05, 1.449288902222179e-07, -2.2754669771529734e-05, -2.445575773890596e-06, -0.00012977812730241567, 3.347494930494577e-05, 1.208288722409634e-05, 1.904471719171852e-05, 3.353385181981139e-05, -1.5123894627322443e-05, -1.5088995496626012e-05, 3.5514131013769656e-05, -9.138487803284079e-05, 6.162178760860115e-05, -7.99086319602793e-06, 8.11916688689962e-05, -7.1393558755517e-05, 2.4022152501856908e-05, -6.213349934114376e-06, 2.5780938813113607e-05, 2.891351505240891e-05, 0.00018026928592007607, -4.5012307055003475e-06, -4.371227078081574e-06, -4.307369454181753e-05, 7.556441414635628e-05, 0.00010401293548056856, 0.00015476417320314795, 6.949816793166974e-07, 2.682985541468952e-05, 8.767967301537283e-06, 0.00011455389176262543, -7.793518307153136e-05, 0.00014612569066230208, -9.075321577256545e-05, -2.670528147064033e-06, -2.1323767214198597e-05, 1.794987838366069e-05, -1.500713096902473e-06, -0.00010149428271688521, 3.1699530609330395e-06, -9.016558806251851e-07, -5.652100662700832e-05, 3.620549614424817e-05, -5.0907245167763904e-05, 3.2855978133738972e-06, -3.489674054435454e-05], [-0.00018654974701348692, -9.337907249573618e-05, 0.00018114826525561512, -0.00022539410565514117, 0.0002268916869070381, -6.995096919126809e-05, -9.206939284922555e-05, -0.0006568717071786523, 0.00017088126332964748, 0.0005673912819474936, -0.0002728681138250977, -2.6191930373897776e-05, 3.393319639144465e-05, -0.00026639565476216376, 0.0003099426394328475, -0.0005068226018920541, 0.0007014402654021978, -0.00014717878366354853, -0.00011305613588774577, -0.00023291858087759465, -0.0006153047434054315, -0.0008740928024053574, 0.0002777818008325994, 0.0002844661066774279, -0.00022418312437366694, -0.0002760070492513478, 0.0005084495060145855, -0.0002482953714206815, 0.0004092363524250686, -0.00026146782329306006, -0.0005137037951499224, -0.0007721852161921561, 0.0002876591170206666, -3.283916157670319e-05, 0.0005020577227696776, -0.0001266924518859014, 0.00032628458575345576, -0.0005018252413719893, 0.0007697274559177458, 0.00018610479310154915, 8.242214789788704e-06, -0.0003945335338357836, 3.2008782000048086e-05, -0.0005548748886212707, 8.167734631570056e-05, 2.8953068976989016e-05, -0.001320414012297988, -6.15862591075711e-05, 0.00016552417946513742, -0.00027170806424692273, 3.925987402908504e-05, 0.00047310235095210373, 7.735677354503423e-05, 0.0004847658856306225, 0.0001632364437682554, 1.200558017444564e-05, 0.00040747004095464945, 9.470168879488483e-05, 0.00012567626254167408, -0.00015342762344516814, 0.00020219637372065336, 7.5388110417407e-05, 0.0004788781807292253, -0.0008575055981054902, -0.0004297130217310041, -0.0002296215679962188, 0.00022359227295964956, -0.0007659952971152961, -0.0001497291959822178, -0.0006920298910699785, -0.00039707490941509604, -0.0002408397413091734, -0.0004325539921410382, -0.00029732356779277325, 0.0005049773608334363, -0.0001394621649524197, 6.49037174298428e-05, -1.72899217432132e-05, 0.00015587972302455455, -0.0002889811003115028, 0.0008646433707326651, 0.00012009274360025302, 2.1566183932009153e-05, -0.0004169733729213476, -1.358425106445793e-05, -0.00022924593940842897, 0.00020265446801204234, -0.00015247506962623447, 0.000733765191398561, 0.00028183968970552087, -0.00045263252104632556, -0.0008133848896250129, 0.00045043748104944825, -0.00034589983988553286, 0.0007080932846292853, -0.0015894832322373986, 0.0005801519146189094, -0.0002751862339209765, 7.906441169325262e-05, 0.00022982577502261847, 0.00046169423148967326, 0.0005239441525191069, 4.8727673856774345e-05, -0.0004009149270132184, 0.00029648662894032896, -0.0008748098043724895, 0.0004954567411914468, 0.00016637890075799078, 0.00015032418014016002, 2.075939846690744e-05, 0.00037261247052811086, -0.00012095193233108148, 1.5787391021149233e-05, -1.5774105122545734e-05, 0.0007127156713977456, -1.4201445083017461e-05, 0.0003529998939484358, -9.045178740052506e-05, 2.1754052795586176e-05, 0.0006045476766303182, -0.00047460204223170877, -0.001194616430439055, 5.288005922921002e-05, -1.4250589629227761e-05, 5.7376291806576774e-05, -0.00016091174620669335, 1.8790271496982314e-05, -0.0002830132143571973], [0.001781814149580896, 4.993499896954745e-05, -0.001065440708771348, 0.0015521133318543434, -0.0014486073050647974, 0.0004200837283860892, 0.0007094303728081286, 0.0005027963197790086, -0.00116372958291322, -0.00039410628960467875, 0.0010073086014017463, 0.0011672836262732744, -0.00023535001673735678, 2.1698791897506453e-05, -0.00038485060213133693, 0.0003142048662994057, -0.002009154297411442, 0.0011759590124711394, 0.000946517160627991, 0.0009508542134426534, 0.0004084329993929714, 0.0020591693464666605, -0.0017083516577258706, -0.0019309355411678553, 0.001181074301712215, 0.0007527011330239475, -0.0009939464507624507, 0.0008586684125475585, -0.0002429513551760465, 0.002172586042433977, 0.0008950959891080856, 0.0004991256864741445, -0.0002846657589543611, 0.00044548336882144213, -0.0011833847966045141, 0.00019797201093751937, -0.0004377076111268252, 0.0013787834905087948, -0.002856968902051449, -0.001164888497442007, -0.0012475390685722232, 0.0004770316882058978, -0.0003854947572108358, 0.000869585492182523, -0.0005490918993018568, -0.0005756105529144406, 0.0006735048373229802, 9.052943642018363e-05, -0.00010931836732197553, 0.0006720396922901273, -0.00033785621053539217, -6.953682168386877e-05, -0.00043363499571569264, -5.70124429941643e-05, -5.02544135088101e-05, -0.0013089211424812675, -0.0004323184257373214, -0.0012383045395836234, -0.0005379405920393765, 0.0006228932761587203, -0.0005995079991407692, -0.0001183117856271565, -0.0005694635910913348, 6.54822651995346e-05, 0.00012764321581926197, 0.001403910224325955, -0.002745938254520297, 1.4066330550122075e-05, 0.0016515030292794108, 5.3482872317545116e-05, 0.0006214759196154773, 0.0006693885079585016, 0.00025322733563371, 0.00011402429663576186, -0.0009189404081553221, 0.0005870776949450374, -0.0010671608615666628, 0.000900596845895052, -0.0010094627505168319, 0.0009227772825397551, -0.0014529688050970435, -0.001973999198526144, -0.0006312223267741501, 0.00012755603529512882, 0.0005132126389071345, 0.0004366979992482811, -0.00030546795460395515, 0.00010501952783670276, -0.0006625071982853115, -0.0017846443224698305, 0.00047323587932623923, 0.00047905457904562354, -2.914206743298564e-05, 0.0010831656400114298, -0.0010246590245515108, 0.0022275070659816265, -0.0017862756503745914, 8.684588829055429e-05, -0.0009421448339708149, -0.0013492399593815207, -0.0009912799578160048, -0.002467032289132476, -0.000943645543884486, 0.0010955844772979617, -0.0007894674781709909, 0.0005771765718236566, -0.0007795398123562336, -0.0009671666193753481, -0.0007081780931912363, -0.0005769198760390282, -0.0014117993414402008, 0.0008998897974379361, -0.00025342879234813154, 0.0005831673624925315, -0.0015117538860067725, 0.0006678624777123332, -0.002004652051255107, 0.00023502801195718348, -0.0008181873708963394, -0.0017904724227264524, 0.0003735675709322095, 0.00014853071479592472, -0.00029330566758289933, 0.0005989332566969097, -0.00046514111454598606, 0.0010448333341628313, -0.0005472548073157668, 0.001020894036628306], [-2.7105435947305523e-05, -0.00012498305295594037, 3.8656984543194994e-05, -7.648291648365557e-05, 7.224627188406885e-05, -7.429315883200616e-05, -1.2105687346775085e-05, -3.245105472160503e-05, 1.572015753481537e-05, -1.2003024494333658e-05, 4.904114575765561e-06, -3.5695652513823006e-06, 1.0963982504108571e-06, -2.8665922400250565e-06, -3.2312420898961136e-06, -2.9965942303533666e-05, 3.301397373434156e-05, -4.1243598388973624e-05, -4.0442981116939336e-05, -4.086935587110929e-05, -3.9266848034458235e-05, -6.155440814836766e-07, 4.1642157157184556e-05, 1.250336481462e-05, -4.107793574803509e-05, 4.7990943130571395e-06, 3.376913082320243e-05, 7.66453922551591e-06, -5.707155196432723e-06, -7.602622645208612e-05, -1.1817634913313668e-05, -5.701011832570657e-05, -6.901686901983339e-06, -7.564301540696761e-06, -1.6181821820282494e-06, -2.8210597520228475e-05, 5.48227944818791e-05, -4.939692735206336e-05, -3.6220205856807297e-06, 3.2980882679112256e-05, 7.290979738172609e-06, -4.3808955524582416e-05, 8.37134211906232e-06, -2.3735385639156448e-06, 1.4232818102755118e-05, 2.367286288063042e-05, -2.7784133635577746e-05, -7.246068707900122e-05, 3.090053724008612e-05, -8.949145012593362e-06, 4.642855128622614e-05, 7.611218279635068e-06, 6.151645357022062e-05, 1.2137074008933268e-05, 5.546543616219424e-05, 5.3880710765952244e-05, 1.7212148577527842e-06, 1.9368899302207865e-05, 6.53002061881125e-05, -2.7293746825307608e-05, -2.8401643703546142e-06, 6.88660020387033e-06, -5.166059054317884e-06, -4.614263161784038e-06, -5.515126758837141e-05, -3.401679714443162e-05, -1.3026690339756897e-06, -4.799163434654474e-05, -0.00012784982391167432, -1.5749872545711696e-05, -0.00019756550318561494, -8.434353730990551e-06, -9.834952652454376e-05, -7.090700364642544e-07, 5.430239616543986e-05, -5.6386015785392374e-05, 6.39251884422265e-05, -7.843642379157245e-05, 1.8464001186657697e-05, -2.9246341000543907e-05, 0.00018663490482140332, 0.00012782856356352568, 3.202231528121047e-05, -1.207850914397568e-06, 2.8706310786219547e-06, -6.498314178315923e-06, 5.237506775301881e-05, -1.62881042342633e-05, 9.031780791701749e-06, 9.675510227680206e-05, -1.1867799912579358e-05, -3.3357842767145485e-05, 1.3442153431242332e-05, -2.2802030798629858e-05, 1.147730290540494e-05, -3.013692366948817e-05, 3.8066944398451596e-05, -5.395689640863566e-06, 0.00017548055620864034, -1.7316262528765947e-05, 0.00013821489119436592, 6.644368841079995e-05, 0.0001221865531988442, 5.143581347510917e-06, 0.00010776764975162223, -6.161351484479383e-05, 3.5088902222923934e-05, 2.2095513486419804e-05, 5.574741226155311e-05, 1.815209907363169e-05, 2.5959467166103423e-05, -2.3546055672341026e-05, 2.6945250283461064e-05, -2.1827732780366205e-05, 2.7571288228500634e-05, -9.052366658579558e-05, 6.199315248522907e-05, -3.3702947348501766e-06, -1.3675042964678141e-06, 4.023328438051976e-05, 5.561497800954385e-06, -1.3005837899981998e-05, 0.00016614659398328513, -1.934214378707111e-05, 9.277292519982439e-06, -0.0001800453319447115, 1.3113516615703702e-05, -1.8385268049314618e-05], [-0.07935550063848495, -0.011109140701591969, 0.04204510897397995, -0.07605265080928802, 0.07083889842033386, -0.03731197118759155, -0.07389231026172638, -0.08325418084859848, 0.020749589428305626, 0.010682867839932442, -0.07825549691915512, -0.06210682913661003, 0.05876889452338219, -0.011655916459858418, 0.07432755827903748, -0.08207101374864578, 0.07342589646577835, -0.07850589603185654, -0.08577565848827362, -0.08308305591344833, -0.07591118663549423, -0.01285584270954132, 0.07346950471401215, 0.03954387456178665, -0.017556626349687576, -0.011915076524019241, 0.019199782982468605, -0.01880474202334881, 0.03322150930762291, -0.009108839556574821, -0.021854260936379433, -0.06060861051082611, 0.08475913852453232, -0.05249696969985962, 0.030448416247963905, -0.040454961359500885, 0.04626542329788208, -0.08149753510951996, 0.09145291894674301, 0.07391615211963654, 0.013305574655532837, -0.07378554344177246, 0.07901328802108765, -0.014328734017908573, 0.08898761868476868, 0.07996422052383423, -0.07909096032381058, -0.07392586767673492, 0.07000415027141571, -0.037227608263492584, 0.04620944708585739, 0.08300561457872391, 0.07215439528226852, 0.07372260093688965, 0.0663287565112114, 0.09180639684200287, 0.07394667714834213, 0.0678401067852974, 0.04247715324163437, -0.07762596756219864, 0.07956057786941528, 0.017526274546980858, 0.022409066557884216, -0.027438925579190254, -0.0907229334115982, -0.010131821036338806, 0.029070990160107613, -0.009129730053246021, -0.01599871926009655, -0.04627912864089012, -0.07481357455253601, -0.05866900831460953, -0.012185707688331604, -0.012669545598328114, 0.061948951333761215, -0.06952480226755142, 0.07960952818393707, -0.05098874121904373, 0.06545410305261612, -0.01274444442242384, 0.025971723720431328, 0.011405665427446365, 0.08078492432832718, -0.0794803649187088, -0.07078561186790466, -0.07784374058246613, 0.08036702871322632, -0.011837774887681007, 0.08421216160058975, 0.061853937804698944, -0.07879354059696198, -0.012069475837051868, 0.0181405171751976, -0.012393984943628311, 0.010640752501785755, -0.07328464090824127, 0.008795664645731449, -0.07009772956371307, 0.07004345208406448, 0.035477373749017715, 0.07492517679929733, 0.011320337653160095, 0.009863288141787052, -0.07823041826486588, 0.011850021779537201, -0.07751675695180893, 0.06315726786851883, 0.014426752924919128, 0.06158393621444702, 0.0765228196978569, 0.08202839642763138, -0.04970844089984894, 0.015040839090943336, -0.07619288563728333, 0.006342106964439154, -0.0067266011610627174, 0.07826539129018784, -0.04213963449001312, 0.012291387654840946, 0.08380289375782013, -0.062300194054841995, -0.08197835087776184, 0.031131761148571968, -0.02156336046755314, 0.08975992351770401, -0.009568965993821621, 0.039665818214416504, -0.012273091822862625], [2.654548552527558e-05, 7.599988020956516e-05, -1.5462843293789774e-05, 2.207562283729203e-05, -5.568757842411287e-05, 3.8376332668121904e-05, 7.59665545047028e-06, 2.7819487513625063e-05, -7.792105861881282e-06, -1.0942898370558396e-05, 7.831834409444127e-06, 3.23498243233189e-05, 2.6764842004922684e-06, 8.117716788547114e-05, -1.225837604579283e-05, -1.8647550632522325e-06, -8.699480531504378e-06, -1.3056694569968386e-06, 2.12826012102596e-06, 4.669294139603153e-05, 3.551495319698006e-05, -1.2915024854009971e-05, -2.2569707880393253e-07, 9.230291652784217e-06, -5.309479547577212e-06, 2.0854378817602992e-05, -3.5714270779863e-05, 1.3025331099925097e-05, -9.285474334319588e-06, 3.8615464291069657e-05, 1.3995877452543937e-05, 9.251950541511178e-05, -6.878969543322455e-06, 3.79786106350366e-05, -1.7992075299844146e-05, 4.742282544611953e-05, -7.515748620789964e-06, 1.3494287713911035e-06, -6.529283564304933e-05, -3.110867510258686e-06, -0.00011263111809967086, 1.524019353382755e-05, -1.83723313966766e-05, 1.5386222003144212e-05, 3.895696863764897e-06, -5.382668678066693e-05, 5.014496491639875e-05, -1.9087006876361556e-05, -0.00012559117749333382, 1.6994294128380716e-05, -3.8511218008352444e-05, -1.6685111177139333e-06, -4.592023469740525e-05, -1.015884117805399e-05, -4.548543074633926e-05, -5.516216333489865e-06, -9.101998875848949e-05, -1.3294679774844553e-05, 4.376993274490815e-06, -7.531845312769292e-06, -1.7890614572024788e-06, -0.00014054935309104621, 2.592842974991072e-06, -2.1971113710606005e-06, 6.378174293786287e-05, 6.591749843209982e-05, -2.3170527128968388e-05, 0.00010374598787166178, 5.1995462854392827e-05, 5.70890297240112e-05, 1.2291066923353355e-05, 4.406362131703645e-05, 4.787322268384742e-06, 2.5810029910644516e-05, -2.9683318643947132e-05, -2.0715693608508445e-05, -1.747034548316151e-05, -6.408352533071593e-07, -1.5456163964699954e-05, 4.949707363266498e-05, -0.000182901305379346, -4.1328356019221246e-05, -5.910104391659843e-06, 1.2249097380845342e-06, -3.5735654364543734e-06, 1.4759084479010198e-05, -5.581585719482973e-05, -5.055613655713387e-06, -2.3621032596565783e-05, -0.0001133391706389375, -9.480717380938586e-06, 2.0568731997627765e-05, -1.000048087007599e-05, 4.010414704680443e-05, -2.0387974473123904e-06, 6.594176375074312e-05, 2.158867118851049e-06, 4.201824413030408e-05, 6.982359082030598e-06, -3.95190181734506e-06, -6.752070476068184e-05, 3.9333849599643145e-06, -0.0002309166156919673, -4.983908183930907e-06, -0.0001075590043910779, 4.1552793845767155e-05, -2.6215373509330675e-05, 7.148067652451573e-06, -4.103421088075265e-05, -3.8350073737092316e-05, -5.701081136066932e-06, 2.225073694717139e-05, -8.476095536025241e-05, 4.3129155528731644e-05, -1.166954803011322e-06, 9.466405026614666e-05, -6.210227002156898e-05, 9.895437688101083e-05, -7.948345228214748e-06, -4.867604729952291e-06, -1.6426739080088737e-07, -2.97943142868462e-06, 6.68708298690035e-06, -9.077156391867902e-06, -4.354101838544011e-05, 0.0001907146506709978, 6.63348555463017e-06, 1.287893519474892e-05], [-0.00036493741208687425, -0.0017788533587008715, 0.0009815443772822618, -0.0007053107838146389, 0.00019868373055942357, -7.188713061623275e-05, -7.556535274488851e-05, -5.86106616538018e-05, 0.0005894602509215474, 0.001355122309178114, -0.0009396713576279581, -0.0005610728985629976, 2.1120005840202793e-05, -0.00013520571519620717, 2.6607112886267714e-05, -0.0005389812868088484, 0.0007486769463866949, -6.8366707637324e-06, -0.00031468772795051336, -0.00016993987082969397, -0.000732632412109524, -5.1365146646276116e-05, 0.00048029606114141643, 0.00011788625852204859, -0.0005670114187523723, -2.8599321012734435e-05, 2.8767613002855796e-06, -0.00082924566231668, 0.0006865071482025087, -0.0011584711028262973, -0.00012274614709895104, -0.00014140299754217267, 0.00011162340524606407, -0.0007193974452093244, 0.00045447639422491193, -0.0006970682879909873, 0.000705815153196454, -0.0009939379524439573, 0.00010676149395294487, 0.0007913592853583395, 0.0004919368657283485, -0.0007981927483342588, 9.984445932786912e-05, -0.00018911481311079115, 9.996190783567727e-05, 0.0002597664715722203, -0.001529743429273367, -0.0005484048742800951, 0.0016432063421234488, -0.0003630440915003419, 2.389408473391086e-05, 0.0011688049416989088, 0.000256669067312032, 0.0003046085184905678, 0.00014098281098995358, 0.0010390686802566051, 0.0002731474523898214, 0.0013831417309120297, 0.0003551292174961418, -0.0003008607018273324, 0.00040845945477485657, 0.0021753069013357162, 0.00013934004527982324, -0.0005469311727210879, -0.000648665998596698, -0.0002493003266863525, 1.2041681657137815e-05, -0.0007870750268921256, -0.0017072230111807585, -0.0003706732240971178, -0.001649688114412129, -0.0003808944020420313, -0.0003518864104989916, -0.00036623471532948315, 0.00019173487089574337, -0.0006821431452408433, 0.000538443389814347, -0.000281070388155058, 0.00025751147768460214, -0.000462757219793275, 0.0008318059262819588, 0.00021490492508746684, 0.000599268707446754, -0.00017349660629406571, -0.00020498262892942876, -0.00019614143820945174, 7.115745393093675e-05, -0.0005533020012080669, 0.000506045704241842, 0.00035263391328044236, -0.0004170300962869078, -5.047819286119193e-05, 0.0010289913043379784, -0.00019032576528843492, 0.0007232862408272922, -4.483431621338241e-05, 0.0008184515754692256, -0.0007030570413917303, 0.0004604971909429878, 0.0005637784488499165, 0.0009546194924041629, 0.00039327971171587706, 0.0010627261362969875, -6.91445529810153e-05, 0.0009150325786322355, -0.001252435613423586, 0.0003542988852132112, 0.0011700807372108102, 0.000633031246252358, 0.0007141878013499081, 0.0007579773664474487, -0.00029956662910990417, 0.00012633830192498863, -0.0005275755538605154, 0.0002405439445283264, -0.0010710282949730754, 0.002150554908439517, -0.0011361624347046018, 5.1459202950354666e-05, 0.0008326543611474335, -4.735667607747018e-05, -0.0006168738473206758, 0.00025878369342535734, -0.000151559550431557, 0.000389778841054067, -0.0006596507737413049, 0.0004599899984896183, -0.00037252495530992746], [-4.8249105020659044e-05, -2.3693180992268026e-05, 0.00010564807598711923, -8.210390660678968e-05, 7.356893183896318e-05, -9.830126509768888e-05, -8.044240530580282e-05, -3.3604257623665035e-05, 8.830007573124021e-05, 6.087685687816702e-05, -1.0037442734756041e-06, 4.834583705815021e-06, -3.6209025893185753e-06, -2.8556643883348443e-05, 2.724381374719087e-05, -2.548541669966653e-05, 2.6610587156028487e-05, -1.3057390333415242e-06, -9.595953997632023e-06, -2.0573232177412137e-05, -9.345097350887954e-05, -5.280487675918266e-05, 1.9743793018278666e-05, 5.252335176919587e-05, -0.00014680919412057847, -9.933026012731716e-05, 2.97012047667522e-05, -1.1369296771590598e-05, 5.2692641475005075e-05, 6.363854936353164e-06, -6.753533671144396e-05, -3.4640328522073105e-05, 2.9223148885648698e-05, -4.27943050453905e-05, 7.804055348969996e-05, -5.339362542144954e-05, 6.376890087267384e-05, -8.545358286937699e-05, 3.819928315351717e-05, 1.6988744391710497e-05, 6.128661334514618e-05, 4.5896281335444655e-06, 2.400792254775297e-06, -7.033471774775535e-05, 1.1686939615174197e-05, 5.010095719626406e-06, -0.00019008586241398007, 8.147464541252702e-06, 0.00010512492735870183, -7.314207323361188e-06, 7.599458331242204e-05, 8.060332766035572e-05, 0.00014808330161031336, 3.057429785258137e-05, 3.475937410257757e-05, 1.5492762031499296e-05, 7.994056068127975e-05, 2.645534186740406e-05, 0.0001652259670663625, -4.234361767885275e-05, 3.058305446757004e-05, 8.242421608883888e-05, -1.1426534456404625e-06, -4.00224635086488e-05, -2.8166617994429544e-05, -5.346675243345089e-05, 4.691495269071311e-05, -6.337510421872139e-05, -7.821423059795052e-05, -3.2652234949637204e-05, -0.00011482858099043369, -1.2060352673870511e-05, -2.0621384464902803e-05, -4.1962113755289465e-05, 4.562854883261025e-05, -0.00015604993677698076, 2.2437774532590993e-05, -1.863197576312814e-05, 2.736748501774855e-05, -3.310327883809805e-06, -4.029345461731282e-07, 5.626462007057853e-05, 9.398643305758014e-05, -4.479198469198309e-05, -2.0505629436229356e-05, -2.0291334294597618e-05, 1.2957429795790176e-08, -9.942878023139201e-06, 2.4087798010441475e-05, 1.2761260222760029e-05, -6.0265083448030055e-05, -1.3642257727042306e-05, 2.9372531571425498e-05, -0.00010065272363135591, 2.7527972633833997e-05, -3.2743912470323266e-07, -7.519540758949006e-06, -2.0591349311871454e-05, -7.98430664872285e-06, 0.00026230784715153277, -8.106160748866387e-06, 4.2949686758220196e-05, 4.323918983573094e-05, -7.697418186580762e-05, 2.073759605991654e-05, -4.9388636398362e-06, 5.6410444813081995e-05, 4.283015186956618e-06, 2.2490798073704354e-05, -1.291805119763012e-06, 8.276397420559078e-05, -7.738521162536927e-06, -5.172321380086942e-06, -1.945588519447483e-05, 4.506156255956739e-05, -5.2517527365125716e-05, 8.367880218429491e-05, -4.7405836085090414e-05, 5.63501707802061e-05, -5.690545094694244e-06, -1.97501981347159e-06, -0.00010627514711814001, 2.2155678379931487e-05, -5.812365998281166e-05, 0.00012108810187783092, -8.856620115693659e-05, 5.534885190172645e-07, -3.222852319595404e-05], [-0.0013694417430087924, -0.0002575647085905075, 0.0012040298897773027, -0.0006818503607064486, 0.00015285298286471516, -0.0013427083613350987, -0.0012442974839359522, -0.0006441377336159348, 0.000891642295755446, 0.0007892576977610588, -0.001167135313153267, -0.002128522377461195, 0.00023525151482317597, -0.0010227306047454476, 2.9948243991384516e-06, -0.0006484973127953708, 0.0025414072442799807, -0.0005336727481335402, -0.0007642103591933846, -0.0007901396020315588, -0.0016827346989884973, -0.00029814193840138614, 0.0018218522891402245, 0.0019089792622253299, -0.0003326665027998388, -4.9520305765327066e-05, 0.00011306542728561908, -0.00016686068556737155, 0.00024881557328626513, -0.0004632434865925461, -0.00045779513311572373, -0.00048055616207420826, 0.0007775794365443289, -0.00015509049990214407, 0.0014377790503203869, -0.00036916506360284984, 0.0009814637014642358, -0.000848455645609647, 0.0014787332620471716, 2.4388040401390754e-05, 0.0001785909553291276, -0.000344711123034358, 0.0005469001480378211, -0.0008066358277574182, 0.000519128458108753, 0.0007429991965182126, -0.001025243429467082, -0.00013450173719320446, 0.0015906098997220397, -0.000696326547767967, 0.0011488705640658736, 0.0008452016045339406, 8.02762369858101e-05, 0.0009140698821283877, 0.000698244315572083, 0.0011795825557783246, 0.0018712094752117991, 0.0012064235052093863, 0.0015313300536945462, -0.0005567016778513789, 0.0009714986081235111, 0.0006532654515467584, 0.00013846745423506945, -0.0015489853685721755, -0.0014279497554525733, -0.0004871287092100829, 0.0003730564785655588, -0.00028029363602399826, -0.002528809942305088, -0.00013475454761646688, -0.0016695945523679256, -0.0011494449572637677, -4.809950951312203e-06, -0.000401520257582888, 0.0004194456560071558, -0.0023783810902386904, 0.0008384733228012919, -9.987942758016288e-05, 0.0007512340089306235, -3.921637835446745e-05, 3.615388777689077e-05, 0.0013630721950903535, 0.0016585264820605516, -0.0004848216485697776, -0.0007929289131425321, -0.0002382439124630764, 0.0014129679184406996, -0.0020394325256347656, 0.0007133146282285452, 0.0022524085361510515, -0.000746842531953007, -0.00063308235257864, 0.0009924941696226597, -0.00037360776332207024, 0.00017711125838104635, -0.0005603837198577821, 0.0021279838401824236, -0.00034509829129092395, 0.00023264321498572826, 0.0006502876640297472, 0.0005885660066269338, 0.0011720163747668266, 0.00014804917736910284, -0.0008346654358319938, 0.0016650297911837697, -0.0019587089773267508, 0.00030236595193855464, 7.135791383916512e-05, 0.0004298160783946514, 0.0006272737518884242, 0.001224732375703752, -0.0011776627507060766, 0.0008942048880271614, -6.919054430909455e-05, 0.0016631686594337225, -0.0013179773231968284, 0.0006502850446850061, -0.0004474242450669408, 0.0004721147706732154, 0.0013573565520346165, -0.001351329148747027, -0.0016262178542092443, 0.002382235135883093, -0.0012523828772827983, 0.0005929271574132144, -0.001775819924660027, 0.0008290309342555702, -0.00033638993045315146], [0.0176647137850523, 0.05222329869866371, -0.011981128714978695, 0.020388465374708176, -0.019840843975543976, 0.01604575291275978, 0.01810806430876255, 0.028397832065820694, -0.0370144322514534, -0.07158347219228745, 0.030138615518808365, 0.021233107894659042, -0.08333894610404968, 0.01554217841476202, -0.013462325558066368, 0.050712183117866516, -0.014037010259926319, 0.017953667789697647, 0.02256373129785061, 0.05824746564030647, 0.023453421890735626, 0.07683780789375305, -0.009115194901823997, -0.009403351694345474, 0.01699293963611126, 0.02845304273068905, -0.06739938259124756, 0.015375886112451553, -0.0382201224565506, 0.01255387719720602, 0.021520277485251427, 0.01487256120890379, -0.024752115830779076, 0.018053604289889336, -0.016332926228642464, 0.07387585192918777, -0.09463987499475479, 0.02208113484084606, -0.011322017759084702, -0.015966642647981644, -0.01778668351471424, 0.013383201323449612, -0.0790778249502182, 0.07812654227018356, -0.017931194975972176, -0.01962452009320259, 0.014937507919967175, 0.010101443156599998, -0.00717891613021493, 0.06782248616218567, -0.021209510043263435, -0.09379942715167999, -0.009177502244710922, -0.036772746592760086, -0.02042618952691555, -0.019646255299448967, -0.019786005839705467, -0.09654159843921661, -0.03734707459807396, 0.01321388129144907, -0.027079051360487938, -0.03445529192686081, -0.04257529228925705, 0.02705775760114193, 0.1199471578001976, 0.015309710055589676, -0.013732063584029675, 0.014471946284174919, 0.013286475092172623, 0.010346242226660252, 0.02156224474310875, 0.07552940398454666, 0.01719629392027855, 0.03718617558479309, -0.06199255213141441, 0.01657106727361679, -0.010282272472977638, 0.07517711073160172, -0.0080111688002944, 0.015398715622723103, -0.04670689254999161, -0.019188977777957916, -0.09086095541715622, 0.023620154708623886, 0.0848054587841034, 0.07575668394565582, -0.030041122809052467, 0.011432894505560398, -0.03349977731704712, -0.04236423969268799, 0.026913698762655258, 0.0153319351375103, -0.020242895931005478, 0.02803572081029415, -0.008986991830170155, 0.014389660209417343, -0.033546674996614456, 0.08214162290096283, -0.00981358252465725, -0.017657432705163956, -0.010526810772716999, -0.01835193671286106, -0.015572719275951385, 0.014859943650662899, -0.03274662047624588, 0.015873687341809273, -0.019058844074606895, -0.018179241567850113, -0.04435530677437782, -0.08016102761030197, -0.0182659775018692, 0.017274606972932816, -0.017882611602544785, 0.03004990518093109, -0.014520554803311825, 0.01982525736093521, -0.013641582801938057, 0.05929582566022873, -0.023539161309599876, -0.007930731400847435, 0.008400009013712406, 0.009839831851422787, -0.009504366666078568, 0.03859138861298561, -0.019928650930523872, 0.008700457401573658, -0.032591599971055984, 0.01811387948691845], [-0.018294988200068474, -0.011165838688611984, 0.006959774065762758, -0.017082178965210915, 0.04678678885102272, -0.03115476854145527, -0.008089682087302208, -0.018405767157673836, 0.032084617763757706, 0.009878037497401237, -0.074000284075737, -0.014500617049634457, 0.08981174975633621, -0.017682991921901703, 0.03409703075885773, -0.04660515487194061, 0.00827584508806467, -0.013970814645290375, -0.007888096384704113, -0.021448543295264244, -0.03167456388473511, -0.02418341301381588, 0.012822166085243225, 0.02886815369129181, -0.007045284379273653, -0.011510920710861683, 0.03749043866991997, -0.021075701341032982, 0.02022640034556389, -0.016635240986943245, -0.01341454591602087, -0.020257994532585144, 0.03358732908964157, -0.019425006583333015, 0.027096306905150414, -0.07679831236600876, 0.013197256252169609, -0.011881350539624691, 0.02301562763750553, 0.011369893327355385, 0.03461860492825508, -0.014494740404188633, 0.04725703224539757, -0.025248408317565918, 0.03133146092295647, 0.028616784140467644, -0.020756201818585396, -0.015705421566963196, 0.013168375939130783, -0.0290102269500494, 0.02697451412677765, 0.013270472176373005, 0.011550648137927055, 0.08198263496160507, 0.021576078608632088, 0.015171632170677185, 0.008956468664109707, 0.021255038678646088, 0.017719967290759087, -0.018151765689253807, 0.024077966809272766, 0.012425675988197327, 0.015096005983650684, -0.007230397779494524, -0.012799864634871483, -0.02105616219341755, 0.01784537546336651, -0.009380568750202656, -0.024988800287246704, -0.023207133635878563, -0.025414500385522842, -0.023773301392793655, -0.025289712473750114, -0.026352938264608383, 0.036255843937397, -0.012731813825666904, 0.017173070460557938, -0.022769413888454437, 0.018766527995467186, -0.03074764646589756, 0.018316732719540596, 0.01666082814335823, 0.022814402356743813, -0.04970690608024597, -0.015253230929374695, -0.042808156460523605, 0.03766225278377533, -0.02951698750257492, 0.026337897405028343, 0.014733737334609032, -0.061988264322280884, -0.022155895829200745, 0.07029253989458084, -0.03810444474220276, 0.0071680364198982716, -0.01209182944148779, 0.022827867418527603, -0.08183892071247101, 0.017249641939997673, 0.01665857434272766, 0.014136051759123802, 0.022789200767874718, 0.023271942511200905, -0.015478445217013359, 0.008249972015619278, -0.007536816410720348, 0.014378434047102928, 0.0202714204788208, 0.027826376259326935, 0.014866206794977188, 0.026114074513316154, -0.03831002116203308, 0.01835704781115055, -0.01638462021946907, 0.00678652198985219, -0.007332650013267994, 0.013115971349179745, -0.02280389331281185, 0.04551040008664131, 0.007159363012760878, -0.007377483416348696, -0.01205504685640335, 0.013154539279639721, -0.034851282835006714, 0.01970604434609413, -0.007322312798351049, 0.03279119357466698, -0.033713582903146744], [6.686353572149528e-06, 3.920195740647614e-05, -9.475799015490338e-05, 2.7354941266821697e-05, -1.9519353372743353e-05, 1.2631533536477946e-05, 8.341605280293152e-05, 2.1549172743107192e-05, -5.858438271388877e-06, -6.468745414167643e-05, 8.779060408414807e-06, 6.457517156377435e-05, -1.2550840438052546e-05, -1.1539253137016203e-05, -9.073076398635749e-06, 4.4952343159820884e-05, -1.579581839905586e-05, 8.204992809623946e-06, 2.7927630981139373e-06, 3.990970435552299e-05, 1.940381662279833e-05, -5.250062258710386e-06, -2.640183265611995e-05, -5.256116537566413e-07, 1.3680581105290912e-05, -3.7515490021178266e-06, -4.406842890603002e-06, 2.409764056210406e-05, -3.3262898796238005e-05, 4.4598513341043144e-05, 3.6850469768978655e-05, 3.153381840093061e-05, -1.888975384645164e-05, 2.9528875529649667e-05, -6.040612424840219e-05, -1.8833131889550714e-06, -7.360797462752089e-05, -1.9431790860835463e-06, 1.586312282597646e-05, -3.353800639160909e-05, -2.7583868359215558e-05, 0.00022144633112475276, 3.151775445076055e-06, 3.653913881862536e-05, -1.3226979717728682e-05, -1.8355907741351984e-05, 2.4355462301173247e-05, 4.987335705664009e-05, -7.51544939703308e-05, -3.5694206417247187e-06, -4.074176831636578e-05, -1.1653750334517099e-05, -7.855513104004785e-05, -1.2315676940488629e-05, -9.461171430302784e-05, -1.8114427803084254e-05, -1.9500712369335815e-05, -3.201938670827076e-05, -6.344362918753177e-05, 1.6276035239570774e-05, -1.7240676243091002e-05, -1.8034366803476587e-05, -2.972061702166684e-05, -1.2778273230651394e-05, -3.6026551697432296e-06, 3.985038711107336e-05, 1.2394922123348806e-05, 2.7120483991893707e-06, -4.100894784642151e-06, 2.1969728550175205e-05, 1.5057559039632906e-06, 8.123340080601338e-07, 8.494294888805598e-05, 1.1564108717720956e-05, -2.1111147361807525e-05, 0.0001496295299148187, -4.075285323779099e-05, 3.81723657483235e-06, -2.65359030890977e-05, 2.6906134735327214e-05, -8.02874710643664e-05, -5.415053237811662e-05, -9.72360976447817e-06, 1.9136432456434704e-05, 1.9181330571882427e-05, -4.069060651090695e-06, 2.9176255793572636e-06, 0.00010388290684204549, -5.724407674279064e-05, -6.117770681157708e-05, 3.954795829486102e-05, 5.6092190789058805e-05, 5.2838071695759936e-08, 1.0740657671703957e-05, -3.1247422157321125e-05, 0.00022367737255990505, -4.680705023929477e-05, 2.0170446077827364e-06, -4.5425258576869965e-06, -4.310658187023364e-05, 1.850547232606914e-05, -1.7930418835021555e-05, -0.0002582184097263962, 7.539894113506307e-07, 1.5625948435626924e-05, 1.4781664503971115e-05, -4.4012816942995414e-05, 6.361424311762676e-06, -6.7467926783137955e-06, -2.6023713871836662e-05, -5.913801214774139e-05, 8.672437979839742e-05, 1.017157865135232e-05, 2.6692167011788115e-05, -0.00012960325693711638, 2.1095325791975483e-05, -9.577865967003163e-06, -4.965793891642534e-07, -2.080512604152318e-05, -1.9446149963187054e-05, 1.0180421668337658e-05, -1.3629493878397625e-05, -4.9220292567042634e-05, 1.76902594830608e-05, -3.4405096812406555e-05, -7.846472726669163e-06, 4.724930022348417e-06, 9.757545740285423e-07], [8.677168807480484e-05, 5.780842911917716e-05, -1.3871230294171255e-05, 4.667224857257679e-05, 1.7064754729290144e-06, 2.4459050109726377e-05, 1.4289518730947748e-05, 2.3674419935559854e-06, 1.3746908734901808e-05, -0.0003268699801992625, 9.551241419103462e-06, 5.108835466671735e-05, -7.444689254043624e-05, -5.549069555854658e-06, -1.749612965795677e-05, 2.685808067326434e-05, 1.5704225006629713e-05, -9.206863069266547e-06, 3.221397855668329e-05, 1.0920376553258393e-05, 0.0001343768381047994, 3.268000727985054e-05, -7.979998190421611e-05, -8.789143612375483e-05, 8.573427476221696e-05, 1.538205106044188e-05, -7.854619070712943e-06, 2.549364035075996e-05, -8.957098907558247e-05, 6.239875074243173e-05, -8.432950380665716e-06, 2.1180512703722343e-05, -9.34064737521112e-05, 8.520471965312026e-06, -8.716099728189874e-06, 6.812713399995118e-05, -7.755994010949507e-05, 4.553746111923829e-05, -4.683424049289897e-05, -3.998949978267774e-05, -5.925296136410907e-05, 0.00011545518646016717, -7.6301432272885e-05, 0.00014577549882233143, -1.7890390154207125e-05, 3.2016728255257476e-06, 2.6025676561403088e-05, 0.0002472323249094188, -0.00022483414795715362, 6.255358312046155e-05, -6.876931365695782e-06, -1.3897096323489677e-05, -5.1650367822730914e-05, -1.4016291970619932e-05, -3.9909049519337714e-05, -1.9034441720577888e-05, -4.0289596654474735e-05, -3.31363917212002e-05, -0.0002113973314408213, 6.575506176886847e-06, -7.302704489120515e-06, -0.00011741648631868884, 4.030540367239155e-06, 3.2229767384706065e-05, 3.2644278689986095e-05, 2.2468298993771896e-05, -5.8607120081433095e-06, -7.496050784538966e-07, 3.72249232896138e-05, 7.525357068516314e-05, 2.433508234389592e-05, -3.168906232531299e-06, 1.9939201592933387e-05, 4.270515637472272e-05, -8.911542681744322e-05, 5.435377897811122e-05, -9.966257493942976e-05, 3.815378022409277e-06, -9.010193753056228e-05, 3.401347203180194e-05, -1.500741382187698e-05, -3.6401423130882904e-05, -4.89583944727201e-05, 7.758522406220436e-05, 1.33055053197495e-07, -9.538099448036519e-07, -5.3339379519457e-05, 5.53765676158946e-05, -4.497093686950393e-05, -0.00010265682794852182, 5.668579888151726e-06, 6.526849756482989e-05, -4.525148688117042e-05, 7.586042192997411e-05, -4.022221764898859e-05, 3.0261291612987407e-05, -9.846575267147273e-05, 2.7355714337318204e-05, -5.737042010878213e-05, -0.00013031069829594344, -6.863804446766153e-05, -2.991590190504212e-05, -4.900016210740432e-05, 9.853834853856824e-06, -0.00013264844892546535, 9.284130101150367e-06, -1.7715243302518502e-05, -2.9888751669204794e-05, -4.988170985598117e-05, -4.869773874816019e-06, -3.571019260562025e-05, -1.0509233106859028e-05, -4.723294114228338e-05, 1.1449012163211592e-05, -3.4206779673695564e-05, 2.0916933863190934e-05, -1.593780325492844e-05, 4.381370308692567e-05, -5.892004264751449e-05, -3.69589397450909e-05, 4.914849341730587e-06, -1.0221930097031873e-05, 7.699128218519036e-06, 3.8816073356429115e-05, -1.5827143215574324e-05, 3.836142786894925e-05, -2.5811916657403344e-06, 1.1927358173124958e-05], [0.0002644246269483119, 0.00023339288600254804, -0.0005342182121239603, 0.0002806986740324646, -9.044504986377433e-05, 0.0003862892626784742, 0.00018402916612103581, 0.0002333860466023907, -5.226650955592049e-06, -0.00010587261931505054, 7.58759124437347e-05, 0.00038994112401269376, -1.4690527677885257e-05, 0.00045903841964900494, -0.00030922816949896514, 0.00024410360492765903, -0.0003235483600292355, 0.0001603087002877146, 4.2910411139018834e-05, 0.0005250860704109073, 0.0005725046503357589, 0.00014550460036844015, -2.7550919185159728e-05, -0.00010872351413127035, 0.0007804709021002054, 0.00017052593466360122, -0.00019227025040891021, 0.0005187978385947645, -0.0003378722758498043, 0.00034825364127755165, 0.00028866645880043507, 0.000525518087670207, -0.00019854966376442462, 0.0008144938037730753, -0.00021380014368332922, 0.00018470345821697265, -0.0005565694300457835, 0.0008869445882737637, -0.0004412280104588717, -0.00024173645942937583, -0.00024541281163692474, 0.00023970067559275776, -0.00014718121383339167, 0.0004124740371480584, -1.4918873603164684e-05, -0.0005717544700019062, 5.4485685723193455e-06, 0.0003919703303836286, -0.00019885148503817618, 0.0001815558789530769, -0.00022923284268472344, -7.105198892531916e-05, -0.0005695278523489833, -0.00018527383508626372, -0.0003083826450165361, -0.0007611081819050014, -0.0003407522162888199, -0.0004787342913914472, -1.758336838975083e-05, 0.00040389932109974325, -0.0009269542060792446, -3.7807196349604055e-05, -6.834510713815689e-05, 0.0003592652501538396, 0.00042390040471218526, 7.818752055754885e-05, -0.00014392423327080905, 8.602395973866805e-05, 0.00016098414198495448, 0.00015323222032748163, 0.0006483419565483928, 0.0002719480253290385, 0.00047000014455989003, 6.210467108758166e-05, -0.00013895914889872074, 0.0004591280303429812, -2.728616163949482e-05, 0.00012053655518684536, -0.00043861428275704384, 0.0001352311228401959, -0.0008779896888881922, -0.0008341664797626436, -0.0005875882925465703, 0.0002647668297868222, 0.0006826022872701287, 0.00030342279933393, -0.00028729563928209245, 0.00021573180856648833, -0.00035029862192459404, -0.001091517391614616, 0.00026284903287887573, 0.000960331060923636, -0.0003865885082632303, 0.0003462075546849519, -0.0005504981381818652, 0.00010433665738673881, -0.0003026990161743015, 0.00033988585346378386, -0.0004569164593704045, -2.8150012440164573e-05, -3.1637915526516736e-05, -0.00024836251395754516, -9.710142330732197e-05, 6.534479325637221e-05, -9.02838510228321e-05, 0.00011156718392157927, -0.0005615322734229267, -0.00022693096252623945, -0.0003510405367705971, -0.0003765285655390471, -0.0007299230201169848, 5.750217678723857e-05, -0.000529071781784296, 0.0001306835765717551, -5.578889249591157e-05, 0.0006896107806824148, -9.527906513540074e-05, 0.00019048542890232056, -0.0003003541787620634, -0.0003935981076210737, 0.00010470623965375125, 0.0002079965197481215, -0.001532509340904653, 0.00010433990973979235, -0.00016126121045090258, 4.993185575585812e-05, -0.0002655919233802706, 6.29989335720893e-06], [0.07956784218549728, 0.064385786652565, -0.07037102431058884, 0.0688539370894432, -0.0579635351896286, 0.012113952077925205, 0.0757879912853241, 0.06370341032743454, -0.02740561030805111, -0.06767503172159195, 0.021512994542717934, 0.06622809916734695, -0.0015331382164731622, 0.06680537760257721, -0.04869045317173004, 0.0635642558336258, -0.07303570955991745, 0.06610845029354095, 0.0419212244451046, 0.06678642332553864, 0.07935494184494019, 0.07233820855617523, -0.07193451374769211, -0.07713457196950912, 0.08325516432523727, 0.06483399868011475, -0.0007346111233346164, 0.01391228660941124, -0.040297556668519974, 0.015531825833022594, 0.07072217762470245, 0.07420434802770615, -0.03254939988255501, 0.011109938845038414, -0.06736040860414505, 0.002167111961171031, -0.008470811881124973, 0.0671996921300888, -0.07565286010503769, -0.009127127937972546, -0.050188928842544556, 0.0696389451622963, -0.016846755519509315, 0.010313314385712147, -0.06400053203105927, -0.057899195700883865, 0.06825830787420273, 0.07517800480127335, -0.06156561151146889, 0.03491955250501633, -0.06475555896759033, -0.04609863460063934, -0.0687086209654808, -0.03682883828878403, -0.06333508342504501, -0.040563419461250305, -0.0431184284389019, -0.006755704991519451, -0.021769655868411064, 0.05952006205916405, -0.00832836702466011, -0.07316266745328903, -0.06549075990915298, 0.0688488557934761, 0.04807562008500099, 0.06613069772720337, -0.0734337568283081, 0.05991877615451813, 0.07219389081001282, 0.016847213730216026, 0.0642898678779602, 0.056152038276195526, 0.06482688337564468, 0.05534423515200615, -0.01889357715845108, 0.07068710029125214, -0.013711885549128056, 0.005995641462504864, -0.056249868124723434, 0.04500151425600052, -0.044801514595746994, -0.06086787208914757, -0.05184454470872879, 0.05216320976614952, 0.03404656797647476, 0.008855103515088558, -0.06151198595762253, 0.07435089349746704, -0.00915723480284214, -0.0677696168422699, 0.028066491708159447, 0.06685204058885574, -0.04971090704202652, 0.04746890440583229, -0.0710369423031807, 0.016819637268781662, -0.0646621435880661, 0.02478559873998165, -0.07569877058267593, -0.07555795460939407, -0.07042752951383591, -0.07562598586082458, -0.07129273563623428, 0.01149047166109085, -0.009335167706012726, 0.07038756459951401, -0.06543707102537155, -0.0094989612698555, -0.07321012765169144, -0.03852882981300354, -0.03509540855884552, 0.07834106683731079, -0.06441682577133179, 0.035768311470746994, -0.06305311620235443, 0.06833826005458832, -0.06935614347457886, 0.06058461219072342, -0.05602395161986351, -0.0672646090388298, 0.07229547947645187, 0.06886524707078934, -0.0714753046631813, 0.015098698437213898, -0.07250256091356277, 0.07172325253486633, -0.08924071490764618, 0.04855625331401825], [-7.054927209537709e-06, 2.855479033314623e-05, -3.899808143614791e-05, -4.344406988820992e-06, -1.2786955267074518e-05, 2.378783938183915e-05, -1.3471437341650017e-05, -2.0517222765192855e-06, 1.9233509647165192e-06, -0.0001954567269422114, 1.461086685594637e-05, 5.689248791895807e-05, -2.632561700011138e-05, 1.956547384907026e-05, -7.891391578596085e-05, 2.7184718419448473e-05, -3.488822403596714e-05, -8.652781616547145e-06, 2.866720251404331e-06, 7.364193152170628e-05, 4.9021924496628344e-05, -3.5123057386954315e-06, -0.00013113801833242178, -0.0001051642611855641, 2.2725527742295526e-05, 2.2969459678279236e-05, -1.425210757588502e-05, 3.200041192030767e-06, -2.687959022296127e-05, 6.232201121747494e-05, 3.1481664336752146e-05, 4.7607478336431086e-05, 8.402873390878085e-06, 5.767114998889156e-05, -0.00010378622391726822, 9.211175893142354e-06, -1.3492478956322884e-06, -6.175897397042718e-06, -4.014652586192824e-05, -1.989668635360431e-05, -3.987451236753259e-06, 8.556594548281282e-05, -5.46573573956266e-07, -3.767613407035242e-06, -2.0832285372307524e-05, -3.857322008116171e-05, 0.00016396668797824532, 2.5995357646024786e-05, -6.395908712875098e-05, 0.00010346519411541522, -5.8239122154191136e-05, -8.275996151496656e-06, -0.00019589367730077356, -6.52928210911341e-05, -5.902126576984301e-05, 4.799432645086199e-06, -8.030652679735795e-05, -1.3841823601978831e-05, -3.501366518321447e-05, 3.3539836294949055e-05, -2.9721877581323497e-05, -0.0002215347340097651, -3.128900789306499e-05, -1.2999266800761689e-05, 1.53545133798616e-05, 5.926681114942767e-05, -6.406749889720231e-05, 3.2247804483631626e-05, 7.670422201044858e-05, 5.1583119784481823e-05, -9.79067863227101e-06, 0.00011589136556722224, 1.5660284589102957e-06, 1.5931722373352386e-05, -3.014609683305025e-05, 3.51399535247765e-06, 1.174917724711122e-05, 2.9083354093017988e-05, -0.00020305716316215694, 8.374351455131546e-05, -2.6555271688266657e-06, -4.9331360060023144e-05, -1.1194346370757557e-05, 3.1093632060219534e-06, 2.8489284886745736e-06, 1.7667027350398712e-05, -1.0524469189476804e-06, 4.7505120164714754e-05, -4.0330800402443856e-05, -8.656484715174884e-05, -1.7536137875140412e-07, -2.3561788111692294e-06, -6.745952123310417e-05, -7.439888577209786e-06, -1.7235861378139816e-05, -8.024377166293561e-06, -1.1089387044194154e-05, 3.4353572118561715e-05, -5.468129165819846e-05, -1.1256103789492045e-05, -7.86968957982026e-05, -1.0694507182051893e-05, -0.00010562000534264371, -6.598021627723938e-06, -1.1065256330766715e-05, 4.633249045582488e-05, -8.170278306351975e-05, -1.5187261851679068e-05, -3.585972444852814e-05, -1.4195597032085061e-05, -6.126397784100845e-05, 9.08309539227048e-06, 4.891298431175528e-06, -3.0272551612142706e-06, -2.2533848095918074e-05, 7.842601189622656e-05, -3.1003135518403724e-05, 2.8943557026650524e-06, -1.528542816231493e-05, 4.489560978981899e-06, 4.407282540341839e-05, 4.2980460420949385e-05, -6.222720548976213e-05, -1.5251384866132867e-06, -7.959760841913521e-05, 3.8465932448161766e-05, -5.121880894876085e-05, 3.5268993087811396e-05], [-0.00023165922902990133, -0.00011734073632396758, 7.271012145793065e-05, -0.0002289555995957926, 0.0001837060844991356, -0.00021193129941821098, -1.1698680282279383e-05, -0.0005578233976848423, 0.0004474384186323732, 0.0009776897495612502, -8.118865662254393e-05, -0.0006254484760574996, 0.00035128017771057785, -0.00047474418533965945, 0.00012072971003362909, -8.65204056026414e-05, 1.931138467625715e-05, -0.0006838483968749642, -0.0007493151933886111, -0.00034146636608056724, -0.00040004769107326865, -0.0005300258053466678, 0.00025550954160280526, 3.1105380458029686e-06, -0.00016565223631914705, -8.341478860529605e-06, 0.0004195373912807554, -0.0004885769449174404, 0.00020108734315726906, -0.0001962187234312296, -0.00044268654892221093, -0.0004569843295030296, 1.5144750250328798e-05, -0.0003977803571615368, 0.00018774317868519574, -0.00014374160673469305, 0.0003367698809597641, -1.131928638642421e-05, 0.0003365977026987821, 0.0008521502604708076, 0.00025552124134264886, -4.7383204218931496e-05, 0.0002256174775538966, -0.0002315759047633037, 0.0008280540350824594, 9.353984205517918e-05, -0.00039206689689308405, -0.00037590786814689636, 0.0007719243294559419, -5.9249014157103375e-05, 0.0010658802930265665, 0.000235557890846394, 0.0005560730933211744, 0.00023778635659255087, 0.0005179213476367295, 0.00043804029701277614, 0.0009393959189765155, 0.00015135637659113854, 0.0003862854209728539, -0.0005244719795882702, 4.167187216808088e-05, 7.58291280362755e-05, 0.0006039850995875895, -0.0007228775066323578, -0.00018999332678504288, -0.00024346656573470682, 0.00021025812020525336, -0.0007240702980197966, -0.0002733642759267241, -0.00022514385636895895, -0.0006175106973387301, -0.00040696648648008704, -0.00023172968940343708, -0.00014217590796761215, 0.00034328995388932526, -0.00012850809434894472, 0.0005805182736366987, -0.00044176680967211723, 0.00024085822224151343, -0.00027836047229357064, 0.0001851922570494935, 5.601662996923551e-05, 0.000133331777760759, -0.000613838667050004, -0.0007864388171583414, -0.0003965623618569225, 0.0007159882225096226, -0.0009046693448908627, 0.0001724924659356475, 0.00041333469562232494, -0.00015728203288745135, -0.0007070694118738174, 0.00014523685968015343, -2.785104925351334e-06, 0.0006411114009097219, -0.0006629577837884426, 0.0003155230369884521, -0.00017886936257127672, 1.3684018995263614e-05, 0.00027490477077662945, 0.00015761613030917943, 0.0004797030705958605, 0.00044685587636195123, -1.7851229131338187e-05, 0.00019311672076582909, -0.00040671369060873985, 0.00024774312623776495, 0.000871577940415591, 0.0006905489135533571, 0.0002689060056582093, 0.0005539331468753517, -0.0003019899013452232, 0.0003885578771587461, -0.0006259694346226752, 0.0007462923531420529, -0.0004300631408113986, 0.0002881252730730921, -0.00011349647684255615, 7.60466864448972e-05, 0.00022600351076107472, -0.0002689818211365491, -2.289179974468425e-05, 0.00018139730673283339, -0.00022449649986810982, 0.0003915377310477197, -0.00010178671072935686, 0.0002825655392371118, -9.80370314209722e-05], [0.012583056464791298, 0.016023218631744385, -0.0060149566270411015, 0.011275562457740307, -0.02634875476360321, 0.021349985152482986, 0.02493009716272354, 0.01468960102647543, -0.029202613979578018, -0.011921134777367115, 0.07559952139854431, 0.012877076864242554, -0.035986870527267456, 0.015005781315267086, -0.017893359065055847, 0.009663502685725689, -0.011644035577774048, 0.006671316456049681, 0.007621811702847481, 0.022776884958148003, 0.01698295585811138, 0.05956677347421646, -0.027753477916121483, -0.016541434451937675, 0.016022710129618645, 0.021638518199324608, -0.013283384963870049, 0.018675057217478752, -0.014490148052573204, 0.0074217189103364944, 0.015756620094180107, 0.006802295800298452, -0.012482901103794575, 0.033465124666690826, -0.009769752621650696, 0.026625821366906166, -0.008375377394258976, 0.00943048670887947, -0.01997079700231552, -0.020327484235167503, -0.031293436884880066, 0.02245364896953106, -0.020968884229660034, 0.01969897374510765, -0.012186977081000805, -0.017490677535533905, 0.006702913902699947, 0.012340201996266842, -0.012098424136638641, 0.019191093742847443, -0.01204110961407423, -0.010722141712903976, -0.01915697194635868, -0.07513945549726486, -0.006424258928745985, -0.007520289160311222, -0.070121631026268, -0.07692915201187134, -0.006536561064422131, 0.03231753781437874, -0.007427081931382418, -0.03066122718155384, -0.006898379884660244, 0.02596854604780674, 0.07595910876989365, 0.010782255791127682, -0.015430654399096966, 0.009827878326177597, 0.006993495859205723, 0.01826944388449192, 0.007824404165148735, 0.015955587849020958, 0.009983303025364876, 0.021344272419810295, -0.026606958359479904, 0.015500214882194996, -0.01138222310692072, 0.01037153322249651, -0.018309015780687332, 0.023424305021762848, -0.019861457869410515, -0.009201434440910816, -0.06550028920173645, 0.017173688858747482, 0.07089980691671371, 0.014463667757809162, -0.009307618252933025, 0.009709538891911507, -0.0177288968116045, -0.008663120679557323, 0.07322049885988235, 0.012772651389241219, -0.06030997261404991, 0.04311147704720497, -0.012644216418266296, 0.016369275748729706, -0.012777730822563171, 0.00764664588496089, -0.006129601504653692, -0.017257321625947952, -0.007775240112096071, -0.008087070658802986, -0.01088640931993723, 0.00880754366517067, -0.02700999192893505, 0.014917336404323578, -0.01156602706760168, -0.008978105150163174, -0.01945193111896515, -0.016524355858564377, -0.02363157831132412, 0.015419152565300465, -0.01964906044304371, 0.0300973579287529, -0.012206641025841236, 0.006089933682233095, -0.012851701118052006, 0.02342815324664116, -0.02515997551381588, -0.014158259145915508, 0.011952841654419899, 0.010374090634286404, -0.00840628519654274, 0.019945941865444183, -0.00823725014925003, 0.006210677325725555, -0.019503865391016006, 0.019307320937514305], [0.00460265064612031, 0.022778285667300224, -0.01382248755544424, 0.005613079760223627, -0.004180253949016333, 0.002703822683542967, 0.008074446581304073, 0.0006286332500167191, -0.00400854367762804, -0.04100951552391052, 0.0019018185557797551, 0.02166731283068657, -0.000662442937027663, 0.0026742778718471527, -0.0008505073492415249, 0.0021111113019287586, -0.003550878493115306, 0.0017493620980530977, 0.015396453440189362, 0.0049710385501384735, 0.006231170613318682, 0.0070233698934316635, -0.007919306866824627, -0.005169693846255541, 0.003365993034094572, 0.002107582287862897, -0.0007265615276992321, 0.003342242678627372, -0.00045530704664997756, 0.003049599938094616, 0.005753275007009506, 0.010279888287186623, -0.0022089642006903887, 0.008355729281902313, -0.007619886193424463, 0.0003368141478858888, -0.031805239617824554, 0.0012315335916355252, -0.003926567733287811, -0.003102121641859412, -0.0027084157336503267, 0.010383201763033867, -0.0004408910172060132, 0.00048429612070322037, -0.009345373138785362, -0.0014815069735050201, 0.009227204136550426, 0.004545547533780336, -0.012613625265657902, 0.0017276196740567684, -0.00239842408336699, -0.017283519729971886, -0.01407194696366787, -0.0005950953927822411, -0.007002724800258875, -0.005063959863036871, -0.052201349288225174, -0.029345441609621048, -0.0066210865043103695, 0.0015821142587810755, -0.003702328773215413, -0.0080410810187459, -0.0019310642965137959, 0.007401924580335617, 0.008180604316294193, 0.0044990102760493755, -0.018793780356645584, 0.04746052622795105, 0.010029496625065804, 0.007043691352009773, 0.0053731780499219894, 0.005018080119043589, 0.001975859282538295, 0.002813170664012432, -0.0014125064481049776, 0.005104951094835997, -0.00581946549937129, 0.0011029194574803114, -0.009576229378581047, 0.0006542887422256172, -0.011804111301898956, -0.004713091999292374, -0.018566254526376724, 0.0027657204773277044, 0.0009408427285961807, 0.0014523854479193687, -0.0009668445563875139, 0.003656650660559535, -0.01612769439816475, -0.00817470159381628, 0.0011310353875160217, 0.010315555147826672, -0.0007728020427748561, 0.00015661587531212717, -0.002747845835983753, 0.003219401929527521, -0.037116535007953644, 0.0005720029585063457, -0.008913609199225903, -0.003701276844367385, -0.005895741283893585, -0.003256671829149127, -0.008604433387517929, 0.005013869144022465, -0.030710801482200623, 0.0071242209523916245, -0.004685891326516867, -0.011213714256882668, -0.003503595944494009, -0.0006957959267310798, -0.004651709459722042, 0.00823681615293026, -0.012762362137436867, 0.000883864238858223, -0.003760906867682934, 0.007508433889597654, -0.006617962848395109, 0.0016511415597051382, -0.00018613804422784597, -0.0021668621338903904, 0.0019360941369086504, 0.0295735914260149, -0.005242463666945696, 0.0012831646017730236, -0.002603145083412528, 0.007824044674634933, -0.004139606840908527, 0.0009754284983500838], [0.0041551110334694386, 0.006102010607719421, -0.02876567840576172, 0.016052275896072388, -0.0009711277089081705, 0.001240842742845416, 0.008425275795161724, 0.0004948024288751185, -0.006721189245581627, -0.032701436430215836, 0.00019530282588675618, 0.02015220932662487, -0.0007241562707349658, 0.003497465280815959, -0.0012172814458608627, 0.003842251840978861, -0.011309598572552204, 0.0006814634543843567, 0.0018703237874433398, 0.008905308321118355, 0.003794769523665309, 0.02424665167927742, -0.007780064363032579, -0.010210891254246235, 0.026765277609229088, 0.0014320618938654661, -0.00034722150303423405, 0.014733817428350449, -0.0007281518192030489, 0.02212531305849552, 0.0031067414674907923, 0.012545418925583363, -0.0019267575116828084, 0.01868622936308384, -0.005544820334762335, 0.0006806824239902198, -0.005202195607125759, 0.0001949561556102708, -0.031604766845703125, -0.003043767996132374, -0.004722371697425842, 0.027304712682962418, -0.00029566348530352116, 0.0016175552736967802, -0.0006761216791346669, -0.0016540666110813618, 0.005560416728258133, 0.0034703605342656374, -0.003064206102862954, 0.0006945921923033893, -0.012745282612740993, -0.0038300524465739727, -0.005471768788993359, -0.001535693067125976, -0.00228811870329082, -0.007505514658987522, -0.004435269627720118, -0.0013454308500513434, -0.01484103687107563, 0.0021168640814721584, -0.0023952447809278965, -0.0019446746446192265, -0.0032878993079066277, 0.0019079971825703979, 0.004299529828131199, 0.009877272881567478, -0.0058101327158510685, 0.02495800517499447, 0.03682498261332512, 0.00816681794822216, 0.011667316779494286, 0.001686034956946969, 0.002202383941039443, 0.00034381277509965, -0.0013632146874442697, 0.007369724102318287, -0.01668355241417885, 8.837960922392085e-05, -0.03189438581466675, 0.00096331030363217, -0.010964613407850266, -0.015272721648216248, -0.006481228396296501, 0.0011756358435377479, 0.0007350320229306817, 3.196789839421399e-05, -0.001704916125163436, 0.034512925893068314, -0.00859805103391409, -0.009993313811719418, 0.0011935830116271973, 0.007247719913721085, -0.0006731662433594465, 0.0007721976144239306, -0.014372425153851509, 0.022431476041674614, -0.01968223601579666, 0.0005367542034946382, -0.008955194614827633, -0.02801685780286789, -0.019249629229307175, -0.0032199316192418337, -0.007189107593148947, 0.004154576919972897, -0.01473820861428976, 0.011810604482889175, -0.009373503737151623, -0.007449103984981775, -0.00022983551025390625, -0.0019483666401356459, -0.008000132627785206, 0.006428747903555632, -0.01611066795885563, 0.0011565908789634705, -0.006395808886736631, 0.008195562288165092, -0.012064442969858646, 8.967895701061934e-05, -0.0005748667172156274, -0.004596621263772249, 0.011202814988791943, 0.014378037303686142, -0.029845044016838074, 0.004343624226748943, -0.0030426206067204475, 0.029507264494895935, -0.002667149296030402, 0.00022578382049687207], [0.0017940910765901208, 0.0030355299822986126, -0.0014580286806449294, 0.004252445884048939, -0.0024175450671464205, 0.0012540520401671529, 0.002643594751134515, 0.001994007732719183, -0.0025731222704052925, -0.0059624710120260715, 0.0007997372886165977, 0.008654139004647732, -0.0011523561552166939, 0.003181367414072156, -0.002295501995831728, 0.0023576838430017233, -0.0030580400489270687, 0.003687584539875388, 0.004053006414324045, 0.0034337646793574095, 0.005200064741075039, 0.007422068156301975, -0.0022569550201296806, -0.0014376862673088908, 0.002958426484838128, 0.0027765671256929636, -0.0011713597923517227, 0.004584455396980047, -0.00155169446952641, 0.0027758690994232893, 0.0064008114859461784, 0.005611811298877001, -0.0026777421589940786, 0.0038130776956677437, -0.0016572647728025913, 0.0009287791326642036, -0.005506508983671665, 0.0015916854608803988, -0.0027632873971015215, -0.002627788344398141, -0.0014836540212854743, 0.0011904793791472912, -0.00023254142433870584, 0.0012708456488326192, -0.0031807501800358295, -0.0015004124725237489, 0.0011780866188928485, 0.0022535868920385838, -0.004891778342425823, 0.0026697672437876463, -0.0029514904599636793, -0.0018273191526532173, -0.003425019094720483, -0.0005655147251673043, -0.001154577825218439, -0.0009446289041079581, -0.013202770613133907, -0.00043140145135112107, -0.0022029725369066, 0.0017146019963547587, -0.0026527303270995617, -0.0038207045290619135, -0.0029802899807691574, 0.002846800722181797, 0.0015870785573497415, 0.0037111216224730015, -0.0031927446834743023, 0.003359439317137003, 0.0036912253126502037, 0.0010249568149447441, 0.0006546361255459487, 0.0015847135800868273, 0.002091713948175311, 0.0014478544471785426, -0.0012423655716702342, 0.002443532692268491, -0.0034208165016025305, 0.0011765981325879693, -0.0015862872824072838, 0.00034880757448263466, -0.0018804821884259582, -0.0012050779769197106, -0.0016410567332059145, 0.0017885310808196664, 0.00032553484197705984, 0.0018022321164608002, -0.002299641724675894, 0.004261606372892857, -0.0028386367484927177, -0.0013329909415915608, 0.0012853489024564624, 0.0012759582605212927, -0.00020491697068791837, 0.0008029504679143429, -0.0021124037448316813, 0.0020421301014721394, -0.0014489901950582862, 4.5428823796100914e-05, -0.0017503640847280622, -0.004883956164121628, -0.0018173292046412826, -0.002780614886432886, -0.0030848169699311256, 0.0026436743792146444, -0.0015351963229477406, 0.0014809452695772052, -0.0018389411270618439, -0.0059181819669902325, -0.0018005779711529613, -0.0022583852987736464, -0.0014976466773077846, 0.003171450924128294, -0.001327697653323412, 0.0015712428139522672, -0.005066929385066032, 0.0033377271611243486, -0.003751237178221345, 0.003870209911838174, -0.0020943847484886646, -0.0009746513096615672, 0.0018205655505880713, 0.005921534728258848, -0.009290819987654686, 0.00135430961381644, -0.0031765189487487078, 0.002947028260678053, -0.00313919922336936, 0.00101267930585891], [-8.336538303410634e-05, -0.00010771750385174528, 6.067584399715997e-05, -0.00014923546405043453, -1.1820692407127353e-06, -4.193746281089261e-05, -5.237278401182266e-06, -3.952919360017404e-05, 0.00022270558110903949, 0.0001218239776790142, -2.1452597138704732e-05, -5.085648808744736e-05, 2.7537327696336433e-05, -0.0001285886246478185, 3.4413038520142436e-05, -7.446135714417323e-05, 4.434703805600293e-05, -1.9959212295361795e-05, -2.15054187719943e-05, -2.489174949005246e-05, -7.56332656237646e-06, -0.0001391026598867029, 6.358930113492534e-05, 2.933725409093313e-05, -0.0002938468533102423, -3.726002250914462e-05, -6.345599103951827e-07, -4.67300669697579e-05, 3.140794797218405e-05, -0.00010870176629396155, -0.00011696332512656227, -0.00017214592662639916, 1.7153464796137996e-05, -2.927262721641455e-05, -5.6227759159810375e-06, -2.9914110655226978e-06, 5.636391506413929e-05, 6.129132088972256e-06, 0.00014750963600818068, -1.3111839507473633e-06, 6.250009028008208e-05, -0.0001701171713648364, 6.36895711068064e-05, -5.990741101413732e-06, 3.6783596897294046e-06, -1.3951744222140405e-06, -0.00031029185629449785, -9.397012036060914e-05, 2.735246562224347e-05, -1.0580211892374791e-05, 3.158760227961466e-05, 2.250803299830295e-05, 4.9175185267813504e-05, 2.4212064090534113e-05, 4.730695945909247e-05, 2.3096332370187156e-05, 7.070018182275817e-05, 4.441276178113185e-05, -9.228216185874771e-06, -3.766801819438115e-05, 0.0001418158208252862, 0.00019014751887880266, 0.00014943645510356873, -2.1838998236489715e-06, -3.6917532270308584e-05, 4.970175723428838e-06, 8.350121788680553e-05, -5.277216405374929e-05, -7.847001688787714e-05, -3.2367817766498774e-05, -0.00012512505054473877, -2.114762901328504e-05, -7.709256169619039e-05, -4.194768189336173e-05, 2.2498627004097216e-05, -7.942695083329454e-05, 0.00010847319208551198, 5.706168394681299e-06, 5.3628817113349214e-05, -6.7709529503190424e-06, 0.00013440636394079775, 5.4227508371695876e-05, 6.240751827135682e-05, -3.4693042834987864e-05, -1.540188713988755e-05, -4.075399920111522e-05, 2.335323551960755e-05, -1.9467115635052323e-06, 2.236379987152759e-05, 6.587794632650912e-05, -1.1928304047614802e-05, -0.00023396286997012794, 4.848846947425045e-05, -1.588722807355225e-05, 8.193730900529772e-05, -5.5022446758812293e-05, 6.232746818568558e-05, -2.2538210032507777e-05, 8.943030115915462e-05, 5.440026143332943e-05, 0.00020428925927262753, 1.4796152754570358e-05, 0.00010277637193212286, -2.9883278784836875e-06, -7.32773457912117e-07, -6.234725879039615e-05, 7.32956732463208e-06, 7.645241566933692e-05, 6.65977640892379e-05, 6.520623173855711e-06, 0.0001543095422675833, -5.020699518354377e-06, 1.818105192796793e-05, -6.212761036294978e-06, 2.8564236345118843e-05, 1.7329408365185373e-05, 0.0001101830494008027, -9.588239481672645e-05, 3.666370321298018e-05, 0.00011366390390321612, -4.7168337914627045e-05, -5.5040331062627956e-05, 0.00021315204503480345, -1.3576967830886133e-05, 0.00019473725114949048, -9.504226909484714e-05, 7.788562652422115e-05, -0.0001513180905021727], [0.07522605359554291, 0.013775812461972237, -0.023394005373120308, 0.07051597535610199, -0.015962082892656326, 0.042243681848049164, 0.04009506478905678, 0.025571968406438828, -0.026047708466649055, -0.013146168552339077, 0.06671348214149475, 0.019714219495654106, -0.02330419048666954, 0.013005714863538742, -0.06230679154396057, 0.06874058395624161, -0.0695604458451271, 0.02940375730395317, 0.08477521687746048, 0.05247315764427185, 0.0724887102842331, 0.015474112704396248, -0.06910724937915802, -0.01433579158037901, 0.04374213144183159, 0.07733791321516037, -0.06789447367191315, 0.012716702185571194, -0.06544793397188187, 0.08291171491146088, 0.07514724135398865, 0.026949023827910423, -0.07396039366722107, 0.01733546145260334, -0.07169365882873535, 0.060768984258174896, -0.0796545147895813, 0.06218644976615906, -0.01207520067691803, -0.0816248282790184, -0.04254620894789696, 0.014943555928766727, -0.07078409194946289, 0.07391415536403656, -0.016832979395985603, -0.07052050530910492, 0.011889643035829067, 0.05701756849884987, -0.0690208300948143, 0.019140230491757393, -0.07952301949262619, -0.03143082559108734, -0.06725018471479416, -0.0574447363615036, -0.05876899138092995, -0.084120012819767, -0.07027052342891693, -0.07468462735414505, -0.0763130784034729, 0.060834161937236786, -0.016567125916481018, -0.04776221513748169, -0.07209895551204681, 0.06693960726261139, 0.09443512558937073, 0.012313161045312881, -0.0641835406422615, 0.09266387671232224, 0.012778044678270817, 0.07800031453371048, 0.019899167120456696, 0.015459036454558372, 0.04802335053682327, 0.0696575716137886, -0.06471472978591919, 0.06583408266305923, -0.028681494295597076, 0.06072055548429489, -0.06651528179645538, 0.06462083011865616, -0.06631375104188919, -0.06814200431108475, -0.011499018408358097, 0.013883023522794247, 0.06786324083805084, 0.06580384820699692, -0.07099419087171555, 0.011014625430107117, -0.012994226068258286, -0.05201657861471176, 0.08219737559556961, 0.06910043954849243, -0.06553854793310165, 0.06502344459295273, -0.07740525901317596, 0.06524147838354111, -0.08422797173261642, 0.06743957102298737, -0.0686030164361, -0.0395430289208889, -0.016686683520674706, -0.08839822560548782, -0.044406261295080185, 0.02666514180600643, -0.0710124745965004, 0.011022183112800121, -0.06688256561756134, -0.09099388122558594, -0.046920936554670334, -0.06914865970611572, -0.011865198612213135, 0.0412004180252552, -0.07333126664161682, 0.07520003616809845, -0.057956039905548096, 0.044098228216171265, -0.06678030639886856, 0.0689980760216713, -0.06974118947982788, -0.01191907562315464, 0.060364577919244766, 0.026963626965880394, -0.01953878439962864, 0.07046476006507874, -0.08134873956441879, 0.07780957967042923, -0.04630375653505325, 0.06983280926942825], [-0.00025575284962542355, -0.00042033291538245976, 0.0006427877233363688, -0.0008190800435841084, 0.0004053637385368347, -0.00028753018705174327, -0.0006965255597606301, -0.0004567570285871625, 0.0004682553408201784, 0.0008484410354867578, -0.0007796994177624583, -0.00016213819617405534, 0.0007950510480441153, -9.461814624955878e-05, 9.35079951887019e-05, -0.0002512316277716309, 0.00023781208437867463, -0.00025765271857380867, -0.0006032285746186972, -0.0004171525069978088, -0.0005880568642169237, -0.00045689099351875484, 0.0003898372233379632, 5.538538607652299e-05, -0.00017221133748535067, -0.00028582633240148425, 0.00037851958768442273, -0.00047136968350969255, 0.00036232307320460677, -0.0004039743507746607, -3.089194797212258e-05, -0.0014334141742438078, 0.0008473893394693732, -0.0006065550842322409, 0.00040187552804127336, -0.00010410316463094205, 0.001051694736815989, -0.0004459303745534271, 0.000574902689550072, 9.953087283065543e-05, 0.001003251993097365, -0.0005413576145656407, 0.00019823905313387513, -1.9820632587652653e-05, 4.1125647840090096e-05, 0.0001718209678074345, -0.0008730974514037371, -0.00030637194868177176, 0.0012205690145492554, -0.00036636623553931713, 0.0001522832753835246, 0.00028142245719209313, 8.491873450111598e-05, 0.0006100047030486166, 0.0006782026612199843, 0.0006362741114571691, 0.00016777201381046325, 0.000528372882399708, 0.0006469685467891395, -0.0008605018374510109, 0.0008348605479113758, 0.00043295518844388425, 0.0005249556270428002, -0.000130373882711865, -0.0005472336779348552, -0.0004959307261742651, 0.00017238060536328703, -2.9181306672398932e-05, -0.0001313223474426195, -0.0005676820292137563, -0.0008784351521171629, -0.00037750942283309996, -0.00012671598233282566, -0.0006355941295623779, 0.0006073805270716548, -4.918059130432084e-05, 7.189139432739466e-05, -0.00038559443783015013, 0.0005123813170939684, -0.0006169851403683424, 0.0007302830344997346, 0.0005067237070761621, 0.00030879786936566234, -0.0003638311172835529, -7.606582948938012e-05, -5.1424703997327015e-05, 0.00022541645739693195, -0.0005000491510145366, 0.0007386400830000639, 2.2430671378970146e-05, -0.0003067439829465002, -0.00037532398710027337, 0.0003863255260512233, -0.00018732287571765482, 0.0004991290625184774, -0.00014613736129831523, 0.0010432987473905087, -0.00047022965736687183, 6.110837421147153e-05, 0.0002200301387347281, 0.0005089335609227419, 0.001471222029067576, 9.475767001276836e-05, -0.00033704127417877316, 0.00017199663852807134, -0.0006290622404776514, 0.0009164784569293261, 1.954135404957924e-05, 0.0001254744129255414, 0.0008890104363672435, 0.00023246197088155895, -2.3321914341067895e-05, 0.0006336513324640691, -0.0002469364844728261, 0.0004168313171248883, -5.8437271945877e-05, 0.0005675305728800595, -0.0009565906948409975, 0.0005773981683887541, 0.00012969720410183072, -0.00021735159680247307, -0.0007195597281679511, 0.00039275511517189443, -0.0006768674356862903, 0.0005171108641661704, -0.001839745556935668, 0.0008587597985751927, -9.519887680653483e-05], [6.610982381971553e-05, 0.0005343175726011395, -0.0003380343841854483, 2.4646376914461143e-05, -0.00027690763818100095, 0.00037603097734972835, 0.000312440242851153, 0.000126506551168859, -0.0001207355089718476, -6.825750460848212e-05, 0.00063799083000049, 0.0002453537017572671, -0.0002921036211773753, 8.983712177723646e-05, -4.931809235131368e-05, 0.00035632055369205773, -0.00048358115600422025, 4.10876891692169e-05, 0.00024233855947386473, 0.00028704223223030567, 0.0007130330195650458, 0.0001676875544944778, -0.00016235864313784987, -0.00011558317055460066, 2.285002665303182e-05, 0.00011175430699950084, -3.9760165236657485e-05, 0.00011922587873414159, -0.00040105724474415183, 0.0004979792865924537, 0.0006489480147138238, 0.0003131364064756781, -0.000553347053937614, 0.00024803131236694753, -0.0003198326157871634, 0.00046279188245534897, -0.00056401954498142, 0.00044593855272978544, -0.0009275516495108604, -0.0003231478913221508, -4.607797109201783e-06, 1.2298383808229119e-05, -0.00023338725441135466, 4.03820695282775e-06, -0.0002409465378150344, -0.000186819102964364, 0.0003318784583825618, 0.000128482177387923, -0.00023316046281252056, 8.248872472904623e-05, -0.00015228790289256722, -0.0002902910055126995, -0.0001283714664168656, -0.000278720777714625, -0.00043473977711983025, -0.0003566982923075557, -6.567774107679725e-05, -0.0011255430290475488, -0.0008076310623437166, 8.085536137514282e-06, -0.00012909148063044995, -8.384620741708204e-05, -0.0002596030244603753, 0.00013377466530073434, 0.0001818427408579737, 7.748333700874355e-06, -0.00020567140018101782, 0.0003495147975627333, 0.00026585007435642183, 0.00016720376152079552, 0.0004027032991871238, 0.00035995044163428247, 3.713839760166593e-05, 0.00014119913976173848, -0.0001703566376818344, 0.0002808415738400072, -9.672898886492476e-05, 0.00034070166293531656, -0.0006874839309602976, 0.00013261519779916853, -0.0006707938737235963, -0.0005618545692414045, -0.00012537487782537937, 0.0003640335926320404, 6.505434430437163e-05, 0.0002400484518148005, -2.9859475034754723e-05, 0.00028547010151669383, -5.22984737472143e-05, -0.000585775647778064, 3.8914520700927824e-05, 0.00025026299408636987, -3.5810701319860527e-06, 0.00014209347136784345, -0.0002031573822023347, 0.0008526227902621031, -0.00030404378776438534, 0.0003978383319918066, -0.00025358377024531364, -0.0004742233140859753, -0.00018720110529102385, -0.0006789462058804929, -0.0005457333172671497, 0.00032598813413642347, -0.0006882649613544345, 0.00022905047808308154, -0.0002616066485643387, -0.00015065654588397592, -0.0003787883906625211, -0.00047855437151156366, -0.0004433415306266397, 0.0002083230356220156, -0.00012706869165413082, 0.0007064903038553894, -0.0017388955457136035, 0.0002924823493231088, -0.0015778533415868878, 0.0003341838310007006, -0.00018977330182678998, -0.0010018598986789584, 0.00024036453396547586, 9.329657768830657e-05, -0.0006890964577905834, 0.00012456202239263803, -0.00022826652275398374, 3.199334241799079e-05, -0.0003350666374899447, 0.0002616661076899618], [-0.0005856937495991588, -0.000564385496545583, 0.0007158757071010768, -0.0009790553012862802, 9.47224980336614e-05, -0.0007220522966235876, -0.0005970757920295, -1.6894087821128778e-05, 0.0007413641433231533, 0.0008264242787845433, -0.0009659756906330585, -0.00047412150888703763, 5.917918315390125e-05, -0.0001666611060500145, 0.0002318404003744945, -9.745042189024389e-05, 0.00041411930578760803, -0.0015496695414185524, -0.0006883199675939977, -0.00036580447340384126, -0.0010030079865828156, -0.0008677873993292451, 0.001025899313390255, 0.0009464511531405151, -0.0008075647638179362, -0.0011526631424203515, 0.00019252742640674114, -0.002156697679311037, 0.0002625025517772883, -0.0005664718919433653, -0.0008889594464562833, -0.00027374326600693166, 0.0004531895974650979, -0.00045075881644152105, 0.0014541527489200234, -0.00027071780641563237, 0.0008214564295485616, -0.0004580573586281389, 0.0024866999592632055, 0.0013936319155618548, 0.0003767327289097011, -0.0005282397614791989, 0.0005943800206296146, -0.0006617462495341897, 0.0005076505476608872, 0.00036932039074599743, -0.00017980378470383584, -0.0006857062689960003, 0.004126697313040495, -0.0013226879527792335, 0.00036834232741966844, 0.0005192363751120865, 0.0006464053876698017, 0.00022982485825195909, 0.0009082363685593009, 5.503954162122682e-05, 0.0019621190149337053, 0.0003055334382224828, 0.001481086714193225, -0.0005066319135949016, 0.0003685278643388301, 0.0008562586735934019, 0.000984308193437755, -0.0001298623828915879, -0.0013136743800714612, -0.00022525769600179046, 0.0008176573901437223, -0.0013468792894855142, -0.0010087352711707354, -7.098836067598313e-05, -0.0023102082777768373, -0.0009534714045003057, -0.0009252101881429553, -0.00015751001774333417, 7.246687164297327e-05, -0.0009288216242566705, 0.0005340673378668725, -0.00030549729126505554, 0.0016052199061959982, -0.0003083667252212763, 0.0006733823684044182, 0.0010277897818014026, 0.001478236517868936, -0.00018470441864337772, -0.0003974143182858825, -0.00039424668648280203, 0.000854208308737725, -0.0009311158792115748, 0.0014742630301043391, 0.0016532184090465307, -0.0003937973524443805, -0.0005576923140324652, 0.0002647325163707137, -0.0003129226970486343, 0.0004468904808163643, -0.00014842428208794445, 0.0003788883041124791, -0.0005241428152658045, 0.00011365779937477782, 0.0004687379114329815, 0.0007448475807905197, 0.0006944886408746243, 0.0007874434813857079, -0.0014638504944741726, 0.0004434367292560637, -0.0002133850211976096, 0.0017866615671664476, 6.559644680237398e-05, 0.0010844016214832664, 6.436024705180898e-05, 0.00040620774962008, -0.0005550769856199622, 9.085980127565563e-05, -0.00046587729593738914, 0.006320544518530369, -0.001342952367849648, 0.0008087352616712451, -0.0005173318786546588, 0.0003717005020007491, 0.00023888608848210424, -0.0009705806151032448, -0.0008245545905083418, 0.00015889831411186606, -0.0012171015841886401, 0.0003275109047535807, -0.000576400721911341, 0.0007992918835952878, -0.0008621253655292094], [3.4158132621087134e-05, 3.7902955227764323e-06, -1.1689763596223202e-05, 6.230638973647729e-05, -4.025304951937869e-05, 0.00012398103717714548, 2.2219350285013206e-05, 4.760264346259646e-05, -3.811638453043997e-05, -0.00019579337094910443, 0.00014792104775551707, 5.837401113240048e-05, 1.5178127341641812e-06, 1.747858505041222e-06, -3.64461011486128e-05, 7.595813804073259e-05, 6.344871962937759e-06, 0.00018582500342745334, 5.1167608035029843e-05, 6.984543870203197e-05, 0.00016594238695688546, -5.592509296548087e-06, -0.00019640408572740853, -3.0171293474268168e-05, 4.3989024561597034e-05, 1.1156561185998726e-06, -4.7758574510226026e-05, 2.4977558496175334e-05, -0.00017512041085865349, 0.00023023347603157163, 4.129175067646429e-05, 5.095399683341384e-05, -4.5612192479893565e-05, 5.740107371821068e-05, -7.273973460542038e-05, 3.136619852739386e-05, -5.4240267388649954e-08, 4.670164912567998e-07, -6.620504427701235e-05, -1.212578354170546e-05, -8.848041034070775e-05, 4.62001989944838e-05, -3.203693268005736e-05, 6.613411824218929e-05, -3.602603464969434e-05, -5.7308301620651037e-05, 1.834175236581359e-05, 9.515513374935836e-05, -1.5998737580957823e-05, 4.596970393322408e-05, -3.40232509188354e-06, -0.00010323420428903773, -1.7928798115462996e-05, -4.384434942039661e-05, -0.0003021102165803313, -0.00011024502600776032, 1.2286043329368113e-06, -0.0001087534983525984, -3.8550842873519287e-05, -1.5335367606894579e-06, -6.826291792094707e-05, -5.337763286661357e-05, -5.127595068188384e-05, 2.9240231015137397e-05, 0.00012693488679360598, 1.5687523045926355e-05, -3.307773658889346e-05, 0.0001593803463038057, 8.144207822624594e-05, 8.331659046234563e-05, 5.9373691328801215e-05, 4.235645610606298e-05, 7.456119783455506e-05, 4.395352880237624e-05, -2.900614526879508e-05, 0.00024360338284168392, -7.329745130846277e-05, 2.3687693101237528e-05, -0.00014514093345496804, 5.4444277338916436e-05, -9.34849085751921e-05, -8.820048242341727e-05, -0.00012460786092560738, 7.270654896274209e-05, 0.00010663880675565451, 2.3141563360695727e-05, -4.881476706941612e-05, 8.399402577197179e-05, -7.651235500816256e-05, -0.00020036715432070196, 1.9530461941030808e-05, 6.799731636419892e-05, -9.978886373573914e-05, 0.00012871976650785655, -0.00010007150558521971, 9.742150723468512e-05, -0.00032905390253290534, -1.6135845726239495e-07, -3.3301490475423634e-05, -6.407983164535835e-05, -0.00020847306586802006, -4.986268686479889e-05, 2.761830728559289e-06, -2.1510329588636523e-06, -0.00019599159713834524, 6.369207403622568e-05, -8.246670040534809e-05, -5.17621410836e-05, -3.306764119770378e-05, -2.7531450541573577e-06, -2.568718082329724e-05, 5.2322462579468265e-05, -6.14200544077903e-05, 2.7172104637429584e-06, -0.00030584700289182365, 7.082604861352593e-05, -7.518339407397434e-05, 5.540092388400808e-05, -4.467776670935564e-05, -5.126521136844531e-05, 5.9692407376132905e-05, 0.00021823740098625422, -0.00013928351108916104, 3.3324180549243465e-05, -5.691477781510912e-05, 0.0001554308255435899, -8.28882766654715e-05, 0.0001118123036576435], [1.0289903002558276e-05, 2.9871680453652516e-05, -0.00018400470435153693, 0.00015747715951874852, -1.245371277036611e-05, 9.79983524302952e-05, 4.574366903398186e-05, 1.816720214264933e-05, -1.4204998706190963e-06, -1.1004889529431239e-05, 1.3732395700571942e-06, 9.732133185025305e-05, -2.056303492281586e-05, -3.0927214993425878e-06, -3.7686454561480787e-06, -1.0312873200746253e-05, 2.711436536628753e-06, 1.9478180547594093e-05, 1.2286956007301342e-05, 3.846663821605034e-05, 2.7306985430186614e-05, 2.0980252884328365e-05, -0.00014093953359406441, -1.978729233087506e-05, 0.0001426351082045585, 2.9186971005401574e-05, -7.911109605629463e-06, 9.632726141717285e-05, -3.7148398405406624e-05, -1.769064874679316e-05, 6.405848398571834e-05, -1.06296174635645e-05, -8.96504643606022e-05, 2.924432556028478e-05, -1.9534196326276287e-05, -3.438125531829428e-06, 7.501744221372064e-07, 8.483724741381593e-06, 7.204798748716712e-06, -2.3896118364064023e-05, 3.7488707675947808e-06, -1.3059104276180733e-05, -7.284156708919909e-06, 2.422584111627657e-05, -6.537120043503819e-06, -2.6986330340150744e-05, 5.0429251132300124e-05, 1.0376904356235173e-05, -2.3449883883586153e-05, 8.838618668960407e-06, -1.593013394085574e-06, -1.9576795239117928e-05, -7.471560093108565e-05, -3.081107024627272e-06, -2.2284423266683007e-06, -1.6905806887734798e-06, 8.364982932107523e-06, -4.457942122826353e-05, -3.6820874811382964e-05, 2.907354610215407e-05, -4.223890937282704e-05, -6.430809298763052e-05, -3.688852666527964e-05, 2.8475233193603344e-05, 7.3939481808338314e-06, 3.2825055313878693e-06, -3.7048750527901575e-05, 1.2385857189656235e-05, 3.367879617144354e-05, 2.4753237084951252e-05, 6.140700406831456e-06, 8.329690899699926e-05, -6.250503474802827e-07, 1.1913080015801825e-05, 2.7232258617004845e-06, 9.951443644240499e-05, 4.7186113079078496e-06, -1.1778072348533897e-06, -9.752781625138596e-05, 6.046087946742773e-06, 1.6873798813321628e-05, -2.3019356376607902e-05, -7.403946074191481e-05, 1.8837627067114227e-05, 4.526902921497822e-05, 2.5922845452441834e-05, -1.3384417343331734e-06, 8.05756644695066e-06, -3.2901134545682e-05, -3.977171581937e-05, 6.3433449213334825e-06, 7.753669342491776e-05, 4.947708930558292e-06, 7.170000753831118e-05, -6.739773380104452e-05, 9.21431856113486e-05, -1.4076286788622383e-05, -1.4804940065005212e-06, -6.627157563343644e-05, -4.231192360748537e-05, -5.776496618636884e-05, -2.787794073810801e-05, -1.1961187738052104e-05, -1.0773796020657755e-05, -7.948386337375268e-05, 4.2265783122275025e-05, 8.426455679000355e-06, -1.6408826922997832e-05, 8.203956895158626e-06, 1.833231067394081e-06, -2.939645355581888e-06, 3.2258987630484626e-05, -3.882032979163341e-05, 9.571197551849764e-06, -5.188261638977565e-05, 3.3510441426187754e-05, -4.866310700890608e-05, 2.1121670215507038e-05, -9.85208862402942e-06, -1.192326089949347e-05, 1.2579618669406045e-05, -5.752217020926764e-06, 8.792178050498478e-06, 3.6051056667929515e-05, -5.013901045458624e-06, 3.101213223999366e-05, -2.944516745628789e-05, 3.538921009749174e-05], [0.001412724144756794, 0.0008685957873240113, -0.0017470016609877348, 0.0008174844551831484, -0.0010627344017848372, 0.000733687193132937, 0.0006843772134743631, 0.0008805947145447135, -0.0004626598092727363, -0.0009711955790407956, 0.0005818684003315866, 0.0023367763496935368, -0.000929464993532747, 0.00034146325197070837, -0.0001274840469704941, 0.0007367241196334362, -0.0002866141439881176, 0.0007786626229062676, 0.0012517033610492945, 0.0005840400699526072, 1.0437421224196441e-05, 0.001234500901773572, -0.000735026434995234, -0.00032316124998033047, 0.0004749528307002038, 0.001346304314211011, -0.0003735442878678441, 0.00013366878556553274, -0.00039722840301692486, 0.0009126322693191469, 0.001178485224954784, 0.0001164361965493299, -0.00011810439173132181, 0.0005753469886258245, -0.0007175461505539715, 0.0009289393783546984, -0.0005667894147336483, 0.00035071891034021974, -0.0009988963138312101, -0.0010015456937253475, -3.186500180163421e-05, 0.0014135424280539155, -0.0001513731840532273, 0.0011760712368413806, -0.0010535160545259714, -0.00024092262901831418, 0.0007158278021961451, 0.00031662688707001507, -0.0016132344026118517, 0.0006574312574230134, -0.0021730931475758553, -7.455921149812639e-05, -0.0006578542524948716, -0.0009447608608752489, -0.0008664942579343915, -0.00034600033541209996, -0.001845100661739707, -0.0013363136677071452, -0.00019852962577715516, 0.0009739705128595233, -0.0014919927343726158, -0.0006519464659504592, -9.56395742832683e-05, 0.0013417605077847838, 0.0004252334183547646, 0.0002621873572934419, -0.0005452854675240815, 0.002112099900841713, 0.0017916735960170627, 0.00038032978773117065, 0.0015643496299162507, 0.00010208833555225283, 0.0005285438965074718, 5.446802606456913e-05, -0.0005319836200214922, 0.0021211120765656233, -0.001944323885254562, 0.0004015114391222596, -0.0007562030805274844, 0.0005052923806942999, -0.0008386275148950517, -0.0002267718518851325, -0.001624066149815917, 6.7992823460372165e-06, 0.0008501078118570149, 0.0004042157670482993, -0.0005569852073676884, 0.000293328776024282, -0.0010600986424833536, -0.0008050957694649696, 0.0004292553348932415, 4.323716348153539e-05, -0.0002483390271663666, 0.0001651412167120725, -0.0003811279602814466, 0.0011506963055580854, -0.000706347287632525, 0.0005568064516410232, -0.00020721169130411, -0.000975558185018599, -0.0004223607829771936, -0.0008953757933340967, -0.0007995531777851284, 0.0009736344800330698, -0.000649866065941751, 0.0024623828940093517, -0.0005996240070089698, -0.0002576557162683457, -0.0004393674898892641, -4.583573172567412e-06, -0.002428323496133089, 0.00041817972669377923, -0.0016001540934666991, 0.0005712666315957904, -0.0008807695121504366, 0.00043928067316301167, -0.0017043764237314463, 0.001106469426304102, -0.0003216802724637091, -0.0008500168332830071, 0.00037384257302619517, 0.00019755713583435863, -0.0003840122080873698, 0.000138016403070651, -0.0016465331427752972, 0.000354855292243883, -0.0005842568352818489, 0.0005625135963782668], [0.005184454843401909, 0.00651185167953372, -0.01175486296415329, 0.007486913353204727, -0.003294485155493021, 0.011226756498217583, 0.011626815423369408, 0.003247315064072609, -0.00585115747526288, -0.008573598228394985, 0.0006350979674607515, 0.006766673643141985, -0.0007899290649220347, 0.004529839381575584, -0.001779471873305738, 0.004395341966301203, -0.012197591364383698, 0.00586339645087719, 0.0024554296396672726, 0.005611305125057697, 0.007921677082777023, 0.0093362582847476, -0.003270142711699009, -0.010141539387404919, 0.008847086690366268, 0.003803411265835166, -0.0007582290563732386, 0.009614100679755211, -0.0012365138391032815, 0.007672261446714401, 0.006900392472743988, 0.011523532681167126, -0.0026634016539901495, 0.009788138791918755, -0.0050757997669279575, 0.0011285481741651893, -0.005463168025016785, 0.0036653929855674505, -0.008206523023545742, -0.00537020992487669, -0.0046478998847305775, 0.008405175991356373, -0.0006562450435012579, 0.0014628861099481583, -0.0022275878582149744, -0.0010739710414782166, 0.00917176716029644, 0.00667924340814352, -0.004330907482653856, 0.0035238126292824745, -0.006573990453034639, -0.009754289872944355, -0.008054672740399837, -0.001487592002376914, -0.00775702903047204, -0.0056267366744577885, -0.01578630320727825, -0.005236236844211817, -0.0034708764869719744, 0.0038160940166562796, -0.006569352932274342, -0.009402322582900524, -0.00295026577077806, 0.007034690584987402, 0.0035992993507534266, 0.005773749202489853, -0.008716262876987457, 0.0045056878589093685, 0.010015188716351986, 0.005286701489239931, 0.003876161528751254, 0.003811716567724943, 0.0036371760070323944, 0.0023418553173542023, -0.0013186372816562653, 0.01139388419687748, -0.006531393621116877, 2.91519463644363e-05, -0.007788094226270914, 0.0013376778224483132, -0.007724595721811056, -0.006441864650696516, -0.004246994853019714, 0.001141084241680801, 0.00042838387889787555, 0.0007327706553041935, -0.004502818454056978, 0.008735316805541515, -0.005439979024231434, -0.009680597111582756, 0.0010453431168571115, 0.009152643382549286, -0.0004436112358234823, 0.0008384388638660312, -0.007251263130456209, 0.004470113664865494, -0.003412816906347871, 0.00048091274220496416, -0.0025895044673234224, -0.00805851723998785, -0.00905138161033392, -0.0058388966135680676, -0.007871856912970543, 0.005409912206232548, -0.006886277347803116, 0.006706215441226959, -0.006243630312383175, -0.008091498166322708, -0.004706925246864557, -0.004623915534466505, -0.005772517062723637, 0.005502817686647177, -0.006758989300578833, 0.0015013795346021652, -0.01674502342939377, 0.010906211100518703, -0.005531622562557459, 0.003997188992798328, -0.0006428216584026814, -0.0061131916008889675, 0.008741984143853188, 0.006671127863228321, -0.007914473302662373, 0.004960997030138969, -0.004011763725429773, 0.008630252443253994, -0.006048512179404497, 0.0008846437558531761], [-6.26250694040209e-05, -9.188388503389433e-05, 0.0006766557926312089, -3.685553019749932e-05, 0.0003571563574951142, -0.0008223653421737254, -0.0001360254973405972, -0.00022408035874832422, 5.3298303100746125e-05, 8.106619497993961e-05, -0.00022383200121112168, -0.00027259555645287037, 0.0002932138741016388, -3.3077154512284324e-05, 1.387826068821596e-05, -0.00010429312533233315, 0.0015290339943021536, -0.00025957118486985564, -0.00014550291234627366, -0.00026218441780656576, -0.0009870333597064018, -0.0005466074217110872, 0.0001341439929092303, 0.0018235475290566683, -0.0009918615687638521, -7.467885734513402e-05, 0.0003554424038156867, -0.00045418061199598014, 0.0002874602214433253, -0.0003903529141098261, -0.0002868878946173936, -0.0005090472986921668, 2.504903204680886e-05, -0.0005113196093589067, 0.00043347052996978164, -0.0006302363472059369, 0.00026104768039658666, -0.0008684228523634374, 0.0003136521845590323, 0.0001360991591354832, 0.0003013086097780615, -0.0002626058703754097, 0.000468310434371233, -0.0011380063369870186, 5.0677528633968905e-05, 0.0005121077410876751, -0.0003818824188783765, -0.000629005953669548, 0.000595323508605361, -0.00014222442405298352, 3.889806248480454e-05, 0.0004956737393513322, 0.0003516227880027145, 0.0005856313509866595, 0.0003324187418911606, 0.00020796795433852822, 0.0010882868664339185, 0.00035634770756587386, 5.9570320445345715e-05, -1.3182668226363603e-05, 0.00014273957640398294, 0.0009290886227972806, 0.0008143503800965846, -0.00033352538594044745, -4.2522227886365727e-05, -0.0004768313665408641, 0.0005622671451419592, -0.0009758764645084739, -0.000562829605769366, -0.00011631027155090123, -0.0005067544407211244, -0.00040505273500457406, -0.0006810104823671281, -4.814489875570871e-05, 0.00039032261702232063, -0.00032232972444035113, 0.0011491046752780676, -0.000491945305839181, 0.0003939961898140609, -0.0005524890148080885, 0.00033304374665021896, 0.0006056716665625572, 0.00013844655768480152, -5.10316931467969e-06, -7.654078217456117e-05, -6.457557901740074e-05, 0.000550620723515749, -3.9948477933648974e-05, 0.00037620842340402305, 0.0003717736981343478, -0.0006891246885061264, -0.0003009950160048902, 0.0006173287401907146, -0.00069422711385414, 3.981134432251565e-05, -0.00017804742674343288, 0.0002695593284443021, -0.000514066603500396, 1.4795371498621535e-05, 0.00012036562111461535, 0.00048299989430233836, 0.0004937999765388668, 0.0010071205906569958, -0.0002480298571754247, 0.0003226294065825641, -0.0013166156131774187, 0.0006050658994354308, 0.0008614264079369605, 0.00021933781681582332, 0.0001527555868960917, 0.0001790912210708484, -1.3572948773798998e-05, 0.00010049960837932304, -0.00014499921235255897, 0.0006276132771745324, -0.00029095058562234044, 0.00011582467413973063, -0.0002811462909448892, 0.00010230184852844104, 0.0002457225346006453, -0.00038674770621582866, -7.495587487937883e-05, 0.00013123691314831376, -0.000396990537410602, 0.0007891756249591708, -0.00011117462418042123, 0.0004483038792386651, -0.00031997510814107955], [0.0028493532445281744, 0.007655811496078968, -0.055324383080005646, 0.036691103130578995, -0.0001828663080232218, 0.00944309402257204, 0.00834360159933567, 0.0009423248702660203, -0.0002363312669331208, -0.046113912016153336, 0.0009228097624145448, 0.0387684591114521, -0.00014057995576877147, 0.0019628931768238544, -0.0009719234658405185, 0.0007532748277299106, -0.044981591403484344, 0.009188123047351837, 0.0011944649741053581, 0.00944991409778595, 0.025035055354237556, 0.03451251983642578, -0.02736966498196125, -0.026503438130021095, 0.06481388211250305, 0.0014668552903458476, -0.0006116688018664718, 0.027019716799259186, -0.0013105344260111451, 0.029523875564336777, 0.015892893075942993, 0.02596706710755825, -0.0006183010409586132, 0.037470731884241104, -0.0005312918219715357, 0.0003796564124058932, -0.0026270346716046333, 0.0010760152945294976, -0.04299234598875046, -0.0018556866561993957, -0.0006372579373419285, 0.013060924597084522, -0.0008360128267668188, 0.001452331431210041, -0.0007484948728233576, -0.0016299019334837794, 0.04565467685461044, 0.01614336669445038, -0.0551513247191906, 0.0013775292318314314, -0.023633871227502823, -0.0023727836087346077, -0.03831392526626587, -0.0003052750835195184, -0.02941516600549221, -0.0011825241381302476, -0.01491699181497097, -0.0013335493858903646, -0.03437541052699089, 0.0008917132508940995, -0.0012254166649654508, -0.019000759348273277, -0.009879355318844318, 0.040189024060964584, 8.3250088209752e-05, 0.015013988129794598, -0.061672888696193695, 0.023431794717907906, 0.057298168540000916, 0.002635873854160309, 0.021463697776198387, 0.0004892176948487759, 0.000992795336060226, 0.0001719214633340016, -0.0007050916319712996, 0.034514233469963074, -0.03076680563390255, 0.000955277297180146, -0.018073052167892456, 0.00023562464048154652, -0.042011559009552, -0.00432216003537178, -0.010157492943108082, 0.0009934949921444058, 0.0009673950262367725, 0.0002114240051014349, -0.0005394682521000504, 0.060599684715270996, -0.0020566056482493877, -0.05411122366786003, 0.0009834659285843372, 0.02634470723569393, -0.0006622042856179178, 0.00037281878758221865, -0.030648021027445793, 0.005914362613111734, -0.006493210792541504, 0.0011988726910203695, -0.013939118012785912, -0.05422396957874298, -0.04084332287311554, -0.0025805814657360315, -0.0527820810675621, 0.001284334808588028, -0.0335075743496418, 0.03704668581485748, -0.017293743789196014, -0.005014524329453707, -0.001043190946802497, -0.0014309996040537953, -0.003438775660470128, 0.007939507253468037, -0.03348619118332863, 0.00122029276099056, -0.057558607310056686, 0.05282529443502426, -0.026906302198767662, 0.0007339515723288059, -0.0006798469112254679, -0.02217032201588154, 0.012215804308652878, 0.024627216160297394, -0.037785161286592484, 0.0020817930344492197, -0.0012495613191276789, 0.013872548937797546, -0.002690260298550129, 0.0009054883848875761], [-0.00047168051241897047, -0.0005868941661901772, 0.00034661160316318274, -0.0001752233220031485, 0.0003363491559866816, -0.0008066987502388656, -4.127100692130625e-05, -0.00028444075724110007, 0.00040209744474850595, 0.00012026009062537923, -0.00029266151250340044, -3.4662069083424285e-05, 2.7125262931804173e-05, -9.280310769099742e-05, 0.000374123512301594, -0.0007708787452429533, 0.0003349288599565625, -0.00019308303308207542, -0.0001807521766750142, -5.659890575770987e-06, -0.00015204257215373218, -0.0004310584918130189, 0.0007468617986887693, 0.0006834844243712723, -0.000623136933427304, -0.0006705218693241477, 0.00017424076213501394, -0.00018659901979845017, 2.3545106159872375e-05, -7.266847387654707e-05, -0.0005989630590192974, -0.0011124602751806378, 0.00010576115892035887, -0.00028907062369398773, 0.00026180228451266885, -0.0007867438835091889, 0.0003844477469101548, -0.000614265794865787, 0.0001096975029213354, 0.0007699029520153999, 0.0005269759567454457, -0.00027502651209942997, 0.00021297085913829505, -9.601854981156066e-05, 0.00030063450685702264, 5.919390605413355e-05, -0.0006756318034604192, -0.00035701115848496556, 0.0010883555514737964, -0.000371780275600031, 0.0005816820194013417, 0.00010894868319155648, 0.000885218265466392, 0.001086362637579441, 0.0004207661550026387, 0.0006505450583063066, 0.0005775527097284794, 0.000325885514030233, 0.00022132310550659895, -3.7575831811409444e-05, 0.0001458434999221936, 2.317700273124501e-05, 9.16023418540135e-05, -0.0010525188408792019, -0.001234211027622223, -2.2345489924191497e-05, 0.00023832223087083548, -0.00018208735855296254, -0.0012636369792744517, -2.750828025455121e-05, -0.0007532727322541177, -0.00045669820974580944, -3.714019840117544e-06, -0.0001568087755003944, 0.0004354395787231624, -0.0010667031165212393, 0.0004819883033633232, -0.0005765061359852552, 0.0005942730931565166, -4.6659610234200954e-05, 0.0008911935146898031, 0.00019640859682112932, 0.0006068467628210783, -0.0006909762159921229, -0.0003408215125091374, -0.00012129540118621662, 0.0008871352183632553, -0.0010438880417495966, 0.0009196135215461254, 0.0003174880112055689, -4.758068098453805e-05, -0.00018349869060330093, 0.000461444491520524, -0.0001785297499736771, 0.00012191792484372854, -0.0012081734603270888, 7.659023140149657e-06, -0.00048605730989947915, 0.0005149125936441123, 0.0002747186226770282, 0.0003209658316336572, 5.3427334933076054e-05, 0.0005474938079714775, -0.0006768977036699653, 0.0009326647268608212, -0.00018029457714874297, 0.00031973994919098914, 0.000490293896291405, 0.0005013404879719019, 0.00013242116256151348, 0.0008524438017047942, -0.00018755477503873408, 0.001017342321574688, -1.7024125554598868e-05, 0.0003108248929493129, -0.00046133482828736305, 0.0001799996243789792, -0.00040073279524222016, 0.0003184563247486949, 0.0005727028474211693, -0.0005080507253296673, -0.00032457587076351047, 7.640168769285083e-05, -0.00021551738609559834, 0.00021883392764721066, -0.0002610159572213888, 0.00048307934775948524, -5.1400285883573815e-05], [-1.952747697941959e-05, -3.412015939829871e-05, 3.2983441542455694e-06, 8.75518253451446e-06, 6.113901326898485e-05, -1.6472040442749858e-05, 1.1351602552167606e-05, -9.592963579052594e-07, 3.2776286388980225e-05, 4.1386549128219485e-05, -2.4184195353882387e-05, -0.0001447795075364411, 1.1769954653573222e-05, 8.862616596161388e-07, 5.028651503380388e-05, -5.7115928939310834e-05, 1.8494245523470454e-05, -0.00011442004324635491, -9.783734276425093e-05, -6.130128167569637e-05, -3.3477313081675675e-06, -4.5721484639216214e-05, 4.269252167432569e-05, 5.800581493531354e-05, 1.0455768460815307e-05, 4.5640197754437395e-07, 1.7836837287177332e-05, -1.695980790827889e-05, -5.2336272347019985e-06, -4.1746610804693773e-05, -5.304079968482256e-05, -0.0002116934338118881, 2.8072397981304675e-05, -1.9502471332089044e-05, 6.86688099449384e-06, -5.483185304910876e-06, 1.7405414837412536e-05, -6.236163017092622e-07, 4.9016492994269356e-05, 5.377170964493416e-06, 0.00013193493941798806, -6.595535523956642e-05, 1.01899331639288e-05, -9.899788710754365e-05, 8.32201330922544e-05, 6.15841054241173e-05, -1.907598380057607e-05, 8.809119208308402e-06, 6.278185901464894e-05, -1.2211642570036929e-05, -1.6997709053612198e-06, 9.076270362129435e-05, 1.582429831614718e-05, -5.928799055254785e-06, -2.727977516769897e-06, -3.119982466159854e-06, 8.918421372072771e-05, -5.932705562372576e-07, 2.948050132545177e-05, -1.3401797332335263e-05, 1.2390438314469066e-05, 9.152624988928437e-05, 1.119580974773271e-05, -6.902422319399193e-05, -1.361877457384253e-05, -0.00013374329137150198, 4.943700696458109e-05, -5.518412581295706e-05, -8.930799958761781e-05, -4.350978633738123e-05, -0.00013438359019346535, -2.5273006031056866e-05, -1.0941753316728864e-05, -1.667211836320348e-05, 4.979691584594548e-05, -3.483138425508514e-05, 0.00010529972496442497, -8.727245131012751e-07, 2.3129416149458848e-05, -3.151084456476383e-05, 0.00010866902448469773, 0.00022419610468205065, -3.0444396088569192e-06, -8.040034299483523e-05, 2.0410473098309012e-06, 1.868563458629069e-06, 2.4479131752741523e-05, -0.00018868486222345382, 1.624197102501057e-05, 3.162267603329383e-05, -1.0432338967802934e-05, -5.945089287706651e-05, -6.65982770442497e-06, 5.851942660228815e-06, 5.084036092739552e-05, -4.2174717236775905e-05, 2.894161116273608e-05, -9.27715518628247e-06, 2.1587196897598915e-05, -7.3394835453655105e-06, 5.780825449619442e-05, 6.996978481765836e-05, 0.00014559458941221237, -8.964362677943427e-06, 8.999893179861829e-05, -1.926648837979883e-05, 1.4244787962525152e-05, 4.971927774022333e-05, 8.789908315520734e-05, 2.325540299352724e-05, 8.155527029884979e-05, -4.005105438409373e-05, 3.3023613354998815e-07, 7.949851351440884e-06, 3.302903496660292e-05, -0.00023000566579867154, 3.779818507609889e-05, -2.684039827727247e-05, 7.260584970936179e-05, 7.302648737095296e-05, -6.007615229464136e-05, -9.788442548597232e-05, 7.660965820832644e-06, -2.607409260235727e-05, -5.277824129734654e-06, -0.00013450937694869936, 0.00011133907537441701, -2.5975847165682353e-05], [0.0008355043828487396, 0.000732567859813571, -0.0028472961857914925, 0.001539248158223927, -0.0007282189908437431, 0.0020545462612062693, 0.0017234572442248464, 0.0005627425271086395, -0.00038473872700706124, -0.0004897058825008571, 0.0002732350549194962, 0.0006073285476304591, -0.0007074213935993612, 4.38597853644751e-05, -0.0002963488223031163, 0.0002485128352418542, -0.0008126915199682117, 0.0008326781680807471, 0.0006474599940702319, 0.0008953484357334673, 0.00026685913326218724, 0.0025802364107221365, -0.0013744629686698318, -0.000605034816544503, 0.0014610897051170468, 0.0003692788886837661, -2.3799097107257694e-05, 0.0016324573662132025, -0.0007822545012459159, 0.00036910647759214044, 0.0008300842018797994, 0.0007485663518309593, -0.0009444187744520605, 0.002557529602199793, -0.0001012989814626053, 0.0005268267123028636, -0.0007310347282327712, 0.0008926118025556207, -0.0003036127600353211, -0.0001972028549062088, -0.0002890627074521035, 0.0022135998588055372, -0.00015699192590545863, 0.00015835756494197994, -2.8472744816099294e-05, -9.440782741876319e-05, 0.0014420480001717806, 0.0009223128436133265, -0.0019092808943241835, 0.0012297490611672401, -0.0007484312518499792, -0.0010128318099305034, -0.00024943071184679866, -0.00038692945963703096, -5.540865458897315e-05, -0.0009488140349276364, -0.0006129643297754228, -0.0013734580716118217, -0.0014596658293157816, 0.00024210552510339767, -0.0006042160675860941, -8.076066296780482e-05, -0.0011355538154020905, 0.000176604138687253, 0.0008650110103189945, 0.0007319016731344163, -0.0007008104003034532, 0.002504458650946617, 0.0005640077870339155, 0.0005717628519050777, 0.00046425426262430847, 0.0005392172606661916, 0.0007149004959501326, 0.0007150900200940669, -0.0001157365768449381, 0.00017150711209978908, -0.0003250977024435997, 0.00016907478857319802, -0.0004467795661184937, 0.0009458045242354274, -0.0005716313607990742, -0.0007753457175567746, -0.001691950368694961, 0.0010243598371744156, 9.219734783982858e-05, 0.0007963309180922806, -0.0009398168185725808, 0.0014004682889208198, -0.0002255891595268622, -0.0008231285028159618, 0.00043897045543417335, 0.0011954838410019875, -8.958414400694892e-05, 0.00011673725384753197, -0.0013607227010652423, 0.0008292419952340424, -0.0008010240853764117, 0.0007904536323621869, -0.0017623492749407887, -0.0016605663113296032, -0.0003565313818398863, -0.0015464393654838204, -0.0006595160812139511, 0.0008320198394358158, -0.0009117551962845027, 0.0004078779020346701, -0.0005343705415725708, -0.002430291846394539, -5.295918890624307e-05, -0.00022832989634480327, -0.0012741594109684229, 0.0012364797294139862, -0.0010611768811941147, 0.00018246400577481836, -0.013114442117512226, 0.0008498159586451948, -0.00019410773529671133, 0.0003858098352793604, -0.0006568224634975195, -0.000960329663939774, 0.0004028448020108044, 0.0008502995478920639, -0.0026486923452466726, 0.0018611616687849164, -0.0013193468330428004, 0.0007843382190912962, -0.000874779827427119, 0.0005508078029379249], [9.111025428865105e-05, 0.00021392204507719725, -0.00038848459371365607, 0.00012063152098562568, -0.00037241700920276344, 0.00040525791700929403, 0.0007155510247685015, 0.00033592828549444675, -0.00016733254597056657, 1.1413961146899965e-05, 0.0005644717602990568, 0.0004040325293317437, -0.0005449443706311285, 2.581428998382762e-05, -0.0001523334940429777, 6.383037543855608e-05, -1.6176045392057858e-06, 0.0001127290161093697, 0.0004056544275954366, 0.0006123728817328811, 0.00011488069867482409, 0.0001244696177309379, -0.00012277072528377175, -0.0002472753112670034, 0.0002021455147769302, 0.000310368777718395, -0.00025495767476968467, 0.0003558528842404485, -0.00011160451686009765, 0.00014718527381774038, 0.0001710101350909099, 0.00010314278915757313, -0.0002891448966693133, 0.00037099706241860986, -0.00032779862522147596, 0.00020720870816148818, -6.976412259973586e-05, 0.00017665604536887258, -0.00036033312790095806, -0.0002656788856256753, -0.0003953020495828241, 9.371650230605155e-05, -0.0002800852234940976, 0.0001644714648136869, -0.00011417244240874425, -0.00036791746970266104, 0.0003006824117619544, 2.573508936620783e-05, -0.00013195970677770674, 0.000659714569337666, -0.00029939220985397696, -0.00023713032715022564, -0.0004906466929242015, -0.00022045179503038526, -0.00027294413303025067, -4.2266106902388856e-05, -0.0005688010132871568, -0.0003915066481567919, -0.000587201735470444, 0.00018694999744184315, -0.00013879401376470923, -0.00023128879547584802, -0.00038330568349920213, 0.0002873912453651428, 4.085659020347521e-05, 0.0006753861089237034, -0.0011461764806881547, 0.00017245186609216034, 0.00019618368241935968, 0.0005599803407676518, 0.0008060849504545331, 0.00012952032557222992, 0.00027917977422475815, 0.00016843709454406053, -0.0002058924437733367, 0.0003435816615819931, -0.0002186537894885987, 0.00031264647259376943, -0.00020552138448692858, 0.0004903600201942027, -8.547629113309085e-05, -0.0002748615515884012, -0.0004876547900494188, 5.1526727474993095e-05, 0.00029647047631442547, 0.0003472789248917252, -0.0002647176443133503, 0.0006596038001589477, -0.00026413961313664913, -0.0002443589910399169, 0.00038635035161860287, 0.00011171831283718348, -0.0003996145387645811, 0.0003670260193757713, -9.554263669997454e-05, 0.0002920114202424884, -0.00027143079205416143, 1.7711032342049293e-05, -0.00031555836903862655, -0.0006602066569030285, -1.9578732462832704e-05, -0.00040752810309641063, -0.0013704720186069608, 2.571613367763348e-05, -0.0004874343576375395, 9.572452836437151e-05, -0.0004348058137111366, -8.154407987603918e-05, -0.00020205827604513615, -0.00046274776104837656, -0.0006078136502765119, 0.00023019120271783322, -7.508640919695608e-06, 0.0004291619698051363, -0.0003823127772193402, 0.000627575209364295, -0.0002726239326875657, 0.0001351696701021865, -0.00031713242060504854, -0.0005090654012747109, 0.0002471000771038234, 0.00015390902990475297, -0.00024656744790263474, 0.0009023405727930367, -0.0006075666169635952, 2.1049174392828718e-05, -8.500700641889125e-05, 0.00013318592391442508], [-6.004290480632335e-05, 1.9976448584202444e-06, 6.478841532953084e-05, 1.3577144272858277e-05, 5.302463978296146e-05, -6.348907481878996e-05, -1.6881313058547676e-05, -5.544624855247093e-06, 4.582322799251415e-05, -1.8242122678202577e-05, 8.610260238128831e-07, -6.948040390852839e-05, -2.1263228973111836e-06, 3.0660191896458855e-06, 1.0061885404866189e-05, -4.634764263755642e-05, -1.8785143765853718e-05, -1.8191971662417927e-07, -4.387952503748238e-05, -0.0001009515326586552, 2.9092186650814256e-06, -4.361819082987495e-05, 8.82093736436218e-05, 3.074455162277445e-05, -4.695719326264225e-05, -2.1164971258258447e-05, 3.623580778366886e-05, -3.322525299154222e-05, 2.2844962586532347e-05, -2.459213646943681e-05, -2.9080409149173647e-05, -0.00011734743020497262, -2.4908238174248254e-06, 8.421582606388256e-06, 4.298511157685425e-06, -3.0353372494573705e-05, 4.3572461436269805e-05, -1.8490875390853034e-06, -1.0077089427795727e-05, 3.769175600609742e-05, 2.61698332906235e-05, -1.762758802215103e-05, 3.5823795769829303e-06, -9.703421710582916e-07, 8.407881978200749e-05, 2.7222264179727063e-05, 4.793665084434906e-06, 1.2056102605129126e-05, 2.683954699023161e-05, -5.3565159760182723e-05, 0.0001262644218513742, 6.636448233621195e-05, 5.624879486276768e-05, 1.5568903108942322e-05, -1.568343213875778e-05, 3.361719427630305e-05, 7.66939774621278e-06, -2.9027114578639157e-06, 2.5909652322297916e-05, -1.5294701370294206e-05, 1.3295894859766122e-05, 3.467419810476713e-05, 1.616569898033049e-05, -3.7924117350485176e-05, -4.995478775526863e-06, -9.367905295221135e-05, 5.050074469181709e-05, 8.64812136569526e-06, -4.448066829354502e-05, -4.5861474973207805e-06, -1.8569460735307075e-05, -3.740132160601206e-05, 2.6172403977398062e-06, -5.6829117056622636e-06, 9.385727025801316e-05, -2.4402670533163473e-06, 0.00011841422383440658, -4.650955816032365e-05, -7.372128038696246e-06, -2.514178049750626e-05, 3.5166318411938846e-05, 4.7287161578424275e-05, 1.547097781440243e-05, 3.979106168117141e-06, -4.163729954598239e-06, -1.727993912936654e-05, 1.836061983340187e-06, -0.00017470528837293386, 3.4052030969178304e-05, 0.00010848085366887972, -2.402231802989263e-05, -6.473340181401e-05, 1.5482923117815517e-05, -3.188616392435506e-05, 8.815803448669612e-05, -0.00021652506256941706, 4.7443936637137085e-05, -1.8691383957047947e-05, 3.199536877218634e-05, 0.00010825413482962176, 5.845557097927667e-05, 8.479703683406115e-05, 2.9958271625218913e-05, -2.479300746927038e-05, 0.00012258173956070095, -4.851145604334306e-06, 0.00013733122614212334, 1.2186984349682461e-05, 1.587475708220154e-05, 7.192073553596856e-06, 4.9963149649556726e-05, -1.737466300255619e-05, 3.782871863222681e-05, 9.00756674582226e-07, 6.249406578717753e-05, 2.9449827252392424e-06, 7.071396976243705e-05, -2.295871490787249e-05, 1.9558059648261406e-05, 0.00010435246076667681, -3.121643385384232e-05, -8.385147521039471e-05, 1.0723400919232517e-05, 5.638654783979291e-06, 5.595630864263512e-05, -1.3947634442956769e-06, 1.0443432074680459e-05, -7.411701403725601e-07], [0.00031066202791407704, 4.33472050644923e-05, -0.0007563868421129882, 0.0008223247132264078, -0.0006890270742587745, 0.0006627723341807723, 0.0004409833927638829, 0.00022414138948079199, -7.416809967253357e-05, -0.0016660653054714203, 0.0007028073887340724, 0.000479880312923342, -0.0003619832859840244, 0.00016881593910511583, -6.6613229137146845e-06, 0.00022868257656227797, -2.8826420020777732e-05, 0.00015331771282944828, 0.00012896565021947026, 0.0003909090592060238, 0.00034508228418417275, 0.0003863251768052578, -0.0004062795196659863, -0.00022447820811066777, 0.00045625001075677574, 0.0004916982143186033, -0.0007278915145434439, 0.0003927293873857707, -6.216092151589692e-05, 0.0003901482268702239, 0.0004179079842288047, 0.00020586542086675763, -0.000302138680126518, 0.00010036572348326445, -0.00015249522402882576, 9.548186790198088e-05, -0.0007142568938434124, 0.00046290268073789775, -0.00014814446331001818, -0.00030037036049179733, -0.0006662681116722524, 0.0010612093610689044, -0.00015982870536390692, 0.0006139764445833862, -0.000545910676009953, -0.00015292273019440472, 0.0001701551373116672, 0.00019262633577454835, -9.54155475483276e-05, 5.7224282500101253e-05, -0.0005676387809216976, -0.0007143031107261777, -0.0008570073405280709, -0.00026676058769226074, -0.0002886401198338717, -0.0007379415910691023, -0.00037485911161638796, -0.0012862272560596466, -3.918364382116124e-05, 0.0009077077847905457, -0.0004220064729452133, -6.003468115522992e-06, -7.677853136556223e-05, 0.000425417791120708, 0.0009565597865730524, 0.0005655721761286259, -0.0003852244990412146, 9.844148007687181e-05, 0.002011665841564536, 0.0010554027976468205, 0.0002705006336327642, 7.537809142377228e-05, 0.0005967994220554829, 0.00024352014588657767, -0.0005349797429516912, 1.3735975699091796e-05, -6.226326513569802e-05, 0.00012634778977371752, -3.25854925904423e-05, 0.000889290648046881, -0.000527957861777395, -0.0003484901099000126, -0.00015787954907864332, 0.0003609290288295597, 0.0005370161961764097, 0.0003596247697714716, -0.0008288772660307586, 6.729055166942999e-05, -5.30763718415983e-05, -0.0019233233761042356, 0.0002180740120820701, 0.0012921218294650316, -3.812837530858815e-05, 0.0002497081004548818, -0.00027122339815832675, 0.000727785169146955, -0.00011475047358544543, 0.00035055348416790366, -6.687986751785502e-05, -0.0003976275329478085, -0.0006869396893307567, -0.0003230331349186599, -0.00023341592168435454, 0.00011141397408209741, -0.0006779503310099244, 0.00044362887274473906, -8.783680095802993e-05, -0.00014897184155415744, -0.0008863834082148969, -0.00013817513536196202, -0.00041671807412058115, 0.0005662664771080017, -0.0013384412741288543, 0.0003961729526054114, -9.491085802437738e-05, 2.570334982010536e-05, -0.0005688489763997495, 3.654529064078815e-05, -0.00022360718867275864, -0.0010068581905215979, 0.0003346756275277585, 0.0003115192521363497, -0.0014130913186818361, 0.00032551612821407616, -0.00028263553394936025, 0.00011148714111186564, -0.00011384830577298999, 0.00024086370831355453], [0.00011550628551049158, 4.141618046560325e-05, -5.200035229790956e-05, 0.00010434338037157431, -8.840245754981879e-06, 7.598336378578097e-05, 2.4595894501544535e-05, -7.272726179508027e-06, -2.7555057386052795e-05, 2.196517016272992e-05, 2.3257252905750647e-05, -1.8566373910289258e-05, 7.846731477911817e-07, 4.796298071596539e-06, -2.9514858397305943e-05, -1.1313812137814239e-05, -3.92619040212594e-05, -8.748875188757665e-06, 2.6696128770709038e-05, 0.00017309888789895922, 0.00012557754234876484, 0.00012262848031241447, -4.5992030209163204e-05, -6.732635938533349e-06, 7.748368261673022e-06, 2.7856736778630875e-05, -7.286786058102734e-06, 3.2129307783179684e-06, -1.1027182154066395e-05, 1.3117359230818693e-05, 2.0905828932882287e-05, 4.6471599489450455e-05, -1.8564065612736158e-05, 4.604451169143431e-05, -0.0001230022608069703, 9.601278179616202e-06, 9.996142580348533e-07, 1.0300482244929299e-05, -0.0001925088290590793, -4.7300072765210643e-05, -2.6110948965651914e-05, 8.459998753096443e-06, -2.363272142247297e-05, 2.5525770979584195e-05, -2.316255631740205e-05, -1.6815564549688133e-06, 0.00013113995373714715, 8.455757779302076e-05, -4.6845907490933314e-05, 1.993584919546265e-05, -7.967570854816586e-05, -3.1197482712741476e-06, -5.207826689002104e-05, -7.398023171845125e-06, -4.875826562056318e-05, 5.0003895921690855e-06, -2.915890763688367e-05, -6.486272013717098e-06, -6.12963704043068e-05, -7.50729259380023e-06, 5.932499789196299e-06, -8.677328150952235e-05, -2.6822113795788027e-05, 3.8344169297488406e-05, 1.2296032764425036e-05, 2.0986881281714886e-05, -2.905621295212768e-05, 4.31226180808153e-05, 1.9547265765140764e-05, 6.861180736450478e-05, 3.592251232475974e-05, 3.517687218845822e-05, -5.207709818932926e-06, 1.0649146133800969e-05, -1.5036606555440812e-06, 0.0002374405157752335, 2.1403743630799e-06, 3.4404547477606684e-05, -0.00010505509999347851, 1.5696807167842053e-05, -5.9334165598556865e-06, -2.630944800330326e-05, 1.339087884844048e-05, 7.559569348813966e-05, 5.9907873946940526e-05, -7.311604349524714e-06, -3.188437403878197e-05, 2.7327243515173905e-05, -1.0443384780955967e-05, -3.7336367313400842e-06, 4.672813247452723e-06, -4.073768309353909e-07, -6.801162726333132e-06, 2.1022644432378e-05, 1.1079355317633599e-05, 0.0001577638031449169, -3.321585973026231e-05, 2.0961948393960483e-05, -2.990494431287516e-05, -0.00010702585859689862, -4.4924447138328105e-05, -2.6887273634201847e-05, 1.2084613445040304e-05, 2.7993050025543198e-05, -1.2517947652668227e-05, -1.0473403335709008e-06, -6.790761290176306e-06, -1.984400296350941e-05, -6.33959871265688e-06, -1.7948317690752447e-05, 1.2829292472815723e-06, 0.00010684198787203059, -3.307436782051809e-05, 3.51196140400134e-05, -0.0001334601838607341, 3.65370033250656e-05, 1.662711838434916e-05, 4.825666837859899e-05, -4.0533395804231986e-05, -2.1244324670988135e-05, -2.173827624574187e-06, 4.505235847318545e-05, 1.2663266716117505e-05, 2.5020608518389054e-05, 9.340202495877747e-07, 4.721530058304779e-05, -1.1753957096516388e-06, -9.850544984146836e-07], [0.00010521485819481313, 2.351843249925878e-05, -0.00011809538409579545, 0.00012161119957454503, -1.8659509805729613e-05, 5.332596265361644e-05, -1.5405167630433425e-07, -1.1176249472555355e-06, -9.543521446175873e-05, 1.7791249774745665e-05, 2.2731966964784078e-05, 9.359045361634344e-05, -1.745460758684203e-05, -3.476267920632381e-06, -3.0924679776944686e-06, 3.0587249057134613e-05, -8.995255484478548e-05, 4.2117189877899364e-05, 1.539494223834481e-05, -1.3550773473980371e-05, 1.6236746887443587e-05, -8.266667464340571e-06, 8.326013812620658e-06, -5.3096944611752406e-05, 3.1799718271940947e-05, 5.853487164131366e-05, -1.353662446490489e-05, 1.1003117833752185e-05, -1.6494703231728636e-05, 4.907995025860146e-05, 5.203750333748758e-06, 2.7292790036881343e-05, 6.102306429056625e-07, 3.420576103962958e-05, -6.081139645175426e-07, 2.468739467076375e-06, -5.5070478993002325e-05, 2.048895476036705e-05, -4.008737232652493e-05, -8.14316592823161e-07, 1.0274960914102849e-05, 3.771063711610623e-05, -3.079179805354215e-05, 1.994355807255488e-05, 3.2179498248297023e-06, -6.520782790175872e-06, -1.4085328075452708e-05, 3.305429345346056e-05, 2.7046910417993786e-06, -5.562893875321606e-06, -2.0259178199921735e-05, -4.092774361197371e-06, -4.743497629533522e-05, -5.077089099359e-06, -5.099867848912254e-05, -5.688079909305088e-05, -1.4622979506384581e-05, -6.702873179165181e-06, -5.9302677982486784e-05, 6.03188163950108e-06, -1.834995418903418e-05, 6.573630344064441e-06, -5.790458817500621e-05, 3.578882387955673e-05, 2.1833420760231093e-05, 5.680407048203051e-05, 2.7222449716646224e-05, 8.912897101254202e-06, 5.848415457876399e-05, -9.457179999117216e-07, 2.7831452825921588e-05, 3.674120671348646e-05, 4.02496152673848e-05, 1.6455504692203249e-06, -6.105669285716431e-07, 0.0001368100056424737, -6.394274532794952e-05, -2.2188032744452357e-06, -9.696356573840603e-05, 6.123982893768698e-05, 2.196965397160966e-05, -4.9309968744637445e-05, 5.869046617590357e-06, 1.1943629033339676e-05, -7.539843409176683e-06, 4.196065856376663e-05, -3.7984511436661705e-05, 2.15008531085914e-05, -2.897336526075378e-05, -4.1597490053391084e-05, 2.2717729734722525e-05, -5.778479589935159e-06, 3.2101734177558683e-06, 1.9580302250687964e-05, 5.809868071082747e-06, -1.6622796465526335e-05, -3.665190888568759e-05, 2.7832178602693602e-05, -2.7297808628645726e-05, -6.458574262069305e-06, -6.94694317644462e-05, 6.489400220743846e-06, -1.7707237930153497e-05, 8.52473676786758e-05, -6.318587838904932e-05, 2.3778533432050608e-05, -3.3707194234011695e-05, -6.673326424788684e-05, -1.0541571100475267e-05, -1.1295145668555051e-05, -1.8262688172399066e-05, 8.142203296301886e-05, -1.1677683687594254e-05, 2.857959407265298e-05, -2.2471873307949863e-05, 4.2171875975327566e-05, -2.683358616195619e-05, 3.1259281968232244e-05, -7.348596682277275e-06, -8.06815876330802e-07, 2.886181027861312e-05, 1.9529465134837665e-05, -5.886008148081601e-05, 3.6155244742985815e-05, -1.3266515452414751e-05, 2.9003413146710955e-05, -4.1779658204177395e-05, 3.2830124837346375e-05], [-0.0007224587025120854, -0.00019040005281567574, 0.00010364977060817182, -0.00043513483251444995, 2.2048612663638778e-05, -0.0001676249667070806, -0.0005889571039006114, -7.170793651312124e-06, 0.0008239173912443221, 0.0006824146839790046, -0.00015436731337103993, -0.00045492578647099435, 0.0005726730450987816, -0.0003138676402159035, 0.0003027899656444788, -9.777143077371875e-07, 0.0009371567866764963, -0.0002434076159261167, -6.295918865362182e-06, -0.0011608481872826815, -0.0002925382577814162, -0.0006425969186238945, 3.463443135842681e-05, 0.0006039910367690027, -0.0004864826623816043, -0.0004021533241029829, 0.0005132663645781577, -0.0006034753168933094, 0.00049015530385077, -0.0007316676201298833, -0.0005252876435406506, -0.0013459206093102694, 0.00016342243179678917, -0.0008331755525432527, 0.00029531767359003425, -0.00017616222612559795, 0.0012325712013989687, -0.0005422811373136938, 0.0005469888565130532, 2.9050186640233733e-05, 0.0006910197553224862, -0.00014170671056490391, 0.00019973283633589745, -0.00018066598568111658, 6.861184374429286e-05, 0.0007574138580821455, -0.0003901743039023131, -0.0003367668832652271, 0.001188063295558095, -0.0002994079259224236, 0.00017947978631127626, 0.0005262962076812983, 0.00013271467469166964, 0.0008294684230349958, 0.0008171185036189854, 0.0005305141094140708, 0.00048248254461213946, 0.0008474034257233143, 0.0005468482850119472, -3.8067923014750704e-05, 0.001128596137277782, 0.00022739511041436344, 0.00043874807306565344, -0.0004302108136471361, -0.00018491789523977786, -7.500537321902812e-05, 9.080359450308606e-05, -0.0007640941184945405, -0.000833992671687156, -0.0006955419667065144, -0.0006347945891320705, -0.00015881212311796844, -3.123087662970647e-05, -0.0002578947751317173, 0.00016502647486049682, -0.0009514896082691848, 0.0005192813114263117, -0.0005838710931129754, 9.169373515760526e-05, -7.409910904243588e-05, 0.00031376900733448565, 0.0002808102290146053, 0.0012370172189548612, -0.00013129446597304195, -0.00023919998784549534, -7.2257225838257e-06, 0.0004070016148034483, -0.0007581605459563434, 0.00022084424563217908, 0.0013697199756279588, -0.0003143556823488325, -0.0004343678301665932, 0.0003399828274268657, -0.0005092950304970145, 0.0007067991537041962, -0.00040336078382097185, 0.0009999781614169478, -0.0003749445313587785, 0.0001651925267651677, 4.2741223296616226e-05, 0.0001575863134348765, 0.00025048042880371213, 0.0006255461485125124, -0.0007266519824042916, 0.0003275052586104721, -0.0004456950700841844, 0.00015249982243403792, 0.0008171501685865223, 0.0008516373345628381, 9.000820864457637e-05, 4.6744258725084364e-05, -0.00030223900103010237, 1.2392726603138726e-05, -0.0004248242184985429, 3.719353480846621e-05, -0.00044181817793287337, 0.0008290723781101406, -1.636319029785227e-05, 0.00040950471884571016, 0.0007592579931952059, -0.0008105978486128151, -0.00023598306870553643, 0.0007894230075180531, -0.0008068450842984021, 5.5691176385153085e-05, -0.0007024894584901631, 9.204403613694012e-05, -5.58790925424546e-05], [-0.0004175360081717372, -0.00027607628726400435, 0.015235777013003826, -0.0011040841927751899, 0.0007811433169990778, -0.00020637284615077078, -0.0025758580304682255, -0.00016956751642283052, 9.135781874647364e-05, 0.003989220596849918, -0.0009921075543388724, -0.0022641015239059925, 0.0004485110112000257, -0.00045951022184453905, 0.0003535418363753706, -0.0008669831440784037, 0.0024904687888920307, -0.0009609612752683461, -0.00019803381292149425, -0.0023082091938704252, -0.0009376342641189694, -0.002821289701387286, 0.001017870265059173, 0.0014447484863922, -0.0012048943899571896, -0.00010715714597608894, 0.0006896149134263396, -0.00011206955969100818, 0.0002645404892973602, -5.989984128973447e-05, -0.001268360298126936, -0.0019219742389395833, 0.0013963975943624973, -0.001638029352761805, 0.0005732872523367405, -0.0005764833185821772, 0.0008671028772369027, -0.0006655725301243365, 0.0030185687355697155, 0.0006769915926270187, 0.0007688116165809333, -0.0015603407518938184, 0.00011711799015756696, -0.0004480418865568936, 0.00042691899579949677, 0.00015111728862393647, -0.0009501950116828084, -0.0016934851882979274, 0.018923474475741386, -0.000773642968852073, 0.0012575546279549599, 0.001679154927842319, 0.0018318359507247806, 0.0007147170836105943, 0.0018772835610434413, 0.0002990495413541794, 0.001412609708495438, 0.0003200985083822161, 0.0012619920307770371, -0.0006168721010908484, 0.0012409175978973508, 0.000883658358361572, 0.00020743011555168778, -0.0013869339600205421, -0.000208697616471909, -0.0009631051798351109, 0.010981829836964607, -0.0006320540560409427, -0.01174180768430233, -0.00010546642442932352, -0.0016248943284153938, -0.00031340407440438867, -0.0006842926377430558, -0.00029396574245765805, 0.0003401474095880985, -0.0011265845969319344, 0.0020625588949769735, -0.0007501387735828757, 0.007104638963937759, -0.0013413901906460524, 0.0008991237264126539, 0.0006199990166351199, 0.00015835075464565307, -0.0003430303477216512, -2.7609192329691723e-05, -0.00011255594290560111, 0.0007975894841365516, -0.01455042976886034, 0.00020379183115437627, 0.010761084966361523, -0.00028234461206011474, -0.0005355339962989092, 3.2148735044756904e-05, -0.0004927357076667249, 0.000615694560110569, -0.0018585458165034652, 9.749407035997137e-05, -0.00047213269863277674, 0.0006764190038666129, 0.006024706177413464, 0.0013186442665755749, 0.0006475927075371146, 0.0036622986663132906, -0.0007266554748639464, 0.0020854459144175053, -0.0014421588275581598, 0.0001987256109714508, 0.001509555266238749, 0.0007649618200957775, 0.0012597414897754788, 0.0015593194402754307, -0.0010849041864275932, 0.000971561181358993, -0.0006907579372636974, 0.005709067918360233, -0.007743899244815111, 0.0006058638682588935, -0.0011562262661755085, 0.0009474552934989333, 0.0021096502896398306, -0.00098003342282027, -0.0002557643165346235, 0.0016991391312330961, -0.0007797455764375627, 0.0009445935720577836, -0.0019807545468211174, 0.0005280378391034901, -0.0009477100684307516], [2.35476836678572e-05, -9.990536455006804e-06, -6.350455805659294e-05, 6.0633199609583244e-05, -3.5719531297218055e-05, 4.153210829827003e-05, 1.82448529812973e-05, -3.9024075704219285e-06, -1.4999473933130503e-05, 2.2638081645709462e-05, 1.447610975446878e-05, 6.0836693592136726e-05, 1.6699285652066465e-06, 2.9264509066706523e-05, -3.070407910854556e-05, 3.3099393021984724e-06, -6.920651503605768e-05, 7.035309863567818e-07, 5.5495398555649444e-05, 2.769483944575768e-05, 8.854237239575014e-05, 3.466870111878961e-05, -9.968010999727994e-06, -7.9011251727934e-06, 3.844739694613963e-06, 2.943329127447214e-05, -1.3022828170505818e-05, 1.371717644360615e-05, 3.21291372529231e-06, 2.4411017420788994e-06, 2.0683142793131992e-05, 9.034137474372983e-05, -4.3858658500539605e-06, 2.3342043277807534e-05, 1.8983412246598164e-06, -5.028485702496255e-06, 7.247600024129497e-06, 1.9878016246366315e-05, -4.156279828748666e-05, -5.22176778758876e-05, 2.0339964521554066e-06, -2.217952351202257e-05, -2.8140235372120515e-05, 1.0587891665636562e-05, -4.608300514519215e-06, -1.5194755178526975e-06, 6.66392152197659e-05, 1.806965701689478e-05, -0.00018027033365797251, -4.4306358404355706e-07, -6.019676675350638e-06, 6.722036118844699e-07, -2.525595118640922e-05, -5.960718681308208e-06, 5.100041562400293e-06, -5.1017148507526144e-05, -4.326635098550469e-05, 3.4963270536536584e-06, -8.317056199302897e-06, -2.0686284187831916e-06, -3.1645465696783504e-06, -3.0255267120082863e-05, -9.619845513952896e-06, 8.322217036038637e-05, 7.768993236823007e-05, -9.487424108556297e-07, 2.1206213205005042e-05, 2.299998959642835e-05, 0.00012685642286669463, 1.9058979887631722e-05, -7.105834811227396e-06, 3.419362474232912e-05, 1.5287467249436304e-05, 5.164470167073887e-06, 2.7605858576862374e-06, -1.6559857613174245e-05, -7.495123554690508e-06, -6.280157776927808e-06, -5.9638645325321704e-05, 3.149763506371528e-05, -8.520119445165619e-05, -2.2719130356563255e-05, -1.6237490854109637e-05, 1.7786467651603743e-05, 3.432632001931779e-05, 3.4920903999591246e-05, -5.330787644197699e-06, 2.7458419936010614e-05, -2.2038197130314074e-05, -2.4830704205669463e-05, 1.2885728210676461e-05, -5.2177542784193065e-06, -2.9972015909152105e-05, 4.3090173562632117e-07, 4.533099854597822e-06, 0.00010300736175850034, 7.364783414232079e-06, 7.342758181039244e-06, -3.478790677036159e-05, -3.189723429386504e-05, 4.07016113967984e-06, -3.123918577330187e-05, -0.00020939075329806656, 2.5237475711037405e-05, -2.7428288376540877e-05, -1.7919593346960028e-06, -6.422524165827781e-05, -5.7295230362797156e-05, -5.534165393328294e-05, -3.889447725669015e-06, -5.805517048429465e-06, -7.531444680353161e-06, -8.22331930976361e-05, -1.5577198837490869e-06, -5.248932939139195e-05, -1.90783594007371e-05, 3.0755368243262637e-06, 3.0882260034559295e-05, -1.4610082871513441e-05, -1.3204579772718716e-05, 4.695539973909035e-05, 9.010254143504426e-05, -5.31527039129287e-05, 6.9545817495964e-06, -4.146703940932639e-05, -4.4889674200021545e-08, -1.697798325039912e-06, 3.715933416970074e-05], [-0.00043125689262524247, -0.0007673942600376904, 0.0003556182491593063, -0.00028482472407631576, 0.0003191752184648067, -0.0004932999727316201, -0.0005213021067902446, -0.0006163342040963471, 0.0006271859165281057, 4.279305358068086e-05, -0.00031051889527589083, -0.0006127183442004025, 0.0008521233685314655, -0.0006768270395696163, 0.00019672738562803715, -0.00016700646665412933, 5.238785161054693e-05, -0.00026857046759687364, -0.0005054461653344333, -0.0001247585896635428, -0.00014742616622243077, -0.0002941483980976045, 0.0005280124605633318, 0.0005257850280031562, -0.0003105698269791901, -3.485213528620079e-05, 2.214322921645362e-05, -0.0008027065778151155, 2.6511626856517978e-05, -0.0003225770778954029, -0.0003448592033237219, -0.00012241420336067677, 0.0003110846446361393, -0.00037959738983772695, 0.0012212637811899185, -0.00013297650730237365, 0.00039914369699545205, -0.0001757617137627676, 4.697334225056693e-05, 0.0008180859731510282, 0.00023440690711140633, -0.0012597903842106462, 0.0008705595973879099, -0.0006051234668120742, 0.0007238986436277628, 0.0002914175274781883, -0.00017718716117087752, -0.00015124725177884102, 0.0005037689697928727, -0.00023350877745542675, 0.0003317455411888659, 5.4526586609426886e-05, 0.0008182028541341424, 6.696878699585795e-05, 0.00012016957043670118, 0.0003956789441872388, 0.0006749798776581883, 0.00019991488079540431, 2.8674401619355194e-05, -0.00019351777154952288, 0.00019119316129945219, 0.0005767574766650796, 0.0007376856519840658, -0.0006992446142248809, -0.0006114683928899467, -0.00019262675778008997, 7.074881432345137e-05, -0.0006099921301938593, -0.00017715594731271267, -0.0001644637668505311, -2.298113213328179e-05, -0.0003304433776065707, -0.000155522910063155, -0.0004773368709720671, 0.0009606933454051614, -5.7893525081453845e-05, 0.0009720971575006843, -0.00045796125777997077, 0.0003692519385367632, -0.0004352998803369701, 0.0007754846010357141, 3.2700805604690686e-05, 0.000173849388374947, -0.00016005073848646134, -0.0004210237239021808, -0.0004963856772519648, 0.0003640246868599206, -0.0006388131296262145, 0.00016519799828529358, 0.0006453495007008314, -0.0009783963905647397, -0.0005072730709798634, 0.0004422867496032268, -0.00032224718597717583, 8.241681643994525e-05, -0.0005836238851770759, 0.0005210292292758822, -0.00030754992621950805, 0.0002070990885840729, 0.0005928457248955965, 0.0005292789428494871, 0.0001275948015972972, 0.0015365078579634428, -0.0003947787336073816, 0.0005527730681933463, -0.00021575266146101058, 0.0007543887477368116, 0.0002594321849755943, 0.0007202296401374042, 0.0005881779943592846, 0.00041218139813281596, -0.0002405492850812152, 0.000718599243555218, -0.00010460718476679176, 0.0006988926907069981, -0.0005944520817138255, 0.0005397159256972373, -0.0002908528840634972, 0.0003352576750330627, 0.0004907260881736875, -4.008244286524132e-05, -0.00017396043404005468, 0.0002528740733396262, -0.00016303342999890447, 0.0004580974637065083, -0.0005393344908952713, 0.00013352549285627902, -0.00020735741418320686], [-0.024818185716867447, -0.02711196057498455, 0.01769149862229824, -0.009279617108404636, 0.030972041189670563, -0.02232782542705536, -0.02550063654780388, -0.03925972059369087, 0.03455020859837532, 0.019688347354531288, -0.031866852194070816, -0.013933130539953709, 0.08793342113494873, -0.04602710157632828, 0.03448137640953064, -0.028388435021042824, 0.02596202865242958, -0.03598421439528465, -0.016815174371004105, -0.01936841942369938, -0.01952388696372509, -0.02852332778275013, 0.01105434913188219, 0.03783087059855461, -0.021346142515540123, -0.020431360229849815, 0.11350146681070328, -0.037401143461465836, 0.04990195482969284, -0.04376857355237007, -0.020669424906373024, -0.03447754308581352, 0.025045866146683693, -0.011817965656518936, 0.026945089921355247, -0.09948000311851501, 0.0128750279545784, -0.028884965926408768, 0.01938466541469097, 0.016076114028692245, 0.03225933387875557, -0.03869915381073952, 0.05038376525044441, -0.037002500146627426, 0.020886538550257683, 0.019909048452973366, -0.028045300394296646, -0.021389000117778778, 0.008283483795821667, -0.01946551725268364, 0.025268150493502617, 0.012811568565666676, 0.010939415544271469, 0.017306389287114143, 0.020477289333939552, 0.02929060533642769, 0.020269466564059258, 0.02188108302652836, 0.031688619405031204, -0.033159758895635605, 0.02001327835023403, 0.016802247613668442, 0.019723370671272278, -0.009928897954523563, -0.02039710059762001, -0.04469543322920799, 0.010320003144443035, -0.018517151474952698, -0.010612312704324722, -0.03658778965473175, -0.024494176730513573, -0.053458958864212036, -0.047788433730602264, -0.02221086621284485, 0.03531913459300995, -0.03807981312274933, 0.018617793917655945, -0.08768105506896973, 0.013413392938673496, -0.03500409051775932, 0.01939963363111019, 0.01806936413049698, 0.015024229884147644, -0.027707742527127266, -0.06134704872965813, -0.032397497445344925, 0.03170287609100342, -0.02467206120491028, 0.021914595738053322, 0.01769270934164524, -0.05963890254497528, -0.010644003748893738, 0.057435985654592514, -0.04961395636200905, 0.0230848491191864, -0.03240523114800453, 0.018657132983207703, -0.055115923285484314, 0.01213827170431614, 0.035865526646375656, 0.017731929197907448, 0.02107657678425312, 0.01440300140529871, -0.02478303574025631, 0.031907543540000916, -0.02278580702841282, 0.03214970603585243, 0.018016844987869263, 0.02575995959341526, 0.021246973425149918, 0.02772737480700016, -0.025446604937314987, 0.010409864597022533, -0.05425764620304108, 0.008471273817121983, -0.016108931973576546, 0.020477551966905594, -0.04467907175421715, 0.03784802556037903, 0.017711853608489037, -0.02014506608247757, -0.03485099971294403, 0.04152281582355499, -0.01423732191324234, 0.016166899353265762, -0.01591106876730919, 0.03814094513654709, -0.03497108444571495], [0.00015053545939736068, 0.00035560561809688807, -0.0006593953003175557, 0.0010122377425432205, -0.0003720812383107841, 0.0008258759626187384, 0.0007626289152540267, 0.0002538861590437591, -0.0003522958140820265, -0.0007357520516961813, 8.889727178029716e-05, 0.00012700438674073666, -0.0003726862487383187, 0.0009389745537191629, -5.0049100536853075e-05, 0.0004231392522342503, -0.0005102199502289295, 0.0004039462946821004, 0.00047431341954506934, 2.1503776224562898e-05, 3.864114478346892e-05, 0.0009773389901965857, -0.0005301224300637841, -0.0003850866633001715, 0.00016056907770689577, 0.00023480146774090827, -0.0002718457253649831, 0.0009428985067643225, -0.0002941502316389233, 0.0008496101945638657, 0.0002949466579593718, 0.0006430870271287858, -0.0003041450690943748, 0.00019136325863655657, -4.949749927618541e-05, 0.00020261220925021917, -0.0007509314455091953, 0.00032600792474113405, -0.001256090821698308, -0.0007544058025814593, -2.8797630875487812e-05, 0.0006499509327113628, -2.2326257749227807e-05, 0.0006475186091847718, -6.829275662312284e-05, -0.0007923305965960026, 0.0003302580735180527, 0.0004977149656042457, -0.001871827756986022, 5.890860120416619e-05, -0.00045353328459896147, -0.00011181925219716504, -0.000560934073291719, -2.182150274165906e-05, -8.701563638169318e-05, -0.0003103961353190243, -0.00020067841978743672, -1.8343176634516567e-05, -0.0004814862331841141, 0.0003005816543009132, -0.0003098362358286977, -0.00026479829102754593, -0.00020543135178741068, 0.00029586307937279344, 0.00013472296996042132, 0.000968406384345144, -0.00022674501815345138, 0.00023173681984189898, 0.0003570907865650952, 0.0007140319212339818, 0.0001283479214180261, 8.196043927455321e-05, 0.0007680616690777242, 0.0008154136594384909, -0.0002498275425750762, 0.0002107504551531747, -0.0009720957605168223, 9.805243462324142e-05, -6.834917439846322e-05, 0.000345897045917809, -0.0014456802746281028, -0.0010858229361474514, -0.0004965731641277671, 2.1757220736162708e-07, 0.0007638338720425963, 0.0004055523604620248, -0.00036792250466533005, 0.00047771577374078333, -8.763623191043735e-05, -0.0009807059541344643, 0.00038424626109190285, 0.0007593544432893395, -0.0006185159436427057, 0.0008609869983047247, -5.565254468820058e-05, 0.0003461735032033175, -0.001000899588689208, 0.0004995510680601001, -0.00032061681849882007, -0.0011160479625687003, -0.00017505139112472534, -0.0006067564245313406, -0.0004698149277828634, 0.0010113526368513703, -0.000245314440689981, 0.000564109068363905, -0.0013380012242123485, -0.0005950344493612647, -0.00015960312157403678, -0.0005958882975392044, -0.0008106441819109023, 0.000277482409728691, -4.75365377496928e-05, 0.000685261155012995, -0.0004080081998836249, 0.0010076422477141023, -0.0005595970433205366, 6.92631074343808e-05, -0.00030737047200091183, -0.001189082977361977, 0.00041372221312485635, 0.0008120509446598589, -0.0003346479497849941, 4.858848114963621e-05, -0.0005979144480079412, 0.00033888191683217883, -0.00025213658227585256, 0.00017660828598309308], [0.00012215229799039662, 2.0210012735333294e-05, -0.0004141621175222099, 0.00019292293291073292, -6.66006890241988e-05, 0.00030981862801127136, 0.00010965034744003788, 0.00036796563654206693, -0.00026965801953338087, -0.00018000282580032945, 1.5246770999510773e-05, 0.00013130255683790892, -0.0003257423231843859, 0.00021899500279687345, -0.00015544368943665177, 0.00010067260154755786, -0.0004270385252311826, 0.00042460684198886156, 0.0008860077941790223, 8.625213376944885e-05, 0.00016680784756317735, 0.0005560018471442163, -0.00023616908583790064, -7.612452463945374e-05, 0.00036978302523493767, 0.00026923956465907395, -0.000303692533634603, 0.00014306619414128363, -0.0006253932951949537, 0.0003759684623219073, 5.660626243297884e-07, 0.0001590616157045588, -1.7621778169996105e-05, 2.734006102400599e-06, -0.0007300176075659692, 0.0006997279706411064, -0.0002520623675081879, 2.3924554625409655e-05, -0.0001363574992865324, -9.162536298390478e-05, -3.56294222001452e-05, 0.00040084109059534967, -0.00048282823991030455, 0.0007976044435054064, -0.00045268883695825934, -0.0002844718983396888, 8.81871601450257e-05, 0.00013004108041059226, -0.0001520376099506393, 0.00019201768736820668, -0.00032746573560871184, -0.00010751028457889333, -0.0005187260103411973, -0.0007930310093797743, -0.0005564384628087282, -0.00023070702445693314, -0.0006274291081354022, -0.0005822376697324216, -7.133308099582791e-05, 0.0002186173078371212, -0.0005999761051498353, -0.00020141042477916926, -0.0002754706656560302, 0.00022359720605891198, 0.0008794761379249394, 0.0005181836895644665, -0.0008794479072093964, 0.00010879139881581068, 0.0005180787993595004, 0.00012419745326042175, 0.0007072433945722878, 0.00018581024778541178, 0.00032971863402053714, 0.0004482919175643474, -0.00020498695084825158, 0.0005826292908750474, -0.00016163777036126703, 5.374288957682438e-05, -0.0003650569706223905, 0.00029481149977073073, -0.0001506213884567842, -0.00043236493365839124, -0.0012153101852163672, 0.0007079684874042869, 0.00017267219664063305, 0.0005720377084799111, -0.0006642595981247723, 0.0006403248407877982, -6.732226756867021e-05, -0.0005937076057307422, 0.0002428621519356966, 0.0007279112469404936, -0.00020336548914201558, 9.663201490184292e-05, -0.0007675705710425973, 4.046261892654002e-05, -0.00036464454024098814, 0.0002244577626697719, -0.0002619494334794581, -0.0007070411229506135, -3.717318395501934e-05, -0.0007972968160174787, -0.00020639099238906056, 0.0004545339907053858, -1.916283872560598e-05, 0.0007874847506172955, -0.00017712531553115696, -7.801355241099373e-05, -0.0002695755392778665, -0.00025181929231621325, -0.0002769945713225752, 0.0006371139315888286, -0.0007980905356816947, 0.00041936972411349416, -0.0004462790675461292, 1.5111994798644446e-05, -0.0006087083020247519, 0.0005417051143012941, -0.0003085159696638584, -0.0011823512613773346, 5.794674143544398e-05, 0.0006298081716522574, -0.0010821610921993852, 0.00017740574548952281, -0.0008911308832466602, 0.000403538258979097, -0.000159377115778625, 0.0003088628582190722], [-0.02723194658756256, -0.08102337270975113, 0.029309431090950966, -0.011773529462516308, 0.013262029737234116, -0.07607812434434891, -0.010892265476286411, -0.07516535371541977, 0.014401901513338089, 0.011511804535984993, -0.007596681360155344, -0.009732866659760475, 0.05435139313340187, -0.07434925436973572, 0.06792326271533966, -0.07617978751659393, 0.07224640250205994, -0.08007385581731796, -0.08063908666372299, -0.07785078883171082, -0.06802695244550705, -0.07978284358978271, 0.07568467408418655, 0.07668695598840714, -0.06754014641046524, -0.07661660760641098, 0.02248656377196312, -0.03493120148777962, 0.07110920548439026, -0.015682997182011604, -0.03259432688355446, -0.07517586648464203, 0.07774396985769272, -0.02588903345167637, 0.07705315947532654, -0.0394180603325367, 0.07170627266168594, -0.07787680625915527, 0.010944295674562454, 0.08687523007392883, 0.0502006933093071, -0.07561922073364258, 0.06898774206638336, -0.02167447656393051, 0.015941571444272995, 0.021665258333086967, -0.02507048472762108, -0.07411183416843414, 0.012261065654456615, -0.07695062458515167, 0.045942798256874084, 0.0745861753821373, 0.016888543963432312, 0.06841467320919037, 0.06696821749210358, 0.05763993784785271, 0.011644454672932625, 0.023841921240091324, 0.010916308499872684, -0.016536861658096313, 0.0781099796295166, 0.06875494867563248, 0.07632973790168762, -0.07119635492563248, -0.03307948261499405, -0.0730709508061409, 0.06874331086874008, -0.015377087518572807, -0.010137822479009628, -0.011784767732024193, -0.08522757142782211, -0.07321696728467941, -0.07032713294029236, -0.0704180896282196, 0.06883159279823303, -0.07135095447301865, 0.078595370054245, -0.04883592575788498, 0.009342426434159279, -0.06990457326173782, 0.07211869210004807, 0.070733442902565, 0.07012224197387695, -0.06079787760972977, -0.06236201897263527, -0.06584937870502472, 0.07428909093141556, -0.07812018692493439, 0.08098050206899643, 0.03675108030438423, -0.031118648126721382, -0.0739293172955513, 0.02136763371527195, -0.06761608272790909, 0.009983583353459835, -0.06987002491950989, 0.08228748291730881, -0.0634273886680603, 0.07362660765647888, 0.03545137494802475, 0.023894505575299263, 0.012160534970462322, 0.05434950813651085, -0.07745165377855301, 0.07535206526517868, -0.07944057136774063, 0.020941395312547684, 0.043105170130729675, 0.07095546275377274, 0.016894275322556496, 0.023038456216454506, -0.06796381622552872, 0.012203320860862732, -0.0673852264881134, 0.06073255091905594, -0.06535113602876663, 0.0791725218296051, -0.014502243138849735, 0.0541401281952858, 0.06631506234407425, -0.07588384300470352, -0.07919741421937943, 0.022456282749772072, -0.07480405271053314, 0.039569102227687836, -0.08090727031230927, 0.0900147408246994, -0.07247093319892883], [-0.0002666984510142356, -3.2492807804374024e-05, 6.421725993277505e-05, -0.00038803982897661626, 0.0001787170476745814, -0.00014579156413674355, -0.0002921637787949294, -3.006460246979259e-05, 0.0006162062054499984, 0.0008929029572755098, -0.0006314143538475037, -0.0003213854506611824, 0.00022893275308888406, -0.00012522460019681603, 0.0005313663277775049, -0.000185799173777923, 4.0965594962472096e-05, -5.153918664291268e-06, -0.00013052229769527912, -0.00011625281331362203, -5.442558176582679e-05, -0.0006763467099517584, 0.0002217712753918022, 0.0007067692349664867, -0.0007217848906293511, -4.4678068661596626e-05, 0.00037070809048600495, -0.0007079255301505327, 0.0006471867673099041, -0.00043859565630555153, -0.0008822535746730864, -6.478096474893391e-05, 0.000361358979716897, -0.0003734605561476201, 3.597872364480281e-07, -0.00024895722162909806, 0.0002728662802837789, -1.7412641682312824e-05, 0.00032796652521938086, 0.00018182490020990372, 0.0003293257032055408, -0.0009636800386942923, 4.477209222386591e-05, -0.0005965874879620969, 0.0004945045802742243, 0.0006214072927832603, -2.0767165551660582e-05, -0.0003341651754453778, 0.0012448527850210667, -0.00030487828189507127, 0.00024026464961934835, 0.0009329529129900038, 0.0007674252847209573, 9.390316699864343e-05, 0.00015562327462248504, 0.0009136972948908806, 0.0005833030445501208, 0.0006304658600129187, 7.215155346784741e-05, -0.00048057062667794526, 4.7841785999480635e-06, 0.00022810617520008236, 0.0004777002613991499, -7.91209822637029e-05, -0.0008910753531381488, -0.0003957898879889399, 0.0004521847004070878, -0.0005153810488991439, -1.4722097148478497e-05, -0.00043094457942061126, -0.0001262110599782318, -0.00045644244528375566, -9.076114656636491e-05, -0.0006455769762396812, 0.0004238442052155733, -0.0004010178381577134, 0.00021469089551828802, -0.00018206371169071645, 0.00016502039215993136, -0.00039908543112687767, 0.0008532709325663745, 0.00040405671461485326, 0.0004943551030009985, -0.0006070290110073984, -0.000304106913972646, -1.7727217709762044e-05, 3.770099283428863e-05, -5.5445125326514244e-05, 0.00012735043128486723, 0.0004968366702087224, -0.00035174278309568763, -0.00015575528959743679, 4.9082318582804874e-05, -0.00019104461534880102, 0.0005060604307800531, -2.0873585526715033e-05, 0.00010883321374421939, -3.094954809057526e-05, 1.1694060958689079e-05, 0.00015905445616226643, 0.00027344326372258365, 0.00027620745822787285, 0.00044197915121912956, -0.0003666239499580115, 0.0006064319750294089, -0.0007146417046897113, 6.434013630496338e-05, 1.9902005078620277e-05, 0.00018754389020614326, 2.758181290118955e-05, 0.00029144788277335465, -0.00015340960817411542, 9.238765778718516e-05, -9.660833893576637e-05, 0.0001851257256930694, -0.0006631235592067242, 8.583199087297544e-05, -0.00010300033318344504, 1.8656239262782037e-05, 0.0004220720147714019, -0.0003561556222848594, -0.0003965668729506433, 0.00044016874744556844, -0.00015579949831590056, 0.0002926673914771527, -0.0003597501781769097, 9.329852764494717e-05, -1.2650211829168256e-05], [-4.072571755386889e-05, -4.580328459269367e-05, 2.727503897403949e-06, -1.3050756933807861e-05, 1.387314114253968e-05, -0.00011754965089494362, -1.5475221516680904e-05, -3.081389513681643e-05, -8.795165740593802e-06, -2.229122765129432e-05, -1.516277825430734e-05, -2.9565657314378768e-05, 6.906318958499469e-06, -2.7371233954909258e-05, 6.739731907146052e-05, -3.254259127061232e-06, 6.837186083430424e-05, -4.979895311407745e-05, -1.481476010667393e-05, 1.098330358217936e-05, -2.1247664335533045e-05, -9.5192706794478e-05, 5.397662243922241e-05, 5.012327528675087e-05, -3.8400105495384196e-07, -3.9583414036314934e-05, 1.685244933469221e-05, -3.529364403220825e-05, 4.6099019527900964e-05, -0.00010089616262121126, -0.0001196168377646245, -7.8753633715678e-05, 4.962996536050923e-05, -4.034788071294315e-05, 1.7760155969881453e-05, 4.8564784265181515e-06, 7.590301720483694e-06, -7.5781722443934996e-06, 2.756512458290672e-07, 3.8582729757763445e-05, 4.909003109787591e-06, -7.779446605127305e-05, 4.4490974687505513e-05, -2.4265871616080403e-05, 3.9113310776883736e-05, 3.5908255085814744e-05, -1.8727861970546655e-05, -0.0001450919808121398, 4.4329695811029524e-05, -3.130203185719438e-05, 0.00017987498722504824, 2.233894520031754e-05, 4.2450992623344064e-05, -4.140427336096764e-06, 5.772541953774635e-06, 1.426991821062984e-05, 2.036117439274676e-05, 0.00011862194514833391, 1.0643670975696295e-05, 9.706765922601335e-06, 7.4109866545768455e-06, 9.374106411996763e-06, -2.0754871457029367e-06, 1.9959777546318946e-06, -5.306184175424278e-05, 2.3478628463635687e-06, 0.00010143099643755704, -8.349844392796513e-06, -5.720112312701531e-05, -4.3100644688820466e-05, -1.7362357539241202e-05, -1.6761936421971768e-05, 6.593623425033002e-07, -7.111030754458625e-06, 4.777797948918305e-05, -4.809181336895563e-05, 0.00011033408372895792, 5.637327831209404e-06, 7.051912689348683e-05, -3.561347330105491e-05, 0.0001571423199493438, 6.998576282057911e-05, 2.4280920115415938e-05, -9.814689292397816e-07, -4.386462387628853e-05, -6.764640602341387e-06, 3.1007301004137844e-05, -9.98190080281347e-05, 2.8828859285567887e-05, -1.1037180229322985e-05, -6.261415546759963e-05, -0.0001041979412548244, 8.772200999374036e-06, -4.69610677100718e-05, -3.449854602877167e-06, -8.61282751429826e-06, 0.00010365543130319566, -1.5972129403962754e-05, 8.381275256397203e-05, 1.6578380382270552e-05, -1.7435890185879543e-05, -2.686183051991975e-06, 8.297192835016176e-05, -1.283539313590154e-05, 2.3271333702723496e-05, -0.00021486460173036903, 7.246087625389919e-05, 5.762637374573387e-05, 2.796864282572642e-05, 4.45820251115947e-06, -5.194267941988073e-06, -2.762168151093647e-05, 1.1026042557205074e-05, -3.794919030042365e-05, 3.3327207347610965e-05, -0.0002422806282993406, 3.1308954930864275e-05, -1.5642970538465306e-05, 3.349686448927969e-05, 5.4101630666991696e-05, -8.328346302732825e-05, -9.501862223260105e-05, 7.394877320621163e-05, -2.5253290004911833e-05, 4.253856241120957e-05, -2.962824873975478e-05, 1.0464878869242966e-05, -6.668816058663651e-05], [-0.0005010117893107235, -0.0005199330043978989, 3.488973015919328e-05, -5.101508941152133e-05, 0.000566161354072392, -0.0001763831387506798, -0.0007821694598533213, -0.0003697942302096635, 0.0009490891825407743, 0.00029288011137396097, -0.0003843385202344507, -0.00013283418957144022, 0.00018827732128556818, -1.0042848543889704e-06, 0.000205705247935839, -0.00015694282774347812, 0.00010913413279922679, -0.00033322651870548725, -0.0005345920799300075, -0.0003106726217083633, -0.0003430565120652318, -0.0009711858001537621, 0.0010238371323794127, 0.0003667022392619401, -2.330839924979955e-05, -0.00011265822104178369, 2.669549940037541e-05, -0.0003959409659728408, 0.0003803227737080306, -3.124699287582189e-05, -0.0010692583164200187, -0.00011481880937935784, 0.0010325454641133547, -0.0005969838239252567, 0.00010809400555444881, -0.00022690331388730556, 0.0010158659424632788, -0.0006257480126805604, 0.00038268190110102296, 0.0005525210872292519, 9.110348764806986e-05, -0.0007963745156303048, 0.00018791564798448235, -0.00024203216889873147, 0.0005630109808407724, 0.00025565101532265544, -0.00042273939470760524, -0.00041187493479810655, 0.0022094780579209328, -0.0005484826397150755, 0.0006395906675606966, 0.00014915541396476328, 0.00013996087363921106, 0.0002848042349796742, 0.00020137548563070595, 8.47966002766043e-05, 9.789760952116922e-05, 0.0006215217872522771, 0.0002607960195746273, -0.00012457864067982882, 4.086350236320868e-05, 0.0006211404106579721, 0.0004793616244569421, -0.00030420301482081413, -0.00041897522169165313, -5.3975316404830664e-05, 0.00025307966279797256, -0.0009747749427333474, -0.0012793849455192685, -0.0006467056227847934, -0.0010230203624814749, -0.0002518706605769694, -0.0005213586846366525, -3.225108957849443e-05, 0.0003179428749717772, -0.000605946232099086, 0.00012120627798140049, -4.1258808778366074e-05, 0.0010050581768155098, -0.00010774908150779083, 0.0005905881407670677, 0.000650696107186377, 0.00034393745590932667, -0.00022242541308514774, -0.0002885974245145917, -0.0005806139670312405, 4.9592912546359e-05, 3.9605538404430263e-07, 0.00033418822567909956, 0.0004177929076831788, -0.00021775597997475415, -0.00061327766161412, 4.722478115581907e-05, -0.0007045659585855901, 0.0006618117913603783, -0.0003789026231970638, 0.0006147565436549485, -0.0006097890436649323, 0.0002512369828764349, 0.0003539971658028662, 0.0008548086625523865, 0.000388562330044806, 0.00016034844156820327, -0.0005536344833672047, 0.00022172245371621102, -0.00043794457451440394, 0.00034518729080446064, 0.0003503011539578438, 0.0006666748668067157, 5.932762724114582e-05, 0.00017068927991203964, -0.0008210025262087584, 0.0004180323740001768, -0.0007057084003463387, 0.001337433117441833, -0.00035750435199588537, 0.0007755563128739595, -0.00028946888050995767, 0.00012223466183058918, 0.0004296255065128207, -0.00013093705638311803, -1.66923400684027e-05, 0.0005933987558819354, -0.0003435954567976296, 0.00014366199320647866, -0.0001025527308229357, 6.836984539404511e-05, -0.0003087958903051913], [0.0007191506447270513, 0.0007267538458108902, -0.0009159258333966136, 0.0005177122075110674, -0.0009410144994035363, 0.0008083600550889969, 0.000193845116882585, 0.0003238728968426585, -0.0015110380481928587, -0.00022399512818083167, 1.617113230167888e-05, 0.0005069699254818261, -0.0006134129362180829, 0.0012028260389342904, -0.000809592311270535, 0.00045271229464560747, -0.0003074539708904922, 1.2219621567055583e-05, 0.000724653946235776, 5.508440517587587e-05, 0.0007774924160912633, 0.00035892517189495265, -0.0010338054271414876, -0.0007140450179576874, 0.0003717643558047712, 0.00022582717065233737, -0.0002156462287530303, 0.00036997225834056735, -6.565094736288302e-06, 0.001655123196542263, 0.00043255131458863616, 0.0005763645749539137, -0.00043092554551549256, 0.0007065348909236491, -8.015370985958725e-05, 0.0002187460195273161, -0.0006958664744161069, 0.0008101914427243173, -0.00046881206799298525, -0.0004004288057330996, -0.00019642837287392467, 0.0014804202364757657, -0.00040869845543056726, 6.713249604217708e-05, -0.0006424097227863967, -0.0002779740607365966, 8.193095709430054e-05, 0.0002107735344907269, -0.00012787086598109454, 0.001031500636599958, -9.507088543614373e-05, -8.365205576410517e-05, -0.0005949549376964569, -0.00013723433949053288, -0.00033439972321502864, -0.0005728536634705961, -0.0007139762165024877, -0.0006461070151999593, -0.0007111608283594251, 0.00012231938308104873, -0.0006153095746412873, -0.0009483504691161215, -0.0010917017934843898, 0.00023665417393203825, 0.0007496795151382685, 0.00042358640348538756, -0.0004965156549587846, 5.2133415010757744e-05, 0.0001705747126834467, 0.0008626189082860947, 0.0005535662057809532, 0.00026078621158376336, 6.991914415266365e-05, 0.0003378772526048124, -2.5353438104502857e-05, 0.0005075277877040207, -0.0005897989613004029, 1.747484930092469e-05, -0.00011363240628270432, 7.021699275355786e-05, -6.866182502562879e-06, -0.0013644762802869081, -0.0011046745348721743, 6.982142804190516e-05, 0.0005742305074818432, 0.0003340174735058099, -9.68581807683222e-05, 0.0006362340645864606, -0.0006163420621305704, -0.0007355016423389316, 0.0003439926658757031, 0.0009318889933638275, -0.00016509395209141076, 0.00041129853343591094, -0.0004300248110666871, 0.0001755577977746725, -0.0013543108943849802, 0.0006792894564568996, -0.0006177257746458054, -0.00037628866266459227, -9.591773414285854e-05, -0.0007424731156788766, -0.0015613222494721413, 0.0004597772494889796, -0.0005040796822868288, 0.0011638205032795668, -0.00011541168350959197, -0.0020299656316637993, -0.0003629934508353472, -0.00024595894501544535, -0.0009409052436240017, 0.0008707399829290807, -0.00036673719296231866, 0.0007670948980376124, -0.0003992475976701826, 0.0009116624714806676, -0.000529928132891655, 0.00046200089855119586, -8.590631478000432e-05, -0.0002855238562915474, 0.0002823270333465189, 0.0009978769812732935, -0.0006473947432823479, 4.798608279088512e-05, -0.0008588453056290746, 0.001138362567871809, -0.0002992025692947209, 0.00026255499687977135], [-4.88496407342609e-05, -0.00013830287207383662, 0.00020159437553957105, 5.062491254648194e-06, 1.6139985746121965e-05, -0.0003214964526705444, -0.0002672964765224606, -5.2302260883152485e-05, 9.279605001211166e-05, 4.115885167266242e-05, -2.8022559490636922e-05, -0.00010015914449468255, 7.182412082329392e-05, -5.417110151029192e-05, 0.00014406205445993692, -0.00016738912381697446, 0.0003051877429243177, -0.00017019276856444776, -8.501737283950206e-06, -7.528155401814729e-05, -3.6701527278637514e-05, -2.1914509488851763e-05, 0.00021892499353270978, 0.00024011456116568297, -7.460566121153533e-05, -0.00013531095464713871, 0.00012495084956754, -9.06889617908746e-05, 4.7072644520085305e-05, -1.6243513528024778e-05, -1.8918372006737627e-05, -8.550387428840622e-05, 7.774906407576054e-05, -0.0002899635292124003, 0.00013399521412793547, -5.090353079140186e-05, 9.307036816608161e-05, -6.240401125978678e-05, 0.0002970925415866077, 6.688656139886007e-05, 0.0002100063138641417, -7.172688492573798e-05, 3.917692538379924e-06, -4.122185146115953e-06, -4.004718050509837e-07, 1.3968079883852624e-06, -3.058572474401444e-05, -5.0916136387968436e-05, 0.0002367475681239739, -0.0001464262168155983, 2.3654916731175035e-05, 3.241219383198768e-05, -4.4914136196894106e-06, 1.641835660848301e-05, 0.00011268662638030946, 1.7955777366296388e-05, 0.00025210209423676133, 5.822512321174145e-06, 9.558581950841472e-05, -5.29185235791374e-05, 2.3698828954366036e-05, 8.950224582804367e-05, 3.42950843332801e-05, -0.0001240761048393324, -8.756268653087318e-05, -3.564740836736746e-05, 2.5568468117853627e-05, -9.138316841017513e-07, -3.15137040161062e-05, -2.6957050067721866e-05, -4.0011160308495164e-05, -1.3232217497716192e-05, -2.062937528535258e-05, -4.528199497144669e-06, 4.325130066717975e-05, -0.0001058345369528979, 3.51743474311661e-05, -1.426663493475644e-05, 0.00029532669577747583, -7.327849743887782e-05, 6.8447266130533535e-06, 3.081313843722455e-05, 5.154831160325557e-05, -6.419889541575685e-05, -3.394361192476936e-05, -1.6233135511356522e-06, 0.00012977203004993498, -0.0002147835912182927, 9.280435187974945e-05, 0.00036742337397299707, -0.00010477164323674515, -0.00018186985107604414, 6.148641841718927e-05, -2.746217205640278e-06, 0.0002398413635091856, -0.00011139204434584826, 7.109849684638903e-05, 1.5192181308520958e-06, 2.5659062430349877e-06, 5.3285617468645796e-05, 7.648031896678731e-05, 5.9855163272004575e-05, 8.733729919185862e-05, -6.288800796028227e-05, 6.867702177260071e-05, -0.0001180289254989475, 0.00023811898427084088, 5.4557684052269906e-05, 8.142029400914907e-05, 0.00011015702330041677, 0.00010082306835101917, -2.7043166483053938e-05, 9.567228698870167e-05, -0.00010964332614094019, 5.577112824539654e-05, -0.00025161600206047297, 9.556693839840591e-05, -2.6192878067377023e-05, 9.110202518058941e-05, 7.040597120067105e-05, -5.960807902738452e-05, -5.2020495786564425e-05, 0.00021477720292750746, -8.606862422766426e-08, 0.00021357588411774486, -0.00031428132206201553, 7.417274173349142e-05, -3.837370513792848e-06], [0.028387252241373062, 0.025261763483285904, -0.015497063286602497, 0.014001688919961452, -0.02143934927880764, 0.010350143536925316, 0.019261591136455536, 0.025944683700799942, -0.031627971678972244, -0.04691309481859207, 0.026522237807512283, 0.01131792925298214, -0.08492547273635864, 0.0399596281349659, -0.05023782700300217, 0.05310532823204994, -0.021984077990055084, 0.0242258682847023, 0.05437230318784714, 0.02120634913444519, 0.021044712513685226, 0.013054612092673779, -0.015644580125808716, -0.012370085343718529, 0.018024470657110214, 0.02619004249572754, -0.10725045949220657, 0.017120663076639175, -0.06067921966314316, 0.019260277971625328, 0.01825902797281742, 0.03230472281575203, -0.04153375327587128, 0.019709285348653793, -0.0217313002794981, 0.10126549750566483, -0.037267185747623444, 0.030121661722660065, -0.020791659131646156, -0.014923065900802612, -0.016952404752373695, 0.0246454905718565, -0.030137620866298676, 0.05305846035480499, -0.039655257016420364, -0.04162470996379852, 0.01535276509821415, 0.015796858817338943, -0.0147115308791399, 0.029101399704813957, -0.017330098897218704, -0.04270492494106293, -0.019042769446969032, -0.06150268390774727, -0.011655410751700401, -0.027034476399421692, -0.01820959337055683, -0.01695338450372219, -0.02042439393699169, 0.026052098721265793, -0.024505650624632835, -0.02690861001610756, -0.022523993626236916, 0.028888411819934845, 0.021580519154667854, 0.03957437723875046, -0.03148187696933746, 0.013539577834308147, 0.034026093780994415, 0.020788472145795822, 0.03287805989384651, 0.019778499379754066, 0.018192412331700325, 0.034458618611097336, -0.03765042871236801, 0.022138429805636406, -0.016475271433591843, 0.08701945096254349, -0.00996226817369461, 0.04461409151554108, -0.020734569057822227, -0.039825133979320526, -0.01432756893336773, 0.018611367791891098, 0.04265635088086128, 0.03970544785261154, -0.03481803089380264, 0.010584335774183273, -0.017949417233467102, -0.008672117255628109, 0.09327834099531174, 0.016379306092858315, -0.05049467459321022, 0.034609757363796234, -0.03158429637551308, 0.017263414338231087, -0.011522423475980759, 0.07494330406188965, -0.01633623242378235, -0.012226088903844357, -0.02863939478993416, -0.03049221634864807, -0.011819909326732159, 0.01189037598669529, -0.03924530744552612, 0.01113776583224535, -0.030783452093601227, -0.02909674122929573, -0.025289108976721764, -0.06701161712408066, -0.023052643984556198, 0.027551822364330292, -0.013596894219517708, 0.08539259433746338, -0.02807198278605938, 0.029884234070777893, -0.015313933603465557, 0.04195597767829895, -0.022739680483937263, -0.016440609470009804, 0.01817205362021923, 0.012882577255368233, -0.015767985954880714, 0.030820755288004875, -0.018661195412278175, 0.024837832897901535, -0.04183249920606613, 0.033891964703798294], [7.436297892127186e-06, -0.0001001325435936451, 7.019199983915314e-05, -3.3350158901157556e-06, 5.341809810488485e-05, 9.348987077828497e-06, -0.000187706682481803, -4.293493930163095e-06, -8.40949360281229e-06, 3.0443592550000176e-05, -3.3959067877731286e-06, 6.090289843996288e-06, 2.7591659090830944e-07, -1.4208666470949538e-05, 4.795216955244541e-05, -6.236719491425902e-05, 5.535003583645448e-05, 7.595949682581704e-06, -9.701795534056146e-06, 1.044703367369948e-05, -1.9043480278924108e-05, -1.362557759421179e-05, -4.837736923946068e-06, -1.6395320926676504e-05, 4.122221980651375e-06, -1.769091068126727e-05, 1.772822542989161e-05, -6.909338844707236e-05, 2.3116170268622227e-05, -1.6368172509828582e-05, -4.013436409877613e-05, 6.0316187955322675e-06, 4.2868265154538676e-05, -5.246514774626121e-06, 2.6558047466096468e-05, -1.987789119084482e-06, 1.5615618394804187e-05, -4.204668221063912e-05, -1.434198838978773e-05, 2.8676149668172002e-05, -4.333857759775128e-06, -0.00011996221292065457, 1.610062099643983e-05, 9.427226359548513e-06, -1.0704317901399918e-05, -8.904519290808821e-07, -3.0427116143982857e-05, 7.754968464723788e-06, 4.276591062080115e-05, -3.7627992242050823e-06, -1.5435321984114125e-05, 2.4496046535205096e-05, 2.5155331968562678e-05, 2.194417447753949e-06, 6.5770058427006e-05, 2.2832224203739315e-05, -6.335027592285769e-06, 3.8600766856689006e-05, -1.945563781191595e-05, -7.066882972139865e-06, 3.873247260344215e-05, 2.9503851692425087e-05, -3.3211108529940248e-06, -3.861654477077536e-05, -3.321317126392387e-05, -5.753108416683972e-05, 0.00015507063653785735, 9.84478356258478e-06, -0.00011422939860494807, -1.1967353202635422e-05, -3.771892443182878e-05, -7.6247260949457996e-06, 2.5860379082587315e-07, -5.460551619762555e-06, -5.702016210307193e-07, -0.00013188685989007354, -1.0236330126645043e-05, -4.85663667859626e-06, 0.00011585355969145894, -1.4560843737854157e-05, 2.7739817596739158e-05, 3.3419180454075104e-06, 5.019402306061238e-05, 1.1565995009732433e-05, -3.267220381530933e-05, -1.4990172530815471e-05, 1.5484562027268112e-05, -5.69564735997119e-06, -4.446591447049286e-06, 0.00013501955254469067, -1.0489419764780905e-05, -6.190639396663755e-05, 2.880625288526062e-05, -4.9027639761334285e-05, -9.538608537695836e-06, -5.0292396736040246e-06, -7.83130235504359e-06, -6.719595148751978e-06, -7.2449852268619e-06, 3.892431050189771e-05, 4.450808046385646e-05, 1.334463286184473e-05, -2.6552266717772e-05, -3.403903974685818e-06, 2.802231210807804e-05, 1.2669135685428046e-05, -5.604079888144042e-06, -4.1297894313174766e-06, 3.5091077734250575e-05, 3.826185093203094e-06, 1.3909364497521892e-05, -1.9740120478672907e-05, 0.0001850974658736959, -9.971821782528423e-06, 0.00020236754789948463, -5.096650420455262e-05, 3.0348866857821122e-05, -3.645681863417849e-05, 2.1561718313023448e-05, -9.292356480727904e-06, -1.6813537513371557e-05, -4.514796091825701e-05, 1.6557072740397416e-05, 1.539054323984601e-06, -1.5063025784911588e-05, -3.064945121877827e-05, 6.190043677634094e-06, 1.0131070666830055e-05], [-1.3853869859303813e-05, -2.841704190359451e-05, 7.1183021645993e-05, 1.0558823305473197e-05, 8.434886353825277e-07, -0.00013426710211206228, -8.689521200722083e-05, -0.00010466330422786996, 2.9754357456113212e-05, 8.440712554147467e-05, -5.939505626884056e-06, -4.945302498526871e-05, 1.2505390259320848e-05, -1.5516559869865887e-05, 1.3541127827920718e-06, -0.00010996503988280892, -1.9490036720526405e-05, -6.922449392732233e-05, -3.244863546569832e-05, -6.62545717204921e-05, 7.303703114303062e-06, 3.865752660203725e-06, 3.662554081529379e-05, 3.140963235637173e-05, -6.865244358778e-05, -2.5070447009056807e-05, 2.824449802574236e-05, -1.7235346604138613e-05, 7.008132342889439e-06, -9.258451609639451e-05, -3.4748994949040934e-05, -6.525232311105356e-05, 1.1731365702871699e-05, -0.0001735350233502686, 4.0323448047274724e-05, -1.7626547560212202e-05, -5.668583980877884e-06, -4.1287090425612405e-05, 0.000164586934261024, 8.155579962476622e-06, 5.588486237684265e-05, -2.139741809514817e-05, -3.138028887406108e-06, -3.680523150251247e-05, 1.0124274012923706e-05, 8.899919521354605e-06, -8.136601536534727e-05, -0.00014110561460256577, 6.671484152320772e-05, -2.5270865080528893e-05, 6.950617262191372e-06, 2.1673595256288536e-05, -1.0542438758420758e-05, 5.5234133469639346e-05, 2.0125908122281544e-05, -1.5594773685734253e-06, 4.729447027784772e-06, -9.278141078539193e-06, 7.582915714010596e-05, 1.7619798953205645e-08, 7.888773325248621e-06, 2.1426087641884806e-06, 2.563862108218018e-05, -0.00010727041808422655, -4.0089140384225175e-05, -0.0001108931319322437, 4.216246816213243e-05, -2.781210969260428e-05, -7.586187712149695e-05, -2.5705532607389614e-05, -6.619818122999277e-06, -1.9448361854301766e-05, -8.718736353330314e-05, -3.9397132240992505e-06, 2.604190376587212e-05, -3.090997552135377e-06, 2.49167005677009e-05, 3.159833568133763e-06, -1.8944534758702503e-06, -8.11630286534637e-07, 2.6225457986583933e-05, 5.291085835779086e-05, 2.0525143554550596e-05, -3.4722222608252196e-07, -7.535664190072566e-05, -4.1134957427857444e-05, 6.46129556116648e-05, -6.198633400344988e-06, 3.152318822685629e-05, 5.26159092260059e-05, -3.1058000331540825e-06, -1.2842120668210555e-05, 1.0625303730193991e-05, -4.1773251723498106e-05, 2.5432513211853802e-05, -0.0001937301567522809, 4.4118924051872455e-06, -7.205880592664471e-06, 4.305032780393958e-05, 0.00016984315880108625, 3.453120734775439e-05, 6.217301415745169e-05, -1.2186705134809017e-05, -4.8110659918165766e-06, 7.968670252012089e-05, -0.00013284214946907014, -7.564567567897029e-06, 7.09380183252506e-05, 2.8559548809425905e-05, 6.845928965049097e-06, 4.209451435599476e-05, -3.481430758256465e-05, 9.283694089390337e-05, 6.163758826005505e-06, 5.7714707509148866e-05, -0.00020704582857433707, 0.00012319126108195633, -1.526146115793381e-05, 1.3287929505167995e-05, 2.4833939349377943e-08, -2.2243704734137282e-05, -1.5253614037646912e-05, 7.851514965295792e-05, -2.315397432539612e-05, 2.266368937853258e-05, -0.00017077707161661237, 9.226305701304227e-05, -4.566726056509651e-05], [-6.612102879444137e-05, -3.150830525555648e-05, 5.224355118116364e-05, -7.6256878855929244e-06, 6.237466004677117e-05, -5.008300649933517e-05, 1.1160637768625747e-05, -2.261483729171232e-07, -4.377207005745731e-06, 1.3975147339806426e-05, -5.5111333495005965e-05, -2.8806380214518867e-05, -1.7291735048274859e-06, -1.0565138836682308e-05, 0.0001235665986314416, -5.095662345411256e-05, 7.217415259219706e-05, -1.5128634004213382e-05, -5.635613888443913e-06, -0.00011898377124452963, -8.07638862170279e-05, -2.6827308829524554e-05, 7.389367056021001e-06, 5.736300954595208e-05, -7.498750164813828e-06, -3.0482249712804332e-05, 1.1029628694814164e-05, -1.6302059520967305e-05, 1.4626427400799002e-05, -5.1195602281950414e-05, -3.176304016960785e-05, -4.044695378979668e-05, 1.3540465033656801e-06, -3.7692239857278764e-05, -3.6186213492328534e-06, -3.8211848732316867e-05, 6.746749477315461e-06, -1.2362070265226066e-05, 4.648640697269002e-06, -6.19595130046946e-06, 3.571596971596591e-05, -0.00024005977320484817, 1.3111601219861768e-05, -5.096131644677371e-05, 1.3268583643366583e-05, 0.00010649961041053757, -3.923024269170128e-05, -4.901012289337814e-05, -7.481915872631362e-06, -3.717434810823761e-05, 5.690979742212221e-05, 8.998408702609595e-06, 4.7233021177817136e-05, 1.6462287021568045e-05, 5.209702794672921e-05, 7.93502913438715e-05, 7.812538569851313e-06, 9.727941687742714e-06, 4.1953044274123386e-05, -0.0001384888164466247, 9.029030479723588e-05, 2.7211912311031483e-05, -1.164580453405506e-06, 6.792480235162657e-06, -1.5620136764482595e-05, -3.715917409863323e-05, 3.530352842062712e-05, -2.3078900994732976e-06, 1.0180927347391844e-05, -6.500941526610404e-05, -6.421729631256312e-05, -6.392096565832617e-06, -4.182964039500803e-05, -7.2683092184888665e-06, 1.6717798644094728e-05, -4.309986616135575e-05, 1.698899177426938e-05, -5.6688455515541136e-05, 4.4609107135329396e-05, -4.2124094761675224e-05, -1.0111028132087085e-05, 2.474807115504518e-05, 4.107364929950563e-06, -1.0425717846374027e-05, 1.3796526445730706e-06, -1.6393458281527273e-05, 3.2912757887970656e-05, -4.2155254050157964e-05, 0.00014401631779037416, 4.439635085873306e-05, 2.119638793374179e-06, -3.073014158871956e-05, 1.917196459544357e-05, -7.717401604168117e-05, 1.1359585187165067e-05, -3.241369631723501e-05, 4.7605877625755966e-05, -2.318290626135422e-06, 3.4182264698756626e-06, 7.456355524482206e-05, 0.00011734203872038051, 1.1885195817740168e-05, 0.0001659012632444501, -7.645181904081255e-05, 5.85798843530938e-05, 5.27161603258719e-07, 4.045268360641785e-05, -1.8772847170112072e-06, 1.0536346053413581e-05, 4.1398769099032506e-05, 5.228353984421119e-06, -2.8673272026935592e-05, 5.2678442443720996e-05, -2.8488520911196247e-05, 0.00012858548143412918, -3.557942545739934e-05, 8.006212010513991e-05, -3.41966915584635e-05, -6.329857569653541e-06, 9.706764103611931e-05, -9.713907638797536e-05, -5.4032305342843756e-05, 0.00012210219574626535, -6.056405254639685e-05, 9.55369760049507e-05, -5.0271850341232494e-05, 8.967797839432023e-06, -1.113371763494797e-05], [0.00016702915308997035, 0.0033503426238894463, -0.038901787251234055, 0.011729459278285503, -0.00073828618042171, 0.02023247443139553, 0.032620206475257874, 0.0007167571457102895, -0.0008579884306527674, -0.006329488940536976, 2.7884252631338313e-05, 0.029103189706802368, -0.00054570083739236, 0.0008161048754118383, -0.00016639236127957702, 0.0008278288878500462, -0.021158238872885704, 0.0005419045919552445, 0.0016734556993469596, 0.0014334117295220494, 0.007310052867978811, 0.01211310364305973, -0.005549584981054068, -0.010932831093668938, 0.03403768315911293, 0.0016218635719269514, -0.0002802193630486727, 0.016574103385210037, -8.814354077912867e-05, 0.02189014106988907, 0.011386915110051632, 0.023015111684799194, -0.0005124167655594647, 0.0229977834969759, -0.0011778944171965122, 0.0005019839736633003, -0.0011274409480392933, 0.00025926975649781525, -0.03730139136314392, -0.0020796118769794703, -0.0010024065850302577, 0.033650945872068405, -0.0007463981746695936, 0.0012451672228053212, -0.00030274942400865257, -0.00027879903791472316, 0.0298629067838192, 0.008095892146229744, -0.04079602286219597, 0.00089672626927495, -0.01747683808207512, -0.0018276204355061054, -0.02145788073539734, -0.0005742479115724564, -0.01953216642141342, -0.0015541493194177747, -0.00952786672860384, -0.0015092696994543076, -0.02124747261404991, 0.0010500381467863917, -0.0015025802422314882, -0.02153867296874523, -7.19591262168251e-05, 0.02563938871026039, 0.0015113174449652433, 0.001649684039875865, -0.0323188342154026, 0.018733907490968704, 0.042516086250543594, 0.0024096083361655474, 0.002129768719896674, 0.0008579426212236285, 0.0008232866530306637, 0.0001491198781877756, -0.0004885912057943642, 0.023217597976326942, -0.004377853125333786, 0.0005940930568613112, -0.03630369156599045, 0.0007250263006426394, -0.023015620186924934, -0.014358140528202057, -0.0015135831199586391, 0.0011549432529136539, 0.0006997520104050636, 0.000350665592122823, -0.0006863492890261114, 0.014563864096999168, -0.001105989096686244, -0.03313655033707619, 0.0005558138946071267, 0.010558241978287697, -8.267781231552362e-05, 2.075815609714482e-05, -0.003709489945322275, 0.03085472621023655, -0.012370810844004154, 0.0004947594716213644, -0.0037852611858397722, -0.040378883481025696, -0.005155942868441343, -0.00017274083802476525, -0.03705214709043503, 8.304219954879954e-05, -0.022132664918899536, 0.02074749395251274, -0.011826859787106514, -0.016572488471865654, -0.001478338846936822, -0.0013851189287379384, -0.008684470318257809, 0.0010707576293498278, -0.025488080456852913, 0.0009239400969818234, -0.03920164331793785, 0.030615227296948433, -0.012127673253417015, 0.0016624868148937821, -0.0008914803620427847, -0.0120948925614357, 0.0033610486425459385, 0.01566203124821186, -0.03275762125849724, 0.0008431258029304445, -0.00016670046898070723, 0.03233698010444641, -0.0027631663251668215, 0.000876764243002981], [0.0027092096861451864, 0.0009704834083095193, -0.0017003954853862524, 0.001445267116650939, -0.0012404863955453038, 0.0011177662527188659, 0.0024842179846018553, 0.0020645949989557266, -0.001947806915268302, -0.0035543774720281363, 0.00020031801250297576, 0.001139331259764731, -0.0005949002807028592, 0.0015839984407648444, -0.0004948588903062046, 0.0011147439945489168, -0.00632545817643404, 0.0008283293573185802, 0.003760971361771226, 0.003518890356644988, 0.0018160954350605607, 0.003513383213430643, -0.0009873178787529469, -0.001287683378905058, 0.0009824302978813648, 0.003224452957510948, -0.0008207713253796101, 0.003981908317655325, -0.0004856386221945286, 0.004319894593209028, 0.0009863810846582055, 0.002761374693363905, -0.001655516098253429, 0.006420967169106007, -0.0031996658071875572, 2.7819411116070114e-05, -0.003123416332527995, 0.0016670813784003258, -0.002933902433142066, -0.001695142243988812, -0.0018520939629524946, 0.0011838878272101283, -0.00022319876006804407, 0.0018175231525674462, -0.0030785193666815758, -0.002481217263266444, 0.0023873834870755672, 0.0025203763507306576, -0.002288036048412323, 0.0012155806180089712, -0.0010927909752354026, -0.0009628463885746896, -0.0013405501376837492, -0.0006325435824692249, -0.0015194820007309318, -0.001327427919022739, -0.01436377502977848, -0.0035265395417809486, -0.0008003533002920449, 0.002399458782747388, -0.0012710090959444642, -0.0034608151763677597, -0.0013561599189415574, 0.0014420653460547328, 0.003029011655598879, 0.0028687401209026575, -0.0027479473501443863, 0.010592041537165642, 0.006330997683107853, 0.0016044058138504624, 0.003844114951789379, 0.002437864663079381, 0.0013919807970523834, 0.0024064069148153067, -0.0012584110954776406, 0.001427971525117755, -0.004143231548368931, 0.0007939118077047169, -0.015442353673279285, 0.0013308905763551593, -0.0017324219224974513, -0.0013684998266398907, -0.0064428118057549, 0.0024279425852000713, 0.000617819547187537, 0.0008786821272224188, -0.004174900706857443, 0.004113136325031519, -0.0008002168033272028, -0.008599132299423218, 0.0006721224053762853, 0.0016698630061000586, -0.0010424618376418948, 0.0006595772574655712, -0.0023889471776783466, 0.001085879746824503, -0.00230594864115119, 0.0012166763190180063, -0.0006364105502143502, -0.0038969076704233885, -0.0013774731196463108, -0.0018321534153074026, -0.001572021865285933, 0.0017942877020686865, -0.0066095441579818726, 0.00298495776951313, -0.0009787584422156215, -0.006852164398878813, -0.0036149790976196527, -0.0003121339832432568, -0.0016499917255714536, 0.0007086378172971308, -0.0015148913953453302, 0.000803199305664748, -0.005169398616999388, 0.004794325679540634, -0.002982422010973096, 0.0028127741534262896, -0.0006185638485476375, -0.002679771976545453, 0.001575153204612434, 0.005367978010326624, -0.0017999924020841718, 0.002052589086815715, -0.0036263829097151756, 0.0076993973925709724, -0.002431772882118821, 0.0010392635595053434], [-0.017574407160282135, -0.0791039988398552, 0.07046724855899811, -0.07629597932100296, 0.06798463314771652, -0.08182206004858017, -0.0791444480419159, -0.07562727481126785, 0.09052646905183792, 0.07387016713619232, -0.06349427253007889, -0.06573321670293808, 0.03170286864042282, -0.01630174182355404, 0.0642433613538742, -0.05909792706370354, 0.07729390263557434, -0.08294849097728729, -0.06752611696720123, -0.07819385826587677, -0.08320465683937073, -0.010658882558345795, 0.07896436750888824, 0.033480770885944366, -0.01668560691177845, -0.07724625617265701, 0.00393095426261425, -0.0815686583518982, 0.02517358772456646, -0.07573992758989334, -0.07265200465917587, -0.07805613428354263, 0.032548535615205765, -0.08352680504322052, 0.07467558979988098, -0.021526344120502472, 0.06600923091173172, -0.06748286634683609, 0.0844140574336052, 0.08003582805395126, 0.0732792466878891, -0.07880241423845291, 0.04691772535443306, -0.01740862801671028, 0.0753815770149231, 0.06984365731477737, -0.08127686381340027, -0.028600506484508514, 0.07197900861501694, -0.07567039877176285, 0.08189038187265396, 0.008892414160072803, 0.0732567310333252, 0.05774027854204178, 0.0690663754940033, 0.08997032046318054, 0.05908923223614693, 0.049768608063459396, 0.08202925324440002, -0.06888395547866821, 0.08157622069120407, 0.05566537752747536, 0.07535737752914429, -0.05290614813566208, -0.07056796550750732, -0.07510953396558762, 0.07298674434423447, -0.07577619701623917, -0.08166025578975677, -0.07943851500749588, -0.07163649052381516, -0.06749016791582108, -0.030233237892389297, -0.06880748271942139, 0.028937922790646553, -0.0751442015171051, 0.08192572742700577, -0.021740684285759926, 0.06989926099777222, -0.06421836465597153, 0.0760030671954155, 0.07485556602478027, 0.06772682815790176, -0.06549058854579926, -0.05110247805714607, -0.04350367188453674, 0.01732497103512287, -0.039419498294591904, 0.03146620839834213, 0.03530251979827881, -0.017830001190304756, -0.07088065147399902, 0.06104210019111633, -0.05895064026117325, 0.014699921943247318, -0.07311216741800308, 0.07566893845796585, -0.04778992012143135, 0.07722585648298264, 0.07223876565694809, 0.043438274413347244, 0.09008460491895676, 0.08098616451025009, -0.07753874361515045, 0.07802264392375946, -0.08225799351930618, 0.06866186857223511, 0.0850331261754036, 0.06684500724077225, 0.06017030030488968, 0.08477942645549774, -0.07496941089630127, 0.07588965445756912, -0.010141229256987572, 0.06443961709737778, -0.05865130573511124, 0.027868835255503654, -0.06745027005672455, 0.01980331912636757, 0.0803813636302948, -0.07718492299318314, -0.060826871544122696, 0.04307141527533531, -0.07443472743034363, 0.0862053632736206, -0.08171234279870987, 0.06811489164829254, -0.0634332224726677], [0.04453909397125244, 0.04302603751420975, -0.07453804463148117, 0.06138487160205841, -0.025207001715898514, 0.07084660232067108, 0.07851394265890121, 0.02305101789534092, -0.018936216831207275, -0.07027170062065125, 0.0018874447559937835, 0.06367290019989014, -0.0007892874418757856, 0.04111858829855919, -0.0046324594877660275, 0.030530115589499474, -0.0375799797475338, 0.05072562023997307, 0.02241811901330948, 0.04490535706281662, 0.06188837066292763, 0.03531469404697418, -0.06040378287434578, -0.011253423988819122, 0.01403073687106371, 0.028100019320845604, -0.0010811033425852656, 0.06376898288726807, -0.0011069632600992918, 0.06269258260726929, 0.009902351535856724, 0.06753506511449814, -0.02059263363480568, 0.06780923902988434, -0.03652101382613182, 0.0008006618591025472, -0.03147841989994049, 0.011957304552197456, -0.03481427580118179, -0.030239315703511238, -0.03681988641619682, 0.009356558322906494, -0.00037160181091167033, 0.0064169252291321754, -0.028975728899240494, -0.020152993500232697, 0.07616875320672989, 0.053923267871141434, -0.0738072544336319, 0.030251964926719666, -0.06198682636022568, -0.024714669212698936, -0.06148029491305351, -0.0013035733718425035, -0.06513892859220505, -0.018460862338542938, -0.033684439957141876, -0.02203710749745369, -0.033519942313432693, 0.026295088231563568, -0.03287006542086601, -0.07136674970388412, -0.041559960693120956, 0.03524705767631531, 0.027279559522867203, 0.04234268143773079, -0.0829802006483078, 0.0389653816819191, 0.013393685221672058, 0.05551609769463539, 0.029979059472680092, 0.01281784474849701, 0.0282478928565979, 0.012262588366866112, -0.0014371719444170594, 0.06922489404678345, -0.058936186134815216, 0.0007017031311988831, -0.06729946285486221, 0.0010716883698478341, -0.0694374218583107, -0.051674194633960724, -0.036039773374795914, 0.021539339795708656, 0.0008733851718716323, 0.0011287209345027804, -0.02831428498029709, 0.08001837134361267, -0.04352011904120445, -0.07261800020933151, 0.001485015032812953, 0.06305595487356186, -9.679365757619962e-05, 0.0056203329004347324, -0.05582389980554581, 0.07018785178661346, -0.05060935020446777, 0.0009916335111483932, -0.04981791600584984, -0.08039960265159607, -0.03950054943561554, -0.03334636986255646, -0.07437101751565933, 0.0428985171020031, -0.03881652653217316, 0.06667974591255188, -0.048538316041231155, -0.031563881784677505, -0.04112009331583977, -0.0016444093780592084, -0.054629772901535034, 0.05060289800167084, -0.06249365210533142, 0.0016764383763074875, -0.0721687600016594, 0.07225321978330612, -0.05909103527665138, 0.029779059812426567, -0.007287594489753246, -0.05267426371574402, 0.04634547606110573, 0.058684587478637695, -0.0651787519454956, 0.00995445903390646, -0.03924897685647011, 0.06746925413608551, -0.054156046360731125, 0.0027861304115504026], [0.04619788005948067, 0.044015273451805115, -0.04969761520624161, 0.04944654554128647, -0.029796123504638672, 0.05053732171654701, 0.051852673292160034, 0.02983687072992325, -0.04750203341245651, -0.0512930266559124, 0.0030269213020801544, 0.04240468516945839, -0.0009344194550067186, 0.036891233175992966, -0.011190909892320633, 0.034456703811883926, -0.012121882289648056, 0.04065569117665291, 0.028487136587500572, 0.04122425988316536, 0.04724123328924179, 0.02278648503124714, -0.04659637063741684, -0.04630637913942337, 0.059682175517082214, 0.020294969901442528, -0.00027245015371590853, 0.048411544412374496, -0.0013394035631790757, 0.047123171389102936, 0.04408082738518715, 0.04871305450797081, -0.026295596733689308, 0.05266667902469635, -0.02339668571949005, 0.0011800741776823997, -0.033562783151865005, 0.030831219628453255, -0.015137006528675556, -0.012937581166625023, -0.02647428959608078, 0.050851136445999146, -0.0005176863633096218, 0.017460869625210762, -0.010473494417965412, -0.02423425391316414, 0.013837242498993874, 0.03592510148882866, -0.05279011279344559, 0.03314752131700516, -0.04812240973114967, -0.026959117501974106, -0.04536998271942139, -0.004038184881210327, -0.043645039200782776, -0.04101445525884628, -0.03386252373456955, -0.023894965648651123, -0.0480772964656353, 0.030895328149199486, -0.04061120003461838, -0.04581854119896889, -0.041516080498695374, 0.05064374953508377, 0.006409600377082825, 0.04221154376864433, -0.04637308046221733, 0.046750184148550034, 0.01897781528532505, 0.04816420376300812, 0.05181066691875458, 0.029468702152371407, 0.030513087287545204, 0.021082906052470207, -0.0066985441371798515, 0.010755601339042187, -0.02424284629523754, 0.00020589966152328998, -0.04811103641986847, 0.0012678212951868773, -0.04963509738445282, -0.0439332015812397, -0.035208962857723236, 0.024325557053089142, 0.005037584807723761, 0.0005778393824584782, -0.03147140145301819, 0.05485937371850014, -0.009949544444680214, -0.05031627044081688, 0.001154196448624134, 0.0457785502076149, -0.00018959464796353132, 0.01174088753759861, -0.04569942504167557, 0.0473170168697834, -0.045183148235082626, 0.00199283380061388, -0.04143804311752319, -0.014356275089085102, -0.049540285021066666, -0.03951726481318474, -0.052362315356731415, 0.011882910504937172, -0.046187300235033035, 0.03413107618689537, -0.03882516920566559, -0.05135635286569595, -0.0390632301568985, -0.0023414879105985165, -0.046835482120513916, 0.04257647320628166, -0.04755319654941559, 0.0017503593116998672, -0.04052458703517914, 0.039787035435438156, -0.04759852588176727, 0.022218504920601845, -0.018168607726693153, -0.04617323353886604, 0.04310258477926254, 0.046866677701473236, -0.017343007028102875, 0.010759536176919937, -0.041886430233716965, 0.051901675760746, -0.03415805846452713, 0.0017719953320920467], [-6.14637101534754e-05, 6.401585324056214e-06, 5.0621198170119897e-05, -3.235159965697676e-05, 3.792198913288303e-05, -4.788645310327411e-05, -3.260657103965059e-05, -4.421583980729338e-06, 5.4230549721978605e-06, -2.2145995899336413e-05, 5.110258371132659e-06, -2.851098179235123e-05, 2.9740749596385285e-05, 3.0306362077681115e-06, 2.865459282475058e-05, -1.44024483006433e-07, 0.00010956316691590473, 1.108613446376694e-06, -7.08899551682407e-06, -3.4611395676620305e-05, -2.246703843411524e-05, -5.186614362173714e-05, -1.4749169849892496e-06, 2.058625250356272e-05, -1.3343091268325225e-05, -8.580614667152986e-05, 4.5404416596284136e-05, -4.2597046558512375e-05, 3.2539828680455685e-05, -4.923676897305995e-05, -2.286224662384484e-05, 1.50662126543466e-05, 9.696881534182467e-06, -0.00014335251762531698, -3.979733719461365e-06, -1.4026894632479525e-06, -5.326969130692305e-06, -1.4164377262204653e-06, 4.40418443758972e-05, 6.570217465196038e-06, 2.5470706532360055e-05, -6.241178198251873e-05, 1.2617262655112427e-05, -3.9900114643387496e-05, -1.3838564427715028e-06, -6.087856036174344e-06, -4.148721563979052e-05, -8.103083018795587e-06, 4.342462125350721e-05, -1.1779241503973026e-05, 6.554364517796785e-05, 5.431943463918287e-06, 6.170749838929623e-05, 3.305384234408848e-05, 3.2717955036787316e-05, 1.6275602092719055e-06, 2.0472674805205315e-05, 5.3065923566464335e-05, 2.6191502911387943e-05, -1.8630254999152385e-05, 1.3071413377474528e-05, 3.281261524534784e-05, 6.266255513764918e-05, -8.079877443378791e-05, -4.682000871980563e-05, 3.0465671443380415e-06, 4.256194006302394e-05, -2.6903662728727795e-05, -2.6946031539409887e-06, -3.529317837092094e-05, -0.0001193100688396953, 4.467624876269838e-06, -6.030303848092444e-05, -1.3518401829060167e-05, 1.1694258319039363e-05, -1.79471135197673e-05, 2.718570249271579e-05, -2.967779255413916e-05, 3.24789434671402e-05, -5.666096058121184e-06, 3.008791827596724e-05, 0.00010366051719756797, -2.926067963926471e-06, -1.317192982241977e-05, 3.26670578942867e-06, -2.065121771011036e-05, 4.313620593165979e-05, -0.00020976363157387823, 1.885402343759779e-05, 1.7708469385979697e-05, 6.95989342602843e-07, 3.707048676915292e-07, 2.298814433743246e-05, -7.275035386555828e-06, 5.285714360070415e-05, 7.725736395514105e-06, -6.1025930335745215e-06, -3.519521214911947e-06, -7.875712981331162e-06, 4.2119288991671056e-05, 1.3313613635546062e-05, 3.355865555931814e-05, 0.0001334456610493362, -2.1391218979260884e-05, -6.2330186665349174e-06, 6.509011200250825e-06, 9.340589713247027e-06, 6.0103840951342136e-05, 3.781953637371771e-05, 1.7305497749475762e-05, 1.669189600761456e-06, -1.4957144003346912e-06, -1.6872776541276835e-05, -2.3165037418948486e-05, 9.03177133295685e-05, -4.888197872787714e-05, 9.151161793852225e-05, -2.779389797069598e-05, 1.5931131201796234e-05, 3.804662628681399e-05, -2.8258648399059894e-06, -0.00015664711827412248, 2.448173518132535e-06, -1.5261721273418516e-05, 2.0433675672393292e-05, 9.382931239088066e-06, 9.9957669590367e-06, -2.015829704760108e-05], [-9.173553735308815e-06, -3.3822812838479877e-05, 0.00011420089867897332, -6.377135287038982e-05, 1.407431500410894e-05, 4.844553586735856e-06, -3.0276927645900287e-05, -2.388742177572567e-05, -1.7006681446218863e-05, 0.00017204844334628433, -3.977139840571908e-06, -4.062568405061029e-05, 4.941035513184033e-06, -2.4242177460109815e-05, 4.3752817873610184e-05, -1.7415744878235273e-05, -8.697666658008529e-07, -0.00010985850531142205, -1.8953657843212568e-07, -3.862211451632902e-05, -1.7982202393795887e-07, -2.6213932869723067e-05, 3.0992938263807446e-05, 4.430357876117341e-07, 5.732940735470038e-07, -2.5016544896061532e-05, -3.2217424177360954e-06, 3.877074504998745e-06, 1.544570295664016e-05, 2.569685648268205e-06, -1.4053889572096523e-05, -6.925805791979656e-05, -4.74177795695141e-06, 3.768590204344946e-06, 4.826306758332066e-05, -1.701860469438543e-06, -4.521440587268444e-06, -1.878200964711141e-05, 2.58074560406385e-05, -8.230877938331105e-06, 5.6746099289739504e-05, -8.703655112185515e-06, -7.970905357979063e-07, -3.939709858968854e-05, -4.611670647136634e-06, 1.92045035873889e-06, -2.092087743221782e-05, -9.12520681595197e-06, -8.127117325784639e-06, -5.245836655376479e-05, 3.3001684641931206e-05, 7.017768552941561e-07, 8.239557791966945e-05, 5.533119292522315e-06, 8.048280142247677e-05, 1.3248355571704451e-05, 4.236718268657569e-06, 3.83572478312999e-05, 7.051201100694016e-05, 1.912473862830666e-06, 3.432672031067341e-07, 6.207091064425185e-05, -3.026869535460719e-06, 7.2688817454036325e-06, -3.0645567221654346e-06, -1.968553988263011e-05, -2.648043846420478e-05, -6.531326653202996e-05, -1.1841713785543106e-05, -0.00017633971583563834, -3.982686757808551e-05, -2.1274923710734583e-05, -2.7422018320066854e-05, -2.0043113181600347e-05, 5.486421287059784e-05, -4.653263749787584e-05, 2.7386169676901773e-05, -7.582708803965943e-06, 5.174677789909765e-05, 1.920730483107036e-06, 2.8328226107987575e-05, -7.02167062627268e-06, 6.836752436356619e-05, -3.0714851163793355e-05, -5.0805601858883165e-06, -2.3326233531406615e-06, 1.934783904289361e-05, -4.897063990938477e-05, 6.146499799797311e-05, 6.664093234576285e-05, -1.9078004243056057e-06, -1.214810436067637e-05, -2.772084428670496e-07, 4.7749504119565245e-06, 3.469207149464637e-05, -0.00022146975970827043, 4.2434992792550474e-05, -3.2900388760026544e-05, -8.550600796297658e-06, 2.4574870622018352e-05, 7.868518150644377e-05, 7.203178392956033e-05, 0.00011474317579995841, -2.8960246709175408e-05, 6.087153815315105e-05, 3.9591427594132256e-06, 2.214528649346903e-05, -2.3707293621555436e-06, 2.9438091587508097e-05, 3.820197525783442e-05, 3.0093942768871784e-06, -6.52512680971995e-05, -2.1461324649862945e-05, -3.861116795178532e-07, 8.259724563686177e-05, -3.509561429382302e-05, 0.0001379717286908999, -7.5307652878109366e-06, 3.363528549016337e-06, 2.6195546524832025e-05, -8.20646255306201e-06, -3.762622509384528e-05, 2.635766395542305e-05, 4.805680418940028e-06, 8.68178358359728e-06, 3.979916527896421e-06, 2.7306858100928366e-05, -3.467909209575737e-06], [0.004281777422875166, 0.004181617870926857, -0.00813747476786375, 0.009352393448352814, -0.003495916025713086, 0.006489613559097052, 0.01578598842024803, 0.002579189371317625, -0.0048108818009495735, -0.011192086152732372, 0.0031763953156769276, 0.008315625600516796, -0.0007035996532067657, 0.003974204882979393, -0.0013941186480224133, 0.0031935751903802156, -0.008948178961873055, 0.003063413081690669, 0.002001659944653511, 0.005745389498770237, 0.006173301953822374, 0.008913960307836533, -0.0094620855525136, -0.008785194717347622, 0.008869336917996407, 0.003064046846702695, -0.000719281961210072, 0.007955777458846569, -0.0030882542487233877, 0.01175400149077177, 0.00950080156326294, 0.008495192974805832, -0.0021697094198316336, 0.006797512527555227, -0.008625791408121586, 0.000659140816424042, -0.0045416164211928844, 0.002753663109615445, -0.003734851721674204, -0.005185299087315798, -0.004933666437864304, 0.008693740703165531, -0.0018648513359948993, 0.0013810957316309214, -0.004351012408733368, -0.0020830598659813404, 0.0075456080958247185, 0.006765515543520451, -0.009581414982676506, 0.0047570024617016315, -0.004553232342004776, -0.0022441477049142122, -0.009152345359325409, -0.0020268133375793695, -0.00577394338324666, -0.00710270507261157, -0.006827748846262693, -0.0016723289154469967, -0.007600904442369938, 0.0026433232706040144, -0.001560564269311726, -0.0037146261893212795, -0.001950574922375381, 0.007661056239157915, 0.003567907027900219, 0.0032057426869869232, -0.010200131684541702, 0.00591374421492219, 0.00859089381992817, 0.0045517790131270885, 0.006455717608332634, 0.0033756806515157223, 0.003344434779137373, 0.0018371876794844866, -0.0023938012309372425, 0.010422712191939354, -0.003799191676080227, 0.0009023751481436193, -0.004285241011530161, 0.0008856946369633079, -0.006311140488833189, -0.007544714491814375, -0.00578864011913538, 0.0023422755766659975, 0.0018833420472219586, 0.0013402496697381139, -0.0031719286926090717, 0.004352319519966841, -0.006287324707955122, -0.014437980018556118, 0.0022958742920309305, 0.003518514335155487, -0.0021589905954897404, 0.002510028425604105, -0.006824426352977753, 0.013916338793933392, -0.0031544265802949667, 0.002087803091853857, -0.006237186957150698, -0.008510153740644455, -0.003544280305504799, -0.002224974799901247, -0.007526869419962168, 0.003878573887050152, -0.003803524188697338, 0.0112763037905097, -0.007065958809107542, -0.00732563016936183, -0.002413357375189662, -0.0026049476582556963, -0.005921612493693829, 0.0062933992594480515, -0.0071142492815852165, 0.0022182485554367304, -0.018627675250172615, 0.004320109728723764, -0.006005172152072191, 0.001979080494493246, -0.0023152255453169346, -0.0025584485847502947, 0.005091131664812565, 0.0030830251052975655, -0.00889778882265091, 0.005474401172250509, -0.003000105731189251, 0.014341849833726883, -0.0054154531098902225, 0.00220893113873899], [1.3199666682339739e-05, 7.409822865156457e-05, 7.784070476191118e-06, 6.292976468103006e-05, -1.3555155419453513e-05, 1.2006970791844651e-05, 3.770423791138455e-05, 7.32516564312391e-05, -3.867366467602551e-05, -2.680280204003793e-06, -2.624230319270282e-06, 4.4104730477556586e-05, -1.6220697943936102e-05, 0.00011761091445805505, -3.548938548192382e-05, 2.4766617571003735e-05, -2.8451426260289736e-05, 4.258583066985011e-05, 8.425541636825074e-06, -8.223823897424154e-06, 6.315585051197559e-05, 0.00010229190957034007, 1.0662131899152882e-05, -1.319799503107788e-05, -3.603238155847066e-06, -2.6547288598521845e-06, -2.0237444005033467e-06, -5.135541982781433e-07, -1.7553749785292894e-05, -2.2829767658549827e-06, 2.1217691028141417e-05, 3.696862404467538e-05, -2.9851231374777853e-05, 0.0001268762571271509, -2.7138956284034066e-05, 1.4373048543347977e-05, -6.323021079879254e-05, 2.261180998175405e-05, -4.593380799633451e-05, 2.0663105715357233e-06, 5.521920343198872e-07, 4.488951890380122e-05, -3.635773828136735e-05, 7.457648462150246e-05, -1.892089676402975e-05, 2.3473112378269434e-06, 6.524719356093556e-05, 1.5497889762627892e-05, -3.6435496440390125e-05, -1.5073233043949585e-06, -7.07099970895797e-05, -1.7767240478860913e-06, -2.761453106359113e-05, -3.1413681426784024e-05, -1.5477326087420806e-05, -1.7504797142464668e-05, -6.257564382394776e-05, -1.8320793969905935e-05, -2.23836577788461e-05, 6.659072096226737e-05, 4.216006345814094e-06, -7.539396028732881e-05, -2.3426167899742723e-05, 5.737762421631487e-06, 1.5237222214636859e-05, -2.1413937645320402e-07, -2.2613818146055564e-05, 2.8051717890775762e-05, -1.0519615898374468e-05, 2.3347372916759923e-05, -1.662457407292095e-06, 1.9841349057969637e-05, 3.457413549767807e-05, 3.694952465593815e-05, 2.195302386098774e-06, -1.735598561936058e-05, -2.5895594717439963e-06, 4.948079094901914e-06, -2.5188774088746868e-05, 7.350418513851764e-07, -1.3259210390970111e-05, -4.516698766110494e-07, 6.291498380051053e-07, 1.0287601071468089e-05, 7.364046268776292e-06, 3.607318285503425e-05, -2.8096748792449944e-05, 2.980311182909645e-05, 9.771412806003354e-06, -4.047546099172905e-05, 7.30508986634959e-07, 1.8684479528019438e-06, -1.9062417777604423e-05, 4.3936961446888745e-05, -7.298953278223053e-05, 0.00026683564647100866, -2.0711488105007447e-05, -6.223430773388827e-06, -2.5798342903726734e-05, -5.195829544391017e-06, -9.779832907952368e-06, -3.2207452022703364e-05, 1.670329220360145e-05, 2.6141240141441813e-06, -7.386716606561095e-05, 6.012120866216719e-05, -4.447380433703074e-06, 1.5665922546759248e-05, 8.943994544097222e-06, -2.7124038751935586e-05, -3.5074990591965616e-05, 5.310374035616405e-05, 1.6347963764928863e-06, 2.9058042855467647e-05, -4.966806955053471e-05, 2.2773529053665698e-05, -6.413934170268476e-05, 2.3061244064592756e-05, -3.1003623007563874e-05, -4.010385600849986e-05, 7.178929809015244e-05, 1.236622210853966e-05, -0.00019676590454764664, -2.582268734840909e-06, 6.481276955128124e-07, 0.00010510641732253134, -3.2763640774646774e-05, 3.2170867143577198e-06], [0.018800931051373482, 0.020568987354636192, -0.012602104805409908, 0.013194933533668518, -0.016051216050982475, 0.015412277542054653, 0.018028216436505318, 0.013971053063869476, -0.01595292240381241, -0.018714049831032753, 0.015420186333358288, 0.013041311874985695, -0.010572862811386585, 0.014393484219908714, -0.013063675723969936, 0.015094438567757607, -0.019526977092027664, 0.015689732506871223, 0.012137179262936115, 0.01598033867776394, 0.016860231757164, 0.01806074194610119, -0.013671902939677238, -0.01939796842634678, 0.014548144303262234, 0.014945379458367825, -0.013290946371853352, 0.01769159734249115, -0.015155799686908722, 0.018892474472522736, 0.014239099808037281, 0.014263572171330452, -0.016846435144543648, 0.015476034954190254, -0.016620952636003494, 0.012693637050688267, -0.014376182109117508, 0.01642586477100849, -0.020305678248405457, -0.01624738611280918, -0.01513566542416811, 0.01876980997622013, -0.014297458343207836, 0.020308805629611015, -0.016839098185300827, -0.014896263368427753, 0.019638970494270325, 0.014259889721870422, -0.01215814147144556, 0.017200279980897903, -0.014542769640684128, -0.012642246671020985, -0.015531133860349655, -0.016001883894205093, -0.010690797120332718, -0.018703151494264603, -0.011649617925286293, -0.013365919701755047, -0.013560405932366848, 0.017130689695477486, -0.013628421351313591, -0.013961543329060078, -0.013432848267257214, 0.012375499121844769, 0.016332736238837242, 0.01525979582220316, -0.01583280973136425, 0.013111899606883526, 0.014639188535511494, 0.012704561464488506, 0.01900789886713028, 0.015855278819799423, 0.018060704693198204, 0.01828734390437603, -0.016713619232177734, 0.013907556422054768, -0.018758349120616913, 0.010233845561742783, -0.014680391177535057, 0.01504823099821806, -0.014688005670905113, -0.014358940534293652, -0.014828840270638466, 0.015521894209086895, 0.013346687890589237, 0.014775604009628296, -0.014619290828704834, 0.013343434780836105, -0.016556760296225548, -0.011185448616743088, 0.016314171254634857, 0.011391302570700645, -0.0171428881585598, 0.014192702248692513, -0.015720916911959648, 0.014329158701002598, -0.012411660514771938, 0.013421122916042805, -0.012764343060553074, -0.015560592524707317, -0.01432733703404665, -0.01668791100382805, -0.016472937539219856, 0.014075576327741146, -0.01506492868065834, 0.013459977693855762, -0.013080821372568607, -0.018457787111401558, -0.013834048993885517, -0.018325157463550568, -0.015102021396160126, 0.016984347254037857, -0.012627322226762772, 0.015680519863963127, -0.012350345961749554, 0.01799742691218853, -0.01408546231687069, 0.015639280900359154, -0.017164990305900574, -0.0143479835242033, 0.013550519943237305, 0.01599985733628273, -0.01912890374660492, 0.014605937525629997, -0.017679328098893166, 0.014014835469424725, -0.018774081021547318, 0.015984293073415756], [0.007258125115185976, 0.0038171126507222652, -0.0373629555106163, 0.007572710979729891, -0.008727794513106346, 0.02043667808175087, 0.027142241597175598, 0.008736075833439827, -0.007420407608151436, -0.021848678588867188, 0.006339106243103743, 0.020427865907549858, -0.0016218803357332945, 0.010167188942432404, -0.0052418699488043785, 0.008147604763507843, -0.02078736573457718, 0.007854241877794266, 0.007997873239219189, 0.011643159203231335, 0.014241649769246578, 0.02222972922027111, -0.015518080443143845, -0.005424972157925367, 0.007814029231667519, 0.009205682203173637, -0.000430671643698588, 0.013158969581127167, -0.005027396604418755, 0.021328605711460114, 0.012351904064416885, 0.013910279609262943, -0.009243112988770008, 0.01992839388549328, -0.010930615477263927, 0.0009229585411958396, -0.004704107064753771, 0.009053586982190609, -0.007835392840206623, -0.003121141344308853, -0.0037949238903820515, 0.0255766361951828, -0.005922885145992041, 0.005075985565781593, -0.005052147898823023, -0.006388417910784483, 0.008654557168483734, 0.010000167414546013, -0.02617274411022663, 0.009189442731440067, -0.018832238391041756, -0.003178021404892206, -0.020069893449544907, -0.004670638591051102, -0.01829730160534382, -0.007833496667444706, -0.028993859887123108, -0.00517158443108201, -0.013942134566605091, 0.005346242338418961, -0.009148833341896534, -0.018331283703446388, -0.012577105313539505, 0.00893328059464693, 0.01279465202242136, 0.01279587484896183, -0.018645502626895905, 0.005833091679960489, 0.0071724881418049335, 0.009137999266386032, 0.011750075966119766, 0.009347137063741684, 0.008509628474712372, 0.007052361965179443, -0.005709962919354439, 0.01561804860830307, -0.018767990171909332, 0.0020237299613654613, -0.006789366714656353, 0.006782496813684702, -0.019365113228559494, -0.018497373908758163, -0.004991664085537195, 0.00787699967622757, 0.006810300052165985, 0.005696771200746298, -0.004681512247771025, 0.03316521272063255, -0.009610502049326897, -0.033398278057575226, 0.0028789211064577103, 0.021766426041722298, -0.007058199029415846, 0.0052185263484716415, -0.018460355699062347, 0.019347095862030983, -0.019696107134222984, 0.0026596970856189728, -0.010201087221503258, -0.02465670369565487, -0.008475740440189838, -0.00751305790618062, -0.02275405265390873, 0.00819025095552206, -0.01736205443739891, 0.0057213567197322845, -0.010946891270577908, -0.021122094243764877, -0.004449650179594755, -0.0023639779537916183, -0.015054321847856045, 0.010779463686048985, -0.024916140362620354, 0.008979052305221558, -0.010709991678595543, 0.02844122424721718, -0.017245179042220116, 0.009858784265816212, -0.005043535027652979, -0.005561471451073885, 0.004653668962419033, 0.0175369530916214, -0.007215249817818403, 0.008859195746481419, -0.010720656253397465, 0.027380093932151794, -0.004345459397882223, 0.006092920899391174], [2.6683226224122336e-06, -1.1633339454419911e-05, 0.00010409233073005453, -3.6455912777455524e-05, 3.4079537726938725e-05, -4.899698251392692e-05, -8.930548938224092e-05, -4.596688086166978e-05, -4.580562290357193e-06, 5.0020618800772354e-05, 4.664979769586353e-06, -0.00014636697596870363, 3.553206261130981e-05, -0.00018882258154917508, 3.645298784249462e-05, -3.8992243389657233e-07, 5.7765420933719724e-05, -3.441805893089622e-05, -5.171142038307153e-05, -4.754753899760544e-05, 1.5066367495819577e-06, -5.104398587718606e-05, 2.9166154490667395e-05, 3.859371645376086e-05, -0.00019007168884854764, -2.561550536483992e-05, 3.4342534490861e-05, -8.648229413665831e-05, 1.2574372703966219e-05, -6.507118087029085e-05, -0.00010107537673320621, -1.1287222150713205e-05, -2.9748521228611935e-06, -0.00012252644228283316, 6.383240543073043e-05, -1.5818935935385525e-05, 7.423026545438915e-05, 2.098384584314772e-06, 7.791359166731127e-06, 3.437843406572938e-05, 2.5021225155796856e-05, -1.8625094526214525e-05, 1.4240038581192493e-05, -9.925727681547869e-06, 8.849379810271785e-06, 1.2933561265526805e-05, 1.8404505226499168e-06, -0.00011085284495493397, 9.543347550788894e-05, -3.1174581636150833e-06, 2.0049630620633252e-05, 6.836246757302433e-05, 2.911993215093389e-05, 8.679310121806338e-05, 3.3390464523108676e-05, 0.00012965859787072986, 5.1777369662886485e-05, 5.840026278747246e-05, 0.00011683967750286683, -5.408557990449481e-05, 4.5669297833228484e-05, 2.7133763069286942e-05, 3.094971543760039e-05, -7.689216727158055e-05, -8.059238462010399e-05, -3.3425865694880486e-05, 8.135330426739529e-05, -0.00016245634469669312, -0.00028416040004231036, -0.00014814958558417857, -5.922672789893113e-05, -2.2474383513326757e-05, -9.204958769259974e-05, 1.9064707430516137e-06, 3.390201163711026e-05, -6.873779057059437e-05, 8.99618462426588e-05, -1.946339943970088e-05, 0.00019054881704505533, -7.780749001540244e-05, 0.00011293183342786506, 1.3176483662391547e-05, 5.3296107580536045e-06, -1.742712083796505e-05, -1.0347946954425424e-05, -9.633092122385278e-05, 1.3256063539301977e-05, -0.000402632838813588, 5.4210599046200514e-05, -5.139997938385932e-06, -1.2822684766433667e-05, -4.755771078635007e-05, 1.6572550521232188e-05, 3.1991548894438893e-06, 4.204670767649077e-05, -5.6846707593649626e-05, 1.5096352399268653e-05, -9.386696547153406e-06, 1.3033682989771478e-05, 4.801891918759793e-05, 7.4802890594583e-05, 0.00019578626961447299, -9.269966540159658e-06, -1.3237872735771816e-05, 3.279060183558613e-05, -8.021722896955907e-05, 5.04119525430724e-05, 1.347504530713195e-05, 2.7334835976944305e-05, 2.462858901708387e-05, 2.726730781432707e-05, -5.255822088656714e-06, 0.0001631572376936674, -3.0278255508164875e-05, 5.202825923333876e-05, -4.558938599075191e-06, 3.144249421893619e-05, -6.518527516163886e-05, -3.556732963261311e-06, 4.659709520637989e-05, -6.644673703704029e-05, 3.5915982152801007e-06, 8.124688611133024e-05, -4.3696301872842014e-05, 2.7362646505935118e-05, -3.327957892906852e-05, -6.578874035767512e-06, 1.125354629039066e-06], [-0.0006020652363076806, -0.00048462566337548196, 0.002065582200884819, -0.0014080153778195381, 0.00020404186216183007, -2.567971750977449e-05, -0.0007302273879759014, -0.00010202493285760283, 0.0003843634040094912, 0.0006057244027033448, -0.00014431451563723385, -0.000672041205689311, 0.00016873746062628925, -0.0005307832616381347, 0.0004005931841675192, -0.0001637572277104482, 0.0008634822443127632, -0.00023238261928781867, -0.0011220235610380769, -0.0007474426529370248, -0.0009199347114190459, -0.00020490249153226614, 9.015932300826535e-05, 0.0012398012913763523, -0.0012912183301523328, -0.00020763305656146258, 0.0004434828879311681, -0.00016905560914892703, 0.0007861389894969761, -1.762198553478811e-05, -0.0004173857159912586, -0.0010405461071059108, 0.0014480871614068747, -0.001338335801847279, 0.0005095460801385343, -0.00048564159078523517, 0.00023239933943841606, -4.53822358394973e-05, 0.0014666698407381773, 0.00018745343550108373, 0.00020670412050094455, -0.00047026824904605746, 0.00025700966943986714, -0.00013487691467162222, 0.00045252760173752904, 0.00017190111975651234, -0.0010807496728375554, -0.0004332099633757025, 0.000984176411293447, -0.0010368949733674526, 0.00012336518557276577, 0.0008240293827839196, 0.0004584774433169514, 0.0004901997745037079, 0.001121522393077612, 0.0006237835623323917, 0.00048414734192192554, 0.0006726570427417755, 0.0001217081444337964, -0.00010571836173767224, 0.00018179100879933685, 0.0005671303952112794, 2.234721978311427e-05, -0.0010296753607690334, -6.432571535697207e-05, -0.0005369264981709421, 0.000668130989652127, -0.0008107773028314114, -0.0010554406326264143, -0.0006786034791730344, -0.0009995901491492987, -0.0005885343416593969, -0.0007158252992667258, -0.00025238690432161093, 0.000776353816036135, -0.0006225918768905103, 0.0011147793848067522, -0.00046697628567926586, 0.001432707766070962, -0.00028728347388096154, 0.0013659052783623338, 0.0003305301070213318, 0.001136787119321525, -0.00040542043279856443, -0.0011314955772832036, -0.0004317765706218779, 0.0008935166406445205, -0.0011900452664121985, 0.00017243469483219087, 0.00198183860629797, -0.0004891202552244067, -0.0002105141757056117, 0.0005820383667014539, -9.037204290507361e-05, 0.0005103304283693433, -0.0006303847185336053, 0.0006180559867061675, -0.0007903088117018342, 0.0005826896522194147, 0.0007116076885722578, 0.00044564189738593996, 0.0006896157283335924, 0.0011793881421908736, -0.00015643713413737714, 0.0007882417412474751, -0.0018129750387743115, 3.529379682731815e-05, 0.0003072291146963835, 0.000456719018984586, 0.0005842070677317679, 0.0016748555935919285, -0.00043872566311620176, 0.0005162867018952966, -0.00024526676861569285, 7.314339745789766e-05, -0.00015099388838279992, 0.0013583255931735039, -0.0007912334403954446, 0.0001495323667768389, 0.0008399161160923541, -6.707444845233113e-05, -0.0006464546895585954, 0.0006338441744446754, -0.0005360673530958593, 0.0006848257035017014, -0.00016006213263608515, 0.00032338450546376407, -0.0002468686434440315], [0.06349273025989532, 0.08274389058351517, -0.05283605307340622, 0.06590534001588821, -0.07264042645692825, 0.04332878440618515, 0.06680528819561005, 0.07152485847473145, -0.048440299928188324, -0.01867823861539364, 0.07398637384176254, 0.06805182248353958, -0.04487371817231178, 0.07079462707042694, -0.06392058730125427, 0.0718473345041275, -0.06490781158208847, 0.0076397317461669445, 0.010004542768001556, 0.07857047766447067, 0.007619316224008799, 0.01187833957374096, -0.01008562557399273, -0.0687321200966835, 0.028892194852232933, 0.07767731696367264, -0.020341182127594948, 0.06964350491762161, -0.07012306153774261, 0.07939609885215759, 0.013470460660755634, 0.013707575388252735, -0.015528591349720955, 0.07188458740711212, -0.07023314386606216, 0.04348856955766678, -0.07993292808532715, 0.06998796761035919, -0.011323199607431889, -0.07869957387447357, -0.06805968284606934, 0.03900875151157379, -0.034103069454431534, 0.07513103634119034, -0.014446050859987736, -0.07023295015096664, 0.06924362480640411, 0.007785680238157511, -0.006120103877037764, 0.07447738945484161, -0.04670920595526695, -0.08403633534908295, -0.023098768666386604, -0.07706499844789505, -0.05690363794565201, -0.0706089437007904, -0.008906145580112934, -0.03926418721675873, -0.020808162167668343, 0.06959246844053268, -0.07137376815080643, -0.05412553623318672, -0.06714241951704025, 0.006758437026292086, 0.09346649795770645, 0.06401600688695908, -0.012790624052286148, 0.02181199938058853, 0.0701044499874115, 0.07471528649330139, 0.016771018505096436, 0.0750475823879242, 0.06620636582374573, 0.07295062392950058, -0.03708918020129204, 0.007495827041566372, -0.06707561761140823, 0.0544578917324543, -0.06317273527383804, 0.06737004965543747, -0.0181215051561594, -0.03541002422571182, -0.009849824011325836, 0.02260843850672245, 0.05484956502914429, 0.06867117434740067, -0.021400853991508484, 0.006888211704790592, -0.07784400135278702, -0.005853958893567324, 0.03292342647910118, 0.0660782977938652, -0.017907872796058655, 0.06632603704929352, -0.07220739126205444, 0.042704977095127106, -0.013285675086081028, 0.04016198590397835, -0.009133895859122276, -0.01235236320644617, -0.06853962689638138, -0.08507697284221649, -0.053957413882017136, 0.07018985599279404, -0.0678064376115799, 0.016583243384957314, -0.05158786103129387, -0.08921323716640472, -0.010975400917232037, -0.07205595076084137, -0.07463023066520691, 0.0093791913241148, -0.06940434128046036, 0.07384400069713593, -0.006420997437089682, 0.03147678077220917, -0.06493785977363586, 0.06900522112846375, -0.07190372794866562, -0.0743395984172821, 0.05812656879425049, 0.07472991198301315, -0.04621317610144615, 0.0674702450633049, -0.055961769074201584, 0.012799554504454136, -0.023882418870925903, 0.07308734953403473], [-0.0757078006863594, -0.01043391227722168, 0.011299293488264084, -0.013185634277760983, 0.07068245112895966, -0.03308003023266792, -0.03294855356216431, -0.024174215272068977, 0.07858790457248688, 0.07614310085773468, -0.0171461533755064, -0.06651968508958817, 0.027228759601712227, -0.07189866900444031, 0.06952554732561111, -0.010390733368694782, 0.015091126784682274, -0.011885552667081356, -0.07213840633630753, -0.00959825236350298, -0.011109127663075924, -0.010068051517009735, 0.018603455275297165, 0.05828613415360451, -0.06181725114583969, -0.07887459546327591, 0.007794274482876062, -0.07584228366613388, 0.07532235234975815, -0.05876469612121582, -0.07579582929611206, -0.0712473914027214, 0.07693833112716675, -0.07329953461885452, 0.0758388563990593, -0.01861543208360672, 0.0402987040579319, -0.018083350732922554, 0.03538895770907402, 0.06126340851187706, 0.010382026433944702, -0.07009515166282654, 0.0703539103269577, -0.08012916147708893, 0.08135496824979782, 0.0707639530301094, -0.06987079232931137, -0.06958805024623871, 0.06171003356575966, -0.022212987765669823, 0.011358771473169327, 0.010547066107392311, 0.06618786603212357, 0.01477689016610384, 0.061349861323833466, 0.07599453628063202, 0.06544528901576996, 0.05800698325037956, 0.018194790929555893, -0.07229400426149368, 0.07253053039312363, 0.06027136743068695, 0.06416672468185425, -0.06511897593736649, -0.01358970906585455, -0.009165819734334946, 0.034926243126392365, -0.019010992720723152, -0.0424562506377697, -0.011831177398562431, -0.01425300631672144, -0.03784302622079849, -0.07234348356723785, -0.06551502645015717, 0.06838437169790268, -0.06529981642961502, 0.03064638189971447, -0.034492213279008865, 0.008741292171180248, -0.06987979263067245, 0.05805065855383873, 0.06358141452074051, 0.06929144263267517, -0.07051630318164825, -0.05869434028863907, -0.06771954149007797, 0.009650776162743568, -0.06936461478471756, 0.04416438937187195, 0.02300538681447506, -0.013248883187770844, -0.03974650800228119, 0.03127109259366989, -0.07097532600164413, 0.07239200919866562, -0.06748808175325394, 0.014951620250940323, -0.055511895567178726, 0.03579338267445564, 0.07305223494768143, 0.020491810515522957, 0.08474137634038925, 0.07042308896780014, -0.07085379958152771, 0.016215438023209572, -0.06988212466239929, 0.06627237796783447, 0.0762193575501442, 0.06831511110067368, 0.06612711399793625, 0.009824912995100021, -0.02326943725347519, 0.06948184221982956, -0.03265270218253136, 0.011128555051982403, -0.05662742257118225, 0.07349546253681183, -0.0720238983631134, 0.07310318201780319, 0.06775643676519394, -0.00854245200753212, -0.009970010258257389, 0.0571267232298851, -0.07247035950422287, 0.010037579573690891, -0.018748143687844276, 0.010609699413180351, -0.07430189847946167], [-0.00018306395213585347, -0.0015440816059708595, 0.013872677460312843, -0.0001978495711227879, 0.0012869553174823523, -0.0016328217461705208, -0.0008159447461366653, -0.0006296021747402847, 0.0011738436296582222, 0.008912892080843449, -0.0017557567916810513, -0.002618707250803709, 0.0008848760626278818, -0.0014310864498838782, 0.001077038818039, -0.0006121511105448008, 0.005415254272520542, -0.0015123847406357527, -0.0004988794098608196, -0.00038377937744371593, -0.0014761534985154867, -0.0026983930729329586, 0.0013948864070698619, 0.0011386158876121044, -0.003398560220375657, -0.0013066738611087203, 0.0008644514600746334, -0.0006060212617740035, 0.0012338062515482306, -0.0018292461754754186, -0.0026538807433098555, -0.00134902517311275, 0.0007675841334275901, -0.0010965463006868958, 0.00018698140047490597, -0.0006884741596877575, 0.000813088146969676, -0.00015253106539603323, 0.0017598301637917757, 0.0016801500460132957, 0.0020021868404000998, -0.0009095415589399636, 0.0004573814512696117, -0.0010624865535646677, 0.00012209767010062933, 0.0006637647747993469, -0.0005376387271098793, -0.0009825275046750903, 0.005496282130479813, -0.00021569995442405343, 0.000589128874707967, 0.0021498538553714752, 0.002974349306896329, 0.0010678208200260997, 0.0014156170655041933, 0.00013290469360072166, 0.0007986298878677189, 0.0010242261923849583, 2.2226624423637986e-05, -0.0007758515421301126, 0.0008986716857179999, 0.0024171292316168547, 0.001984845846891403, -0.0005242822226136923, -0.0003374454681761563, -0.0007896245224401355, 0.0030132089741528034, -0.0011301878839731216, -0.0014198709977790713, -0.0015492041129618883, -0.0023638929706066847, -0.0014747147215530276, -0.0015673307934775949, -0.0008439213270321488, 0.00029183077276684344, -0.00014404530520550907, 0.0006246673874557018, -0.0005782530060969293, 0.013364152982831001, -7.261020073201507e-05, 0.0015228682896122336, 0.0012231568107381463, 0.0018469213973730803, -0.00045880532707087696, -0.0003245676343794912, -0.0009621632052585483, 0.0017144946614280343, -0.004846569616347551, 0.0017342688515782356, 0.004301612731069326, -0.00014791109424550086, -0.0021687806583940983, 0.00017919229867402464, -0.00040433369576931, 0.0013130047591403127, -0.0034411444794386625, 0.002133181318640709, -0.0006453630630858243, 0.001192249357700348, 0.004055038560181856, 0.003209599992260337, 0.0004359812301117927, 0.003401312045753002, -0.0002771774888969958, 0.0011838253121823072, -0.00035168728209100664, 0.0005071838386356831, 0.0014822363154962659, 0.001470095245167613, 0.0004053186858072877, 0.0012815184891223907, -0.0011373674497008324, 0.0002703350910451263, -0.0005675367428921163, 0.009453942999243736, -0.0010670352494344115, 0.0010776218259707093, -0.00048510023043490946, 0.0008303058566525578, 0.0021197679452598095, -0.00017668695363681763, -0.0022077886387705803, 0.003822464495897293, -0.0007130676531232893, 0.0019004535861313343, -0.002835557097569108, 0.0020384322851896286, -0.00014927767915651202], [9.222292283084244e-05, 8.460954632028006e-06, -0.0006910630618222058, 0.00023801310453563929, -0.0003009240026585758, 0.0002675525320228189, 0.00038025534013286233, 1.442611846869113e-05, -0.00014430446026381105, -0.00017304092762060463, 0.0002524632145650685, 0.00035869175917468965, -0.0002838818763848394, 5.309226253302768e-05, -4.287375486455858e-05, 5.617186616291292e-06, -3.156443199259229e-05, 2.1843241484020837e-05, 8.107739995466545e-05, 5.366739787859842e-05, 8.194666588678956e-05, 0.0003083685878664255, -0.0001856664748629555, -0.00022413495753426105, 0.0003719998640008271, 6.101801318436628e-06, -0.00014963693683966994, 5.9297948610037565e-05, -0.0002628652728162706, -1.8235625702800462e-06, 0.0006589826662093401, 0.0003907148784492165, -9.148854587692767e-05, 0.00011670620006043464, -9.63679704000242e-05, 6.251359963016512e-08, -0.00013223217683844268, 5.676385171682341e-06, -7.700348214711994e-05, -0.00014566585014108568, -4.652205916499952e-06, 3.0477145628537983e-05, -0.00011294958676444367, 0.0001310033694608137, -0.0001841364719439298, -7.648891914868727e-05, 0.00010460540215717629, 5.3768628276884556e-05, -0.0003925694618374109, 0.00011283998901490122, -0.0002392487513134256, -0.00014778484182897955, 3.0270423394540558e-06, 2.0108677745156456e-06, -0.0001410082186339423, -0.00023641814186703414, -0.00015515810810029507, -7.258373079821467e-05, -0.00026001312653534114, 3.475447738310322e-05, -9.514254634268582e-05, -0.0005181233282200992, -7.404395000776276e-05, 2.88245564661338e-06, 3.409703276702203e-05, 0.0001040281422319822, -1.9250974219175987e-06, 0.00015901599545031786, 0.00016440982290077955, 0.00035397641477175057, 0.0004700111458078027, 0.00011668620572891086, 7.091979932738468e-05, 0.00015400729898829013, -0.00016456024604849517, 0.0003229808935429901, -4.215780063532293e-05, 0.00024336988280992955, -0.00020472798496484756, 0.0001620328112039715, -0.00025011616526171565, -0.0004291691002435982, -0.0001247452019015327, 9.967492951545864e-05, 8.195162808988243e-05, 0.00016340539150405675, -0.00019978692580480129, 1.5073597751324996e-05, -8.372082811547443e-05, -0.00019301613792777061, 6.623402441618964e-05, 0.00036738257040269673, -9.081378811970353e-05, 0.00036129268119111657, -8.859146873874124e-06, 0.0001919452188303694, -0.0001903523225337267, 0.00021639684564433992, -0.00013087064144201577, -0.0002470665203873068, -0.00011296892625978217, -0.0003519000892993063, -0.0005499647813849151, 0.00019941898062825203, 1.1036900104954839e-06, 2.249851149827009e-06, -0.00024118450528476387, -7.954298052936792e-05, -0.00028425551136024296, -8.46424009068869e-05, -0.00026197501574642956, 1.0221976481261663e-05, -5.163370951777324e-05, 3.2500574889127165e-05, -0.0003644198295660317, 0.0003794390067923814, -5.135254014021484e-06, 2.4143946575350128e-05, -0.00040362830623053014, -0.00032255082624033093, 0.00020186071924399585, 5.953182335360907e-05, -0.00015858892584219575, 9.097751171793789e-05, -7.768425712129101e-05, 0.00018663101946003735, -5.213451004237868e-05, 3.631419895100407e-05], [-3.744156492757611e-05, -0.0003233600582461804, 0.0004596627550199628, -0.000646428728941828, 0.00027445494197309017, -0.0009262878447771072, -0.00038378717727027833, -0.00042367438436485827, 0.00016163074178621173, 0.0004772777028847486, -0.0003345426812302321, -0.0006503812619484961, 0.00022096556494943798, -0.00020810782734770328, 8.112144860206172e-05, -0.0001715453836368397, 0.0005770749994553626, -0.0005237946752458811, -0.0009877400007098913, -0.00049981550546363, -0.00018203759100288153, -0.000913867843337357, 0.0005043268320150673, 0.0006789612234570086, -2.0196886907797307e-05, -0.0004863858048338443, 0.000453505344921723, -0.0004711981164291501, 0.0006706988788209856, -0.0006423948216252029, -0.00048436480574309826, -0.0001073589373845607, 0.0006511731189675629, -0.0006212823209352791, 0.00045314908493310213, -0.0002509188198018819, 0.001255258684977889, -0.0004747393832076341, 0.00013950814900454134, 0.0003360604168847203, 8.96132696652785e-05, -0.0004205527657177299, 0.00025368647766299546, -0.0004785399360116571, 0.00048559223068878055, 0.0003916002169717103, -0.0010762761812657118, -0.0006598872714675963, 0.0001235713280038908, -0.0004914586315862834, 7.868115790188313e-05, 0.0006502704345621169, 0.0003515837306622416, 0.0007830370450392365, 0.0006257841014303267, 0.00011094072397099808, 0.0015656336909160018, 3.368880061316304e-05, 0.00013279341510497034, -0.0004757746064569801, 0.0006244867108762264, 0.0003756945952773094, 0.00014838161587249488, -0.0007980524678714573, -0.0007644841680303216, -0.0007549296715296805, 0.0010731263319030404, -0.0005185033660382032, -5.2675502956844866e-05, -0.0010007931850850582, -0.0014085209695622325, -0.0002345010725548491, -0.00021495006512850523, -0.0005973982042632997, 3.9129336073528975e-05, -0.00134849245660007, 0.0006340928375720978, -0.00037924511707387865, 0.00017569743795320392, -0.0006868544151075184, 0.0003448334173299372, 6.785778532503173e-05, 0.00016941824287641793, -0.00025075123994611204, -1.735544174152892e-06, -0.0005798969650641084, 0.00015822074783500284, -0.0005692101549357176, 5.757893086411059e-05, 0.000532515870872885, -0.00012693216558545828, -0.0007680387934669852, 0.0003262784448452294, -0.00014005642151460052, 0.00010251117055304348, -0.0012145405635237694, 0.0011214569676667452, -0.0007373653934337199, 0.0007050544954836369, 0.00031193881295621395, 0.0013884935760870576, 0.0005048814928159118, 0.0003565692459233105, -0.0004324547771830112, 0.00010486844985280186, -0.00092059321468696, 0.0007075999164953828, 0.00013996435154695064, 0.0004809437086805701, 0.0004339633451309055, 1.6554526155232452e-05, -1.6585690900683403e-05, 0.00040379868005402386, -0.0005876858485862613, 0.0002167065831599757, -0.00029028873541392386, 0.0001447817776352167, -0.0008131971699185669, 0.00016090476128738374, 0.00042731736903078854, -0.00014131977513898164, -0.0015782100381329656, 0.00018649610865395516, -3.565199949662201e-05, 9.814766235649586e-05, -0.0006791245541535318, 0.0007810756214894354, -0.00014182072482071817], [-0.0009685069089755416, -0.0004859583859797567, 0.001364925061352551, -0.0017431213054805994, 0.00041511739254929125, -0.0012400818523019552, -0.001113030593842268, -0.0006231292500160635, 0.000836276332847774, 0.0004841481277253479, -0.00011711791012203321, -0.0006107959779910743, 8.08044133009389e-05, -0.0003305696591269225, 0.00040611240547150373, -5.4688240197720006e-05, 0.0006283177644945681, -0.001943520619533956, -0.00030161411268636584, -0.0009147177916020155, -0.0004145906714256853, -0.0020164845045655966, 0.0013725156895816326, 0.0014744717627763748, -0.00016634109488222748, -0.00014152328367345035, 0.00020463742839638144, -0.0005532089853659272, 0.0008446692954748869, -0.00031217694049701095, -0.0005293716676533222, -0.00022589880973100662, 0.00046707893488928676, -0.0006600096821784973, 0.0016973066376522183, -0.0007570323650725186, 0.001271036104299128, -0.0010067611001431942, 0.0009649708517827094, 0.0012562560150399804, 6.125845538917929e-05, -0.001460277009755373, 4.248754703439772e-05, -0.0002791325678117573, 0.0007277400000020862, 0.000921156257390976, -0.0023942356929183006, -0.000501703005284071, 0.0007579170051030815, -0.00011841195373563096, 0.000696094473823905, 0.00038082950050011277, 0.0009240686777047813, 0.000821599445771426, 0.0007759971194900572, 0.0019431411055848002, 0.0005972287617623806, 0.00019852837431244552, 0.0006125853979028761, -0.00026304039056412876, 0.0011411666637286544, 0.00022057024762034416, 0.0002128033374901861, -0.0006352199707180262, -0.00043027690844610333, -0.0004646893939934671, 2.280811531818472e-05, -0.0009133816347457469, -3.977983215008862e-05, -0.0010476496536284685, -0.0007219918188638985, -0.0003385563613846898, -0.0006827937322668731, -0.0008825326221995056, 0.0005464124260470271, -0.0006285120034590364, 0.001084686373360455, -0.0003913203545380384, 0.00042482212302275, -0.0003137527673970908, 0.00013523121015168726, 0.0011895709903910756, 0.00031363090965896845, -0.0005636326386593282, -0.0008359766798093915, -0.0004910099087283015, 0.00032959552481770515, -0.0013042382197454572, 0.0001408804819220677, 0.000802774855401367, -5.256616714177653e-05, -0.0005216929130256176, 0.0004622990090865642, -0.00030205832445062697, 7.864212238928303e-05, -0.00032061251113191247, 0.00097380526131019, -0.00028552612639032304, 0.0009437330882064998, 3.644241951406002e-05, 0.0006032456294633448, 0.0002531850477680564, 0.00021008827025070786, -0.0014939852990210056, 0.0014481216203421354, -0.0006850922363810241, 0.00018209418340120465, 0.0008612004457972944, 8.74356283020461e-06, 0.00029140900005586445, 0.0018786859000101686, -0.0018144825007766485, 0.0003381801361683756, -0.0006139639299362898, 0.0010217293165624142, -0.0011540224077180028, 0.0005582947633229196, -0.0001023918084683828, 0.0010065772803500295, 0.0010899532353505492, -0.00048283569049090147, -0.00027928996132686734, 0.0010169270681217313, -0.0004630322800949216, 0.00044610831537283957, -0.00031780393328517675, 0.0009636685717850924, -0.00011357320909155533], [3.37564961228054e-05, 5.0448168622097e-05, 5.3046696848468855e-06, 1.0591988939268049e-05, -3.2857819860510062e-06, 7.348790677497163e-05, 0.0001129991069319658, 3.0177285225363448e-05, -1.8979293599841185e-05, -1.0084265795740066e-06, -9.002574756777904e-07, 1.0867293894989416e-05, -1.9944129689974943e-06, -1.091477315640077e-06, -1.5784894458192866e-06, 1.9257600797573105e-05, -2.8455538995331153e-05, 4.129843000555411e-05, 7.544405434600776e-06, -1.3118659808242228e-05, 5.734623846365139e-05, 3.3720629289746284e-05, -7.392537372652441e-05, -2.6436229745741002e-05, 0.00014430831652134657, 2.8285976441111416e-05, -6.514775122923311e-06, 3.0826583952148212e-06, -5.806679837405682e-06, 9.081128519028425e-05, 8.133353730954695e-06, 8.644069748697802e-05, -7.924023520899937e-06, -9.697128007246647e-06, -1.2370443073450588e-05, 1.2083926776540466e-05, 4.924069799017161e-06, 8.375535253435373e-05, -9.937540016835555e-05, -6.177397881401703e-05, -2.5031346012838185e-05, 0.00013402373588178307, -6.031478915247135e-05, 5.0338503569946624e-06, 2.095236823151936e-06, -3.4037744626402855e-05, -5.669912752637174e-06, 1.7435040717828088e-05, -3.5095632483717054e-05, 1.9611359675764106e-05, 2.6777947823575232e-06, -5.292236551213136e-07, -1.7381391444359906e-05, 1.3784051589027513e-06, -3.4941382182296365e-05, -1.7907739675138146e-05, -1.999684354814235e-05, 9.236686082658707e-07, 3.887655566359172e-06, -5.500338374986313e-06, -1.0336793820897583e-05, -1.5049361536512151e-05, -2.1013853256590664e-05, 2.808587669278495e-05, -7.464941063517472e-06, 1.8366075892117806e-05, -7.411237311316654e-05, -1.2694185897998977e-05, -1.627295023354236e-05, 2.533019141992554e-05, 3.2421928608528106e-06, 1.579658237460535e-05, 2.099856828863267e-05, 2.501153721823357e-05, 4.250448910170235e-06, 2.158991264877841e-06, -0.00015029162750579417, 1.1212971912755165e-05, -6.476567477875506e-07, 2.2121603251434863e-06, -2.8638616640819237e-05, -1.6746427718317136e-05, -3.8063932151999325e-05, 2.72440416893005e-07, 3.374333755346015e-05, 1.8296939742867835e-05, -3.0197341402526945e-05, 4.215920853312127e-05, -2.440776734147221e-05, -6.697659409837797e-05, 2.077752651530318e-05, 1.2129457900300622e-05, -3.140591434203088e-05, 1.620163493498694e-05, -4.673706280300394e-05, -7.851689588278532e-06, 1.647128192416858e-05, 4.923209053231403e-05, -4.6968994865892455e-05, -4.981279562343843e-05, -8.89188413566444e-06, -5.3040093916933984e-05, 4.0629925024404656e-07, 3.6293381526775192e-06, -3.697005013236776e-05, 2.5606217604945414e-05, -1.5535359125351533e-05, -6.458137795561925e-05, -7.433744758600369e-05, -4.407861706567928e-05, -4.865796654485166e-05, 2.4734463295317255e-05, -2.9753733542747796e-05, 4.6504046622430906e-05, -0.00012145558866905048, 1.8023869415628724e-05, -7.238669059006497e-05, 1.3959463103674352e-05, 6.692766305604891e-07, -3.924168777302839e-05, 9.393374057253823e-05, 8.721515769138932e-06, 7.180372904258547e-06, 2.169304025301244e-05, -5.10828904225491e-05, 5.2334908104967326e-05, 6.891935754538281e-06, 8.383934073208366e-06], [-7.282823935383931e-05, -2.399232289462816e-05, 9.47494845604524e-05, -3.0128365324344486e-05, 0.00012227121624164283, -4.3930769606959075e-05, -8.861624519340694e-05, -9.134457286563702e-06, -1.328426969848806e-05, 8.410676673520356e-05, -1.3701721400138922e-05, -1.2259967661520932e-05, 6.444257451221347e-05, -3.857287083519623e-05, 2.3686949134571478e-05, -1.7535407096147537e-05, 9.421102004125714e-05, -5.255931318970397e-05, 6.079404101910768e-06, -3.068325895583257e-05, -0.0001553431065985933, -6.106239015934989e-05, 4.6463766921078786e-05, 8.50494034239091e-05, 7.414794254145818e-06, -4.011732016806491e-05, 9.994872925744858e-06, -1.8781444168780581e-06, 4.722161065728869e-06, -9.939408482750878e-05, -2.2289179469225928e-05, -8.172409434337169e-05, 0.00010834368003997952, -1.1709880709531717e-06, 2.4945229597506113e-05, -7.205830570455873e-06, 6.629866402363405e-05, -0.00011026844003936276, 0.00020171621872577816, 1.378650267724879e-06, 2.429881897114683e-05, -6.789602775825188e-05, 2.5312428988399915e-05, -0.00010367806680733338, 3.904168988810852e-05, 4.117828939342871e-05, -7.0648711698595434e-06, 1.1171054211445153e-05, 6.56627380521968e-05, -2.4452991056023166e-05, 7.690914003433136e-07, -9.670176837062172e-08, 0.00012706911365967244, 9.988486453949008e-06, -1.8625007214723155e-05, 3.7552035792032257e-06, 3.2924887705121364e-07, 2.3791157218511216e-05, 0.00015422214346472174, -1.8718366845860146e-05, 4.453800556802889e-06, 0.00017381114594172686, 4.059351795149269e-06, -0.00014076755905989558, -1.4619956345995888e-05, -0.00010183235281147063, 0.00017608411144465208, 5.293942649586825e-06, -6.66670166538097e-05, -0.00017145693709608167, -0.0001517677155788988, -4.658021862269379e-05, -0.00010310467041563243, -2.7534788387129083e-05, 3.867541818181053e-05, -0.00011060432007070631, 3.0749426514375955e-05, -4.291254356303398e-07, 0.00012670039723161608, 2.1559596916631563e-06, 6.543960626004264e-05, -5.909413630433846e-06, 4.8647842049831524e-05, 6.018119051987014e-07, 5.581809432442242e-07, -1.6452950148959644e-06, -1.8490719639885356e-06, -0.0001906436518765986, 3.808970723184757e-05, 4.418464595801197e-05, -2.823057548084762e-05, -4.860920671490021e-05, -2.4679577563802013e-06, -4.07957450079266e-05, 1.0186312465521041e-05, 1.0421186743769795e-05, 9.321258403360844e-05, -1.965249248314649e-05, 0.0001639851980144158, 9.167813550448045e-05, 5.0104714318877086e-05, -1.8030848423222778e-06, 0.0003555640869308263, -1.4599980204366148e-05, 3.696994826896116e-05, -4.739870291814441e-06, 3.4588814742164686e-05, 2.0165243768133223e-05, 3.418048208914115e-06, 3.437861232669093e-05, 3.1326580938184634e-05, -0.00013923314691055566, 8.735725714359432e-06, -1.5855177480261773e-05, 2.030634459515568e-05, -3.288087827968411e-05, 0.00010114762699231505, -2.568522631918313e-06, 2.2094214727985673e-05, 6.833017687313259e-05, -2.9145074222469702e-05, -4.027491740998812e-05, 1.0891632882703561e-05, -6.171574932523072e-05, 6.678337376797572e-05, -1.1705856195476372e-05, 1.438768595107831e-05, -3.917016874765977e-05], [-0.0003914975095540285, -0.00012323255941737443, 0.001312031177803874, -0.0001783362968126312, 0.0008130589267238975, -0.00027308985590934753, -0.0008638304425403476, -0.000308954156935215, 0.0006659902865067124, 0.0013305387692525983, -0.0005164742469787598, -0.0006787776364944875, 0.00020103824499528855, -0.0005569528439082205, 0.00015982160402927548, -0.0006777332164347172, 0.0004243664734531194, -0.0008252298575825989, -0.0002818322100210935, -0.0017036001663655043, -6.159515760373324e-05, -0.0014292560517787933, 0.0003366328601259738, 0.00030964676989242435, -0.0009322553523816168, -0.0003519740130286664, 0.00014022240065969527, -0.0011528575560078025, 0.0007909676060080528, -0.0003467902133706957, -0.0014972720528021455, -0.0021178668830543756, 0.00092114950530231, -0.0018984252819791436, 0.0003022259916178882, -0.00034984530066139996, 0.0005015895003452897, -0.00023926208086777478, 0.00030562933534383774, 0.0006455481634475291, 0.00045557523844763637, -0.0010138757061213255, 0.0001463648077333346, -0.0008805581019259989, 0.0006273110629990697, 0.0003743578272406012, -0.001432306133210659, -0.0006728397565893829, 0.00016428378876298666, -0.0006263141403906047, 0.001175950514152646, 0.0006850631325505674, 0.0008440825622528791, 0.00013689257320947945, 0.0011241983156651258, 0.0006103306077420712, 0.0009084592456929386, 0.0016145204426720738, 0.0010349161457270384, -0.0006212156731635332, 0.000534868217073381, 0.00027893277001567185, 0.00020469426817726344, -0.0011046153958886862, -0.0007268388872034848, -0.0004378406738396734, 0.0007802515174262226, -0.0018702201778069139, -0.0010224704165011644, -0.0012797139352187514, -0.00045971028157509863, -0.0001895188179332763, -0.00043439961154945195, -0.0010353304678574204, 0.0005984705640003085, -0.0023463801480829716, 0.0003281605604570359, -0.0010580538073554635, 0.0001651317288633436, -0.0003986588853877038, 0.0010081818327307701, 0.0015100898453965783, 0.0015048562781885266, -0.00041681903530843556, -0.0007683969452045858, -0.0002774193126242608, 0.00014778283366467804, -0.0002044461143668741, 2.2560559500561794e-06, 0.000500149151775986, -8.063057612162083e-05, -0.0006462865858338773, 4.674655065173283e-05, -0.0004911774885840714, 0.0014384683454409242, -0.0006261717644520104, 0.00025019695749506354, -0.0007115454063750803, 0.0001288342900807038, 0.0017432267777621746, 0.0013645068975165486, 0.0007302217418327928, 0.0002599165018182248, -0.0013946602120995522, 5.877197691006586e-05, -0.001852230867370963, 0.001795714721083641, 0.0012585492804646492, 0.0003130237164441496, 0.00027624613721854985, 0.0006337713566608727, -9.740240056999028e-05, 4.724217069451697e-05, -0.0003321284311823547, 0.0007300292490981519, -0.0009866893524304032, 0.0005612109671346843, -0.00016923989460337907, 0.0007546098786406219, 0.0003739944950211793, -0.0001856444141594693, -0.0016489583067595959, 0.0016042126808315516, -0.0005925412406213582, 0.00019374284602236003, -8.524047007085755e-05, 9.438920096727088e-05, -5.1090788474539295e-05], [-0.0001904291711980477, -0.0001657051034271717, 0.0060915760695934296, -0.002519605914130807, 0.0002557824191171676, -0.0004982646205462515, -0.00035032478626817465, -7.974467007443309e-05, 0.0008476087241433561, 0.006805916782468557, -0.00022855904535390437, -0.0017193113453686237, 0.0007452901336364448, -0.0007506503025069833, 0.00045104624587111175, -0.00037726241862401366, 0.00972575880587101, -0.0013248331379145384, -8.379345672437921e-05, -0.002553059021010995, -0.001491954200901091, -0.00028411467792466283, 0.0006942286854609847, 0.0015700790099799633, -0.0021635093726217747, -2.4615343136247247e-05, 0.0005475001526065171, -0.00032059388468042016, 0.0004802499315701425, -0.0011545376619324088, -0.00018738448852673173, -0.0018760096281766891, 0.0004972159513272345, -0.0012929922668263316, 0.0014932238264009356, -0.0005400145892053843, 0.00016414921265095472, -0.000880621955730021, 0.007417842745780945, 0.00026017148047685623, 5.3659950935980305e-05, -0.004460297990590334, 0.0008407764253206551, -0.0007757152779959142, 1.2811522537958808e-05, 0.0013961286749690771, -0.00024323722755070776, -0.0020744327921420336, 0.008113386109471321, -0.0008220518939197063, 0.0010413217823952436, 0.0008521081181243062, 0.0008052079938352108, 0.0008071550400927663, 0.0018184459768235683, 0.0007361044408753514, 0.0007074583554640412, 0.0009469625656493008, 0.002580645028501749, -8.662396430736408e-05, 0.0006027253693901002, 0.002240393776446581, 0.00014725091750733554, -0.0033294158056378365, -0.00010264313459629193, -0.0010660456027835608, 0.0022315382957458496, -0.0015553043922409415, -0.012738344259560108, -0.0009231433505192399, -0.0009263718384318054, -0.0008252827683463693, -0.0008396350895054638, -0.0006331184413284063, 0.00013055170711595565, -0.0021098838187754154, 0.0005765061941929162, -0.00012464681640267372, 0.0051596746779978275, -0.0007270423229783773, 0.0009722898830659688, 0.0014765793457627296, 0.0015141067560762167, -0.00010720940917963162, -0.0012848624028265476, -0.0005593581008724868, 0.00026470873854123056, -0.006720669101923704, 0.002273556776344776, 0.004177904687821865, -0.001023473683744669, -3.674987601698376e-05, 0.00038793656858615577, -0.0007040986092761159, 0.001757335034199059, -0.006339672487229109, 4.707280095317401e-05, -0.00045167712960392237, 0.0005344488308764994, 0.011415591463446617, 0.0026817829348146915, 0.0005233699921518564, 0.01154479943215847, -0.0020335849840193987, 0.0035803464706987143, -0.0010985161643475294, 0.0021003405563533306, 0.0015538844745606184, 0.0010559664806351066, 0.000593610922805965, 0.0013942811638116837, -0.00013431413390208036, 0.0069086505100131035, -0.0004531053127720952, 0.003180883126333356, -0.004437572788447142, 0.002334242220968008, -0.0011867473367601633, 0.00027086763293482363, 0.0006015586550347507, -0.00017793430015444756, -0.0014770281268283725, 0.0007372251129709184, -0.0005921824485994875, 0.00043652771273627877, -0.0007482637302018702, 7.37229402147932e-06, -0.00023646971385460347], [-0.053432002663612366, -0.0620172955095768, 0.020211398601531982, -0.06383722275495529, 0.04908964782953262, -0.06447432190179825, -0.06720102578401566, -0.052093256264925, 0.06850998848676682, 0.06340055167675018, -0.025789303705096245, -0.06476645171642303, 0.0011457098880782723, -0.05609717220067978, 0.0288997832685709, -0.048955049365758896, 0.06317460536956787, -0.017442097887396812, -0.008599011227488518, -0.018249567598104477, -0.06326483935117722, -0.06721305847167969, 0.06444807350635529, 0.060545146465301514, -0.07126979529857635, -0.04902544617652893, 0.0007369337836280465, -0.07602432370185852, 0.013692178763449192, -0.0708903819322586, -0.0279182530939579, -0.06303257495164871, 0.021883076056838036, -0.011342892423272133, 0.03462157025933266, -0.0012536731082946062, 0.008362016640603542, -0.025397520512342453, 0.07567444443702698, 0.048799969255924225, 0.05647951737046242, -0.0183345228433609, 0.0042444076389074326, -0.030880743637681007, 0.03285450115799904, 0.026327328756451607, -0.06992682814598083, -0.06238831579685211, 0.060293715447187424, -0.05311191827058792, 0.04356953129172325, 0.04060840979218483, 0.0627228170633316, 0.02425401285290718, 0.057006388902664185, 0.018557308241724968, 0.041841380298137665, 0.03385549411177635, 0.06321518123149872, -0.049933724105358124, 0.02391062304377556, 0.06059719994664192, 0.055637508630752563, -0.06413647532463074, -0.027492312714457512, -0.06133059039711952, 0.05935130640864372, -0.03327691927552223, -0.07108188420534134, -0.026326538994908333, -0.06858411431312561, -0.04447084665298462, -0.04957949370145798, -0.03838786855340004, 0.0218039583414793, -0.06590433418750763, 0.06823734194040298, -0.001109428470954299, 0.06378364562988281, -0.006172920111566782, 0.037958476692438126, 0.05692672356963158, 0.05100388079881668, -0.04283647611737251, -0.021682143211364746, -0.01971176266670227, 0.04949691519141197, -0.058969646692276, 0.04043761268258095, 0.05552972853183746, -0.005028720945119858, -0.052132945507764816, 0.027697671204805374, -0.031214402988553047, 0.06259103864431381, -0.06681674718856812, 0.06408487260341644, -0.0008979798294603825, 0.0510220006108284, 0.03615005314350128, 0.0673992782831192, 0.013207425363361835, 0.07248714566230774, -0.05670773983001709, 0.06021084636449814, -0.06521420180797577, 0.05326281115412712, 0.0689549446105957, 0.0592067651450634, 0.021128850057721138, 0.06363596767187119, -0.058128129690885544, 0.06759703904390335, -0.004566027317196131, 0.055180199444293976, -0.05707012861967087, 0.009452234953641891, -0.04795234650373459, 0.03406405448913574, 0.009406913071870804, -0.05356946587562561, -0.06231316924095154, 0.030283208936452866, -0.05994199216365814, 0.059837620705366135, -0.06745480000972748, 0.01999274641275406, -0.03429035842418671], [3.007406303368043e-05, 0.0006435343530029058, -0.0005026346771046519, 0.00022193258337210864, -0.0007992784958332777, 0.0009564234060235322, 0.00028356342227198184, 0.0003414762031752616, -0.0003611737338360399, -0.00024911522632464767, 0.0007461471832357347, 0.0003035615081898868, -0.0005527581670321524, 0.0009381913114339113, -0.00029335173894651234, 0.00023411004804074764, -6.823409057687968e-05, 2.8224765628692694e-05, 0.00024662917712703347, 2.9033757527940907e-05, 0.0008136392571032047, 1.287047598452773e-05, -0.0005982966395094991, -2.813788887578994e-05, 0.00029942960827611387, 0.0003388136101420969, -0.0007022533100098372, 0.0004258881963323802, -0.00028570726863108575, 0.0009689691360108554, 0.0003184102533850819, 0.000399215379729867, -9.925320046022534e-05, 0.0005915572983212769, -0.00021845237642992288, 0.00011389949941076338, -5.416194107965566e-05, 0.00042768477578647435, -2.949731197077199e-06, -0.00043111160630360246, -8.303382492158562e-05, 0.00022400377201847732, -0.00036813190672546625, 0.0002659885794855654, -0.0001063000236172229, -0.0006553680868819356, 0.0002966268511954695, 0.00046029596705920994, -0.00085877237142995, 0.00011306734813842922, -0.0002402484096819535, -9.561881597619504e-05, -5.1012331823585555e-05, -0.00033768906723707914, -0.00032626144820824265, -0.0011205790797248483, -0.000654303643386811, -0.000100917779491283, -0.0009497227729298174, 0.0002508119505364448, -0.000138014554977417, -0.00038669793866574764, -4.904957677354105e-05, 0.0005810264847241342, 0.00012569512182381004, 0.0006127500091679394, -0.0004024703230243176, 0.0005796464974991977, 0.00010646206646924838, 2.0254745322745293e-05, 0.00040596170583739877, 0.0004692987131420523, 3.231993468943983e-05, 0.0005076302331872284, -0.0003537199809215963, 0.00021491185179911554, -0.00018898260896094143, 0.00038659421261399984, -0.00015918011195026338, 1.1332592293911148e-05, -7.06013452145271e-05, -0.00012089226220268756, -0.0008761597564443946, 0.00033249269472435117, 0.0005342333461157978, 0.0005887211882509291, -0.0005528720794245601, 0.0007326550548896194, -0.00017393541929777712, -0.001576119801029563, 0.00021978889708407223, 0.00012711687304545194, -4.3840340367751196e-05, 3.863326128339395e-05, -0.0005387815763242543, 0.0003759652317967266, -0.00043286889558658004, 0.00031053085695020854, -5.3227238822728395e-05, -3.029933213838376e-05, -0.0007816663710400462, -0.00015745607379358262, -0.0008574596140533686, 0.0007564781117253006, -0.0003013618115801364, 0.000559840293135494, -0.00019391142996028066, -0.00028784986352548003, -0.00034125050297006965, -9.087540820473805e-05, -3.384722367627546e-05, 0.0005257995217107236, -0.00042137375567108393, 4.110045665584039e-06, -0.00030385752324946225, 0.00023158013937063515, -0.000762526469770819, 0.00031819730065762997, -9.116976798395626e-06, -0.0011166135082021356, 0.0006078518345020711, 0.00036760218790732324, -0.00027573632542043924, 0.00040205533150583506, -0.0005107875913381577, 0.0004721231816802174, -0.0003312892804387957, 2.2761087166145444e-05], [-0.020899401977658272, -0.020015070214867592, 0.013261818327009678, -0.02346835657954216, 0.044405002146959305, -0.007573101203888655, -0.009439803659915924, -0.012762813828885555, 0.034316062927246094, 0.022100089117884636, -0.02294115163385868, -0.0076620085164904594, 0.04880448803305626, -0.010119522921741009, 0.024052346125245094, -0.022806441411376, 0.015897642821073532, -0.02380034327507019, -0.010145740583539009, -0.01671508140861988, -0.008311115205287933, -0.009025132283568382, 0.021020177751779556, 0.016359565779566765, -0.022908026352524757, -0.02371632121503353, 0.04276079684495926, -0.020917436107993126, 0.02868792973458767, -0.012185832485556602, -0.022011036053299904, -0.016123730689287186, 0.03523319959640503, -0.024343399330973625, 0.020855026319622993, -0.019177056849002838, 0.03418505936861038, -0.019252855330705643, 0.010017351247370243, 0.012535004876554012, 0.03130399063229561, -0.019161192700266838, 0.023808155208826065, -0.0190128143876791, 0.03911425545811653, 0.03431732580065727, -0.012440986931324005, -0.026767060160636902, 0.017145873978734016, -0.029988648369908333, 0.014353536069393158, 0.030546583235263824, 0.017930783331394196, 0.016978926956653595, 0.012692835181951523, 0.009420010261237621, 0.011503526009619236, 0.01762152835726738, 0.011622568592429161, -0.040136292576789856, 0.016602495685219765, 0.00760205602273345, 0.02908344194293022, -0.011151017621159554, -0.020867880433797836, -0.019832182675600052, 0.014159150421619415, -0.010499262250959873, -0.013177329674363136, -0.018003448843955994, -0.01861322484910488, -0.024754337966442108, -0.025416236370801926, -0.016352606937289238, 0.020810851827263832, -0.020684275776147842, 0.02449730411171913, -0.062265291810035706, 0.012291164137423038, -0.041259024292230606, 0.01677282154560089, 0.02445552684366703, 0.024657011032104492, -0.03439483419060707, -0.050143368542194366, -0.022318150848150253, 0.021265145391225815, -0.0073248096741735935, 0.018762782216072083, 0.01583465375006199, -0.03427823632955551, -0.013423054479062557, 0.031503044068813324, -0.023786460980772972, 0.01435477938503027, -0.015487134456634521, 0.02132471650838852, -0.03539871796965599, 0.016665281727910042, 0.008563675917685032, 0.028346164152026176, 0.028491083532571793, 0.018445221707224846, -0.008436059579253197, 0.01390809565782547, -0.019417615607380867, 0.007492653094232082, 0.01791832409799099, 0.01983078382909298, 0.019711462780833244, 0.02728658728301525, -0.018173597753047943, 0.007511438336223364, -0.04095812514424324, 0.006817771587520838, -0.02148502878844738, 0.012847688980400562, -0.04063474386930466, 0.01640944369137287, 0.026003627106547356, -0.021121520549058914, -0.00837665144354105, 0.01153477467596531, -0.010892306454479694, 0.02043161913752556, -0.01983618550002575, 0.028374817222356796, -0.01739763282239437], [0.00011399279901525006, 0.00019815796986222267, -0.0005702255293726921, 0.00014556519454345107, -0.0008503372082486749, 0.00026273043476976454, 0.0006542804767377675, 0.0005793559830635786, -0.0007584270788356662, -0.0013244706206023693, 0.0004352361138444394, 0.0006237247725948691, -0.00034235266502946615, 0.00012783080455847085, -2.1154859496164136e-05, 0.000693860522005707, -5.102024442749098e-05, 0.00023451229208149016, 0.00023600351414643228, 0.0003298647061455995, 0.00015786495350766927, 9.917396528180689e-05, -0.0005638479487970471, -0.00046553791617043316, 0.0010016011074185371, 0.0001484547829022631, -0.0005437519866973162, 0.00030367803992703557, -0.00040734224603511393, 0.00010315355757484213, 0.0003103131602983922, 0.00035309355007484555, -0.0005238085868768394, 0.00018097626161761582, -0.0007424444193020463, 2.5317031031590886e-05, -0.0009376042289659381, 6.0265724641794804e-06, -0.00032013081363402307, -0.00010464380466146395, -0.00022356958652380854, 0.001080361194908619, -6.0553276853170246e-05, 7.393448322545737e-05, -0.00024731954908929765, -0.0006548535893671215, 0.00018185292719863355, 0.0006800981936976314, -0.00020445826521608979, 0.00069576216628775, -0.0007768128998577595, -7.996192289283499e-05, -0.0007630263571627438, -0.00044178645475767553, -0.00030846474692225456, -7.817870209692046e-05, -3.238031058572233e-05, -0.00042614396079443395, -0.0009562388877384365, 0.00041076389607042074, -0.000879182480275631, -0.000496378168463707, -0.00022658160014543682, 0.0004675539385061711, 0.0005650238017551601, 0.00037319454713724554, -5.4172043746802956e-05, 0.0017304125940427184, 0.00020307832164689898, 0.0003982402849942446, 0.00042486158781684935, 5.561516809393652e-05, 0.0003581796772778034, 0.0009833360090851784, -8.394136966671795e-05, 0.00030108974897302687, -9.667505219113082e-05, 3.452714008744806e-05, -0.00017693957488518208, 0.00039055300294421613, -0.0003432515077292919, -0.0014691076939925551, -0.0001668935437919572, 0.00026351326960138977, 0.0007069772691465914, 0.0004544119874481112, -0.00032500832458026707, 5.480952677316964e-05, -0.0008666081703267992, -0.00025206810096278787, 0.00019002091721631587, 7.025099330348894e-05, -0.00029263467877171934, 0.00023954565403982997, -0.0005125487223267555, 0.00036716065369546413, -0.0001961473753908649, 0.000596632482483983, -0.000629519228823483, -0.0003982846101280302, -0.0006569515680894256, -0.000563601206522435, -0.00021780958923045546, 0.000554958707652986, -9.115089051192626e-05, 0.0007828784873709083, -5.400486770668067e-06, -0.00014690979151055217, -0.0002441774122416973, -0.0003288170846644789, -0.0004003091307822615, 0.0003767102025449276, -0.0006220011855475605, 0.0011940302792936563, -0.00012799685646314174, 0.00036024959990754724, -0.00019885347865056247, 0.000253651145612821, -0.0007620076066814363, -0.0002233867853647098, 0.000398829608457163, 0.00021061062579974532, -0.0007732922676950693, 0.0008598485146649182, -0.00036539160646498203, 0.0011851581512019038, -0.0006857395055703819, 7.62358758947812e-05], [-0.001193722477182746, -0.0006855229148641229, 0.0005794706521555781, -0.000976923038251698, 0.00013434630818665028, -0.0017236494459211826, -0.001474173041060567, -0.0005483519635163248, 2.9079894375172444e-05, 0.0009226803085766733, -5.5781605624360964e-05, -0.0004917798796668649, 0.0006893801037222147, -0.00032322428887709975, 0.0006488993531093001, -0.0008259432506747544, 0.0005112622166052461, -0.0011422844836488366, -0.00035001005744561553, -0.00029212221852503717, -0.00035444306558929384, -0.0010978298960253596, 0.000223565410124138, 0.0001393972197547555, -0.0017315148143097758, -0.0002964915183838457, 0.000585360627155751, -0.0004077730409335345, 8.874197374098003e-05, -0.0002866641734726727, -0.0010015103034675121, -1.0737519005488139e-05, 0.00039116194238886237, -0.0005794071475975215, 0.0005768864066340029, -0.0007262314320541918, 0.00011467748117865995, -0.0008835127810016274, 0.0012340411776676774, 0.00014082023699302226, 8.901269029593095e-05, -0.0020973188802599907, 0.0005284995422698557, -0.00017007267160806805, 0.00029489328153431416, 0.00036630246904678643, -0.0009687230340205133, -6.833449879195541e-05, 0.0007592967594973743, -0.0007592004258185625, 0.0005032791523262858, 8.110940689221025e-05, 0.0007244483567774296, 0.00010117197234649211, 0.0006949270609766245, 0.0006122757331468165, 3.762113556149416e-05, 0.00014873022155370563, 0.00026023536338470876, -0.00015601946506649256, 0.0003323109995108098, 0.00026418815832585096, 0.0002204040647484362, -0.0005432673497125506, -0.0008232147665694356, -0.00020746910013258457, 0.0004981500678695738, -0.0014168863417580724, -0.0018064671894535422, -0.000776741246227175, -7.546810229541734e-05, -0.0006030015065334737, -0.001052481704391539, -1.182014966616407e-05, 0.0003532331029418856, -3.44271284120623e-05, 0.00020629478967748582, -0.00010509615094633773, 7.6852178608533e-05, -1.1838243153761141e-05, 0.0002542121219448745, 0.00032836850732564926, 0.0006300702807493508, -4.837085725739598e-05, -0.0003434969112277031, -0.0006140601471997797, 0.0010313567472621799, -7.12645924068056e-05, 0.00010289878264302388, 2.3598950065206736e-05, -0.00011064451973652467, -2.761211544566322e-05, 0.00027603848138824105, -0.0007288704509846866, 0.0007106628036126494, -0.0001535307092126459, 0.0004750089137814939, -0.0001831532863434404, 0.00029610469937324524, 0.0004592637706082314, 0.00010842382471309975, 0.0005442635738290846, 0.0007247473695315421, -0.0001829873217502609, 5.196953861741349e-05, -0.0005408236174844205, 0.00027521801530383527, 0.00039183790795505047, 0.0004089160938747227, 0.00027817796217277646, 0.00025171367451548576, -0.0003658600617200136, 0.0004131226451136172, -0.000688052037730813, 6.756522634532303e-05, -0.00032510465825907886, 2.598924038466066e-05, -6.205721001606435e-05, 9.920303273247555e-05, 0.0002621524326968938, -0.0011391498846933246, -0.0012264244724065065, 0.001764069776982069, -0.0014602779410779476, 0.0005507459281943738, -0.00023130528279580176, 0.00034541275817900896, -0.00015175026783253998], [-0.0018574388232082129, -0.0005129464552737772, 0.0002650058886501938, -0.0008012164034880698, 3.5010722058359534e-05, -0.0007807277725078166, -0.00030923416488803923, -0.00016889447579160333, 0.000646427390165627, 0.0005134035600349307, -0.00017290913092438132, -0.00036158045986667275, 0.0001252334041055292, -0.000501455448102206, 0.00030897813849151134, -0.000580989639274776, 0.0015775836072862148, -0.0006836054963059723, -0.0005867663421668112, -0.0007670127088204026, -0.0006660106591880322, -0.0007450157427228987, 4.374798663775437e-06, 0.0010546693811193109, -0.0005812927847728133, -0.00021659082267433405, 0.0002983422891702503, -0.0010009456891566515, 0.0008047682349570096, -0.0006859070272184908, -0.001616425346583128, -0.0017587218899279833, 0.000520577363204211, -0.00103881920222193, 0.0010230813641101122, -0.0008246078505180776, 0.00025472056586295366, -0.0008208940271288157, 0.0005814908072352409, 0.001059720991179347, 0.0012627220712602139, -0.0012638043845072389, 7.973524770932272e-05, -0.000439456693129614, 0.0003546187363099307, 0.000830279488582164, -2.621877683850471e-05, -0.0009181977366097271, 0.0007621213444508612, -0.0005936146480962634, 0.0010135660413652658, 0.00044107218855060637, 0.001619992428459227, 0.0011898045195266604, 0.000675202754791826, 0.00034291352494619787, 7.793588156346232e-05, 0.0014848880236968398, 0.0008504054276272655, -0.0009378812974318862, 2.0012721506645903e-05, 0.00019021421030629426, 0.000826735922601074, -0.000757227186113596, -0.0002612909593153745, -0.00020967643649782985, 0.001056233188137412, -0.0001460157218389213, -0.0007227731985040009, -0.0004263215232640505, -0.0006537490990012884, -0.0009684545802883804, -0.0002759409253485501, -0.00024031629436649382, 0.0006822831928730011, -0.0011237936560064554, 0.0005081146955490112, -0.0003155717276968062, 0.0006043717730790377, -0.0005747981485910714, 0.00018738905782811344, 0.0011215874692425132, 0.0005728424875997007, -0.0008055593352764845, -0.00021672032016795129, -0.0010667331516742706, 0.0004447645915206522, -0.001227344386279583, 0.0013362793251872063, 0.0021135173738002777, -0.00018219446064904332, -0.00021130262757651508, 0.0005981697468087077, -0.0005213934928178787, 0.0007645433652214706, -0.0013867088127881289, 0.0006758733070455492, -0.001090852776542306, 0.001269134576432407, 0.0007920177304185927, 0.0002215480781160295, 7.463874499080703e-05, 0.001081862486898899, -0.00022799689031671733, 0.00011207738134544343, -0.00168309872969985, 0.0012610091362148523, 0.00012502750905696303, 0.000345551990903914, 0.0005075762164779007, 0.00047023413935676217, -0.0004601801047101617, 0.0013870525872334838, -5.4523708968190476e-05, 0.001042540417984128, -0.0008869548328220844, 0.0006696941563859582, -8.679705388203729e-06, 0.0005821329541504383, 0.0003146464005112648, -0.0009724831325002015, -0.0004562875838018954, 0.0014424138935282826, -0.000617113197222352, 0.0015642551006749272, -0.0008053149213083088, 9.338380914414302e-05, -9.714634506963193e-05], [-0.00035167590249329805, -0.0008868527947925031, 0.0009161969064734876, -0.0007465814123861492, 0.0011134198866784573, -0.00117191718891263, -0.0013116708723828197, -1.9893570424756035e-05, 2.6330577384214848e-05, 0.0003016443515662104, -0.00030624278588220477, -0.0007059450726956129, 0.0003006648039445281, -0.0009211403666995466, 0.00032685091719031334, -0.0011324123479425907, 0.0006071567768231034, -3.495209966786206e-05, -4.400790567160584e-05, -0.0007964699761942029, -0.001339708105660975, -0.00019653799245133996, 0.0003498627047520131, 0.0009310512105002999, -0.000600252824369818, -0.0001249863998964429, 0.00033011866617016494, -0.001256351824849844, 0.00012180413614260033, -0.0013539587380364537, -8.878555672708899e-05, -3.1579234928358346e-05, 2.5457498850300908e-05, -0.0011576664401218295, 0.00018004607409238815, -0.000164634853717871, 0.0008249438833445311, -4.233095751260407e-05, 7.353712135227397e-06, 0.0008789579733274877, 0.0001926030236063525, -0.00014605022442992777, 0.0005225652712397277, -8.15201346995309e-05, 0.000523985072504729, 0.0008954380755312741, -0.0008051990298554301, -6.910562660777941e-05, 5.442617111839354e-05, -0.00022370486112777144, 0.00033579126466065645, 0.0007809967501088977, 6.882462912471965e-05, 0.0002794969768729061, 0.00037194963078945875, 0.0008123128791339695, 0.00043193018063902855, 3.208150519640185e-05, 0.000601508014369756, -0.00047674865345470607, 0.000544750306289643, 0.0006180571508593857, 0.0006661117658950388, -0.0005996681284159422, -0.00040504010394215584, -0.00010882534115808085, 0.000959399389103055, -0.00041912778397090733, -0.00034509963006712496, -0.0008308445103466511, -8.925645670387894e-05, -4.667956454795785e-05, -0.0004898519837297499, -0.0007073911838233471, 0.00024534674594178796, -0.00028450688114389777, 0.0009409965132363141, -0.0006370612536557019, 0.0015365160070359707, -0.0007330913213081658, 0.0006270456360653043, 0.0012137987650930882, 8.997573604574427e-05, -4.0015198464971036e-05, -0.000415769056417048, -0.00022029383399058133, 0.0005164066096767783, -0.0012815417721867561, 0.00014899317466188222, 0.0006195246241986752, -2.812530510709621e-06, -0.0006988263921812177, 0.00020174695237074047, -0.0008565814350731671, 0.00023893165052868426, -0.0009516848949715495, 4.508330312091857e-05, -0.0004939583595842123, 0.0008526603342033923, 0.0008716479642316699, 0.0009826255263760686, 0.0008736787713132799, 0.0018491368973627687, -0.001010053209029138, 0.0007242452120408416, -0.0009258082718588412, 0.0004900810890831053, 0.0006590340635739267, 6.404191663023084e-05, 0.0005131416255608201, 0.0011655465932562947, -0.00105472921859473, 0.0013395765563473105, -0.00023046178102958947, 0.0003950194804929197, -0.00044444878585636616, 0.0003035403788089752, -0.0003510428941808641, 3.0327297281473875e-05, 0.001666745520196855, -5.16268664796371e-05, -0.002378626726567745, 0.000967850792221725, -0.0015208550030365586, 9.587848035153002e-05, -0.0014054753119125962, 0.000440100091509521, -0.0003557498275768012], [0.014474467374384403, 0.023568959906697273, -0.04290120676159859, 0.051417045295238495, -0.02174975909292698, 0.01423608511686325, 0.01388283260166645, 0.018188614398241043, -0.02906135842204094, -0.009891158901154995, 0.014869493432343006, 0.007524557877331972, -0.02141581103205681, 0.01767655275762081, -0.057753317058086395, 0.01419739332050085, -0.029002701863646507, 0.016271645203232765, 0.09692344814538956, 0.009907119907438755, 0.02068016305565834, 0.014073756523430347, -0.016597814857959747, -0.018722428008913994, 0.00759088434278965, 0.014221754856407642, -0.03755945712327957, 0.017517540603876114, -0.06937272101640701, 0.010368338786065578, 0.010861927643418312, 0.025763265788555145, -0.04555048421025276, 0.013138690032064915, -0.011917710304260254, 0.05800146982073784, -0.08717164397239685, 0.022087257355451584, -0.06340155005455017, -0.006919535342603922, -0.015644550323486328, 0.007901573553681374, -0.07835973799228668, 0.0689118355512619, -0.05485120043158531, -0.03676428645849228, 0.019315550103783607, 0.021909713745117188, -0.006485770456492901, 0.012367033399641514, -0.014113618060946465, -0.085300974547863, -0.009496606886386871, -0.023120325058698654, -0.019227195531129837, -0.021655069664120674, -0.09769953042268753, -0.09055019915103912, -0.007999703288078308, 0.06896831840276718, -0.011302635073661804, -0.00740236509591341, -0.013191317208111286, 0.017523225396871567, 0.08791494369506836, 0.02868719957768917, -0.011676240712404251, 0.09179097414016724, 0.0280087199062109, 0.04363027960062027, 0.07303819060325623, 0.017252326011657715, 0.02900875359773636, 0.05888107791543007, -0.04425821453332901, 0.011669293977320194, -0.011996474117040634, 0.07573308795690536, -0.017234565690159798, 0.06866486370563507, -0.007704163435846567, -0.016727298498153687, -0.012640267610549927, 0.013018053025007248, 0.08070496469736099, 0.022812310606241226, -0.017617009580135345, 0.013459084555506706, -0.04011353850364685, -0.006191123276948929, 0.09267575293779373, 0.008052262477576733, -0.03452961891889572, 0.031080901622772217, -0.04855329543352127, 0.01197141781449318, -0.010518745519220829, 0.07952070981264114, -0.02060856483876705, -0.015432712621986866, -0.0139448381960392, -0.023497724905610085, -0.014233680441975594, 0.028948526829481125, -0.020543906837701797, 0.014036225154995918, -0.007904769852757454, -0.08895530551671982, -0.03546920418739319, -0.037464261054992676, -0.020947402343153954, 0.017374666407704353, -0.01349940337240696, 0.08964135497808456, -0.016971662640571594, 0.034195415675640106, -0.008325164206326008, 0.03617111220955849, -0.01791057363152504, -0.01679794117808342, 0.011553425341844559, 0.020467832684516907, -0.00832374207675457, 0.01996443048119545, -0.011428648605942726, 0.011400212533771992, -0.015076905488967896, 0.04307376220822334], [-3.184107117704116e-05, -3.344705328345299e-05, 6.108319939812645e-05, -2.5498773538856767e-05, 1.1118760994577315e-05, -5.647711441270076e-05, -0.00020132942881900817, -8.543178182662814e-07, 4.1256398617406376e-06, 8.7710830598553e-08, -2.0012377717648633e-05, 1.1517407074279618e-05, 1.4293019376054872e-05, -0.00012147352390456945, 5.287868043524213e-05, -6.49505527690053e-05, -2.178537215513643e-05, -0.00012811495980713516, -1.8227644886792405e-06, -4.363589687272906e-05, -2.754802153503988e-06, -1.5150693798204884e-05, 6.338302046060562e-05, 8.991611684905365e-05, -1.8357999920226575e-07, -0.0001060683571267873, 3.6507524782791734e-05, -3.081745671806857e-05, 5.5989844440773595e-06, -4.6681623643962666e-05, -3.199413185939193e-05, -2.7325339033268392e-05, 4.328502109274268e-05, -2.0713370759040117e-05, 0.00010783928883029148, -7.4215054155502e-06, 8.082709246082231e-05, -1.0898535947490018e-05, 0.00022269120381679386, 1.3909825611335691e-05, 2.353427953494247e-05, -9.543820488033816e-05, -4.260959030943923e-06, -5.795742981717922e-05, 6.9143111431912985e-06, 2.621801286295522e-06, -5.8721332607092336e-05, -0.00018766074208542705, 1.3411559848464094e-05, -3.12934753310401e-05, 5.200332816457376e-05, -4.365482254797826e-06, 7.429875404341146e-05, -1.824174773901177e-06, 0.0001357291330350563, 3.0152439649100415e-05, 1.4058718988962937e-05, 2.4658684196765535e-05, 4.198737588012591e-05, -5.177751154405996e-05, 7.452395493601216e-06, -1.147438888438046e-05, 7.469557772310509e-07, -7.218969403766096e-05, -6.093836873333203e-06, -5.196659913053736e-05, -3.047113204956986e-05, -1.0699537824621075e-06, -5.041139229433611e-05, -5.96097634115722e-05, -1.8033371816272847e-05, -9.692241292214021e-05, -9.973537089535967e-07, -7.224346063594567e-06, 3.526759610394947e-05, -4.011885175714269e-05, 1.8204877051175572e-05, -1.5358224118244834e-05, 0.0001926179538713768, -1.899858398246579e-05, 0.00024244855740107596, 4.78862966701854e-06, 1.3174128980608657e-05, 7.327460934902774e-06, -7.869716682762373e-06, -4.00482676923275e-05, 2.9488957807188854e-05, 1.4891838873154484e-05, -7.107480541890254e-06, 1.7953661881620064e-05, -6.087954534450546e-05, -0.00010210197069682181, 7.409284444293007e-05, 4.673863713833271e-06, 2.4689896235940978e-05, -7.139423541957512e-05, 9.391066669195425e-06, -9.076261449081358e-06, 4.40326621173881e-05, 3.628468402894214e-05, 8.062443521339446e-05, 4.3628613639157265e-05, 3.61687270924449e-05, -9.137994538832572e-07, 0.000178124028025195, -0.00015648128464818, 1.0773262147267815e-05, 8.81397572811693e-05, 2.2101770809968002e-05, 2.6432035156176426e-05, 7.850374095141888e-05, -3.407689291634597e-05, 0.00010015790030593053, 1.3604982314063818e-06, 8.209999941755086e-05, 1.0343213034502696e-05, 5.450563185149804e-05, -1.6004067219910212e-05, 4.283435828256188e-06, 4.0185361285693944e-05, 4.867003099207068e-06, -4.767452992382459e-06, 4.5393124310066923e-05, -7.438423381245229e-06, 3.0918010452296585e-05, -3.996660598204471e-05, 2.565469912951812e-05, 5.700826477550436e-07], [4.16333568864502e-05, 8.01339847384952e-05, -6.293992919381708e-05, 9.558895544614643e-05, -6.21561412117444e-05, 8.853695180732757e-05, 4.422685378813185e-05, 9.147555101662874e-05, 6.1678856582148e-06, -5.853596667293459e-05, 3.271619061706588e-05, 3.588965773815289e-05, -5.56090526515618e-05, 0.0001703745947452262, -2.1488467609742656e-05, 1.4237019968277309e-05, -1.0886417840083595e-05, 1.4957345229049679e-05, 9.28113058762392e-06, 4.8263300413964316e-05, 4.785825512954034e-05, 3.966404256061651e-05, -3.9585913327755406e-05, -6.013012534822337e-05, 6.194478191900998e-05, 7.624677778039768e-07, -4.340042141848244e-05, -3.444742560532177e-06, -4.108518987777643e-05, -1.82251801561506e-06, 4.8234880523523316e-05, 6.930847303010523e-05, -7.08082723122061e-07, 5.634487752104178e-05, -1.5981604519765824e-05, 1.7949943867279217e-05, -1.650618651183322e-05, 2.1177036614972167e-05, -3.1828767532715574e-05, -2.5321414796053432e-05, -3.4915963624371216e-05, 4.173340494162403e-05, -4.139737211517058e-05, 9.98794894258026e-06, 2.409833768979297e-06, -4.8916484956862405e-05, 5.297614916344173e-05, 2.460982432239689e-05, -0.0001060100257745944, 3.8756068533984944e-05, -1.9485891243675724e-05, -2.6020799850812182e-05, -1.4429741895582993e-05, -2.844974005711265e-05, -4.697360054706223e-05, -4.919312777929008e-05, -9.219911589752883e-05, -3.759659739444032e-05, -2.7964291803073138e-05, 1.4063653907214757e-05, -1.237616174876166e-06, 7.895174576333375e-07, -4.6697976358700544e-05, 0.00012204759696032852, 3.511230170261115e-05, 0.0001560588279971853, -0.00013306950859259814, 2.0346011297078803e-05, 1.6171688912436366e-05, -5.411617166828364e-06, 4.554185215965845e-05, 0.00010314463725080714, 9.929448424372822e-06, 9.183545444102492e-07, -0.00010409511742182076, 7.610175089212134e-05, -4.9667974963085726e-05, 1.5041429435314058e-07, -4.473690569284372e-05, 0.00010124828986590728, -1.9478937247185968e-05, -2.4868615582818165e-05, -2.3264539777301252e-05, 4.0473929402651265e-05, 4.4671778596239164e-05, 4.575822822516784e-05, -2.7031930585508235e-05, 9.818447324505541e-06, -3.4891610994236544e-05, 5.490422609000234e-06, 1.6808038708404638e-05, -5.739444986829767e-06, -3.233537063351832e-05, 2.9859256756026298e-05, -4.3628300772979856e-05, 4.2824922275030985e-05, -4.1205294110113755e-06, 1.3342917100089835e-06, -2.1576388462563045e-05, -1.874730151030235e-05, -7.237066165544093e-05, -3.2834777812240645e-06, 2.558802236762858e-07, 6.669263257208513e-06, -0.00014056061627343297, 2.076036798825953e-05, 6.441255209210794e-06, -0.00016329412756022066, 4.9739624046196695e-06, -2.1334569737518905e-06, -2.3317768864217214e-05, 4.421424455358647e-05, -1.9673503629746847e-05, -2.2805420485383365e-06, -1.3800167835142929e-05, 0.00017831182049121708, -2.2331860236590728e-05, -5.5276736929954495e-06, -3.7888592487433925e-05, -3.324239150970243e-05, -6.8596847313529e-07, -1.175878060166724e-05, -4.2801257222890854e-05, -9.186728675558697e-06, -2.7484864403959364e-05, 5.483394124894403e-05, -2.715237314987462e-05, -1.6359889798422955e-07], [0.013984421268105507, 0.03304005414247513, -0.008727800101041794, 0.02782406285405159, -0.047931499779224396, 0.021877259016036987, 0.02689862996339798, 0.041727833449840546, -0.0223991721868515, -0.02704893797636032, 0.07978686690330505, 0.015954233705997467, -0.08706963062286377, 0.020454825833439827, -0.03984684869647026, 0.029109396040439606, -0.010907349176704884, 0.028178555890917778, 0.01013893447816372, 0.014155310578644276, 0.03355726599693298, 0.016949208453297615, -0.019023941829800606, -0.031301066279411316, 0.023495417088270187, 0.03429047763347626, -0.11269684135913849, 0.03195822611451149, -0.03847518190741539, 0.04133108630776405, 0.04136732593178749, 0.020802540704607964, -0.05225003883242607, 0.025220070034265518, -0.013940629549324512, 0.051098063588142395, -0.015568061731755733, 0.024789247661828995, -0.0123284375295043, -0.009973623789846897, -0.04008883610367775, 0.014228391461074352, -0.057353902608156204, 0.05827584117650986, -0.025990167632699013, -0.03505768999457359, 0.02315419539809227, 0.02122420258820057, -0.013926100917160511, 0.04864789545536041, -0.010208260267972946, -0.013142588548362255, -0.038661520928144455, -0.057979706674814224, -0.01972736418247223, -0.02798350155353546, -0.010492241010069847, -0.015430640429258347, -0.015989067032933235, 0.0448383167386055, -0.038022737950086594, -0.03969709202647209, -0.026601430028676987, 0.01838328316807747, 0.017542770132422447, 0.01768127828836441, -0.015869976952672005, 0.012035106308758259, 0.022821372374892235, 0.011671025305986404, 0.02617471106350422, 0.019091904163360596, 0.0420210026204586, 0.03894462436437607, -0.03523828834295273, 0.022324813529849052, -0.011876878328621387, 0.08880041539669037, -0.016824018210172653, 0.0497557632625103, -0.029237497597932816, -0.01787661761045456, -0.028938280418515205, 0.017450915649533272, 0.025086311623454094, 0.019718224182724953, -0.0269580390304327, 0.01742728240787983, -0.025093263015151024, -0.017420120537281036, 0.01924353837966919, 0.023292889818549156, -0.02530311420559883, 0.03781924769282341, -0.040384069085121155, 0.022683601826429367, -0.010443300008773804, 0.0747838094830513, -0.04337036982178688, -0.02661888673901558, -0.024765178561210632, -0.03304826095700264, -0.016071435064077377, 0.029536355286836624, -0.012840637937188148, 0.03025079518556595, -0.011320664547383785, -0.013650299981236458, -0.021035125479102135, -0.03926798701286316, -0.011591585353016853, 0.023248592391610146, -0.023097189143300056, 0.02142341248691082, -0.02520103007555008, 0.015430910512804985, -0.02011346071958542, 0.020574869588017464, -0.039638176560401917, -0.015001663938164711, 0.031301144510507584, 0.0231295358389616, -0.027505435049533844, 0.03420121595263481, -0.050778746604919434, 0.017281275242567062, -0.02090853825211525, 0.05198485776782036], [5.654554797729361e-07, -3.3277097827522084e-05, 7.029408948255877e-07, -6.324583227979019e-05, 8.568407065467909e-05, 1.4119259503786452e-05, -3.4233096812386066e-05, 3.963296251185966e-07, 2.7481088181957603e-05, -2.521215719752945e-05, -6.414313702407526e-06, -7.019757504167501e-07, -8.965921551862266e-07, -2.6405554308439605e-05, 3.6891535728500457e-06, -3.304195104192331e-07, 6.587685493286699e-05, -5.6035860325209796e-05, -1.0441821359563619e-05, -4.781039751833305e-05, -0.00012538486043922603, -4.172030457993969e-05, -9.107414371101186e-06, -7.447616098943399e-06, -2.851665522030089e-05, -2.8919412216055207e-05, 5.1436918511171825e-06, -6.146184750832617e-05, -1.6151398085639812e-06, -0.00012629761477001011, 3.1691126878286013e-06, -7.864540748414584e-06, 9.352414053864777e-05, -0.00010325749462936074, 1.1893823284481186e-05, -1.451982188882539e-05, 3.215610922779888e-05, -6.855777883174596e-06, 0.00012304903066251427, 3.543736238498241e-05, 0.00010568657307885587, -6.055634730728343e-05, 7.738556632830296e-06, -3.1448180948245863e-07, -1.8377949118075776e-06, -4.45380101155024e-06, -9.11214665393345e-05, -3.720784661709331e-05, 5.4388427088269964e-05, -2.392168971709907e-05, 0.00010670948540791869, 1.4725401342730038e-05, 2.905302244471386e-05, 1.6404284906457178e-05, 4.0214818000094965e-05, 5.459195335788536e-07, 2.186247002100572e-05, 1.0078376362798735e-05, -7.074998848111136e-06, 8.263078598247375e-06, 1.2722079191007651e-05, 6.360245606629178e-05, 3.3515305403852835e-05, 1.513841107225744e-05, -1.1434356565587223e-05, -1.1276194527454209e-05, 0.00018076314881909639, -9.781729750102386e-05, -2.203592703153845e-05, 1.4759014447918162e-05, -1.515736585133709e-05, -1.4672963516204618e-05, -6.617425697186263e-06, -2.025179855991155e-05, 9.132698863822952e-08, -0.00014607049524784088, 4.1652790969237685e-05, -6.739027867297409e-06, 5.998795313644223e-05, 7.578994427603902e-06, 2.0086587028345093e-05, 6.346805457724258e-05, -7.055747573758708e-06, -1.4307570381788537e-05, 2.4106409455271205e-06, -8.42189729155507e-06, 1.5307177818613127e-05, 1.7853360986919142e-05, 7.806343637639657e-05, 9.72472844296135e-06, -3.674372919704183e-06, -8.376836922252551e-05, 8.421747224929277e-06, 2.568176796557964e-06, 4.4722353777615353e-05, -0.00014902841940056533, -4.4592029553314205e-06, -2.2970762074692175e-05, 0.00013761609443463385, 5.8168796385871246e-05, 1.2432518815330695e-05, 4.24117661168566e-06, 2.1250150894047692e-05, -2.366392254771199e-05, 3.190749339410104e-05, -8.239848284574691e-06, 8.070575131569058e-05, -5.780687388323713e-06, -6.421068519557593e-06, 1.4431944691750687e-05, 6.629821291426197e-05, -0.0001378848246531561, 7.404566713375971e-05, -4.053362499689683e-05, 8.03403600002639e-06, -0.00010117161582456902, 7.132782047847286e-05, -4.1124283598037437e-05, 6.897067942190915e-05, 3.0139450245769694e-05, -5.0414775614626706e-05, -4.154332145844819e-06, 0.0002004820853471756, -0.00011713825369952247, 1.4774978808418382e-05, -7.729177923465613e-06, 1.704625719867181e-05, -3.319315146654844e-05], [-0.0009162135538645089, -0.0011350796557962894, 0.0002019560633925721, -0.0006474332185462117, 0.0006446362240239978, -0.001700372202321887, -0.0004971721209585667, -0.00012013622472295538, 4.649095717468299e-05, 0.001474002841860056, -0.00013128257705830038, -3.369127807673067e-05, 0.00029621669091284275, -0.00016772444359958172, 0.0002109401539200917, -0.0005545060848817229, 0.0006142406491562724, -0.00019480552873574197, -0.0008101465064100921, -7.177315274020657e-05, -0.0004580046806950122, -0.00034734938526526093, 0.0014662325847893953, 0.00040790371713228524, -0.00027474144008010626, -0.0007461979985237122, 0.0007008026586845517, -5.159046486369334e-05, 0.00015912699745967984, -6.268163269851357e-05, -0.0007212769705802202, -0.00020056635548826307, 0.0009571216651238501, -0.0003905316407326609, 0.00023108621826395392, -0.0004954859614372253, 0.0016139443032443523, -0.00045690673869103193, 0.0007928034756332636, 0.0013868360547348857, 0.0005027884035371244, -0.0026580144185572863, 0.0005968543118797243, -0.00032256694976240396, 9.348877210868523e-05, 0.0008624844485893846, -0.0012744819978252053, -0.00019453461572993547, 0.002050352981314063, -0.0005391939776018262, 0.0010117215570062399, 0.0009768955642357469, 0.0009204230736941099, 0.0003362444113008678, 0.0005443123518489301, 0.0009740725508891046, 0.0006087796064093709, 0.0005206827772781253, 0.000983948353677988, -0.0007202898850664496, 0.0014671849785372615, 0.00023506056459154934, 0.0013807095820084214, -0.0008525534649379551, -0.0013074945891276002, -0.0006995907169766724, 0.0010931042488664389, -0.0004200654511805624, -0.0003345708828419447, -0.0010098079219460487, -0.0009289886802434921, -0.0005191375385038555, -0.00011446688586147502, -0.000527445983607322, 0.00034085437073372304, -5.561416764976457e-05, 0.0011762690264731646, -5.349010098143481e-05, 0.00035832548746839166, -0.00027411896735429764, 8.800948126008734e-05, 0.0007825810462236404, 0.0004837258893530816, -0.00027237116592004895, -0.0005508391186594963, -2.3048032744554803e-05, 0.00019275074009783566, -0.0003461874439381063, 0.0004255172680132091, 0.00011209490185137838, -0.0008873030892573297, -7.417143933707848e-05, 0.0007307036430574954, -0.00014191202353686094, 0.0007046795217320323, -9.848360059550032e-05, 4.468821862246841e-05, -0.0003345971927046776, 0.00046764680882915854, 0.0008963794098235667, 0.0005596200353465974, 0.0005642591277137399, 0.0008950830670073628, -0.0013707911130040884, 0.001372551079839468, -0.0013487868709489703, 0.0017474435735493898, 0.0004524535615928471, 0.00021124249906279147, 0.0010898554464802146, 0.000161714298883453, -3.836379983113147e-05, 0.0006213770830072463, -0.000815579027403146, 0.005754438228905201, -0.0002611378440633416, 0.001932399463839829, -8.697564044268802e-05, 9.23961924854666e-05, 3.016116716025863e-05, -0.0009146403172053397, -0.0018487718189135194, 0.0007722293958067894, -0.0007221434498205781, 0.0004617802915163338, -0.00020184990717098117, 0.0014714054996147752, -0.00023842758673708886], [-0.00622432678937912, -0.002492370316758752, 0.01008610986173153, -0.010922719724476337, 0.0024358509108424187, -0.012308063916862011, -0.009960003197193146, -0.004266971256583929, 0.005443958565592766, 0.011987044475972652, -0.0009590687113814056, -0.011620115488767624, 0.0007228409522213042, -0.003866942133754492, 0.003081129863858223, -0.0037939611356705427, 0.011527659371495247, -0.004879351705312729, -0.0038459566421806812, -0.006369238719344139, -0.008103872649371624, -0.0043365322053432465, 0.00620823260396719, 0.0057450165040791035, -0.014946659095585346, -0.002752592321485281, 0.00024450960336253047, -0.0068447585217654705, 0.0015225663082674146, -0.007310928776860237, -0.008724762126803398, -0.011355075985193253, 0.0019302304135635495, -0.007412155624479055, 0.00836116261780262, -0.0011683378834277391, 0.005975284148007631, -0.0018339537782594562, 0.007888645865023136, 0.0064619011245667934, 0.004060006700456142, -0.00794234685599804, 0.0034315772354602814, -0.00218687835149467, 0.00308831874281168, 0.0029984789434820414, -0.007360211573541164, -0.010841176845133305, 0.015010422095656395, -0.0027618976309895515, 0.005104930605739355, 0.004086415283381939, 0.008948048576712608, 0.0017842677189037204, 0.0049509452655911446, 0.008870699442923069, 0.005550631787627935, 0.005437998101115227, 0.007585976272821426, -0.0009659125935286283, 0.004547098185867071, 0.011966302059590816, 0.004916011821478605, -0.007099546026438475, -0.004067643079906702, -0.0025829023215919733, 0.010528064332902431, -0.006400540936738253, -0.004788643214851618, -0.005488115828484297, -0.0072191632352769375, -0.003021571785211563, -0.0025089969858527184, -0.003343226620927453, 0.0010579881491139531, -0.008227906189858913, 0.006591551471501589, -0.0005830239970237017, 0.007230676710605621, -0.0007429561228491366, 0.012357234954833984, 0.007815391756594181, 0.007348583545535803, -0.00350306648761034, -0.0005048250895924866, -0.0022514674346894026, 0.001986004877835512, -0.007760203909128904, 0.0022655976936221123, 0.01469691563397646, -0.004100799094885588, -0.0055411276407539845, 0.00036406164872460067, -0.002480973955243826, 0.009447174146771431, -0.0036291431169956923, 0.007905290462076664, -0.0010552597232162952, 0.006042370107024908, 0.004723213613033295, 0.007963920012116432, 0.006710113026201725, 0.01295208465307951, -0.0031391140073537827, 0.006618752609938383, -0.007820540107786655, 0.004793681204319, 0.01713884249329567, 0.002775725210085511, 0.0019480306655168533, 0.005452489014714956, -0.005001954268664122, 0.0034712636843323708, -0.003677136730402708, 0.016801297664642334, -0.007987751625478268, 0.00933323334902525, -0.0020592655055224895, 0.002548821270465851, 0.006623764056712389, -0.002521852031350136, -0.006585323251783848, 0.010961851105093956, -0.0057270945981144905, 0.0032994605135172606, -0.013178172521293163, 0.008325147442519665, -0.0013628287706524134], [-3.8661232792946976e-06, 3.867905979859643e-05, -5.180267908144742e-05, 4.981445090379566e-05, -4.0384478779742494e-05, 9.738771041156724e-06, 4.0397062548436224e-05, 3.5383905924391e-05, -5.1589111535577103e-05, -0.00012966881331522018, 7.363272015936673e-05, 0.00011817967606475577, 2.842921503543039e-06, 1.412947676726617e-05, -1.2797308045264799e-05, 6.005478644510731e-05, -6.606147053389577e-06, 5.4093448852654546e-05, 9.66477527981624e-05, 4.137631913181394e-05, 7.887328683864325e-05, 0.00022846886713523418, -2.8330692657618783e-05, -5.585417238762602e-05, 1.0838778052857378e-06, 3.19384053000249e-05, -1.4043856026546564e-05, 1.851479828474112e-05, -2.8964082957827486e-05, 3.375675805727951e-05, 2.2543554223375395e-05, 0.0003114365099463612, -4.3618256313493475e-05, -1.4765124433324672e-05, 3.645422793852049e-06, -7.045282472972758e-07, -7.888163236202672e-05, -1.4485799511021469e-06, -7.061218639137223e-05, -8.059568244789261e-06, -2.7406869776314124e-05, 2.100410893035587e-05, -1.5028627785795834e-05, 9.029451757669449e-05, -0.000101936369901523, -3.056511559407227e-05, 6.402161670848727e-05, 3.3370288292644545e-05, -4.1912266169674695e-05, 5.929990038566757e-06, -5.6804179621394724e-05, 4.000301032647258e-06, -0.00012191489804536104, -5.2766034059459344e-05, -4.0902876207837835e-05, -8.974807741424229e-08, -1.7095506336772814e-05, -1.763980253599584e-05, -6.668149580946192e-05, -5.2511186368064955e-06, -6.857582047814503e-05, -1.9743033590202685e-06, -1.4458558325713966e-05, 7.332898530876264e-05, 3.612996079027653e-05, 0.00024109540390782058, -0.000116613635327667, 4.249955509294523e-06, 2.515040796424728e-05, 3.370650301803835e-05, 2.5408296551177045e-06, 0.0001381483452860266, 1.8692619050852954e-05, 2.8680295145022683e-05, -1.1348993211868219e-05, 8.859384979587048e-05, -4.679426274378784e-05, 2.230037353001535e-05, -0.00026047113351523876, 2.374778523517307e-05, -0.00015034496027510613, -3.2959029340418056e-05, -1.7943588318303227e-05, 1.2485996194300242e-05, 3.5467863199301064e-05, -1.4334327715914696e-06, -8.234674169216305e-05, 4.584654016070999e-05, -3.5670007491717115e-05, -3.0084600439295173e-05, 1.9754674212890677e-05, 0.00014185518375597894, -0.00011059367534471676, 7.459677726728842e-05, -8.664819324621931e-05, 3.4834294638130814e-05, -7.848669338272884e-05, 3.9422357644980366e-07, -1.4135700439510401e-05, -7.90051490184851e-05, -1.0545802524575265e-06, -1.2891384358226787e-05, -1.2012559636787046e-05, -3.894930159731302e-06, -3.5243589081801474e-05, 5.386327029555105e-05, -1.6025845980038866e-05, -6.228068286873167e-06, -8.242744115705136e-06, -3.398150147404522e-05, 1.955002289832919e-06, 3.841788930003531e-05, -2.6087776859640144e-05, -7.860590812924784e-06, -0.00013293331721797585, 0.00024605682119727135, -2.5213790650013834e-05, 6.385846063494682e-06, 8.423281201430655e-07, -5.072337080491707e-05, 1.1808467206719797e-05, 0.0001981304812943563, -6.289779412327334e-05, 5.404102921602316e-05, -0.00010329785436624661, 3.019768337253481e-05, -9.959304588846862e-05, 6.388730253092945e-05], [2.1868849216843955e-05, 3.093870327575132e-05, -0.00018553913105279207, 6.758829113095999e-05, -0.00024857386597432196, 6.63504542899318e-05, 4.046504727739375e-06, 0.00016421554028056562, -4.469027408049442e-05, -0.0003295608621556312, 4.974173862137832e-05, -2.3604843590874225e-06, -2.197897993028164e-05, -2.339998900424689e-06, -3.8401776691898704e-05, 0.00025047443341463804, -0.00041008691187016666, 7.796716090524569e-05, 5.8043846365762874e-05, 4.7049892600625753e-05, 1.0190213288296945e-05, 0.00020372144354041666, -4.2482850403757766e-05, -5.613136090687476e-05, 8.202856406569481e-05, 0.00014729474787600338, -8.429455192526802e-06, 7.691813266319514e-07, -0.00020449861767701805, 5.0796763389371336e-05, 6.276091153267771e-05, 7.892872963566333e-05, -0.00011194776016054675, 4.3711199396057054e-05, -6.499569281004369e-05, 0.00019958418852183968, -0.00011811471631517634, 4.244290266797179e-06, -4.56913130619796e-06, -7.20027819625102e-05, -9.208966730511747e-06, 0.00012066061026416719, -5.4167743655852973e-05, 1.9033434455195675e-06, -4.9329242756357417e-05, -2.3141992642194964e-05, -8.451600592707109e-07, 6.323355046333745e-05, -4.704934781329939e-06, 6.668478454230353e-05, -3.133703285129741e-05, -1.1534391887835227e-05, -4.559602166409604e-05, -6.200088591867825e-06, 3.875694005728292e-07, -6.828672485426068e-05, -0.00011011335300281644, -0.0001328312500845641, 2.3175684873422142e-06, 0.00010680391278583556, -2.2533949959324673e-06, -1.0677669024516945e-06, -2.376564907535794e-06, 6.45188702037558e-05, -1.0585958989395294e-05, 0.000179282869794406, -0.00015291853924281895, 0.0002082123828586191, 3.511701288516633e-05, 0.00011014784104190767, 5.2723353292094544e-05, 6.135410512797534e-05, 0.00028163951355963945, 3.067462967010215e-05, -3.945192656829022e-05, 4.086203625774942e-05, -8.134870586218312e-05, -5.311475206326577e-07, -3.332898631924763e-05, 6.562490307260305e-05, -6.342746928567067e-05, -9.66290317592211e-05, -1.6260886695818044e-05, 0.000257578503806144, 3.319517190902843e-06, 6.703923281747848e-05, 2.4639807634230237e-06, 5.725539813283831e-05, -3.977609230787493e-05, -4.6940451284172013e-05, 3.327364902361296e-05, 0.00014805883984081447, 4.605184358297265e-07, 1.2864276868640445e-05, -0.00013114845205564052, 5.6566317653050646e-05, -4.5104676246410236e-05, 0.00019994111789856106, -2.2790882212575525e-05, -7.077292684698477e-05, -8.00864540906332e-07, -4.69049955427181e-05, -0.0001884604134829715, 1.7199865851580398e-06, -3.9187780203064904e-05, 7.089228893164545e-05, -0.0001701207074802369, -0.00011189795623067766, -6.271088204812258e-05, -8.976913522928953e-05, 9.411098176315136e-07, 4.652653660741635e-05, 8.788975719653536e-06, 2.7746666091843508e-05, -5.8423931477591395e-05, 9.657946065999568e-05, -6.920115265529603e-05, 0.00014527903113048524, 1.8774939292143245e-07, -7.0082867750898e-05, 5.8482186432229355e-05, 3.867560008075088e-05, -2.918067912105471e-05, 0.00016230691107921302, -3.2650306820869446e-05, 0.00031608788412995636, -3.735346763278358e-05, 4.480607822188176e-05], [-9.480982407694682e-05, -1.9088382032350637e-05, 7.635609654244035e-05, -4.550588346319273e-05, 2.0488516383920796e-05, -4.9186841351911426e-05, 4.849883680435596e-06, -4.331533637014218e-05, 3.075035419897176e-05, 5.020151365897618e-05, -4.917952901450917e-05, -4.3786276364699006e-05, 5.536417191365217e-08, -3.342047057230957e-05, 3.91255016438663e-05, -3.8931269955355674e-05, 0.00026573307695798576, -3.5549321182770655e-05, -2.2037329472368583e-06, -0.00014065740106161684, -9.724439587444067e-05, -0.0001954851031769067, 0.00010788681538542733, 0.0002046825975412503, -5.191594027564861e-05, -0.0001609592727618292, 5.238207450020127e-06, -0.00010183802805840969, 5.447067451314069e-05, -4.943925887346268e-05, -5.09832170791924e-05, 8.616702871222515e-07, 6.3627344388805795e-06, -8.35926693980582e-05, 0.00010840616596397012, -5.702968337573111e-05, 5.9530877479119226e-05, -4.651403651223518e-05, 0.00011383537639630958, 2.4412587663391605e-05, 5.9537222114158794e-05, -0.00013678421964868903, 0.0001788585213944316, -4.619464380084537e-05, 0.00010911575373029336, 0.00018158589955419302, 6.2426393014902715e-06, -4.8408608563477173e-05, 8.899366366676986e-05, -2.3819873604224995e-05, 5.7903169363271445e-05, -1.3329845387488604e-06, 3.461266896920279e-05, 2.669389232323738e-06, 2.8653288609348238e-05, 6.096290599089116e-05, 0.00013929640408605337, 8.383075328310952e-05, 8.486685692332685e-05, -3.944594209315255e-05, 0.00013452225539367646, -5.4899915085115936e-06, 8.864684059517458e-05, -3.780322731472552e-05, -4.192631604382768e-05, -0.0001364710187772289, -1.5731731764390133e-05, -8.683120540808886e-05, -1.2160453479737043e-05, -0.00022970240388531238, -9.630470594856888e-05, -4.060999708599411e-05, -5.7363991800229996e-05, -3.202758671250194e-05, 1.385112318530446e-05, -1.1895092939084861e-05, 0.000282063614577055, -5.04547472246486e-07, -8.043098205234855e-06, -3.5971701436210424e-05, -6.331042641249951e-06, 7.533791358582675e-05, 5.03693227074109e-05, -8.589061508246232e-06, -2.833592816386954e-06, -7.407221710309386e-05, 2.443963421683293e-05, -2.8190606826683506e-05, 5.441009852802381e-05, 8.941852865973487e-05, -5.4119293054100126e-05, -7.399439346045256e-05, 4.634863944374956e-05, -2.0558374671963975e-05, -1.7084965975300292e-07, -8.118730329442769e-05, 4.387048193166265e-06, -3.213858144590631e-05, 0.0001714051904855296, 0.00015539806918241084, 5.146317926119082e-05, 1.8501577869756147e-05, -1.180996696348302e-05, -1.6702659195289016e-05, -9.673377462604549e-06, -9.099316571337113e-07, 1.841022094595246e-05, 4.960669684805907e-06, 4.301281660445966e-05, -2.281198931086692e-06, 0.0002820906229317188, -7.773032120894641e-05, 3.272438334533945e-05, -2.2468391307484126e-06, 1.806139334803447e-05, -0.00012669892748817801, 3.176076279487461e-05, -4.394180723465979e-05, 3.1994413802749477e-06, 1.410516142641427e-05, -4.4969769078306854e-05, -3.8254307582974434e-05, 7.108106365194544e-05, -0.00015436875401064754, 4.0003054891712964e-05, -6.883234163979068e-05, 7.701232971157879e-05, -3.934517371817492e-05], [0.07920517027378082, 0.08719710260629654, -0.06476309895515442, 0.07825023680925369, -0.011431802995502949, 0.0809796079993248, 0.07839829474687576, 0.08340522646903992, -0.04919622093439102, -0.06347586959600449, 0.05817635729908943, 0.012062395922839642, -0.028181321918964386, 0.07902669906616211, -0.07281473278999329, 0.050914645195007324, -0.015140325762331486, 0.08043760806322098, 0.07545877993106842, 0.07823161780834198, 0.08171476423740387, 0.018616920337080956, -0.08034887164831161, -0.08429878205060959, 0.08344763517379761, 0.011222590692341328, -0.012699793092906475, 0.013422368094325066, -0.06939292699098587, 0.042649783194065094, 0.08737752586603165, 0.015308309346437454, -0.08133558183908463, 0.009556226432323456, -0.014326474629342556, 0.01600695215165615, -0.067830890417099, 0.0806419849395752, -0.09226968139410019, -0.08767595887184143, -0.07924994826316833, 0.0770166665315628, -0.06926773488521576, 0.07711922377347946, -0.01453701313585043, -0.07520656287670135, 0.06510917842388153, 0.08084995299577713, -0.06836140900850296, 0.024069136008620262, -0.0838288962841034, -0.07250344008207321, -0.020536847412586212, -0.06275880336761475, -0.07082709670066833, -0.010797502472996712, -0.06581906974315643, -0.022344481199979782, -0.08328142762184143, 0.07858432084321976, -0.08224111050367355, -0.07103191316127777, -0.00824568048119545, 0.07889166474342346, 0.03031030483543873, 0.07773085683584213, -0.049376361072063446, 0.04889853671193123, 0.014966938644647598, 0.0864110141992569, 0.09215670078992844, 0.07701104134321213, 0.0790412649512291, 0.017401034012436867, -0.050803981721401215, 0.009736773557960987, -0.04617185518145561, 0.040724191814661026, -0.0702289566397667, 0.0725630447268486, -0.0525360144674778, -0.025131890550255775, -0.010239156894385815, 0.07315351068973541, 0.061095863580703735, 0.06371822208166122, -0.049869436770677567, 0.01116209477186203, -0.03189847618341446, -0.06930132210254669, 0.05833086743950844, 0.07695195823907852, -0.07391685992479324, 0.0718788430094719, -0.0759505107998848, 0.014579216949641705, -0.00859985500574112, 0.054302897304296494, -0.08078213781118393, -0.011166036128997803, -0.07766902446746826, -0.017934558913111687, -0.07916612178087234, 0.08351779729127884, -0.07672880589962006, 0.08150003105401993, -0.07352640479803085, -0.009967484511435032, -0.033441975712776184, -0.0631144642829895, -0.06329871714115143, 0.07459400594234467, -0.008800999261438847, 0.06287439912557602, -0.06086588278412819, 0.06591324508190155, -0.009857785888016224, 0.011585335247218609, -0.07866517454385757, -0.08559587597846985, 0.08151331543922424, 0.08411922305822372, -0.0847497433423996, 0.07978718727827072, -0.08405271172523499, 0.08349572867155075, -0.014278384856879711, 0.07447566092014313], [0.00036605456261895597, 0.00106289132963866, -0.01357797347009182, 0.0016995019977912307, -0.00111455749720335, 0.0026282521430402994, 0.000935086514800787, 0.00023604344460181892, -0.0010271492647007108, -0.007855348289012909, 0.000365929096005857, 0.0019403471378609538, -0.00017738690075930208, 0.0012415240053087473, -0.0006262113456614316, 0.0008416604250669479, -0.0012262810487300158, 0.0014561315765604377, 0.0009263703832402825, 0.0014674519188702106, 0.0019485678058117628, 0.0016589192673563957, -2.7557689463719726e-05, -0.0010082004591822624, 0.0017810905119404197, 0.0009934052359312773, -0.0006994222640059888, 0.0019815394189208746, -6.491658132290468e-05, 0.0002748183615040034, 0.001700633903965354, 5.715639781556092e-05, -0.0009552040137350559, 0.0015250463038682938, -0.0008811851148493588, 0.00024535771808587015, -6.498906441265717e-05, 0.0006149180699139833, -0.00202916725538671, -0.0005291156703606248, -0.00010808552906382829, 0.0021782624535262585, -0.0001903400116134435, 0.0008090840419754386, -0.0007445177179761231, -2.236109139630571e-05, 0.0011314570438116789, 0.0011772243306040764, -0.02030818909406662, 0.0003094889980275184, -0.0012117007281631231, -0.0017513828352093697, -0.0013346350751817226, -0.0001798873854568228, -0.00026838225312530994, -0.0008827379206195474, -0.0019811938982456923, -0.0008772856672294438, -0.00026927253929898143, 0.00034897474688477814, -0.0014749296242371202, -0.0020249485969543457, -0.001144107198342681, 0.0021167907398194075, 0.000474445812869817, 0.0005056196823716164, -0.009917011484503746, 0.001674516941420734, 0.013259046711027622, 0.0011881164973601699, 0.0001701504224911332, 0.0010319020366296172, 0.0008932074997574091, 7.535820623161271e-05, -0.0007229307084344327, 0.0008810716681182384, -0.0020023835822939873, 0.0004995635244995356, -0.0024076499976217747, 8.871113823261112e-05, -0.0007764886831864715, -0.0006552456179633737, -0.0010103306267410517, 0.000570921169128269, 0.0007132069440558553, 0.00119702925439924, -7.204779831226915e-05, 0.01638459600508213, -0.00015897252887953073, -0.0023295124992728233, 0.000668188848067075, 0.0008120248676277697, -0.0005544922314584255, 0.00014199127326719463, -0.0018745377892628312, 0.0006839014240540564, -0.001254359376616776, 0.0005028277519159019, -0.0015735006891191006, -0.0016460033366456628, -0.0006771700573153794, -0.0008902297122403979, -2.7895086532225832e-05, 0.0013381567550823092, -0.0009654173045419157, 0.0004937440971843898, -0.0007075701141729951, -0.0002221009781351313, -0.0012233606539666653, -1.2788385674866731e-06, -0.0017613543896004558, 0.0021758400835096836, -0.0006803838768973947, 0.00045256721205078065, -0.019952362403273582, 0.006453217007219791, -0.0009101664181798697, 0.0007475963211618364, -0.0006030016229487956, -0.001300225267186761, 0.0015804896829649806, 0.0017976321978494525, -0.000777578039560467, 0.0014369909185916185, -0.002093023620545864, 0.0030548484064638615, -0.0008612828096374869, 0.0002516678941901773], [-0.01560700498521328, -0.0888194739818573, 0.017380960285663605, -0.03195146098732948, 0.08182661980390549, -0.05775098502635956, -0.008903848007321358, -0.0777975544333458, 0.027737684547901154, 0.0214629378169775, -0.08033834397792816, -0.07619521021842957, 0.07438065111637115, -0.052640389651060104, 0.053016774356365204, -0.02072906494140625, 0.07575361430644989, -0.0803222730755806, -0.09480735659599304, -0.014619803056120872, -0.022101007401943207, -0.08796864748001099, 0.021996375173330307, 0.07870954275131226, -0.020126687362790108, -0.08727103471755981, 0.061644546687603, -0.022440336644649506, 0.07231950759887695, -0.012644694186747074, -0.052979495376348495, -0.05046575516462326, 0.020984096452593803, -0.08518197387456894, 0.07978594303131104, -0.05950060486793518, 0.08466679602861404, -0.07327943295240402, 0.012908082455396652, 0.09303046017885208, 0.07577969878911972, -0.015423644334077835, 0.014637980610132217, -0.02191021293401718, 0.08678773045539856, 0.07596644759178162, -0.06810872256755829, -0.009555146098136902, 0.02888469770550728, -0.08308687806129456, 0.08470529317855835, 0.008701086975634098, 0.02616986632347107, 0.0837135761976242, 0.03474197909235954, 0.09423217177391052, 0.010721949860453606, 0.07614783197641373, 0.08153681457042694, -0.026309384033083916, 0.038518164306879044, 0.020626196637749672, 0.05223361775279045, -0.01499180682003498, -0.012576095759868622, -0.07866884768009186, 0.008546390570700169, -0.09810952097177505, -0.06546249985694885, -0.08507850021123886, -0.03587830439209938, -0.07908167690038681, -0.07762441784143448, -0.07948683202266693, 0.07351544499397278, -0.04455185309052467, 0.08130960166454315, -0.0649016872048378, 0.0750199481844902, -0.07186588644981384, 0.018298743292689323, 0.07307139784097672, 0.05775133892893791, -0.07528532296419144, -0.014524318277835846, -0.0702882930636406, 0.07593078911304474, -0.046615373343229294, 0.08694735914468765, 0.028816135600209236, -0.08649349957704544, -0.015592378564178944, 0.07412246614694595, -0.07316654175519943, 0.01255872007459402, -0.015259461477398872, 0.07914263010025024, -0.028316156938672066, 0.022169126197695732, 0.0808282122015953, 0.07665456831455231, 0.09088201075792313, 0.033345308154821396, -0.08031704276800156, 0.029468975961208344, -0.051344770938158035, 0.07147718966007233, 0.017079656943678856, 0.023045940324664116, 0.07198338210582733, 0.013300830498337746, -0.04471374303102493, 0.0811871811747551, -0.06119426712393761, 0.016132893040776253, -0.012123940512537956, 0.07814033329486847, -0.07618653029203415, 0.07770323753356934, 0.08890268206596375, -0.07758700847625732, -0.053719326853752136, 0.08730344474315643, -0.04196023941040039, 0.08930551260709763, -0.01436835527420044, 0.012526250444352627, -0.07606279850006104], [-1.3423434211290441e-05, -4.4575008359970525e-05, 0.00019169501319993287, -0.00012587029777932912, 2.3045357011142187e-05, 7.478402949345764e-06, -1.5841316781006753e-05, -5.0329028454143554e-05, -6.661613497271901e-06, 1.692980913503561e-05, -2.2696758605889045e-05, 5.319842784956563e-06, 2.7502475859364495e-05, -4.199794420856051e-05, 0.0001200441038236022, 3.7318461636459688e-06, 3.2044931685959455e-07, -2.9852113584638573e-05, -7.3168653216271196e-06, -0.00015931614325381815, -0.0001891944120870903, 3.310660758870654e-06, 0.00017240410670638084, 1.590533611306455e-05, -4.7947723942343146e-06, -3.040288902411703e-05, 1.7139722331194207e-05, -3.211980947526172e-05, -4.828371402254561e-06, -6.383629806805402e-05, -5.417428837972693e-05, -8.800808427622542e-05, 1.2024845091218594e-05, -4.225779412081465e-05, 5.137454763826099e-07, 1.761596081450989e-06, 7.214701327029616e-05, -8.292004349641502e-05, 6.613154255319387e-05, 4.767900009028381e-06, 2.439521995256655e-05, -2.3444996259058826e-05, 3.8255981053225696e-05, -7.387076038867235e-05, 5.152153789822478e-06, 9.83493373496458e-06, -7.149167231546016e-06, -1.5810333934496157e-05, -1.6485997548443265e-05, -4.379305028123781e-05, 8.485484613629524e-06, -3.262836344219977e-06, 6.198928167577833e-05, 5.465653885039501e-05, 7.404464849969372e-05, 5.2457158744800836e-05, 4.6873952669557184e-05, 1.3871451301383786e-05, 5.349577622837387e-05, -2.225471689598635e-05, 2.0459387087612413e-05, 0.00012708138092420995, 1.5994886780390516e-05, -4.546428317553364e-05, -6.924344052094966e-05, -0.00014564217417500913, 4.823509880225174e-05, -7.820448809070513e-05, 1.2355768376437481e-05, -2.9347087547648698e-05, -0.00010343896428821608, -4.5438155211741105e-05, -7.970468686835375e-06, -7.573999027954414e-05, 2.2030009859008715e-05, -5.4884207202121615e-05, 4.7974379413062707e-05, -1.6838837836985476e-05, 3.3875377994263545e-05, -1.3848526577930897e-05, 3.900400042766705e-05, 2.5371680749231018e-05, 1.3304387493917602e-06, -3.836186806438491e-05, -2.8231223041075282e-05, -2.631778443173971e-05, -6.397859237949888e-07, 6.976911663514329e-06, 0.00012772165064234287, 7.0230606070254e-05, -2.8673841370618902e-05, -6.133707211120054e-05, 4.4894601160194725e-05, -3.721284156199545e-05, 0.00016547080304007977, -4.941000952385366e-06, 1.1496927072585095e-05, -3.107777956756763e-05, 6.982607374084182e-06, 8.728719694772735e-05, 8.2047437899746e-05, 2.5897836621879833e-06, -1.1224585250602104e-05, -8.487157174386084e-06, 2.074363328574691e-05, -1.1673791959765367e-05, 3.8114692870294675e-05, 3.5399501939537004e-05, 3.083507181145251e-05, 5.196703932597302e-05, -5.4603447097179014e-06, -6.421368743758649e-05, 0.00013811879034619778, -6.928205402800813e-05, -8.996997166832443e-06, -3.452249802649021e-05, -5.331035026756581e-07, -2.674487950571347e-05, 7.440254557877779e-05, 5.3098683565622196e-05, -1.595258800080046e-05, -2.0123272406635806e-05, 7.569589797640219e-06, -0.00013106335245538503, 1.6393623809562996e-05, -1.3305428865351132e-06, -1.0358315194025636e-05, -4.2092171497642994e-05], [-0.0008132386137731373, -8.30447897897102e-05, 0.0003459297586232424, -6.72418755129911e-05, 0.0001950035075424239, -0.0002633071271702647, -4.145651473663747e-05, -0.00048602872993797064, 0.00021513469982892275, 1.5718223949079402e-05, -7.576913048978895e-05, -0.0008878638036549091, 0.0005365577526390553, -0.00035780284088104963, 0.0002085136075038463, -0.00022960570640861988, 0.00018049996288027614, -0.0003277526411693543, -2.9616385290864855e-05, -0.00010049812408396974, -0.0005683917552232742, -2.7477353796712123e-05, 0.0007061713258735836, 0.00038399931509047747, -0.0002655989082995802, -6.134081922937185e-05, 0.0002255553990835324, -0.0003663194947876036, 6.649232818745077e-05, -0.00026132602943107486, -0.0001743218017509207, -0.00013633766502607614, 0.000629372603725642, -0.00036993727553635836, 0.0004844361392315477, -0.00016100978245958686, 0.0006243076059035957, -0.0003470430674497038, 0.0003702496469486505, 0.0005157767445780337, 0.00028317986289039254, -0.0001959617657121271, 0.00032882235245779157, -0.00021854473743587732, 0.00024491670774295926, 0.0004932049778290093, -0.0006917165010236204, -0.00012591647100634873, 8.126544707920402e-05, -1.8668586108105956e-06, 0.00013487940304912627, 0.00030873544164933264, 8.820842049317434e-05, -2.8011254471493885e-07, 0.0001571386819705367, 1.0884231187446858e-06, 0.00030315975891426206, 0.0008311464916914701, 0.0009748846059665084, -0.00016096379840746522, 0.0003082993207499385, 0.00013689472689293325, 0.0002939584956038743, -0.0004204660654067993, -0.0009355844813399017, -8.49292628117837e-05, 0.00026495923520997167, -0.00010370343807153404, -0.0002477868692949414, -0.00031803391175344586, -0.0010760781588032842, -2.133277666871436e-05, -0.00013621199468616396, -0.0004141898825764656, 0.00018099845328833908, -2.2945509044802748e-05, 3.5051074519287795e-05, -0.0004962173406966031, 0.00046407789341174066, -0.00019577369675971568, 0.000800020934548229, 0.0007377382135018706, 0.0005425586714409292, -0.0002897972008213401, -0.00012751974281854928, -0.00039535819087177515, 0.00010403308988315985, -0.0005384338437579572, 0.0005507908063009381, 0.0004242978466209024, -0.0006775291985832155, -0.0005620862357318401, 0.0003421405563130975, -8.292610436910763e-05, 0.00010127567657036707, -0.0005340688512660563, 0.0003461721644271165, -0.00021278730127960443, 0.0003126737428829074, 0.0002082761493511498, 5.331453212420456e-05, 0.0004876024031545967, 5.2602063078666106e-05, -5.748577314079739e-05, 0.0004251068166922778, -0.00025662416010163724, 0.0002194444532506168, 0.0003214275639038533, 0.0001681167632341385, 0.000997267197817564, 0.0006978859892114997, -0.00039776560151949525, 7.069990715535823e-06, -0.00045808273716829717, 0.0004268150660209358, -0.000668862892780453, 0.00015072972746565938, -5.841708480147645e-05, 7.117509812815115e-05, 8.426754357060418e-05, -9.144661817117594e-06, -0.00040398427518084645, 0.0008765722741372883, -0.00012527694343589246, 6.49491194053553e-05, -0.00038402649806812406, 0.000199916263227351, -0.000581173284444958], [-0.0009727112483233213, -0.0018674300517886877, 0.024233568459749222, -0.001580891665071249, 0.001082124188542366, -0.0021065829787403345, -0.0021107487846165895, -0.0004929021233692765, 0.0011635349364951253, 0.014120087958872318, -0.0010545256081968546, -0.0011646834900602698, 0.00024316836788784713, -0.0005613781395368278, 0.0008052389603108168, -0.0006174733280204237, 0.0002595813712105155, -0.0011639312142506242, -0.000512266531586647, -0.0011041024699807167, -0.0016446285881102085, -0.0014138215919956565, 0.0003707051509991288, 0.00011624687613220885, -0.016164511442184448, -0.0004723559250123799, 0.00023732833506073803, -0.0013147451682016253, 0.00014284136705100536, -0.00122337625361979, -0.00011910634202649817, -0.001544031547382474, 0.0006013906095176935, -0.0008641128661110997, 4.633812568499707e-05, -0.0002629402151796967, 0.001964238239452243, -0.0005420746165327728, 0.0022316116373986006, 0.001930843573063612, 0.00057029421441257, -0.00838505569845438, 0.0007051118882372975, -0.0007017964962869883, 0.000598513928707689, 0.0012197415344417095, -0.004679410252720118, -0.00102584483101964, 0.030295580625534058, -0.0007930488209240139, 0.0008519015973433852, 0.0007790486561134458, 0.00477566896006465, 0.0008434493211098015, 0.0010319394059479237, 0.000418180221458897, 0.0013987893471494317, 0.00014359451597556472, 0.0017146912869066, -0.0008685586508363485, 0.0009586319210939109, 0.001217970042489469, 0.001322299474850297, -0.0017468119040131569, -0.0010860704351216555, -0.000838140316773206, 0.02144513837993145, -0.0021466794423758984, -0.022054951637983322, -0.0008025965071283281, -0.00023257937573362142, -0.0003774223441723734, -0.0008682669722475111, -0.00021310770534910262, 0.0008914021891541779, -0.0022689395118504763, 0.0025070018600672483, -0.00024229827977251261, 0.014788011088967323, -0.000180138333234936, 0.002370001282542944, 0.0019421447068452835, 0.0018265768885612488, -0.0013353046961128712, -0.0003032165695913136, -0.00020332247368060052, 0.0005443046102300286, -0.011168865486979485, 0.001345374621450901, 0.022070256993174553, -0.000908130023162812, -0.0003262940444983542, 0.00027711951406672597, -0.00010122381354449317, 0.0022117793560028076, -0.008336956612765789, 0.0013504251837730408, -0.0007603239500895143, 0.0017160677816718817, 0.0027876978274434805, 0.003947971388697624, 0.0001270482171094045, 0.0032171199563890696, -0.00035117147490382195, 0.001584480982273817, -0.0012443376472219825, 0.0015261470107361674, 0.0010290459031239152, 0.00043205026304349303, 8.47342234919779e-05, 0.0003220460203010589, -0.0011899179080501199, 0.002673711162060499, -0.0004121631500311196, 0.033730458468198776, -0.01857680454850197, 0.0006165182567201555, -0.00043614034075289965, 0.0008992219227366149, 0.0014767262618988752, -0.0011674752458930016, -0.0013370190281420946, 0.009281295351684093, -0.0007268127519637346, 0.0007100495859049261, -0.008361021056771278, 0.0013302054721862078, -0.00028054669382981956], [-5.520470585906878e-05, -0.0006465904880315065, 0.0010587057331576943, -0.0004446330131031573, 0.0005700484616681933, -0.0005107814213261008, -5.184667679714039e-05, -0.00023372872965410352, 0.00038470528670586646, 0.0004283617890905589, -0.000409121421398595, -0.00011740759509848431, 0.0006027642521075904, -0.0011552217183634639, 0.0009789826581254601, -0.00011319314216962084, 0.0015014694072306156, -0.0013911125715821981, -1.5056539268698543e-05, -0.0005079152761027217, -0.0015099450247362256, -0.000201194008695893, 0.0004807631194125861, 0.0005069090984761715, -0.0009796451777219772, -0.0006241560913622379, 0.00014415672922041267, -0.0004960346850566566, 0.0007258327095769346, -0.0002280690096085891, -0.0012928462820127606, -0.0010609866585582495, 0.00042455262155272067, -0.0014343607472255826, 6.117831071605906e-05, -0.0006747348816134036, 0.0009236460318788886, -0.0004236745007801801, 6.788462633267045e-05, 0.0002668658853508532, 0.0008500989060848951, -0.0006757560768164694, 4.3548519897740334e-05, -0.0008800563518889248, 5.644633711199276e-05, 0.00033284907112829387, -0.00021185277728363872, -0.000592015334405005, 0.0007352607208304107, -4.978735523764044e-05, 0.0006703042308799922, 0.0003908363578375429, 0.00047501540393568575, 0.0007625124999321997, 0.0012412541545927525, 0.00034616782795637846, 0.0010457891039550304, 0.001381145790219307, 0.0004942674422636628, -0.0002595980477053672, 2.2097128749010153e-05, 0.0006660909275524318, 0.0005319247138686478, -0.0015775030478835106, -0.00044664350571110845, -0.0009499210864305496, 0.00045506839524023235, -0.0008065407164394855, -0.0013765098992735147, -0.0006416020914912224, -0.0005991186480969191, -0.00041138537926599383, -0.0002571529767010361, -0.00010299858695361763, 0.00021126604406163096, -2.5761268261703663e-05, 6.418969860533252e-05, -0.00011133078078273684, 0.0007762500317767262, -0.0007558186771348119, 0.0012840956915169954, 2.3140541088650934e-05, 0.0007461383938789368, -9.615209273761138e-05, -0.0002808028366416693, -0.00034241838147863746, 8.505225559929386e-05, -0.00013009617396164685, 0.00047513199388049543, 0.0007895783055573702, -0.0004609579627867788, -0.00018348464800510556, 0.0006182994111441076, -0.000122731551527977, 0.00010271574865328148, -0.0018708695424720645, 0.00010540615767240524, -0.00018105773779097944, 8.787201659288257e-05, 0.000361246318789199, 0.00012175204028608277, 0.001830626861192286, 0.0005352370208129287, -0.0015661672223359346, 0.0008832130115479231, -0.0008046944858506322, 0.00029395593446679413, 3.5078592190984637e-05, 0.0006436729454435408, 0.0006987176020629704, 0.00045484036672860384, -4.3085987272206694e-05, 0.0006273087346926332, -0.0008051737095229328, 0.0020211057271808386, -0.0002508183824829757, 0.0013189862947911024, -0.0005231912364251912, 0.0008452943293377757, 0.0004968407447449863, -6.190959538798779e-05, -0.00021331850439310074, 6.664035936410073e-06, -0.0010682104621082544, 0.001133426558226347, -0.00010349787771701813, 0.0005815881886519492, -0.00016859659808687866], [-3.102561822743155e-05, -6.107453373260796e-05, 0.00026164238806813955, -6.140774985397002e-06, 2.5148816348519176e-05, -5.227674773777835e-05, -1.7713840861688368e-05, -5.544314262806438e-05, 0.00010975993791362271, 9.59062745096162e-05, -2.4222936190199107e-05, -0.00018343709234613925, 5.3013372962595895e-06, 7.557272851954622e-08, 5.0807357183657587e-05, -7.597448529850226e-06, 1.3394806956057437e-05, -0.0001404103823006153, -2.2951064693188528e-06, -2.5133569579338655e-05, -3.5159977414878085e-05, -5.967729157418944e-05, 3.0058801712584682e-05, 5.4805012041470036e-05, -0.00020274802227504551, -4.516802800935693e-05, 5.256794247543439e-05, -3.215586912119761e-05, 1.3895374650019221e-05, -5.729049803449016e-07, -5.5639913625782356e-05, -3.482781903585419e-05, 6.121785554569215e-05, -3.562779602361843e-05, 2.526483149267733e-05, -8.26543036964722e-05, 1.2983958868062473e-06, -3.539886529324576e-05, 3.4888707887148485e-05, 3.501099854474887e-05, 3.703777565533528e-06, -2.4488750568707474e-05, 3.508379086269997e-05, -6.3953498283808585e-06, 3.0407609301619232e-05, 2.5575489416951314e-05, -2.540343666623812e-05, -5.0050202844431624e-05, 2.071179187623784e-05, -0.00012075231643393636, 2.3101416445570067e-05, 1.8345535863772966e-05, 0.00010586542339297011, 4.543367322185077e-05, 0.00030147950747050345, 4.738597272080369e-05, 3.641843795776367e-05, 9.815566590987146e-05, 9.432638762518764e-05, -3.950127211282961e-05, 3.678784196381457e-05, 8.914554200600833e-05, 2.7125593987875618e-05, 5.725232767872512e-06, -2.2553193048224784e-05, -3.6632001865655184e-05, 0.00017501141701359302, -5.6956010666908696e-05, -0.00021974134142510593, 8.350629286724143e-06, -0.00012329715536907315, -1.977209103642963e-05, -9.221063373843208e-05, -6.1157625168561935e-06, 2.720449811022263e-05, -0.00012835330562666059, 3.532931441441178e-05, -7.988784886947542e-07, 7.39961615181528e-05, -4.2509007471380755e-05, 5.3757357818540186e-05, 0.000262741552432999, 5.0737697165459394e-05, -3.075534323215834e-06, -4.261837966623716e-05, -3.812526847468689e-05, 1.1950667158089345e-06, -3.287387517048046e-05, -9.576754109730246e-07, 1.9621207684394903e-05, -1.931820770550985e-05, -3.8716490962542593e-05, 2.2723244910594076e-05, -6.93583715474233e-05, 4.9336125812260434e-05, -3.871265653287992e-05, 0.00011143446317873895, -2.4768839921307517e-06, 2.8516580641735345e-05, 2.461396979924757e-05, 2.308184230059851e-05, 2.7690488423104398e-05, 3.650903454399668e-05, -3.672760612971615e-06, 0.00011361671931808814, -0.0001766852365108207, 3.747030132217333e-05, 1.6584239347139373e-05, 0.00018444910529069602, 2.259478969790507e-05, 1.4088349189478322e-06, -5.968553523416631e-05, 7.617771188961342e-05, -2.7593926006375114e-06, 3.3485644962638617e-05, -7.523420663346769e-06, 3.296085196780041e-05, -6.593391390197212e-06, 1.4894988453306723e-05, 2.999078424181789e-05, 2.4802941425150493e-06, 5.3849003052164335e-06, 2.0240720914443955e-05, 4.704843831859762e-06, 4.840250767301768e-05, -0.0003082839248236269, 0.00013711198698729277, -1.2084658010280691e-05], [-0.07001069188117981, -0.013738100416958332, 0.054149940609931946, -0.012836625799536705, 0.03537067770957947, -0.06315510720014572, -0.012738318182528019, -0.01142642181366682, 0.07322198897600174, 0.021617356687784195, -0.055753327906131744, -0.059391219168901443, 0.010308310389518738, -0.06235221400856972, 0.017548156902194023, -0.02395753003656864, 0.026754267513751984, -0.06369318068027496, -0.01999063231050968, -0.009713287465274334, -0.012882718816399574, -0.06396786868572235, 0.05974046140909195, 0.012304175645112991, -0.0698024332523346, -0.06416364759206772, 0.00983849074691534, -0.06658162921667099, 0.052548352628946304, -0.06556015461683273, -0.06523934751749039, -0.038578782230615616, 0.01434123981744051, -0.06739550083875656, 0.06375827640295029, -0.017336368560791016, 0.008225586265325546, -0.0647793859243393, 0.03317093849182129, 0.06074334308505058, 0.06155959516763687, -0.009092606604099274, 0.04849952086806297, -0.029448987916111946, 0.028325853869318962, 0.013402009382843971, -0.010378123261034489, -0.04863680899143219, 0.013414072804152966, -0.06708800792694092, 0.026779895648360252, 0.0521671362221241, 0.05464405566453934, 0.043737877160310745, 0.0588638037443161, 0.03165224939584732, 0.043839599937200546, 0.041764020919799805, 0.06270267814397812, -0.013799767941236496, 0.05791990086436272, 0.01533402968198061, 0.05783947557210922, -0.06324231624603271, -0.054740436375141144, -0.02892933040857315, 0.057912278920412064, -0.05409769341349602, -0.06193959340453148, -0.06640028208494186, -0.011812671087682247, -0.01090957410633564, -0.06355447322130203, -0.06168189272284508, 0.053799163550138474, -0.008913939818739891, 0.010032737627625465, -0.024114804342389107, 0.008433720096945763, -0.05401689186692238, 0.05972076579928398, 0.054986100643873215, 0.009941205382347107, -0.05552152544260025, -0.011405167169868946, -0.04864409938454628, 0.06114215776324272, -0.009015310555696487, 0.06594888120889664, 0.011973103508353233, -0.04174639657139778, -0.059960927814245224, 0.057972680777311325, -0.01968989707529545, 0.05766632780432701, -0.02595740184187889, 0.061572156846523285, -0.02020251750946045, 0.06536915153265, 0.06458186358213425, 0.009219467639923096, 0.033865634351968765, 0.024685867130756378, -0.060596223920583725, 0.029812512919306755, -0.011062264442443848, 0.010740836150944233, 0.010870256461203098, 0.06460649520158768, 0.04947495087981224, 0.06672447919845581, -0.06143200770020485, 0.062931127846241, -0.01659032702445984, 0.04213075712323189, -0.010114009492099285, 0.024669736623764038, -0.04417755827307701, 0.061089497059583664, 0.008279514499008656, -0.026188770309090614, -0.011393947526812553, 0.009131168946623802, -0.01821056939661503, 0.013142730109393597, -0.025496670976281166, 0.07770200073719025, -0.057441532611846924], [0.0005731622222810984, 8.6765612650197e-05, -0.0002943066065199673, 0.002168538747355342, -0.001043966505676508, 0.00045276680612005293, 0.00010571334132691845, 0.0006907834322191775, -0.0010532749583944678, -5.5703483667457476e-05, 0.0004553793405648321, 0.001100827706977725, -0.0005968236946500838, 0.0005706792580895126, -0.00034105562372133136, 0.00016520227654837072, -0.0025530103594064713, 0.0016138721257448196, 0.00013811432290822268, 0.0017816616455093026, 0.00023813705774955451, 0.00035492837196215987, -0.0004011665587313473, -0.00012702531239483505, 0.0003806352033279836, 0.0013849231181666255, -0.0010171103058382869, 0.0020975167863070965, -0.0001368153898511082, 0.0004610026953741908, 0.00022089993581175804, 0.0005889019230380654, -0.0014853538013994694, 0.00196336698718369, -0.0010329707292839885, 0.0007197544910013676, -0.0004722191079054028, 0.0013008950045332313, -0.0017931082984432578, -0.0009636762551963329, -0.0009074684930965304, 0.0010079373605549335, -5.168455027160235e-05, 0.00032151269260793924, -0.0009576680604368448, -0.000619522063061595, 0.0009848717600107193, 0.0008230857201851904, -9.535790013615042e-05, 0.0016450061229988933, -0.0011256637517362833, -0.001221596379764378, -0.0008501965785399079, -0.00026248101494275033, -0.00026636020629666746, -0.0018447444308549166, -0.0013396296417340636, -0.0007978429202921689, -0.000621483544819057, 0.00039236561860889196, -0.00038160153781063855, -1.1212414392502978e-05, -0.0013724311720579863, 0.0015680516371503472, 0.0008537020767107606, 0.0003457713173702359, -0.0008636132115498185, 0.001352050225250423, 0.0009235264151357114, 0.001327786478213966, 0.000946176121942699, 0.0008096849778667092, 0.001240078592672944, 3.962184564443305e-05, -0.0010033062426373363, 0.0010612199548631907, -1.838644857343752e-05, 0.0009587364038452506, -0.001047705882228911, 0.00010401596955489367, -0.00015902580344118178, -0.0003669477882795036, -0.001490232185460627, 0.0006614406011067331, 0.0007245731540024281, 0.0009222243679687381, -0.0017873005708679557, 0.0011672170367091894, -0.0009876361582428217, -0.0010558371432125568, 0.000760237337090075, 0.0012222096556797624, -0.0006004683091305196, 0.00037280740798451006, -0.0007811327814124525, 6.210649007698521e-05, -0.0009783933637663722, 0.0007848429377190769, -0.0001596739748492837, -0.002305456204339862, -0.0009070440428331494, -0.0008768964326009154, -0.002644566586241126, 0.00025003778864629567, -0.0009177499450743198, 0.00037949258694425225, -0.0007639244431629777, -0.0019438976887613535, -0.0006864645984023809, -0.0001444478693883866, -0.0014016680652275681, 0.001396091072820127, -0.0005709364195354283, 4.3365474994061515e-05, -0.0017802654765546322, 0.0008964476292021573, -0.0015114378184080124, 0.0001264860766241327, -0.0007736323750577867, -0.0009286521235480905, 0.00039849881432019174, 0.0014187957858666778, -0.0005836380878463387, 0.000792371341958642, -0.001534026931039989, 0.0009319979581050575, -3.36919620167464e-05, 0.0009054432157427073], [-0.03123408928513527, -0.036850348114967346, 0.017407530918717384, -0.034131620079278946, 0.05262240394949913, -0.01227087527513504, -0.048916492611169815, -0.04290999844670296, 0.03840618580579758, 0.03070262260735035, -0.02061266265809536, -0.012094467878341675, 0.08065241575241089, -0.034012194722890854, 0.028796691447496414, -0.03411375358700752, 0.01395424734801054, -0.0336180254817009, -0.0234859399497509, -0.02521471492946148, -0.026483451947569847, -0.014964010566473007, 0.023423736914992332, 0.023237476125359535, -0.012349110096693039, -0.03938065841794014, 0.08309756964445114, -0.02234787493944168, 0.02618478052318096, -0.027889572083950043, -0.030916960909962654, -0.024531690403819084, 0.046276550740003586, -0.014205900952219963, 0.01680333912372589, -0.10977540165185928, 0.019086655229330063, -0.04753916710615158, 0.016034800559282303, 0.02971941977739334, 0.01877913624048233, -0.027037015184760094, 0.041931189596652985, -0.042583663016557693, 0.04407816007733345, 0.05102758854627609, -0.032464880496263504, -0.026735616847872734, 0.009846599772572517, -0.04484078660607338, 0.04788701981306076, 0.033374931663274765, 0.02039974182844162, 0.022479666396975517, 0.01274088118225336, 0.03863539174199104, 0.022830568253993988, 0.02655424363911152, 0.028983695432543755, -0.038462601602077484, 0.033238381147384644, 0.0294378399848938, 0.031524285674095154, -0.03502357378602028, -0.015667783096432686, -0.026407180353999138, 0.030517010018229485, -0.024767570197582245, -0.026683323085308075, -0.013852519914507866, -0.0352412648499012, -0.034788042306900024, -0.03429507836699486, -0.033093541860580444, 0.055637456476688385, -0.02783241681754589, 0.031333260238170624, -0.08917159587144852, 0.011292384937405586, -0.0547129362821579, 0.027177821844816208, 0.011835459619760513, 0.01783851347863674, -0.04661957174539566, -0.033342573791742325, -0.05049995332956314, 0.027400776743888855, -0.02462689019739628, 0.030901774764060974, 0.02925412356853485, -0.0643804594874382, -0.027081435546278954, 0.03723539412021637, -0.03748508170247078, 0.014956854283809662, -0.03252863138914108, 0.05213228240609169, -0.02489405870437622, 0.032351888716220856, 0.029587291181087494, 0.03514702990651131, 0.018227091059088707, 0.023376887664198875, -0.014234386384487152, 0.02701028436422348, -0.024377034977078438, 0.028514286503195763, 0.027860183268785477, 0.03873107209801674, 0.034579597413539886, 0.02642097696661949, -0.029546640813350677, 0.026236074045300484, -0.06588398665189743, 0.019941845908761024, -0.02278696373105049, 0.030005041509866714, -0.04801654443144798, 0.046538449823856354, 0.02099255472421646, -0.03415011242032051, -0.023499585688114166, 0.02801218070089817, -0.05383965000510216, 0.04321640357375145, -0.03147024288773537, 0.039586372673511505, -0.024271151050925255], [-0.0010024862131103873, -0.0014675676357001066, 0.0006055371486581862, -0.0004831736732739955, 0.000582571083214134, -0.0009103122865781188, -0.001674405881203711, -0.00120758346747607, 0.0020703154150396585, 0.0006166496314108372, -0.0003942413895856589, -0.0008576013497076929, 0.0009138283785432577, -0.0011241936590522528, 0.00014991169155109674, -0.0002498905232641846, 0.0016971941804513335, -0.0017383558442816138, -0.00035025260876864195, -0.00014306308003142476, -0.000518828397616744, -0.0007729603676125407, 0.0009052497334778309, 0.00021412358910311013, -0.0007959849899634719, -0.0002217691217083484, 0.0004714769893325865, -0.00029034967883490026, 6.114820280345157e-05, -0.0011411100858822465, -0.0005598890711553395, -0.0013099786592647433, 0.00032062659738585353, -0.00012392729695420712, 0.0003526249201968312, -0.00032794795697554946, 0.0006017228588461876, -0.00039009295869618654, 3.818787445197813e-05, 0.00043708563316613436, 2.6264640837325715e-05, -0.0005143994349054992, 0.0005114793893881142, -0.00013313390081748366, 0.0010552132735028863, 0.00045838853111490607, -0.0016001500189304352, -0.00045603836770169437, 0.0005369556602090597, -0.0008893883205018938, 0.0005465608555823565, 0.0002036366640822962, 0.0003675800689961761, 0.000818876491393894, 0.00047894506133161485, 0.0018240418285131454, 0.0005486904992721975, 0.0006303184782154858, 0.0014073915081098676, -0.0002705252554733306, 0.0011491433251649141, 4.9665624828776345e-05, 0.00015192430873867124, -0.000263109861407429, -0.0005126101896166801, -0.0009437520056962967, 0.00012121418694732711, -0.0004926921683363616, -5.025495192967355e-05, -0.001833977410569787, -0.0009632085566408932, -0.0005424158298410475, -0.00070464878808707, -0.0007291709189303219, 0.00045600527664646506, -0.0022616833448410034, 0.00017180391296278685, -0.0004966856795363128, 0.00025950901908800006, -9.404549200553447e-05, 0.0007735294057056308, 0.000482450908748433, 0.0006586784729734063, -0.0004086185363121331, -4.740496660815552e-05, -0.0004697979602497071, 0.0006819665431976318, -0.0005320804775692523, 0.0002707778476178646, 0.0002574001264292747, -0.00015038369747344404, -0.00032599898986518383, 0.0005370803410187364, -0.00015682294906582683, 0.0012690438888967037, -0.0006907508941367269, 0.0004613516211975366, -0.00017855576879810542, 0.000690770975779742, 0.0015529715456068516, 0.001171893673017621, 0.00016195415810216218, 0.0004019311454612762, -0.0006250269943848252, 0.00092341034905985, -0.0004251388891134411, 0.0016002627089619637, 0.0003131153353024274, 0.0006456742994487286, 0.00014090436161495745, 0.0009440725552849472, -0.00046025021583773196, 0.0005179272848181427, -0.0008568230550736189, 0.0001589273160789162, -0.0005956666427664459, 0.000356093019945547, -5.210560993873514e-05, 0.0010889992117881775, 6.727667641825974e-05, -0.0008665467612445354, -0.0003201618092134595, 0.0007623431738466024, -0.0008686356013640761, 0.0013342619640752673, -0.0007170041790232062, 0.0009072641259990633, -0.0004157818329986185], [-0.00776124419644475, -0.007263881620019674, 0.0064268168061971664, -0.0056869094260036945, 0.004627704620361328, -0.007948962040245533, -0.006130557507276535, -0.004700430668890476, 0.009379914030432701, 0.013363809324800968, -0.0016656169900670648, -0.008453307673335075, 0.0006787024321965873, -0.006077099125832319, 0.002880701096728444, -0.00668667396530509, 0.00635499507188797, -0.006472911220043898, -0.0025480117183178663, -0.009752877987921238, -0.008608696050941944, -0.005869965068995953, 0.008002190850675106, 0.009398062713444233, -0.008648646995425224, -0.00593641959130764, 0.000731613312382251, -0.008391888812184334, 0.001625061733648181, -0.010137354955077171, -0.005131708923727274, -0.008344022557139397, 0.005477569065988064, -0.005410846788436174, 0.006274261046200991, -0.0007969351718202233, 0.0033382619731128216, -0.004456890281289816, 0.0061952113173902035, 0.005237245932221413, 0.007258202414959669, -0.010345736518502235, 0.003120872424915433, -0.002738766372203827, 0.005378499627113342, 0.0018349566962569952, -0.004991214256733656, -0.008605127222836018, 0.009289455600082874, -0.0027215094305574894, 0.004072476644068956, 0.004725807346403599, 0.009988284669816494, 0.0005578981363214552, 0.006989073008298874, 0.0079642403870821, 0.005963328294456005, 0.004015569109469652, 0.004813118372112513, -0.003068945836275816, 0.006631912663578987, 0.005369774531573057, 0.00744177121669054, -0.009341303259134293, -0.0028874005656689405, -0.0048958919942379, 0.01027348730713129, -0.006835378240793943, -0.009540200233459473, -0.0064659686759114265, -0.008857590146362782, -0.005134491249918938, -0.005889302119612694, -0.0029313061386346817, 0.0019405704224482179, -0.008652567863464355, 0.009872245602309704, -0.0005702339112758636, 0.005920013412833214, -0.003590355394408107, 0.008854354731738567, 0.0044419411569833755, 0.007387553807348013, -0.0025071061681956053, -0.000570754345972091, -0.001453905482776463, 0.004943814594298601, -0.01105388905853033, 0.007488088682293892, 0.009795945137739182, -0.00036869285395368934, -0.007489712443202734, 0.003143278881907463, -0.004488998558372259, 0.008467827923595905, -0.01134185865521431, 0.006394634488970041, -0.0011122279101982713, 0.006712791509926319, 0.01048942282795906, 0.0056807780638337135, 0.006745667662471533, 0.006377236917614937, -0.004632800351828337, 0.01038859412074089, -0.010174580849707127, 0.0076750400476157665, 0.007926197722554207, 0.0021720118820667267, 0.0024988665245473385, 0.007705669850111008, -0.007871155627071857, 0.009425962343811989, -0.0009394459775649011, 0.011740806512534618, -0.010328376665711403, 0.008228311315178871, -0.006684098858386278, 0.0025273787323385477, 0.007130302954465151, -0.008675608783960342, -0.007954942993819714, 0.01081877015531063, -0.006495707202702761, 0.0052763852290809155, -0.008919022977352142, 0.007554509211331606, -0.001909725833684206], [-0.000483353273011744, -0.00041378478636033833, 0.0017649445217102766, -0.00030534144025295973, 0.0007821540348231792, -0.00034444525954313576, -0.0005668933154083788, -4.349321898189373e-05, 0.0013338413555175066, 0.0003677073400467634, -0.0003873594687320292, -9.084699559025466e-05, 0.00022734497906640172, -0.0008616356644779444, 9.87489111139439e-05, -0.0001784329942893237, 0.00013964917161501944, -0.0002578269049990922, -0.00018221285426989198, -1.4187556871547713e-06, -0.0002466999285388738, -3.363722862559371e-05, 0.0001741874439176172, 0.0001263558806385845, -0.0009286489803344011, -0.00025047181406989694, 0.0002240841422462836, -0.0004903028020635247, 0.00021661407663486898, -0.00022684117720928043, -0.0009295189520344138, -0.0010975567856803536, 0.0004888197872787714, -0.0014035720378160477, 0.0007107710116542876, -0.00024932020460255444, 0.0006558570312336087, -0.0001885364472400397, 0.0007305028266273439, 0.0002490905753802508, 0.00043695347267203033, -0.00035162069252692163, 2.3983682694961317e-05, -0.0007121378439478576, 0.0004847550590056926, 0.0004944654647260904, -0.0003311349719297141, -1.6198860976146534e-05, 0.0003552851267158985, -0.00044322386384010315, 0.00015157501911744475, 0.0013038089964538813, 0.0006945717614144087, 0.0005623777979053557, 0.00018823592108674347, 0.00026993436040356755, 0.0006149525288492441, 0.0006212411681190133, 0.0005558964912779629, -0.00090194953372702, 3.8100672099972144e-05, 0.0003473895776551217, 0.0007112707826308906, -0.0003070634265895933, -0.000995827023871243, -0.0015469210920855403, 0.0003020571020897478, -0.001110701123252511, -0.0008096506353467703, -0.0006599875632673502, -0.00044723678729496896, -1.7368574845022522e-05, -0.0007228972972370684, -0.00011996510875178501, 0.0006600701017305255, -0.0004577675135806203, 0.0002835623745340854, -0.0001753131946315989, 0.0003372728533577174, -0.00018874945817515254, 0.0003955421852879226, 0.0008696405566297472, 0.0007399414316751063, -0.0003222828090656549, -0.0003674681356642395, -0.0001944141258718446, 0.00036329825525172055, -0.00011974832159467041, 0.00025087452377192676, 9.51222245930694e-05, -0.0004220283590257168, -0.0005391776212491095, 2.098261938954238e-05, -9.786530426936224e-05, 9.158732609648723e-06, -5.5352131312247366e-05, 0.0002865981950890273, -7.721761357970536e-05, 0.000681376492138952, 0.0008702021441422403, 0.001836049952544272, 0.0008128263871185482, 0.0003489167138468474, -0.000273795158136636, 4.148629159317352e-06, -0.0007935481844469905, 0.00014046930300537497, 0.0007553097093477845, 0.0005112074431963265, 0.000353095616446808, 0.0009790851036086679, -5.768221672042273e-05, 3.5145378205925226e-05, -2.1457288312376477e-05, 6.566117372130975e-05, -0.0008154495735652745, 0.0006642990629188716, -0.00032752170227468014, 0.0006667017005383968, 0.0010974676115438342, -0.00023923222033772618, -0.00025174597976729274, 0.00040343834552913904, -0.000286989554297179, 0.0011806786060333252, -0.000602354237344116, 0.00032650772482156754, -0.00021812292106915265], [0.0008674648124724627, 0.00041979277739301324, -0.0001751883391989395, 0.00037167491973377764, -7.925667887320742e-05, 0.0003466060443315655, 0.0003975885338149965, 0.0007858684984967113, -0.0005441304529085755, -0.0008548623882234097, 5.414962288341485e-05, 0.0007690108031965792, -0.0005892643821425736, 0.00022537779295817018, -0.000799302477389574, 0.00031695887446403503, -8.190998414647765e-06, 0.0009310255409218371, 0.0003708389704115689, 1.11763620225247e-05, 0.0005080693517811596, 9.873703675111756e-05, -0.0007550004520453513, -0.000503448536619544, 0.0005126487230882049, 0.0008017365471459925, -0.0006120422622188926, 0.0002077972749248147, -0.0004657207173295319, 0.00010539090726524591, 0.0004107263230253011, 0.0007634771754965186, -9.751384823175613e-06, 0.00021362229017540812, -0.00035892167943529785, 6.982422200962901e-05, -0.0009357668459415436, 0.00022857032308820635, -0.0009729635203257203, -0.0003674345789477229, -0.00016878887254279107, 0.0008926029549911618, -0.00040974660078063607, 0.0003625766548793763, -3.7410496588563547e-05, -0.0005101626156829298, 1.5562311091343872e-05, 0.001490196562372148, -0.0008944497094489634, 0.0007435476290993392, -0.000465458637336269, -0.0008008084842003882, -0.0003067310608457774, -0.00030808529118075967, -0.00021283829119056463, -0.0004923134692944586, -2.890714313252829e-05, -0.0007383651682175696, -0.0010171514004468918, 8.041209366638213e-05, -0.0007368202204816043, -0.0001336967688985169, -3.258417564211413e-05, 8.35440823721001e-06, 0.0003462083113845438, 3.4306074667256325e-05, -0.00046865575131960213, 0.0009340820251964033, 0.0007138312794268131, 0.0009323323611170053, 0.0004992353497073054, 0.00017062392726074904, 0.00033862891723401845, 0.0008036705548875034, -2.8984964956180193e-05, 0.0003949505335185677, -0.00011570266360649839, 0.0001983990368898958, -0.00019907543901354074, 0.0003231476293876767, -0.0003494683187454939, -0.000637770164757967, -0.0004695676907431334, 0.0003260385128669441, 0.0005234213313087821, 9.53522976487875e-05, -0.0006401129649020731, 0.0004489898565225303, -0.0001830177498050034, -0.0006947295623831451, 0.000811878708191216, 0.0006138949538581073, -2.641673927428201e-05, 0.0005391151644289494, -0.00012028044875478372, 0.0002655087737366557, -0.0012206013780087233, 4.0773920773062855e-05, -0.00013986218255013227, -0.0012479445431381464, -0.0001560909004183486, -0.0008598879794590175, -0.000434260320616886, 0.0003204878303222358, -0.0001637022360228002, 0.00025954903685487807, -0.00013209335156716406, -0.00032068241853266954, -0.0004532126185949892, -0.00017263203335460275, -0.000184263291885145, 6.0057569498894736e-05, -0.0008526925230398774, 1.4663991350971628e-05, -0.00012320096720941365, 0.000551220029592514, -0.0003596903115976602, 0.000178743721335195, -0.00016704516019672155, -0.0007657906971871853, 7.052320142975077e-05, 0.00026732488186098635, -0.0008272459381259978, 8.943631110014394e-05, -0.00010827060032170266, 0.00020625817705877125, -0.00047446120879612863, 0.00033969548530876637], [3.446742266532965e-05, 3.0120989322313108e-05, -6.248591489566024e-06, 1.7013968317769468e-05, -1.20785580293159e-05, 3.410325007280335e-05, 7.278464181581512e-05, 3.26217086694669e-05, -8.036130020627752e-05, -0.00013687903992831707, 1.0161102892425333e-07, 2.699260767258238e-05, 6.605854650842957e-06, -9.66079460340552e-06, -5.490628973348066e-05, -7.750943495921092e-07, -8.015281491680071e-05, -8.49529726565379e-07, -5.478280513671052e-07, 2.478685200912878e-05, -3.421578639972722e-06, 9.955431596608832e-05, -7.389226811937988e-05, 4.517032721196301e-06, 6.723066326230764e-05, -5.347319529391825e-06, -1.421642900822917e-05, 2.777082954708021e-05, 6.10918914389913e-06, 5.616672206087969e-05, 1.4473464489128673e-06, -4.571691988530802e-06, -2.7134867195854895e-05, 3.206069231964648e-05, -1.6198149751289748e-05, 1.6569343870287412e-06, 3.0442513434536522e-06, 2.7023002985515632e-05, 7.290123562597728e-07, -5.17479838890722e-06, -8.739313670957927e-06, 6.857140397187322e-05, -7.106202247086912e-05, 1.4211287862053723e-06, 3.948106041207211e-06, -6.108095476520248e-06, 3.355373701197095e-05, 2.0390678400872275e-05, -1.541526870596499e-07, -3.092846441177244e-07, -8.035140126594342e-06, -7.605847258673748e-07, -5.347394471755251e-05, -2.8436970751499757e-06, 1.488790712755872e-05, -3.845977335004136e-05, -1.9839721062453464e-05, -4.4114050979260355e-05, -2.106645843014121e-05, 1.3328895875019953e-05, -1.859493386291433e-05, 1.206916022056248e-05, 3.6075480238650925e-06, 4.90820239065215e-05, -5.9292829064361285e-06, 0.00015543100016657263, -1.2055854313075542e-05, 8.63666573422961e-05, -5.89146611673641e-06, 2.8365575417410582e-05, -3.939272119168891e-06, 2.1427113097161055e-05, 1.0223827302979771e-05, -3.882789485487592e-07, -3.140846274618525e-06, 0.00011133557563880458, -0.00014824151003267616, 4.348849324742332e-05, -5.6309309002244845e-05, 2.142748598998878e-05, -6.718732765875757e-05, -5.051292828284204e-05, 4.7751786951266695e-06, 3.48949043882385e-07, 1.0956793630612083e-05, -3.6738447306561284e-06, 3.2129630653798813e-06, 2.027973641816061e-05, -0.0001577392831677571, -7.064395322231576e-05, 4.5616588977281936e-06, 4.416581941768527e-05, -3.752112888832926e-06, 2.0938063244102523e-05, -2.1641208149958402e-05, 0.00013723410665988922, -6.198863411555067e-05, -1.7240828356079874e-06, -4.845055445912294e-05, -6.165634113131091e-05, -1.9339577193022706e-05, 2.6547979814495193e-06, -3.759573883144185e-05, 1.0071201359096449e-05, 3.4055688047374133e-06, 1.7201273294631392e-05, 4.106969299755292e-06, -6.467417551903054e-05, 2.7002361093764193e-06, -6.768303592252778e-06, 1.1554760021681432e-05, 5.109985431772657e-05, 7.3730002441152465e-06, 2.4396065782639198e-05, -0.00011610570800257847, 1.4383913367055357e-05, 4.3218446990067605e-06, -7.534136784670409e-06, 2.8992508305236697e-06, -8.490265827276744e-06, 1.5959138863763656e-06, -1.0065123490221595e-07, -0.00013066116662230343, 7.732489757472649e-05, -4.585303395288065e-05, -9.958224836736917e-06, -1.5326835637097247e-05, 1.1066389561165124e-05], [-0.011979684233665466, -0.039271771907806396, 0.009718826971948147, -0.010575882159173489, 0.05635018274188042, -0.03139592707157135, -0.013900397345423698, -0.05631290376186371, 0.08012977987527847, 0.008771016262471676, -0.03944462537765503, -0.04968428611755371, 0.00019713162328116596, -0.06406575441360474, 0.052395131438970566, -0.04774077236652374, 0.012211966328322887, -0.060377512127161026, -0.043417830020189285, -0.058248765766620636, -0.00898963212966919, -0.06574176251888275, 0.06728632748126984, 0.06754227727651596, -0.027035390958189964, -0.018641768023371696, 0.0010145569685846567, -0.07272427529096603, 0.03963526710867882, -0.03242504969239235, -0.06825575232505798, -0.009928771294653416, 0.06020685285329819, -0.039166245609521866, 0.06517500430345535, -0.0034123810473829508, 0.046298328787088394, -0.007989422418177128, 0.07150629162788391, 0.04637518152594566, 0.06449490040540695, -0.06469202786684036, 0.040612515062093735, -0.05607189983129501, 0.0543995201587677, 0.023999618366360664, -0.025243565440177917, -0.06833834201097488, 0.022477397695183754, -0.008134092204272747, 0.015136193484067917, 0.04440895840525627, 0.06313277035951614, 0.03320061415433884, 0.011232472956180573, 0.03756105899810791, 0.043121758848428726, 0.036427807062864304, 0.0672483965754509, -0.012294614687561989, 0.06370987743139267, 0.06842052936553955, 0.06045384332537651, -0.06921512633562088, -0.010604136623442173, -0.06092424690723419, 0.014894253574311733, -0.007181141059845686, -0.06352905929088593, -0.04614445939660072, -0.014510313980281353, -0.012747956439852715, -0.014932449907064438, -0.012495920062065125, 0.04452043026685715, -0.06165507435798645, 0.06967175751924515, -0.0007920958450995386, 0.059793468564748764, -0.006133063230663538, 0.014529638923704624, 0.0628572478890419, 0.0502944141626358, -0.05150250717997551, -0.033387213945388794, -0.035775478929281235, 0.058381110429763794, -0.07227283716201782, 0.06413908302783966, 0.06283402442932129, -0.023591287434101105, -0.06360772997140884, 0.04915012791752815, -0.04870801791548729, 0.0656304657459259, -0.06442316621541977, 0.04014065861701965, -0.020398743450641632, 0.0484815314412117, 0.00842748861759901, 0.06432560831308365, 0.025677848607301712, 0.008480621501803398, -0.0637601688504219, 0.024847431108355522, -0.068776935338974, 0.060476984828710556, 0.01926243118941784, 0.06602025777101517, 0.03782343864440918, 0.0672977939248085, -0.05874288082122803, 0.011329849250614643, -0.035403311252593994, 0.05690377950668335, -0.05890188366174698, 0.06548098474740982, -0.008532175794243813, 0.05600546672940254, 0.05833299085497856, -0.06420333683490753, -0.015334042720496655, 0.06809258460998535, -0.06020832434296608, 0.016467992216348648, -0.021843746304512024, 0.08405481278896332, -0.0238005593419075], [-3.365381417097524e-05, -0.00012722020619548857, 0.0001212485003634356, -0.0004490487335715443, 2.38024349528132e-05, -8.39141575852409e-05, -7.0882924774196e-05, -0.00023657798010390252, 0.0002536374959163368, 0.0005183677421882749, -0.00026620030985213816, -9.961338219000027e-05, 0.0003660109650809318, -0.0007488852133974433, 0.0005404261173680425, -0.000266358838416636, 9.84491725830594e-06, -0.0004086847184225917, -2.0088582459720783e-05, -1.5600346159772016e-05, -0.0010038429172709584, -1.1705162251018919e-05, 3.733921403181739e-05, 0.00019627207075245678, -0.0007309825159609318, -0.0005867445725016296, 0.00037961051566526294, -0.00019582609820645303, 8.693159179529175e-05, -9.435638639843091e-05, -0.0005352388834580779, -0.00023233378306031227, 0.00011482216359581798, -0.00015077338321134448, -5.156409343953783e-08, -0.0007296598632819951, 0.0013613863848149776, -0.00013625119754578918, 0.0005911566549912095, 0.0006758181261830032, 0.00028446008218452334, -0.00014293751155491918, 0.00022650872415397316, -7.553203613497317e-05, 7.905614620540291e-05, 0.00045575457625091076, -0.0006382468272931874, -3.6250100947654573e-06, 0.0004693224036600441, -0.00010142874089069664, 5.576113107963465e-05, 0.0004409161047078669, 1.23652680485975e-05, 5.494915239978582e-05, 0.00014422356616705656, 0.0005098437541164458, 0.0007684988086111844, 2.6616959075909108e-05, 0.0002506592427380383, 1.9278145657608547e-07, 0.000462708791019395, 3.052671308978461e-05, 0.00012771398178301752, -0.0002665608481038362, -0.0005419928929768503, -0.0005417319480329752, 4.913739758194424e-05, -6.408955960068852e-05, -0.00012209646229166538, -0.0003706565476022661, -0.00020277625299058855, -5.812681411043741e-05, -2.0579385818564333e-05, -0.00011632917448878288, 0.00018790384638123214, -0.0006277222419157624, 0.0004688965273089707, -0.0003518194716889411, 9.25401400309056e-05, -0.0006753632333129644, 7.555282354587689e-05, 0.00022469140822067857, 0.0006790752522647381, -7.503693632315844e-05, -0.00015411412459798157, -0.00012410758063197136, 0.00016714350203983486, -0.0010916906176134944, 0.0003000981523655355, 0.00015645494568161666, -1.4163443665893283e-05, -4.905834430246614e-05, 0.0004908454138785601, -0.0006398048135451972, 0.0004629239556379616, -0.00031652385951019824, 2.4631066480651498e-05, -0.00018874859961215407, 0.00022045504010748118, 0.0005008761072531343, 8.577349944971502e-05, 1.1749330042221118e-05, 0.00031643762486055493, -9.21925384318456e-05, 6.451200169976801e-05, -0.0008419777150265872, 0.0007698773988522589, 0.00044193543726578355, 0.0003531064430717379, 0.0011119128903374076, 0.000395465933252126, -0.0004899475607089698, 0.00022447276569437236, -0.00012809952022507787, 0.0006316907820291817, -0.0008984354790300131, 5.0126807764172554e-05, -0.0004333592369221151, 0.0004162862605880946, 0.0003092540428042412, -0.00048748485278338194, -0.0003371478524059057, 4.037448525195941e-05, -5.5499989684903994e-05, 0.00022292486391961575, -0.00022054463624954224, 9.336511720903218e-05, -0.0005863331607542932], [2.78132993116742e-05, 5.01525050822238e-07, -6.107136869104579e-05, 1.4720090803166386e-05, -2.6824329324881546e-05, 0.00015694016474299133, -1.0925406058959197e-05, 0.00018214821466244757, -2.123649392160587e-05, 1.3088160812912975e-05, 5.3272720833774656e-05, 1.9754770619329065e-05, 3.3017679470503936e-06, 0.00010736711556091905, 2.4130545170919504e-06, -2.986316758324392e-07, -1.4473254850599915e-05, 6.099703750805929e-05, -2.973151822516229e-06, 3.194315650034696e-05, 0.00012599695764947683, 6.161438795970753e-05, -7.519852260884363e-07, -7.333709618251305e-06, 7.070143328746781e-05, 1.2173883987998124e-05, -1.9000535758095793e-05, 6.519284397654701e-06, -1.7815749743022025e-05, 1.711716686259024e-05, -2.1034666133346036e-06, 5.406258424045518e-05, -0.00015145636280067265, 0.0001071864680852741, -1.595023240952287e-05, 3.7886595691816183e-06, -4.8688983952160925e-05, 8.001436071936041e-05, -0.00037045826320536435, -3.347708843648434e-05, -3.642089495770051e-06, 4.343653563410044e-05, -7.155092873745161e-08, 9.677467460278422e-06, -9.699509246274829e-05, -2.6194911697530188e-05, 4.778660513693467e-05, 3.7785081076435745e-05, -9.872373630059883e-05, 5.1849336159648374e-05, -3.274395930930041e-05, -3.522326369420625e-05, -5.046866135671735e-05, -5.509286347660236e-05, -0.00013947865227237344, -4.4677180994767696e-05, -7.422226190101355e-05, -2.0546679024846526e-06, -7.665326847927645e-05, 1.9634996988315834e-06, 3.955816737288842e-06, -4.572374018607661e-05, -7.324595935642719e-05, 3.0363366022356786e-05, -9.443028829991817e-06, 8.394516044063494e-05, 1.1455374988145195e-05, 6.661292718490586e-05, -2.0365064301586244e-06, 7.029112748568878e-05, 5.381360460887663e-05, -2.733420103595563e-07, 8.252909174188972e-05, 1.058660291164415e-05, -1.56797486852156e-05, 0.0003860214783344418, -0.00016136624617502093, 3.2007294066715986e-05, -3.3221855119336396e-05, 6.307126022875309e-05, -0.0001229295157827437, -6.442251469707116e-05, -3.440341242821887e-05, 4.3718016968341544e-05, 6.73807953717187e-05, 5.9661673731170595e-05, -0.00019758188864216208, 0.00029972309130243957, -1.0563983778411057e-05, -4.261576395947486e-05, 3.2688883948139846e-05, 1.3077511539449915e-05, -2.3885007976787165e-05, -2.681561284134659e-07, -2.8275977456360124e-05, 3.613772787502967e-05, -3.0297667763079517e-05, 6.003602175042033e-05, -0.00010723213927121833, -0.0001337432477157563, -0.00011605398321989924, -2.272918754897546e-05, 8.326655006385408e-06, 0.00016329335630871356, -9.862243314273655e-05, 0.00017369110719300807, -3.6144760088063776e-05, -2.244603274448309e-05, -0.0001312126114498824, -3.571880006347783e-05, -1.2075047379767057e-05, 1.1795579666795675e-05, -4.62777134089265e-05, 3.0413142667384818e-05, -0.0001072275044862181, 6.605160888284445e-05, -3.465838744887151e-05, 0.00012054402759531513, -5.1147515478078276e-05, -4.807365621672943e-05, 2.9694287150050513e-05, 2.698879507079255e-05, 3.9400032392222784e-07, 5.028310260968283e-05, -4.590340540744364e-05, 0.00014518563693854958, -6.1325408751145e-05, 2.0265584680601023e-05], [-0.02331998199224472, -0.020775320008397102, 0.021549655124545097, -0.018981143832206726, 0.03698679059743881, -0.023980777710676193, -0.02493547834455967, -0.039199113845825195, 0.042542051523923874, 0.013703134842216969, -0.04691924527287483, -0.028387218713760376, 0.04773610457777977, -0.024848083034157753, 0.029272504150867462, -0.03711548075079918, 0.012139459140598774, -0.029327981173992157, -0.021216915920376778, -0.026066962629556656, -0.02872304618358612, -0.01303942408412695, 0.018387330695986748, 0.011960277333855629, -0.011319613084197044, -0.018938127905130386, 0.08614524453878403, -0.015285617671906948, 0.03315205127000809, -0.013675341382622719, -0.029080986976623535, -0.012646270915865898, 0.04792601987719536, -0.03674846887588501, 0.015637250617146492, -0.08838560432195663, 0.03339152783155441, -0.03460643067955971, 0.023373156785964966, 0.011867029592394829, 0.031240787357091904, -0.021863752976059914, 0.035801805555820465, -0.03777945786714554, 0.051238175481557846, 0.018844792619347572, -0.02465430460870266, -0.030010903254151344, 0.014882286079227924, -0.03437219187617302, 0.01178894005715847, 0.029421599581837654, 0.012199473567306995, 0.021139906719326973, 0.011536947451531887, 0.02672964707016945, 0.012389100156724453, 0.01655832678079605, 0.02146584540605545, -0.03380502760410309, 0.03243628516793251, 0.010813883505761623, 0.02147676795721054, -0.010990936309099197, -0.018787330016493797, -0.015048332512378693, 0.011364487931132317, -0.032685406506061554, -0.024196263402700424, -0.023280341178178787, -0.03041538968682289, -0.03636486828327179, -0.03970770165324211, -0.03363706171512604, 0.042287636548280716, -0.019802678376436234, 0.026064911857247353, -0.0237002931535244, 0.01009398140013218, -0.042645905166864395, 0.011959965340793133, 0.025383254513144493, 0.016676757484674454, -0.03961022570729256, -0.040780700743198395, -0.03309987485408783, 0.03521272912621498, -0.016289688646793365, 0.027180776000022888, 0.017368676140904427, -0.023465484380722046, -0.020791595801711082, 0.04037395492196083, -0.03471378609538078, 0.02091934159398079, -0.01197403110563755, 0.012106047011911869, -0.043040692806243896, 0.013489161618053913, 0.012614738196134567, 0.023018348962068558, 0.03846798464655876, 0.011309299618005753, -0.020477132871747017, 0.012870196253061295, -0.011400178074836731, 0.022814802825450897, 0.029883209615945816, 0.03272911533713341, 0.03697903826832771, 0.02784878760576248, -0.013874972239136696, 0.01663144677877426, -0.028425682336091995, 0.009193284437060356, -0.010625572875142097, 0.012733603827655315, -0.028254259377717972, 0.0330999381840229, 0.009927562437951565, -0.011221418157219887, -0.01733425259590149, 0.01804209128022194, -0.02832641266286373, 0.026361698284745216, -0.0110023757442832, 0.028827005997300148, -0.044109612703323364], [-0.07350022345781326, -0.022457072511315346, 0.059888314455747604, -0.06616764515638351, 0.01770966313779354, -0.06154222413897514, -0.07004693150520325, -0.020969878882169724, 0.03027799166738987, 0.015617676079273224, -0.05416056886315346, -0.06465093046426773, 0.0077640097588300705, -0.06730999797582626, 0.05629328265786171, -0.031227922067046165, 0.07013878971338272, -0.06837376952171326, -0.05944858491420746, -0.07383172959089279, -0.0698682963848114, -0.07279696315526962, 0.0367107018828392, 0.06767096370458603, -0.07433610409498215, -0.07204297184944153, 0.004022631328552961, -0.0718424841761589, 0.05545654147863388, -0.07716090977191925, -0.07486739009618759, -0.06891725957393646, 0.05094805359840393, -0.07267681509256363, 0.06992587447166443, -0.007025524508208036, 0.00941650290042162, -0.06754473596811295, 0.032990578562021255, 0.07185917347669601, 0.06985469162464142, -0.06946896016597748, 0.055213432759046555, -0.06823902577161789, 0.07407761365175247, 0.06375650316476822, -0.04361863434314728, -0.07108645886182785, 0.06262405961751938, -0.07194419205188751, 0.06483757495880127, 0.06392163038253784, 0.06591325998306274, 0.042469512671232224, 0.06297855824232101, 0.04693111032247543, 0.0073442296124994755, 0.04806162789463997, 0.07007768005132675, -0.06478718668222427, 0.06927994638681412, 0.06362003087997437, 0.06620366126298904, -0.06418181210756302, -0.025610649958252907, -0.0663105696439743, 0.013389087282121181, -0.07873626053333282, -0.02724376879632473, -0.07330884784460068, -0.052122194319963455, -0.06518634408712387, -0.0671670213341713, -0.06602408736944199, 0.05763556808233261, -0.06590046733617783, 0.07251184433698654, -0.006113848183304071, 0.06257503479719162, -0.055367860943078995, 0.06467560678720474, 0.06367260217666626, 0.06433182954788208, -0.06168965995311737, -0.009132838808000088, -0.04991142451763153, 0.06725562363862991, -0.07209764420986176, 0.07665453106164932, 0.061246659606695175, -0.013146141543984413, -0.06389061361551285, 0.05743100494146347, -0.05860832333564758, 0.07036145776510239, -0.0599820651113987, 0.07121565192937851, -0.009390532970428467, 0.06565050780773163, 0.030353978276252747, 0.07033324986696243, 0.08480317145586014, 0.017304766923189163, -0.06888953596353531, 0.06828755140304565, -0.0256153903901577, 0.06377953290939331, 0.07998759299516678, 0.06636160612106323, 0.05163811519742012, 0.07248055189847946, -0.06437314301729202, 0.07011206448078156, -0.047589194029569626, 0.05406157672405243, -0.056049272418022156, 0.07354764640331268, -0.054606594145298004, 0.0685492679476738, 0.06968843191862106, -0.06519772857427597, -0.05759182944893837, 0.07392744719982147, -0.07100856304168701, 0.021208886057138443, -0.07413768768310547, 0.08184108138084412, -0.057351451367139816], [-1.4628356439061463e-05, -0.00032095241476781666, 0.0009582519996911287, -0.0012745971325784922, 3.973078491981141e-05, -0.0008583461167290807, -0.00011132274812553078, -0.0004926390829496086, 5.537821562029421e-05, 0.0006103689083829522, -0.0003417324332986027, -0.0003053762193303555, 2.947439679701347e-05, -9.402592695550993e-05, 0.00047958706272765994, -0.00039387564174830914, 7.398557499982417e-05, -0.0002454188361298293, -0.0005939746624790132, -0.0003043804026674479, -0.00012545207573566586, -5.858231452293694e-05, 0.00031822395976632833, 4.7595483920304105e-05, -0.0005060695693828166, -0.0006634356686845422, 0.00018194834410678595, -5.053285713074729e-05, 0.0006549485260620713, -5.9123834944330156e-05, -0.00011152859224239364, -2.5715771698742174e-05, 0.00031543473596684635, -5.2779265388380736e-05, 0.00011169290519319475, -0.00032404091325588524, 0.0001528975262772292, -0.00045460835099220276, 0.00021617760648950934, 0.00010753951937658712, 0.0007346593774855137, -0.001087062293663621, 0.0004090050933882594, -0.00038382355705834925, 4.319189611123875e-05, 0.0005432352190837264, -0.00011517419625306502, -1.6138532373588532e-05, 0.0011884178966283798, -0.0002470634353812784, 0.0007571809110231698, 0.0006673060124740005, 0.00023566652089357376, 0.0007941098883748055, 0.00019125330436509103, 0.0004309973446652293, 2.9912042009527795e-05, 0.0008785240934230387, 0.000300717685604468, -0.00021496028057299554, 0.0004053628072142601, 0.0007391577819362283, 7.212143100332469e-05, -9.971623512683436e-05, -0.0006481018499471247, -0.00014626096526626498, 0.00045250903349369764, -0.0009195097372867167, -0.0013389191590249538, -0.0007674075313843787, -0.00041684514144435525, -0.0007036208990029991, -0.0005016234936192632, -0.00020362234499771148, 0.0003093931882176548, -0.00022443699708674103, 0.00025402396568097174, -0.0004843409114982933, 0.00013933824084233493, -0.00048245975631289184, 1.1533589713508263e-05, 0.0003244643739890307, 0.0006474186084233224, -0.00016759327263571322, -0.00020611585932783782, -0.0002729698026087135, 0.00037919689202681184, -0.00038696100818924606, 0.0001724873873172328, 0.00029964515124447644, -0.0006530738901346922, -1.5851037460379303e-05, 0.001054445281624794, -0.0002616786805447191, 0.00017169912462122738, -0.00038847909308969975, 0.00011940318654524162, -0.00019870459800586104, 2.0946425138390623e-05, 0.00018440156418364495, 0.0001342665054835379, 0.00036221000482328236, 0.00032435343018732965, -0.000344460568157956, 0.000798274006228894, -0.0001703824964351952, 0.000742896634619683, 0.0001961110974662006, 0.0003623025259003043, 4.643439388019033e-05, 0.0008981972932815552, -0.0002743078803177923, 0.00041425786912441254, -1.349126819150115e-06, 0.00047434240696020424, -0.0012300318339839578, 0.00025666411966085434, -8.010641613509506e-05, 0.0006504763150587678, 0.0005027366569265723, -0.0002981384750455618, -0.0003420858702156693, 4.6892531827325e-05, -6.625941023230553e-05, 0.00023310423421207815, -0.00038600648986175656, 8.767054532654583e-05, -0.0008654051343910396], [-2.2881255063111894e-05, -1.997904291783925e-06, 5.1916595111833885e-05, -0.00012309642625041306, -4.469011400942691e-06, -3.496324643492699e-05, 5.464200967253419e-06, -5.273368151392788e-05, 1.6224075807258487e-05, 4.243791045155376e-05, -1.921568218676839e-05, -8.704856736585498e-05, 6.66975392960012e-05, -8.602045454608742e-06, 2.6705909476731904e-05, -3.9594597183167934e-05, 2.2200061721378006e-05, -2.9109074603184126e-05, -2.8080419724574313e-05, -6.6450382291805e-05, -3.875923721352592e-05, -2.2031625121599063e-05, 3.945101343560964e-05, -7.01690487403539e-06, -5.501346095115878e-05, -1.5029322639747988e-05, 2.4470657081110403e-05, -7.565294708911097e-06, 4.378537414595485e-05, -1.397683172399411e-05, -5.2061786846024916e-05, -1.5346375221270137e-05, -2.3736815819574986e-06, -6.609679257962853e-05, 5.128031989443116e-05, -4.043212902615778e-05, 2.2106969481683336e-05, -3.1941210181685165e-05, 4.7233374061761424e-05, 1.308687569689937e-05, 6.554283754667267e-05, -0.00012361731205601245, 2.5325959995825542e-06, -1.465020341129275e-05, 5.55278984393226e-06, 1.204711679747561e-05, -5.0307349738432094e-05, -4.319779691286385e-05, 3.178988117724657e-05, -4.128547880100086e-05, 1.480703940615058e-05, 1.9141301891067997e-05, 0.00013015579315833747, 4.584630005410872e-06, 0.00012901272566523403, 5.753247387474403e-05, 6.272691825870425e-05, 1.2060824701620732e-05, -6.645983830821933e-06, -2.1969781300867908e-05, 8.615107799414545e-05, 0.00012549848179332912, 8.228480510297231e-06, 1.050939772540005e-06, -3.274562914157286e-05, -5.860698365722783e-05, 0.0002584002504590899, -4.808259109267965e-05, -2.226684046036098e-06, -3.266822750447318e-05, 1.1063279998779763e-05, -1.2491021152527537e-05, -4.7985613491619006e-05, -3.0442570277955383e-05, 7.095673208823428e-05, -5.331477950676344e-05, -6.269418008741923e-06, -2.1759524315712042e-05, 3.2574891520198435e-05, 6.146364739834098e-06, 1.8752381947706454e-05, -5.492854143085424e-06, 2.091202804876957e-05, -5.592652996710967e-06, -4.905495734419674e-05, -9.593044524081051e-06, 3.819643097813241e-05, -0.00020156605751253664, 7.698757690377533e-05, 5.2249608415877447e-05, 3.285462298663333e-06, -0.00013618284719996154, 1.076590888260398e-05, -5.286738996801432e-06, 1.7703805497149006e-05, -0.00019595107005443424, 4.867621828452684e-05, -1.7782615032047033e-05, 2.175579356844537e-05, 3.480564191704616e-05, 3.247998756705783e-05, 0.00010754590766737238, 4.282110239728354e-05, -8.188070933101699e-05, 2.2825832274975255e-05, -4.339498627814464e-05, 4.580704990075901e-05, -7.160761470004218e-06, 0.00011494471254991367, 1.4744910913577769e-05, 7.213719800347462e-05, -3.3414282370358706e-05, 0.00011521935084601864, -9.234036406269297e-05, 6.679283615085296e-06, -8.640820306027308e-05, 0.00014142983127385378, -2.4506511181243695e-05, 4.504414027906023e-05, 0.0001150306998169981, -0.0001749185612425208, -8.231320680351928e-05, 5.019913078285754e-05, -2.605319969006814e-05, 3.159417974529788e-05, -8.428754517808557e-05, -3.518262928992044e-06, -1.9959288692916743e-06], [-0.0004965024418197572, -0.0001345470518572256, 2.520208181522321e-05, -0.0006712254835292697, 0.0005875155329704285, -0.0004313623649068177, -2.9755527066299692e-05, -0.0001309513027081266, 0.00023396477627102286, 0.0003486434870865196, -6.836296961409971e-05, -3.048250437132083e-05, 0.0009461954468861222, -0.0004058229096699506, 0.0006984759820625186, -7.214749348349869e-05, 0.0003167879185639322, -0.0007448537508025765, -0.00010647685849107802, -0.0003377015236765146, -3.0612529371865094e-05, -1.7245592971448787e-05, 0.00023556700034532696, 0.000518294982612133, -0.0008270199177786708, -0.00011540654668351635, 0.00046708021545782685, -0.0008407026762142777, 0.00040970215923152864, -0.0006485744379460812, -0.0009008063352666795, -0.00023870289442129433, 0.00028594996547326446, -0.00010079477942781523, 0.0003317442024126649, -0.00045092887012287974, 0.00022803639876656234, -0.00019065634114667773, 0.0006709137232974172, 0.000355679978383705, 1.224027801072225e-05, -0.0005275034927763045, 0.00031791947549209, -0.0004887728136964142, 0.00021810313046444207, 0.0006505674682557583, -6.795940134907141e-05, -0.00024823113926686347, 0.000844491645693779, -0.0007760418229736388, 5.958906058367575e-06, 0.00024567084619775414, 0.0009603555663488805, 0.00030898567638359964, 0.00010921921784756705, 0.0005327388062141836, 0.0005235156859271228, 0.0011293370043858886, 7.164142152760178e-05, -0.0001316573761869222, 3.101881520706229e-05, 6.207699334481731e-05, 0.00042345820111222565, -0.0005046522710472345, -0.0003801703860517591, -0.0003749616735149175, 0.0013357566203922033, -0.0008477420778945088, -0.001006786827929318, -1.965177034435328e-05, -0.00011686560901580378, -0.0004896445316262543, -1.360590886179125e-05, -0.0003222558298148215, 0.00034195705666206777, -0.0001621994306333363, 0.00014668589574284852, -9.71375047811307e-05, 0.0012179824989289045, -0.0002716608578339219, 0.0001861307246144861, 0.0005224244087003171, 0.0006312421755865216, -0.0008713525021448731, -8.230215462390333e-05, -6.48925852146931e-05, 0.0003667051496449858, -0.0008923673303797841, 0.0008409700822085142, 0.00033291353611275554, -6.015952385496348e-05, -0.0003797622339334339, 0.0010269507765769958, -0.0003331801563035697, 0.00013531732838600874, -0.0011910349130630493, 2.737555405474268e-05, -0.00026696809800341725, 0.0005210686358623207, 0.0010437177261337638, 0.00034890251117758453, 0.00042834150372073054, 0.0001335839187959209, -4.6361856220755726e-05, 0.0005126961623318493, -0.00041828613029792905, 0.0012693550670519471, 2.9566856028395705e-05, 0.0004972165916115046, 0.0004327430506236851, 0.0007509478600695729, -7.66372904763557e-05, 0.00018081319285556674, -2.423532168904785e-05, 0.0003306886355858296, -2.1509966245503165e-05, 0.0005525513552129269, -0.0005452638142742217, 0.0007103783427737653, 0.0004517027409747243, -0.00014736471348442137, -0.0003499621816445142, 0.00035400979686528444, -0.00043546452070586383, 0.0004947880515828729, -0.00041028583655133843, 0.0004280603607185185, -0.0003878260322380811], [0.0006758322706446052, 0.00022337859263643622, -0.0003783789579756558, 0.0003951329563278705, -0.0005030539468862116, 0.0006379391415975988, 0.000470907922135666, 0.00013371076784096658, -0.0008053240017034113, -0.0001724227040540427, 0.0001553067850181833, 5.854091068613343e-05, -3.703598486026749e-05, 0.00027551728999242187, -0.0004962973762303591, 0.0004411709087435156, -0.0003534865682013333, 0.0002961916325148195, 0.0007748798816464841, 8.802942465990782e-05, 0.00021779171947855502, 3.875990296364762e-05, -0.0001627603342058137, -0.0009465162293054163, 0.0006726999999955297, 0.00015531113604083657, -0.0006117672310210764, 0.00030727763078175485, -0.00014571452629752457, 0.00027323549147695303, 0.0003284483391325921, 0.0008595769177190959, -7.463552901754156e-05, 0.0006142519996501505, -0.0002663905033841729, 0.0002731616550590843, -0.0005443234113045037, 0.0003807380562648177, -0.00011848969734273851, -0.0003964156494475901, -0.0001482088991906494, 0.0006156107992865145, -0.00046738400124013424, 0.0006968598463572562, -0.00017748851678334177, -0.00031192926689982414, 0.0006171359564177692, 0.0007120056543499231, -0.0003409544297028333, 0.0007357187569141388, -0.0003014426038134843, -0.00040270370664075017, -0.0005581317818723619, -0.00035276348353363574, -0.00040096425800584257, -3.7234771298244596e-05, -0.00013122828386258334, -0.00023825207608751953, -0.0004590298922266811, 8.246704237535596e-05, -2.5276225642301142e-05, -0.0001915141474455595, -0.0003523158375173807, 0.0004240512498654425, 0.0008546229801140726, 0.00024810119066387415, -0.0005963974399492145, 0.00010596548963803798, 0.00037521676858887076, 0.0002979156852234155, 0.0008262529736384749, 0.000352522823959589, 0.0002828734868671745, 0.0004376279248390347, -0.00041887961560860276, 0.00019051821436733007, -0.0012212784495204687, 0.00035187910543754697, -0.00031882611801847816, 0.00016525482351426035, -0.0003036075213458389, -3.596554961404763e-05, -0.0008716251468285918, 0.00038388557732105255, 0.00045000159298069775, 0.00028766365721821785, -0.0002994069072883576, 0.0002370513539062813, -0.0001875569432741031, -2.5878178348648362e-05, 0.0001798855810193345, 0.0005348356789909303, -0.00044465952669270337, 0.00035960073000751436, -0.0001982521207537502, 0.0003300569369457662, -0.0010660634143278003, 0.00015391482156701386, -0.0003719621745403856, -0.00011819199426099658, -0.0001275639224331826, -0.0004498779308050871, -0.0010238583199679852, 0.00017857164493761957, -0.0002575301332399249, 4.473203080124222e-05, -0.00022722304856870323, -0.0003005551116075367, -0.0004953825264237821, -0.00015647936379536986, -0.00015710628940723836, 0.0006541738985106349, -0.0005939030088484287, 0.00036049672053195536, -0.00017178394773509353, 0.0005252627888694406, -1.5844971130718477e-05, 0.0001408923853887245, -0.0006636525504291058, -0.00023165789025370032, 0.0006716529605910182, 0.0005830904119648039, -0.00011988169717369601, 0.00037651846650987864, -6.412956736312481e-06, 0.0003674683684948832, -0.0008151509682647884, 0.00023527001030743122]], "sigmanet.nn.12.bias": [-0.23104999959468842, -0.2185179591178894, 0.10827895253896713, 0.1116156354546547, 0.08848313987255096, 0.19220510125160217, -0.06805964559316635, -0.054539814591407776, 0.03282293304800987, 0.30265265703201294, -0.2766018211841583, 0.2645241916179657, 0.3118874728679657, -0.2212214171886444, -0.335421621799469, 0.03677462041378021, 0.09483765810728073, 0.07093042880296707, 0.03075859695672989, 0.032124634832143784, -0.07728487253189087, -0.2586697041988373, 0.2412937581539154, -0.19331753253936768, -0.16993685066699982, -0.038787297904491425, -0.06769538670778275, -0.24110189080238342, -0.1321602761745453, -0.12952293455600739, 0.2839406728744507, 0.19571325182914734, -0.12083207815885544, -0.1626829206943512, -0.19216492772102356, -0.08294998109340668, -0.2575165033340454, 0.17393574118614197, -0.12433883547782898, -0.10231282562017441, 0.18825601041316986, 0.15673498809337616, -0.15459148585796356, -0.21195831894874573, -0.30750715732574463, 0.1301734447479248, -0.29853692650794983, 0.07541824132204056, -0.05165713652968407, -0.223497673869133, 0.27518409490585327, -0.23348499834537506, -0.044380806386470795, -0.3011011481285095, 0.2195516973733902, 0.06959181278944016, -0.07570161670446396, 0.2776067852973938, -0.07879029214382172, -0.21586647629737854, -0.17463432252407074, -0.16430051624774933, 0.23519816994667053, -0.19804362952709198, -0.19401852786540985, -0.018122468143701553, -0.6162320375442505, 0.9014278650283813, -0.15085028111934662, -0.23935888707637787, -0.030614711344242096, -0.37667521834373474, -0.12142451852560043, 0.1480773687362671, 0.18913215398788452, 0.2586376965045929, -0.06765670329332352, 0.21644392609596252, -0.05125487223267555, 0.2185061275959015, 0.08108914643526077, 0.16062745451927185, 0.032391779124736786, -0.28251564502716064, -0.1999506652355194, -0.18217799067497253, 0.26588454842567444, -0.19165782630443573, 0.24588218331336975, 0.2230827808380127, -0.2407664954662323, -0.23130634427070618, -0.1799684762954712, 0.11572015285491943, -0.1562013030052185, -0.13665366172790527, -0.23147189617156982, 0.20764927566051483, 0.123652383685112, 0.1416776478290558, 0.07284482568502426, 0.1045711487531662, 0.20966534316539764, 0.21218353509902954, 0.051652178168296814, 0.21753282845020294, 0.005047963000833988, -0.20084472000598907, 0.21607966721057892, -0.14565111696720123, 0.20188070833683014, -0.0023504558485001326, 0.14136254787445068, 0.1826508343219757, -0.25473397970199585, 0.10959983617067337, 0.16909494996070862, -0.350168913602829, 0.04776415228843689, 0.22762392461299896, -0.11444324254989624, 0.021947406232357025, 0.1680830866098404, 0.04264245927333832, 0.26570233702659607, -0.20504257082939148, 0.2473147064447403, 0.07474131137132645], "sigmanet.nn.12.parametrizations.weight.original": [[9.287732973461971e-05, -0.00021701784862671047, -1.2041896297887433e-05, -0.00012343314301688224, 0.001537239644676447, -7.805099812685512e-06, 1.0055710845335852e-05, 0.00012784372665919363, 0.0030215613078325987, -8.76485210028477e-05, 1.456683185097063e-05, -0.0009791895281523466, 8.033801714191213e-05, 0.0017506169388070703, 1.7441258023609407e-05, 1.548264845041558e-05, 2.306433452758938e-05, -0.007390154059976339, -0.00010528632992645726, -0.00587151013314724, -0.0023334065917879343, 4.348591392044909e-05, 0.00017473996558692306, -4.2727104300865903e-05, -6.824189995313645e-07, -3.857005503959954e-05, 0.0005385986296460032, -3.4493648854549974e-05, -4.141274621360935e-05, -2.006215254368726e-05, 0.00024236555327661335, -0.0001575577916810289, 2.0017154383822344e-05, -0.0036033897195011377, 1.20962558867177e-05, -8.687623630976304e-05, 0.00015220907516777515, -5.4111627832753584e-05, 0.00015397564857266843, 5.3346226195571944e-05, -0.0001160745378001593, -0.000135147973196581, 0.0011408248683437705, -0.00018863269360736012, -0.0012728451984003186, -0.0075853983871638775, 0.00021578041196335107, 8.993535448098555e-05, 0.00026801350759342313, -0.007168278563767672, 1.0599550250844914e-06, -0.0001561209064675495, 1.4966234630264807e-05, -0.0002570238139014691, 6.04020751779899e-05, 0.00014316459419205785, 0.00014050331083126366, -0.00011963092401856557, -0.00010503995144972578, -1.1932818779314402e-05, 0.007513893768191338, 5.335423338692635e-05, 0.00010266261961078271, -0.00010197309893555939, 9.415524800715502e-06, 4.671952865464846e-06, -3.101698530372232e-05, 1.6764969359428505e-06, 0.001877162023447454, -0.0036519248969852924, -4.005901064374484e-05, -0.001915252418257296, -2.69006905000424e-05, -1.6661131667206064e-05, 0.0020717221777886152, 0.00018199275655206293, 7.557896879006876e-06, -7.065024692565203e-05, 2.3646349291084334e-05, 0.00021157013543415815, 1.7572014257893898e-05, 0.00010712084622355178, 0.0006969381938688457, -0.005893032997846603, 4.5632968976860866e-05, 7.254363299580291e-05, 5.258537839836208e-06, -2.4868049877113663e-05, -1.2520036761998199e-05, -3.949739948438946e-06, 0.00024302089877892286, 0.0001560656091896817, 2.5373970856890082e-05, -4.607961454894394e-05, 0.002399451332166791, -0.0002201209426857531, 0.002230157144367695, 1.2914517355966382e-05, -2.659814344951883e-05, 4.049434210173786e-05, -0.00011169897334184498, -0.0015070789959281683, -0.000357190117938444, -6.478057184722275e-05, 6.624769412155729e-06, 1.336378772975877e-05, -2.6883672035182826e-05, 5.1830447773681954e-05, 4.9453810788691044e-05, 0.00033556835842318833, 4.5707562094321474e-05, 0.0002946089662145823, 1.7751375480656861e-06, 2.494215004844591e-05, 0.0001435250451322645, -6.6021166276186705e-06, 0.00043285818537697196, -0.0001878825860330835, 3.4294927900191396e-05, -0.0009612471330910921, 1.0173800546908751e-05, 0.00023997701646294445, 7.03172481735237e-05, 4.301144872442819e-05, 8.286626689368859e-05, 0.0002187138597946614, 0.0001595257199369371, -0.00015119891031645238], [0.00033510063076391816, -1.0961340194626246e-05, 7.68497193348594e-06, -4.03002995881252e-05, 0.004672267008572817, -2.1530902813537978e-05, 1.7141535863629542e-05, 0.00042505355668254197, 0.0036358661018311977, -2.7604834031080827e-05, 4.648037429433316e-05, -0.0053668455220758915, 7.46450405131327e-06, 0.0028486186638474464, 6.781033880542964e-05, -6.260928785195574e-05, -1.0465492778166663e-05, -0.011901028454303741, -7.225721219583647e-06, -0.00023311207769438624, -0.006266306154429913, -1.292570505029289e-05, 0.00015861151041463017, -1.3585494343715254e-05, -3.179670784447808e-06, 4.489184357225895e-05, 0.0001074052561307326, -4.792512481799349e-05, 5.605019032373093e-05, -1.695727951300796e-05, -6.442301673814654e-05, 7.3264059210487176e-06, -1.0949986972264014e-05, -0.0002533023653086275, -3.0004866857780144e-05, 5.290219996822998e-05, 0.00017819648201111704, -8.055455691646785e-05, 0.00013952041626907885, 3.217100311303511e-05, 3.2876621844479814e-05, -7.379776070592925e-05, 0.00619543856009841, -0.0004319277941249311, -0.005862250924110413, -0.004838042426854372, 8.91704621608369e-06, 7.180894317571074e-05, 3.561856283340603e-05, -0.005486900452524424, 1.7733533240971155e-05, 6.036561171640642e-05, 4.766120127897011e-06, -0.00024819179088808596, 0.0010129716247320175, 0.0004969593719579279, 1.9952560251113027e-05, -0.00028402841417118907, -0.0005348604754544795, 2.060204860754311e-05, 0.006698998622596264, 0.0033570071682333946, 4.2826399294426665e-05, -0.00012831066851504147, -4.1123370465356857e-05, 2.772069365164498e-06, -7.460529741365463e-05, -2.3301477995119058e-05, 0.005883750971406698, 0.005941896233707666, -5.355126177164493e-06, -0.002964923158288002, -2.593246244941838e-05, -2.3283782866201364e-05, 0.0010762682650238276, -7.02000834280625e-05, 1.4938781532691792e-05, -5.767592665506527e-05, 8.910724318411667e-06, -6.0101076087448746e-05, 0.000163467280799523, -3.763221684494056e-05, 0.008497080765664577, -0.008061163127422333, 7.490673851862084e-06, 0.00010388474038336426, 2.5332912628073245e-05, -6.279320950852707e-05, 1.4721510524395853e-05, 5.542928556678817e-05, 0.00010099845530930907, 2.9361659471760504e-05, -0.00011213419202249497, 9.642332770454232e-06, 0.004811902996152639, 0.0002263747446704656, 0.00846580695360899, -2.7249043341726065e-05, 0.00016986751870717853, -9.111613508139271e-06, -0.00021138823649380356, -0.002473305445164442, 4.230858394294046e-05, 8.005616223272227e-07, -6.048704562999774e-06, -0.0001887529797386378, 0.00033174690906889737, 0.009200779721140862, 7.51382322050631e-05, -5.6916069297585636e-05, 4.37926355516538e-05, 0.001199878053739667, 6.157683856145013e-07, -3.709413795149885e-05, 6.947172369109467e-05, 2.704010967136128e-06, 0.0001267258485313505, -0.00011235958663746715, -2.8010583264403977e-05, -0.007108533754944801, -0.00011860785161843523, -0.000568653573282063, 1.9155368136125617e-05, -1.6100881111924537e-05, 0.00033032699138857424, 0.009921113029122353, 0.00011168357013957575, -4.9931066314456984e-05], [-0.023747673258185387, 0.021549265831708908, -0.003678849432617426, 0.006647043861448765, -0.005604414734989405, 0.002056956058368087, -0.02801673859357834, -0.011967644095420837, -0.0066576674580574036, 0.003557696705684066, -0.005343663040548563, 0.006172565743327141, -0.006888980511575937, -0.011707969941198826, -0.0035612958017736673, 0.0033565443009138107, -0.0039979261346161366, 0.007890286855399609, 0.03227083384990692, 0.009801204316318035, 0.004253133200109005, 0.0056642210111021996, -0.012471328489482403, 0.0030602042097598314, 0.004806411452591419, 0.003071070183068514, -0.008759611286222935, 0.005398571956902742, -0.013448324985802174, 0.002570968819782138, -0.004182419739663601, 0.03243419900536537, 0.020059384405612946, 0.006431818939745426, 0.004152374807745218, 0.0027506707701832056, -0.010319946333765984, 0.003014822257682681, -0.008164054714143276, -0.010102382861077785, 0.028512045741081238, 0.0043608457781374454, -0.0065534054301679134, 0.018383031710982323, 0.005783189553767443, 0.0038922226522117853, -0.0024817748926579952, -0.009930313564836979, -0.02007216028869152, 0.003839760320261121, -0.004078200552612543, 0.003616122994571924, -0.004587587900459766, 0.021487625315785408, -0.008625512011349201, -0.020847033709287643, -0.016046615317463875, 0.008726464584469795, -0.025353174656629562, 0.0041288333013653755, -0.004735443275421858, -0.008947217836976051, -0.009042449295520782, 0.004633693490177393, -0.002654680050909519, 0.005157984793186188, 0.0033361136447638273, 0.0037160897627472878, -0.003373008919879794, -0.005089349579066038, 0.003274893155321479, 0.00544874370098114, 0.0020567639730870724, 0.004813740495592356, -0.008384611457586288, -0.010117718018591404, -0.0033887356985360384, 0.004290151875466108, -0.004173937253654003, 0.029092691838741302, -0.005984877236187458, -0.01419749390333891, -0.008899438194930553, 0.004674507305026054, -0.005735005252063274, -0.0059873852878808975, -0.003998302388936281, 0.03108963929116726, -0.0027796628419309855, 0.020704636350274086, -0.012870300561189651, -0.007165513001382351, -0.004405682906508446, 0.0028527553658932447, -0.0058645582757890224, 0.0070177060551941395, -0.006154937203973532, 0.005186682567000389, -0.006971409078687429, -0.002387323649600148, 0.012623600661754608, 0.007892644964158535, -0.012079978361725807, 0.002810221863910556, -0.003928172402083874, 0.00473120016977191, -0.009850961156189442, -0.01136905886232853, -0.0024036159738898277, -0.005819128826260567, -0.005646801088005304, -0.012697095982730389, -0.004367758985608816, 0.0065302373841404915, -0.004286463372409344, -0.0031102034263312817, -0.012895728461444378, 0.007836651057004929, -0.00335135986097157, 0.005700100213289261, -0.025242622941732407, 0.008981071412563324, -0.004340141545981169, -0.004282164853066206, -0.010877066291868687, -0.013128374703228474, -0.007679786998778582, 0.033158786594867706], [-0.019365962594747543, 0.021006522700190544, -0.002452034968882799, 0.007348725572228432, -0.005742389243096113, 0.0038861690554767847, -0.01562727801501751, -0.009439266286790371, -0.007714442443102598, 0.004541169386357069, -0.0030487182084470987, 0.005242164712399244, -0.007431248668581247, -0.009013369679450989, -0.00216642115265131, 0.003076049266383052, -0.003149301977828145, 0.00537501135841012, 0.02358059212565422, 0.009550345130264759, 0.007259752601385117, 0.002486166777089238, -0.023587295785546303, 0.0038316426798701286, 0.0022788350470364094, 0.003110310062766075, -0.009766814298927784, 0.004986325744539499, -0.012318533845245838, 0.0022590095177292824, -0.002567506628111005, 0.028895223513245583, 0.013778645545244217, 0.007703522685915232, 0.002309877658262849, 0.0048322235234081745, -0.005811893846839666, 0.0033176487777382135, -0.010622769594192505, -0.00972970761358738, 0.027619363740086555, 0.0027724076062440872, -0.006370951887220144, 0.018258068710565567, 0.0058024232275784016, 0.004686857108026743, -0.0019335296237841249, -0.015288577415049076, -0.02039138413965702, 0.0042710695415735245, -0.0018766054417937994, 0.007727741729468107, -0.0028837663121521473, 0.019380126148462296, -0.006293429061770439, -0.01882018893957138, -0.00941921304911375, 0.006328965537250042, -0.023279357701539993, 0.0032863502856343985, -0.007212471216917038, -0.005023903213441372, -0.006301416549831629, 0.0027272338047623634, -0.0034377421252429485, 0.004348414484411478, 0.0031945058144629, 0.004068062175065279, -0.0063049932941794395, -0.005791966337710619, 0.0036077320110052824, 0.003173956647515297, 0.002284358022734523, 0.006075060926377773, -0.013251272030174732, -0.008323858492076397, -0.00406365841627121, 0.0038179494440555573, -0.0026096655055880547, 0.026679031550884247, -0.005532773211598396, -0.00955857802182436, -0.004547180607914925, 0.0045818728394806385, -0.004069913178682327, -0.004710710141807795, -0.004630414303392172, 0.014533544890582561, -0.0039670756086707115, 0.021676911041140556, -0.005369314458221197, -0.006451944354921579, -0.004819137509912252, 0.00384643767029047, -0.007344263605773449, 0.008934848010540009, -0.006343388464301825, 0.0024290268775075674, -0.004652706440538168, -0.0018845570739358664, 0.014806320890784264, 0.009554880671203136, -0.016821708530187607, 0.0020338091999292374, -0.003314669942483306, 0.002260793698951602, -0.00977001991122961, -0.007427604869008064, -0.0024632541462779045, -0.0049708629958331585, -0.0028592071030288935, -0.007536802440881729, -0.002922625048086047, 0.008743603713810444, -0.007144886534661055, -0.0022958472836762667, -0.01099989004433155, 0.015213138423860073, -0.004470616113394499, 0.004723409190773964, -0.01908327266573906, 0.011690781451761723, -0.004694438073784113, -0.0028927309904247522, -0.008597079664468765, -0.01293555460870266, -0.013181285932660103, 0.020906291902065277], [4.626586814993061e-05, 7.980865484569222e-05, -4.6722765546292067e-05, 0.00010150534944841638, 0.0005209869123063982, 4.7928249841788784e-05, -0.0003230569127481431, -0.002489120466634631, -4.7246707254089415e-05, -4.678858022089116e-05, -8.539806913177017e-06, -0.004581591580063105, -9.99407930066809e-05, -0.0002892786869779229, -9.44721105042845e-05, 3.574793299776502e-05, 2.751989995886106e-05, -0.0006801082636229694, 0.0002441841352265328, -0.00011580876162042841, -0.00014863695832900703, -3.7832676753168926e-05, -6.642922380706295e-05, -2.5419782105018385e-05, -9.780823347682599e-06, 3.63828003173694e-05, -0.0004835889849346131, 4.9872109229909256e-05, -0.00031817727722227573, -1.2594996405823622e-05, -0.00011721322516677901, 4.3358246330171824e-05, -0.00032018739148043096, 8.148251799866557e-05, 3.3414708013879135e-05, 0.00011189565702807158, -0.0001322469615843147, 8.239773160312325e-05, -2.920070619438775e-05, -0.0017711638938635588, -2.639848844410153e-06, 0.0002497605746611953, -0.00011807015835074708, 8.470259490422904e-05, -0.002514355583116412, -0.0040099769830703735, -4.187062586424872e-05, -9.370925545226783e-05, -2.1601099433610216e-05, 0.0001326817146036774, -1.5420289855683222e-05, 0.00011685723438858986, -8.013120532268658e-05, 0.00019368613720871508, -0.0013392925029620528, -1.2582234376168344e-05, -5.433910700958222e-05, 0.00026815757155418396, 7.519158680224791e-05, 5.4407351854024455e-05, 0.0015534285921603441, -0.0001954211766133085, 0.0002904828288592398, 7.645229925401509e-05, -7.791809184709564e-05, 2.6814977900357917e-05, -3.318274684716016e-05, -5.161285662325099e-05, 0.00014789642591495067, -0.0016322924057021737, 4.834674473386258e-05, 0.002454957226291299, 1.2613990293175448e-05, 9.25253625609912e-05, 0.00012966690701432526, -6.182667129905894e-05, -1.135506227001315e-05, -1.5543191693723202e-05, -3.091984035563655e-05, -0.00012579392932821065, -0.00021565958741120994, 4.755365080200136e-05, -0.00016654682985972613, 0.004638772923499346, -0.00018730512238107622, 4.1684925236040726e-05, 3.3145845463877777e-06, 0.0001982094836421311, -2.0584080630214885e-05, 0.00018596347945276648, 1.8158441889681853e-05, -6.373970245476812e-05, -2.5324996386189014e-05, 2.293810211995151e-05, -3.724418274941854e-05, 0.00038192837382666767, 0.0029472147580236197, 4.615130092133768e-05, 3.9561371522722766e-05, -8.362129847228061e-06, 2.3844368115533143e-05, 0.0011775377206504345, -0.00016671304183546454, 6.789382950955769e-06, -2.1010555428802036e-05, 0.00012418230471666902, -0.0004068059497512877, -5.933062857366167e-05, -0.00010086192196467891, -0.00020962025155313313, -2.343468167964602e-06, 0.0001560415985295549, -4.766354322782718e-06, -8.086820344033185e-06, -0.0004361048631835729, -9.217933256877586e-05, -3.7519803299801424e-05, 6.462755118263885e-05, 3.068975274800323e-05, 0.002288652118295431, 4.7709276259411126e-05, -3.987561649410054e-05, 1.9177698050043546e-05, -1.6763899111538194e-05, -0.00033206818625330925, 5.1826493290718645e-05, -9.183496877085418e-05, 0.0001729513460304588], [-0.00126627495046705, -3.573692447389476e-05, -4.772771353600547e-05, 4.258699391357368e-06, -0.01864553801715374, 4.829416502616368e-05, -0.00013146702258381993, -0.020031914114952087, -0.017146777361631393, 1.161979616881581e-05, -6.929185019544093e-06, 0.023631194606423378, -0.00015981137403286994, -0.014278581365942955, -5.205486013437621e-05, -2.5711037210385257e-07, 1.718079874990508e-05, 0.021480130031704903, 0.0001929477439261973, 0.0188601016998291, 0.017041992396116257, 1.6318972484441474e-05, -6.720890087308362e-05, 5.1869472372345626e-05, 3.444370668148622e-05, -4.684106443164637e-06, -0.014191473834216595, 5.0820366595871747e-05, -0.00024263933300971985, 5.357105692382902e-05, -0.00025483264471404254, 0.00010469572589499876, 0.011372704058885574, 0.017693612724542618, 2.2057110982132144e-05, 0.00015002198051661253, -2.073330142593477e-05, 0.000143910147016868, -0.0005327104008756578, -0.02090884931385517, 2.5615850972826593e-05, -6.932999531272799e-05, -0.020692327991127968, 2.6663105018087663e-05, 0.019124332815408707, 0.02177909016609192, 3.2856169127626345e-05, -5.737709579989314e-05, -0.00014084663416724652, 0.016470465809106827, 6.039111212885473e-06, 0.00045697338646277785, -7.242753326863749e-06, 1.295268793910509e-05, -0.017618710175156593, -0.00010848615784198046, 8.250142855104059e-05, 0.00015491837984882295, -0.008885698392987251, 3.945429125451483e-05, -0.02300267107784748, -0.02465054951608181, -0.01972482167184353, -2.2808266294305213e-05, -2.889961251639761e-05, 4.001195338787511e-05, 4.406745210872032e-05, 5.260371835902333e-05, -0.025002766400575638, -0.019532527774572372, 3.684821058413945e-05, 0.017222121357917786, 6.122837930888636e-06, 1.112473796638369e-06, -0.014074965380132198, -3.444951289566234e-05, 1.0210655091213994e-05, 3.663214374682866e-05, -4.237769098835997e-05, 0.0009374486398883164, -0.00018487301713321358, -1.1679599992930889e-05, -0.020837940275669098, 0.010938839986920357, -0.00010652041237335652, -1.3885182852391154e-05, 1.529566361568868e-05, 0.00028006359934806824, -4.304266985855065e-05, 0.00010231597843812779, -0.00014804363308940083, -5.754020094173029e-06, -0.00029719225130975246, 3.282040779595263e-05, -0.019173795357346535, 0.016106557101011276, -0.014723680913448334, 5.1607574278023094e-05, -9.074759145732969e-05, -2.5153867682092823e-05, 0.007269049063324928, 0.018938178196549416, -0.01549820601940155, 3.1514715374214575e-05, -5.940744813415222e-05, 0.0001751138042891398, -7.621368422405794e-05, -0.021783752366900444, -2.4282897356897593e-05, 6.49862049613148e-05, -1.790074384189211e-05, -0.01721661537885666, -9.413658517587464e-06, 1.0617412044666708e-05, -9.851113281911239e-05, -8.622938912594691e-05, -0.0003019912983290851, -1.4527876373904292e-05, -3.1609084544470534e-05, 0.014272798784077168, 3.108023156528361e-05, 0.013206387870013714, -8.939541294239461e-05, -1.5033659110486042e-05, -0.00024087655765470117, -0.024694157764315605, 2.2430152966990136e-05, 0.00013527851842809469], [0.035370782017707825, -0.05648418888449669, 0.024307437241077423, -0.019513823091983795, 0.009665279649198055, -0.012828218750655651, 0.036159683018922806, 0.011455681174993515, 0.01046928483992815, -0.031179921701550484, 0.02857396751642227, -0.0065839109010994434, 0.020674806088209152, 0.02128986269235611, 0.016867758706212044, -0.020365959033370018, 0.03761100396513939, -0.009764313697814941, -0.04066472128033638, -0.014662819914519787, -0.011612964794039726, -0.03316332399845123, 0.04382389038801193, -0.032117199152708054, -0.03663060441613197, -0.034996166825294495, 0.014816836453974247, -0.04725015163421631, 0.03501949831843376, -0.027428410947322845, 0.017212573438882828, -0.042998816817998886, -0.02923155389726162, -0.01088203489780426, -0.012758709490299225, -0.053872041404247284, 0.019766174256801605, -0.022963885217905045, 0.04028922691941261, 0.012393719516694546, -0.030052468180656433, -0.028600193560123444, 0.007446667645126581, -0.027871044352650642, -0.006350232288241386, -0.012057004496455193, 0.02340829372406006, 0.03193429112434387, 0.04820575192570686, -0.009160982444882393, 0.02806461602449417, -0.036368660628795624, 0.03219227120280266, -0.05541699007153511, 0.012837862595915794, 0.06050054356455803, 0.03705370053648949, -0.03171776235103607, 0.04022028297185898, -0.022412074729800224, 0.006338768173009157, 0.012569541111588478, 0.01014767587184906, -0.03470819815993309, 0.022989818826317787, -0.03266846761107445, -0.020110473036766052, -0.03807208687067032, 0.012212416157126427, 0.012591799721121788, -0.017299311235547066, -0.010211944580078125, -0.01332026720046997, -0.024570606648921967, 0.014171678572893143, 0.02976839244365692, 0.0313013419508934, -0.024644760414958, 0.03665197640657425, -0.03694775328040123, 0.023442331701517105, 0.03706366941332817, 0.011120018549263477, -0.00928425695747137, 0.07764891535043716, 0.017506418749690056, 0.029033930972218513, -0.047605231404304504, 0.02674698457121849, -0.04846777021884918, 0.03178643062710762, 0.027422094717621803, 0.02251017838716507, -0.021029001101851463, 0.013410127721726894, -0.011723312549293041, 0.010307906195521355, -0.01848704181611538, 0.04825275018811226, 0.011808848939836025, -0.017494596540927887, -0.012750199064612389, 0.02716805413365364, -0.03551799803972244, 0.030874809250235558, -0.019481681287288666, 0.046043187379837036, 0.016185183078050613, 0.015187356621026993, 0.026683034375309944, 0.022169282659888268, 0.018378417938947678, 0.021500736474990845, -0.05103238672018051, 0.05444696918129921, 0.017035122960805893, 0.05156628414988518, -0.058268677443265915, 0.03452673554420471, -0.010513813234865665, 0.04898037016391754, -0.01853085309267044, 0.033256422728300095, 0.026518523693084717, 0.035007044672966, 0.0140305757522583, 0.03444473817944527, -0.03682569041848183], [0.03773919492959976, -0.05623624473810196, 0.030820652842521667, -0.07169334590435028, 0.012226876802742481, -0.03118409588932991, 0.057258494198322296, 0.019502738490700722, 0.014477265067398548, -0.06942269206047058, 0.05674703046679497, -0.011417685076594353, 0.03875551000237465, 0.014581607654690742, 0.03437304124236107, -0.046372558921575546, 0.03728613629937172, -0.010943472385406494, -0.057306334376335144, -0.016832780092954636, -0.014028161764144897, -0.044303201138973236, 0.05808403715491295, -0.03750111535191536, -0.02722976915538311, -0.06020741909742355, 0.014709488488733768, -0.05825197696685791, 0.05200398340821266, -0.030975382775068283, 0.03624231740832329, -0.04709155857563019, -0.03741493821144104, -0.014057249762117863, -0.01576964743435383, -0.09025923907756805, 0.03701562434434891, -0.043648794293403625, 0.05139187350869179, 0.01829133927822113, -0.05687882378697395, -0.02414061315357685, 0.011752321384847164, -0.05074888840317726, -0.012470649555325508, -0.013066603802144527, 0.05419343709945679, 0.05737869441509247, 0.04805455729365349, -0.011125248856842518, 0.041583772748708725, -0.03650827333331108, 0.04698861017823219, -0.05042315274477005, 0.01061039138585329, 0.05851080268621445, 0.04933084547519684, -0.059318505227565765, 0.041677962988615036, -0.043130647391080856, 0.008288874290883541, 0.01568121463060379, 0.012602909468114376, -0.05620688572525978, 0.05135417357087135, -0.05815925821661949, -0.06848723441362381, -0.07101822644472122, 0.010780524462461472, 0.010642632842063904, -0.01433555781841278, -0.010400146245956421, -0.018351012840867043, -0.09189409017562866, 0.023230627179145813, 0.04150049015879631, 0.023053396493196487, -0.05934840440750122, 0.031161412596702576, -0.03462915122509003, 0.047463204711675644, 0.06954566389322281, 0.014286324381828308, -0.011288654990494251, 0.053462471812963486, 0.02090754359960556, 0.0528569221496582, -0.06463059782981873, 0.042144715785980225, -0.05720337852835655, 0.07593340426683426, 0.05025804787874222, 0.0658072903752327, -0.059077709913253784, 0.015297367237508297, -0.019281703978776932, 0.013676753267645836, -0.0472724474966526, 0.08005860447883606, 0.014527433551847935, -0.024860607460141182, -0.011579526588320732, 0.029158717021346092, -0.05857888236641884, 0.047448717057704926, -0.02719338983297348, 0.06747859716415405, 0.013204917311668396, 0.028993243351578712, 0.03427935019135475, 0.061103884130716324, 0.023011505603790283, 0.028313178569078445, -0.0980820283293724, 0.07657928019762039, 0.016172904521226883, 0.05349324643611908, -0.07192119210958481, 0.04884306713938713, -0.009215903468430042, 0.058405082672834396, -0.022646402940154076, 0.06324882060289383, 0.030949173495173454, 0.03760121390223503, 0.014661308377981186, 0.053456395864486694, -0.05481991916894913], [-0.02619250677525997, 0.04655313864350319, -0.0008093860815279186, 0.01431519165635109, -0.004047096241265535, 0.001970497891306877, -0.04832341521978378, -0.012186266481876373, -0.004249224439263344, 0.01852724514901638, -0.0017026264686137438, 0.007589775137603283, -0.024914348497986794, -0.013670116662979126, -0.009172292426228523, 0.0007274915697053075, -0.002567039104178548, 0.0060122632421553135, 0.03776458278298378, 0.01016096118837595, 0.006227483972907066, 0.0012679595965892076, -0.046878792345523834, 0.0003535106952767819, 0.0052846395410597324, 0.006179977208375931, -0.005845365580171347, 0.01473755668848753, -0.028169557452201843, 0.0002801112423185259, -0.0072014410980045795, 0.03166848048567772, 0.021931085735559464, 0.007495288271456957, 0.0025157171767205, 0.022789806127548218, -0.03824307769536972, 0.0034389146603643894, -0.037466250360012054, -0.010491268709301949, 0.03587983548641205, 0.009680550545454025, -0.008146270178258419, 0.02029554359614849, 0.006204491946846247, 0.009019406512379646, -0.011609484441578388, -0.03539314121007919, -0.035737860947847366, 0.005571145098656416, -0.0008906612056307495, 0.019448451697826385, -0.00029871947481296957, 0.03751799836754799, -0.008093823678791523, -0.03742586821317673, -0.027875011786818504, 0.017452748492360115, -0.02923954837024212, 0.0011013620533049107, -0.006555519532412291, -0.008968931622803211, -0.00987309217453003, 0.005578240379691124, -0.0011445850832387805, 0.012758411467075348, 0.0016867324011400342, 0.002752908505499363, -0.007364824414253235, -0.007994581013917923, 0.0032005351968109608, 0.008328930474817753, 0.002527440432459116, 0.005264742765575647, -0.013312673196196556, -0.013470201753079891, -0.0002320698113180697, 0.00037080806214362383, -0.006561138201504946, 0.028248310089111328, -0.007289362605661154, -0.02811605855822563, -0.008242812007665634, 0.005850097164511681, -0.03297394514083862, -0.016372917219996452, -0.0030034121591597795, 0.03471184894442558, -0.0020243313629180193, 0.03785710781812668, -0.02329176664352417, -0.015216127038002014, -0.01747225597500801, 0.0010698698461055756, -0.00810413621366024, 0.010945919901132584, -0.0080010537058115, 0.0012013233499601483, -0.027384506538510323, -0.0031227427534759045, 0.01574462465941906, 0.008232261054217815, -0.01941160298883915, 0.00047047616681084037, -0.002100815996527672, 0.005825983826071024, -0.02211088128387928, -0.013599111698567867, -0.0066089928150177, -0.020868631079792976, -0.0013836865546181798, -0.013240523636341095, -0.0002259253233205527, 0.021007152274250984, -0.028954582288861275, -0.007301986683160067, -0.02058735117316246, 0.051223695278167725, -0.0017352550057694316, 0.0050027393735945225, -0.04776104539632797, 0.011858029291033745, -0.0010484735248610377, -0.0016806027851998806, -0.010665923357009888, -0.01727822981774807, -0.039372578263282776, 0.050888385623693466], [-0.025612492114305496, 9.786247392185032e-05, 1.2510711712820921e-05, 1.469555172661785e-05, -0.058838460594415665, -1.9525252355379052e-05, -0.0005747931427322328, -0.047504886984825134, -0.04856912046670914, -1.0280326023348607e-05, -1.5404526493512094e-05, 0.055090874433517456, 9.380436495121103e-06, -0.03540050983428955, -4.8350226279580966e-05, 2.4375682187383063e-05, -1.9267241441411898e-05, 0.05810006707906723, -0.0001499000209150836, 0.018353816121816635, 0.03650376945734024, 2.8963811928406358e-05, -0.00027899094857275486, 8.096581041172612e-06, 9.433671220904216e-05, -1.9068855181103572e-05, -0.02517559565603733, 1.8554652342572808e-05, -5.028496161685325e-05, 4.277494008420035e-05, -0.00010334139369660988, 0.0001138723164331168, 0.02455584704875946, 0.03743474930524826, 3.391939026187174e-05, 6.631048017879948e-05, -0.00018499451107345521, 8.382176019949839e-06, -0.0001073544699465856, -0.04014761000871658, 0.000717750343028456, 0.00021175698202569038, -0.03599337115883827, 0.00021600148465950042, 0.07210861891508102, 0.05868847668170929, -1.4184226984070847e-06, -0.0007630324107594788, -0.00015584900393150747, 0.061344727873802185, -6.496087735285982e-05, 0.000205777891096659, -2.8116444809711538e-05, 3.6001713397126878e-06, -0.04024745896458626, -0.000300584826618433, 1.4476447177003138e-05, 0.00022011349210515618, -0.00972826313227415, 1.1496156730572693e-05, -0.041953083127737045, -0.03949517011642456, -0.04464530944824219, -1.4635696970799472e-05, -8.476067159790546e-05, -3.8996947182567965e-07, -3.2056654163170606e-05, -5.005909315514145e-06, -0.03981361165642738, -0.04361771419644356, 7.700467540416867e-05, 0.04240984469652176, 1.670887286309153e-05, 0.00017137735267169774, -0.02208944968879223, -3.263867984060198e-05, 8.025701390579343e-06, 1.3735987522522919e-05, -0.0001198661993839778, 0.00021588843083009124, 4.835397703573108e-05, -0.0001820983598008752, -0.04062982648611069, 0.04164323955774307, -2.5059529434656724e-05, -1.616901317902375e-05, 1.8731407180894166e-05, 0.00016750372014939785, 2.2704467482981272e-05, 6.0797152400482446e-05, 5.202362808631733e-05, -0.0001128982039517723, -0.00023691327078267932, -6.3271272665588185e-06, -0.03785979002714157, 0.038265377283096313, -0.04659438505768776, 7.168173760874197e-05, -0.00014798619667999446, 3.4266636248503346e-06, 0.014494762755930424, 0.037991005927324295, -0.032893046736717224, 5.9014844737248495e-05, -4.203842399874702e-05, -2.371950904489495e-05, -0.00014763606304768473, -0.05497659370303154, -0.00010966698755510151, -0.00012055646220687777, -5.6700053391978145e-05, -0.03891286253929138, 2.1954072508378886e-05, 4.256560714566149e-05, -5.100863563711755e-05, -6.207102705957368e-05, 2.8355800168355927e-05, 0.0001461659703636542, -9.245960245607421e-05, 0.05141500011086464, -0.00011993813677690923, 0.018032213672995567, -2.5093972908507567e-06, -3.6304340028436854e-05, -0.00011351465946063399, -0.04398360848426819, -0.0003884440811816603, 6.23105006525293e-05], [0.00029263499891385436, 0.00028422218747437, -1.822860212996602e-05, 0.00013969703286420554, -0.001489088754169643, 8.58631574374158e-06, -0.00018870098574552685, -0.0002400012599537149, -0.0015011614887043834, 7.928808190627024e-05, 4.516848548519192e-06, 0.0013188953744247556, -6.654118624283001e-05, 0.0004153270274400711, -7.916608592495322e-05, -1.3106969163345639e-05, 9.382723646922386e-07, 0.0012381236301735044, 0.000366816355381161, 0.0010853734565898776, 0.002494001528248191, 1.673156839387957e-05, -9.22170584090054e-05, 4.032787910546176e-05, 1.071077713277191e-05, 2.104456325469073e-05, -0.002694793976843357, 5.937769856245723e-06, -4.7111509047681466e-05, 4.2265844967914745e-05, -5.404051535151666e-06, 9.849696652963758e-05, 0.00042629384552128613, 0.003469813382253051, 3.32836716552265e-05, 6.8202760303393e-05, -3.204152380931191e-05, 2.72975903499173e-05, 6.871844379929826e-05, -0.000869985029567033, 0.0005966710741631687, 6.0652688262052834e-05, -0.0014021515380591154, 6.461361044785008e-05, 0.0018014584202319384, 0.0008387610432691872, -0.00024260173086076975, -0.000167871403391473, 2.6567740860627964e-05, 0.0017085185972973704, -4.370751412352547e-05, 0.00011831975280074403, 2.275451879540924e-05, 0.0001781958999345079, -0.0014597182162106037, -0.00017570987984072417, -3.680104418890551e-05, -1.5856952813919634e-05, -5.898477684240788e-05, -5.119396519148722e-06, -0.0017096876399591565, -0.005827502813190222, -0.00033240285119973123, 1.9079869161942042e-05, -3.8167156162671745e-05, 9.450347715755925e-05, -5.087813769932836e-05, 3.824488157988526e-05, -0.001902473159134388, -0.001776613760739565, 2.9908804208389483e-05, 0.007329227402806282, 2.2987440388533287e-05, 2.5186955099343322e-05, -0.001281450386159122, -0.00014026410644873977, 2.4801945983199403e-05, -6.484242476290092e-06, -3.316482616355643e-05, 3.0270390197983943e-05, -3.7313755456125364e-05, 6.67939311824739e-05, -0.0016242859419435263, 0.003952395170927048, -0.0001478435005992651, -0.0001314478722633794, -2.5819895199674647e-06, 9.813575888983905e-05, -3.616523099481128e-05, 3.3460702979937196e-05, 1.4231322893465403e-05, -0.00012310240708757192, -4.806312790606171e-05, 7.229619222925976e-05, -0.0011411827290430665, 0.00031337811378762126, -0.0011745025403797626, 5.1567771151894704e-05, -0.00010714949166867882, -0.0001178456877823919, 0.00029608304612338543, 0.0011455925414338708, -0.00023870906443335116, 3.814393494394608e-05, -1.9095423340331763e-05, 0.00013637103256769478, -0.00042891918565146625, -0.00038554987986572087, -1.6872167179826647e-05, -0.0001630920305615291, -7.899176853243262e-05, -0.0005361432558856905, -3.562981191862491e-06, 3.083678529947065e-05, -0.00010024159564636648, -8.586186595493928e-06, -0.0004969324800185859, -6.0089019825682044e-05, 1.1803551387856714e-05, 0.0028171667363494635, -1.190391049021855e-05, 0.0011479143286123872, -2.347221743548289e-05, -3.5975297123513883e-06, -0.00022135081235319376, 7.106069097062573e-05, -0.0001527488639112562, -6.0384554672054946e-05], [-0.003594933310523629, 1.3865105756849516e-05, -4.043117951368913e-05, 0.0001712906960165128, -0.01669171452522278, -2.3513521227869205e-06, 6.380938430083916e-05, -0.020782388746738434, -0.016972243785858154, 4.2518691770965233e-05, -1.599520146555733e-05, 0.02600284479558468, -0.00018407301104161888, -0.023769857361912727, -6.548465898958966e-05, -1.1491191798995715e-05, -4.6185268729459494e-05, 0.021843886002898216, 0.00030368249281309545, 0.02674039453268051, 0.029215913265943527, -1.4305368495115545e-05, -0.00020049176237080246, -2.8250082323211245e-05, -9.226413567375857e-06, -7.46134901419282e-06, -0.02656916156411171, -1.3234055586508475e-05, -0.00013093434972688556, -1.6754437410781975e-06, 4.169611929683015e-05, 0.000576949561946094, 0.025369951501488686, 0.024255137890577316, 3.028182391062728e-06, 0.00024437098181806505, 8.33440717542544e-05, -9.433853847440332e-06, -0.00012620844063349068, -0.01598747819662094, 0.0003656269400380552, 5.423920083558187e-05, -0.022549746558070183, 7.055800961097702e-05, 0.021155133843421936, 0.022633662447333336, -0.00030569409136660397, -0.00020262788166292012, -0.00045419108937494457, 0.021498627960681915, -4.463207005755976e-05, 6.392597424564883e-05, -2.9389406336122192e-05, 0.00013534934259951115, -0.02461332082748413, -4.080627331859432e-05, -5.432663328974741e-06, -1.4363522495841607e-05, -0.01622919738292694, 3.293520421721041e-05, -0.016931889578700066, -0.0258999802172184, -0.024747412651777267, 0.00017090771871153265, -3.718704101629555e-05, -1.693487138254568e-05, -1.7253498299396597e-05, 5.546876855078153e-05, -0.028670482337474823, -0.028737623244524002, -8.537124813301489e-06, 0.022667698562145233, 2.724870682868641e-05, 0.00010598288645269349, -0.02536138705909252, 1.255499228136614e-06, 1.061513012245996e-05, -2.3849745502957376e-06, 2.6395367967779748e-05, 0.011899511329829693, -0.00012308631266932935, 4.1831677322079486e-07, -0.02162794955074787, 0.02015761099755764, -0.00014683666813652962, -2.0203427993692458e-05, -5.125080133439042e-05, 7.52822743379511e-05, 1.538706237624865e-05, 0.00015165447257459164, -1.1187517884536646e-05, -8.522469579475e-05, -0.0004524204705376178, 3.0635932489531115e-05, -0.021892474964261055, 0.03143109753727913, -0.022062018513679504, -1.563282057759352e-05, -0.00013016715820413083, -9.368143219035119e-05, 0.029382525011897087, 0.023491768166422844, -0.020209817215800285, 7.147221913328394e-05, -1.4484824532701168e-05, 0.00025002649636007845, 0.0002436697541270405, -0.01751006953418255, -0.0003677890927065164, -1.0994344847858883e-06, -0.00010707764158723876, -0.018248919397592545, -4.103160972590558e-05, -2.8130129066994414e-05, -1.5072371752467006e-05, -4.5250944822328165e-05, -0.00016629711899440736, 0.00013605380081571639, 2.5126460968749598e-05, 0.026665981858968735, -0.00010345839109504595, 0.021534288302063942, -4.6980065235402435e-05, 4.826993972528726e-06, 5.500482438947074e-05, -0.027647988870739937, 6.434585520764813e-05, 0.00027384317945688963], [0.061330396682024, -0.09273899346590042, 0.15975381433963776, -0.12301729619503021, 0.01890251226723194, -0.13809116184711456, 0.09900539368391037, 0.03562937676906586, 0.03052160143852234, -0.13276244699954987, 0.13022136688232422, -0.01909652166068554, 0.11674907803535461, 0.017114251852035522, 0.13788051903247833, -0.13898928463459015, 0.131792351603508, -0.019124185666441917, -0.08167264610528946, -0.035650257021188736, -0.033841390162706375, -0.1278356909751892, 0.09832661598920822, -0.13169285655021667, -0.13127915561199188, -0.1263130009174347, 0.045533113181591034, -0.11849679052829742, 0.11007321625947952, -0.135916069149971, 0.11877931654453278, -0.07796543836593628, -0.06972528994083405, -0.031893257051706314, -0.13743966817855835, -0.13070550560951233, 0.117979034781456, -0.13594549894332886, 0.11423298716545105, 0.03382319584488869, -0.07919564843177795, -0.13288883864879608, 0.029761821031570435, -0.10146567970514297, -0.015908364206552505, -0.029896456748247147, 0.12589040398597717, 0.10267681628465652, 0.09810986369848251, -0.015825947746634483, 0.13814006745815277, -0.12179360538721085, 0.13262511789798737, -0.10552340000867844, 0.029910292476415634, 0.08228710293769836, 0.09013664722442627, -0.12409370392560959, 0.046364620327949524, -0.13600453734397888, 0.015307472087442875, 0.026560351252555847, 0.030240671709179878, -0.1240110993385315, 0.12951411306858063, -0.14046631753444672, -0.12034805119037628, -0.11682234704494476, 0.027110349386930466, 0.02905634045600891, -0.15474367141723633, -0.024339450523257256, -0.17558181285858154, -0.11358880996704102, 0.0476568304002285, 0.1250239759683609, 0.12867356836795807, -0.1376868039369583, 0.13428999483585358, -0.08015719056129456, 0.12135931104421616, 0.14060078561306, 0.041628915816545486, -0.020679449662566185, 0.10885947942733765, 0.13419246673583984, 0.12954728305339813, -0.09653733670711517, 0.12579280138015747, -0.17393529415130615, 0.09249551594257355, 0.14916294813156128, 0.12975670397281647, -0.126878023147583, 0.026261262595653534, -0.04155707731842995, 0.02403661236166954, -0.1392383873462677, 0.10945125669240952, 0.1593187153339386, -0.047860343009233475, -0.03384929522871971, 0.061926331371068954, -0.13392725586891174, 0.133207306265831, -0.14147470891475677, 0.09948566555976868, 0.025285372510552406, 0.12635064125061035, 0.1245979517698288, 0.12779690325260162, 0.034481681883335114, 0.14010678231716156, -0.11750584840774536, 0.10581094026565552, 0.1389714926481247, 0.1080387532711029, -0.11952732503414154, 0.13337989151477814, -0.015513920225203037, 0.0944635421037674, -0.05251030996441841, 0.1283130794763565, 0.1312035173177719, 0.11769276112318039, 0.01760084182024002, 0.09534276276826859, -0.07991283386945724], [-0.052268631756305695, 0.06441809237003326, -0.13711783289909363, 0.09823188185691833, -0.014342314563691616, 0.1259995698928833, -0.09880202263593674, -0.024691680446267128, -0.03849368542432785, 0.11863088607788086, -0.12144016474485397, 0.01493583433330059, -0.12600727379322052, -0.01944725774228573, -0.1315748542547226, 0.1254665106534958, -0.12541069090366364, 0.02407141588628292, 0.07332522422075272, 0.028316883370280266, 0.024253278970718384, 0.11682306975126266, -0.07248669117689133, 0.12077193707227707, 0.11339154839515686, 0.11622170358896255, -0.040184661746025085, 0.11202508956193924, -0.09579437971115112, 0.13704057037830353, -0.11509820818901062, 0.08268173784017563, 0.042534541338682175, 0.021240482106804848, 0.1216995045542717, 0.09861814975738525, -0.08888542652130127, 0.11172644048929214, -0.08217881619930267, -0.026825934648513794, 0.07766064256429672, 0.13116218149662018, -0.019203897565603256, 0.08720909804105759, 0.014558209106326103, 0.017765915021300316, -0.10969152301549911, -0.12150981277227402, -0.1026691421866417, 0.011671697720885277, -0.12514203786849976, 0.08823886513710022, -0.12952886521816254, 0.10181518644094467, -0.0235308650881052, -0.09204072505235672, -0.0882236585021019, 0.09479289501905441, -0.052525948733091354, 0.12365705519914627, -0.013012107461690903, -0.017394550144672394, -0.024361547082662582, 0.1171676442027092, -0.12240659445524216, 0.14545384049415588, 0.11344772577285767, 0.10949733853340149, -0.023146161809563637, -0.019936781376600266, 0.12379081547260284, 0.018519576638936996, 0.07719449698925018, 0.11901857703924179, -0.06716258078813553, -0.09727451950311661, -0.12388835847377777, 0.12322968989610672, -0.131214901804924, 0.06267817318439484, -0.11533857136964798, -0.08628527075052261, -0.02567896619439125, 0.026592765003442764, -0.09383173286914825, -0.11106960475444794, -0.11694924533367157, 0.0875045582652092, -0.12407176196575165, 0.0768159031867981, -0.0999627336859703, -0.09912405163049698, -0.11928227543830872, 0.12334862351417542, -0.034340329468250275, 0.03675868734717369, -0.017023582011461258, 0.12484606355428696, -0.10650812834501266, -0.14240916073322296, 0.05279088765382767, 0.0389263890683651, -0.040866393595933914, 0.11891134828329086, -0.13062572479248047, 0.11824815720319748, -0.08910989761352539, -0.026505431160330772, -0.13282495737075806, -0.1014346331357956, -0.12500005960464478, -0.04004567861557007, -0.13332192599773407, 0.10064228624105453, -0.0927208960056305, -0.12433654814958572, -0.09109573811292648, 0.08246072381734848, -0.11697965860366821, 0.02282770350575447, -0.07291771471500397, 0.051872581243515015, -0.12105906754732132, -0.13129058480262756, -0.11986690759658813, -0.01686844415962696, -0.09380078315734863, 0.06829969584941864], [0.0002764742821455002, -0.0003629418497439474, 2.016345752053894e-05, -6.844771996838972e-05, 0.019126197323203087, -7.321685643546516e-06, -0.00020544238213915378, 0.014948675408959389, 0.025960005819797516, -2.1197918613324873e-05, 6.807403224229347e-06, -0.03523297235369682, 1.9388244254514575e-05, 0.03099513053894043, 6.54830364510417e-05, -2.1081716113258153e-05, 5.404190960689448e-05, -0.03310205787420273, 0.0001824252976803109, -0.015986552461981773, -0.029871681705117226, 2.851482747701084e-07, 0.00014785770326852798, 1.6023637726902962e-05, 1.2846971912949812e-05, 4.943606836604886e-05, 0.01784593053162098, 1.5502691894653253e-05, 5.3266743634594604e-05, 1.171882922790246e-05, 3.706161805894226e-05, -0.0001954674517037347, -0.008472061716020107, -0.0322556234896183, -3.0523289751727134e-05, -0.00017076358199119568, 0.00041625028825365007, -0.00012212405272293836, 1.1323233593429904e-05, 0.017884278669953346, -0.00047426039236597717, -0.00010945917165372521, 0.03035113401710987, -0.00015813932986930013, -0.03351973369717598, -0.033782459795475006, 0.0002068042813334614, 5.572829468292184e-05, 2.705065708141774e-05, -0.035166434943675995, 6.348038732539862e-05, -0.00020632772066164762, -6.3535103436151985e-06, 9.174619481200352e-05, 0.02021927945315838, 0.00019970029825344682, 0.00019478147441986948, -0.00011185332550667226, 0.006310528609901667, 7.295824616448954e-06, 0.019279437139630318, 0.0283600315451622, 0.020595695823431015, 8.365369467355777e-06, -3.935216682293685e-06, -6.273758481256664e-05, -1.4075870240048971e-05, -7.865454244893044e-05, 0.02073124423623085, 0.030773857608437538, -6.757223309250548e-05, -0.02497698925435543, -1.963278918992728e-05, 1.2733397852571215e-05, 0.013173381797969341, -8.4231951404945e-06, -8.206419806811027e-06, -9.754752682056278e-06, 0.00012009737838525325, -0.0002522293070796877, -7.64161886763759e-05, 0.00036297013866715133, 0.02435711957514286, -0.01862329989671707, 1.7878710423246957e-05, 1.7811270254242118e-06, 9.975868306355551e-05, -5.8228968555340543e-05, 1.489264741394436e-05, -7.656705565750599e-05, 0.00012273667380213737, 9.307685832027346e-05, 0.000244164519244805, 1.8416768625684199e-06, 0.028869785368442535, -0.02934890054166317, 0.03231778368353844, 7.272950028891501e-07, 4.421439371071756e-05, -1.0986628694809042e-05, -0.0121444808319211, -0.02197149395942688, 0.012742685154080391, -9.967743608285673e-06, -9.598396900400985e-06, -0.0003246475534979254, 2.142757693945896e-05, 0.027522016316652298, 0.00017321642371825874, 0.0002404306287644431, 2.2530010028276592e-05, 0.023320073261857033, 4.22091361542698e-05, -8.338792395079508e-05, 6.170304550323635e-05, 1.1670805179164745e-05, 7.966548582771793e-05, 5.781880099675618e-05, 1.2376945960568264e-05, -0.03752366080880165, 9.859757119556889e-05, -0.006097772624343634, -2.9146769520593807e-05, 3.044454933842644e-05, -0.0002491803315933794, 0.036910951137542725, 0.0001559180673211813, -3.360347909620032e-05], [0.020884504541754723, -0.033803749829530716, 0.00014507034211419523, -0.011430603452026844, 0.0043185860849916935, -0.0010981959057971835, 0.020152751356363297, 0.007283140439540148, 0.005228827707469463, -0.0072297039441764355, 0.0015282022068277001, -0.004744754172861576, 0.009595976211130619, 0.011832068674266338, 0.007993473671376705, -0.0001684971066424623, 0.00016329916252288967, -0.004661461338400841, -0.027393026277422905, -0.006318205967545509, -0.0048377858474850655, -0.001682531088590622, 0.02421172894537449, -0.002198935952037573, -0.005997942760586739, -0.006160182878375053, 0.008221162483096123, -0.008562108501791954, 0.028034036979079247, -0.0008630023221485317, 0.00611968943849206, -0.03233873099088669, -0.016695694997906685, -0.004171424079686403, -0.003346803365275264, -0.009082494303584099, 0.017918992787599564, -0.008793310262262821, 0.01679282635450363, 0.006794407963752747, -0.028926799073815346, -0.010245975106954575, 0.005341041833162308, -0.02056298777461052, -0.0038393456488847733, -0.006380833685398102, 0.007729163393378258, 0.027861978858709335, 0.03163309395313263, -0.004030842334032059, 0.0003643058589659631, -0.016978371888399124, 0.0015053399838507175, -0.03287528455257416, 0.00619250163435936, 0.03811945393681526, 0.0335204117000103, -0.016768135130405426, 0.022906431928277016, -0.001023914897814393, 0.0033312144223600626, 0.004752836190164089, 0.005546557251363993, -0.0035480663646012545, 0.0025994391180574894, -0.006653638556599617, -0.003820183454081416, -0.003835942829027772, 0.0036043566651642323, 0.0036407248117029667, -0.004222612828016281, -0.003565459977835417, -0.003996088169515133, -0.004242728464305401, 0.008007926866412163, 0.01292615756392479, 0.0023979046382009983, -0.0013904410880059004, 0.0056194644421339035, -0.023327400907874107, 0.007477810140699148, 0.022448625415563583, 0.005566172301769257, -0.002780840266495943, 0.008499321527779102, 0.009932001121342182, 0.005416753701865673, -0.022123422473669052, 0.001219754689373076, -0.01816433295607567, 0.02311788685619831, 0.012017175555229187, 0.008327431976795197, -0.0006883403984829783, 0.005382081959396601, -0.007630396634340286, 0.0037247545551508665, -0.0003751561453100294, 0.01731734536588192, 0.001153741148300469, -0.013705569319427013, -0.00631617521867156, 0.012223507277667522, -0.0009035136899910867, 0.0007208431488834321, -0.0070537179708480835, 0.022236904129385948, 0.01105317659676075, 0.004735078662633896, 0.012252522632479668, 0.0010048013646155596, 0.008018756285309792, 0.0012643206864595413, -0.009759163483977318, 0.01829250156879425, 0.007410954684019089, 0.01915007457137108, -0.03245789185166359, 0.004389701411128044, -0.002742549404501915, 0.024982186034321785, -0.010682489722967148, 0.002000381937250495, 0.0016373366815969348, 0.009954308159649372, 0.008931644260883331, 0.03687824308872223, -0.022940456867218018], [-0.0002614941622596234, 0.00030097400303930044, -9.640029747970402e-05, 0.00025474492576904595, -0.0035331554245203733, 9.257128112949431e-05, -0.00013001968909520656, -0.006741562392562628, -0.00013712121290154755, 1.676270221651066e-05, -3.854493843391538e-05, 0.002666780259460211, 1.1741279195121024e-05, -0.007390596438199282, -0.0002723683137446642, 6.55153562547639e-05, -0.00010412308620288968, 0.0029216352850198746, 0.00018956177518703043, 0.006733598653227091, 0.0035959375090897083, 0.00032324244966730475, -0.00021585097420029342, -4.1227963265555445e-07, 6.634979945374653e-05, 2.2235390133573674e-05, -0.007012650836259127, 9.326318104285747e-05, -0.000569536117836833, 0.0001495444739703089, -0.0005084190052002668, 0.00046137432218529284, 0.0009435313986614347, 0.00407006498426199, 7.344510231632739e-05, 0.00020377562032081187, -0.0001568296574987471, 0.0002457284717820585, -0.00040087755769491196, -0.004188258666545153, 8.499572868458927e-05, 3.968428063672036e-05, -0.003707649651914835, 0.00016873439017217606, 0.002913140691816807, 0.004379746038466692, -0.00032749230740591884, -5.008974767406471e-06, -0.00017104738799389452, 0.00216541881673038, -0.00011022009130101651, 0.00014347254182212055, -0.00030103223980404437, 0.00012125216744607314, -0.005006593652069569, -6.27411573077552e-05, 3.932357140001841e-05, 0.0005916356458328664, -0.0002345093380426988, 3.1852119718678296e-05, -0.006519846618175507, -0.0031969358678907156, -0.0037779686972498894, 0.0001906513498397544, -0.00031067445524968207, 2.6812735086423345e-05, 1.4544338000632706e-06, 0.0002877212828025222, -0.0019729728810489178, -0.008094175718724728, 0.00015180838818196207, -0.0006163509679026902, 5.136067920830101e-05, 4.133591573918238e-05, -0.002844282193109393, -0.00012066722410963848, -2.8751483114319853e-05, 0.00023009258438833058, -0.00014205793559085578, 1.7198764908243902e-05, -0.00025828034267760813, -0.0007346325437538326, -0.004716710187494755, 0.003114743158221245, -0.00030591071117669344, -8.435857307631522e-05, -0.00030539240106008947, 0.00012795752263627946, -6.691906310152262e-05, 0.0002740517957136035, -0.0005426337593235075, -0.0003645493707153946, -0.0001704448222881183, 8.970937778940424e-05, -0.003796734381467104, 0.004048686008900404, -0.004990574903786182, 7.314405229408294e-05, -3.866392944473773e-05, -6.898638093844056e-05, 0.002861808519810438, 0.003469883231446147, -0.00664782989770174, -6.408532499335706e-06, -8.680224709678441e-05, 0.0002870289026759565, -0.00013456233136821538, -0.008022799156606197, -0.00021845242008566856, -0.00018561846809461713, -0.00028330041095614433, -0.0006163912476040423, -1.690569843049161e-05, 0.00010968629794660956, -1.3974293324281462e-05, -4.924892709823325e-05, -8.599337161285803e-05, 0.00010130466398550197, -0.00023333339777309448, 0.002324737375602126, -0.00019869417883455753, 0.005947543773800135, -2.5932331482181326e-05, -7.699805792071857e-06, -5.563915692619048e-05, -0.004046495072543621, -0.00015494633407797664, 0.00011987994366791099], [7.212845957837999e-05, 0.0001755886769387871, -4.634964352590032e-05, 3.463469329290092e-05, -0.00019566406263038516, -3.969443241658155e-06, -0.00043535424629226327, -0.00022885874204803258, -0.00014225638005882502, 9.851019422058016e-05, -6.764586578356102e-05, -4.232549326843582e-05, 3.0303188395919278e-05, -8.748896652832627e-05, -0.0001295271940762177, 3.7406771298265085e-06, -3.069467129535042e-05, 0.00022758582781534642, 6.687929999316111e-05, 0.00020488997688516974, 0.00010249327897327021, 8.805425750324503e-06, -0.00038634325028397143, -8.407599125348497e-06, 2.1489409846253693e-05, 3.673240644275211e-05, 0.000498936977237463, 6.163974376249826e-06, -2.386344021942932e-05, 2.2436304334405577e-06, -4.064901077072136e-05, 7.749837095616385e-05, 5.510532719199546e-05, 0.00025751980138011277, -2.3957775852068153e-07, 5.299797703628428e-05, -0.00030754884937778115, 2.0532212147372775e-05, 7.491573342122138e-05, -0.0001020129129756242, 0.0001731926022330299, -2.477604357409291e-05, -4.40617986896541e-05, 0.00011542359425220639, 0.0005774513119831681, -4.667441316996701e-05, -4.342497049947269e-05, -0.00013215777289588004, 7.69150210544467e-05, -0.00020958803361281753, -5.454725032905117e-05, 0.00033299782080575824, -7.739110515103675e-06, 7.431820995407179e-05, 0.0003876711125485599, 7.145683775888756e-05, -0.00020764462533406913, -6.391942588379607e-05, -0.00013222533743828535, 2.420716919004917e-05, 9.806454181671143e-05, -0.0001860116608440876, -0.0001923789968714118, 6.705641135340557e-05, -9.784294888959266e-06, 7.314811227843165e-05, -1.6305973986163735e-05, -3.3059062843676656e-05, -0.00537854852154851, -5.293844878906384e-05, 5.295905339153251e-06, 0.003160563763231039, -1.4354892300616484e-05, -3.4982051147380844e-05, -0.0014433938777074218, 6.982217746553943e-05, 2.1500485672731884e-05, 1.8532218746258877e-05, -8.480620635964442e-06, 5.602089368039742e-05, -3.185348759870976e-05, -0.00010106817353516817, -0.0006966302753426135, 0.0008899605600163341, 5.3941865189699456e-05, 3.877039034705376e-06, 2.8812187338189688e-06, 0.00015277264174073935, -5.010761924495455e-06, 7.624498539371416e-05, 9.419482012162916e-06, 1.4722877494932618e-05, 8.020386303542182e-05, -1.6066123862401582e-05, 4.962306411471218e-05, 0.00010660832049325109, 0.00015138181333895773, 3.041643140022643e-05, -8.351272845175117e-05, 1.600082396180369e-05, 0.00026307691587135196, 0.005254232790321112, -0.00021221493079792708, 4.076129334862344e-05, 1.3811414646625053e-05, 0.0001043511729221791, -9.930296073434874e-05, -6.675404438283294e-05, -1.5135614376049489e-05, -0.0001276791881537065, -7.41837084206054e-06, 8.494155190419406e-05, 1.773479198163841e-05, 0.00013017548189964145, -2.7364969355403446e-05, -4.9238838073506486e-06, 7.276911492226645e-05, 2.263724491058383e-05, -7.168723095674068e-05, 5.7392619055463e-05, 0.0001585638674441725, -0.0001297802955377847, -1.0337206731492188e-05, 4.974560397386085e-06, -1.6449728718725964e-05, -8.895509381545708e-05, 0.00010008537356043234, 0.0004252963117323816], [1.6153855540324003e-05, 1.4229250155040063e-05, 1.7532522178953514e-05, 4.2555704567348585e-05, 3.866041515721008e-05, 4.008390897070058e-05, -2.0700334061984904e-05, -9.862488514045253e-05, 0.00010327412019250914, -2.1323012333596125e-05, -3.971966361859813e-05, -7.702560833422467e-05, 0.00010296043183188885, -0.0002846118586603552, -8.811563748167828e-05, 3.814612500718795e-05, -4.383656778372824e-05, -5.3216506785247475e-05, -1.185930068459129e-05, 4.806098877452314e-05, -0.0011476255021989346, -2.224288255092688e-05, -0.00011291546252323315, 4.588903721014503e-06, 4.169999738223851e-05, -5.9937170590274036e-05, -5.107681863592006e-05, -7.94956667959923e-06, -0.0002199187147198245, 1.3066894098301418e-05, -6.6778970904124435e-06, -8.68248607730493e-05, 0.00010593457409413531, -1.4909413948771544e-05, -1.661603505453968e-06, -6.264094554353505e-05, 5.1944964070571586e-05, 6.355677760438994e-05, 2.440173011564184e-05, -0.00013978214701637626, -3.904174445779063e-05, 6.485050835181028e-05, -2.0047209545737132e-05, -0.00012756021169479936, 0.0002828088472597301, 5.3569387091556564e-05, -1.1854303011205047e-05, -2.4185083020711318e-05, 0.00011734369036275893, -0.003925149329006672, -1.5782312402734533e-05, 2.1283074602251872e-05, -1.445864745619474e-05, 0.00014975124213378876, -2.0028071958222426e-05, 7.363206532318145e-05, -2.7110192604595795e-05, 0.00018702480883803219, 0.00028774086968041956, 1.1701439689204562e-05, -0.0005014327471144497, -3.396130705368705e-05, -4.463771983864717e-05, 2.7099213184555992e-05, 7.828548405086622e-06, -8.114653610391542e-05, -2.3467217033612542e-05, -2.71433345915284e-05, -0.0006902226014062762, -0.0021849365439265966, -1.894610613817349e-05, 0.002760855946689844, -2.5863450900942553e-06, 4.880666165263392e-05, -0.00019951774447690696, -0.00016615244385320693, -4.782471660291776e-05, -2.617690188344568e-05, -8.870330930221826e-06, 0.0003520743630360812, -0.00014860725787002593, 3.418082997086458e-05, -0.004429825581610203, 0.00012341796536929905, -3.9926646422827616e-05, -7.487852417398244e-05, -5.266774314804934e-05, 7.546192932750273e-07, -1.2558720072775031e-06, 0.00021635751181747764, 7.815432763891295e-05, 6.948762165848166e-05, 0.00015266840637195855, 5.137015614309348e-05, -0.00015320343663915992, 0.00011608906788751483, -6.41739898128435e-05, 4.073034870089032e-05, 5.282133861328475e-05, 1.631242957955692e-05, 4.7681296564405784e-05, 0.0001063932795659639, 9.040359873324633e-05, -1.0665595254977234e-05, -2.1330235540517606e-05, 3.840487261186354e-05, 6.014530663378537e-05, -0.00021616062440443784, 1.576951763126999e-05, -7.155629282351583e-05, 5.682049959432334e-06, -8.394645556109026e-05, 2.1865669623366557e-05, 5.353840606403537e-07, -0.00021103375183884054, 1.2402762195051764e-06, 9.85006699920632e-05, 0.00014201595331542194, 5.753379809902981e-05, 0.0019905357621610165, -0.00017537600069772452, -6.49806170258671e-05, -1.8655033272807486e-05, 1.585633071954362e-05, -0.00035471562296152115, 0.0001293880632147193, 6.403740553651005e-05, -4.400427860673517e-05], [-0.00025123191880993545, 5.412478276412003e-05, -5.953513755230233e-05, 9.18024088605307e-05, -0.0033769041765481234, -4.398010787554085e-06, 3.591339918784797e-05, -0.00012082519242540002, -0.0004870001575909555, -2.8584145184140652e-05, -4.029819319839589e-05, 0.0006909138173796237, -0.00012243147648405284, -0.0006715471390634775, 4.542864189716056e-05, 1.3272654541651718e-05, -4.979021832696162e-05, 0.00033655957668088377, 0.00018737481150310487, 0.0003234778705518693, 0.00022250355686992407, 0.00012544803030323237, -9.910643711918965e-06, 1.2208331099827774e-05, 3.873392415698618e-05, -1.4654864571639337e-05, -0.0009962869808077812, 0.00012788410822395235, -6.48312852717936e-05, 9.57450447458541e-06, 4.13856323575601e-05, 0.00015654886374250054, -0.00044771411921828985, 0.00256815692409873, 6.7105324887961615e-06, 5.1906386943301186e-05, -0.0005223734769970179, 0.00018374035425949842, -0.00032647268380969763, -0.00011019652447430417, 0.00017231550009455532, 4.908501068712212e-05, -0.007004195358604193, 0.0002555064274929464, 0.005998196545988321, -0.0023273001424968243, -1.7856744307209738e-05, -6.7407927417661995e-06, -0.0001829312095651403, 0.0020947717130184174, 1.0603287591948174e-05, 0.0003804089792538434, -3.178398765157908e-05, 0.0006239231443032622, -0.00012708784197457135, -6.369075708789751e-05, -9.978835441870615e-05, 0.00018825444567482919, -2.2654437998426147e-05, 0.0001517325872555375, -0.0020023887045681477, -0.004628834780305624, -0.00014843429380562156, -7.358062248385977e-06, -0.00018539650773163885, -6.134362138254801e-06, 6.990710244281217e-05, 5.5159642215585336e-05, -0.006381175946444273, -0.0033660426270216703, -5.085220777800714e-07, 0.002231851452961564, 7.193554210971342e-06, 0.00010791632666951045, -7.662141797482036e-06, -0.00023205866455100477, 1.0413751624582801e-05, 0.00012453390809241682, -0.00021125737112015486, 7.398988964268938e-05, -4.5794211473548785e-05, -0.0004557529173325747, -0.0001056078981491737, 0.0015289037255570292, -0.00014252895198296756, -0.00018184921646025032, -4.763331617141375e-06, 0.00010185684368479997, -0.000167233039974235, 0.0002198172005591914, 5.08305529365316e-05, -0.0001686811592662707, -0.0003054483386222273, 3.140106127830222e-05, -0.0024019021075218916, 2.0012208551634103e-05, -0.002554391510784626, 5.9631920521496795e-06, -7.73264400777407e-06, 1.0651458978827577e-05, 2.9862456358387135e-05, 0.0015733108157292008, -0.0003501800529193133, 4.0434224501950666e-05, 3.989809556514956e-06, 2.2016498405719176e-05, -0.00012588882236741483, -0.0003949494566768408, -0.0001660683483351022, -0.00012765223800670356, -0.0001809831737773493, -3.7652986065950245e-05, -3.734673373401165e-05, 0.00010244887380395085, -0.00024357964866794646, -0.00011155289394082502, -0.00015351157344412059, -1.1835278201033361e-05, -6.178597686812282e-05, 0.006476952228695154, -7.009572436800227e-05, 0.002634570701047778, 1.6404617781518027e-05, -3.612709861045005e-06, -0.00012987626541871578, -0.00042532349471002817, -6.097914229030721e-05, 0.00013789055810775608], [0.020558055490255356, -0.026489540934562683, 0.001216944307088852, -0.0060491375625133514, 0.004317425657063723, -0.0005236508441157639, 0.008425867184996605, 0.012527761980891228, 0.004428334999829531, -0.003149960655719042, 0.001290888525545597, -0.0033832357730716467, 0.00494636595249176, 0.009209813550114632, 0.0037853822577744722, -0.0016088794218376279, 0.0008240516763180494, -0.005251213908195496, -0.020611150190234184, -0.0044767167419195175, -0.004675581119954586, -0.0016746162436902523, 0.019001660868525505, -0.0019707493484020233, -0.0013656803639605641, -0.0032773148268461227, 0.011554938741028309, -0.002307128394022584, 0.014242228120565414, -0.0008887700969353318, 0.0022149495780467987, -0.017154740169644356, -0.01878269575536251, -0.004279496613889933, -0.0005231362301856279, -0.004706026520580053, 0.011141957715153694, -0.0026002463418990374, 0.011170956306159496, 0.005377235356718302, -0.017260700464248657, -0.0028274566866457462, 0.006997648160904646, -0.01443303469568491, -0.003543595317751169, -0.004550260026007891, 0.00219709356315434, 0.013185110874474049, 0.012530556879937649, -0.004779703449457884, 0.0002971456851810217, -0.012944160960614681, 0.0013154828920960426, -0.023297660052776337, 0.005473065655678511, 0.017103023827075958, 0.013982134871184826, -0.0068367556668818, 0.019931936636567116, -0.0009489262592978776, 0.0029682570602744818, 0.005427685100585222, 0.007139922119677067, -0.002377475844696164, 0.0014397618360817432, -0.0017812858568504453, -0.0015707212733104825, -0.002540822373703122, 0.00408931914716959, 0.003753491211682558, -0.00017892612959258258, -0.0018787524895742536, -0.00010576464410405606, -0.0029057844076305628, 0.007498971652239561, 0.007070079445838928, 0.0013431250117719173, -0.0013989859726279974, 0.0022509191185235977, -0.012594795785844326, 0.005546736065298319, 0.014787391759455204, 0.00557327177375555, -0.006481521762907505, 0.005439153406769037, 0.006684808526188135, 0.0013087193947285414, -0.018857203423976898, 0.00036995246773585677, -0.020800497382879257, 0.010632554069161415, 0.0047345575876533985, 0.006740014534443617, -0.00046641778317280114, 0.0075667016208171844, -0.008477270603179932, 0.005878465715795755, -0.00021829374600201845, 0.005386309698224068, 0.00029412738513201475, -0.012464639730751514, -0.0036988514475524426, 0.01127916481345892, -0.0009875443065539002, 0.000935021264012903, -0.0022379131987690926, 0.010175570845603943, 0.012880663387477398, 0.002977534895762801, 0.003582434728741646, 0.0013116179034113884, 0.009766841307282448, 0.00036280619679018855, -0.005340292118489742, 0.007028849329799414, 0.0021520990412682295, 0.008385207504034042, -0.012197989970445633, 0.0013584052212536335, -0.0039242845959961414, 0.01641199365258217, -0.010921277105808258, 0.002119949320331216, 0.0009341295226477087, 0.005944958422333002, 0.008133837021887302, 0.0146942138671875, -0.011278748512268066], [0.016606783494353294, -0.0001501936640124768, 1.0334243597753812e-05, -0.00010080155334435403, 0.024306967854499817, -1.1659305528155528e-05, 0.00042739612399600446, 0.024092910811305046, 0.027938999235630035, -0.00011243691551499069, -8.739039003557991e-06, -0.03077716939151287, 2.4906827093218453e-05, 0.022591516375541687, 0.00010069194104289636, -1.7365766325383447e-05, -6.651200237683952e-06, -0.03141872584819794, -0.00044644763693213463, -0.024495456367731094, -0.028133686631917953, 6.093402589613106e-06, 0.00025732850190252066, -1.0884338735195342e-05, -0.00013758207205682993, 1.2229443200340029e-05, 0.027257362380623817, 1.5468251604033867e-06, -5.6775319535518065e-05, -1.4821996956015937e-05, 8.841078670229763e-05, 