{"variables_constraints": [[1.3862961530685425, 12.367982864379883], [2.9957354068756104, 14.478178977966309], [1.0001434087753296, 15.633379936218262], [0.25000089406967163, 5.346488952636719], [1.9576690196990967, 20.998594284057617], [0.25000089406967163, 3.788360357284546], [1.7179461453403293e-07, 1.8959323140551558], [3.4994360135406275e-08, 2.999996451350326], [2.9957337379455566, 17.74188804626465], [-5.065058708190918, 13.656898498535156], [2.995734214782715, 17.722476959228516], [2.0000011920928955, 20.887205123901367], [1.0000001192092896, 15.54783821105957], [-12.148888018373777, 2.3025849022591642], [-13.047825901826881, 7.5540736397216675], [1.0000054836273193, 11.999996185302734], [1.0000003576278687, 11.999992370605469]], "sigmanet.sigma": [3.0], "sigmanet.monotone_constraints": [1.0, 0.0, 1.0, 1.0, 1.0, 1.0, 0.0, 0.0, 0.0, 0.0, 0.0, 1.0, 1.0, 0.0, 0.0, 0.0, 0.0], "sigmanet.nn.0.bias": [0.021538877859711647, -0.018383603543043137, 0.05320700258016586, 0.06839001923799515, 0.02679598703980446, 0.09354320168495178, 0.0008517223177477717, -0.13599441945552826, 0.18385709822177887, -0.09771361947059631, -0.24786476790905, 0.04524243250489235, -0.1200752854347229, -0.09198953211307526, -0.0714888796210289, 0.01853867806494236, -0.09838815778493881, 0.02094644494354725, -0.02184576541185379, -0.10634489357471466, -0.05338788032531738, 0.08136066049337387, -0.010058890096843243, 0.3812216520309448, 0.02008228562772274, -0.028827065601944923, -0.12276743352413177, -0.1453530192375183, -0.054292116314172745, 0.013109367340803146, 0.005527765955775976, 0.24740257859230042, 0.07369291037321091, 0.028775783255696297, 0.08431769162416458, 0.14469322562217712, 0.05880710482597351, 0.27587413787841797, -0.10106411576271057, -0.0035680988803505898, -0.05272812768816948, -0.11097345501184464, -0.13673949241638184, 0.0326557420194149, 0.06208265572786331, 0.15050287544727325, -0.1261277198791504, -0.08377837389707565, -0.009374105371534824, 0.06522604078054428, -0.12138313800096512, 0.22634050250053406, 0.0563652329146862, -0.12072954326868057, 0.09499429911375046, -0.020577169954776764, 0.04589461535215378, -0.11036710441112518, 0.5480369329452515, -0.6913083791732788, 0.1417030394077301, 0.07502691447734833, -0.2724871039390564, -0.13774093985557556, 0.05450748652219772, -0.11167699098587036, 0.5039801001548767, -0.15677577257156372, -0.07582534849643707, -0.048130083829164505, -0.13206562399864197, -0.10467896610498428, 0.00819102581590414, -0.07470398396253586, -0.14361195266246796, -0.2463071197271347, -0.00010849616228369996, -0.12222518771886826, -0.0478757843375206, -0.0019080464262515306, -0.025807419791817665, -0.11314227432012558, 0.09969929605722427, -0.06192277744412422, -0.070757195353508, -0.10064549744129181, 0.14731237292289734, 0.0012706797569990158, 0.03245590254664421, -0.19263452291488647, -0.1528068631887436, -0.13417121767997742, 0.09567080438137054, 0.15288479626178741, -0.09070228040218353, 0.069963239133358, 0.16436995565891266, 0.12772312760353088, 0.03942983224987984, -0.13168340921401978, -0.17342285811901093, -0.44033414125442505, -0.015494119375944138, -0.10677777975797653, -0.09608753025531769, -0.1676795780658722, -0.3578666150569916, -0.13681219518184662, -0.07007056474685669, -0.2531995475292206, 0.11375884711742401, 0.008944330736994743, 0.0500217042863369, 0.046704888343811035, 0.1347217708826065, 0.0761733427643776, -0.09089049696922302, -0.03297439217567444, -0.07087273895740509, 0.07875744998455048, 0.021973727270960808, -0.03016739711165428, -0.11613210290670395, -0.10473152250051498, -0.18799898028373718, -0.10624953359365463, -0.17422610521316528, -0.11069468408823013], "sigmanet.nn.0.parametrizations.weight.original": [[0.008733406662940979, -0.004112431779503822, 0.012735105119645596, 0.020339244976639748, 0.008784351870417595, 0.003292194800451398, 0.00022045669902581722, 2.2421081666834652e-05, 0.007729485630989075, -0.00940690841525793, 0.008582357317209244, 0.011991503648459911, 0.017900729551911354, 0.007949184626340866, 0.0074538723565638065, 0.003687541000545025, 0.0076083349995315075], [-0.006551834754645824, 0.011730375699698925, -0.0015920797595754266, -0.000924919149838388, -0.0006358021637424827, -0.0025797169655561447, -0.0002851176541298628, -0.005535428877919912, -0.013157547451555729, -0.00824033934623003, 0.009459017775952816, -0.0008562025614082813, -0.003023554105311632, 0.01468865480273962, 0.014106144197285175, -3.0656867693323875e-06, -0.016997266560792923], [0.11452770233154297, 0.04862946271896362, 1.2163059182057623e-06, -1.5961139752107556e-06, 4.426631505793921e-07, 0.11615444719791412, -0.06777321547269821, -0.23347602784633636, -0.03856830671429634, 0.012085193768143654, -0.014103715308010578, 2.242349637526786e-06, -7.644211450497096e-07, -0.014197752811014652, 0.007608349900692701, -0.12390995770692825, -0.020345021039247513], [-0.0719219297170639, -0.052492428570985794, -4.0746036233940686e-07, 2.3711668291070964e-06, 5.85551958920405e-07, -0.006379394792020321, 0.07476963102817535, 0.2320411652326584, 0.031012360006570816, -0.023357484489679337, 0.01190251111984253, -1.3984798670207965e-06, -2.871781816793373e-07, -0.01490774005651474, -0.0063966005109250546, 0.11655830591917038, -0.013439232483506203], [-0.005139664746820927, 0.002903672866523266, -0.005704439245164394, -0.006829393096268177, -0.005058036185801029, -0.007856941781938076, -0.0001571688917465508, -2.156929076591041e-05, -0.0025925436057150364, -0.013762155547738075, -0.002755030756816268, -0.003865184262394905, -0.018148483708500862, -0.011026731692254543, -0.006002884823828936, -0.0005429370794445276, -0.002393269445747137], [-0.006621378008276224, 0.00876546185463667, -0.0205007866024971, -0.018853140994906425, -0.007555490825325251, -0.008458741940557957, -0.00016570747538935393, -1.741073720040731e-05, -0.0014075201470404863, 0.00612287875264883, -0.0020536009687930346, -0.004473751410841942, -0.018804384395480156, -0.004252030048519373, -0.009177695959806442, -0.0011353477602824569, -0.002429251791909337], [-0.00892297551035881, 0.0017250904347747564, -0.01565202698111534, -0.01806102879345417, -0.015786124393343925, -0.004175641108304262, -0.000195940476260148, -2.484992000972852e-05, -0.00028568817651830614, 0.0031088017858564854, -0.001230780966579914, -0.016321375966072083, -0.017203930765390396, -0.0035559397656470537, 0.017849085852503777, -0.0058576385490596294, -0.0032411033753305674], [-0.004448856692761183, 0.004902362823486328, -0.017465297132730484, -0.01445701252669096, -0.015255019068717957, -0.006568046752363443, -0.00015204990631900728, -1.911994331749156e-05, -0.0057999370619654655, 0.01052973885089159, -0.0022864267230033875, -0.003995066974312067, -0.005968779791146517, -0.012124679982662201, -0.005918196868151426, -5.205240086070262e-06, -0.002529099117964506], [0.0060596042312681675, 0.04352940246462822, 0.0019228270975872874, 0.006174353417009115, 0.001997333951294422, 0.004157871473580599, 0.010699025355279446, 0.00016673376376274973, 0.0004883590154349804, -0.005921164061874151, 0.006431841291487217, 0.00499744014814496, 0.0038101051468402147, -0.016777461394667625, 0.004617433995008469, 0.014228648506104946, 0.016889341175556183], [-0.005644893739372492, -0.04390798509120941, -0.002129768254235387, -0.00120350846555084, -0.0012075224658474326, -0.00565660884603858, -0.007644247263669968, -2.8663269404205494e-05, 0.011828041635453701, -0.016705455258488655, -0.006110802758485079, -0.000911822950001806, -0.003951469901949167, 0.006398690864443779, 0.021731235086917877, -0.011927271261811256, -0.014975856058299541], [1.579633590154117e-06, -0.017537398263812065, -7.71252715026094e-08, 2.2835394702269696e-05, 1.5763476767460816e-05, 9.596312884241343e-05, 2.0116027371841483e-05, -0.02046041563153267, -0.027434177696704865, -0.012811968103051186, -0.02603364735841751, 1.224381776410155e-06, 1.1098178219981492e-05, 0.01055686455219984, -0.017196085304021835, -0.03443232178688049, -0.0407070592045784], [0.004083644133061171, -0.0012016507098451257, 0.016456816345453262, 0.01163263339549303, 0.0068078553304076195, 0.0057036392390728, 0.00018620958144310862, 2.43823706114199e-05, 2.2828289729659446e-05, -0.0032798219472169876, 0.0007928300183266401, 0.01266797911375761, 0.01639198698103428, -0.014317534863948822, -0.016893437132239342, 0.004677483346313238, 0.00240736803971231], [-0.006462785881012678, 0.0038548025768250227, -0.016550499945878983, -0.01752277836203575, -0.012540895491838455, -0.0046302624978125095, -0.00016162131214514375, -2.5607032512198202e-05, -0.007599804550409317, -0.009493359364569187, -0.0008821116061881185, -0.00314578996039927, -0.011962806805968285, -0.0046828859485685825, 0.016452724114060402, -3.998848569608526e-06, -0.005784820765256882], [-0.008758218958973885, 0.0037638526409864426, -0.00884178001433611, -0.0037168196868151426, -0.0020593551453202963, -0.0041006761603057384, -0.00013988875434733927, -3.069231388508342e-05, -0.0056131514720618725, -0.019069883972406387, -0.004841845948249102, -2.4731318262638524e-05, -0.0011765395756810904, -0.0040042526088654995, -0.005556619260460138, 0.010888123884797096, -0.004035386722534895], [-0.006364855449646711, 0.003693626495078206, -0.007244046311825514, -0.01610790565609932, -0.012882651761174202, -0.004557215608656406, -0.00015671107394155115, -2.184196091548074e-05, -0.004362668376415968, 0.00343329063616693, -0.0009715909254737198, -0.004082640167325735, -0.016083789989352226, -0.011053483933210373, -0.0061391908675432205, -0.000805768184363842, -0.0022149744909256697], [-0.0062829493544995785, 0.008665906265377998, -0.018786584958434105, -0.004584477748721838, -0.005647990386933088, -0.008944124914705753, -0.0001515127660240978, -3.1065716029843315e-05, -0.0014881014358252287, 0.004355406854301691, -0.004064885433763266, -0.011915837414562702, -0.015813762322068214, -0.007155152037739754, -0.008660483174026012, 0.010261490941047668, -0.008481130935251713], [0.010108684189617634, -0.0016898746835067868, 0.02144704945385456, 0.012830490246415138, 0.005882468074560165, 0.004101114813238382, 0.00021970088710077107, 2.5667344743851572e-05, 0.0032534166239202023, -0.00726952264085412, 0.0016424296190962195, 0.006438890937715769, 0.006673906464129686, 0.002698729746043682, 0.0027225054800510406, 0.005979758221656084, 0.008904236368834972], [-0.009717326611280441, 0.00212927651591599, -0.018855376169085503, -0.02248656377196312, -0.01853557489812374, -0.0037950631231069565, -0.0001842134224716574, -2.554452839831356e-05, 0.011589465662837029, -0.00868726521730423, -0.0027896433603018522, -0.013468297198414803, -0.017635516822338104, -0.0025880697648972273, -0.004641812294721603, -0.0066887433640658855, 0.008948934264481068], [0.006562821567058563, -0.0053131068125367165, 0.006922419648617506, 0.013239285908639431, 0.015592776238918304, 0.0033909983467310667, 0.0001941479422384873, 0.0038055316545069218, 0.005483068060129881, 0.00966180395334959, 0.0024140854366123676, 0.016094962134957314, 0.007891150191426277, 0.005046071484684944, 0.005787979811429977, 4.481370979192434e-06, 0.004089929163455963], [-0.006640626583248377, 0.004395691677927971, -0.017482932657003403, -0.01626325026154518, -0.015994753688573837, -0.007360037416219711, -0.00019297620747238398, -0.0038452488370239735, -8.455617353320122e-05, 0.003593204077333212, -0.006822413299232721, -0.0036352628376334906, -0.016333943232893944, -0.008146177977323532, -0.005860419943928719, -4.930554950988153e-06, 0.010131054557859898], [0.0063300649635493755, -0.003944050054997206, 0.006735422648489475, 0.004772423300892115, 0.004938289988785982, 0.005088140722364187, 0.00017079933604691178, 2.6140765839954838e-05, 0.0004979686927981675, 0.014768998138606548, 0.0016311043873429298, 0.01473170518875122, 0.019005583599209785, 0.009824411943554878, 0.005760646890848875, 0.0016946014948189259, 0.004880193155258894], [-0.009901454672217369, 0.003964786883443594, -0.00552317313849926, -0.016646115109324455, -0.014987876638770103, -0.010725959204137325, -0.00022601593809667975, -1.7272006516577676e-05, -0.00286536174826324, 0.005086672957986593, -0.007721577771008015, -0.017135413363575935, -0.015270178206264973, 0.014723967760801315, -0.005653897300362587, -0.0028250098694115877, -0.0009361553238704801], [2.0070183381903917e-05, -0.01100944448262453, 1.4864282604776236e-07, 0.000871458207257092, 0.0015212447615340352, 0.008581292815506458, 1.7988077161135152e-05, 0.00573281804099679, -0.002827270422130823, -0.005966292228549719, -0.022807763889431953, 0.0016876760637387633, 1.9532353690010495e-05, -0.005722719244658947, 0.00922677107155323, -0.00115113309584558, -0.016307279467582703], [-1.8078499124385417e-05, 0.0013677767710760236, -3.962300638704619e-07, 3.305010295662214e-06, 1.752622665662784e-05, 7.844492211006582e-05, -0.07235098630189896, 0.005479990970343351, -0.04488945007324219, -0.014931309968233109, 0.004067848436534405, 0.00010335556726204231, 2.257245796499774e-06, 0.0076489984057843685, 0.006612673867493868, -0.02377132698893547, -0.01176266185939312], [-0.014288412407040596, -0.0637560486793518, -0.0083061708137393, -0.010089241899549961, -0.012040414847433567, -0.0050122388638556, -0.0010154345072805882, 0.019401095807552338, -0.012371239252388477, 0.008510199375450611, 0.018842829391360283, -0.007473819423466921, -0.006302450783550739, 0.005360265728086233, 0.012426658533513546, 0.0196620374917984, 0.017543258145451546], [0.014776187017560005, 0.06260676681995392, 0.009021660313010216, 0.014699162915349007, 0.011644055135548115, 0.006910499185323715, 0.0003810475755017251, -0.021454134956002235, 0.012979203835129738, -0.0026883475948125124, 0.018179278820753098, 0.009533025324344635, 0.008875622414052486, -0.008680894039571285, 0.011365916579961777, -0.01870623230934143, -0.012150808237493038], [-0.029184535145759583, 0.0024894834496080875, -0.0019951811991631985, -0.001623604097403586, -0.0014723220374435186, -0.01538864802569151, -0.0004294866230338812, 0.01636066474020481, -0.003619583323597908, 7.325038950511953e-06, -0.01639721542596817, -0.0023720720782876015, -0.0010249068727716804, 0.006714416667819023, 0.003930066246539354, 0.007205530535429716, 0.015274912118911743], [0.04408995434641838, 0.0115274116396904, 0.0020081817638128996, 0.0038135640788823366, 0.002596359932795167, 0.009597180411219597, 0.000643799314275384, -0.0161165539175272, 0.005644842982292175, 0.002043198561295867, 0.01675594411790371, 0.0014055351493880153, 0.0010244459845125675, 0.0033492436632514, -0.024103885516524315, -0.00444332929328084, 0.003522468265146017], [-0.00948414672166109, 0.0017787013202905655, -0.015543065033853054, -0.00939236767590046, -0.0053560626693069935, -0.009526193141937256, -0.0003997869498562068, -2.2186348360264674e-05, -0.0038938068319112062, 0.00535890506580472, -0.004060356877744198, -0.013843855820596218, -0.0033394440542906523, 0.014827349223196507, 0.016187503933906555, -0.0010754842078313231, 0.011300785467028618], [0.009566997177898884, -0.00445646233856678, 0.007156320381909609, 0.008454103954136372, 0.008961216546595097, 0.003888168605044484, 0.00032784498762339354, 1.5862678992561996e-05, 0.0015087352367118, 0.008682469837367535, 0.007789714727550745, 0.0083860382437706, 0.005386291537433863, -0.012682244181632996, 0.006985793821513653, 7.285122137545841e-06, -0.011818863451480865], [-0.01572386920452118, -0.022744297981262207, -0.0038205201271921396, -0.014854944311082363, -0.011391527019441128, -0.02435038611292839, -0.00019612451433204114, -1.711130971671082e-05, -0.0054144226014614105, -0.013328984379768372, -0.005574394948780537, -0.0027218672912567854, -0.006197921931743622, 0.013769851997494698, -0.004794615786522627, -0.007694466505199671, -0.005117008462548256], [-1.348762111774704e-06, -0.00040798611007630825, 1.238792322055815e-07, 5.539812264032662e-06, 0.00013801277964375913, 0.01584494113922119, -2.6794621589942835e-05, 0.0026476660277694464, -0.028930267319083214, -0.009620340541005135, 0.00405838992446661, 0.0030191761907190084, 4.7477183784394583e-07, -0.010938418097794056, -0.01683901622891426, -0.00982990488409996, 0.0012270431034266949], [6.692241004202515e-05, -0.00010574688349151984, 6.294085324043408e-05, 0.0007537161000072956, 0.015483621507883072, 0.01733793318271637, 2.945455526059959e-05, 2.0604493329301476e-05, -0.024995485320687294, -0.004165070131421089, -0.023107679560780525, 0.009397868067026138, 4.1867133404593915e-05, 0.006744855083525181, 0.0020625286269932985, 0.006849061232060194, 0.006115835625678301], [-0.00784324947744608, 0.0030460921116173267, -0.02379518561065197, -0.02626911550760269, -0.019691884517669678, -0.014703177846968174, -0.0003264037659391761, -2.3847225747886114e-05, -0.011382164433598518, -0.010716122575104237, -0.013246324844658375, -0.02103317342698574, -0.007891231216490269, 0.013777513056993484, -0.002340886741876602, -0.0026256185956299305, -0.0012293647741898894], [-0.007333237212151289, 0.002359590493142605, -0.0032127259764820337, -0.010875540785491467, -0.008641458116471767, -0.0068211788311600685, -0.00014113422366790473, -2.251228579552844e-05, -0.002830115845426917, -0.009800389409065247, 0.01701970025897026, -0.0065696705132722855, -0.0020830349531024694, 0.014647960662841797, -0.009196584112942219, 0.015679091215133667, -0.0036502890288829803], [-0.007860595360398293, 0.003419704269617796, -0.01936015859246254, -0.004979644436389208, -0.011408769525587559, -0.004347494337707758, -0.00021891829965170473, -1.7929700334207155e-05, -0.0003889504005201161, 0.00594755494967103, -0.008589766919612885, -0.015246085822582245, -0.0163685604929924, 0.013648596592247486, -0.005784147419035435, -0.0004573090700432658, -0.005639507435262203], [-0.00525228725746274, 0.013096414506435394, -0.007805111818015575, -0.013398416340351105, -0.011042480356991291, -0.008042112924158573, -0.00016151450108736753, -2.5697259843582287e-05, -0.00027888797922059894, 0.0030880658887326717, -0.006834886502474546, -0.014237378723919392, -0.015617838129401207, -0.010984056629240513, -0.006119302473962307, -6.792881322326139e-06, -0.009585871361196041], [-0.006801079958677292, 0.0019121841760352254, -0.019388044252991676, -0.00790026318281889, -0.005385448224842548, -0.007198159117251635, -0.00015976268332451582, -2.0121100533287972e-05, -0.002480583731085062, -0.014133432880043983, -0.001797567238099873, -0.011249198578298092, -0.02073499746620655, 0.014766057021915913, -0.005819746758788824, -0.0078700827434659, -0.004094772506505251], [-0.00642334995791316, 0.004847337491810322, -0.007236044388264418, -0.008905296213924885, -0.004005598835647106, -0.005610940512269735, -0.00018513348186388612, -2.12419472518377e-05, -6.906341877765954e-05, 0.01066628284752369, 0.015642188489437103, -0.014192753471434116, -0.004772656597197056, 0.013849754817783833, -0.008018439635634422, -0.0009517376311123371, -0.007983189076185226], [0.009451811201870441, -0.0037491547409445047, 0.01782458834350109, 0.016953779384493828, 0.012485545128583908, 0.004217891953885555, 0.00018170250405091792, 2.2824329789727926e-05, 0.0004931932780891657, 0.014746509492397308, 0.0013986015692353249, 0.004650849383324385, 0.019672466441988945, 0.005271309986710548, -0.01703120395541191, 6.8218764681660105e-06, -0.01351880095899105], [-0.005387099459767342, 0.0070443241856992245, -0.017998194321990013, -0.0067740692757070065, -0.013351480476558208, -0.005174201913177967, -0.00013801285240333527, -1.715451799100265e-05, -0.008098182268440723, -0.014717767015099525, -0.002489294158294797, -0.0036727748811244965, -0.014055506326258183, 0.015085747465491295, 0.017641253769397736, -0.00019899845938198268, -0.0017164582386612892], [-0.00887457188218832, 0.0023052042815834284, -0.005431837867945433, -0.00467506842687726, -0.013463092967867851, -0.004750183783471584, -0.00016450938710477203, -1.7796644897316583e-05, -0.0058586010709404945, 0.0065993680618703365, -0.001251019537448883, -0.015630917623639107, -0.0063605159521102905, -0.007781870197504759, -0.005807995330542326, -0.00010132362513104454, -0.009050090797245502], [0.007182575296610594, -0.003000524826347828, 0.01718842051923275, 0.004423923324793577, 0.006417091935873032, 0.00580474641174078, 0.00020160514395684004, 1.7230930097866803e-05, 4.740344229503535e-05, 0.014040633104741573, 0.000796114036347717, 0.012845370918512344, 0.01611142046749592, -0.014136907644569874, 0.005801056977361441, -0.01257459819316864, 0.006476449780166149], [0.006818142719566822, -0.012713783420622349, 0.017338018864393234, 0.016036901623010635, 0.01567087322473526, 0.005915995221585035, 0.00016212460468523204, 0.001967567950487137, 0.007651511579751968, 0.01912633143365383, 0.0030939863063395023, 0.012873568572103977, 0.017798297107219696, -0.012634898535907269, 0.00584158580750227, 0.0039515504613518715, 0.0021149804815649986], [0.009761734865605831, -0.007065142504870892, 0.018373453989624977, 0.017817987129092216, 0.005718000698834658, 0.006972007919102907, 0.0002019409730564803, 2.7949445211561397e-05, 0.00014527379244100302, -0.0033371455501765013, 0.0014676519203931093, 0.0195985808968544, 0.004857994616031647, 0.003865961916744709, -0.016049331054091454, 0.0014222674071788788, 0.002433343091979623], [-0.00975083652883768, -0.02518562600016594, -0.022236617282032967, -0.021050401031970978, -0.005808629561215639, -0.004802183713763952, -0.000198499794350937, -1.8694046957534738e-05, -0.0013940113130956888, 0.004713485483080149, -0.0009104711352847517, -0.018739178776741028, -0.018669141456484795, -0.005155394319444895, 0.015691407024860382, 0.010107222944498062, -0.0008948666509240866], [0.006564029958099127, -0.003517547156661749, 0.00663111824542284, 0.004924319218844175, 0.014763814397156239, 0.004383890889585018, 0.0002368682762607932, 1.6752530427766033e-05, 0.00012213303125463426, 0.00878118071705103, 0.002244000555947423, 0.004161273129284382, 0.01887328177690506, -0.014569927006959915, 0.005815959069877863, 6.848802513559349e-06, 0.002171130385249853], [0.006717524025589228, -0.0037474469281733036, 0.01755392923951149, 0.005592345260083675, 0.017337987199425697, 0.005044194404035807, 0.00022097492183092982, 1.7550904885865748e-05, 0.0023009367287158966, -0.005794204771518707, -0.016227759420871735, 0.005709179677069187, 0.01642671972513199, 0.00468252832069993, 0.00707330321893096, 0.0019345616456121206, -0.01144790556281805], [-0.008754518814384937, 0.010679492726922035, -0.017668170854449272, -0.004510388243943453, -0.0053200749680399895, -0.00550429429858923, -0.0002393044123891741, -1.855992741184309e-05, -0.00043090214603580534, 0.00398723129183054, -0.002408043947070837, -0.015249802730977535, -0.004619197454303503, -0.004142139106988907, -0.005673095118254423, -0.00012885929027106613, -0.008233818225562572], [-0.005902566947042942, 0.0014738884055987, -0.0065627978183329105, -0.018596725538372993, -0.012275401502847672, -0.004253615625202656, -0.00021853111684322357, -2.2469097530120052e-05, -0.009254908189177513, 0.005619131959974766, -0.009370051324367523, -0.013043775223195553, -0.016791146248579025, -0.005187613423913717, -0.006126661319285631, -0.0022700107656419277, -0.0021207614336162806], [0.0022635452914983034, -0.00798796210438013, 5.5098303164413664e-06, 8.750736924412195e-06, 0.026560857892036438, 6.21952858637087e-05, 0.031984444707632065, 0.01815529353916645, 0.015013417229056358, -0.007420409936457872, 0.004499401897192001, 0.02829884923994541, 0.011311832815408707, 0.006237128749489784, 0.010793556459248066, -0.005236100871115923, -0.006515329238027334], [-8.194727706722915e-05, -0.01203925535082817, -4.2924281729028735e-07, -9.433273589820601e-06, -1.846933514570992e-06, -2.3153883375925943e-05, -0.042029812932014465, 0.01403419766575098, -0.019580867141485214, -0.006426412146538496, -0.020939556881785393, -6.2393587541009765e-06, -4.48292348664836e-06, 0.00535593181848526, 0.0012128172675147653, 0.018737711012363434, 0.023330064490437508], [0.006466581951826811, 0.018215931951999664, 0.018853887915611267, 0.008903343230485916, 0.0053103347308933735, 0.007181362248957157, 0.0002595566329546273, 1.874507506727241e-05, 0.001257376279681921, 0.016093643382191658, 0.009936782531440258, 0.014843437820672989, 0.0054860347881913185, -0.0101591432467103, -0.016673143953084946, 0.0013913720613345504, 0.008931751362979412], [-1.2997045814699959e-05, 0.011866413056850433, -1.463333092033281e-06, -5.141514066053787e-06, -1.2236363318152144e-06, -1.0003286661230959e-05, -1.7104463040595874e-05, -0.0005894965725019574, -0.0006356874364428222, 0.004663330968469381, 0.020837794989347458, -1.0459538316354156e-05, -6.509302238555392e-06, 0.012059289962053299, -0.006917618680745363, 0.024432063102722168, -0.0011457981308922172], [-0.008919953368604183, 0.0033603119663894176, -0.01951557770371437, -0.007900848984718323, -0.015287080779671669, -0.009070399217307568, -0.0002886472502723336, -1.4382782865141053e-05, -0.00034587777918204665, 0.008383340202271938, -0.0010327425552532077, -0.012514703907072544, -0.004199037794023752, -0.008690770715475082, -0.008149053901433945, -0.0007649646722711623, -0.0006959966267459095], [-0.008906224742531776, 0.002605223562568426, -0.006275378167629242, -0.009538466110825539, -0.012437546625733376, -0.0069021801464259624, -0.00024015919188968837, -2.3330030671786517e-05, -0.0004364565829746425, -0.008417204022407532, 0.014577757567167282, -0.014623596332967281, -0.017334600910544395, -0.012308282777667046, -0.005840878002345562, -0.00017975961964111775, -0.0021529875230044127], [-0.00922867376357317, 0.008322568610310555, -0.003992313519120216, -0.011773413978517056, -0.01246549841016531, -0.0040242900140583515, -0.00022502581123262644, -1.4729137546964921e-05, -0.005604636389762163, 0.004496794659644365, -0.007578269112855196, -0.009168070740997791, -0.00898461602628231, 0.014582409523427486, 0.01795024983584881, -3.893639132002136e-06, 0.01521497406065464], [-0.00437546381726861, 0.0041268011555075645, -0.003994765691459179, -0.004429950378835201, -0.012542970478534698, -0.004232814535498619, -0.00022884739155415446, -0.0039292932488024235, -4.497606823861133e-06, 0.010068154893815517, -0.004392297938466072, -0.006785734090954065, -0.007936463691294193, 0.010888438671827316, -0.0066971261985599995, -0.006395732052624226, 0.009969327598810196], [-0.010356122627854347, -0.01868588663637638, 5.340723419067217e-07, 3.05933411937076e-07, 6.494748561181041e-08, -9.293147513744771e-07, 0.02005901001393795, -0.05533628165721893, 0.03719188645482063, 0.033894363790750504, -0.11626353859901428, 3.6278254356147954e-07, 5.216269869379175e-07, -0.013985729776322842, 0.025472592562437057, -0.021843617781996727, -0.008694658055901527], [0.009342114441096783, 0.017947817221283913, -1.374202611259534e-06, -9.872287591861095e-07, -7.37524387659505e-05, -0.08449172228574753, -0.019157977774739265, 0.062088970094919205, -0.03745846822857857, -0.03551290184259415, 0.10731931030750275, -0.008716733194887638, -1.9679664546856657e-06, -0.01763441413640976, -0.005073709413409233, 0.024887176230549812, -0.001497350400313735], [0.009122399613261223, 0.02479039505124092, 0.005252752918750048, 0.004194352310150862, 0.013890556059777737, 0.008240717463195324, 0.00015780096873641014, 1.7054124327842146e-05, 0.0021851977799087763, -0.008401766419410706, 0.0026475947815924883, 0.004003934562206268, 0.00743491854518652, -0.01406875904649496, -0.017359187826514244, 0.006227749399840832, 0.0033876164816319942], [7.321292287087999e-06, -0.011776100844144821, 7.696047532590455e-07, 0.00033757422352209687, 0.0002785126562230289, 0.006306403782218695, 1.9394319679122418e-05, -0.01318852324038744, 0.00011056967196054757, -0.0057939025573432446, 0.00011748130054911599, 0.0004306639020796865, 1.5121327123779338e-05, 0.014720351435244083, -0.017116514965891838, -0.004298386629670858, -0.015263088978827], [0.007006774190813303, -0.005456359125673771, 0.02000066637992859, 0.008041207678616047, 0.00948176346719265, 0.005912374705076218, 0.00023057359794620425, 2.744197627180256e-05, 0.009042116813361645, -0.0051357075572013855, 0.002006369410082698, 0.020152941346168518, 0.005777508951723576, 0.008145304396748543, 0.004562592599540949, 0.0012886298354715109, 0.004378000274300575], [-0.004320705309510231, 0.002202823059633374, -0.006597199942916632, -0.01689755916595459, -0.005668829195201397, -0.003998069558292627, -0.00019791135855484754, -1.749892544467002e-05, -0.001212077448144555, 0.004319997038692236, -0.0048865810967981815, -0.016933154314756393, -0.019111819565296173, 0.004865796305239201, -0.0023718748707324266, -0.0015161283081397414, -0.0022784231696277857], [-0.009990064427256584, 0.003065852215513587, -0.008587285876274109, -0.007231391500681639, -0.018972327932715416, -0.004383806139230728, -0.00020614793174900115, -2.1708954591304064e-05, -0.011385037563741207, 0.008699472062289715, -0.0020604131277650595, -0.006366458255797625, -0.02032892219722271, 0.014569810591638088, 0.017811832949519157, -0.0008986605098471045, -0.002598406048491597], [0.007221944630146027, -0.0012382571585476398, 0.020210614427924156, 0.01736820861697197, 0.0168849416077137, 0.007616446819156408, 0.00026567757595330477, 1.7816031686379574e-05, 0.013651278801262379, 0.008958350867033005, 0.006801142357289791, 0.00905094388872385, 0.021641511470079422, 0.009278928861021996, -0.018589194864034653, -0.010145710781216621, 0.002608765847980976], [-1.1856898709083907e-05, 0.0022634309716522694, 1.838303205659031e-06, 5.423770744528156e-06, 1.715051257633604e-05, 0.011818137019872665, -0.10487464815378189, 0.0388982854783535, -0.05855870991945267, -0.01883314736187458, 0.010926911607384682, 0.0003399838460609317, 4.6661941865977496e-08, 0.009318075142800808, -0.009980185888707638, -0.024012213572859764, -0.011912723071873188], [-0.009372183121740818, 0.003058328991755843, -0.0042065721936523914, -0.002283728215843439, -0.015795355662703514, -0.01420233678072691, -0.0014490183675661683, -0.012498308904469013, -0.013784674927592278, 0.0046137068420648575, -0.003298096125945449, -0.018899355083703995, -0.003657924709841609, 0.0026865380350500345, 0.009052615612745285, -0.004331216216087341, 0.006932555232197046], [1.029866439239413e-06, -0.00536952493712306, 3.580603618047462e-07, 4.266572432243265e-06, 0.01020041760057211, 3.3147305202874122e-06, 0.01815789006650448, 0.06041436642408371, 0.004301763605326414, 0.0032942916732281446, 0.0045795380137860775, 0.01473394688218832, 2.2513938802148914e-06, -0.002703437814489007, -0.01205446757376194, -0.016797954216599464, -0.012054829858243465], [-3.943909632653231e-06, 0.014057550579309464, -5.939347147432272e-07, -3.8010582557035377e-06, -0.008338802494108677, -1.2562373740365729e-05, -0.020837148651480675, -0.060038935393095016, -0.006706342101097107, 0.01564747653901577, -0.008449901826679707, -0.005773594137281179, -2.201453980887891e-06, 0.00018463442393112928, -0.011432436294853687, 0.015926582738757133, -0.008567225188016891], [-0.015422158874571323, 0.009518231265246868, -0.0030015790835022926, -0.012723617255687714, -0.007320909295231104, -0.0195483211427927, -0.00023792337742634118, 0.005474655888974667, -0.009957077912986279, -0.008737978525459766, -0.006046078633517027, -0.007024561055004597, -0.0032207733020186424, 0.021080801263451576, -0.0030904889572411776, -0.003838181961327791, -0.000504633819218725], [0.015095377340912819, -0.0030936733819544315, 0.0044020540080964565, 0.014391202479600906, 0.005991664715111256, 0.017523853108286858, 0.0002463270793668926, 2.572806079115253e-05, 0.018544742837548256, 0.00936290342360735, -0.015418797731399536, 0.008562623523175716, 0.004661077167838812, -0.020238349214196205, 0.001953480066731572, 0.0011110535124316812, 0.000316838501021266], [0.008981389924883842, -0.013529614545404911, 0.019417032599449158, 0.021029867231845856, 0.013449333608150482, 0.003973318263888359, 0.00022257094678934664, 1.7302694686804898e-05, 0.0015150418039411306, -0.006086159031838179, 0.0059318337589502335, 0.004296308383345604, 0.00823160633444786, 0.003997331485152245, 0.005830688867717981, 0.004193645901978016, 0.0020789967384189367], [1.1942745913984254e-05, -0.011856152676045895, 3.411512125239824e-06, 0.0001372424594592303, 0.006157837808132172, 0.011055830866098404, 2.5053655917872675e-05, 2.1916986952419393e-05, -0.028290454298257828, -0.008843394927680492, 0.005636743735522032, 0.0025884376373142004, 9.581622725818306e-05, 0.006315973587334156, 0.00866630021482706, -0.015082115307450294, 0.00011961469863308594], [-0.008738492615520954, 0.0024668374098837376, -0.0118822380900383, -0.003896797774359584, -0.015591178089380264, -0.0067854938097298145, -0.00020421776571311057, -2.1135252609383315e-05, -0.002964623039588332, 0.007724453695118427, -0.0016479346668347716, -0.01856296695768833, -0.014043961651623249, -0.0038585655856877565, -0.0034087765961885452, -6.855305400677025e-06, -0.006247590761631727], [0.006007730029523373, -0.006482233293354511, 0.021549925208091736, 0.02149663120508194, 0.016738161444664, 0.003943509887903929, 0.0002370883448747918, 0.0038990990724414587, 0.0006964256172068417, -0.00953059084713459, 0.005916877184063196, 0.019683433696627617, 0.005186494905501604, 0.0032288727816194296, 0.0046569472178816795, 0.005837927106767893, 0.004435515031218529], [-0.007067326456308365, 0.00426492840051651, -0.0014167203335091472, -0.00645780423656106, -0.0056927623227238655, -0.013203847222030163, -0.0001851124397944659, -2.754569868557155e-05, -8.283098395622801e-06, 0.006300091743469238, -0.0060974834486842155, -0.0005458684754557908, -0.0034458618611097336, 0.01113460585474968, -0.005619790405035019, -3.086918695771601e-06, 0.016224289312958717], [-0.007409625221043825, 0.0019746029283851385, -0.005109662190079689, -0.006676000077277422, -0.012433243915438652, -0.007384615018963814, -0.00023513802443630993, 0.0008519805269315839, -0.0014900495298206806, 0.003940069116652012, -0.005555496085435152, -0.014983275905251503, -0.013795717619359493, -0.005670106504112482, 0.01765180192887783, -0.004359128884971142, -0.008795436471700668], [0.006399047560989857, -0.0033136210404336452, 0.004588122945278883, 0.01091049239039421, 0.004064010456204414, 0.006614131852984428, 0.00023899388907011598, 2.5494276997051202e-05, 0.0010485620005056262, 0.009316548705101013, 0.004298750776797533, 0.009625708684325218, 0.015236226841807365, -0.010671780444681644, -0.017865383997559547, 0.002079509664326906, 0.0009024713071994483], [0.00960941705852747, -0.003662208328023553, 0.0053006503731012344, 0.0033406182192265987, 0.012501697055995464, 0.003686924697831273, 0.00019990444707218558, 1.776597127900459e-05, -0.012503547593951225, 0.014804502949118614, 0.0007593015907332301, 0.014802411198616028, 0.011542454361915588, -0.012409428134560585, 0.008786939084529877, 3.1417400805366924e-06, 0.0008750949637033045], [0.007055644411593676, -0.006409666500985622, 0.004437537398189306, 0.006969489622861147, 0.006084328517317772, 0.0038302859757095575, 0.00018292044114787132, 2.429255073366221e-05, 0.01744910143315792, 0.00788612850010395, -0.011854331940412521, 0.012527023442089558, 0.004489786922931671, -0.01776500977575779, 0.009706028737127781, 4.251067821314791e-06, 0.002415351802483201], [-0.013726506382226944, 0.01214984804391861, -0.002729675266891718, -0.005147210787981749, -0.007914544083178043, -0.0093409214168787, -0.00017964358266908675, 0.01596003957092762, -0.009223781526088715, -0.009572485461831093, -0.002783970907330513, -0.007441562134772539, -0.003451639087870717, -0.005076946225017309, 0.015279809944331646, -1.3991009382152697e-06, 0.015499568544328213], [-0.00351534690707922, 0.00560631463304162, -9.427848999621347e-05, -0.0006049328949302435, -0.002778468420729041, -0.004197346046566963, -0.0001343813055427745, -1.9159801013302058e-05, -0.0018127684015780687, 0.0055459351278841496, -0.004592244513332844, -0.004336809739470482, -3.2441701478092e-05, -0.00791233777999878, -0.007989033125340939, 0.011689966544508934, 0.014587000012397766], [-0.009305685758590698, 0.010100127197802067, -0.017062751576304436, -0.012743372470140457, -0.011098706163465977, -0.003388376673683524, -0.00015129738312680274, -1.5790912584634498e-05, -0.0003050983068533242, 0.004886189941316843, -0.004933500662446022, -0.010881886817514896, -0.016504913568496704, -0.003761646104976535, -0.007904130034148693, -0.003404259216040373, 0.009962194599211216], [-0.010195412673056126, 0.0024200384505093098, -0.005716401152312756, -0.005035668145865202, -0.008843682706356049, -0.0066192480735480785, -0.00019624076958280057, -2.221326758444775e-05, -0.0015660366043448448, 0.008216693997383118, -0.008517157286405563, -0.00616112444549799, -0.01738390140235424, -0.005770990625023842, -0.005351005122065544, -0.005989457946270704, -0.010332164354622364], [0.009729751385748386, -0.002466161735355854, 0.01898927427828312, 0.005372266750782728, 0.007142042275518179, 0.004416147246956825, 0.0002640392631292343, 1.8173996068071574e-05, 0.007125156465917826, -0.0033794294577091932, 0.005069754086434841, 0.013427487574517727, 0.018157903105020523, 0.011004400439560413, 0.005206360016018152, 0.0003869128122460097, 0.0026033874601125717], [0.004366450943052769, -0.004398646764457226, 0.0011996629182249308, 0.004001337103545666, 0.008717158809304237, 0.008812221698462963, 0.0001821811165427789, 2.0738658349728212e-05, 0.000979253789409995, -0.006063107401132584, 0.0017721675103530288, 0.010328531265258789, 0.0014586178585886955, 0.0041778190061450005, -0.01660926826298237, 6.332898465188919e-06, -0.010899307206273079], [-0.008992768824100494, 0.0031189704313874245, -0.006464280188083649, -0.019589917734265327, -0.01582413539290428, -0.004830876365303993, -0.00018844011356122792, -0.0011353247100487351, 0.027118684723973274, -0.014304505661129951, -0.005994320381432772, -0.015431752428412437, -0.017299411818385124, -0.008586382493376732, -0.009555086493492126, -0.003987330012023449, -0.009408797137439251], [0.009055192582309246, -0.002513736020773649, 0.018095316365361214, 0.020507801324129105, 0.016155682504177094, 0.011682531796395779, 0.00015338350203819573, 1.702427471172996e-05, 2.2120846551842988e-05, -0.011616647243499756, 0.0030312691815197468, 0.012338490225374699, 0.016448717564344406, 0.004062472376972437, 0.005791795440018177, 0.006172926165163517, 0.0043585835956037045], [0.009294789284467697, -0.0033695988822728395, 0.018694067373871803, 0.019263707101345062, 0.014187979511916637, 0.00789411086589098, 0.00016813125694170594, 0.0038623076397925615, 0.00042656739242374897, -0.0034966282546520233, 0.01011149026453495, 0.012725374661386013, 0.00583587447181344, 0.0053452602587640285, 0.0061444784514606, 0.00015860827988944948, 0.002359390025958419], [0.0064053828828036785, -0.003531338647007942, 0.006586201023310423, 0.015739480033516884, 0.01277847494930029, 0.007703703828155994, 0.0001934357569552958, 1.470919687562855e-05, 0.0002858219959307462, -0.005692587234079838, 0.0024271924048662186, 0.018705351278185844, 0.018888501450419426, 0.01225760392844677, 0.005771453492343426, 0.0010524983517825603, 0.0032622029539197683], [-0.004626057110726833, 0.0015111060347408056, -0.018194064497947693, -0.015234828926622868, -0.011874375864863396, -0.0035067335702478886, -0.00017494319763500243, -1.8579910829430446e-05, -0.0029848581179976463, 0.005521760787814856, -0.006743643898516893, -0.015711205080151558, -0.01746496371924877, -0.0031865984201431274, -0.004912668839097023, -0.0001787105284165591, -0.0007972944295033813], [0.00984099693596363, 0.02139510028064251, 0.014954314567148685, 0.013807393610477448, 0.010661325417459011, 0.0050921253859996796, 0.00015539411106146872, 1.7326618035440333e-05, 0.00033997089485637844, -0.008466200903058052, 0.000820422894321382, 0.009632330387830734, 0.0039042429998517036, 0.008686571381986141, -0.017517689615488052, 0.0032662672456353903, -0.01251546572893858], [0.005725492723286152, -0.012648515403270721, 0.013426020741462708, 0.008171728812158108, 0.013511929661035538, 0.0070921871811151505, 0.00024741413653828204, 0.0038219222333282232, 0.005224079824984074, -0.006878834217786789, 0.004529295954853296, 0.011600632220506668, 0.002893614349886775, 0.0039062267169356346, 0.005865281913429499, 6.825160380685702e-05, 0.001599563634954393], [0.006624217145144939, -0.0024453969672322273, 0.0005207106587477028, 0.012942127883434296, 0.004695153329521418, 0.010007405653595924, 9.100096940528601e-05, 1.9197274014004506e-05, -0.018943045288324356, -0.005420784931629896, -0.021541902795433998, 0.0175222959369421, 0.000412280933232978, 0.004008705727756023, 0.00536901643499732, 4.714167516794987e-06, 0.005582490935921669], [0.006008784286677837, -0.006539591588079929, 0.014755642972886562, 0.01814543455839157, 0.009057017974555492, 0.00506653543561697, 0.000155640285811387, -0.005586209241300821, 0.0005077400128357112, 0.00844128429889679, 0.006157670170068741, 0.013021621853113174, 0.0036199900787323713, 0.004168649669736624, 0.0073350719176232815, 0.002252168720588088, 0.0019767587073147297], [0.045272160321474075, 0.017924100160598755, 0.0017662553582340479, 0.03275338560342789, 0.012610525824129581, 6.6917395997734275e-06, -0.2015753537416458, 0.017700525000691414, 0.032538507133722305, 0.0011157082626596093, -0.033825524151325226, 2.109831939378637e-06, 0.01157207041978836, 0.014830447733402252, -0.007278937380760908, 0.008500798605382442, -0.11964262276887894], [-0.017516089603304863, -0.016150573268532753, -7.1781091719458345e-06, -0.028816446661949158, -0.011008283123373985, -2.592963028291706e-05, 0.29202812910079956, -0.019016338512301445, -0.03859742730855942, 0.019068067893385887, 0.015896819531917572, -1.4742554412805475e-06, -0.008099372498691082, -0.013547664508223534, 0.01343189924955368, -0.000897550315130502, 0.12180275470018387], [0.005255934316664934, -0.004092114977538586, 0.01665525883436203, 0.008148240856826305, 0.004777893889695406, 0.011962506920099258, 0.0002872440963983536, 2.1575120626948774e-05, 0.001989661017432809, -0.005386756733059883, 0.0007626931765116751, 0.0038900505751371384, 0.01793181151151657, 0.004024204798042774, -0.017233850434422493, 0.0031662420369684696, 0.0061752526089549065], [-0.005981230176985264, 0.006039455533027649, -0.005172036122530699, -0.016123535111546516, -0.010437443852424622, -0.008897947147488594, -0.00014117597311269492, -1.6409951058449224e-05, -0.0016340995207428932, 0.00941102858632803, -0.004924252163618803, -0.013861176557838917, -0.013662128709256649, -0.005391824059188366, -0.0057996478863060474, -7.053934496070724e-06, -0.0012078802101314068], [4.472052751225419e-06, 0.0059130508452653885, -2.3142936242948053e-06, -3.838384543541906e-07, -5.635389243252575e-06, -6.8193830884411e-06, -9.833382137003355e-06, 0.020302854478359222, 0.03670041635632515, 0.010370928794145584, -0.009975407272577286, -7.102283234416973e-06, -1.457413191019441e-06, -0.0057575819082558155, -0.007830264046788216, 0.04199976474046707, 0.023790746927261353], [0.00025488558458164334, 0.01693882793188095, -2.995914201164851e-06, -7.651588930457365e-06, -8.290347068395931e-06, -3.334655048092827e-05, 0.09045811742544174, -0.017013944685459137, 0.02315112017095089, 0.01979288086295128, -0.007965278811752796, -7.859001925680786e-06, -3.5982911867904477e-06, -0.019226491451263428, -0.010497082024812698, 0.0332755409181118, 0.009772509336471558], [0.006207685451954603, -0.003863354679197073, 0.017153877764940262, 0.006714630406349897, 0.005269461311399937, 0.0061087841168046, 0.00015450792852789164, 1.5222355614241678e-05, 0.000555950275156647, -0.003922292497009039, 0.0062278928235173225, 0.014996366575360298, 0.016701646149158478, 0.013123145326972008, -0.01732749305665493, 3.0687297112308443e-06, 0.009401862509548664], [-0.006751692853868008, 0.0028148400597274303, -0.004393650684505701, -0.003267066553235054, -0.010395031422376633, -0.006747720763087273, -0.00018468277994543314, -1.6622479961370118e-05, -0.0004693431837949902, -0.008787265978753567, -0.0038784274365752935, -0.014687063172459602, -0.011497095227241516, -0.012656886130571365, -0.00677105039358139, -2.7188712010683957e-06, -0.002104068174958229], [-2.620364466565661e-05, 0.008716681972146034, -7.428602657455485e-06, -0.0005289260880090296, -0.0006676837219856679, -0.010378456674516201, -1.9511180653353222e-05, -1.2278759641048964e-05, -0.002089796122163534, -0.009146731346845627, -0.003159188898280263, -8.519699008502357e-07, -1.985511335078627e-05, -0.003910482861101627, -0.0073531330563127995, 0.013849767856299877, 0.014597977511584759], [-8.0548170444672e-07, 0.0005338327609933913, -7.356485980380967e-07, -2.084792413370451e-06, -0.000825245922897011, -0.060315441340208054, 1.622272247914225e-05, -0.003509573172777891, 0.03251171484589577, 0.006561832502484322, -0.0016237531090155244, -0.0052168830297887325, -2.3338191112998175e-06, 0.008123178035020828, -0.00805305689573288, 0.008077574893832207, -0.0012897382257506251], [1.907107980514411e-05, -0.021324533969163895, -3.3414539757359307e-07, 5.066189601166116e-07, -0.0013045835075899959, -0.037664540112018585, 0.012206663377583027, 0.05179344117641449, 0.056278079748153687, 0.006966450717300177, -0.01223602332174778, -0.012215649709105492, 1.2916355274228408e-07, 0.007985631003975868, -0.0006589888944290578, 0.13158047199249268, -0.026420287787914276], [0.023082146421074867, 0.008421291597187519, 2.0702763947610947e-07, 3.942143393942388e-07, 0.006099555641412735, 0.029255229979753494, 0.03720961511135101, -0.04393443837761879, 0.0046918075531721115, 0.00460312282666564, 0.010850304737687111, 0.01953703910112381, 3.9336626400654495e-07, 0.0062532369047403336, 0.006527941673994064, -0.08129727840423584, 0.018496602773666382], [0.00318808201700449, -0.005627243779599667, 0.0013357943389564753, 0.001167201902717352, 0.004693261347711086, 0.006942810956388712, 8.922901179175824e-05, 2.5668756279628724e-05, -0.03572210669517517, 0.008135627955198288, 0.0013964790850877762, 0.012948141433298588, 0.0007776577258482575, -0.012984494678676128, 0.0064551024697721004, 6.454156391555443e-06, 0.0012760510435327888], [0.010190305300056934, -0.003234873292967677, 0.023748015984892845, 0.007121800910681486, 0.0064091188833117485, 0.006639861036092043, 0.00028237205697223544, 3.348945392644964e-05, 0.0010773390531539917, -0.005632422864437103, 0.007706845179200172, 0.0056456015445292, 0.02477431856095791, 0.008347867988049984, -0.017043160274624825, 0.0043433653190732, 0.0070609101094305515], [0.006031042896211147, -0.007469186093658209, 0.00033417053055018187, 0.0028828117065131664, 0.003749235300347209, 0.0022704999428242445, 0.00024990938254632056, 2.5790508516365662e-05, 0.007992885075509548, -0.002366117900237441, 0.004402900114655495, 0.0022795656695961952, 0.0009290487505495548, 0.00839169230312109, 0.005304629914462566, 0.000962298596277833, -0.011807638220489025], [-0.008613469079136848, 0.007131523452699184, -0.020698213949799538, -0.006963209714740515, -0.009331179782748222, -0.02493152767419815, -0.0003754155768547207, -2.2910404368303716e-05, -0.011271316558122635, 0.003999873995780945, -0.007629592902958393, -0.009035860188305378, -0.022858330979943275, 0.004297642502933741, -0.005877691321074963, -0.0040314896032214165, 0.013957655057311058], [-0.006248893681913614, 0.009321567602455616, -0.010121481493115425, -0.0057389987632632256, -0.011181832291185856, -0.008887939155101776, -0.00014441373059526086, -2.237834269180894e-05, 0.028126012533903122, -0.007921956479549408, -0.007533180061727762, -0.004153359215706587, -0.004599319770932198, -0.006581544876098633, -0.005234697833657265, -4.354242719273316e-06, -0.003266344079747796], [0.009171782992780209, 0.02249518223106861, 0.007421952672302723, 0.016822531819343567, 0.011110211722552776, 0.0061279963701963425, 9.976898581953719e-05, 2.328192385903094e-05, 0.0029179181437939405, -0.011998082511126995, 0.0016260292613878846, 0.003302419325336814, 0.016705069690942764, -0.012642554938793182, 0.0055839745327830315, 0.0025021128822118044, 0.0023325569927692413], [0.006647622678428888, -0.0031447706278413534, 0.01781708002090454, 0.0043033938854932785, 0.015216723084449768, 0.007141198497265577, 0.00022940423514228314, 2.229496749350801e-05, 1.0650068361428566e-05, -0.00967035535722971, 0.010961133986711502, 0.004204475320875645, 0.00423103291541338, 0.0051218001171946526, -0.016796940937638283, 7.244929292937741e-05, 0.0027430946938693523], [-0.006310544442385435, 0.00375607842579484, -0.007000722922384739, -0.0061163329519331455, -0.006145446561276913, -0.004523330368101597, -0.00019635034550447017, -2.3345335648627952e-05, -0.001237939577549696, 0.006027137394994497, -0.003919618669897318, -0.01299162209033966, -0.0013857003068551421, -0.007525478024035692, -0.006207764148712158, -5.295034043228952e-06, 0.013824013993144035], [-0.007658062037080526, 0.0038808565586805344, -0.01697503589093685, -0.006165127735584974, -0.015928562730550766, -0.010531925596296787, -0.00015445613826159388, -2.636313729453832e-05, -0.0026737460866570473, 0.004967510234564543, -0.0032097958028316498, -0.005007845349609852, -0.0061765206046402454, -0.004105600528419018, -0.00872806366533041, -0.0007940781069919467, -0.0011370478896424174], [-0.004210881423205137, 0.0043168505653738976, -0.0071828318759799, -0.0040769753977656364, -0.013537602499127388, -0.010308641940355301, -0.0002198472648160532, -2.660840800672304e-05, -0.0013263024156913161, -0.01937718503177166, -0.0015878785634413362, -0.012116074562072754, -0.016960857436060905, 0.010464523918926716, -0.007196980062872171, -0.0013333961833268404, -0.0060785734094679356], [0.004432808607816696, -0.005534254480153322, 0.017279721796512604, 0.009697021916508675, 0.01853187568485737, 0.0047744885087013245, 0.00019395080744288862, 1.7123007637565024e-05, 0.0012400696286931634, -0.011495503596961498, 0.006887934170663357, 0.007366825360804796, 0.005901787430047989, 0.00801912136375904, 0.00647793198004365, -0.010156145319342613, 0.0038619341794401407], [2.833982762240339e-05, -0.0034457403235137463, 9.83045083557954e-06, 4.331743184593506e-05, 0.004142433870583773, 0.01348668709397316, 2.066263186861761e-05, 2.5501512936898507e-05, 8.661049832880963e-06, -0.009307379834353924, -0.019587963819503784, 0.0016787073109298944, 5.315292946761474e-05, 0.004152527544647455, 0.005115114152431488, 5.868334937986219e-06, 0.0044373576529324055], [0.009555230848491192, -0.010908489115536213, 0.0056814332492649555, 0.00667963083833456, 0.014213541522622108, 0.007101946044713259, 0.0002727429091464728, 1.8064145479002036e-05, 0.0007697041146457195, 0.01421334221959114, -0.02304968610405922, 0.01602017506957054, 0.016570333391427994, -0.014899248257279396, 0.004242805298417807, 6.364208820741624e-05, 0.002003757981583476], [-0.009753669612109661, 0.0038328785449266434, -0.021238012239336967, -0.016039708629250526, -0.013759327121078968, -0.005320354364812374, -0.0001848719548434019, -2.4431044948869385e-05, -0.0019829582888633013, 0.00888051837682724, -0.006895641330629587, -0.007368001155555248, -0.016878146678209305, -0.009079941548407078, -0.004525138530880213, -0.007513232063502073, -0.0007431572885252535], [-0.006519470829516649, 0.006672101095318794, -0.0019063807558268309, -0.006620767526328564, -0.0025737748946994543, -0.004949650261551142, -0.00024534089607186615, -1.8640839698491618e-05, -0.0014286547666415572, 0.0035144046414643526, 0.02017402835190296, -0.00025005979114212096, -0.0010463404469192028, -0.010953658260405064, -0.005365878809243441, -0.0007399070309475064, -0.0019360799342393875], [-0.008166512474417686, 0.007071486208587885, -0.005155526101589203, -0.015978801995515823, -0.013785465620458126, -0.006479724310338497, -0.00024297328491229564, -1.9440010873950087e-05, -0.0064474670216441154, 0.011073247529566288, 0.014853185042738914, -0.011984865181148052, -0.015360310673713684, -0.007491809315979481, -0.005743443034589291, -3.09672918774595e-06, -0.001953085302375257], [0.009256117977201939, -0.005754788406193256, 0.01843082159757614, 0.013859095983207226, 0.00887497328221798, 0.005291367415338755, 0.00019605387933552265, 0.003846006467938423, 0.0036644465290009975, 0.019354643300175667, 0.0015038343844935298, 0.01300949975848198, 0.017015570774674416, 0.0082841906696558, 0.008963915519416332, 0.005575378891080618, 0.002315616700798273], [0.007740633562207222, -0.0016278241528198123, 0.0056944047100842, 0.019030271098017693, 0.014356741681694984, 0.005203248467296362, 0.00017615241813473403, 2.6142124625039287e-05, 0.003593160305172205, -0.006941001862287521, 0.001664763898588717, 0.014591618441045284, 0.004166866187006235, 0.008030262775719166, 0.0056616258807480335, 0.001723231514915824, 0.0021829514298588037], [0.006252367980778217, -0.0017882949905470014, 0.022791609168052673, 0.027300409972667694, 0.01724332384765148, 0.006996602285653353, 0.0001599600218469277, 1.8435079255141318e-05, 0.0038376578595489264, -0.009149044752120972, 0.001928262528963387, 0.006975919008255005, 0.02499324083328247, 0.0035389286931604147, 0.0036530366633087397, 0.0028671983163803816, 0.0028405662160366774], [-0.006944541819393635, 0.003966798074543476, -0.01905655488371849, -0.0060396334156394005, -0.007955912500619888, -0.004360691178590059, -0.0001981249515665695, -2.5819508664426394e-05, -0.007400480564683676, 0.007065506651997566, 0.0060642315074801445, -0.008319787681102753, -0.018400195986032486, -0.005428440868854523, -0.00275631295517087, -0.0005754345329478383, -0.0030806600116193295]], "sigmanet.nn.2.bias": [-0.015277685597538948, 0.04010549560189247, 0.08132240176200867, 0.09834697097539902, -0.041605934500694275, 0.01934964582324028, 0.027858272194862366, 0.018259791657328606, 0.1329948753118515, 0.10444325953722, 0.025344209745526314, 0.0021971045061945915, -0.028298595920205116, -0.07290339469909668, 0.002941877581179142, 0.0803537592291832, -0.08477218449115753, -0.08606967329978943, -0.05284307897090912, -0.05593784153461456, 0.02562633901834488, 0.08790621906518936, 0.11026903241872787, 0.08043792843818665, -0.011152907274663448, 0.0027508835773915052, -0.05234969034790993, 0.005919796880334616, -0.059497587382793427, 0.022584248334169388, -0.005716791842132807, 0.0654483437538147, 0.031229637563228607, 0.02308555133640766, -0.06065434217453003, -0.03644711524248123, 0.05737149715423584, 0.0796894058585167, -0.08212859183549881, -0.00980741810053587, 0.013220373541116714, -0.011420130729675293, 0.028347617015242577, -0.09407639503479004, -0.012916754931211472, 0.011524105444550514, 0.03373247757554054, -0.008406163193285465, 0.07670333981513977, 0.07483943551778793, -0.009235700592398643, -0.08569161593914032, -0.0290241576731205, 0.015487156808376312, 0.00696229375898838, -0.015934985131025314, -0.01649276167154312, -0.085914246737957, -0.0721946433186531, 0.04884793609380722, 0.08226460963487625, 0.037269044667482376, -0.02774156630039215, -0.12609438598155975, -0.014727642759680748, -0.08146841078996658, -0.0037130822893232107, -0.12403243780136108, -0.10181677341461182, 0.02303500473499298, 0.0233293529599905, 0.1055823564529419, 0.03417758643627167, 0.09006062150001526, -0.004162818193435669, -0.07539121061563492, 0.0025908660609275103, 0.0117865651845932, 0.05692613497376442, 0.06026443839073181, 0.01651967130601406, -0.02164171077311039, -0.09232456982135773, -0.005090753547847271, -0.05021294206380844, -0.004712896421551704, 0.019135234877467155, 0.019878920167684555, 0.07110012322664261, 0.11653224378824234, -0.047879621386528015, 0.019113747403025627, 0.4871455132961273, -0.39043909311294556, 0.08424238860607147, 0.06317432224750519, 0.07220245152711868, 0.0004610322357621044, 0.0007681473507545888, 0.04489666968584061, -0.03389991074800491, -0.10475867986679077, -0.016225624829530716, 0.10579885542392731, 0.03757447749376297, 0.02399389259517193, -0.01884342171251774, 0.005453906487673521, -0.006619792897254229, 0.13507862389087677, -0.04744346812367439, 0.06198401749134064, -0.01700313203036785, 0.0016906451201066375, 0.04140222445130348, 0.05056082829833031, 0.054287321865558624, -0.05220765247941017, -0.015116631984710693, -0.01789712719619274, -0.03335542604327202, 0.01939897984266281, 0.011680309660732746, 0.08384516835212708, -0.07151209563016891, -0.012167861685156822, 0.0012463026214390993, 0.13811470568180084], "sigmanet.nn.2.parametrizations.weight.original": [[-0.011323338374495506, 0.0022839352022856474, -0.011017833836376667, 0.00821111723780632, -0.009470168501138687, -0.002385011175647378, -0.004432197660207748, -0.010508264414966106, -0.011016099713742733, 0.012266658246517181, 0.010298340581357479, 0.002420109463855624, -0.014737031422555447, -0.012627179734408855, -0.010109004564583302, -0.009588401764631271, -0.011718415655195713, 0.004640208091586828, -0.002546362578868866, 0.011577078141272068, -0.0024831504561007023, 0.00845695473253727, 0.007943538948893547, -0.00021066624321974814, -0.013039777055382729, 0.006935943383723497, -0.009091271087527275, 0.010541248135268688, -0.012774474918842316, 0.010511476546525955, -0.0019684184808284044, 0.00013510668941307813, -0.007271888665854931, 0.01091730035841465, -0.009635193273425102, -0.008954649791121483, -0.002139831893146038, -0.006981243379414082, -0.0074191284365952015, 0.006261983420699835, -0.002282672328874469, -0.007803706917911768, 0.01098494790494442, 0.012259759940207005, -0.009259859099984169, 0.0062480587512254715, 0.003440285101532936, 0.010482672601938248, -0.00890393741428852, -0.0024740989319980145, -0.010320760309696198, 0.010276585817337036, -0.006549044046550989, 0.012037142179906368, -0.010517807677388191, -0.004174207802861929, -0.010853973217308521, -0.010191420093178749, -0.010960498824715614, 0.0003495453274808824, 0.011578228324651718, 0.013075394555926323, -0.009438029490411282, 0.011972214095294476, -0.011423884890973568, 0.00934675894677639, -0.002712557092308998, 4.0621522202854976e-05, -0.011462154798209667, 0.009276553988456726, -0.01181589812040329, 0.010566545650362968, 0.013795275241136551, 0.008374284952878952, -0.011328717693686485, 0.008465314283967018, -0.011227844282984734, -0.0110085504129529, 0.0024597602896392345, 0.003984879702329636, -0.009966816753149033, 0.010583218187093735, -0.0025805013719946146, -0.011381109245121479, -0.0038619854021817446, 0.0020078427623957396, -0.010912935249507427, 0.010545266792178154, 0.0021758489310741425, 0.002378313336521387, -0.011656318791210651, 0.0019616528879851103, 0.009724272415041924, 0.011897724121809006, 0.008110431022942066, 0.0024574545677751303, -0.005470964126288891, 0.007711184211075306, -0.011025084182620049, 0.010969902388751507, 3.127110539935529e-05, -0.007648342754691839, -0.002880563260987401, 0.0024607486557215452, -0.010956737212836742, -9.253416646970436e-05, -5.257686098047998e-06, 0.008951638825237751, 0.01209892239421606, 0.003297704504802823, -0.010245012119412422, 0.010170293040573597, -0.008044490590691566, 0.010937663726508617, -0.011551850475370884, 0.014978953637182713, -0.012093388475477695, -0.01238180324435234, 0.006868814118206501, 0.010314756073057652, -0.0023926179856061935, 0.010044357739388943, -0.008358625695109367, -0.005707116797566414, 0.008846583776175976, 0.00951156485825777, -0.010776110924780369, 0.002023164415732026], [0.007725982926785946, -0.0025389583315700293, 0.005549815949052572, -0.00794893130660057, 0.009500637650489807, 0.010013416409492493, 0.010903301648795605, 0.0027281674556434155, 0.009502382948994637, -0.009543054737150669, -0.00755724823102355, -0.01121984701603651, 0.011437201872467995, 0.004674323368817568, 0.010185054503381252, 0.010719174519181252, 0.008940626867115498, -0.008993137627840042, 0.00952124409377575, -0.003128069918602705, 0.011146292090415955, -0.008612170815467834, -0.006960442755371332, 0.00020935611973982304, 0.011508498340845108, -0.003111641388386488, 0.011653242632746696, -0.012310542166233063, 0.012534226290881634, -0.010882990434765816, 0.009915519505739212, -0.00037794254603795707, 0.009570329450070858, -0.009525256231427193, 0.011291737668216228, 0.0036786904092878103, 0.010737128555774689, 0.002955206437036395, 0.00962350144982338, -0.012173555791378021, 0.005317545961588621, 0.01020171120762825, -0.011710776947438717, -0.012447837740182877, 0.011898808181285858, -0.004014758858829737, -0.010885714553296566, -0.010544540360569954, 0.00861385092139244, 0.007079726085066795, 0.00824329350143671, -0.010007882490754128, 0.0063003720715641975, -0.011431418359279633, 0.003722516121342778, 0.011469296179711819, 0.012573232874274254, 0.009475943632423878, 0.008249115198850632, -0.0007195756770670414, -0.011214171536266804, -0.010277318768203259, 0.008794034831225872, -0.010734697803854942, 0.011009101755917072, -0.007815740071237087, 0.012519082054495811, 1.2526073987828568e-05, 0.012447388842701912, -0.010077209211885929, 0.006731330417096615, -0.01061814185231924, -0.011322950012981892, -0.010672344826161861, 0.0031513585709035397, -0.010378173552453518, 0.010079418309032917, 0.010122195817530155, -0.010382261127233505, -0.0034985283855348825, 0.0098344711586833, -0.004437557887285948, 0.011387821286916733, 0.008126719854772091, 0.00929533876478672, -0.0024835786316543818, 0.011696023866534233, -0.010909653268754482, -0.00256923190318048, -0.011297224089503288, 0.0028168614953756332, -0.002276233397424221, -0.009351447224617004, -0.002930657472461462, -0.010146228596568108, -0.011482346802949905, 0.01584739238023758, -0.00835313182324171, 0.010513653047382832, -0.011337441392242908, 8.038385203690268e-06, 0.004862645640969276, 0.012514026835560799, -0.009229151532053947, 0.01033753715455532, 0.00018190668197348714, 2.8276876037125476e-05, -0.009997761808335781, -0.004301003180444241, -0.00283797481097281, 0.0034081311896443367, -0.0043342821300029755, 0.01110012549906969, -0.010699180886149406, 0.0034354180097579956, -0.009684228338301182, 0.0029196033719927073, 0.010687153786420822, -0.008108467794954777, -0.010962187312543392, 0.011723808012902737, -0.010816264897584915, 0.009728014469146729, 0.006892309058457613, -0.009195717982947826, -0.005882126744836569, 0.011272676289081573, -0.009908583015203476], [0.006500656250864267, -0.0033657315652817488, 0.014850574545562267, -0.009272169321775436, 0.008148926310241222, 0.011928417719900608, 0.011965504847466946, 0.015615717507898808, 0.01281669456511736, -0.012354525737464428, -0.009442854672670364, -0.006940057966858149, 0.014325128868222237, 0.014561576768755913, 0.01376030221581459, 0.0026732240803539753, 0.014035663567483425, -0.01349713746458292, 0.003078444628044963, -0.012111554853618145, 0.01415723841637373, -0.011627571657299995, -0.011022036895155907, 0.00021301917149685323, 0.009782373905181885, -0.012063680216670036, 0.010390766896307468, -0.01268039271235466, 0.014912404119968414, -0.01213279739022255, 0.006572885904461145, -0.00010635503713274375, 0.014068572781980038, -0.009889067150652409, 0.014760138466954231, 0.013028041459619999, 0.015311663039028645, 0.012906256131827831, 0.014461900107562542, -0.012667528353631496, 0.002378797624260187, 0.0076058609411120415, -0.013858787715435028, -0.003136389423161745, 0.010534745641052723, -0.002751667518168688, -0.011938766576349735, -0.014489485882222652, 0.012845329940319061, 0.01125472504645586, 0.0021521151065826416, -0.011603797785937786, 0.010291284881532192, -0.014448251575231552, 0.00946896057575941, 0.013916784897446632, 0.014010033570230007, 0.012493816204369068, 0.01239800825715065, -0.001234107301570475, -0.01150840800255537, -0.013864102773368359, 0.0027199245523661375, -0.011604081839323044, 0.0030006691813468933, -0.002249966375529766, 0.007657098583877087, -3.2347976230084896e-05, 0.012010893784463406, -0.010930005460977554, 0.013927432708442211, -0.013006341643631458, -0.003353874199092388, -0.0027936368715018034, 0.01168220117688179, -0.013867533765733242, 0.014850703999400139, 0.011765026487410069, -0.012994937598705292, -0.003866409882903099, 0.009944870136678219, -0.011609003879129887, 0.013463091105222702, 0.010870616883039474, 0.0033207694068551064, -0.008893297985196114, 0.0027119535952806473, -0.012976759113371372, -0.0036089199129492044, -0.014516456052660942, 0.010102045722305775, -0.01260379422456026, -0.011547100730240345, -0.013705480843782425, -0.011377835646271706, -0.015319754369556904, 0.0005895858630537987, -0.010676825419068336, 0.012593558989465237, -0.012943770736455917, -3.36481534759514e-05, 3.335955989314243e-05, 0.0035991615150123835, -0.0130764776840806, 0.009739662520587444, 8.282728958874941e-05, 2.9243006792967208e-05, -0.007967120967805386, -0.01061656977981329, -0.012302014976739883, 0.012010527774691582, -0.0052240085788071156, 0.009368566796183586, -0.013708907179534435, 0.0039550503715872765, -0.014039000496268272, 0.012404954060912132, 0.0025774312671273947, -0.008915484882891178, -0.015758467838168144, 0.015026289038360119, -0.014967394061386585, 0.012604785151779652, 0.010998513549566269, -0.012616313062608242, -0.0024341975804418325, 0.0032531889155507088, -0.012270733714103699], [0.008238826878368855, -0.017673270776867867, 0.005489070899784565, -0.008359408006072044, 0.01407175324857235, 0.003293966641649604, 0.016662433743476868, 0.018883153796195984, 0.01619245670735836, -0.015075690113008022, -0.010577455163002014, -0.01685655675828457, 0.017477644607424736, 0.013180979527533054, 0.003444414120167494, 0.014155404642224312, 0.016406910493969917, -0.014938326552510262, 0.015166779048740864, -0.015645598992705345, 0.018149875104427338, -0.014980419538915157, -0.008360461331903934, 0.0002037753292825073, 0.013077665120363235, -0.002811441197991371, 0.011522018350660801, -0.011834497563540936, 0.01476566307246685, -0.003673714119940996, 0.014813200570642948, -0.000117748677439522, 0.016039352864027023, -0.010520587675273418, 0.019234659150242805, 0.0089526092633605, 0.018827112391591072, 0.005111841484904289, 0.015253405086696148, -0.015783505514264107, 0.017512520775198936, 0.014628979377448559, -0.015582201071083546, -0.016591651365160942, 0.0050513241440057755, -0.006685300264507532, -0.007194519974291325, -0.021128082647919655, 0.018152009695768356, 0.015181404538452625, 0.01027756929397583, -0.014361538924276829, 0.007821491919457912, -0.015918156132102013, 0.015014691278338432, 0.017225272953510284, 0.013040762394666672, 0.014177653938531876, 0.0023827520199120045, -0.0007012414280325174, -0.011564160697162151, -0.0023430243600159883, 0.015380026772618294, -0.01117099542170763, 0.018318800255656242, -0.0038113838527351618, 0.015022089704871178, -4.070698196301237e-05, 0.012454619631171227, -0.009591790847480297, 0.015082105062901974, -0.015225258655846119, -0.0035632969811558723, -0.002648084657266736, 0.003705699695274234, -0.0025172552559524775, 0.003313744440674782, 0.004207007586956024, -0.018193788826465607, -0.011861923150718212, 0.004564162343740463, -0.01418029423803091, 0.00900513306260109, 0.010251849889755249, 0.002307968446984887, -0.015706714242696762, 0.016730278730392456, -0.012015387415885925, -0.018418127670884132, -0.018261509016156197, 0.004389429464936256, -0.01927921175956726, -0.01423637941479683, -0.014376014471054077, -0.005021513905376196, -0.016102271154522896, 0.01576324924826622, -0.009094198234379292, 0.0027191415429115295, -0.003178918734192848, -0.0001818803430069238, 0.005162134766578674, 0.004639104939997196, -0.015419511124491692, 0.008393678814172745, 0.00015744942356832325, 5.533830517379101e-06, -0.008803220465779305, -0.0038430471904575825, -0.0029088419396430254, 0.014431842602789402, -0.009817634709179401, 0.007590028457343578, -0.0029130112379789352, 0.014059078879654408, -0.01886967197060585, 0.013451608829200268, 0.0023643344175070524, -0.007606941275298595, -0.017088934779167175, 0.017964854836463928, -0.01590723730623722, 0.016388697549700737, 0.00700298510491848, -0.015909090638160706, -0.014826267026364803, 0.00495187658816576, -0.0156597550958395], [-0.008321656845510006, 0.004655893426388502, -0.004888237453997135, 0.007619542069733143, -0.007596451789140701, -0.009857647120952606, -0.007711511105298996, -0.004607146140187979, -0.009591283276677132, 0.008945217356085777, 0.00787002220749855, 0.008080408908426762, -0.002497907495126128, -0.012387258931994438, -0.005895471666008234, -0.009498760104179382, -0.00935639999806881, 0.009457048028707504, -0.009918688796460629, 0.009550557471811771, -0.005298234056681395, 0.002604300854727626, 0.010435801930725574, -0.0001988457515835762, -0.002286529168486595, 0.009247982874512672, -0.006249940022826195, 0.010465878061950207, -0.00967593677341938, 0.005001999903470278, -0.0021917414851486683, 0.0001145770147559233, -0.008094890974462032, 0.01012542936950922, -0.00999286025762558, -0.010221367701888084, -0.0092347152531147, -0.008647504262626171, -0.009040364064276218, 0.010623243637382984, -0.008241984061896801, -0.00989310909062624, 0.0027630331460386515, 0.009493815712630749, -0.009817298501729965, 0.0025817458517849445, 0.01196735817939043, 0.007991372607648373, -0.009952535852789879, -0.0045019593089818954, -0.007298354059457779, 0.005800709128379822, -0.006268948782235384, 0.0038364953361451626, -0.008041602559387684, -0.0025884623173624277, -0.004066254943609238, -0.004461850039660931, -0.009191513061523438, 0.0034335809759795666, 0.003752312157303095, 0.00900175329297781, -0.009617957286536694, 0.010108394548296928, -0.009499887935817242, 0.0032567146699875593, -0.012189380824565887, 2.6591760615701787e-06, -0.012033551931381226, 0.01154059823602438, -0.009377637878060341, 0.002653176197782159, 0.013342075049877167, 0.00893692672252655, -0.010881070978939533, 0.008400341495871544, -0.009989489801228046, -0.010895686224102974, 0.008151756599545479, 0.010624663904309273, -0.0053178067319095135, 0.00973349530249834, -0.0027755864430218935, -0.009715676307678223, -0.009208000265061855, 0.00822889432311058, -0.009854381904006004, 0.010988956317305565, 0.008595668710768223, 0.0078025516122579575, -0.010582092218101025, 0.008971719071269035, 0.009189744479954243, 0.012083625420928001, 0.008172573521733284, 0.010360636748373508, -0.004191108047962189, 0.007388525642454624, -0.010650021955370903, 0.010560640133917332, 0.00018188920512329787, -0.00019940001948270947, -0.00992703065276146, 0.009278739802539349, -0.005651674699038267, -0.00024104902695398778, -5.019053060095757e-05, 0.009596065618097782, 0.007468504831194878, 0.004356320481747389, -0.010027622804045677, 0.011513934470713139, -0.009344395250082016, 0.010986430570483208, -0.011368008330464363, 0.007853473536670208, -0.01098368689417839, -0.002840223489329219, 0.008253594860434532, 0.007742556277662516, -0.002499654656276107, 0.009473098441958427, -0.009218019433319569, -0.012456538155674934, 0.0028068588580936193, 0.00990648940205574, -0.01087902206927538, 0.010028509423136711], [0.008553674444556236, -0.01290055550634861, 4.27564445999451e-05, -0.007793583441525698, 0.012465529143810272, 0.013385115191340446, 0.013312495313584805, 0.0034372303634881973, 0.012829105369746685, -0.008642961271107197, -0.012266221456229687, -0.006812944542616606, 0.009118432179093361, 0.006738458294421434, 0.012216411530971527, 0.01147086825221777, 0.01290831994265318, -0.012967696413397789, 0.013243639841675758, -0.0030876684468239546, 0.012817524373531342, -0.012617669068276882, -0.0107928067445755, 0.00020732180564664304, 0.002440358977764845, -0.012103728950023651, 0.011559915728867054, -0.014191831462085247, 0.012167703360319138, -0.012060746550559998, 0.002165157115086913, -0.0003900316369254142, 0.012117894366383553, -0.005053119733929634, 0.014539080671966076, 0.013252070173621178, 0.014497797936201096, 0.012145043350756168, 0.013018562458455563, -0.008635482750833035, 0.003604779252782464, 0.01301825512200594, -0.005828469526022673, -0.014599206857383251, 0.012375114485621452, -0.014015283435583115, -0.014094401150941849, -0.013649685308337212, 0.012675214558839798, 0.010976487770676613, 0.009397586807608604, -0.013241005130112171, 0.0059966412372887135, -0.0032176338136196136, 0.0027570296078920364, 0.013786773197352886, 0.013610447756946087, 0.01260248851031065, 0.012400558218359947, -0.0004898706683889031, -0.01035669818520546, -0.01288629975169897, 0.01144795399159193, -0.003091482212767005, 0.01279095746576786, -0.013050930574536324, 0.0032263295724987984, -1.9039871403947473e-05, 0.010460615158081055, -0.005595919210463762, 0.012590860947966576, -0.014036787673830986, -0.00460072373971343, -0.002612955868244171, 0.014014814980328083, -0.012518001720309258, 0.003211998613551259, 0.006777165923267603, -0.0028092418797314167, -0.013373291119933128, 0.011181395500898361, -0.011301122605800629, 0.012542405165731907, 0.01021143700927496, 0.002442629775032401, -0.012533050030469894, 0.01494007371366024, -0.011481810361146927, -0.005686955526471138, -0.014569543302059174, 0.013535412959754467, -0.013195113278925419, -0.012268607504665852, -0.01176092866808176, -0.01111102569848299, -0.013851400464773178, 0.011685557663440704, -0.006891754921525717, 0.00486463587731123, -0.011336187832057476, -3.268669024691917e-05, 0.009807624854147434, 0.013987913727760315, -0.011491925455629826, 0.009003929793834686, 0.00024767618742771447, 1.0141175152966753e-06, -0.009341778233647346, -0.004329260438680649, -0.011093396693468094, 0.012496398761868477, -0.004002413246780634, 0.007881212048232555, -0.013393476605415344, 0.003225489752367139, -0.008121181279420853, 0.01300780475139618, 0.014314387924969196, -0.009900525212287903, -0.010384328663349152, 0.012297756969928741, -0.013510194607079029, 0.013718869537115097, 0.006026448216289282, -0.0028671405743807554, -0.009540456347167492, 0.004800977185368538, -0.004194467794150114], [0.01147712767124176, -0.009540831670165062, 0.014626121148467064, -0.00920818466693163, 0.009459304623305798, 0.01092598494142294, 0.009038925170898438, 0.0027184670325368643, 0.009993202984333038, -0.009640004485845566, -0.008178949356079102, -0.011143935844302177, 0.002724211197346449, 0.010534620843827724, 0.010807077400386333, 0.011498507112264633, 0.00938978511840105, -0.007558188866823912, 0.010906260460615158, -0.011265908367931843, 0.008222166448831558, -0.0025699944235384464, -0.010724618099629879, 0.0002494592044968158, 0.002275780076161027, -0.003298751311376691, 0.0042000580579042435, -0.004478870891034603, 0.01118394173681736, -0.00898049771785736, 0.002216427819803357, -0.0003786797169595957, 0.01048679742962122, -0.007192596327513456, 0.007422943599522114, 0.012767140753567219, 0.009146619588136673, 0.0030976743437349796, 0.005091239232569933, -0.010343671776354313, 0.009738476015627384, 0.010800659656524658, -0.011846544221043587, -0.011374603025615215, 0.002944830572232604, -0.0027984187472611666, -0.011424092575907707, -0.01106059830635786, 0.00950892735272646, 0.009472337551414967, 0.010376068763434887, -0.009578108787536621, 0.00954024214297533, -0.010954558849334717, 0.005335050635039806, 0.009791279211640358, 0.010631161741912365, 0.0109595051035285, 0.009727715514600277, -0.001247485401108861, -0.009601699188351631, -0.010778753086924553, 0.010012584738433361, -0.011370446532964706, 0.011235975660383701, -0.010489658452570438, 0.011237800121307373, -8.634682671981864e-06, 0.005304192658513784, -0.010105953551828861, 0.0028434775304049253, -0.011197132989764214, -0.005295345094054937, -0.00928280595690012, 0.012562724761664867, -0.011479631066322327, 0.010171079076826572, 0.003420800669118762, -0.009464975446462631, -0.0077540213242173195, 0.0037668643053621054, -0.0030146061908453703, 0.008976535871624947, 0.011199148371815681, 0.009427372366189957, -0.002550311852246523, 0.011750309728085995, -0.011076709255576134, -0.01063860859721899, -0.002693040529266, 0.0027441992424428463, -0.0024631470441818237, -0.010802928358316422, -0.00296381744556129, -0.011205899529159069, -0.011693539097905159, 0.007184768095612526, -0.007633224129676819, 0.011902881786227226, -0.0030643304344266653, -2.6292285838280804e-05, 0.006915348581969738, 0.01097630150616169, -0.010100124403834343, 0.009372510015964508, 0.0001160524770966731, 1.3006089147893363e-06, -0.009325334802269936, -0.010906732641160488, -0.010982051491737366, 0.011455431580543518, -0.010597173124551773, 0.011246520094573498, -0.010230966843664646, 0.01144370436668396, -0.009882112964987755, 0.010048208758234978, 0.008179721422493458, -0.009918801486492157, -0.002394834766164422, 0.002639114623889327, -0.002813550643622875, 0.005499241407960653, 0.011614708229899406, -0.00286497944034636, -0.01051220204681158, 0.012359286658465862, -0.009959496557712555], [0.008090047165751457, -0.00331661244854331, 0.004318410065025091, -0.008204014971852303, 0.002621231833472848, 0.011523446068167686, 0.010193441063165665, 0.011183852329850197, 0.01002510730177164, -0.009998181834816933, -0.006058053579181433, -0.00268004322424531, 0.004969925619661808, 0.009992513805627823, 0.011524809524416924, 0.011052749119699001, 0.00993178691715002, -0.0024257416371256113, 0.00298478826880455, -0.010205389000475407, 0.0054221730679273605, -0.003200668143108487, -0.006505141966044903, 0.00027004003641195595, 0.01021549291908741, -0.011630327440798283, 0.004116336349397898, -0.0024670278653502464, 0.0033551284577697515, -0.006260321941226721, 0.007923537865281105, -0.00010119681974174455, 0.00905559305101633, -0.010409075766801834, 0.008909754455089569, 0.012823634780943394, 0.010367955081164837, 0.010874022729694843, 0.002794107422232628, -0.011014866642653942, 0.002198370872065425, 0.008612394332885742, -0.010477585718035698, -0.009690670296549797, 0.012110729701817036, -0.0056894514709711075, -0.012094694189727306, -0.010285565629601479, 0.010455994866788387, 0.009453005157411098, 0.010954232886433601, -0.010290518403053284, 0.007070499937981367, -0.00816764310002327, 0.002652950119227171, 0.011624959297478199, 0.011164339259266853, 0.0032340025063604116, 0.005910108797252178, -0.00043700961396098137, -0.010616488754749298, -0.009915408678352833, 0.011358086951076984, -0.012484032660722733, 0.0026132354978471994, -0.009589482098817825, 0.010928336530923843, -8.569985766371246e-06, 0.009185085073113441, -0.005532941315323114, 0.002656408818438649, -0.008209855295717716, -0.009961194358766079, -0.009593453258275986, 0.0031625779811292887, -0.011454341933131218, 0.002587441122159362, 0.011106347665190697, -0.009430552832782269, -0.0043599242344498634, 0.006695875898003578, -0.009755562990903854, 0.009731662459671497, 0.011181614361703396, 0.008648003451526165, -0.00242131226696074, 0.010184154845774174, -0.004136252216994762, -0.0025191691238433123, -0.004635810386389494, 0.00809063483029604, -0.009757881052792072, -0.004371475428342819, -0.0038710865192115307, -0.010327394120395184, -0.004144298378378153, 0.004193327855318785, -0.010227067396044731, 0.009506664238870144, -0.011393130756914616, -8.068246870607254e-07, 0.004803705029189587, 0.010757872834801674, -0.010268040932714939, 0.007994226180016994, 0.00018112453108187765, 1.3590598427981604e-05, -0.01047376450151205, -0.010479399934411049, -0.008077902719378471, 0.011680287308990955, -0.010854932479560375, 0.011023773811757565, -0.010201910510659218, 0.004739698953926563, -0.009633113630115986, 0.010424320586025715, 0.009738612920045853, -0.0051668365485966206, -0.011740228161215782, 0.010667193681001663, -0.009888850152492523, 0.0025216289795935154, 0.008199004456400871, -0.009535598568618298, -0.009794819168746471, 0.0029196920804679394, -0.010952983051538467], [0.008836603723466396, -0.0209122933447361, 0.008289839141070843, -0.010256031528115273, 0.012463297694921494, 0.004535635467618704, 0.0030252006836235523, 0.019849179312586784, 0.01615792140364647, -0.015298556536436081, -0.010005956515669823, -0.003384862095117569, 0.01866675540804863, 0.013806279748678207, 0.01565295271575451, 0.005858724471181631, 0.0025227093137800694, -0.006458353251218796, 0.006467198487371206, -0.01591111533343792, 0.0032145848963409662, -0.014545037411153316, -0.010563666000962257, 0.000211720573133789, 0.014852101914584637, -0.012616085819900036, 0.004706112202256918, -0.00248512951657176, 0.014691337943077087, -0.011304028332233429, 0.015363870188593864, -0.0005112670478411019, 0.01620221883058548, -0.009838534519076347, 0.020766794681549072, 0.010433877818286419, 0.0022876854054629803, 0.013607352040708065, 0.014333001337945461, -0.014459219761192799, 0.019823400303721428, 0.01614999771118164, -0.006192177068442106, -0.018748397007584572, 0.003879540367051959, -0.015356674790382385, -0.0070041269063949585, -0.009737894870340824, 0.0026418145280331373, 0.01517497655004263, 0.010634785518050194, -0.014134091325104237, 0.008936277590692043, -0.01609477587044239, 0.017543572932481766, 0.01832432672381401, 0.0034054822754114866, 0.003647799137979746, 0.014970967546105385, -0.0008019628585316241, -0.010902980342507362, -0.017062963917851448, 0.014006226323544979, -0.012193667702376842, 0.018075011670589447, -0.014116075821220875, 0.01453695259988308, 2.0039127775817178e-05, 0.01032319851219654, -0.00854894332587719, 0.015006151050329208, -0.0028353603556752205, -0.010215708054602146, -0.014764256775379181, 0.014639193192124367, -0.015527619980275631, 0.017396867275238037, 0.012365244328975677, -0.016723204404115677, -0.01341284904628992, 0.011408563703298569, -0.01469332817941904, 0.0029749013483524323, 0.011451991274952888, 0.002462320029735565, -0.015579610131680965, 0.006544231437146664, -0.012230856344103813, -0.016946570947766304, -0.021050579845905304, 0.014360999688506126, -0.015753719955682755, -0.0024677133187651634, -0.003085156437009573, -0.008069164119660854, -0.01573418825864792, 0.001364453579299152, -0.007716367952525616, 0.014345739968121052, -0.015677889809012413, -0.0001728491042740643, 0.007024161517620087, 0.01388488244265318, -0.015862025320529938, 0.010712765157222748, 0.0001769128575688228, 2.364872671023477e-05, -0.009496229700744152, -0.004584362264722586, -0.013545726425945759, 0.0033771684393286705, -0.008948128670454025, 0.0044778212904930115, -0.015482432208955288, 0.003335516666993499, -0.021717820316553116, 0.014418521896004677, 0.018430061638355255, -0.012347887270152569, -0.01826644130051136, 0.0027193152345716953, -0.0176811832934618, 0.017776919528841972, 0.008300318382680416, -0.013607128523290157, -0.01593904197216034, 0.0023997060488909483, -0.01279166154563427], [0.011808767914772034, -0.0040946779772639275, 0.01356414332985878, -0.019042782485485077, 0.020848076790571213, 0.019790463149547577, 0.004789480473846197, 0.0018314231419935822, 0.0027552947867661715, -0.022385507822036743, -0.00770074175670743, -0.02642962709069252, 0.0019076631870120764, 0.0153946653008461, 0.0172589011490345, 0.02413863129913807, 0.0022955387830734253, -0.007546295411884785, 0.0033392934128642082, -0.0040392340160906315, 0.002669435925781727, -0.024729622527956963, -0.009455433115363121, 0.0002269437100039795, 0.00211606384254992, -0.01589784398674965, 0.008472764864563942, -0.00633673882111907, 0.002476982306689024, -0.004514982458204031, 0.023270998150110245, -0.0006058975122869015, 0.001114053069613874, -0.009639824740588665, 0.0024113317485898733, 0.0026350989937782288, 0.0018145660869777203, 0.004725316539406776, 0.008793679066002369, -0.021624404937028885, 0.0018659494817256927, 0.00529086496680975, -0.0019915648736059666, -0.008872166275978088, 0.0031418544240295887, -0.021068129688501358, -0.017191646620631218, -0.0023111244663596153, 0.0026688892394304276, 0.02017074078321457, 0.008935118094086647, -0.02243473008275032, 0.00809685979038477, -0.002721569500863552, 0.002779316855594516, 0.0015769700985401869, 0.005796853452920914, 0.028336530551314354, 0.021632729098200798, -0.10580727458000183, -0.009733421728014946, -0.02262580208480358, 0.003161214292049408, -0.013361884281039238, 0.004912145901471376, -0.0024994355626404285, 0.002984058577567339, -1.0133224350283854e-05, 0.004553443752229214, -0.00962585024535656, 0.0015975900460034609, -0.0020060352981090546, -0.007724083960056305, -0.006732822395861149, 0.003415980376303196, -0.0026396242901682854, 0.0034127109684050083, 0.012147000059485435, -0.0026628191117197275, -0.0035753706470131874, 0.0050117867067456245, -0.02300085313618183, 0.018100405111908913, 0.007216765079647303, 0.0033976263366639614, -0.024591637775301933, 0.0013167235301807523, -0.0033574579283595085, -0.0018884073942899704, -0.0018931322265416384, 0.025126786902546883, -0.0037353751249611378, -0.022157926112413406, -0.009315178729593754, -0.006609481293708086, -0.005018299445509911, 0.002268051030114293, -0.007458885665982962, 0.0027203273493796587, -0.016073720529675484, 1.1410535080358386e-05, 0.002033824101090431, 0.0038924100808799267, -0.023943129926919937, 0.010998547077178955, 0.00015579647151753306, 2.2710009943693876e-05, -0.008358143270015717, -0.010835029184818268, -0.023143013939261436, 0.0035071976017206907, -0.004226362332701683, 0.009401017799973488, -0.00311023136600852, 0.0032719215378165245, -0.0017276736907660961, 0.021216124296188354, 0.0025353156961500645, -0.007329318206757307, -0.002648774767294526, 0.0026735386345535517, -0.003854739712551236, 0.003633182728663087, 0.009307379834353924, -0.02081472799181938, -0.02305823192000389, 0.02243625745177269, -0.0020313498098403215], [0.00800849124789238, -0.01211215928196907, 0.010723660700023174, -0.007429807912558317, 0.011351062916219234, 0.010939662344753742, 0.011710206978023052, 0.002554828068241477, 0.010160629637539387, -0.005557355936616659, -0.009432699531316757, -0.011570755392313004, 0.0037021262105554342, 0.01403020415455103, 0.0030869946349412203, 0.002512770937755704, 0.012942715547978878, -0.011675762943923473, 0.012625876814126968, -0.012946517206728458, 0.011895806528627872, -0.011243065819144249, -0.006166857201606035, 0.0003613050212152302, 0.011547476053237915, -0.011083333753049374, 0.009669234976172447, -0.013533933088183403, 0.010022789239883423, -0.01007305271923542, 0.010181311517953873, -0.0011791191063821316, 0.011781390756368637, -0.010203656740486622, 0.002611714880913496, 0.012573985382914543, 0.002188605722039938, 0.010526376776397228, 0.01239750999957323, -0.010898259468376637, 0.013284409418702126, 0.011593649163842201, -0.012970688752830029, -0.014334939420223236, 0.003023910103365779, -0.004351422190666199, -0.0043487767688930035, -0.013290147297084332, 0.012061319313943386, 0.003616685513406992, 0.002214447595179081, -0.011279797181487083, 0.01000757236033678, -0.0026751740369945765, 0.013010085560381413, 0.013647017069160938, 0.012312855571508408, 0.010530258528888226, 0.002406706102192402, -0.0010321112349629402, -0.008614440448582172, -0.0042397878132760525, 0.010047517716884613, -0.004677635617554188, 0.013285412453114986, -0.008769985288381577, 0.01316874474287033, 2.0342527932371013e-05, 0.011381917633116245, -0.009395233355462551, 0.013370123691856861, -0.011134393513202667, -0.008183252066373825, -0.012640360742807388, 0.014077765867114067, -0.011772672645747662, 0.013723107054829597, 0.003970361780375242, -0.01247561164200306, -0.011740729212760925, 0.003995249979197979, -0.009806263260543346, 0.010977527126669884, 0.008578862994909286, 0.013170565478503704, -0.002528289332985878, 0.0026746271178126335, -0.01281228382140398, -0.0028253630734980106, -0.013631448149681091, 0.01161237619817257, -0.01122833602130413, -0.010284817777574062, -0.01297976728528738, -0.010600573383271694, -0.012987937778234482, 0.004301151260733604, -0.008509572595357895, 0.011792238801717758, -0.0032726097851991653, -1.6142634194693528e-05, 0.0047315796837210655, 0.013380325399339199, -0.0025424929335713387, 0.009044479578733444, 9.176621824735776e-05, 4.7217158680723514e-06, -0.00939001515507698, -0.012050729244947433, -0.011787435971200466, 0.011012502014636993, -0.003884837031364441, 0.006984074600040913, -0.012614081613719463, 0.0104129109531641, -0.0137254623696208, 0.0037704575806856155, 0.013063573278486729, -0.009437867440283298, -0.014093922451138496, 0.011948427185416222, -0.013254406861960888, 0.01202105637639761, 0.006859011482447386, -0.011450668796896935, -0.011602615006268024, 0.012692568823695183, -0.0023569497279822826], [0.006735172588378191, -0.005836301948875189, 0.005512675736099482, -0.008510513231158257, 0.006871386431157589, 0.006322938948869705, 0.006432404275983572, 0.006432738620787859, 0.008778885938227177, -0.00874525960534811, -0.005675631109625101, -0.002396793570369482, 0.0076786247082054615, 0.01181712094694376, 0.007328407373279333, 0.007095890119671822, 0.001953840022906661, -0.0022722240537405014, 0.008936437778174877, -0.009121623821556568, 0.0024309514556080103, -0.006330539938062429, -0.007539977785199881, 0.00021210589329712093, 0.008802568539977074, -0.00834727380424738, 0.01121899951249361, -0.009258342906832695, 0.008042857050895691, -0.011066054925322533, 0.006588894873857498, -0.000454091583378613, 0.006402870640158653, -0.011199017986655235, 0.0021109082736074924, 0.010606270283460617, 0.006575793027877808, 0.007775701116770506, 0.008235982619225979, -0.00947780255228281, 0.002063671825453639, 0.004389770328998566, -0.00817754678428173, -0.006697648670524359, 0.0025030572433024645, -0.008286715485155582, -0.007168399635702372, -0.0019961076322942972, 0.005588356405496597, 0.0023730306420475245, 0.010318801738321781, -0.003495540702715516, 0.010983750224113464, -0.007404763251543045, 0.008347731083631516, 0.002415537601336837, 0.010751472786068916, 0.002458770526573062, 0.002258263062685728, -0.0005029030726291239, -0.0037235289346426725, -0.002360790967941284, 0.0024310380686074495, -0.002815147629007697, 0.008097570389509201, -0.004746267572045326, 0.010446559637784958, -1.1371410437277518e-05, 0.009332138113677502, -0.008351313881576061, 0.00972635205835104, -0.008797160349786282, -0.003457089187577367, -0.00654289685189724, 0.004628449212759733, -0.005887045059353113, 0.002438588300719857, 0.0031926122028380632, -0.004756174515932798, -0.007976995781064034, 0.010225408710539341, -0.006971555296331644, 0.002514354884624481, 0.007540328893810511, 0.00817870069295168, -0.007283026352524757, 0.006153440568596125, -0.002988297026604414, -0.002270102733746171, -0.0067678033374249935, 0.006004930939525366, -0.006332350894808769, -0.0020471271127462387, -0.010496258735656738, -0.01132802665233612, -0.009261390194296837, 0.004354014527052641, -0.007745787966996431, 0.008614937774837017, -0.002787533216178417, -2.231193138868548e-05, 0.006261135917156935, 0.003180957864969969, -0.00565355783328414, 0.009770656004548073, 0.0009364699944853783, 1.4819775969954208e-05, -0.00927784014493227, -0.01079657580703497, -0.0067321802489459515, 0.0070694731548428535, -0.009824535809457302, 0.0069767190143466, -0.002524299081414938, 0.006212853826582432, -0.005489511415362358, 0.009374371729791164, 0.007329090032726526, -0.008155658841133118, -0.0023646424524486065, 0.007875911891460419, -0.005818207282572985, 0.0065599475055933, 0.009926996193826199, -0.007342343684285879, -0.0031416325364261866, 0.007190413773059845, -0.0055503882467746735], [-0.006105080246925354, 0.010064035654067993, -0.005433141253888607, 0.0016497094184160233, -0.008744480088353157, -0.004247598350048065, -0.010784102603793144, -0.009713010862469673, -0.009952391497790813, 0.005013914313167334, 0.011895239353179932, 0.010987657122313976, -0.010082203894853592, -0.004519387613981962, -0.011689833365380764, -0.009106532670557499, -0.009096923284232616, 0.0027015795931220055, -0.009033029899001122, 0.01076226681470871, -0.00990118458867073, 0.00984035711735487, 0.007504873909056187, -0.00023941807739902288, -0.009819825179874897, 0.009891155175864697, -0.009798722341656685, 0.01048936415463686, -0.011364178732037544, 0.00951289851218462, -0.009679789654910564, 0.000711272528860718, -0.010738487355411053, 0.007264958694577217, -0.010518756695091724, -0.011524169705808163, -0.009534579701721668, -0.0028433729894459248, -0.007627992425113916, 0.0031834810506552458, -0.002278614789247513, -0.01064292248338461, 0.01033414714038372, 0.012045037932693958, -0.0028761001303792, 0.009298074059188366, 0.0028661671094596386, 0.010122248902916908, -0.0025003727059811354, -0.01049561146646738, -0.009921438060700893, 0.003227155189961195, -0.006186631508171558, 0.009975715540349483, -0.0037583319935947657, -0.011445607990026474, -0.01256449893116951, -0.009414701722562313, -0.010336784645915031, 0.00047772563993930817, 0.003807877190411091, 0.0023906310088932514, -0.009536512196063995, 0.003009721403941512, -0.01040617935359478, 0.002181005897000432, -0.011239591054618359, 1.4842165001027752e-05, -0.009636328555643559, 0.009884063154459, -0.0028686008881777525, 0.010713374242186546, 0.00785292312502861, 0.008955328725278378, -0.003539810422807932, 0.0031878205481916666, -0.002715516136959195, -0.012590834870934486, 0.002449622843414545, 0.010918906889855862, -0.010998999699950218, 0.00989074632525444, -0.0027588186785578728, -0.008511340245604515, -0.0024020790588110685, 0.004737946204841137, -0.011097230017185211, 0.010061966255307198, 0.0096549391746521, 0.004956959746778011, -0.00943420734256506, 0.011603930965065956, 0.0030034964438527822, 0.011475720442831516, 0.011324708350002766, 0.011480482295155525, -0.003563468810170889, 0.007771308068186045, -0.006763945799320936, 0.006589794997125864, 2.631095640026615e-06, -0.006904209032654762, -0.002966568572446704, 0.002628304762765765, -0.004367910325527191, -0.00021383562125265598, -1.0530889994697645e-05, 0.011028584092855453, 0.010417493991553783, 0.00860644318163395, -0.003373569343239069, 0.009525247849524021, -0.011011717841029167, 0.008634333498775959, -0.0031907493248581886, 0.009566658176481724, -0.01034453697502613, -0.009497887454926968, 0.00931335799396038, 0.002861838089302182, -0.00935009028762579, 0.0025858827866613865, -0.009415344335138798, -0.011291278526186943, 0.006483599543571472, 0.011111368425190449, -0.00954702589660883, 0.01080456655472517], [-0.00768243195489049, 0.011238965205848217, -0.0048774839378893375, 0.0055182697251439095, -0.009987594559788704, -0.009585238993167877, -0.011559433303773403, -0.0023589159827679396, -0.0018510445952415466, 0.011203992180526257, 0.012127784080803394, 0.010440327227115631, -0.002507289405912161, -0.008410805836319923, -0.008220580406486988, -0.006855977699160576, -0.011899217963218689, 0.01053845789283514, -0.008081155829131603, 0.0029668062925338745, -0.011687134392559528, 0.0023989195469766855, 0.010645115748047829, -0.00027309684082865715, -0.002272398443892598, 0.01012257020920515, -0.008715145289897919, 0.011035526171326637, -0.01030403096228838, 0.009023118764162064, -0.010474960319697857, 0.00042414781637489796, -0.0023392520379275084, 0.009794398210942745, -0.011983481235802174, -0.00915756169706583, -0.013959873467683792, -0.008985474705696106, -0.0026712282560765743, 0.010275456123054028, -0.01048226933926344, -0.011236241087317467, 0.011456787586212158, 0.012999109923839569, -0.01162053644657135, 0.0035079962108284235, 0.012600204907357693, 0.011453441344201565, -0.0029528136365115643, -0.010918974876403809, -0.006511558312922716, 0.010013789869844913, -0.006241150666028261, 0.012375960126519203, -0.013123325072228909, -0.008965788409113884, -0.012000320479273796, -0.0024679629132151604, -0.009284871630370617, 0.0034186861012130976, 0.012056142091751099, 0.011360863223671913, -0.010879158042371273, 0.011335374787449837, -0.0020623744931071997, 0.002031499519944191, -0.011683107353746891, 3.676635606097989e-05, -0.009031175635755062, 0.009500107727944851, -0.00265484512783587, 0.010093927383422852, 0.009875113144516945, 0.010351331904530525, -0.011224784888327122, 0.01291110459715128, -0.0026001236401498318, -0.006464685779064894, 0.009060200303792953, 0.011923262849450111, -0.0110305892303586, 0.010089043527841568, -0.009210956282913685, -0.007591436617076397, -0.013066106475889683, 0.010011059232056141, -0.011608419939875603, 0.011371755972504616, 0.011634502559900284, 0.0023068219888955355, -0.010235519148409367, 0.010642237029969692, 0.009767692536115646, 0.012508026324212551, 0.011394662782549858, 0.01144455000758171, -0.004176763817667961, 0.00876293983310461, -0.0026352780405431986, 0.010010609403252602, -1.1001233360730112e-05, -0.005111170466989279, -0.010701843537390232, 0.011573577299714088, -0.010228507220745087, -0.00015205265663098544, -4.045843070343835e-06, 0.0106122475117445, 0.011505152098834515, 0.002589473035186529, -0.010647415183484554, 0.009941279888153076, -0.010219734162092209, 0.0028092204593122005, -0.009031328372657299, 0.012200397439301014, -0.002753369975835085, -0.012656720355153084, 0.0075998324900865555, 0.0024785541463643312, -0.01198740117251873, 0.01018675696104765, -0.011451668106019497, -0.005876502953469753, 0.005814738571643829, 0.010839071124792099, -0.012231304310262203, 0.009763176552951336], [0.008273975923657417, -0.0025202487595379353, 0.00432745972648263, -0.007706187665462494, 0.006433442700654268, 0.010130372829735279, 0.0023658014833927155, 0.010598068125545979, 0.009719270281493664, -0.010996862314641476, -0.012434043921530247, -0.010719021782279015, 0.01131027564406395, 0.008181193843483925, 0.003959497902542353, 0.010885944589972496, 0.00570419616997242, -0.007469655480235815, 0.009286059066653252, -0.0030595676507800817, 0.010406827554106712, -0.0024359803646802902, -0.007036095019429922, 0.00021106371423229575, 0.012369389645755291, -0.010398320853710175, 0.0061936588026583195, -0.008673015981912613, 0.009340174496173859, -0.009998925030231476, 0.00893312506377697, -0.00038890395080670714, 0.004874203819781542, -0.010173088870942593, 0.003923418931663036, 0.007703758310526609, 0.010097426362335682, 0.010829060338437557, 0.003291684202849865, -0.01057900208979845, 0.0021210890263319016, 0.00866078119724989, -0.009759518317878246, -0.0116724306717515, 0.010366598144173622, -0.010852395556867123, -0.0024663310032337904, -0.008661073632538319, 0.008616529405117035, 0.006496015004813671, 0.010348879732191563, -0.0025920395273715258, 0.006354731507599354, -0.01038558129221201, 0.011495718732476234, 0.009848938323557377, 0.003211439587175846, 0.007890025153756142, 0.010494577698409557, -0.0011636996641755104, -0.01012791320681572, -0.011006851680576801, 0.009799939580261707, -0.0028114935848861933, 0.010492995381355286, -0.007867163978517056, 0.011111367493867874, -9.200204658554867e-06, 0.01068410836160183, -0.005408532451838255, 0.011089595966041088, -0.010297791101038456, -0.0037075320724397898, -0.010931583121418953, 0.010084446519613266, -0.0101461848244071, 0.002712598303332925, 0.0046816496178507805, -0.009565704502165318, -0.008741521276533604, 0.009554008953273296, -0.004108030814677477, 0.00863147247582674, 0.010927935130894184, 0.010356941260397434, -0.0021417890675365925, 0.011319465935230255, -0.011791094206273556, -0.010744748637080193, -0.0024642988573759794, 0.011387302540242672, -0.010209811851382256, -0.008510012179613113, -0.01094820722937584, -0.0038628806360065937, -0.002527789678424597, 0.008920775726437569, -0.008460787124931812, 0.00926388893276453, -0.0030988857615739107, -3.1732295610709116e-05, 0.0060741170309484005, 0.009597696363925934, -0.010759443044662476, 0.006395517848432064, 0.00011445296695455909, 1.2141485058236867e-05, -0.009338553063571453, -0.010509360581636429, -0.008303683251142502, 0.0029492133762687445, -0.006048344075679779, 0.007219949271529913, -0.009903579950332642, 0.0031861793249845505, -0.011498773470520973, 0.009716244414448738, 0.011463845148682594, -0.0086247269064188, -0.005302296951413155, 0.011475225910544395, -0.011060330085456371, 0.010087019763886929, 0.011251999996602535, -0.010777211748063564, -0.01053633727133274, 0.010694206692278385, -0.008481702767312527], [0.0065885321237146854, -0.003637735266238451, 0.004298515152186155, -0.016495894640684128, 0.021441945806145668, 0.0019922258798033, 0.027320945635437965, 0.0027931323274970055, 0.02323041670024395, -0.020215628668665886, -0.007432261016219854, -0.004927279427647591, 0.004529362544417381, 0.011195512488484383, 0.022315384820103645, 0.002571153687313199, 0.0021523311734199524, -0.02697889134287834, 0.02113727107644081, -0.0035278834402561188, 0.015357589349150658, -0.022607214748859406, -0.010732583701610565, 0.0002731866843532771, 0.0023279692977666855, -0.019290655851364136, 0.01155606284737587, -0.012327607721090317, 0.0034081093035638332, -0.009893090464174747, 0.025384260341525078, -0.0007074337918311357, 0.03039315901696682, -0.01075995247811079, 0.0008444382110610604, 0.015026696026325226, 0.0010622860863804817, 0.003483767621219158, 0.0038766516372561455, -0.004616344813257456, 0.01471104845404625, 0.02560473047196865, -0.0009315410861745477, -0.0035377591848373413, 0.003106539836153388, -0.007817646488547325, -0.00281638209708035, -0.008976326324045658, 0.0229143388569355, 0.0009359045070596039, 0.008952991105616093, -0.022351989522576332, 0.009853560477495193, -0.023020684719085693, 0.02329374849796295, 0.018774043768644333, 0.005947160068899393, 0.0021642406936734915, 0.026045531034469604, -0.11890897154808044, -0.009586862288415432, -0.017317095771431923, 0.01867462322115898, -0.0028993887826800346, 0.02299809642136097, -0.007504322566092014, 0.004135562106966972, -2.9696389901801012e-05, 0.009522528387606144, -0.009606856852769852, 0.008902567438781261, -0.027437085285782814, -0.006168852094560862, -0.007164034526795149, 0.0033574749249964952, -0.01402595266699791, 0.02241719700396061, 0.01304603647440672, -0.004095219541341066, -0.002344938460737467, 0.006120016798377037, -0.0031475296709686518, 0.01586795412003994, 0.007921894080936909, 0.0019007778028026223, -0.023442097008228302, 0.018344329670071602, -0.008653157390654087, -0.0006433711387217045, -0.005360754206776619, 0.00270548346452415, -0.024422431364655495, -0.021638119593262672, -0.0030298386700451374, -0.00766564067453146, -0.019610607996582985, 0.0014998279511928558, -0.007214942015707493, 0.016797374933958054, -0.0051169428043067455, 9.545396096655168e-06, 0.009523381479084492, 0.014597628265619278, -0.023774517700076103, 0.009477733634412289, 0.0001585683785378933, 3.6042238207301125e-05, -0.007040787022560835, -0.010707794688642025, -0.0026319813914597034, 0.007293365895748138, -0.007468325085937977, 0.007447798736393452, -0.01943969912827015, 0.005170303862541914, -0.002871817909181118, 0.018842123448848724, 0.026676101610064507, -0.009422910399734974, -0.0008639703737571836, 0.027042310684919357, -0.003422668669372797, 0.0025658716913312674, 0.005723453592509031, -0.02216350845992565, -0.002565661445260048, 0.005461373832076788, -0.015103212557733059], [-0.011522424407303333, 0.010565010830760002, -0.01067171897739172, 0.007593803573399782, -0.007197353057563305, -0.003258440177887678, -0.010248233564198017, -0.010882729664444923, -0.01038777269423008, 0.005212477408349514, 0.0093931769952178, 0.009575782343745232, -0.010715839453041553, -0.01205171924084425, -0.004443976562470198, -0.009489953517913818, -0.010302583687007427, 0.008751604706048965, -0.01104308944195509, 0.009519034996628761, -0.012144994921982288, 0.00945648830384016, 0.005060594528913498, -0.0003205053217243403, -0.0026613823138177395, 0.0032009980641305447, -0.011884618550539017, 0.0024668602272868156, -0.010376720689237118, 0.011702369898557663, -0.009627901948988438, 0.00038377707824110985, -0.008687946014106274, 0.009836327284574509, -0.009787940420210361, -0.012134487740695477, -0.009974210523068905, -0.005030751693993807, -0.010957160033285618, 0.004079866223037243, -0.002676524920389056, -0.011044044978916645, 0.009643112309277058, 0.011717433109879494, -0.0030356126371771097, 0.012253168039023876, 0.010298894718289375, 0.010073991492390633, -0.011135227046906948, -0.009824300184845924, -0.008852598257362843, 0.010155860334634781, -0.010276070795953274, 0.010505965910851955, -0.005655276123434305, -0.002741959411650896, -0.012028824537992477, -0.00257919542491436, -0.010876712389290333, 0.0004009810509160161, 0.010682961903512478, 0.00998081173747778, -0.006923014298081398, 0.003675513667985797, -0.0029292432591319084, 0.0021856112871319056, -0.012703070417046547, 2.0439629224711098e-05, -0.01312494371086359, 0.005604559555649757, -0.012719700112938881, 0.011806991882622242, 0.008761066012084484, 0.008874177001416683, -0.011001373641192913, 0.0024578841403126717, -0.012268830090761185, -0.012740609236061573, 0.002722288016229868, 0.012881901115179062, -0.011429430916905403, 0.008861721493303776, -0.01215107087045908, -0.009815827943384647, -0.009700853377580643, 0.00228143110871315, -0.003029343206435442, 0.012570631690323353, 0.002696503885090351, 0.011195315048098564, -0.009953286498785019, 0.009727129712700844, 0.009915436618030071, 0.010483058169484138, 0.01194764580577612, 0.01187515165656805, -0.011997641995549202, 0.007858782075345516, -0.012465241365134716, 0.010854477994143963, -1.8381097106612287e-05, -0.006974118296056986, -0.012447597458958626, 0.0025866220239549875, -0.01292190421372652, -0.0001484574022470042, -1.2554328350233845e-05, 0.010503341443836689, 0.007680010981857777, 0.00849158689379692, -0.011515391059219837, 0.010864807292819023, -0.01261556800454855, 0.010664050467312336, -0.012548157945275307, 0.009357031434774399, -0.0029984163120388985, -0.009356042370200157, 0.010041620582342148, 0.0025033398997038603, -0.010281064547598362, 0.0033299841452389956, -0.009676001965999603, -0.012027174234390259, 0.004458068870007992, 0.0024251830764114857, -0.011116055771708488, 0.010552634485065937], [-0.0115501768887043, 0.0025690693873912096, -0.010024556890130043, 0.010921410284936428, -0.01106597576290369, -0.008836455643177032, -0.0023330035619437695, -0.012892043218016624, -0.01387011632323265, 0.012911229394376278, 0.010505694895982742, 0.010137844830751419, -0.014031324535608292, -0.011076466180384159, -0.0028906934894621372, -0.00971341971307993, -0.012456243857741356, 0.002455393085256219, -0.011039773933589458, 0.011946238577365875, -0.013550919480621815, 0.009514976292848587, 0.008731978014111519, -0.00028191201272420585, -0.012685900554060936, 0.00976401288062334, -0.010749627836048603, 0.013901208527386189, -0.013773320242762566, 0.0121023403480649, -0.011074108071625233, 0.0002661574981175363, -0.011015974916517735, 0.00509176729246974, -0.012264944612979889, -0.01433474663645029, -0.01368747279047966, -0.011007564142346382, -0.011207540519535542, 0.012062122114002705, -0.013109905645251274, -0.011245233938097954, 0.002346910536289215, 0.0034313590731471777, -0.010248963721096516, 0.0026805598754435778, 0.011424766853451729, 0.01253554131835699, -0.010738957673311234, -0.004025269765406847, -0.009964026510715485, 0.012769481167197227, -0.00784634705632925, 0.013178681023418903, -0.0024272070731967688, -0.003403559559956193, -0.0039099520072340965, -0.011611172929406166, -0.012354925274848938, 0.00033891142811626196, 0.009858661331236362, 0.013000786304473877, -0.010612422600388527, 0.010448566637933254, -0.001946081523783505, 0.010158342309296131, -0.002830062061548233, 2.073036739602685e-05, -0.01082403864711523, 0.009082749485969543, -0.0033926526084542274, 0.002821127651259303, 0.00664881058037281, 0.010996083728969097, -0.01042286679148674, 0.013182973489165306, -0.011330967769026756, -0.012687995098531246, 0.00240768538787961, 0.0040940833278000355, -0.01262355875223875, 0.011465433984994888, -0.009104817174375057, -0.011564101092517376, -0.0023631115909665823, 0.010409739799797535, -0.004708796739578247, 0.007443462032824755, 0.012218606658279896, 0.0024244391825050116, -0.0024536768905818462, 0.002309359610080719, 0.01028076559305191, 0.007529939524829388, 0.01167538482695818, 0.0024563828483223915, -0.0032852257136255503, 0.008114468306303024, -0.012085937894880772, 0.0040115173906087875, 1.0162834769289475e-05, -0.0049482970498502254, -0.002941703423857689, 0.009912112727761269, -0.004259029868990183, -8.0904908827506e-05, 6.812037440795393e-07, 0.010385122150182724, 0.010582861490547657, 0.010320429690182209, -0.002790271770209074, 0.011155235581099987, -0.011270320974290371, 0.009220842272043228, -0.011604131199419498, 0.0020432970486581326, -0.009652620181441307, -0.0021846480667591095, 0.010160479694604874, 0.01165720634162426, -0.010961712338030338, 0.003563188947737217, -0.009817051701247692, -0.005606543272733688, 0.0029132284689694643, 0.010909752920269966, -0.012866683304309845, 0.009284858591854572], [-0.00669030612334609, 0.0025227523874491453, -0.004799783229827881, 0.00793218519538641, -0.009681846015155315, -0.0027753934264183044, -0.0023473051842302084, -0.009277714416384697, -0.009467554278671741, 0.0019531918223947287, 0.010719026438891888, 0.0037124077789485455, -0.0023598824627697468, -0.011923377402126789, -0.003985041752457619, -0.009201833978295326, -0.009585733525454998, 0.011023973114788532, -0.0035890270955860615, 0.009500955231487751, -0.0112185413017869, 0.00809278804808855, 0.006889160256832838, -0.00019488103862386197, -0.010784437879920006, 0.007079610601067543, -0.01206643134355545, 0.012037250213325024, -0.0027907718904316425, 0.011813454329967499, -0.008855086751282215, 0.00025760053540579975, -0.00935048796236515, 0.007024824153631926, -0.0026377220638096333, -0.013607917353510857, -0.009586713276803493, -0.0071823629550635815, -0.012105785310268402, 0.011784085072577, -0.0021178044844418764, -0.0022598954383283854, 0.010433846153318882, 0.0036113993264734745, -0.011561810970306396, 0.010125234723091125, 0.011289732530713081, 0.011045292019844055, -0.0023459193762391806, -0.00910666398704052, -0.0015654509188607335, 0.010606549680233002, -0.005068350117653608, 0.008582868613302708, -0.011140556074678898, -0.011705443263053894, -0.010239156894385815, -0.010443679057061672, -0.0036466943565756083, 0.0012235603062435985, 0.013066230341792107, 0.007194334641098976, -0.01006853673607111, 0.013455879874527454, -0.002589809475466609, 0.009012764319777489, -0.010472274385392666, 4.319598519941792e-05, -0.004318799823522568, 0.009518512524664402, -0.011100482195615768, 0.010854660533368587, 0.004036667291074991, 0.009147819131612778, -0.011820456013083458, 0.012188542634248734, -0.008879929780960083, -0.012145491316914558, 0.009914749301970005, 0.012486166320741177, -0.011828388087451458, 0.009780606254935265, -0.011204693466424942, -0.010977658443152905, -0.0043693468905985355, 0.009245055727660656, -0.009471277706325054, 0.009814837947487831, 0.012518491595983505, 0.004717500414699316, -0.008697612211108208, 0.010888837277889252, 0.009697689674794674, 0.010250631719827652, 0.012122857384383678, 0.010548274032771587, -0.0017053248593583703, 0.010638169012963772, -0.008561518974602222, 0.011953379958868027, -2.3233673346112482e-05, -0.006795403081923723, -0.003033130196854472, 0.009864493273198605, -0.012454085052013397, -0.00012159701873315498, -2.7312449674354866e-05, 0.009397628717124462, 0.011837207712233067, 0.01111137680709362, -0.010407570749521255, 0.011808670125901699, -0.00683997105807066, 0.01115825679153204, -0.013393905013799667, 0.006132969632744789, -0.009578905068337917, -0.002268865704536438, 0.009144280105829239, 0.011654199101030827, -0.0038538887165486813, 0.0041795698925852776, -0.010504226200282574, -0.00566528458148241, 0.009524090215563774, 0.010781295597553253, -0.011498359963297844, 0.006552638951689005], [-0.006453679408878088, 0.006814377848058939, -0.0036524739116430283, 0.007896418683230877, -0.002448086393997073, -0.008133869618177414, -0.006979258731007576, -0.007465070579200983, -0.009442128241062164, 0.0017096830997616053, 0.004524756222963333, 0.005344525910913944, -0.010136556811630726, -0.003023475641384721, -0.007888480089604855, -0.002315488876774907, -0.006487795617431402, 0.007861495949327946, -0.0024986518546938896, 0.0028929568361490965, -0.008294390514492989, 0.008188416250050068, 0.00825550314038992, -0.0002595511614345014, -0.008870814926922321, 0.003153324592858553, -0.009062926284968853, 0.006716362200677395, -0.007199425250291824, 0.008317544125020504, -0.0069634439423680305, 0.0003926827048417181, -0.006534467451274395, 0.009685116820037365, -0.008593355305492878, -0.012681550346314907, -0.009748519398272038, -0.003740684362128377, -0.0023922971449792385, 0.002763299271464348, -0.0068336790427565575, -0.006105450913310051, 0.002394825918599963, 0.008687031455338001, -0.002547626616433263, 0.008582835085690022, 0.010487262159585953, 0.006145424675196409, -0.007926850579679012, -0.0070502860471606255, -0.00910239014774561, 0.008040272630751133, -0.006604350171983242, 0.002404006663709879, -0.007556852884590626, -0.008743615821003914, -0.008669624105095863, -0.002490714658051729, -0.008120382204651833, 0.000613640935625881, 0.0015256797196343541, 0.0022450508549809456, -0.009269730187952518, 0.010639606043696404, -0.008340667933225632, 0.006981901824474335, -0.009923656471073627, 3.0198392778402194e-05, -0.004566448740661144, 0.008633161894977093, -0.0075092012993991375, 0.010549372993409634, 0.004045058973133564, 0.007984266616404057, -0.010704114101827145, 0.010021192021667957, -0.007713946048170328, -0.009713847190141678, 0.0073759532533586025, 0.009287583641707897, -0.00363474665209651, 0.003575221635401249, -0.008212379179894924, -0.007301409263163805, -0.008618602529168129, 0.007860220037400723, -0.002355166943743825, 0.010727954097092152, 0.0038198460824787617, 0.006568290758877993, -0.009065530262887478, 0.002144779544323683, 0.005549286492168903, 0.002822679467499256, 0.011178124696016312, 0.00965731218457222, -0.007113351020962, 0.008596479892730713, -0.002387374173849821, 0.007630638312548399, 9.92505647445796e-06, 2.6044030164484866e-05, -0.010030816309154034, 0.0025304602459073067, -0.004302883520722389, -0.00017946964362636209, -0.00010276036482537165, 0.009693151339888573, 0.01058916561305523, 0.008238756097853184, -0.007928159087896347, 0.011021834798157215, -0.01081317663192749, 0.004294713493436575, -0.010604881681501865, 0.008592094294726849, -0.0040307738818228245, -0.0021732577588409185, 0.007227928843349218, 0.010525809600949287, -0.007717830128967762, 0.006284279748797417, -0.006306029390543699, -0.009319170378148556, 0.00622202455997467, 0.008314491249620914, -0.006582439411431551, 0.006831103004515171], [0.007724362425506115, -0.008644778281450272, 0.011180529370903969, -0.010471138171851635, 0.002605788642540574, 0.012734265066683292, 0.014596878550946712, 0.018953291699290276, 0.01591305062174797, -0.014118474908173084, -0.011787758208811283, -0.015441671945154667, 0.015692854300141335, 0.013891661539673805, 0.01277698390185833, 0.0051604327745735645, 0.021194161847233772, -0.014746244065463543, 0.014184135012328625, -0.014953503385186195, 0.0026570004411041737, -0.013980342075228691, -0.00786777213215828, 0.00019344039901625365, 0.01383876334875822, -0.013300523161888123, 0.008859354071319103, -0.008042775094509125, 0.00949084758758545, -0.010571643710136414, 0.015197843313217163, -0.0007678554975427687, 0.01573433168232441, -0.006811550352722406, 0.0164729543030262, 0.009787836112082005, 0.0021789036691188812, 0.002861067419871688, 0.0073578935116529465, -0.005587420891970396, 0.01719502918422222, 0.014089876785874367, -0.002505803480744362, -0.016915209591388702, 0.012975824996829033, -0.013697958551347256, -0.010225350968539715, -0.0023756634909659624, 0.015569347888231277, 0.012460842728614807, 0.008883762173354626, -0.014473306946456432, 0.006594514008611441, -0.015946073457598686, 0.016213946044445038, 0.0027415785007178783, 0.009526960551738739, 0.0026772944256663322, 0.004147873260080814, -0.0004831692494917661, -0.01101771742105484, -0.01547197438776493, 0.013697930611670017, -0.0029089164454489946, 0.01695752702653408, -0.014552558772265911, 0.01370722334831953, -1.1704227290465496e-05, 0.0044204662553966045, -0.005705710034817457, 0.002834233921021223, -0.014367912895977497, -0.004362262319773436, -0.0021143960766494274, 0.002517078071832657, -0.015399198047816753, 0.0031465499196201563, 0.012741015292704105, -0.0023965141735970974, -0.0033570947125554085, 0.012225345708429813, -0.012545437552034855, 0.013446352444589138, 0.00917099416255951, 0.01833687163889408, -0.01412203535437584, 0.015585036017000675, -0.004260478541254997, -0.015250024385750294, -0.002568501513451338, 0.004335407167673111, -0.011565710417926311, -0.00228642369620502, -0.003033299697563052, -0.011362898163497448, -0.014886773191392422, 0.000546834955457598, -0.008520467206835747, 0.013210389763116837, -0.003060444025322795, 4.0161481592804193e-05, 0.004895714111626148, 0.0028854210395365953, -0.0021656763274222612, 0.008344096131622791, 0.00013190499157644808, 1.3448822755890433e-05, -0.008271250873804092, -0.005240045953541994, -0.013062522746622562, 0.0014802516670897603, -0.003968559671193361, 0.008059809915721416, -0.01299907173961401, 0.0032958174124360085, -0.001995299942791462, 0.0028634038753807545, 0.016256384551525116, -0.010058416984975338, -0.016946030780673027, 0.0020774032454937696, -0.002514210529625416, 0.015980208292603493, 0.005694421008229256, -0.0027027525939047337, -0.014742419123649597, 0.001746242051012814, -0.0028883088380098343], [0.007675808854401112, -0.003463110188022256, 0.010671145282685757, -0.008573110215365887, 0.0026497896760702133, 0.012444405816495419, 0.01469974871724844, 0.02068280056118965, 0.017441606149077415, -0.01641734316945076, -0.006656615994870663, -0.016105642542243004, 0.01960914209485054, 0.013346142135560513, 0.016275852918624878, 0.015211201272904873, 0.017420459538698196, -0.01665235497057438, 0.01743420585989952, -0.01618015766143799, 0.019357820972800255, -0.0025874441489577293, -0.006456304341554642, 0.00026953828637488186, 0.01589749939739704, -0.013750494457781315, 0.010243615135550499, -0.01459574792534113, 0.01688108779489994, -0.005186951253563166, 0.002562253037467599, -0.0002922058047261089, 0.017863240092992783, -0.00931798480451107, 0.0197465717792511, 0.013599048368632793, 0.02056366577744484, 0.01159172784537077, 0.003119499422609806, -0.0031214600894600153, 0.020351912826299667, 0.0033620691392570734, -0.01999201625585556, -0.0026293103583157063, 0.002916045021265745, -0.003283314174041152, -0.014797651208937168, -0.02456081658601761, 0.00981430895626545, 0.015098237432539463, 0.008619929663836956, -0.0026602696161717176, 0.008162638172507286, -0.002476840978488326, 0.01854945719242096, 0.017545638605952263, 0.015164874494075775, 0.012227633036673069, 0.015474267303943634, -0.0006743762642145157, -0.0032127934973686934, -0.01795811578631401, 0.0027762153185904026, -0.01307136844843626, 0.004540515597909689, -0.014076357707381248, 0.014585438184440136, -1.887334838102106e-05, 0.009058411233127117, -0.00986997876316309, 0.0029895566403865814, -0.0028323112055659294, -0.00904033612459898, -0.014036488719284534, 0.014956190250813961, -0.014501500874757767, 0.01839395798742771, 0.011735698208212852, -0.017332352697849274, -0.015120504423975945, 0.01175321452319622, -0.012546857818961143, 0.013543445616960526, 0.009405676275491714, 0.02255360223352909, -0.0022956677712500095, 0.018145637586712837, -0.013049852102994919, -0.01695394515991211, -0.02257978543639183, 0.002865011105313897, -0.015251792035996914, -0.014539173804223537, -0.015144032426178455, -0.011774648912250996, -0.0077518681064248085, 0.013581184670329094, -0.009825890883803368, 0.015707267448306084, -0.016501745209097862, -0.00018644494412001222, 0.00010593326442176476, 0.012796697206795216, -0.002575388178229332, 0.006937001831829548, 0.00023771158885210752, 2.296528009537724e-06, -0.008977407589554787, -0.011553710326552391, -0.01143992692232132, 0.012245692312717438, -0.006437584757804871, 0.010819913819432259, -0.01189984567463398, 0.012225891463458538, -0.022357512265443802, 0.014481684193015099, 0.017870767042040825, -0.006704529747366905, -0.0024697359185665846, 0.018158379942178726, -0.01594550535082817, 0.017509417608380318, 0.008318951353430748, -0.010914494283497334, -0.002439968753606081, 0.0026400554925203323, -0.012411346659064293], [0.011386528611183167, -0.012170684523880482, 0.007418989669531584, -0.008717374876141548, 0.011337311007082462, 0.0028156449552625418, 0.010312875732779503, 0.011218474246561527, 0.0018757442012429237, -0.009294526651501656, -0.008586759679019451, -0.01168831717222929, 0.011173211969435215, 0.0033681404311209917, 0.012655604630708694, 0.010888415388762951, 0.010469095781445503, -0.002585895359516144, 0.011781366541981697, -0.003045551246032119, 0.011461068876087666, -0.01078572403639555, -0.011043681763112545, 0.00027294448227621615, 0.008840993978083134, -0.01104094460606575, 0.01264109555631876, -0.010551664978265762, 0.01279681921005249, -0.010754633694887161, 0.01048789918422699, -0.00012053581303916872, 0.010355610400438309, -0.008513164706528187, 0.010220915079116821, 0.013183556497097015, 0.010589083656668663, 0.009985264390707016, 0.012513102032244205, -0.01087674405425787, 0.010087861679494381, 0.0023418318014591932, -0.011027169413864613, -0.012237383984029293, 0.012138503603637218, -0.002639209618791938, -0.013067602179944515, -0.011072548106312752, 0.011889302171766758, 0.003595310728996992, 0.010380140505731106, -0.002765648765489459, 0.006627378985285759, -0.012029197067022324, 0.011461997404694557, 0.012124774046242237, 0.013432418927550316, 0.00965947937220335, 0.010663012973964214, -0.0006387967150658369, -0.0035491306334733963, -0.00940654706209898, 0.011642351746559143, -0.012258360162377357, 0.010515843518078327, -0.010910519398748875, 0.0038294715341180563, -2.0476552890613675e-05, 0.010971839539706707, -0.008506297133862972, 0.01088041439652443, -0.01029957365244627, -0.007565067149698734, -0.006047195754945278, 0.004380103666335344, -0.010720525868237019, 0.011775752529501915, 0.012340044602751732, -0.010616992600262165, -0.0036999033764004707, 0.005456463899463415, -0.006503835320472717, 0.01224855612963438, 0.010051809251308441, 0.010579182766377926, -0.011406922712922096, 0.009750488214194775, -0.011688850820064545, -0.012683016248047352, -0.01084497757256031, 0.011486335657536983, -0.010364286601543427, -0.002437262563034892, -0.013018962927162647, -0.007002026773989201, -0.0025975441094487906, 0.0007067619590088725, -0.008228044025599957, 0.0027368993032723665, -0.011335362680256367, -6.067911090212874e-05, 0.009645303711295128, 0.013295608572661877, -0.011378654278814793, 0.006823329254984856, 0.000210759331821464, 1.3217655805419781e-06, -0.009355333633720875, -0.004330972675234079, -0.010599372908473015, 0.003099133027717471, -0.010180564597249031, 0.010815151035785675, -0.011758748441934586, 0.0069570583291351795, -0.009447363205254078, 0.01169727835804224, 0.011437048204243183, -0.009437686763703823, -0.011620696634054184, 0.012369207106530666, -0.011874454095959663, 0.00938800536096096, 0.010618014261126518, -0.011770824901759624, -0.011236303485929966, 0.012696896679699421, -0.010310250334441662], [0.011733552441000938, -0.0027468863409012556, 0.0020717522129416466, -0.007836016826331615, 0.010898963548243046, 0.011551165953278542, 0.010536830872297287, 0.010873070918023586, 0.009476820938289165, -0.00950699020177126, -0.010445840656757355, -0.010507937520742416, 0.012276208028197289, 0.003402890870347619, 0.0029766729567199945, 0.0025981117505580187, 0.002209460362792015, -0.0084571847692132, 0.01049935445189476, -0.011844363063573837, 0.010383307933807373, -0.010995234362781048, -0.0056616151705384254, 0.00022235579672269523, 0.004132062196731567, -0.01048286259174347, 0.011242585256695747, -0.012145008891820908, 0.008799592033028603, -0.012131934054195881, 0.009571162983775139, -0.0001239306147908792, 0.0028456125874072313, -0.00714047672227025, 0.01195933111011982, 0.0123369125649333, 0.0023617472033947706, 0.009089765138924122, 0.012238286435604095, -0.0029110382311046124, 0.0033418035600334406, 0.010619278997182846, -0.012200453318655491, -0.005663911812007427, 0.012633107602596283, -0.009924350306391716, -0.013270535506308079, -0.004400626756250858, 0.01038454845547676, 0.011415769346058369, 0.0031607949640601873, -0.009961341507732868, 0.007082205265760422, -0.009999061934649944, 0.005399769637733698, 0.004123712424188852, 0.011544887907803059, 0.010333719663321972, 0.007999418303370476, -0.00027304794639348984, -0.009703200310468674, -0.005623544100672007, 0.010192335583269596, -0.012366666458547115, 0.010430538095533848, -0.009851239621639252, 0.011376828886568546, -6.346137979562627e-06, 0.006583063863217831, -0.01106945239007473, 0.0033464657608419657, -0.006062731146812439, -0.0037235163617879152, -0.011606724932789803, 0.005589438136667013, -0.0024671577848494053, 0.002654200652614236, 0.012044308707118034, -0.00907175149768591, -0.012863610871136189, 0.01044123899191618, -0.01013940665870905, 0.010333645157516003, 0.007318261079490185, 0.01141448225826025, -0.010936135426163673, 0.011768094263970852, -0.011535095982253551, -0.01260081585496664, -0.002788347424939275, 0.010574527084827423, -0.011340927332639694, -0.010698286816477776, -0.010977260768413544, -0.01201330404728651, -0.006487724836915731, 0.005183316767215729, -0.0103824557736516, 0.012329786084592342, -0.010758928023278713, -2.7863688956131227e-05, 0.00977996550500393, 0.01121152751147747, -0.011446473188698292, 0.0043945047073066235, 0.00025595829356461763, 4.5341025725065265e-06, -0.008857141248881817, -0.01055508479475975, -0.011388345621526241, 0.002448924584314227, -0.01126988884061575, 0.0076598189771175385, -0.009627907536923885, 0.012816173024475574, -0.010735547170042992, 0.011055352166295052, 0.011349146254360676, -0.008397241123020649, -0.012587959878146648, 0.006090855225920677, -0.009170956909656525, 0.011495249345898628, 0.0110304681584239, -0.0028139962814748287, -0.0025331436190754175, 0.012182917445898056, -0.012840697541832924], [-0.008174419403076172, 0.007813618518412113, -0.00296547869220376, 0.009921140037477016, -0.002699939999729395, -0.002629124093800783, -0.0082224877551198, -0.00872578751295805, -0.00829334743320942, 0.0086577869951725, 0.011842525564134121, 0.008306662552058697, -0.007262851111590862, -0.008135057054460049, -0.002902882406488061, -0.002580817323178053, -0.007287623360753059, 0.002395973075181246, -0.0026308991946280003, 0.008495439775288105, -0.009726445190608501, 0.007242402993142605, 0.007075696252286434, -0.00020456685160752386, -0.010024674236774445, 0.010315649211406708, -0.004416224081069231, 0.009263531304895878, -0.010769609361886978, 0.006208464037626982, -0.008022408001124859, 0.00013964681420475245, -0.009270651265978813, 0.00998865906149149, -0.00609349412843585, -0.011891099624335766, -0.002383813261985779, -0.007408183068037033, -0.0026248570065945387, 0.008654204197227955, -0.008073963224887848, -0.00938182882964611, 0.002286070492118597, 0.008928311057388783, -0.0027699852362275124, 0.002594752237200737, 0.009855721145868301, 0.002240152098238468, -0.009128928184509277, -0.008575485087931156, -0.008651449345052242, 0.002588958013802767, -0.008649863302707672, 0.008466413244605064, -0.00280616688542068, -0.003577509429305792, -0.009740801528096199, -0.008254572749137878, -0.009182087145745754, 0.00038818983011879027, 0.010943803004920483, 0.010005521588027477, -0.010283724404871464, 0.002313795033842325, -0.00928198266774416, 0.0067457882687449455, -0.009890925139188766, 3.0064589736866765e-05, -0.006315536797046661, 0.00826083030551672, -0.010423154570162296, 0.0027045917231589556, 0.011117597110569477, 0.009879786521196365, -0.009394221007823944, 0.0028076637536287308, -0.002625134075060487, -0.0039017624221742153, 0.006733638234436512, 0.01160565484315157, -0.011085093952715397, 0.007957004010677338, -0.0028283458668738604, -0.010884317569434643, -0.008661176078021526, 0.0041107009164988995, -0.008631613105535507, 0.011503566987812519, 0.009042812511324883, 0.0025625687558203936, -0.009530516341328621, 0.007232522591948509, 0.005816974211484194, 0.003688316559419036, 0.0038621858693659306, 0.010639814659953117, -0.0024597267620265484, 0.007596783339977264, -0.009301404468715191, 0.003060882678255439, 3.482695683487691e-05, -0.002377559896558523, -0.010316257365047932, 0.009562162682414055, -0.008306561969220638, -0.00018065462063532323, -2.140246579074301e-06, 0.0095122205093503, 0.004337888211011887, 0.008132628165185452, -0.010879338718950748, 0.009345093742012978, -0.010882232338190079, 0.010744531638920307, -0.012104754336178303, 0.008183460682630539, -0.010956800542771816, -0.0034588684793561697, 0.007945789955556393, 0.003461915999650955, -0.007328724022954702, 0.01023844163864851, -0.0023329039104282856, -0.012365025468170643, 0.0068375058472156525, 0.009474820457398891, -0.008173327893018723, 0.008012925274670124], [-0.011637496761977673, 0.004843441769480705, -0.0024895663373172283, 0.0030505601316690445, -0.002621315885335207, -0.010844631120562553, -0.010293371044099331, -0.010189480148255825, -0.010985258035361767, 0.011395649053156376, 0.011473316699266434, 0.009906764142215252, -0.013177821412682533, -0.00882287323474884, -0.0029574232175946236, -0.007862485945224762, -0.0029646020848304033, 0.0029133816715329885, -0.012336775660514832, 0.005072781350463629, -0.010988029651343822, 0.011498900130391121, 0.013260841369628906, -0.0002585535985417664, -0.01103963702917099, 0.009962769225239754, -0.010559821501374245, 0.004615232348442078, -0.010437063872814178, 0.010994506999850273, -0.002187143312767148, 0.00045251776464283466, -0.011444276198744774, 0.009494040161371231, -0.002428678562864661, -0.012144217267632484, -0.011177917942404747, -0.0031025416683405638, -0.012039612978696823, 0.011430177837610245, -0.010281288996338844, -0.0025347487535327673, 0.012211786583065987, 0.013423586264252663, -0.0028941140044480562, 0.00268166302703321, 0.012577750720083714, 0.010168815962970257, -0.01123305968940258, -0.009687059558928013, -0.00867038406431675, 0.0027048264164477587, -0.010561149567365646, 0.0026737626176327467, -0.010383445769548416, -0.0026829661801457405, -0.0035525800194591284, -0.008696569129824638, -0.0023327635135501623, 0.002059617778286338, 0.006203519646078348, 0.010993847623467445, -0.01198248378932476, 0.013167021796107292, -0.010615971870720387, 0.007778221741318703, -0.002831335412338376, 3.268977161496878e-05, -0.004373830743134022, 0.0098805520683527, -0.01098865270614624, 0.01218472607433796, 0.008687513880431652, 0.010187451727688313, -0.008319921791553497, 0.002551677171140909, -0.01204307284206152, -0.003373518120497465, 0.0024997396394610405, 0.011652016080915928, -0.004432918969541788, 0.003085827687755227, -0.010349410586059093, -0.00914439745247364, -0.0021789262536913157, 0.009472913108766079, -0.002531010890379548, 0.0029996552038937807, 0.012104770168662071, 0.012262596748769283, -0.010798587463796139, 0.006723138969391584, 0.0022670957259833813, 0.011311457492411137, 0.011030543595552444, 0.00674238707870245, -0.015816232189536095, 0.010065040551126003, -0.010734639130532742, 0.012436622753739357, 0.00010923610534518957, -0.004740895703434944, -0.003447979921475053, 0.0026512311305850744, -0.008702561259269714, -0.00016925061936490238, -4.446989805728663e-06, 0.010639914311468601, 0.0119025195017457, 0.010112310759723186, -0.010664472356438637, 0.010203720070421696, -0.011479269713163376, 0.012316826730966568, -0.0031674217898398638, 0.007328868843615055, -0.011278976686298847, -0.010908407159149647, 0.00836927816271782, 0.0037358461413532495, -0.006413191556930542, 0.0026606968604028225, -0.005661393515765667, -0.0068745119497179985, 0.01057741604745388, 0.009954988025128841, -0.01119878888130188, 0.012069681659340858], [-0.008288302458822727, 0.009645296260714531, -0.00224172486923635, 0.007464805617928505, -0.010544301010668278, -0.0028839907608926296, -0.010004594922065735, -0.010243026539683342, -0.011092647910118103, 0.007957598194479942, 0.010391195304691792, 0.0026831834111362696, -0.011499897576868534, -0.004738351795822382, -0.003141634399071336, -0.0026283373590558767, -0.010377106256783009, 0.009664912708103657, -0.011770661920309067, 0.011877353303134441, -0.010324896313250065, 0.011340674944221973, 0.006544108036905527, -0.0002494648506399244, -0.004433384630829096, 0.012074686586856842, -0.01032982300966978, 0.002496792934834957, -0.012627987191081047, 0.0036809220910072327, -0.008977996185421944, 0.00046992095303721726, -0.01061274018138647, 0.006691026035696268, -0.002299509709700942, -0.011848172172904015, -0.0023382792714983225, -0.010013074614107609, -0.011648708954453468, 0.010351075790822506, -0.011082119308412075, -0.009025429375469685, 0.010901718400418758, 0.004029850009828806, -0.0031929805409163237, 0.006346056703478098, 0.002849749755114317, 0.0107061006128788, -0.009784157387912273, -0.011098220944404602, -0.010287176817655563, 0.009090164676308632, -0.010270180180668831, 0.011460832320153713, -0.010564914904534817, -0.004116497468203306, -0.005661253817379475, -0.009426630102097988, -0.010052334517240524, 0.0004188701859675348, 0.01006726361811161, 0.0023220721632242203, -0.011254685930907726, 0.012745716609060764, -0.011179949156939983, 0.0114370072260499, -0.0037962673231959343, 1.9988261556136422e-05, -0.012248659506440163, 0.010817745700478554, -0.010825997218489647, 0.012286651879549026, 0.01377551443874836, 0.010384022258222103, -0.013158751651644707, 0.011099827475845814, -0.012514178641140461, -0.012933246791362762, 0.009731372818350792, 0.013314743526279926, -0.01034817285835743, 0.009372549131512642, -0.0029196457471698523, -0.009590490721166134, -0.011004497297108173, 0.011060621589422226, -0.002598033519461751, 0.012479053810238838, 0.012232082895934582, 0.012468176893889904, -0.010735848918557167, 0.010681940242648125, 0.007214156445115805, 0.010710830800235271, 0.011892910115420818, 0.0025564664974808693, -0.003540213219821453, 0.006944764871150255, -0.010744188912212849, 0.010064858943223953, 2.8504304282250814e-05, -0.00952122826129198, -0.012197291478514671, 0.011664416640996933, -0.010742179118096828, -0.000242699432419613, -1.482196239521727e-05, 0.008908531628549099, 0.012104744091629982, 0.009263699874281883, -0.011765744537115097, 0.010420629754662514, -0.007980845868587494, 0.01152811385691166, -0.011471077799797058, 0.009243231266736984, -0.003878525458276272, -0.003936301916837692, 0.008413994684815407, 0.011336353607475758, -0.011076262220740318, 0.010548954829573631, -0.010484921745955944, -0.011363629251718521, 0.008614224381744862, 0.009225624613463879, -0.01013142429292202, 0.011612740345299244], [-0.008008717559278011, 0.0026108992751687765, -0.003612198866903782, 0.002977697178721428, -0.012663770467042923, -0.002748410450294614, -0.0118209607899189, -0.012607346288859844, -0.007305974140763283, 0.010878533124923706, 0.01111276913434267, 0.0026757833547890186, -0.002845633076503873, -0.0047500659711658955, -0.003372441977262497, -0.011303633451461792, -0.011596381664276123, 0.0111714918166399, -0.0027482337318360806, 0.003278980730101466, -0.013896378688514233, 0.0024576883297413588, 0.013199777342379093, -0.00019912493007723242, -0.011733394116163254, 0.005740811582654715, -0.0094303572550416, 0.0024270403664559126, -0.0029790529515594244, 0.003524322062730789, -0.010906938463449478, 0.0002874978817999363, -0.01304290909320116, 0.010694527998566628, -0.012748876586556435, -0.01300334744155407, -0.002301954198628664, -0.011089199222624302, -0.01149666402488947, 0.00835772231221199, -0.0035409294068813324, -0.0023907313589006662, 0.014720205217599869, 0.002882719738408923, -0.01341581903398037, 0.002670937217772007, 0.012386657297611237, 0.013030346482992172, -0.002865748479962349, -0.004859698470681906, -0.0015741108218207955, 0.0026707870420068502, -0.01094869989901781, 0.009492847137153149, -0.002748772967606783, -0.013939079828560352, -0.003271346213296056, -0.009799838066101074, -0.002574288286268711, 0.0018968073418363929, 0.008903881534934044, 0.01291524525731802, -0.011520653031766415, 0.0048971171490848064, -0.004156698938459158, 0.011939321644604206, -0.01154631283134222, 4.064044696860947e-05, -0.010271096602082253, 0.00950772874057293, -0.004715303424745798, 0.002789520425722003, 0.011644728481769562, 0.010621433146297932, -0.013034052215516567, 0.007234415039420128, -0.012963668443262577, -0.012649855576455593, 0.011038608849048615, 0.01041820365935564, -0.011225222609937191, 0.009893770329654217, -0.010920358821749687, -0.0083305723965168, -0.013304398395121098, 0.01073040533810854, -0.01173240877687931, 0.0031263036653399467, 0.014224053360521793, 0.0033826197031885386, -0.0025046328082680702, 0.01290289219468832, 0.010468604043126106, 0.012922725640237331, 0.004690682049840689, 0.0118363406509161, -0.004078710451722145, 0.009451360441744328, -0.009613907895982265, 0.013101513497531414, 1.8884705923483125e-06, -0.001552498433738947, -0.012467680498957634, 0.010652225464582443, -0.011400023475289345, -0.00018157709564547986, -3.1785477858647937e-06, 0.010543353855609894, 0.010897158645093441, 0.004692868795245886, -0.0033756454940885305, 0.011234082281589508, -0.00825635064393282, 0.011262920685112476, -0.011381271295249462, 0.013206505216658115, -0.003804696025326848, -0.00233092182315886, 0.007867836393415928, 0.010161123238503933, -0.0025115087628364563, 0.012361118569970131, -0.0025424985215067863, -0.0056509533897042274, 0.012283903546631336, 0.012074005790054798, -0.0022728191688656807, 0.00397895323112607], [-0.011921113356947899, 0.009391319938004017, -0.0021753176115453243, 0.009151840582489967, -0.011793578043580055, -0.011788993142545223, -0.013290583156049252, -0.016496313735842705, -0.013041927479207516, 0.013793354853987694, 0.010572033934295177, 0.014534366317093372, -0.0025931987911462784, -0.0050825150683522224, -0.012669244781136513, -0.013445097953081131, -0.0023605464957654476, 0.002479514805600047, -0.01390261109918356, 0.013543108478188515, -0.002793234074488282, 0.0035559586249291897, 0.008751426823437214, -0.0001613160566193983, -0.01029424648731947, 0.01269258838146925, -0.009749815799295902, 0.002864127280190587, -0.014726164750754833, 0.012646428309381008, -0.01056889072060585, 0.0002668973174877465, -0.0024639370385557413, 0.009885112755000591, -0.014993949793279171, -0.009845451451838017, -0.002422485500574112, -0.011957383714616299, -0.01280125230550766, 0.0043804338201880455, -0.01549271959811449, -0.013291909359395504, 0.015155673958361149, 0.016297224909067154, -0.014286601915955544, 0.014183749444782734, 0.013698266819119453, 0.015535966493189335, -0.013641156256198883, -0.011465729214251041, -0.001634812681004405, 0.013148356229066849, -0.00801199208945036, 0.013468162156641483, -0.002820871537551284, -0.004053071141242981, -0.013229838572442532, -0.013169513083994389, -0.014323139563202858, 0.00039899058174341917, 0.003671813290566206, 0.0025741213466972113, -0.012801741249859333, 0.0031632252503186464, -0.002391526009887457, 0.013782546855509281, -0.0029529116582125425, 1.1926408660656307e-05, -0.011898706667125225, 0.009474212303757668, -0.01333517674356699, 0.014245058409869671, 0.003409015014767647, 0.014055944979190826, -0.014188532717525959, 0.0024570361711084843, -0.013981852680444717, -0.012003568932414055, 0.002648551482707262, 0.013314268551766872, -0.003998070955276489, 0.012602491304278374, -0.011686195619404316, -0.009677772410213947, -0.015539063140749931, 0.013993971981108189, -0.014881785027682781, 0.003149662632495165, 0.015813523903489113, 0.015053974464535713, -0.0027440031990408897, 0.007045448292046785, 0.013828856870532036, 0.0030895585659891367, 0.01136794313788414, 0.01532275415956974, -0.0008383309468626976, 0.008676756173372269, -0.0125651303678751, 0.0031487038359045982, 2.5765815735212527e-05, -0.006428994704037905, -0.012366862036287785, 0.0027552959509193897, -0.010477098636329174, -0.00017047672008629888, -2.913189382525161e-05, 0.007947823964059353, 0.005212107673287392, 0.002629833063110709, -0.013721205294132233, 0.0037991513963788748, -0.007867674343287945, 0.012182862497866154, -0.0033139996230602264, 0.001961300615221262, -0.0141960633918643, -0.015246642753481865, 0.008216324262320995, 0.01409060973674059, -0.014243923127651215, 0.014739681035280228, -0.01440504938364029, -0.008701964281499386, 0.01340879313647747, 0.013108231127262115, -0.016236523166298866, 0.010326812975108624], [0.012158490717411041, -0.004780301824212074, 0.01460245717316866, -0.00756561104208231, 0.009605731815099716, 0.002687636064365506, 0.00986868143081665, 0.0023885532282292843, 0.009909208863973618, -0.011159081012010574, -0.01057073287665844, -0.01007069181650877, 0.002562856301665306, 0.008754046633839607, 0.010037246160209179, 0.002872046548873186, 0.009906974621117115, -0.0029065455310046673, 0.010142643004655838, -0.012718291953206062, 0.010433521121740341, -0.010296404361724854, -0.01337732095271349, 0.0001972386526176706, 0.0024025049060583115, -0.010401158593595028, 0.010845773853361607, -0.011269678361713886, 0.010639611631631851, -0.009806291200220585, 0.0021481404546648264, -0.00026557306409813464, 0.009835892356932163, -0.011243610642850399, 0.010850815102458, 0.012001288123428822, 0.011084622703492641, 0.00906333513557911, 0.005107378587126732, -0.0031858019065111876, 0.011585491709411144, 0.010594905354082584, -0.002361224964261055, -0.003724338486790657, 0.012655280530452728, -0.0026522576808929443, -0.01273514423519373, -0.011822246946394444, 0.002793053863570094, 0.011124791577458382, 0.007809893228113651, -0.009338336996734142, 0.006505214609205723, -0.011115762405097485, 0.011253385804593563, 0.01282538753002882, 0.01064281165599823, 0.002617730526253581, 0.011699507012963295, -0.00038591810152865946, -0.0038275972474366426, -0.010861674323678017, 0.011142605915665627, -0.01228273380547762, 0.011810009367763996, -0.009987900964915752, 0.010721206665039062, -2.5905408620019443e-05, 0.004269453231245279, -0.0095088304951787, 0.006818966008722782, -0.011463130824267864, -0.0037583785597234964, -0.009167452342808247, 0.009917153045535088, -0.012547368183732033, 0.002854384947568178, 0.008506081067025661, -0.003559466451406479, -0.012380897998809814, 0.011329133063554764, -0.0029646563343703747, 0.010597346350550652, 0.007166633382439613, 0.010074850171804428, -0.010356252081692219, 0.010766140185296535, -0.01036395225673914, -0.0028706465382128954, -0.010342991910874844, 0.010184457525610924, -0.0039630476385355, -0.010841157287359238, -0.010266262106597424, -0.004595780745148659, -0.002610781928524375, 0.0021908541675657034, -0.009775129146873951, 0.010977650061249733, -0.012334457598626614, -2.8627822757698596e-05, 0.005540445912629366, 0.010926221497356892, -0.009569885209202766, 0.004391101188957691, 0.0001825430226745084, 2.9484130209311843e-05, -0.007964412681758404, -0.0109017975628376, -0.010478973388671875, 0.011049889028072357, -0.009472268633544445, 0.006869792938232422, -0.00908813625574112, 0.010526267811655998, -0.010574598796665668, 0.011840946972370148, 0.0023843098897486925, -0.009839888662099838, -0.010940209962427616, 0.003006408456712961, -0.01153283379971981, 0.0025650877505540848, 0.009541498497128487, -0.0026715153362601995, -0.011320219375193119, 0.002268550917506218, -0.010664980858564377], [-0.006078938953578472, 0.00860915519297123, -0.004476977977901697, 0.008978207595646381, -0.010312101803719997, -0.009103448130190372, -0.005082788411527872, -0.007566382177174091, -0.007862422615289688, 0.009144981391727924, 0.005807399284094572, 0.009642989374697208, -0.0086018992587924, -0.007879901677370071, -0.003282740944996476, -0.00832383893430233, -0.007429921999573708, 0.007916300557553768, -0.010478566400706768, 0.010115489363670349, -0.0025920276530086994, 0.008571437560021877, 0.005536014214158058, -0.0003402916481718421, -0.008986426517367363, 0.009424617514014244, -0.011620400473475456, 0.010852201841771603, -0.009522411040961742, 0.010233082808554173, -0.0019859003368765116, 7.961246592458338e-05, -0.009002184495329857, 0.007313880603760481, -0.003058971371501684, -0.005034914705902338, -0.009313294664025307, -0.008502347394824028, -0.010924643836915493, 0.008823283016681671, -0.00915693398565054, -0.002821682021021843, 0.010956382378935814, 0.0023554833605885506, -0.010287085548043251, 0.007357926573604345, 0.0027759005315601826, 0.009519829414784908, -0.009696518070995808, -0.009319772943854332, -0.010194585658609867, 0.00861982349306345, -0.010290566831827164, 0.0027742371894419193, -0.0027701021172106266, -0.005884003825485706, -0.00851454958319664, -0.0025164850521832705, -0.008027506992220879, 0.0004344963235780597, 0.0031626445706933737, 0.008310708217322826, -0.010186922736465931, 0.010448949411511421, -0.009144735522568226, 0.003020338248461485, -0.010899215005338192, -2.036705336649902e-05, -0.01154263410717249, 0.007344940677285194, -0.009607670828700066, 0.0025597517378628254, 0.010359269566833973, 0.009038501419126987, -0.0121958302333951, 0.002561391331255436, -0.009624737314879894, -0.009001413360238075, 0.009404433891177177, 0.00950253289192915, -0.006297362502664328, 0.0039630853570997715, -0.009238126687705517, -0.009860105812549591, -0.009834526106715202, 0.008213329128921032, -0.008193356916308403, 0.010890357196331024, 0.0025645331479609013, 0.007683041971176863, -0.008425227366387844, 0.008981311693787575, 0.007878907956182957, 0.0030871881172060966, 0.011710228398442268, 0.002521340735256672, -0.0016253048088401556, 0.008743491023778915, -0.009431621991097927, 0.006206329446285963, 2.9392717806331348e-06, -0.0047427075915038586, -0.010087409988045692, 0.00935134943574667, -0.008639722131192684, -0.00015021911531221122, -1.3343431419343688e-05, 0.009911506436765194, 0.0063516139052808285, 0.006420628633350134, -0.003903333330526948, 0.008651884272694588, -0.007676512002944946, 0.005753570701926947, -0.00988242868334055, 0.007669324055314064, -0.010749640874564648, -0.009646548889577389, 0.01010153628885746, 0.008229351602494717, -0.0037957418244332075, 0.009008456952869892, -0.008889254182577133, -0.01124152634292841, 0.0059281992726027966, 0.00926149170845747, -0.0021394132636487484, 0.009089915081858635], [0.008127525448799133, -0.0024997370783239603, 0.014423699118196964, -0.007880178280174732, 0.023376047611236572, 0.018188215792179108, 0.02708023227751255, 0.0035998148377984762, 0.0019619048107415438, -0.02133459784090519, -0.007837289944291115, -0.0028468486852943897, 0.001084101153537631, 0.013877267017960548, 0.020012404769659042, 0.019378935918211937, 0.001863113953731954, -0.03092707321047783, 0.006186072248965502, -0.023434607312083244, 0.002768594538792968, -0.02610081061720848, -0.005830050446093082, 0.00020021983073092997, 0.0026422436349093914, -0.014885012991726398, 0.00789862871170044, -0.014481764286756516, 0.00654574716463685, -0.0076816389337182045, 0.028568357229232788, -0.0007460169726982713, 0.027061080560088158, -0.010492970235645771, 0.0009758303640410304, 0.007288970518857241, 0.003215131815522909, 0.022358428686857224, 0.003126028925180435, -0.0030861867126077414, 0.018929390236735344, 0.0267831701785326, -0.003527600783854723, -0.003320150077342987, 0.003145203460007906, -0.021222224459052086, -0.0027489433996379375, -0.002500208793208003, 0.002712642541155219, 0.0036385245621204376, 0.008807635866105556, -0.026469074189662933, 0.010393181815743446, -0.01995737850666046, 0.019332854077219963, 0.0062509928829967976, 0.005336802452802658, 0.0026221079751849174, 0.024776237085461617, -0.16363073885440826, -0.01072681788355112, -0.002722651930525899, 0.019317414611577988, -0.003047664649784565, 0.019177870824933052, -0.02233404479920864, 0.012428116984665394, -4.058992271893658e-05, 0.009403648786246777, -0.011424713768064976, 0.0027254780288785696, -0.01827315241098404, -0.003109338693320751, -0.013026553206145763, 0.0033564779441803694, -0.017797471955418587, 0.002808295888826251, 0.00874998513609171, -0.0008766489918343723, -0.006506252568215132, 0.0038612033240497112, -0.020924393087625504, 0.017322475090622902, 0.00886184349656105, 0.003357197158038616, -0.025263730436563492, 0.003016567789018154, -0.01145777478814125, -0.015294737182557583, -0.00296227540820837, 0.002685458865016699, -0.030829617753624916, -0.023179199546575546, -0.00601346418261528, -0.003913256339728832, -0.015095015056431293, 0.0007805171771906316, -0.006528744474053383, 0.0026978538371622562, -0.024384278804063797, -0.0001455845485907048, 0.0012397352838888764, 0.013996044173836708, -0.01451792474836111, 0.004691653419286013, 0.00028998489142395556, 2.2549880668520927e-05, -0.008034544996917248, -0.00530832726508379, -0.02500591054558754, 0.016206685453653336, -0.005905186291784048, 0.009158060885965824, -0.019586220383644104, 0.012190177105367184, -0.00204454199410975, 0.0193654652684927, 0.02207481674849987, -0.005431953817605972, -0.000905344495549798, 0.02743559703230858, -0.02225288189947605, 0.0061372253112494946, 0.009331464767456055, -0.025841480121016502, -0.029601197689771652, 0.026338430121541023, -0.0024990008678287268], [0.011770233511924744, -0.010147955268621445, 0.011460494250059128, -0.0034229487646371126, 0.009491140954196453, 0.010230154730379581, 0.00994125660508871, 0.005247007589787245, 0.004178473260253668, -0.009210671298205853, -0.010427047498524189, -0.009716825559735298, 0.01108606904745102, 0.0033979432191699743, 0.009489979594945908, 0.002645285101607442, 0.008726148866117, -0.009311440400779247, 0.0030797934159636497, -0.003039757953956723, 0.0026122916024178267, -0.008915009908378124, -0.008728875778615475, 0.0001982292451430112, 0.0108043123036623, -0.0027681102510541677, 0.010353690944612026, -0.010636057704687119, 0.011065703816711903, -0.01090152282267809, 0.002168905921280384, -0.0006045547779649496, 0.002999188145622611, -0.009398134425282478, 0.00927114300429821, 0.012270603328943253, 0.011064667254686356, 0.002893574768677354, 0.010436641983687878, -0.011493879370391369, 0.010151693597435951, 0.010702056810259819, -0.010507187806069851, -0.008694282732903957, 0.009518432430922985, -0.010664277710020542, -0.002657485892996192, -0.010676044970750809, 0.008469801396131516, 0.009483885951340199, 0.00885540060698986, -0.002948105800896883, 0.010071898810565472, -0.010747930034995079, 0.010186001658439636, 0.010144240222871304, 0.012578342109918594, 0.0021278790663927794, 0.010184591636061668, -0.00046731557813473046, -0.004797131288796663, -0.009613797068595886, 0.009693809784948826, -0.009655261412262917, 0.01073029637336731, -0.003440373344346881, 0.01146760769188404, -1.838480784499552e-05, 0.004316092934459448, -0.008555995300412178, 0.011482039466500282, -0.002738605486229062, -0.011251378804445267, -0.002721430966630578, 0.011208049952983856, -0.0113162100315094, 0.010557354427874088, 0.009983316995203495, -0.008482388220727444, -0.011767893098294735, 0.009723919443786144, -0.001490701688453555, 0.011042516678571701, 0.007263053674250841, 0.008957816287875175, -0.0023077980149537325, 0.0030097360722720623, -0.010150149464607239, -0.002642036648467183, -0.002579593099653721, 0.010765422135591507, -0.011719302274286747, -0.010646829381585121, -0.0028805858455598354, -0.010903222486376762, -0.002612632466480136, 0.0015490887453779578, -0.0068910508416593075, 0.010486386716365814, -0.00463717570528388, -0.00011439781519584358, 0.005888544954359531, 0.01071600429713726, -0.009513496421277523, 0.003687797812744975, 0.00015139009337872267, 1.0668443792383187e-05, -0.007902506738901138, -0.011372610926628113, -0.009672343730926514, 0.010701334103941917, -0.0037218972574919462, 0.007249616552144289, -0.011472057551145554, 0.011826181784272194, -0.009430424310266972, 0.003820498939603567, 0.010168799199163914, -0.010327262803912163, -0.0025638772640377283, 0.003135868115350604, -0.0027385945431888103, 0.011121038347482681, 0.010732241906225681, -0.00981813669204712, -0.0024944976903498173, 0.010657239705324173, -0.010828036814928055], [0.0084318146109581, -0.012497677467763424, 0.005302300211042166, -0.009130146354436874, 0.0104579608887434, 0.010110955685377121, 0.011240646243095398, 0.013525635004043579, 0.012986281886696815, -0.00226762518286705, -0.010409511625766754, -0.002656388795003295, 0.015089853666722775, 0.012833047658205032, 0.011638258583843708, 0.0028702961280941963, 0.0022165263071656227, -0.011067509651184082, 0.0025655976496636868, -0.005037019029259682, 0.0026498690713196993, -0.012585489079356194, -0.008584240451455116, 0.0002323579537915066, 0.013309331610798836, -0.012829935178160667, 0.00461467495188117, -0.012987837195396423, 0.011785578913986683, -0.01277921348810196, 0.011105568148195744, -0.0007666054298169911, 0.011624660342931747, -0.00631387485191226, 0.014058656059205532, 0.0026340573094785213, 0.014228519052267075, 0.010257462970912457, 0.01420715730637312, -0.002257453976199031, 0.009628006257116795, 0.011065675877034664, -0.013727421872317791, -0.002441606717184186, 0.007064010016620159, -0.0026410238351672888, -0.004338534083217382, -0.002487973542883992, 0.012845753692090511, 0.012522219680249691, 0.008875889703631401, -0.012042410671710968, 0.006549366284161806, -0.0027415810618549585, 0.01261866744607687, 0.013141253031790257, 0.012916162610054016, 0.010880977846682072, 0.01204373873770237, -0.0004733946989290416, -0.006232042331248522, -0.013626588508486748, 0.0025899263564497232, -0.006779768969863653, 0.014380286447703838, -0.01166836079210043, 0.014313792809844017, -1.1520100088091567e-05, 0.0043820044957101345, -0.009073792025446892, 0.013240957632660866, -0.012698986567556858, -0.01309461984783411, -0.01174106914550066, 0.004301258362829685, -0.012648792937397957, 0.002655911259353161, 0.013330955989658833, -0.012953714467585087, -0.012693138793110847, 0.009932729415595531, -0.002986529376357794, 0.01202174462378025, 0.01060695480555296, 0.008633633144199848, -0.003161295549944043, 0.012866995297372341, -0.0031429308000952005, -0.00876857154071331, -0.0025584737304598093, 0.01244615763425827, -0.010863796807825565, -0.012717173434793949, -0.010822311043739319, -0.011876188218593597, -0.012260100804269314, 0.0013880562037229538, -0.009741459973156452, 0.002644559135660529, -0.013402607291936874, -1.6752649401041708e-07, 0.009301080368459225, 0.01112645585089922, -0.00921417586505413, 0.011839157901704311, 7.999356603249907e-05, 0.00010400170140201226, -0.009231685660779476, -0.004251677077263594, -0.010412536561489105, 0.012366196140646935, -0.010315117426216602, 0.0095678037032485, -0.011590900830924511, 0.003105795942246914, -0.0022791349329054356, 0.0032404738012701273, 0.0024900338612496853, -0.008649039082229137, -0.013509311713278294, 0.0025753257796168327, -0.012694121338427067, 0.011416072025895119, 0.008569947443902493, -0.010044664144515991, -0.011259516701102257, 0.013599527068436146, -0.011987545527517796], [-0.007772151380777359, 0.012542765587568283, -0.008592459373176098, 0.008221178315579891, -0.0028720898553729057, -0.009380421601235867, -0.012593170627951622, -0.0024373482447117567, -0.012008941732347012, 0.012136928737163544, 0.011366786435246468, 0.012166047468781471, -0.002443478675559163, -0.014400569722056389, -0.0030741284135729074, -0.009817571379244328, -0.011097089387476444, 0.0024880876298993826, -0.012375926598906517, 0.013833554461598396, -0.0027234922163188457, 0.011744081974029541, 0.010775099508464336, -0.00020419708744157106, -0.011207574047148228, 0.00850754790008068, -0.011877709068357944, 0.012547054328024387, -0.0028971154242753983, 0.004231116268783808, -0.012171654030680656, 8.135923417285085e-05, -0.011882485821843147, 0.010161968879401684, -0.011417086236178875, -0.01191308069974184, -0.011737184599041939, -0.0029529607854783535, -0.004984659608453512, 0.012012810446321964, -0.012576771900057793, -0.011439664289355278, 0.013325433246791363, 0.013021154329180717, -0.01328559871762991, 0.011781039647758007, 0.012135487049818039, 0.010556066408753395, -0.011275538243353367, -0.010492494329810143, -0.010033691301941872, 0.012085380963981152, -0.010745114646852016, 0.013267485424876213, -0.008527855388820171, -0.01058878842741251, -0.013113853521645069, -0.011427288874983788, -0.0022447307128459215, 0.0006640669307671487, 0.010886091738939285, 0.011308873072266579, -0.0034149407874792814, 0.009798171930015087, -0.002314808312803507, 0.010424675419926643, -0.011736002750694752, -4.493746473599458e-06, -0.011793570592999458, 0.009135065600275993, -0.011771420948207378, 0.0028473942074924707, 0.006173416040837765, 0.010664042085409164, -0.0035022145602852106, 0.01102870050817728, -0.013838037848472595, -0.011875485070049763, 0.012780657038092613, 0.011263826861977577, -0.00452863285318017, 0.01067247986793518, -0.0038406376261264086, -0.010918992571532726, -0.0022750701755285263, 0.01080942340195179, -0.01150312926620245, 0.012970508076250553, 0.011986257508397102, 0.0027565888594835997, -0.011351557448506355, 0.01134113036096096, 0.011342111974954605, 0.011236618272960186, 0.004819475580006838, 0.002882537432014942, -0.0021246287506073713, 0.007071053609251976, -0.013443469069898129, 0.01063026674091816, 0.0001812810223782435, -0.0048105837777256966, -0.0030463712755590677, 0.010382412932813168, -0.011105216108262539, -0.00021336758800316602, -7.455571903847158e-06, 0.009100892581045628, 0.012278584763407707, 0.010583107359707355, -0.011497325263917446, 0.010962204076349735, -0.008136706426739693, 0.010874511674046516, -0.013172355480492115, 0.011929310858249664, -0.012421996332705021, -0.013302309438586235, 0.008643077686429024, 0.00910656526684761, -0.0024761781096458435, 0.011999239213764668, -0.008484200574457645, -0.008307612501084805, 0.010759244672954082, 0.011625470593571663, -0.002489896258339286, 0.01014288142323494], [-0.012008604593575, 0.023813016712665558, -0.013541065156459808, 0.009522467851638794, -0.008472416549921036, -0.004374152515083551, -0.019943423569202423, -0.0026927113067358732, -0.01921207830309868, 0.002030342584475875, 0.007953258231282234, 0.018130868673324585, -0.002436610870063305, -0.013986391015350819, -0.006211396306753159, -0.0026122722774744034, -0.003067351644858718, 0.020564069971442223, -0.016269557178020477, 0.01599009707570076, -0.002948575187474489, 0.002582353074103594, 0.007470694370567799, -0.0002399523218628019, -0.01131692249327898, 0.0026896458584815264, -0.010400776751339436, 0.016133174300193787, -0.006138613447546959, 0.008618639782071114, -0.018231794238090515, 9.864698222372681e-05, -0.002456621965393424, 0.010521156713366508, -0.01840180903673172, -0.0026023169048130512, -0.025407088920474052, -0.014768239110708237, -0.01565396972000599, 0.0029045105911791325, -0.002265743212774396, -0.018388759344816208, 0.0026302612386643887, 0.006168069317936897, -0.011604536324739456, 0.016452759504318237, 0.016578376293182373, 0.002676066244021058, -0.020736226812005043, -0.01509629376232624, -0.010269422084093094, 0.01850994862616062, -0.00774617912247777, 0.0019616568461060524, -0.002687867032364011, -0.01786334440112114, -0.00545718427747488, -0.008847919292747974, -0.003969375044107437, 0.0006048460491001606, 0.0032375624869018793, 0.0024569432716816664, -0.0024880480486899614, 0.015950672328472137, -0.018863169476389885, 0.017498457804322243, -0.007333583664149046, 1.0134842341358308e-05, -0.010314485058188438, 0.006830850150436163, -0.0028340546414256096, 0.0027640736661851406, 0.004643687047064304, 0.018690064549446106, -0.014899433590471745, 0.020625334233045578, -0.0028547700494527817, -0.0036843467969447374, 0.02067304402589798, 0.009285422042012215, -0.005639970302581787, 0.014699763618409634, -0.014485063031315804, -0.011323251761496067, -0.02305428311228752, 0.017375236377120018, -0.005850392859429121, 0.003232634160667658, 0.019485406577587128, 0.02381664700806141, -0.0025182703975588083, 0.004111037589609623, 0.016102652996778488, 0.002955032978206873, 0.01249872986227274, 0.002701791003346443, -0.0024930646177381277, 0.007805696688592434, -0.015846002846956253, 0.0030400995165109634, 2.3623602828592993e-05, -0.009964927099645138, -0.0030593385454267263, 0.01206663902848959, -0.00930935051292181, -0.0002133577218046412, -7.723957241978496e-05, 0.010756838135421276, 0.012966850772500038, 0.002658554119989276, -0.014147832058370113, 0.008656619116663933, -0.00709168054163456, 0.001397509011439979, -0.007089223712682724, 0.016711339354515076, -0.014548476785421371, -0.020151684060692787, 0.012879503890872002, 0.017510026693344116, -0.019671233370900154, 0.0026096070650964975, -0.02019725926220417, -0.010763400234282017, 0.002773742424324155, 0.019586503505706787, -0.0022143905516713858, 0.016919581219553947], [0.008142665028572083, -0.0026081528048962355, 0.004319905303418636, -0.008270773105323315, 0.011237054131925106, 0.01117180846631527, 0.0024371228646486998, 0.014647768810391426, 0.012218233197927475, -0.013236138969659805, -0.005312880501151085, -0.011940926313400269, 0.014070337638258934, 0.010899808257818222, 0.011520814150571823, 0.013556781224906445, 0.014625173062086105, -0.012375807389616966, 0.011664871126413345, -0.003121912945061922, 0.012947466224431992, -0.011689315550029278, -0.010748101398348808, 0.0002951447095256299, 0.011092242784798145, -0.002889223862439394, 0.009169816970825195, -0.011594033800065517, 0.012990574352443218, -0.009593858383595943, 0.010861826129257679, -0.00038979388773441315, 0.0025708198081701994, -0.009822172112762928, 0.002331499243155122, 0.0026342414785176516, 0.013258200138807297, 0.01068782340735197, 0.012781519442796707, -0.011514952406287193, 0.014326260425150394, 0.0024466735776513815, -0.01459689810872078, -0.0129561061039567, 0.0029344111680984497, -0.013558954000473022, -0.0028139743953943253, -0.004537861794233322, 0.011037041433155537, 0.012040514498949051, 0.010329638607800007, -0.011552675627171993, 0.011034213937819004, -0.01182680856436491, 0.014091098681092262, 0.0028030788525938988, 0.007557005155831575, 0.01138968113809824, 0.012636234983801842, -0.0005161541630513966, -0.01045157015323639, -0.013445393182337284, 0.007252300623804331, -0.002931988798081875, 0.0020204579923301935, -0.01269626896828413, 0.011309484951198101, 1.6168309230124578e-05, 0.010446849279105663, -0.00832793116569519, 0.011659057810902596, -0.0034233438782393932, -0.00840489286929369, -0.013460041023790836, 0.0033206711523234844, -0.002510346472263336, 0.013038075529038906, 0.011993763968348503, -0.013581771403551102, -0.011042970232665539, 0.012615415267646313, -0.0029610423371195793, 0.012776512652635574, 0.011697974056005478, 0.011968719772994518, -0.012953809462487698, 0.01395187433809042, -0.004320305306464434, -0.013570503331720829, -0.013320471160113811, 0.011682220734655857, -0.01457672007381916, -0.012236159294843674, -0.01216196920722723, -0.008232466876506805, -0.012951328419148922, 0.001933734049089253, -0.007757971063256264, 0.01119690015912056, -0.012331636622548103, -2.382717684668023e-05, 0.0033029636833816767, 0.0030165996868163347, -0.002763941651210189, 0.011294612661004066, 0.00014780515630263835, 2.2673586499877274e-05, -0.008203426375985146, -0.005147762596607208, -0.002646997570991516, 0.003171654650941491, -0.009579960256814957, 0.007518101949244738, -0.012840843759477139, 0.003407898126170039, -0.013243680819869041, 0.005200811196118593, 0.009807411581277847, -0.008125457912683487, -0.01462471392005682, 0.013807140290737152, -0.01398474257439375, 0.013136288151144981, 0.0060190767981112, -0.012629223056137562, -0.0114271966740489, 0.014879578724503517, -0.013708245009183884], [0.008165866136550903, -0.012392805889248848, 0.007249103859066963, -0.00975416786968708, 0.012170268222689629, 0.003307065926492214, 0.012692579068243504, 0.0027128607034683228, 0.012670367024838924, -0.01221190020442009, -0.008389344438910484, -0.011062588542699814, 0.002661106176674366, 0.006504128221422434, 0.011220989748835564, 0.01140326727181673, 0.01399943046271801, -0.012296360917389393, 0.012002173811197281, -0.013352656736969948, 0.009514347650110722, -0.002451690612360835, -0.013223211281001568, 0.0002007398579735309, 0.011936441995203495, -0.01150837354362011, 0.009945537894964218, -0.013029784895479679, 0.011507007293403149, -0.010841713286936283, 0.0028098486363887787, -0.00048495299415662885, 0.012504743412137032, -0.008121030405163765, 0.014572340995073318, 0.008072292432188988, 0.01339805405586958, 0.010693426243960857, 0.0026730303652584553, -0.010805964469909668, 0.013949243351817131, 0.011596481315791607, -0.014806424267590046, -0.002486500656232238, 0.012417339719831944, -0.0027125300839543343, -0.006703035440295935, -0.01321472693234682, 0.01126519963145256, 0.011464168317615986, 0.010349960066378117, -0.011505160480737686, 0.00679437443614006, -0.012878834269940853, 0.002569610718637705, 0.010378910228610039, 0.010607629083096981, 0.012542802840471268, 0.0062895664013922215, -0.0019034205470234156, -0.01104235090315342, -0.002380553400143981, 0.0027634548023343086, -0.012124907225370407, 0.013331546448171139, -0.0025714554358273745, 0.011515048332512379, -4.0616458136355504e-05, 0.01177601795643568, -0.007317926734685898, 0.012533580884337425, -0.004081100225448608, -0.012282677926123142, -0.011144334450364113, 0.014043467119336128, -0.014961442910134792, 0.0027331255842000246, 0.00362075655721128, -0.010931143537163734, -0.003392135724425316, 0.010194491595029831, -0.011828535236418247, 0.011527007445693016, 0.007557660341262817, 0.013077635318040848, -0.012620087713003159, 0.0028958332259207964, -0.012523291632533073, -0.013713392429053783, -0.0033103725872933865, 0.012029660865664482, -0.0024535770062357187, -0.012870190665125847, -0.013358475640416145, -0.0050300899893045425, -0.002717850264161825, 0.00026439776411280036, -0.009782250970602036, 0.012386979535222054, -0.014302415773272514, -5.662383046001196e-06, 0.005424465052783489, 0.012383360415697098, -0.012150406837463379, 0.004526583943516016, 0.00017854322504717857, 3.0822998269286472e-06, -0.009389263577759266, -0.009077520109713078, -0.007284997496753931, 0.003161294385790825, -0.01127524022012949, 0.011665526777505875, -0.0035971684847027063, 0.010370469652116299, -0.012834467925131321, 0.013316120952367783, 0.013938679359853268, -0.009979230351746082, -0.01496801059693098, 0.013403918594121933, -0.0027359891682863235, 0.012404603883624077, 0.009605479426681995, -0.011196323670446873, -0.002355867763981223, 0.002315269783139229, -0.004135376773774624], [-0.007784907706081867, 0.002166029531508684, -0.004344009794294834, 0.02065821923315525, -0.029890067875385284, -0.027675841003656387, -0.0019392010290175676, -0.001034609042108059, -0.002101651858538389, 0.0030518705025315285, 0.005133311729878187, 0.002175241941586137, -0.002588295377790928, -0.0054468573071062565, -0.0031953733414411545, -0.012124452739953995, -0.001911139115691185, 0.00509363878518343, -0.002715407172217965, 0.004031528253108263, -0.002410615561529994, 0.0037175756879150867, 0.010586563497781754, -0.0002698383468668908, -0.0025294977240264416, 0.010060795582830906, -0.0066331131383776665, 0.0024085280019789934, -0.0032533803023397923, 0.00342784752137959, -0.004835099913179874, 0.00012063910980941728, -0.0019637939985841513, 0.009452725760638714, -0.0015811321791261435, -0.0026835461612790823, -0.0009034604881890118, -0.023668652400374413, -0.002434976166114211, 0.02425292879343033, -0.0018517463468015194, -0.009878508746623993, 0.002021383261308074, 0.002643832704052329, -0.01902840845286846, 0.003074660897254944, 0.0027880158741027117, 0.002544078743085265, -0.0026444282848387957, -0.010090161114931107, -0.008661419153213501, 0.002686774590983987, -0.0054587204940617085, 0.002552921185269952, -0.0048661185428500175, -0.0019487179815769196, -0.003345925360918045, -0.0038951465394347906, -0.0019816781859844923, 0.0006847892655059695, 0.004678476136177778, 0.0019757801201194525, -0.0025075646117329597, 0.011405404657125473, -0.0019334172829985619, 0.02720741741359234, -0.0053170411847531796, 1.1388111488486174e-05, -0.005588136147707701, 0.008315147832036018, -0.0031220843084156513, 0.002888171235099435, 0.01196329202502966, 0.006484616082161665, -0.01965670846402645, 0.0023215138353407383, -0.002822045236825943, -0.004179013427346945, 0.002211896702647209, 0.006069222465157509, -0.004151153843849897, 0.004421267658472061, -0.00547999469563365, -0.011522685177624226, -0.0018684274982661009, 0.005781774874776602, -0.002717287978157401, 0.003136634360998869, 0.0008959787664934993, 0.0022759458515793085, -0.007898547686636448, 0.0016882481286302209, 0.002597284270450473, 0.0014861085219308734, 0.008693471550941467, 0.001232881797477603, -0.00042227644007653, 0.008529258891940117, -0.0028596099000424147, 0.0031776870600879192, 3.284313788753934e-05, -0.0010946328984573483, -0.0015445374883711338, 0.002457677386701107, -0.005631619598716497, -0.0001821149926399812, -2.6776692720886786e-06, 0.009235241450369358, 0.009199392050504684, 0.0024764291010797024, -0.020277973264455795, 0.007600718643516302, -0.006550533697009087, 0.0031787550542503595, -0.009977905079722404, 0.002138087758794427, -0.0031418397556990385, -0.004163829144090414, 0.008055037818849087, 0.0016108177369460464, -0.0031526496168226004, 0.0020701575558632612, -0.002086447086185217, -0.008459319360554218, 0.0012305373093113303, 0.003990525379776955, -0.0010441445047035813, 0.004243337083607912], [-0.007865170948207378, 0.005268164910376072, -0.010007898323237896, 0.008684221655130386, -0.00266655464656651, -0.012260611169040203, -0.0026686189230531454, -0.013722121715545654, -0.001980783883482218, 0.012363423593342304, 0.01105424202978611, 0.012515402399003506, -0.003678384004160762, -0.013165689073503017, -0.012771525420248508, -0.010674549266695976, -0.013995019719004631, 0.011215598322451115, -0.009527801536023617, 0.003127755830064416, -0.012942999601364136, 0.011238934472203255, 0.011302098631858826, -0.00019571997108869255, -0.012040277011692524, 0.002768730279058218, -0.01098809577524662, 0.013009415939450264, -0.0029368256218731403, 0.010625375434756279, -0.0021831064950674772, 0.00010075021418742836, -0.013778595253825188, 0.011341787874698639, -0.014188488014042377, -0.011144602671265602, -0.00260040326975286, -0.012959814630448818, -0.014056852087378502, 0.01325503084808588, -0.013353493064641953, -0.002457976806908846, 0.01536780595779419, 0.003094211919233203, -0.0037810520734637976, 0.0026685036718845367, 0.01292705163359642, 0.002688527572900057, -0.011954247020184994, -0.0026304256170988083, -0.00993648823350668, 0.006493960041552782, -0.006303457077592611, 0.012109298259019852, -0.0027624634094536304, -0.014804543927311897, -0.012297631241381168, -0.012732028029859066, -0.012639214284718037, 0.0003314621571917087, 0.003687809221446514, 0.0026892730966210365, -0.012365962378680706, 0.003669213270768523, -0.014229911379516125, 0.011994161643087864, -0.014130182564258575, 1.1859032383654267e-05, -0.00548210134729743, 0.011059470474720001, -0.011930434964597225, 0.01193087175488472, 0.007693563587963581, 0.006581056863069534, -0.004468908533453941, 0.013839482329785824, -0.003007554681971669, -0.011818480677902699, 0.002599427243694663, 0.012509393505752087, -0.0038963910192251205, 0.0106160594150424, -0.0029256099369376898, -0.007906201295554638, -0.011785817332565784, 0.008888649754226208, -0.013298588804900646, 0.011435086838901043, 0.012716320343315601, 0.013061934150755405, -0.013751640915870667, 0.0023745852522552013, 0.008205929771065712, 0.01381396222859621, 0.01121503859758377, 0.0026212423108518124, -0.0029094922356307507, 0.007121215108782053, -0.0028569812420755625, 0.01257384568452835, 0.00016938256158027798, -0.005216473713517189, -0.0030774620827287436, 0.013225926086306572, -0.009719742462038994, -0.00017761158233042806, -1.0491275133972522e-05, 0.009833193384110928, 0.009092378430068493, 0.011558427475392818, -0.013523479923605919, 0.010837795212864876, -0.007753885351121426, 0.012283981777727604, -0.011360587552189827, 0.013310473412275314, -0.013383151963353157, -0.010040956549346447, 0.008490999229252338, 0.014259915798902512, -0.014304728247225285, 0.014858204871416092, -0.011837055906653404, -0.008111866191029549, 0.011658497154712677, 0.011852892115712166, -0.014168652705848217, 0.00234735244885087], [-0.005876590497791767, 0.008042973466217518, -6.966038927203044e-05, 0.0038776560686528683, -0.007240107282996178, -0.007148204371333122, -0.002552453661337495, -0.006980945821851492, -0.00840348843485117, 0.0071601467207074165, 0.006026391871273518, 0.0024678814224898815, -0.008741368539631367, -0.009874113835394382, -0.0035849614068865776, -0.002788756275549531, -0.001983086811378598, 0.008190074935555458, -0.0067642852663993835, 0.007783893495798111, -0.007057153154164553, 0.0023079176899045706, 0.006697098724544048, -0.00028033595299348235, -0.008469532243907452, 0.009610687382519245, -0.008964860811829567, 0.009930664673447609, -0.003027519676834345, 0.005898071452975273, -0.005585233215242624, 0.0005038813105784357, -0.006092083640396595, 0.00660710409283638, -0.006743939593434334, -0.002806619508191943, -0.006625306326895952, -0.0073722293600440025, -0.0030606405343860388, 0.009785816073417664, -0.007328385952860117, -0.0025629098527133465, 0.006996158976107836, 0.007433413993567228, -0.008681297302246094, 0.005856604781001806, 0.009254228323698044, 0.0052116382867097855, -0.0069829742424190044, -0.005674215033650398, -0.010291647166013718, 0.008720235899090767, -0.010260597802698612, 0.00921433512121439, -0.0024637496098876, -0.00785856693983078, -0.008672066032886505, -0.00725354440510273, -0.007609944324940443, 0.0019436223665252328, 0.009800033643841743, 0.0022328600753098726, -0.00871935486793518, 0.009872485883533955, -0.002982069505378604, 0.005486304871737957, -0.009211081080138683, 1.1439199624874163e-05, -0.0052258349023759365, 0.010441911406815052, -0.009251873008906841, 0.007975992746651173, 0.01356961764395237, 0.002649409929290414, -0.009096432477235794, 0.006281103473156691, -0.008172504603862762, -0.0034535545855760574, 0.007162374909967184, 0.00932446587830782, -0.009582174010574818, 0.006803795695304871, -0.0025643480475991964, -0.00954610388725996, -0.006643972359597683, 0.006788201164454222, -0.0028146235272288322, 0.010477210395038128, 0.004076480399817228, 0.006996572483330965, -0.007041091565042734, 0.005898772273212671, 0.0020598680712282658, 0.010762263089418411, 0.010719732381403446, 0.00846888031810522, -0.0015708580613136292, 0.0048069823533296585, -0.00898836087435484, 0.007138557266443968, 7.742587513348553e-06, -0.007146475836634636, -0.008458215743303299, 0.007507228758186102, -0.01072305254638195, -0.00021124404156580567, -5.38390349902329e-06, 0.009201782755553722, 0.010425994172692299, 0.00822831317782402, -0.009377836249768734, 0.01120416447520256, -0.011596126481890678, 0.006949183065444231, -0.003818727331236005, 0.00739333126693964, -0.0026082186959683895, -0.002221975941210985, 0.008560113608837128, 0.007710904814302921, -0.008762238547205925, 0.008232591673731804, -0.005718891508877277, -0.006756563205271959, 0.007274969015270472, 0.00826399214565754, -0.007243339903652668, 0.0021694975439459085], [-0.005910821259021759, 0.007155046332627535, -1.3492809785020654e-06, 0.009077522903680801, -0.008585198782384396, -0.008962364867329597, -0.0021949796937406063, -0.007921946235001087, -0.007968324236571789, 0.007807794958353043, 0.009115990251302719, 0.0057018524967134, -0.006406840402632952, -0.011746826581656933, -0.007834787480533123, -0.008997987024486065, -0.008120368234813213, 0.008075772784650326, -0.006794856395572424, 0.007050803862512112, -0.006800072733312845, 0.005999329499900341, 0.008536451496183872, -0.000211630598641932, -0.00915135070681572, 0.008897301740944386, -0.012812298722565174, 0.011326557956635952, -0.0025530816055834293, 0.01238656509667635, -0.007177452556788921, 0.0005937021924182773, -0.007911165244877338, 0.007333190180361271, -0.008274080231785774, -0.012268232181668282, -0.008219892159104347, -0.0026748538948595524, -0.008147502318024635, 0.00279779895208776, -0.007918200455605984, -0.008274904452264309, 0.007576835807412863, 0.008231728337705135, -0.009368136525154114, 0.00241346494294703, 0.00902524869889021, 0.006520191207528114, -0.0025011198595166206, -0.0038304137997329235, -0.009913376532495022, 0.002641096478328109, -0.007035431917756796, 0.007629170082509518, -0.004594632424414158, -0.009708011522889137, -0.010272168554365635, -0.008607015013694763, -0.008785141631960869, 0.0006417068652808666, 0.011155908927321434, 0.007072499953210354, -0.0023468134459108114, 0.011480838991701603, -0.0019502679351717234, 0.006997293327003717, -0.009572840295732021, 4.077431367477402e-05, -0.01242752280086279, 0.0056841070763766766, -0.010098803788423538, 0.009760106913745403, 0.011379594914615154, 0.00619595916941762, -0.010716245509684086, 0.0022200788371264935, -0.0065559460781514645, -0.011394336819648743, 0.008152223192155361, 0.009277808479964733, -0.0037248616572469473, 0.009038182906806469, -0.004114575684070587, -0.009075231850147247, -0.008703145198523998, 0.007016795687377453, -0.008552989922463894, 0.009282480925321579, 0.008846557699143887, 0.005371598992496729, -0.0035894731990993023, 0.006742393597960472, 0.0034262463450431824, 0.007977589964866638, 0.002341380575671792, 0.009285676293075085, -0.014173164032399654, 0.006486816797405481, -0.007613824214786291, 0.008915608748793602, 3.3552019885974005e-05, -0.004893628414720297, -0.010177584365010262, 0.008396318182349205, -0.011475566774606705, -0.00017963911523111165, -2.7406258595874533e-05, 0.008406243287026882, 0.010825227946043015, 0.008581830188632011, -0.0028874403797090054, 0.011063221842050552, -0.010040580295026302, 0.0026121733244508505, -0.010822662152349949, 0.0019020292675122619, -0.008347560651600361, -0.007071082014590502, 0.008606703951954842, 0.006705300882458687, -0.0062053631991147995, 0.006788505706936121, -0.007314441725611687, -0.00791009608656168, 0.002437237650156021, 0.007865547202527523, -0.009147047065198421, 0.00786417443305254], [0.0077043273486196995, -0.010582203045487404, 0.004860350396484137, -0.00734470272436738, 0.009641297161579132, 0.010665331035852432, 0.007988651283085346, 0.010205274447798729, 0.0025901515036821365, -0.008846908807754517, -0.011353807523846626, -0.008083811961114407, 0.010001879185438156, 0.0032811914570629597, 0.011487425304949284, 0.009259281679987907, 0.009932450018823147, -0.009557533077895641, 0.009129408746957779, -0.010281334631145, 0.01096893846988678, -0.009248198941349983, -0.006343192420899868, 0.00035088256117887795, 0.010780875571072102, -0.011280250735580921, 0.009567548520863056, -0.011132501997053623, 0.009664551354944706, -0.010791366919875145, 0.008179917000234127, -0.0001312170352321118, 0.009573237970471382, -0.006706057116389275, 0.010534759610891342, 0.010857636108994484, 0.004742566496133804, 0.009946925565600395, 0.009414760395884514, -0.003007905324921012, 0.008655663579702377, 0.009535917080938816, -0.008877715095877647, -0.010926567949354649, 0.010287106968462467, -0.0104412492364645, -0.011113678105175495, -0.008880072273314, 0.002541530877351761, 0.009359135292470455, 0.010303046554327011, -0.011228342540562153, 0.009996214881539345, -0.010508433915674686, 0.002753685461357236, 0.010730243287980556, 0.010890655219554901, 0.003239902900531888, 0.01014416292309761, -0.002024782355874777, -0.012964010238647461, -0.0070875766687095165, 0.00926139298826456, -0.011172893457114697, 0.002239927416667342, -0.008540118113160133, 0.011664255522191525, -2.5852109502011444e-06, 0.01175810769200325, -0.011770741082727909, 0.009085943922400475, -0.00972190871834755, -0.011293585412204266, -0.0079666618257761, 0.0035432344302535057, -0.004525880329310894, 0.009491370059549809, 0.01084314938634634, -0.009097867645323277, -0.011488992720842361, 0.0107407346367836, -0.002906262408941984, 0.00833195075392723, 0.008395916782319546, 0.006644317880272865, -0.009821554645895958, 0.008850622922182083, -0.011814046651124954, -0.0027804505079984665, -0.002747425576671958, 0.004048047121614218, -0.0024359149392694235, -0.007783128879964352, -0.011539330706000328, -0.008380590938031673, -0.011591597460210323, 0.006204324774444103, -0.009955240413546562, 0.004458652343600988, -0.0098026804625988, -0.0002264805807499215, 0.006167343817651272, 0.0028309267945587635, -0.010759561322629452, 0.009754232130944729, 0.0001773683470673859, 3.527160151861608e-05, -0.00794870313256979, -0.011648105457425117, -0.008530324324965477, 0.0029300751630216837, -0.008930890820920467, 0.011201870627701283, -0.009579408913850784, 0.008928812108933926, -0.009512783959507942, 0.008799109607934952, 0.008592729456722736, -0.00797272939234972, -0.008142027072608471, 0.008787463419139385, -0.008997471071779728, 0.0022777041886001825, 0.011772528290748596, -0.0099915387108922, -0.01020567025989294, 0.008387163281440735, -0.011283340863883495], [-0.007801638916134834, 0.020624294877052307, -0.0035381114576011896, 0.007811868097633123, -0.013497477397322655, -0.012913292273879051, -0.002543451962992549, -0.0025976859033107758, -0.005426009651273489, 0.0021842531859874725, 0.006081143394112587, 0.015010691247880459, -0.01987852156162262, -0.014663856476545334, -0.013984094373881817, -0.014963559806346893, -0.017258472740650177, 0.013924234546720982, -0.014621997252106667, 0.01276614423841238, -0.01837705634534359, 0.002611909992992878, 0.01129419170320034, -0.00025653906050138175, -0.01348887663334608, 0.014423186890780926, -0.009388277307152748, 0.013977788388729095, -0.003148595103994012, 0.003657412016764283, -0.015004733577370644, 0.00029652801458723843, -0.016553692519664764, 0.006278029177337885, -0.01920258440077305, -0.002635977929458022, -0.019345756620168686, -0.011471724137663841, -0.01572556607425213, 0.009932366199791431, -0.01865663193166256, -0.005062036216259003, 0.01864534616470337, 0.016790766268968582, -0.01339730340987444, 0.016518259420990944, 0.014015560038387775, 0.02317340485751629, -0.018474925309419632, -0.013962047174572945, -0.008639095351099968, 0.015325773507356644, -0.00890865083783865, 0.016237271949648857, -0.017243292182683945, -0.0027183264028280973, -0.011746506206691265, -0.014610501006245613, -0.016992254182696342, 0.000488472287543118, 0.0034650980960577726, 0.002778969006612897, -0.0027171664405614138, 0.012236418202519417, -0.002429738873615861, 0.015139567665755749, -0.015582378953695297, 2.0056448192917742e-05, -0.006849235855042934, 0.009253568947315216, -0.015530213713645935, 0.0033729602582752705, 0.010828818194568157, 0.002671310678124428, -0.003303210251033306, 0.012240368872880936, -0.016422420740127563, -0.005138241685926914, 0.017091505229473114, 0.0038880815263837576, -0.010079330764710903, 0.0031373766250908375, -0.013927401043474674, -0.00942213088274002, -0.01967760920524597, 0.015348509885370731, -0.017254116013646126, 0.013379200361669064, 0.018914172425866127, 0.019905120134353638, -0.0027176958974450827, 0.0024752889294177294, 0.0024723403621464968, 0.013679594732820988, 0.010962882079184055, 0.016437139362096786, -0.003540768288075924, 0.007053913548588753, -0.008232676424086094, 0.0156182162463665, 3.354179716552608e-05, -0.004042470827698708, -0.013935019262135029, 0.002701687393710017, -0.010522640310227871, -0.00017910977476276457, -3.603954610298388e-05, 0.009355064481496811, 0.012034841813147068, 0.012418319471180439, -0.014331139624118805, 0.009775310754776001, -0.007006130181252956, 0.014135539531707764, -0.01107998751103878, 0.02115403488278389, -0.014763555489480495, -0.017963573336601257, 0.00370835792273283, 0.01197928935289383, -0.0026686307974159718, 0.002642093226313591, -0.016227109357714653, -0.010849948041141033, 0.012667941860854626, 0.014106061309576035, -0.018919676542282104, 0.013064948841929436], [0.012123716995120049, -0.008228748105466366, 0.00491782370954752, -0.007731969468295574, 0.005643450655043125, 0.009295775555074215, 0.005931065417826176, 0.008197109214961529, 0.00614049332216382, -0.00794267375022173, -0.009788147173821926, -0.0025949031114578247, 0.007511419244110584, 0.008322925306856632, 0.007924574427306652, 0.009079927578568459, 0.008113156072795391, -0.00797741487622261, 0.008603939786553383, -0.003617701353505254, 0.00943769607692957, -0.0023456851486116648, -0.008086576126515865, 0.0003506194625515491, 0.0022383241448551416, -0.003467999864369631, 0.007417512126266956, -0.003073218045756221, 0.007929711602628231, -0.010024630464613438, 0.0071565634571015835, -0.0004508107085712254, 0.0032648956403136253, -0.0074036563746631145, 0.002420540899038315, 0.002585882321000099, 0.0070434510707855225, 0.00819016620516777, 0.0036112896632403135, -0.0028638902585953474, 0.00623872596770525, 0.0062651499174535275, -0.002308605471625924, -0.007341258693486452, 0.008450337685644627, -0.0076157632283866405, -0.01173052191734314, -0.002406563377007842, 0.00754148792475462, 0.00835919938981533, 0.009940997697412968, -0.0027446646708995104, 0.006564842537045479, -0.007836866192519665, 0.0027528181672096252, 0.003980180714279413, 0.00956562627106905, 0.0025266653392463923, 0.0022951175924390554, -0.0032928097061812878, -0.011033929884433746, -0.006657682359218597, 0.006610530894249678, -0.010872285813093185, 0.006774805951863527, -0.007127076853066683, 0.003388779005035758, -2.5418642053409712e-06, 0.01015594881027937, -0.00994549598544836, 0.007507179863750935, -0.008991379290819168, -0.010186090134084225, -0.0026460394728928804, 0.00964114349335432, -0.004629288334399462, 0.007105672266334295, 0.008928989991545677, -0.006251669488847256, -0.010722092352807522, 0.0036168049555271864, -0.0027709542773663998, 0.00815542135387659, 0.011248691938817501, 0.008198673836886883, -0.004318444058299065, 0.006686576176434755, -0.009417039342224598, -0.008254600688815117, -0.007118912413716316, 0.007509428076446056, -0.00978703610599041, -0.00772368349134922, -0.002936724340543151, -0.010590219870209694, -0.008947713300585747, 0.012829149141907692, -0.008431916125118732, 0.0057886140421032906, -0.003008713712915778, -3.615438981796615e-05, 0.0013201232068240643, 0.010600045323371887, -0.007652970962226391, 0.007481270004063845, 0.00010265067248838022, 1.3873601574232453e-06, -0.00894458033144474, -0.011808943003416061, -0.008892707526683807, 0.008514255285263062, -0.010973671451210976, 0.007876708172261715, -0.00746407313272357, 0.0033293378073722124, -0.00754914665594697, 0.0085824616253376, 0.007421897258609533, -0.008635335601866245, -0.010482030920684338, 0.009367669932544231, -0.0025947552639991045, 0.0048398710787296295, 0.012943889014422894, -0.002733816159889102, -0.002382921054959297, 0.00557088665664196, -0.009353804402053356], [0.006065465044230223, -0.008082880638539791, 0.01354234479367733, -0.008863542228937149, 0.012426119297742844, 0.002880754182115197, 0.002457713708281517, 0.0026352840941399336, 0.0020540854893624783, -0.0112104881554842, -0.009794015437364578, -0.012402637861669064, 0.013243193738162518, 0.014501946046948433, 0.012907018885016441, 0.011462452821433544, 0.011017946526408195, -0.0105813629925251, 0.002618229016661644, -0.012526174075901508, 0.011984288692474365, -0.009309900924563408, -0.008752604946494102, 0.0003638216876424849, 0.006990350782871246, -0.012113082222640514, 0.010677846148610115, -0.011995132081210613, 0.012145224027335644, -0.01208216417580843, 0.00967371929436922, -0.00043472053948789835, 0.011473547667264938, -0.007485006004571915, 0.010838713496923447, 0.0026348077226430178, 0.003375844331458211, 0.012102826498448849, 0.010972395539283752, -0.011531705968081951, 0.012083552777767181, 0.002363990992307663, -0.01176303531974554, -0.0122269531711936, 0.011659905314445496, -0.011836363933980465, -0.012233615852892399, -0.01217089407145977, 0.01029556430876255, 0.011886083520948887, 0.008662139996886253, -0.009525611996650696, 0.009570923633873463, -0.01317905355244875, 0.012706571258604527, 0.012909647077322006, 0.008232584223151207, 0.011731849983334541, 0.011583895422518253, -0.0005188853829167783, -0.009535864926874638, -0.010441466234624386, 0.012160005047917366, -0.011630350723862648, 0.011752276681363583, -0.0021424454171210527, 0.01039817463606596, -2.576368751761038e-05, 0.008288015611469746, -0.008787252940237522, 0.012301459908485413, -0.002781785326078534, -0.007289530709385872, -0.0043579572811722755, 0.013028613291680813, -0.010317311622202396, 0.0029135611839592457, 0.012830161489546299, -0.011603371240198612, -0.008420058526098728, 0.004114098381251097, -0.009372693486511707, 0.01052525918930769, 0.00733482139185071, 0.011464369483292103, -0.010593965649604797, 0.006177824921905994, -0.011850431561470032, -0.002627786248922348, -0.002946763066574931, 0.011074991896748543, -0.004141070414334536, -0.00348955811932683, -0.008527042344212532, -0.004570400342345238, -0.0034474763087928295, 0.0032598571851849556, -0.008889075368642807, 0.012337812222540379, -0.0030496360268443823, -3.5298828606755706e-06, 0.004833193030208349, 0.0066756452433764935, -0.0025674239732325077, 0.01319218147546053, 0.0001785123022273183, 2.4833921088429634e-06, -0.009649706073105335, -0.010366705246269703, -0.010069893673062325, 0.0032342765480279922, -0.011951479129493237, 0.007882625795900822, -0.011120237410068512, 0.0111102145165205, -0.012221415527164936, 0.01313573494553566, 0.0030840502586215734, -0.009857067838311195, -0.0025551291182637215, 0.010996374301612377, -0.012721303850412369, 0.011608190834522247, 0.010426427237689495, -0.0027685353998094797, -0.010535194538533688, 0.002375994808971882, -0.011827410198748112], [0.005925254430621862, -0.010204529389739037, 0.008822818286716938, -0.008104903623461723, 0.0028079496696591377, 0.010326867923140526, 0.0025833945255726576, 0.0103202098980546, 0.01044025644659996, -0.011379504576325417, -0.010972684249281883, -0.010903391055762768, 0.005508804228156805, 0.010697332210838795, 0.01114236656576395, 0.0024907984770834446, 0.01064369734376669, -0.010752260684967041, 0.011817441321909428, -0.01185209583491087, 0.0027280959766358137, -0.0024844519793987274, -0.003931776154786348, 0.00028110298444516957, 0.012028827331960201, -0.010425767861306667, 0.0111606540158391, -0.011291462928056717, 0.009567102417349815, -0.011735398322343826, 0.0022437269799411297, -0.0002826000563800335, 0.010876143351197243, -0.009461067616939545, 0.002434346592053771, 0.013142872601747513, 0.01113858912140131, 0.010271633043885231, 0.005282650236040354, -0.003016136586666107, 0.011418383568525314, 0.011499174870550632, -0.012433978728950024, -0.011274602264165878, 0.01196709368377924, -0.012879096902906895, -0.002707989187911153, -0.0023319239262491465, 0.002540282439440489, 0.0027208596002310514, 0.0077737197279930115, -0.0026545512955635786, 0.00859109777957201, -0.010262945666909218, 0.009787259623408318, 0.00270976428873837, 0.012850062921643257, 0.01099646557122469, 0.0023226961493492126, -0.0006860169232822955, -0.00467442162334919, -0.010672549717128277, 0.002612441312521696, -0.003200510749593377, 0.011605835519731045, -0.0022007713560014963, 0.0050873951986432076, 1.6233929272857495e-05, 0.010854626074433327, -0.005679895635694265, 0.012190703302621841, -0.009130374528467655, -0.008892218582332134, -0.010071064345538616, 0.004302158951759338, -0.0032781099434942007, 0.012395957484841347, 0.004182444419711828, -0.011066761799156666, -0.003459404455497861, 0.010895757004618645, -0.010630456730723381, 0.011825081892311573, 0.007350790314376354, 0.0027071870863437653, -0.010559314861893654, 0.010456843301653862, -0.01054372824728489, -0.002947509288787842, -0.011049790307879448, 0.00972229614853859, -0.01126613188534975, -0.011006460525095463, -0.010612083598971367, -0.00487492186948657, -0.0027187520172446966, 0.012549933046102524, -0.007991692051291466, 0.007376567460596561, -0.01027141883969307, -1.0066282811749261e-05, 0.00510112289339304, 0.01292989682406187, -0.011289196088910103, 0.010433385148644447, 0.00013238395331427455, 3.818653112830361e-06, -0.009609024040400982, -0.011473827064037323, -0.010913433507084846, 0.0011716221924871206, -0.010558315552771091, 0.010839385911822319, -0.010226814076304436, 0.00688896281644702, -0.0019564388785511255, 0.0029238793067634106, 0.011704542674124241, -0.013422426767647266, -0.010388725437223911, 0.006433011032640934, -0.004488504026085138, 0.011475376784801483, 0.012620590627193451, -0.011043746955692768, -0.0024362702388316393, 0.012256915681064129, -0.012161558493971825], [-0.008321693167090416, 0.009299156256020069, -0.004358295816928148, 0.00751399016007781, -0.008854654617607594, -0.010587163269519806, -0.009624507278203964, -0.008801974356174469, -0.008762258104979992, 0.002467087935656309, 0.011578504927456379, 0.010111143812537193, -0.009617110714316368, -0.006206910125911236, -0.010534713044762611, -0.002541380003094673, -0.008136780932545662, 0.008352642878890038, -0.007488606963306665, 0.011071423999965191, -0.010415801778435707, 0.008352161385118961, 0.008295314386487007, -0.00027522590244188905, -0.008480089716613293, 0.010267364792525768, -0.011990455910563469, 0.010219383984804153, -0.009461558423936367, 0.012351516634225845, -0.002295899670571089, 0.00012234148744028062, -0.010070017538964748, 0.008213939145207405, -0.0023516316432505846, -0.0026163216680288315, -0.008425240404903889, -0.0029067681171000004, -0.011573785915970802, 0.009768770076334476, -0.010188616812229156, -0.009741848334670067, 0.002820306923240423, 0.0024445427116006613, -0.009976031258702278, 0.010330372489988804, 0.011517247185111046, 0.01005867961794138, -0.010256762616336346, -0.009782899171113968, -0.008240194991230965, 0.002774089341983199, -0.006824174430221319, 0.00983336754143238, -0.011205067858099937, -0.009954622946679592, -0.011053165420889854, -0.008381019346415997, -0.009260318242013454, 0.0004989240551367402, 0.011436360888183117, 0.010041424073278904, -0.009490530006587505, 0.0031008494552224874, -0.0021395718213170767, 0.009339299984276295, -0.002942600753158331, -1.6115967810037546e-05, -0.01043651346117258, 0.01056881994009018, -0.006537352688610554, 0.00930202379822731, 0.00910889357328415, 0.00913290400058031, -0.004346983041614294, 0.012082572095096111, -0.00984594039618969, -0.0035193399526178837, 0.01041969284415245, 0.012723085470497608, -0.010105111636221409, 0.009214302524924278, -0.011122593656182289, -0.008281161077320576, -0.01010405644774437, 0.0022467942908406258, -0.00922609306871891, 0.0030966573394834995, 0.01029381062835455, 0.0073265815153717995, -0.009122644551098347, 0.004450516775250435, 0.010132422670722008, 0.00333065795712173, 0.010924378409981728, 0.010013910941779613, -0.0046967570669949055, 0.011744707822799683, -0.009694232605397701, 0.003132876008749008, 3.2328769066225505e-06, -0.0013253993820399046, -0.003088154597207904, 0.008640225045382977, -0.011164129711687565, -0.011538373306393623, -6.3629427131672855e-06, 0.009341452270746231, 0.007812113035470247, 0.010345183312892914, -0.003197243670001626, 0.011465771123766899, -0.010951896198093891, 0.011913960799574852, -0.010844264179468155, 0.008468147367238998, -0.01000618189573288, -0.010197695344686508, 0.01290498860180378, 0.005867474712431431, -0.004148063715547323, 0.003229724243283272, -0.010667974129319191, -0.01165912114083767, 0.01092600543051958, 0.0026587878819555044, -0.010322246700525284, 0.01032533310353756], [0.0065381997264921665, -0.00801433902233839, 0.01591920666396618, -0.005569038446992636, 0.009867604821920395, 0.0028432870749384165, 0.00256588077172637, 0.010683765634894371, 0.004639580380171537, -0.011733431369066238, -0.009063062258064747, -0.011428064666688442, 0.012789953500032425, 0.009262160398066044, 0.010939539410173893, 0.00955254677683115, 0.01192497182637453, -0.011855944991111755, 0.010130832903087139, -0.01079043559730053, 0.010866893455386162, -0.009930554777383804, -0.0113811194896698, 0.00027179764583706856, 0.011762511916458607, -0.010876578278839588, 0.009132410399615765, -0.012236705981194973, 0.012794137001037598, -0.010717769153416157, 0.011092434637248516, -0.00026374400476925075, 0.012637973763048649, -0.005199412349611521, 0.010362248867750168, 0.007904735393822193, 0.011265833862125874, 0.002888298127800226, 0.01022607833147049, -0.01053278986364603, 0.011376375332474709, 0.01142034400254488, -0.012447335757315159, -0.0025993562303483486, 0.004856509156525135, -0.012297485955059528, -0.002775187836959958, -0.011196354404091835, 0.011186370626091957, 0.00970805250108242, 0.009009737521409988, -0.010315774008631706, 0.009206470102071762, -0.004192151594907045, 0.01270335540175438, 0.01155909150838852, 0.013469887897372246, 0.010581870563328266, 0.010760882869362831, -0.0005849858280271292, -0.011310061439871788, -0.010474012233316898, 0.01086700614541769, -0.0035612231586128473, 0.01123094093054533, -0.01148251909762621, 0.012569590471684933, 1.2262343261681963e-05, 0.012075318954885006, -0.006091597490012646, 0.01195459719747305, -0.01128398533910513, -0.007865346036851406, -0.008645986206829548, 0.00431172177195549, -0.011896881274878979, 0.004401235841214657, 0.0035081051755696535, -0.011787671595811844, -0.01297004334628582, 0.01207520067691803, -0.004685367923229933, 0.003961900714784861, 0.007883373647928238, 0.012682604603469372, -0.009656001813709736, 0.01204631943255663, -0.011087520979344845, -0.011869599111378193, -0.012565921992063522, 0.011859848164021969, -0.01224011741578579, -0.011891135014593601, -0.01101440005004406, -0.01073596440255642, -0.011443013325333595, 0.0010619510430842638, -0.008654163219034672, 0.004865602124482393, -0.012565016746520996, 4.818953584617702e-06, 0.004695494193583727, 0.013319253921508789, -0.01058223471045494, 0.011780643835663795, 0.00024712426238693297, 2.6919831725535914e-05, -0.009180079214274883, -0.010812983848154545, -0.009432542137801647, 0.008675518445670605, -0.004077395424246788, 0.011206123977899551, -0.009630516171455383, 0.01356553565710783, -0.007748969830572605, 0.011123758740723133, 0.01185420248657465, -0.012229052372276783, -0.01356672402471304, 0.010918229818344116, -0.006934842560440302, 0.010246442630887032, 0.006841995287686586, -0.011399593204259872, -0.011352327652275562, 0.012585241347551346, -0.0025078877806663513], [0.011334840208292007, -0.016381004825234413, 0.00997953675687313, -0.008800040930509567, 0.008401983417570591, 0.012513242661952972, 0.009921952150762081, 0.015683606266975403, 0.013829014264047146, -0.005657991394400597, -0.009888595901429653, -0.002836289582774043, 0.015076545998454094, 0.0033899033442139626, 0.0147033566609025, 0.01419689878821373, 0.0166497603058815, -0.0025254408828914165, 0.014128475449979305, -0.0112908398732543, 0.01596270501613617, -0.01361993607133627, -0.013258191756904125, 0.00017076042422559112, 0.013254264369606972, -0.013693380169570446, 0.010341610759496689, -0.008222379721701145, 0.010386637412011623, -0.012400590814650059, 0.002492486732080579, -0.0001335211272817105, 0.0024722344242036343, -0.010698012076318264, 0.01508184615522623, 0.013285482302308083, 0.0021934499964118004, 0.01226002536714077, 0.011819020844995975, -0.012796014547348022, 0.0024088281206786633, 0.0023805380333215, -0.015104767866432667, -0.01517963781952858, 0.014663354493677616, -0.0027401973493397236, -0.0028018599841743708, -0.008994163945317268, 0.01502526830881834, 0.012973048724234104, 0.010326191782951355, -0.002888273447751999, 0.007694961037486792, -0.01388336718082428, 0.012894740328192711, 0.016228841617703438, 0.01435101218521595, 0.011741794645786285, 0.01032725814729929, -0.002336618024855852, -0.008653144352138042, -0.014473728835582733, 0.0034555746242403984, -0.01349855586886406, 0.015112922526896, -0.002313309581950307, 0.013698140159249306, -9.281312486564275e-06, 0.004624854773283005, -0.010670771822333336, 0.004939392674714327, -0.014408284798264503, -0.010101248510181904, -0.014009770005941391, 0.012151449918746948, -0.015331428498029709, 0.01442565768957138, 0.011677934788167477, -0.013464419171214104, -0.008424205705523491, 0.003922626376152039, -0.012753011658787727, 0.01234022993594408, 0.007394183427095413, 0.015603343956172466, -0.013959473930299282, 0.015711870044469833, -0.003254018956795335, -0.01425081118941307, -0.01661018468439579, 0.01410409901291132, -0.015246866270899773, -0.012277358211576939, -0.0041632261127233505, -0.003916253801435232, -0.013693192973732948, 0.008002441376447678, -0.009113072417676449, 0.0028391662053763866, -0.012396012432873249, -2.154075264115818e-05, 0.009631412103772163, 0.012152589857578278, -0.0032159455586224794, 0.00880058016628027, 0.00016320281429216266, 1.815873292798642e-05, -0.009508664719760418, -0.012616804800927639, -0.002616355661302805, 0.012427205219864845, -0.012410571798682213, 0.006047699134796858, -0.010741525329649448, 0.011298573575913906, -0.001997746992856264, 0.013847528025507927, 0.013624935410916805, -0.00859918911010027, -0.0025016050785779953, 0.01379935909062624, -0.01423799991607666, 0.014299738220870495, 0.00955645740032196, -0.0033118051942437887, -0.014654281549155712, 0.005000214092433453, -0.004343780688941479], [-0.008527209982275963, 0.008996931836009026, -0.010803045704960823, 0.007866589352488518, -0.009254880249500275, -0.010868167504668236, -0.0023757880553603172, -0.010515122674405575, -0.009974242188036442, 0.010383657179772854, 0.006227514706552029, 0.009037693962454796, -0.011825927533209324, -0.01189096737653017, -0.010925039649009705, -0.0027431997004896402, -0.010161050595343113, 0.0025561817456036806, -0.005703520029783249, 0.011081492528319359, -0.010161817073822021, 0.009181404486298561, 0.008424143306910992, -0.00027199232135899365, -0.011858787387609482, 0.0026941769756376743, -0.00999655295163393, 0.012205622158944607, -0.011083015240728855, 0.0036704973317682743, -0.010157555341720581, 0.00010355990525567904, -0.0028197900392115116, 0.008535200729966164, -0.010765744373202324, -0.01311871875077486, -0.0031511078123003244, -0.00904280785471201, -0.0026870318688452244, 0.002959346864372492, -0.011450201272964478, -0.009234998375177383, 0.011892617680132389, 0.012311181984841824, -0.002863912610337138, 0.011623365804553032, 0.011683138087391853, 0.0024344625417143106, -0.0026889536529779434, -0.01009998470544815, -0.0022293715737760067, 0.010411853902041912, -0.009899253025650978, 0.01015570666640997, -0.01022228691726923, -0.0026754001155495644, -0.0033121544402092695, -0.008832343854010105, -0.010818945243954659, 0.0005703952047042549, 0.010442829690873623, 0.003861157689243555, -0.002553323982283473, 0.010919397696852684, -0.0027991211973130703, 0.010120093822479248, -0.0036926455795764923, -1.6223510101553984e-05, -0.00922591146081686, 0.005599646363407373, -0.010905751958489418, 0.011607054620981216, 0.003537458134815097, 0.002661406295374036, -0.011887160129845142, 0.010469661094248295, -0.010611314326524734, -0.012627470307052135, 0.009380817413330078, 0.010477705858647823, -0.011290212161839008, 0.00917262677103281, -0.009075704030692577, -0.00940875243395567, -0.010967488400638103, 0.010541846044361591, -0.009460648521780968, 0.009571329690515995, 0.01184091530740261, 0.01036456972360611, -0.004258553497493267, 0.010766241699457169, 0.009222956374287605, 0.012649733573198318, 0.010327212512493134, 0.012437024153769016, -0.0034091437701135874, 0.007926064543426037, -0.004573130048811436, 0.0045929341576993465, 6.166514504002407e-05, -0.004979046061635017, -0.010257530026137829, 0.002649785950779915, -0.010835048742592335, -0.00016721569409128278, -2.9905984320066636e-06, 0.009133867919445038, 0.01214024517685175, 0.00261357962153852, -0.010408652946352959, 0.010805420577526093, -0.009387963451445103, 0.009518829174339771, -0.013249175623059273, 0.002250704914331436, -0.00975977722555399, -0.011202540248632431, 0.009127878583967686, 0.010529701597988605, -0.009611949324607849, 0.002782894531264901, -0.010169842280447483, -0.009487044997513294, 0.002744728932157159, 0.002327125519514084, -0.011203933507204056, 0.011158245615661144], [-0.011732245795428753, 0.0025873377453535795, -0.004278489854186773, 0.010266302153468132, -0.002704872051253915, -0.0064588263630867004, -0.012592562474310398, -0.015353570692241192, -0.013609576970338821, 0.012798747047781944, 0.01091102696955204, 0.013040706515312195, -0.01466595008969307, -0.00492290873080492, -0.012100144289433956, -0.011218201369047165, -0.004305801820009947, 0.011134852655231953, -0.011546866968274117, 0.012467608787119389, -0.012817653827369213, 0.010904413647949696, 0.008488762192428112, -0.0002058855607174337, -0.0026470059528946877, 0.0028325277380645275, -0.011740920133888721, 0.002756841480731964, -0.01313792448490858, 0.011410364881157875, -0.013372587040066719, 0.000701853830832988, -0.011999654583632946, 0.009509841911494732, -0.014820127747952938, -0.014077833853662014, -0.013471119105815887, -0.0028131334111094475, -0.0030346571002155542, 0.012701294384896755, -0.01324858795851469, -0.004377548582851887, 0.005610128398984671, 0.002548981923609972, -0.01372906006872654, 0.0030929199419915676, 0.01274954155087471, 0.015931833535432816, -0.002628080314025283, -0.01268187165260315, -0.008824259042739868, 0.013412736356258392, -0.007024005521088839, 0.01253114640712738, -0.013970774598419666, -0.013435881584882736, -0.0033710352145135403, -0.012013545259833336, -0.012429428286850452, 0.0012194606242701411, 0.0108718890696764, 0.004164272453635931, -0.011829291470348835, 0.013186560943722725, -0.013641756027936935, 0.012060019187629223, -0.014725417830049992, 8.611225894128438e-06, -0.010324504226446152, 0.007869296707212925, -0.014754275791347027, 0.004397353623062372, 0.0035557826049625874, 0.012192944064736366, -0.0035166090819984674, 0.012611578218638897, -0.0032094691414386034, -0.012103086337447166, 0.0035942895337939262, 0.003504012944176793, -0.012570587918162346, 0.013119197450578213, -0.0031589760910719633, -0.007240054663270712, -0.013936136849224567, 0.01249999925494194, -0.013302636332809925, 0.013897113502025604, 0.0024127692449837923, 0.012953710742294788, -0.013961365446448326, 0.012648392468690872, 0.0023635795805603266, 0.0032762272749096155, 0.010802862234413624, 0.015252837911248207, -0.002545060822740197, 0.006857235915958881, -0.013006795197725296, 0.011835191398859024, 2.9871402148273773e-05, -0.0048532309010624886, -0.011874021030962467, 0.013532896526157856, -0.012970094569027424, -0.00016305655299220234, -5.42651241630665e-06, 0.009350619278848171, 0.005209682509303093, 0.011539465747773647, -0.003396147396415472, 0.01167741697281599, -0.007967757061123848, 0.01314016617834568, -0.0032014460302889347, 0.014689596369862556, -0.012996390461921692, -0.014464927837252617, 0.00796707347035408, 0.013144408352673054, -0.014545409940183163, 0.014007577672600746, -0.012211685068905354, -0.01134068425744772, 0.00270498963072896, 0.012141289189457893, -0.014616082422435284, 0.011611387133598328], [-0.011968865059316158, 0.017257949337363243, -0.005308758467435837, 0.011229210533201694, -0.005441091023385525, -0.011762838810682297, -0.002448530402034521, -0.016603117808699608, -0.00252427882514894, 0.014770922251045704, 0.004954948555678129, 0.01606830209493637, -0.015328687615692616, -0.01431342028081417, -0.003140704007819295, -0.01494675874710083, -0.003046430181711912, 0.0025377199053764343, -0.014077278785407543, 0.003146284492686391, -0.002644025022163987, 0.013988310471177101, 0.00812136847525835, -0.00025450356770306826, -0.014153310097754002, 0.01309223286807537, -0.004708722233772278, 0.002547462470829487, -0.014874064363539219, 0.010091553442180157, -0.015041048638522625, 0.0006121888291090727, -0.0025771392975002527, 0.01016024500131607, -0.016591250896453857, -0.01375491265207529, -0.0023016082122921944, -0.012199022807180882, -0.014595162123441696, 0.013752817176282406, -0.016115382313728333, -0.008326361887156963, 0.015725931152701378, 0.01730305328965187, -0.0039890725165605545, 0.01496293768286705, 0.013720852322876453, 0.009079759940505028, -0.016206074506044388, -0.013392770662903786, -0.008506263606250286, 0.0026687076315283775, -0.010980051942169666, 0.011383678764104843, -0.015544038265943527, -0.013798312284052372, -0.0058487351052463055, -0.003043190576136112, -0.015192992053925991, 0.0005704847862944007, 0.013712015002965927, 0.016391796991229057, -0.0036029047332704067, 0.01238627266138792, -0.016392577439546585, 0.016092395409941673, -0.014753174968063831, 8.64263256517006e-06, -0.004464835859835148, 0.009067060425877571, -0.014748718589544296, 0.002781030023470521, 0.008825629018247128, 0.015324498526751995, -0.013162827119231224, 0.011720074340701103, -0.015787452459335327, -0.011294297873973846, 0.016373591497540474, 0.012775136157870293, -0.011370709165930748, 0.002909901551902294, -0.004113967530429363, -0.009441258385777473, -0.0176419485360384, 0.01539958082139492, -0.002608307171612978, 0.012200994417071342, 0.01369458343833685, 0.018027635291218758, -0.002581194043159485, 0.014925164170563221, 0.015858400613069534, 0.013890511356294155, 0.011310882866382599, 0.014414021745324135, -0.01226713601499796, 0.008677633479237556, -0.014375035651028156, 0.0029845591634511948, 2.2056947273085825e-05, -0.00020496227080002427, -0.0031378541607409716, 0.012838148511946201, -0.011198237538337708, -0.00014171611110214144, -4.565984454529826e-06, 0.010506846010684967, 0.004332873038947582, 0.0026934994384646416, -0.012792984955012798, 0.012180864810943604, -0.007978957146406174, 0.0040390766225755215, -0.011469434015452862, 0.017604228109121323, -0.003014953341335058, -0.015172225423157215, 0.005431793630123138, 0.002386834006756544, -0.0026470557786524296, 0.016185428947210312, -0.010708610527217388, -0.011990555562078953, 0.013727739453315735, 0.0026587711181491613, -0.016246391460299492, 0.014619053341448307], [-0.005718270782381296, 0.009465820156037807, -8.645447451272048e-06, 0.009156344458460808, -0.013177837245166302, -0.013417811132967472, -0.01585715264081955, -0.020742973312735558, -0.015078687109053135, 0.0021259093191474676, 0.008924756199121475, 0.0031901965849101543, -0.005609957035630941, -0.01479178573936224, -0.01623080112040043, -0.014436863362789154, -0.02169756032526493, 0.015474792569875717, -0.0031239106319844723, 0.016688618808984756, -0.018108509480953217, 0.013574641197919846, 0.007695425767451525, -0.00021195512090343982, -0.006994916591793299, 0.013668390922248363, -0.006587310694158077, 0.016269013285636902, -0.01389796007424593, 0.012030391953885555, -0.014743301086127758, 0.0012808023020625114, -0.016131222248077393, 0.006814231630414724, -0.01877312734723091, -0.014519954100251198, -0.02120497263967991, -0.012617331929504871, -0.013641733676195145, 0.01485056895762682, -0.018584100529551506, -0.0143054760992527, 0.018928462639451027, 0.006557705346494913, -0.012807128950953484, 0.006797126028686762, 0.013088959269225597, 0.003077809000387788, -0.017402492463588715, -0.013659080490469933, -0.009125236421823502, 0.014301534742116928, -0.010848171077668667, 0.01525838766247034, -0.005773108918219805, -0.01730462536215782, -0.013781982474029064, -0.013146888464689255, -0.01639809086918831, 0.0003843042941298336, 0.012439090758562088, 0.002673524431884289, -0.01562226377427578, 0.003643530886620283, -0.01806594431400299, 0.013760363683104515, -0.013163121417164803, 2.0516057702479884e-05, -0.00441491836681962, 0.009475932456552982, -0.014456075616180897, 0.013723698444664478, 0.003276543691754341, 0.015376528725028038, -0.012975819408893585, 0.015645546838641167, -0.017225876450538635, -0.00403475109487772, 0.002620026934891939, 0.013473942875862122, -0.012531578540802002, 0.01436049398034811, -0.014029467478394508, -0.011437905952334404, -0.005255528725683689, 0.015391466207802296, -0.0167388953268528, 0.013228759169578552, 0.019919132813811302, 0.0025552832521498203, -0.013423100113868713, 0.016083495691418648, 0.0033546360209584236, 0.014620058238506317, 0.011914404109120369, 0.016730567440390587, -0.000635857752058655, 0.00699579669162631, -0.002729406114667654, 0.015297695063054562, -1.798642369976733e-05, -0.0015726089477539062, -0.014212588779628277, 0.004248237702995539, -0.007500041741877794, -0.00024630388361401856, -1.3611202120955568e-05, 0.00912987720221281, 0.011808387003839016, 0.013794384896755219, -0.0031462793704122305, 0.011900299228727818, -0.0103332893922925, 0.015341462567448616, -0.01157892681658268, 0.021664291620254517, -0.008459141477942467, -0.017309658229351044, 0.013389108702540398, 0.018220627680420876, -0.016977423802018166, 0.016920819878578186, -0.015477683395147324, -0.006952519528567791, 0.013866049237549305, 0.015142910182476044, -0.0033511423971503973, 0.012615540064871311], [0.00767543213441968, -0.014648647978901863, 0.004252642393112183, -0.009040270932018757, 0.012930030934512615, 0.011502784676849842, 0.013906428590416908, 0.0034355323296040297, 0.012600317597389221, -0.012393331155180931, -0.006005282513797283, -0.002747300313785672, 0.015115339308977127, 0.0034230684395879507, 0.003095159772783518, 0.011613738723099232, 0.0023299655877053738, -0.012035605497658253, 0.002723599085584283, -0.005225472617894411, 0.013399749994277954, -0.012799455784261227, -0.010677546262741089, 0.00020461254462134093, 0.012401468120515347, -0.0028241181280463934, 0.010862702503800392, -0.014754795469343662, 0.012796296738088131, -0.01082869153469801, 0.012411825358867645, -0.00034839348518289626, 0.014369325712323189, -0.008245435543358326, 0.014312254264950752, 0.002631493378430605, 0.015039211139082909, 0.01167799811810255, 0.0029582884162664413, -0.012607422657310963, 0.006131520960479975, 0.002693432616069913, -0.005647917278110981, -0.014970525167882442, 0.012912102043628693, -0.012976260855793953, -0.0025928569957613945, -0.01477043330669403, 0.012407784350216389, 0.00806853175163269, 0.008640788495540619, -0.012096067890524864, 0.006742616184055805, -0.01472835335880518, 0.01429517101496458, 0.013388680294156075, 0.003709134180098772, 0.012217807583510876, 0.012732640840113163, -0.0033799551893025637, -0.0005494937067851424, -0.012802563607692719, 0.013536376878619194, -0.013084962964057922, 0.0021014634985476732, -0.013224075548350811, 0.0029863801319152117, -1.1267204172327183e-05, 0.011399299837648869, -0.009652589447796345, 0.013366379775106907, -0.012128761038184166, -0.00838214997202158, -0.013515213504433632, 0.014561383053660393, -0.0025052011478692293, 0.013119910843670368, 0.011497696861624718, -0.012073399499058723, -0.00332675245590508, 0.010891437530517578, -0.011651099659502506, 0.0039746579714119434, 0.010272130370140076, 0.01466440036892891, -0.013102171011269093, 0.013415814377367496, -0.011274690739810467, -0.00533159077167511, -0.005200595129281282, 0.011649415828287601, -0.011656587943434715, -0.013071182183921337, -0.004087296314537525, -0.011853964067995548, -0.014887074939906597, 0.0017977446550503373, -0.008420412428677082, 0.012157664634287357, -0.003219974460080266, -2.278848478454165e-05, 0.006445583421736956, 0.011792154051363468, -0.0026708710938692093, 0.011351733468472958, 0.00020832773589063436, 1.711039658403024e-05, -0.009632458910346031, -0.0037678221706300974, -0.012477939017117023, 0.0031313560903072357, -0.011151415295898914, 0.004771368112415075, -0.007524680346250534, 0.011698138900101185, -0.016071602702140808, 0.014308949001133442, 0.014784760773181915, -0.008412747643887997, -0.015800995752215385, 0.014232058078050613, -0.01212657243013382, 0.012271015904843807, 0.005982233211398125, -0.00264736358076334, -0.012240445241332054, 0.002284420421347022, -0.002423942321911454], [-0.008266768418252468, 0.010219629853963852, -0.0030820013489574194, 0.008640016429126263, -0.00995690654963255, -0.009389440529048443, -0.0023930948227643967, -0.009668869897723198, -0.011283027939498425, 0.0021685599349439144, 0.006068343296647072, 0.009561269544064999, -0.0024062669835984707, -0.003731557633727789, -0.00966766756027937, -0.007428877055644989, -0.01027255691587925, 0.010817144997417927, -0.005631177686154842, 0.003068166086450219, -0.011252040974795818, 0.0024728705175220966, 0.010264395736157894, -0.00019719466217793524, -0.010653309524059296, 0.0040897647850215435, -0.009908201172947884, 0.002385613974183798, -0.009402169845998287, 0.012232784181833267, -0.003653201973065734, 9.877079719444737e-05, -0.010366793721914291, 0.00833701528608799, -0.002414688467979431, -0.011696758680045605, -0.009533069096505642, -0.009129546582698822, -0.010731310583651066, 0.003076935885474086, -0.011652849614620209, -0.002459041541442275, 0.0034359849523752928, 0.012826564721763134, -0.0030708934646099806, 0.009763645008206367, 0.004040595609694719, 0.009380531497299671, -0.009585021995007992, -0.010453052818775177, -0.010380559600889683, 0.008997531607747078, -0.008005275391042233, 0.002532154554501176, -0.009357710368931293, -0.00951479934155941, -0.003160014981403947, -0.009724672883749008, -0.002870072377845645, 0.003407289506867528, 0.010732969269156456, 0.010032502003014088, -0.010532393120229244, 0.010867076925933361, -0.010918241925537586, 0.010434620082378387, -0.013034461997449398, 1.491102830186719e-05, -0.0042772237211465836, 0.008292759768664837, -0.012794515118002892, 0.0026641017757356167, 0.011883391067385674, 0.00900441873818636, -0.012753003276884556, 0.009332611225545406, -0.011278782039880753, -0.012280122376978397, 0.003430985612794757, 0.012708312831819057, -0.008472335524857044, 0.010627618990838528, -0.010074087418615818, -0.010697676800191402, -0.010497886687517166, 0.0021280802320688963, -0.011228563264012337, 0.0031366932671517134, 0.00984393060207367, 0.01102481409907341, -0.0025764594320207834, 0.008303550072014332, 0.00913767609745264, 0.010835121385753155, 0.010860693641006947, 0.010930442251265049, -0.0055779325775802135, 0.006884393747895956, -0.012508383952081203, 0.002863979432731867, 5.092449646326713e-05, -0.005106869153678417, -0.012429928407073021, 0.0099985022097826, -0.011117212474346161, -0.00020002953533548862, -8.696786608197726e-06, 0.009916642680764198, 0.006044899113476276, 0.005845480598509312, -0.012781448662281036, 0.00393284484744072, -0.010894609615206718, 0.010404864326119423, -0.003223251085728407, 0.010338525287806988, -0.0031764646992087364, -0.009664980694651604, 0.007209801115095615, 0.003275690833106637, -0.010677842423319817, 0.002614156575873494, -0.002770957536995411, -0.008634070865809917, 0.0027804020792245865, 0.009685500524938107, -0.010674461722373962, 0.009713838808238506], [-0.007804657332599163, 0.01050925999879837, -0.007334090303629637, 0.01222201157361269, -0.002718147588893771, -0.009255446493625641, -0.009883711114525795, -0.01017586700618267, -0.0017762903589755297, 0.002001076005399227, 0.008142851293087006, 0.009682347066700459, -0.010903699323534966, -0.0033839046955108643, -0.009117474779486656, -0.007093560881912708, -0.007635952439159155, 0.008459368720650673, -0.0036942693404853344, 0.0030558446887880564, -0.00851885974407196, 0.003218495287001133, 0.0070856185629963875, -0.0003256602503824979, -0.009987469762563705, 0.010424369014799595, -0.009935352019965649, 0.009832455776631832, -0.01017982792109251, 0.0048952531069517136, -0.005019045434892178, 0.0002835661871358752, -0.00241716206073761, 0.009281600825488567, -0.009210381656885147, -0.010283246636390686, -0.008257761597633362, -0.0028050884138792753, -0.007413254585117102, 0.011542979627847672, -0.008324447087943554, -0.00963351596146822, 0.002544690389186144, 0.010834330692887306, -0.0027891937643289566, 0.010004779323935509, 0.002744189230725169, 0.009400025010108948, -0.006712423171848059, -0.010150810703635216, -0.010277431458234787, 0.010907206684350967, -0.009836507961153984, 0.008998241275548935, -0.00831900630146265, -0.010383734479546547, -0.003553926246240735, -0.0025448077358305454, -0.0023773431312292814, 0.002214774489402771, 0.012657501734793186, 0.009906438179314137, -0.0026094436179846525, 0.009489941410720348, -0.0021029904019087553, 0.008968934416770935, -0.009916930459439754, -4.614601948560448e-06, -0.006414553616195917, 0.009566091001033783, -0.010399769060313702, 0.004065459594130516, 0.0035157606471329927, 0.0031350450590252876, -0.009502090513706207, 0.009869330562651157, -0.009603274054825306, -0.009918701834976673, 0.009204675443470478, 0.009892933070659637, -0.010881509631872177, 0.010685110464692116, -0.0036302199587225914, -0.008666468784213066, -0.004506109282374382, 0.002154445741325617, -0.0028996483888477087, 0.010128590278327465, 0.008954900316894054, 0.007888100109994411, -0.0025404812768101692, 0.008909647352993488, 0.00256905285641551, 0.01068827137351036, 0.01043276209384203, 0.00836882833391428, -0.0023942834232002497, 0.005341314245015383, -0.009116895496845245, 0.006574837025254965, 6.099174061091617e-05, -0.009842760860919952, -0.005911767948418856, 0.009785952977836132, -0.01037740707397461, -0.00016255947411991656, -1.0664898582035676e-05, 0.010651192627847195, 0.009355776943266392, 0.0027082543820142746, -0.01136750727891922, 0.01082864124327898, -0.00782226212322712, 0.009559021331369877, -0.011677801609039307, 0.007492724806070328, -0.0101812444627285, -0.008460183627903461, 0.011756827123463154, 0.010287542827427387, -0.010812931694090366, 0.002689771819859743, -0.008697333745658398, -0.010794940404593945, 0.007917951792478561, 0.00950899999588728, -0.008987262845039368, 0.009229023940861225], [-0.011386589147150517, 0.0018292029853910208, -0.0027710720896720886, 0.010788348503410816, -0.0029471619054675102, -0.002788910176604986, -0.021007895469665527, -0.002542987698689103, -0.001507881679572165, 0.01871967874467373, 0.007837655954062939, 0.030294526368379593, -0.0024917027913033962, -0.016572199761867523, -0.016528114676475525, -0.0025619566440582275, -0.0017731989501044154, 0.022462012246251106, -0.016650846228003502, 0.0240818839520216, -0.0034189936704933643, 0.024784572422504425, 0.006807317957282066, -0.0002705301740206778, -0.0068933661095798016, 0.015998216345906258, -0.010515774600207806, 0.0022568288259208202, -0.0030367006547749043, 0.004347015172243118, -0.026834914460778236, 0.00027456763200461864, -0.006613520905375481, 0.009548744186758995, -0.0024616664741188288, -0.006727125495672226, -0.004266825970262289, -0.02214381843805313, -0.0189709160476923, 0.003262715181335807, -0.0038608054164797068, -0.0025468552485108376, 0.0009726303978823125, 0.00453227711841464, -0.016343358904123306, 0.02035200409591198, 0.016861822456121445, 0.0023543278221040964, -0.001993180951103568, -0.020805925130844116, -0.009144153445959091, 0.02387598343193531, -0.01028408482670784, 0.0030955683905631304, -0.0025551451835781336, -0.0055258492939174175, -0.007221670355647802, -0.02493779920041561, -0.0026277247816324234, 0.14117249846458435, 0.010781400837004185, 0.023414243012666702, -0.017505280673503876, 0.004509568680077791, -0.0173372570425272, 0.024925747886300087, -0.003162357257679105, 2.0275721908546984e-05, -0.010716680437326431, 0.008313862606883049, -0.0028150060679763556, 0.0027253013104200363, 0.008766375482082367, 0.02039712481200695, -0.0037087174132466316, 0.010032093152403831, -0.017651330679655075, -0.012142852880060673, 0.0026410070713609457, 0.0015475794207304716, -0.013483147136867046, 0.02393910475075245, -0.01777292974293232, -0.009676298126578331, -0.001674962928518653, 0.0022177505306899548, -0.003437889739871025, 0.003392004407942295, 0.003162739099934697, 0.0020179757848381996, -0.026600711047649384, 0.0048162490129470825, 0.022606560960412025, 0.015282063744962215, 0.004666479304432869, 0.015149950981140137, -0.003321845317259431, 0.00844822358340025, -0.0030600917525589466, 0.002995892893522978, -1.3294338714331388e-05, -0.007578633259981871, -0.00978052243590355, 0.013496692292392254, -0.010890851728618145, -0.00012387149035930634, -5.334398792911088e-06, 0.008971166796982288, 0.011103897355496883, 0.024085650220513344, -0.016547366976737976, 0.004589015617966652, -0.011101467534899712, 0.008735958486795425, -0.013581747189164162, 0.002815574174746871, -0.0030006698798388243, -0.0024029454216361046, 0.008720289915800095, 0.002969622379168868, -0.022484533488750458, 0.00787326879799366, -0.0023348438553512096, -0.0006090545793995261, 0.023239828646183014, 0.0025367233902215958, -0.009648563340306282, 0.019106531515717506], [-0.01203691866248846, 0.018689827993512154, -0.003159167943522334, 0.008334144949913025, -0.01350605022162199, -0.00973451416939497, -0.01517239399254322, -0.017643840983510017, -0.003036638954654336, 0.005359529517591, 0.009406394325196743, 0.0035038685891777277, -0.0023309565149247646, -0.0033064144663512707, -0.0030701602809131145, -0.012611889280378819, -0.02073138952255249, 0.014120100066065788, -0.002585624111816287, 0.0072545562870800495, -0.002635503187775612, 0.011826617643237114, 0.008104448206722736, -0.0002690403489395976, -0.002326264977455139, 0.0027535983826965094, -0.01018416415899992, 0.016098344698548317, -0.002724337624385953, 0.009085629135370255, -0.002133851870894432, 0.0002596559643279761, -0.015285548754036427, 0.00710840430110693, -0.016037676483392715, -0.008691037073731422, -0.01978316158056259, -0.0027777852956205606, -0.013145477510988712, 0.012894839979708195, -0.017325155436992645, -0.013570415787398815, 0.0023106203880161047, 0.01659342274069786, -0.002868099370971322, 0.0018124888883903623, 0.002485081786289811, 0.017509249970316887, -0.014620495028793812, -0.010753940790891647, -0.010345042683184147, 0.00964867789298296, -0.006725222337990999, 0.014469495043158531, -0.01506456732749939, -0.0033076924737542868, -0.01322980597615242, -0.013128616847097874, -0.006081885192543268, 0.0007576705538667738, 0.002242125803604722, 0.015965251252055168, -0.0066860131919384, 0.011703712865710258, -0.003731081960722804, 0.0015182766364887357, -0.014425701461732388, 1.1446248208812904e-05, -0.004103044047951698, 0.007438567001372576, -0.01519076619297266, 0.004121163859963417, 0.009698470123112202, 0.012350894510746002, -0.0030673400033265352, 0.014405940659344196, -0.013378138653934002, -0.003331935964524746, 0.015824448317289352, 0.013056778348982334, -0.012910725548863411, 0.012193769216537476, -0.01127036102116108, -0.011875511147081852, -0.018994322046637535, 0.013617279008030891, -0.004623671527951956, 0.01364582683891058, 0.01509901974350214, 0.01634998992085457, -0.002525805961340666, 0.012819538824260235, 0.011901995167136192, 0.0037861575838178396, 0.011596291325986385, 0.01464363094419241, -0.012314227409660816, 0.006378739606589079, -0.014282472431659698, 0.012588507495820522, 2.246149415441323e-05, -0.009992999956011772, -0.008877166546881199, 0.012303412891924381, -0.0043334742076694965, -0.00010721464786911383, -6.61368449073052e-06, 0.010598897002637386, 0.011046253144741058, 0.010696609504520893, -0.003893485525622964, 0.011832286603748798, -0.010080982930958271, 0.011707994155585766, -0.0031594166066497564, 0.00253798789344728, -0.002774875145405531, -0.01579931564629078, 0.005331495776772499, 0.015273701399564743, -0.0028217241633683443, 0.00975427683442831, -0.0022688971366733313, -0.006759743671864271, 0.002630458679050207, 0.012906376272439957, -0.01663939841091633, 0.010321649722754955], [0.006660756655037403, -0.016727065667510033, 0.0044182403944432735, -0.0074264840222895145, 0.0115604717284441, 0.0019195019267499447, 0.013118094764649868, 0.002285153139382601, 0.0019166218116879463, -0.0021885300520807505, -0.006124834064394236, -0.012511775828897953, 0.0023287739604711533, 0.01280999556183815, 0.002937069395557046, 0.011926007457077503, 0.019603729248046875, -0.003296337788924575, 0.012986349873244762, -0.007150229997932911, 0.002481169765815139, -0.01242650393396616, -0.011760910041630268, 0.0002704974031075835, 0.013244249857962132, -0.00791929755359888, 0.004053496289998293, -0.0024641561321914196, 0.0027001078706234694, -0.011165181174874306, 0.015377853065729141, -0.0003971290134359151, 0.0023949916940182447, -0.006464599631726742, 0.015163721516728401, 0.013969963416457176, 0.017324354499578476, 0.011599562130868435, 0.00752659747377038, -0.011573096737265587, 0.002286494942381978, 0.012917913496494293, -0.014870298095047474, -0.0034702967386692762, 0.002800587797537446, -0.012524240650236607, -0.013000737875699997, -0.01739414781332016, 0.014956197701394558, 0.0025514739099889994, 0.009074055589735508, -0.01365345623344183, 0.006091795861721039, -0.014381385408341885, 0.014406022615730762, 0.013950820080935955, 0.0085495850071311, 0.011841487139463425, 0.013735045678913593, -0.0035026990808546543, -0.012486957013607025, -0.014900602400302887, 0.013126579113304615, -0.012569226324558258, 0.015520872548222542, -0.001962407259270549, 0.003028438426554203, -4.062242805957794e-05, 0.010621905326843262, -0.010016393847763538, 0.013714473694562912, -0.0026722762268036604, -0.009075349196791649, -0.011483549140393734, 0.004054902587085962, -0.013869005255401134, 0.01342765148729086, 0.0032929228618741035, -0.01568957231938839, -0.012057321146130562, 0.003720948938280344, -0.0028204002883285284, 0.004756026901304722, 0.008117691613733768, 0.01789397932589054, -0.002922985004261136, 0.014916363172233105, -0.01225862093269825, -0.013564050197601318, -0.016895920038223267, 0.0025450049433857203, -0.012759322300553322, -0.011494830250740051, -0.013019472360610962, -0.010896870866417885, -0.004015619400888681, 0.003935543820261955, -0.006946129724383354, 0.013064311817288399, -0.0029143509455025196, -6.876792468801796e-08, 0.007812771946191788, 0.0029220643918961287, -0.005432752892374992, 0.004432108718901873, 0.00024400389520451427, 5.377995421440573e-06, -0.008977589197456837, -0.004550495184957981, -0.011733025312423706, 0.01187827717512846, -0.009778875857591629, 0.007564100902527571, -0.002718843286857009, 0.003422684734687209, -0.017195606604218483, 0.010644585825502872, 0.0033259184565395117, -0.006437132600694895, -0.014680474065244198, 0.0024597349110990763, -0.01287290919572115, 0.002418382791802287, 0.0054417382925748825, -0.002905169501900673, -0.014509295113384724, 0.015875976532697678, -0.011523469351232052], [0.006154114380478859, -0.0026441544760018587, 0.014209018088877201, -0.02106364443898201, 0.03059888258576393, 0.007798554375767708, 0.0026879911310970783, 0.0030696720350533724, 0.009309012442827225, -0.006600380875170231, -0.004999346099793911, -0.003925520461052656, 0.002010977128520608, 0.003597316099330783, 0.0043884823098778725, 0.023966394364833832, 0.0016672321362420917, -0.0018393814098089933, 0.002765290206298232, -0.029817838221788406, 0.002125021768733859, -0.021873949095606804, -0.005467783659696579, 0.0002102838334394619, 0.0011705118231475353, -0.002915309276431799, 0.011662711389362812, -0.0043592494912445545, 0.00210366933606565, -0.00333844730630517, 0.003669653320685029, -7.492726581403986e-05, 0.0018799224635586143, -0.009973670355975628, 0.0023689137306064367, 0.0024033724330365658, 0.0028444789350032806, 0.026138370856642723, 0.007600854616612196, -0.0030308596324175596, 0.0024158612359315157, 0.0019751591607928276, -0.0018360363319516182, -0.002631185343489051, 0.008665014058351517, -0.02240767702460289, -0.01842222362756729, -0.0016170261660590768, 0.004602403379976749, 0.021930385380983353, 0.008674104698002338, -0.0034340545535087585, 0.005986399482935667, -0.002537210937589407, 0.002680800389498472, 0.00215175305493176, 0.0030184199567884207, 0.002670991001650691, 0.0010567056015133858, -0.0034986138343811035, -0.0021986602805554867, -0.0024888021871447563, 0.002697358140721917, -0.017469745129346848, 0.0021518594585359097, -0.026976117864251137, 0.0029790925327688456, 2.0356714230729267e-05, 0.007736335974186659, -0.0026177274994552135, 0.0014997234102338552, -0.004313935525715351, -0.0033332521561533213, -0.002884774934500456, 0.0033102764282375574, -0.0029638754203915596, 0.006992375012487173, 0.009542662650346756, -0.0023252314422279596, -0.003222133032977581, 0.014359017834067345, -0.005112785380333662, 0.017381764948368073, 0.00791195873171091, 0.002223108895123005, -0.028553025797009468, 0.0026610014028847218, -0.0033050086349248886, -0.0009189825505018234, -0.002649155678227544, 0.0034397956915199757, -0.002015401842072606, -0.0034129538107663393, -0.00352002726867795, -0.011395258828997612, -0.0022682268172502518, 0.0020114947110414505, -0.0057824705727398396, 0.0026180187705904245, -0.024650325998663902, -0.00016882883210200816, 0.0069853030145168304, 0.006956793833523989, -0.0032178047113120556, 0.00618194043636322, 0.0001332037936663255, 2.7698388294083998e-05, -0.009999746456742287, -0.011060940101742744, -0.019611336290836334, 0.0049308473244309425, -0.0039075808599591255, 0.011231228709220886, -0.0030168474186211824, 0.012636952102184296, -0.0007338577415794134, 0.015358565375208855, 0.0024529010988771915, -0.00572187127545476, -0.0025497940368950367, 0.002297408180311322, -0.002345775719732046, 0.0021317354403436184, 0.0006731092580594122, -0.004383888095617294, -0.0031400788575410843, 0.0009556992445141077, -0.025999782606959343], [0.007762679364532232, -0.0025645645800977945, 0.005315362475812435, -0.009250158444046974, 0.013038977049291134, 0.0026887066196650267, 0.012765780091285706, 0.014465732499957085, 0.013164854608476162, -0.0037201805971562862, -0.01070129033178091, -0.012869775295257568, 0.014129843562841415, 0.013001957908272743, 0.01382070779800415, 0.011612883768975735, 0.013719424605369568, -0.012793737463653088, 0.00950139295309782, -0.003130601719021797, 0.013037683442234993, -0.0025415769778192043, -0.00836624950170517, 0.00027748325373977423, 0.01227647066116333, -0.01159159280359745, 0.004210206214338541, -0.0035213909577578306, 0.012539790011942387, -0.009869592264294624, 0.011613446287810802, -0.0002592792734503746, 0.002498720306903124, -0.009080704301595688, 0.014163518324494362, 0.0029623908922076225, 0.014505649916827679, 0.00740223191678524, 0.012858937494456768, -0.0029610476922243834, 0.0024588443338871002, 0.0023773806169629097, -0.012976636178791523, -0.015252985991537571, 0.013485011644661427, -0.004510487895458937, -0.0027124513871967793, -0.013470231555402279, 0.0025072081480175257, 0.002631246577948332, 0.00912878941744566, -0.0028560382779687643, 0.006493870634585619, -0.012541089206933975, 0.0058811926282942295, 0.003058020956814289, 0.013639111071825027, 0.010330626741051674, 0.003042834345251322, -0.0005036804941482842, -0.010054130107164383, -0.0027140765450894833, 0.01334404293447733, -0.012450245209038258, 0.014045500196516514, -0.012604198418557644, 0.012473147362470627, -2.049705472018104e-05, 0.009150555357336998, -0.005395245738327503, 0.012232574634253979, -0.0028612553142011166, -0.007986773736774921, -0.013506249524652958, 0.0035775979049503803, -0.013952741399407387, 0.01303834654390812, 0.0035862934309989214, -0.013708841055631638, -0.010480920784175396, 0.0038914664182811975, -0.012031740508973598, 0.002913146046921611, 0.01061913650482893, 0.014576556161046028, -0.005465376656502485, 0.002728980965912342, -0.0032315352000296116, -0.0026545810978859663, -0.01385505124926567, 0.013111519627273083, -0.010770447552204132, -0.013022095896303654, -0.012594618834555149, -0.011811607517302036, -0.007444737944751978, 0.0046530854888260365, -0.007892578840255737, 0.004994448274374008, -0.011732436716556549, -0.00018866886966861784, 0.005066296085715294, 0.01200628187507391, -0.01149963028728962, 0.005632569082081318, 0.00012535788118839264, 1.4772646864003036e-05, -0.009176725521683693, -0.011216369457542896, -0.010551171377301216, 0.011597270146012306, -0.0110660120844841, 0.011048098094761372, -0.0030196814332157373, 0.010759850963950157, -0.01381678506731987, 0.0029514459893107414, 0.00248766434378922, -0.005748321767896414, -0.01374688558280468, 0.013251891359686852, -0.01373423170298338, 0.0098247230052948, 0.010608079843223095, -0.002232801169157028, -0.0026490120217204094, 0.0023245601914823055, -0.012233411893248558], [-0.027708658948540688, 0.003357178997248411, -0.08334797620773315, 0.020913060754537582, -0.0025243216659873724, -0.0014948054449632764, -0.003265546401962638, -0.002494082087650895, -0.0023399016354233027, 0.002333584940060973, -0.013889629393815994, 0.0019189491868019104, -0.0001122879984905012, -0.00015995102876331657, -0.0006581771885976195, -0.00188980542588979, -0.003507827175781131, 0.0033667823299765587, -0.000860116386320442, 0.0025944567751139402, -0.0026670966763049364, 0.003830746514722705, 0.009921055287122726, -0.0002544732706155628, -0.00019299410632811487, 0.00013467049575410783, -0.0003895452246069908, 0.0010756169212982059, -0.00020974130893591791, 0.00011531378549989313, -0.002838781801983714, 0.0007060795905999839, -0.002581891603767872, 0.008499007672071457, -0.0037323576398193836, -0.0007811076357029378, -0.002240904374048114, -0.002224267227575183, -0.0023372252471745014, 0.0011569347698241472, -0.0013639150420203805, -0.002034425735473633, 0.001409898861311376, 0.000672908965498209, -0.001777815050445497, 0.003180165309458971, 0.004746720194816589, 0.0018687923438847065, -0.0031422728206962347, -0.0020516912918537855, -0.008836375549435616, 0.005390551406890154, -6.288088570727268e-06, 0.0031958825420588255, -0.0013845653738826513, -0.0014269273960962892, -0.0004145445709582418, -0.0014763344079256058, -0.002552101854234934, 0.0004980383673682809, 0.0011244813213124871, 0.0024372562766075134, -0.00040098660974763334, 0.00380511162802577, -0.000760673894546926, 0.0009259479702450335, -9.478278661845252e-05, -2.034092540270649e-05, -0.0001739030994940549, 0.00021079742873553187, -8.145311585394666e-05, 0.003121907589957118, 0.010735192336142063, 0.0043674432672560215, -0.0007491351570934057, 0.0035001328215003014, -0.0040808180347085, -0.000322376232361421, 0.003162092063575983, 0.00035178742837160826, -0.00028834131080657244, 0.0028237442020326853, -0.0005533151561394334, -0.0004385166976135224, -0.0034659160301089287, 0.0014006543206050992, -0.0041551366448402405, 0.0002729039406403899, 0.0021063457243144512, 0.003766251727938652, -0.0033425556030124426, 0.0005696828593499959, 0.002537437714636326, 0.0002022365661105141, 0.00124107557348907, 0.00018019760318566114, -0.0023729982785880566, 0.007704575080424547, -0.00014751427806913853, 0.004842501599341631, -1.2596602573466953e-05, 0.08039300888776779, -0.00023636850528419018, 0.003197652520611882, -0.0002325514069525525, -0.00017777382163330913, -2.630224662425462e-05, 0.00037463990156538785, 0.002770035993307829, 0.001381976529955864, -0.0009712149621918797, 5.059281465946697e-05, -0.007781623397022486, 0.0037855347618460655, -0.0020269057713449, 0.0025182170793414116, -0.00019337781122885644, -0.0014510242035612464, 0.005886456463485956, 0.00410066545009613, -0.0033621799666434526, 0.002640075283125043, -0.0032068761065602303, -0.006000419147312641, 0.0029634423553943634, 0.002186316531151533, -0.0033688920084387064, 0.003115690080448985], [0.02694881334900856, -0.002417839365079999, 0.059729959815740585, -0.030360721051692963, 0.0022963788360357285, 0.002354994183406234, 0.0027671512216329575, 0.0031195692718029022, 0.0023038003128021955, -0.002512415638193488, 0.014946331270039082, -0.003022664925083518, 0.001916667795740068, 0.0001621759874979034, 0.004306546412408352, 0.0015225488459691405, 0.0019471849082037807, -0.002155330264940858, 0.0007701777503825724, -0.0026253212708979845, 0.003294286783784628, -0.0037401423323899508, -0.009293276816606522, 0.00026374534354545176, 0.00015680988144595176, -0.000216603628359735, 0.00029956086655147374, -0.0014943154528737068, 0.0012941458262503147, -0.0001348257064819336, 0.003043851349502802, -0.00028244577697478235, 0.003367854980751872, -0.008858582004904747, 0.0015854323282837868, 0.0009824445005506277, 0.0013724550371989608, 0.001993381418287754, 0.0037746219895780087, -0.002261639107018709, 0.0026947087608277798, 0.0030689456034451723, -0.0014230664819478989, -0.003575872164219618, 0.0022683253046125174, -0.002931621391326189, -0.004023321438580751, -0.0024288869462907314, 0.003127841278910637, 0.003554432187229395, 0.007791009731590748, -0.003903323318809271, -0.03109119087457657, -0.002676584292203188, 0.0027825525030493736, 0.002509053098037839, 0.00048128337948583066, 0.001116964966058731, 0.0015205277595669031, -0.0003909252118319273, -0.002348770387470722, -0.000707527797203511, 0.0029237924609333277, -0.0037201030645519495, 0.0017693055560812354, -0.000883429020177573, 0.0005647430079989135, 1.5869856724748388e-05, 0.00036294295568950474, -0.0002983621379826218, 7.547689892817289e-05, -0.002984820632264018, -0.009315618313848972, -0.0026383809745311737, 0.003947548568248749, -0.0022511370480060577, 0.0034043756313622, 0.00027096178382635117, -0.0029995753429830074, -0.00031616765772923827, 0.00011522386921569705, -0.0038469554856419563, 0.00045518777915276587, 0.0002725816739257425, 0.002029745141044259, -0.0024009603075683117, 0.001808089786209166, -0.0007007134845480323, -0.0017352050635963678, -0.003124254522845149, 0.0037913834676146507, -0.0009302909602411091, -0.0019086303655058146, -0.0007040040800347924, -0.001494189607910812, -0.003269077045843005, 0.002250660676509142, -0.005735728424042463, 0.0010846006916835904, -0.0027617907617241144, 2.3279239030671306e-05, -0.06407186388969421, 0.00031506799859926105, -0.0027752129826694727, 0.0003264903207309544, 0.006027308292686939, 1.3768683857051656e-05, -0.0004053840530104935, -0.0026932423934340477, -0.0023401551879942417, 0.0001766516943462193, -0.0002054920478258282, 0.009115612134337425, -0.0013967439299449325, 0.002730059903115034, -0.0016319098649546504, 0.004159711766988039, 0.0036538622807711363, -0.00545101473107934, -0.0038157303351908922, 0.001593976397998631, -0.0013827555812895298, 0.0035324350465089083, 0.00536648603156209, -0.0013598725199699402, -0.0029557840898633003, 0.0033888949546962976, -0.001021610340103507], [0.008466729894280434, -0.011743825860321522, 0.011522786691784859, -0.007916810922324657, 0.01175638660788536, 0.011693565174937248, 0.010361261665821075, 0.012350266799330711, 0.010580858215689659, -0.010889340192079544, -0.010348099283874035, -0.012269975617527962, 0.013800420798361301, 0.004656877834349871, 0.003059200244024396, 0.005260346457362175, 0.011650171130895615, -0.010577220469713211, 0.011812776327133179, -0.004994028713554144, 0.012885943986475468, -0.011826755478978157, -0.008041748777031898, 0.00026109610917046666, 0.0032308411318808794, -0.010778100229799747, 0.010541829280555248, -0.011830165982246399, 0.012834099121391773, -0.0036850497126579285, 0.01139624509960413, -0.000146423393744044, 0.01191769726574421, -0.010665572248399258, 0.00325279519893229, 0.013319551013410091, 0.011472735553979874, 0.011470339260995388, 0.003128213109448552, -0.003080046037212014, 0.011669040657579899, 0.011009138077497482, -0.014008704572916031, -0.01255801972001791, 0.009910708293318748, -0.0026507761795073748, -0.01375680509954691, -0.012008837424218655, 0.004969016648828983, 0.002655034651979804, 0.008609107695519924, -0.012036873959004879, 0.009234060533344746, -0.01095097791403532, 0.0037089313846081495, 0.011878064833581448, 0.011790812015533447, 0.004950644914060831, 0.0029111113399267197, -0.0033926130272448063, -0.011231662705540657, -0.01241996418684721, 0.012126373127102852, -0.0032200892455875874, 0.01345155481249094, -0.00213919417001307, 0.004947317764163017, -1.1497038940433413e-05, 0.012143624946475029, -0.009274083189666271, 0.0029908623546361923, -0.012003238312900066, -0.003558563068509102, -0.011829541064798832, 0.012345980852842331, -0.014046664349734783, 0.01266407035291195, 0.011747128330171108, -0.002533875172957778, -0.01134128775447607, 0.011588851921260357, -0.002792473416775465, 0.010651920922100544, 0.007864843122661114, 0.0023672699462622404, -0.0025175409391522408, 0.002882863162085414, -0.01290916372090578, -0.013613377697765827, -0.01252409815788269, 0.011043859645724297, -0.013375853188335896, -0.011151307262480259, -0.0030911939684301615, -0.010780076496303082, -0.012450301088392735, 0.003513979958370328, -0.007037437986582518, 0.0027226307429373264, -0.010590366087853909, -2.3065545974532142e-05, 0.012075424194335938, 0.013311032205820084, -0.011401890777051449, 0.010169432498514652, 0.006282127927988768, 1.8726359485299326e-06, -0.010925807058811188, -0.012530715204775333, -0.012574569322168827, 0.01201820932328701, -0.01042797788977623, 0.01151181012392044, -0.006804786156862974, 0.003337662201374769, -0.011092042550444603, 0.0029645480681210756, 0.0037167391274124384, -0.006957722827792168, -0.012436719611287117, 0.00303080677986145, -0.009925778955221176, 0.012311368249356747, 0.005688442848622799, -0.0029103578999638557, -0.003985023591667414, 0.011941790580749512, -0.013277768157422543], [-0.00654574716463685, 0.011359136551618576, -0.003489451250061393, 0.008949805982410908, -0.010963981971144676, -0.002700667129829526, -0.002364960964769125, -0.0123717300593853, -0.011233944445848465, 0.012057894840836525, 0.009520379826426506, 0.0041454508900642395, -0.011644702404737473, -0.003396065440028906, -0.010967608541250229, -0.012206514365971088, -0.011213290505111217, 0.011020521633327007, -0.010974074713885784, 0.012675176374614239, -0.010456868447363377, 0.009842599742114544, 0.008514288812875748, -0.00028206256683915854, -0.012323984876275063, 0.002783756237477064, -0.012029825709760189, 0.011381903663277626, -0.013030901551246643, 0.011267278343439102, -0.009510152973234653, 0.0005859504453837872, -0.01033017411828041, 0.008914556354284286, -0.009948442690074444, -0.012447681277990341, -0.011878842487931252, -0.012306300923228264, -0.013251857832074165, 0.011012201197445393, -0.011726338416337967, -0.009857668541371822, 0.012111990712583065, 0.01351103000342846, -0.011445737443864346, 0.010952180251479149, 0.012914963066577911, 0.011050431057810783, -0.005011076107621193, -0.01120108924806118, -0.009684264659881592, 0.011838695965707302, -0.006620758678764105, 0.009016014635562897, -0.010265238583087921, -0.01350540854036808, -0.011441065929830074, -0.011936291120946407, -0.003960439935326576, 0.00035822458448819816, 0.010858999565243721, 0.012277714908123016, -0.011345786973834038, 0.0036494405940175056, -0.0021652791183441877, 0.005334958434104919, -0.011203790083527565, -1.6637755834381096e-05, -0.009801310487091541, 0.006729479413479567, -0.0028221532702445984, 0.011812201701104641, 0.0032092786859720945, 0.0039532799273729324, -0.01191641204059124, 0.012404839508235455, -0.008992238901555538, -0.010745267383754253, 0.011440987698733807, 0.013712295331060886, -0.010310113430023193, 0.0108417347073555, -0.005282318685203791, -0.009397746063768864, -0.010716634802520275, 0.011905517429113388, -0.002613270655274391, 0.012353737838566303, 0.008528895676136017, 0.005029649939388037, -0.011566465720534325, 0.0025158394128084183, 0.009903395548462868, 0.012477113865315914, 0.010688085108995438, 0.009824102744460106, -0.0022387790959328413, 0.007875225506722927, -0.01240527257323265, 0.010850797407329082, 0.00020986056188121438, -0.01185826025903225, -0.0030324559193104506, 0.010787444189190865, -0.004841392859816551, -0.0002385900152148679, -4.794937922270037e-05, 0.008207088336348534, 0.010762687772512436, 0.0026489708106964827, -0.0030285536777228117, 0.004072936251759529, -0.008245938457548618, 0.003606171812862158, -0.01071700919419527, 0.010844304226338863, -0.011225837282836437, -0.011447294615209103, 0.00798715464770794, 0.011436529457569122, -0.010827027261257172, 0.01043774001300335, -0.011878554709255695, -0.011593031696975231, 0.012064322829246521, 0.012100284919142723, -0.01255084853619337, 0.011178992688655853], [-0.011989382095634937, 0.009867651388049126, -0.003590234089642763, 0.007249545305967331, -0.008743107318878174, -0.008946666494011879, -0.009681965224444866, -0.009923871606588364, -0.0073136561550199986, 0.002256503328680992, 0.00650414964184165, 0.007306997198611498, -0.004543437622487545, -0.007495599798858166, -0.009780446998775005, -0.008799271658062935, -0.002126683248206973, 0.008719071745872498, -0.003477545687928796, 0.008023676462471485, -0.010323568247258663, 0.0031309861224144697, 0.008787359111011028, -0.00028358979034237564, -0.009894849732518196, 0.010636944323778152, -0.011414948850870132, 0.00863911397755146, -0.008010312914848328, 0.008134182542562485, -0.004479971248656511, 0.0001225730375153944, -0.008980347774922848, 0.007114832289516926, -0.008883310481905937, -0.012590209022164345, -0.003053088439628482, -0.0029126328881829977, -0.011021318845450878, 0.009160405956208706, -0.0070032295770943165, -0.006906661670655012, 0.0033662510104477406, 0.003383608302101493, -0.0029251237865537405, 0.00978877954185009, 0.012201647274196148, 0.009030093438923359, -0.007975518703460693, -0.002495483960956335, -0.008902897126972675, 0.008734863251447678, -0.009278306737542152, 0.009571508504450321, -0.009231898002326488, -0.00932986754924059, -0.010950908064842224, -0.006778559647500515, -0.00909875426441431, 0.00046665925765410066, 0.008181958459317684, 0.00831154640763998, -0.00818411074578762, 0.010990072041749954, -0.008558888919651508, 0.002008176641538739, -0.00867399014532566, -6.559336270584026e-06, -0.011844302527606487, 0.010805484838783741, -0.010838455520570278, 0.00893204752355814, 0.007657086476683617, 0.010460608638823032, -0.011087398044764996, 0.0044175381772220135, -0.007803300395607948, -0.010295982472598553, 0.008745038881897926, 0.009543146938085556, -0.009442988783121109, 0.007528753485530615, -0.004713686183094978, -0.010491914115846157, -0.007105083204805851, 0.008975796401500702, -0.01031695306301117, 0.003109002485871315, 0.003535597352311015, 0.009197653271257877, -0.00945968460291624, 0.00897411908954382, 0.007693419698625803, 0.00968390703201294, 0.005842840764671564, 0.009004350751638412, -0.0036812173202633858, 0.006668746005743742, -0.008276894688606262, 0.0030307378619909286, 3.096636646660045e-05, -0.009245529770851135, -0.003368339268490672, 0.009142524562776089, -0.009201171807944775, -0.0002093865623464808, -4.466975497052772e-06, 0.00639632623642683, 0.010161844082176685, 0.008957313373684883, -0.008237216621637344, 0.011231105774641037, -0.011354244314134121, 0.011160856112837791, -0.01075991615653038, 0.008452299982309341, -0.008436773903667927, -0.00791885145008564, 0.003903477918356657, 0.00378976808860898, -0.010628520511090755, 0.0041310712695121765, -0.008460423909127712, -0.0066720666363835335, 0.00973225012421608, 0.008553716354072094, -0.010123197920620441, 0.010450509376823902], [-0.008389086462557316, 0.0095212422311306, -0.005293221212923527, 0.007978545501828194, -0.014895624481141567, -0.013137404806911945, -0.01636151596903801, -0.018375150859355927, -0.013272485695779324, 0.014866848476231098, 0.011670327745378017, 0.016660606488585472, -0.017938317731022835, -0.013853859156370163, -0.006767421029508114, -0.015607298351824284, -0.0194205641746521, 0.014860117807984352, -0.01580825075507164, 0.01652524247765541, -0.01835705153644085, 0.0025902949273586273, 0.010610582306981087, -0.00020162935834378004, -0.012447926215827465, 0.013520803302526474, -0.010869358666241169, 0.015455576591193676, -0.014686710201203823, 0.012805254198610783, -0.013645175844430923, 0.000745633093174547, -0.0030322337988764048, 0.010990927927196026, -0.0179077610373497, -0.008775698021054268, -0.00236710743047297, -0.01424193475395441, -0.014820980839431286, 0.0034724061843007803, -0.0029202508740127087, -0.004851161036640406, 0.017762944102287292, 0.01755274459719658, -0.013997256755828857, 0.014335844665765762, 0.0027384976856410503, 0.019479159265756607, -0.016330866143107414, -0.013193478807806969, -0.008632808923721313, 0.014090088196098804, -0.010094426572322845, 0.014874832704663277, -0.010200751945376396, -0.0167754665017128, -0.01341983675956726, -0.014381167478859425, -0.01591329462826252, 0.000473939988296479, 0.01162461657077074, 0.01688089594244957, -0.015651704743504524, 0.01214548572897911, -0.01609804295003414, 0.015397689305245876, -0.01346116978675127, 1.1483924026833847e-05, -0.010200554504990578, 0.0061970967799425125, -0.010950682684779167, 0.0155758922919631, 0.003101453883573413, 0.002731329295784235, -0.013933749869465828, 0.015047605149447918, -0.017210660502314568, -0.010484183207154274, 0.017418891191482544, 0.0035867185797542334, -0.008720587007701397, 0.014151555486023426, -0.01440584659576416, -0.00776095874607563, -0.018580686300992966, 0.015493661165237427, -0.017820492386817932, 0.014091884717345238, 0.015272554010152817, 0.0025836415588855743, -0.007478303276002407, 0.015151217579841614, 0.014873355627059937, 0.014461973682045937, 0.010379049926996231, 0.015690146014094353, -0.00030079580028541386, 0.006368606351315975, -0.014872663654386997, 0.007850020192563534, 1.092460206564283e-05, -0.001040060305967927, -0.013253964483737946, 0.01393513847142458, -0.009630655869841576, -0.00017530767945572734, -3.719104279298335e-05, 0.009495900943875313, 0.010640927590429783, 0.013696202076971531, -0.013244638219475746, 0.011033575050532818, -0.007551874034106731, 0.016118863597512245, -0.011312189511954784, 0.018424881622195244, -0.012012904509902, -0.01782003976404667, 0.008635714650154114, 0.017360998317599297, -0.004361521452665329, 0.017012564465403557, -0.017430070787668228, -0.006204991135746241, 0.013745256699621677, 0.0024943992029875517, -0.0023777391761541367, 0.015148858539760113], [-0.010440592654049397, 0.007491948548704386, -0.002749828854575753, 0.010983593761920929, -0.011329066939651966, -0.022615822032094002, -0.00959603488445282, -0.007111553102731705, -0.007110843434929848, 0.005423727910965681, 0.0012268206337466836, 0.00986294262111187, -0.0072629270143806934, -0.014298892579972744, -0.007242435123771429, -0.004766311030834913, -0.00729780038818717, 0.003988856449723244, -0.007735318969935179, 0.015614350326359272, -0.008411817252635956, 0.007753135170787573, 0.003150445641949773, -0.0002038953243754804, -0.007158007472753525, 0.00932361837476492, -0.013333787210285664, 0.0016001214971765876, -0.008662862703204155, 0.014095744118094444, -0.0067474269308149815, 0.00011385938705643639, -0.011452293023467064, 0.006659228354692459, -0.006560940761119127, -0.00196460890583694, -0.0053362189792096615, -0.004124987870454788, -0.010004726238548756, 0.01846613921225071, -0.00749201187863946, -0.006282232701778412, 0.007436562329530716, 0.007856086827814579, -0.02046871744096279, 0.00939083844423294, 0.013077068142592907, 0.010919975116848946, -0.010152901522815228, -0.008033055812120438, -0.010373125784099102, 0.005820820573717356, -0.013133352622389793, 0.00770622817799449, -0.0059677413664758205, -0.0035193979274481535, -0.010146832093596458, -0.012310204096138477, -0.0014067605370655656, 0.00043929554522037506, 0.013730552047491074, 0.006369670853018761, -0.00903254933655262, 0.003371242666617036, -0.0051701124757528305, 0.007345865946263075, -0.008419890888035297, -1.6847641745698638e-05, -0.019062142819166183, 0.015564699657261372, -0.011669034138321877, 0.01334956381469965, 0.011703160591423512, 0.007573101203888655, -0.013712480664253235, 0.0019165431149303913, -0.00775299733504653, -0.030295439064502716, 0.007946614176034927, 0.009562312625348568, -0.01475866325199604, 0.03423004597425461, -0.01112372800707817, -0.003640098962932825, -0.007299267221242189, 0.0064224363304674625, -0.005526016000658274, 0.009710274636745453, 0.005624203477054834, 0.007019910030066967, -0.008327147923409939, 0.001833870424889028, 0.006794306915253401, 0.009244075044989586, 0.0017309148097410798, 0.006378463935106993, -0.008933337405323982, 0.013363959267735481, -0.00790224876254797, 0.008963256143033504, -9.33779574552318e-06, -0.00263286754488945, -0.008509482257068157, 0.007623715326189995, -0.012587830424308777, -0.00021145462233107537, -1.159001953965344e-06, 0.011230682022869587, 0.0037502311170101166, 0.0025553719606250525, -0.015507150441408157, 0.013669307343661785, -0.00917934812605381, 0.016128340736031532, -0.018344473093748093, 0.006226729601621628, -0.012743055820465088, -0.006078754551708698, 0.005963632836937904, 0.0071669514290988445, -0.0060147508047521114, 0.006108591333031654, -0.007819886319339275, -0.013158992864191532, 0.012703875079751015, 0.007513591554015875, -0.008631773293018341, 0.004056314006447792], [0.010758906602859497, -0.012002679519355297, 0.011402425356209278, -0.010677851736545563, 0.013821619562804699, 0.016270965337753296, 0.010886771604418755, 0.010459713637828827, 0.006719395983964205, -0.010347667150199413, -0.00019055575830861926, -0.014839102514088154, 0.012767615728080273, 0.01719914935529232, 0.016407012939453125, 0.006751664448529482, 0.012170476838946342, -0.011015873402357101, 0.01290253084152937, -0.015035370364785194, 0.016126388683915138, -0.012115448713302612, -0.00038008461706340313, 0.0001920303184306249, 0.008192584849894047, -0.012180857360363007, 0.0186166949570179, -0.0032234417740255594, 0.018500428646802902, -0.02236654981970787, 0.012007031589746475, -0.00013775155821349472, 0.014776273630559444, -0.006810839753597975, 0.006246148142963648, 0.014247020706534386, 0.00835761334747076, 0.02712889388203621, 0.006697752047330141, -0.01371323224157095, 0.010769899934530258, 0.01144441869109869, -0.022701025009155273, -0.013844863511621952, 0.016865964978933334, -0.008107556030154228, -0.006339803338050842, -0.020733024924993515, 0.016077816486358643, 0.010098610073328018, 0.009392281994223595, -0.0051393345929682255, 0.00305435573682189, -0.013060024939477444, 0.011909348890185356, 0.01448121014982462, 0.021894365549087524, 0.008169300854206085, 0.008751478977501392, -0.002611488103866577, -0.009184942580759525, -0.012966063804924488, 0.008482701145112514, -0.0031843651086091995, 0.013575393706560135, -0.010838585905730724, 0.014897515065968037, -4.0635070035932586e-05, 0.010275718756020069, -0.015072057023644447, 0.017270145937800407, -0.02357914298772812, -0.006309152580797672, -0.014612376689910889, 0.009281438775360584, -0.0016050362028181553, 0.011440751142799854, 0.017315011471509933, -0.019783468917012215, -0.02225513756275177, 0.01599130593240261, -0.01824469491839409, 0.013507749885320663, 0.004785371012985706, 0.010411965660750866, -0.009853245690464973, 0.009676177054643631, -0.01246724370867014, -0.021709149703383446, -0.011601624079048634, 0.012066669762134552, -0.0039183213375508785, -0.007414127234369516, -0.015039583668112755, -0.002642763312906027, -0.014318814501166344, 0.009305056184530258, -0.013045025989413261, 0.00941114965826273, -0.015194902196526527, -3.864286099997116e-06, 0.0019576018676161766, 0.010576802305877209, -0.010789753869175911, 0.012130282819271088, 0.00016120377404149622, 4.606617494573584e-06, -0.011933748610317707, -0.0009672032902017236, -0.002533760853111744, 0.017353275790810585, -0.017664900049567223, 0.010588896460831165, -0.013466157019138336, 0.01372138038277626, -0.010083903558552265, 0.009791568852961063, 0.011690359562635422, -0.004006230738013983, -0.004154819995164871, 0.011902651749551296, -0.017569130286574364, 0.009926510974764824, 0.009625800885260105, -0.014596069231629372, -0.009481600485742092, 0.006989629473537207, -0.0099656255915761], [0.008153933100402355, -0.009200970642268658, 0.004013333935290575, -0.007798586972057819, 0.002854246413335204, 0.009680199436843395, 0.009645672515034676, 0.009948402643203735, 0.010304848663508892, -0.010371520183980465, -0.011070181615650654, -0.0025931838899850845, 0.01099788025021553, 0.011672429740428925, 0.010331220924854279, 0.0025645983405411243, 0.009493854828178883, -0.0025443725753575563, 0.01096209418028593, -0.00992779154330492, 0.01053804811090231, -0.00877861212939024, -0.008192663080990314, 0.0002086450986098498, 0.011121867224574089, -0.010020855814218521, 0.00780614884570241, -0.011828967370092869, 0.01207560021430254, -0.005093833431601524, 0.0037905077915638685, -0.0007531504379585385, 0.0029028705321252346, -0.008837148547172546, 0.009884725324809551, 0.0036195102147758007, 0.011007419787347317, 0.010902415961027145, 0.011975840665400028, -0.00934833474457264, 0.010599802248179913, 0.009408306330442429, -0.011240956373512745, -0.010495617985725403, 0.006500718649476767, -0.00936707854270935, -0.011142907664179802, -0.010017570108175278, 0.002434341236948967, 0.008628902025520802, 0.008951873518526554, -0.008806579746305943, 0.0071360147558152676, -0.0031332855578511953, 0.011571264825761318, 0.008474514819681644, 0.003541403915733099, 0.010525616817176342, 0.002158398274332285, -0.0006972277187742293, -0.009518451988697052, -0.011109275743365288, 0.003235685871914029, -0.010213703848421574, 0.006452744361013174, -0.002103484468534589, 0.002871534088626504, -4.091037408215925e-05, 0.0043016704730689526, -0.011338852345943451, 0.011433789506554604, -0.011547296307981014, -0.00902774278074503, -0.010252733714878559, 0.010241521522402763, -0.011019613593816757, 0.011622645892202854, 0.009830597788095474, -0.010074397549033165, -0.005684287752956152, 0.012247830629348755, -0.0029049282893538475, 0.009513964876532555, 0.010614360682666302, 0.0048186881467700005, -0.009359198622405529, 0.01025066152215004, -0.01212733518332243, -0.009963859803974628, -0.00731135718524456, 0.010096387006342411, -0.002490421524271369, -0.009766372852027416, -0.011756308376789093, -0.012119656428694725, -0.0066415416076779366, 0.0004742433375213295, -0.011243287473917007, 0.010681544430553913, -0.010836408473551273, 2.3196764686872484e-06, 0.00029815841116942465, 0.004511959385126829, -0.005803217180073261, 0.012712404131889343, 0.00021458604896906763, 3.521930557326414e-05, -0.009135953150689602, -0.012102223001420498, -0.002485161880031228, 0.00976052787154913, -0.011611364781856537, 0.010999346151947975, -0.0028028213419020176, 0.010243157856166363, -0.0020523839630186558, 0.011018461547791958, 0.002537001622840762, -0.00996070820838213, -0.0022629443556070328, 0.011742129921913147, -0.0039498331025242805, 0.011007594875991344, 0.008285602554678917, -0.010354642756283283, -0.010233196429908276, 0.00439018290489912, -0.009763837791979313], [0.01144790556281805, -0.0019695775117725134, 0.013257931917905807, -0.016693295910954475, 0.025737367570400238, 0.016695531085133553, 0.022403109818696976, 0.0015568863600492477, 0.0017229957738891244, -0.0020023139659315348, -0.006155028473585844, -0.030169356614351273, 0.0018003034638240933, 0.0038616983219981194, 0.014103745110332966, 0.002459484152495861, 0.003033579559996724, -0.020953673869371414, 0.002689874032512307, -0.003121746238321066, 0.00492731062695384, -0.024790041148662567, -0.011333427391946316, 0.0003630665014497936, 0.0023358699399977922, -0.0078036063350737095, 0.005356408655643463, -0.011684000492095947, 0.002846386982128024, -0.0034611313603818417, 0.02750733494758606, -0.0002692262933123857, 0.02122974954545498, -0.009598955512046814, 0.0023393689189106226, 0.002234114333987236, 0.0026905699633061886, 0.00643105199560523, 0.002779714995995164, -0.018029337748885155, 0.00219927285797894, 0.002369985682889819, -0.0024764612317085266, -0.0017160188872367144, 0.016252970322966576, -0.002647201996296644, -0.0027925297617912292, -0.0014117255341261625, 0.0009727606666274369, 0.021271271631121635, 0.008896931074559689, -0.026603939011693, 0.007226892281323671, -0.0009925098856911063, 0.0025612858589738607, 0.0012454299721866846, 0.0014642066089436412, 0.02432030811905861, 0.021642405539751053, -0.00385724613443017, -0.009872255846858025, -0.021644150838255882, 0.01702165976166725, -0.013934224843978882, 0.013775781728327274, -0.022145578637719154, 0.002238084329292178, 6.8720669332833495e-06, 0.007737781852483749, -0.011333782225847244, 0.002226122422143817, -0.002717008348554373, -0.00363189191557467, -0.005101596936583519, 0.0166995357722044, -0.002684437669813633, 0.0055420962162315845, 0.01215509045869112, -0.002442095195874572, -0.001341868075542152, 0.014198062010109425, -0.019735785201191902, 0.002710543805733323, 0.0078239431604743, 0.0008447351865470409, -0.026011494919657707, 0.002866106340661645, -0.0026293504051864147, -0.00862348172813654, -0.003739908803254366, 0.02755500189960003, -0.002291969256475568, -0.02399817854166031, -0.00387509330175817, -0.0049658529460430145, -0.0009862367296591401, 0.01574104093015194, -0.006169089116156101, 0.0027174463029950857, -0.0032513104379177094, 1.7484291674918495e-05, 0.001157084247097373, 0.01428417582064867, -0.027233880013227463, 0.006275534629821777, 0.00012728181900456548, 2.2796330085839145e-05, -0.01048486027866602, -0.011949722655117512, -0.027462854981422424, 0.011490164324641228, -0.007785995490849018, 0.009856818243861198, -0.01783500239253044, 0.012742758728563786, -0.0014809470158070326, 0.0028690057806670666, 0.0023612112272530794, -0.008015591651201248, -0.0022929974365979433, 0.0036405602004379034, -0.01648486964404583, 0.002381866564974189, 0.010983557440340519, -0.025198811665177345, -0.026018157601356506, 0.020115170627832413, -0.00231757340952754], [0.008073379285633564, -0.011098876595497131, 0.005783692002296448, -0.009941431693732738, 0.010217050090432167, 0.01094350777566433, 0.009796001948416233, 0.011447962373495102, 0.011036008596420288, -0.010171621106564999, -0.006639507599174976, -0.002373187569901347, 0.011644985526800156, 0.004199067130684853, 0.00282442569732666, 0.0023807871621102095, 0.010414364747703075, -0.010315654799342155, 0.009583024308085442, -0.0007802994223311543, 0.0024952657986432314, -0.008636386133730412, -0.0096403444185853, 0.00028339558048173785, 0.011368373408913612, -0.0025754941161721945, 0.004053003154695034, -0.010163149796426296, 0.002726180711761117, -0.008734293282032013, 0.001958220498636365, -0.0003189411072526127, 0.0046929484233260155, -0.009395560249686241, 0.003989607095718384, 0.009034541435539722, 0.012318539433181286, 0.011357570067048073, 0.0027671433053910732, -0.008949760347604752, 0.011158455163240433, 0.00956718996167183, -0.0023134644143283367, -0.010876948945224285, 0.0098336860537529, -0.00847555696964264, -0.011268222704529762, -0.0023366648238152266, 0.002445489400997758, 0.008830814622342587, 0.004007009789347649, -0.003870418295264244, 0.010320884175598621, -0.00974262598901987, 0.01190194021910429, 0.012717814184725285, 0.010147330351173878, 0.002557520056143403, 0.002218975918367505, -0.0005153364618308842, -0.004703521262854338, -0.0022471880074590445, 0.009422765113413334, -0.0030057327821850777, 0.0020247313659638166, -0.006106536835432053, 0.008621808141469955, -4.2926771129714325e-05, 0.00985950417816639, -0.008420302532613277, 0.009450939483940601, -0.00999215804040432, -0.0047032530419528484, -0.01058689784258604, 0.0031000387389212847, -0.013323415070772171, 0.010477472096681595, 0.010838308371603489, -0.002451822627335787, -0.002408138243481517, 0.009960859082639217, -0.005824630614370108, 0.009343045763671398, 0.009180573746562004, 0.01097293384373188, -0.010713718831539154, 0.011995046399533749, -0.010758062824606895, -0.002634836593642831, -0.0023009851574897766, 0.009502281434834003, -0.005870417226105928, -0.007445785216987133, -0.010563199408352375, -0.011934023350477219, -0.011007130146026611, 0.002795581007376313, -0.008424601517617702, 0.009436188265681267, -0.00938186701387167, 4.967740551364841e-06, 0.002076919889077544, 0.009732396341860294, -0.01020139642059803, 0.004261055029928684, 0.00017487758304923773, 0.00010141178063349798, -0.00935172289609909, -0.004295955412089825, -0.0025194818153977394, 0.008675511926412582, -0.008528312668204308, 0.006072975695133209, -0.010174794122576714, 0.010955186560750008, -0.0113584715873003, 0.010556803084909916, 0.00499171344563365, -0.013170587830245495, -0.0136848334223032, 0.011233708821237087, -0.0028265740256756544, 0.0024734956678003073, 0.005872383248060942, -0.009747122414410114, -0.009959191083908081, 0.0037317981477826834, -0.0022577664349228144], [0.005665365606546402, -0.009852072224020958, 0.004479086492210627, -0.007896434515714645, 0.0027773233596235514, 0.0020816742908209562, 0.002425860147923231, 0.010060152038931847, 0.009423691779375076, -0.010677346959710121, -0.005241601262241602, -0.0040440745651721954, 0.0025280772242695093, 0.012290268205106258, 0.009754469618201256, 0.009331260807812214, 0.010269694961607456, -0.0024587404914200306, 0.010043849237263203, -0.011336839757859707, 0.011311303824186325, -0.002594265853986144, -0.008214624598622322, 0.00019856072321999818, 0.012071545235812664, -0.011250033974647522, 0.00776302395388484, -0.011645838618278503, 0.011430674232542515, -0.009212533943355083, 0.0057847825810313225, -0.00012799938849639148, 0.01074445340782404, -0.00882636196911335, 0.010839133523404598, 0.010955652222037315, 0.010706489905714989, 0.008471833541989326, 0.007305548060685396, -0.005559773184359074, 0.009867975488305092, 0.01079812366515398, -0.00979858823120594, -0.01190494280308485, 0.003046702826395631, -0.010518715716898441, -0.010882186703383923, -0.0099949287250638, 0.010888778604567051, 0.002807038137689233, 0.008925070986151695, -0.004059295170009136, 0.008129087276756763, -0.009840487502515316, 0.010398074053227901, 0.0040230765007436275, 0.0033538052812218666, 0.009492596611380577, 0.002540872199460864, -0.0012186362873762846, -0.010580322705209255, -0.0023032566532492638, 0.00326023087836802, -0.0029414878226816654, 0.010720816440880299, -0.008930911310017109, 0.004954376723617315, -1.0394825949333608e-05, 0.004660613369196653, -0.006773124448955059, 0.0035537967924028635, -0.010188315063714981, -0.006603824906051159, -0.009485244750976562, 0.01119926106184721, -0.011371884495019913, 0.0116654634475708, 0.003927887883037329, -0.009987515397369862, -0.012396398931741714, 0.011587745510041714, -0.010698871687054634, 0.009106154553592205, 0.01090194657444954, 0.008945721201598644, -0.002282317029312253, 0.00985880009829998, -0.01051313616335392, -0.010920255444943905, -0.01139562577009201, 0.010106475092470646, -0.008653187192976475, -0.0023262754548341036, -0.012393349781632423, -0.009692789055407047, -0.008934889920055866, 0.015820777043700218, -0.007705744821578264, 0.009749257937073708, -0.012216942384839058, -1.526365667814389e-05, 0.0010979900835081935, 0.0030877473764121532, -0.010476275347173214, 0.012158381752669811, 8.082304702838883e-05, 1.4146029570838436e-05, -0.00641788262873888, -0.007501714397221804, -0.00855565257370472, 0.01217928621917963, -0.010107678361237049, 0.0077703907154500484, -0.01148910541087389, 0.010522715747356415, -0.00907967984676361, 0.0115381870418787, 0.010161001235246658, -0.009438909590244293, -0.002331535564735532, 0.01138171274214983, -0.011975460685789585, 0.008698775433003902, 0.008547537960112095, -0.0027409312315285206, -0.009029059670865536, 0.01066361553966999, -0.009706367738544941], [-0.008582906797528267, 0.01143250148743391, -0.005056355148553848, 0.004006073344498873, -0.0026310270186513662, -0.012449965812265873, -0.011795856058597565, -0.01308354176580906, -0.012114085257053375, 0.01037355326116085, 0.0069739059545099735, 0.0121670663356781, -0.002565704984590411, -0.004543883726000786, -0.0029466215055435896, -0.012468060478568077, -0.012343580834567547, 0.012248451821506023, -0.00271698203869164, 0.011371725238859653, -0.002821538131684065, 0.01089528575539589, 0.007944168522953987, -0.00021898535487707704, -0.006554555147886276, 0.002854073652997613, -0.004056844860315323, 0.0024317640345543623, -0.011951952241361141, 0.010022883303463459, -0.010648448951542377, 0.0014209559885784984, -0.011108903214335442, 0.009517046622931957, -0.011168804951012135, -0.010260547511279583, -0.012013326399028301, -0.01011415384709835, -0.013167065568268299, 0.010358007624745369, -0.01136578805744648, -0.012271798215806484, 0.0025022393092513084, 0.01301954872906208, -0.013116185553371906, 0.010581482201814651, 0.003220134414732456, 0.013522838242352009, -0.002626888221129775, -0.003407627809792757, -0.008114071562886238, 0.002725949976593256, -0.00803788285702467, 0.011924000456929207, -0.010744263418018818, -0.01314398180693388, -0.011318272911012173, -0.0026582879945635796, -0.01044989563524723, 0.0033719309139996767, 0.004688073880970478, 0.011054269969463348, -0.002614831319078803, 0.0024420113768428564, -0.012359103187918663, 0.0021625326480716467, -0.01179533265531063, 1.184976918011671e-05, -0.006510931067168713, 0.010858139954507351, -0.0027392881456762552, 0.01290273666381836, 0.01124985609203577, 0.0025714999064803123, -0.005840800236910582, 0.012499619275331497, -0.0027407307643443346, -0.012034334242343903, 0.009784994646906853, 0.004318465944379568, -0.01077351439744234, 0.010975316166877747, -0.010423682630062103, -0.008136741816997528, -0.01290655042976141, 0.007888862863183022, -0.0036821113899350166, 0.00757534708827734, 0.011933257803320885, 0.002498232526704669, -0.002679076511412859, 0.011494703590869904, 0.010961838997900486, 0.010818397626280785, 0.010660357773303986, 0.013317993842065334, -0.015075220726430416, 0.006383125204592943, -0.011333461850881577, 0.010839518159627914, 3.158197068842128e-05, -0.005095477215945721, -0.012635134160518646, 0.011004014872014523, -0.00938127376139164, -0.0009437252883799374, -2.7826423320220783e-05, 0.010419012978672981, 0.003813913557678461, 0.01111607626080513, -0.012076922692358494, 0.008976946584880352, -0.00767849525436759, 0.012720867991447449, -0.010876938700675964, 0.011784459464251995, -0.0075163161382079124, -0.002404331462457776, 0.012860111892223358, 0.013122877106070518, -0.012947945855557919, 0.01267203502357006, -0.01183397974818945, -0.008302503265440464, 0.010360034182667732, 0.012219627387821674, -0.002229666104540229, 0.010764269158244133], [-0.0066304756328463554, 0.014238668605685234, -0.005729684140533209, 0.008530599065124989, -0.010987331159412861, -0.012617131695151329, -0.011535770259797573, -0.0141814099624753, -0.013046478852629662, 0.0021797383669763803, 0.009461305104196072, 0.011849266476929188, -0.014764371328055859, -0.012376389466226101, -0.011030732654035091, -0.010355914942920208, -0.012656119652092457, 0.002387986984103918, -0.01155012659728527, 0.012379978783428669, -0.014417770318686962, 0.0025783262681216, 0.006913809571415186, -0.0002696894807741046, -0.0023388415575027466, 0.011589356698095798, -0.00649481313303113, 0.0024919372517615557, -0.012162189930677414, 0.009750337339937687, -0.01102653332054615, 0.00030374916968867183, -0.003709516255185008, 0.010936071164906025, -0.013046096079051495, -0.012780996970832348, -0.012671886011958122, -0.010248281061649323, -0.012194331735372543, 0.012513815425336361, -0.013640566729009151, -0.0023275339044630527, 0.013612248003482819, 0.014354698359966278, -0.013681508600711823, 0.013123054057359695, 0.013220183551311493, 0.014173428528010845, -0.002830457640811801, -0.011913591995835304, -0.010951573960483074, 0.011034592054784298, -0.006233508232980967, 0.0025117918848991394, -0.012381221167743206, -0.014761003665626049, -0.012522946111857891, -0.011413264088332653, -0.01189469639211893, 0.00026048344443552196, 0.0007803647895343602, 0.009500478394329548, -0.011602765880525112, 0.012457280419766903, -0.01218991819769144, 0.01280622836202383, -0.011373423039913177, 1.3328946806723252e-05, -0.01181215699762106, 0.009144541807472706, -0.00964269693940878, 0.012226532213389874, 0.008107347413897514, 0.010841519571840763, -0.011343000456690788, 0.01244866382330656, -0.012340186163783073, -0.012914258986711502, 0.012416326440870762, 0.0043662129901349545, -0.00983385555446148, 0.011320468038320541, -0.005389617756009102, -0.009692968800663948, -0.012547261081635952, 0.01260465756058693, -0.013422641903162003, 0.003489904571324587, 0.014077016152441502, 0.014695622026920319, -0.00258451490662992, 0.013610155321657658, 0.003132356097921729, 0.012780281715095043, 0.006897658575326204, 0.013183005154132843, -0.010296042077243328, 0.00926297064870596, -0.012922490015625954, 0.0030879173427820206, 1.1178392924193759e-05, -0.005098294001072645, -0.002984191058203578, 0.011550670489668846, -0.010463841259479523, -0.00021303903486113995, -7.806230860296637e-05, 0.009102985262870789, 0.011430739425122738, 0.002861055312678218, -0.008521119132637978, 0.01079043373465538, -0.008050980977714062, 0.0030520569998770952, -0.003823502454906702, 0.0020554305519908667, -0.005043914541602135, -0.011766220442950726, 0.0075376564636826515, 0.005833085626363754, -0.011693524196743965, 0.0030924202874302864, -0.011760963127017021, -0.006146247964352369, 0.010709287598729134, 0.0025159830693155527, -0.0022964547388255596, 0.012871794402599335], [-0.00830153003334999, 0.006561147514730692, -0.004112199414521456, 0.01005121786147356, -0.0026812858413904905, -0.008789652027189732, -0.0024807897862046957, -0.0032496715430170298, -0.009294015355408192, 0.001995583064854145, 0.009304901584982872, 0.0025435511488467455, -0.010366224683821201, -0.009332568384706974, -0.009397796355187893, -0.002559011336416006, -0.008709920570254326, 0.009440737776458263, -0.009578293189406395, 0.0036577931605279446, -0.0025659932289272547, 0.008329656906425953, 0.007159415166825056, -0.00028025201754644513, -0.010023416951298714, 0.002624188084155321, -0.00434600654989481, 0.0099094333127141, -0.009054689668118954, 0.010835309512913227, -0.008297702297568321, 0.000668525171931833, -0.0025442701298743486, 0.010058103129267693, -0.0023666161578148603, -0.004983045626431704, -0.008052980527281761, -0.010425758548080921, -0.010694984346628189, 0.011137762106955051, -0.004765321500599384, -0.00841466523706913, 0.009587877430021763, 0.008518608286976814, -0.009666734375059605, 0.009337257593870163, 0.011621134355664253, 0.009876969270408154, -0.0023901083040982485, -0.009107637219130993, -0.008041400462388992, 0.002736104652285576, -0.007399450056254864, 0.008692796342074871, -0.010329623706638813, -0.0025766748003661633, -0.010306159034371376, -0.009764143265783787, -0.009381246753036976, 0.0004942130763083696, 0.003235762007534504, 0.009314585477113724, -0.008324683643877506, 0.003566198516637087, -0.007989865727722645, 0.002112284768372774, -0.008344377391040325, -1.6335767213604413e-05, -0.009726468473672867, 0.008000442758202553, -0.00986894778907299, 0.009757695719599724, 0.0035911945160478354, 0.00844537653028965, -0.0032144610304385424, 0.010223686695098877, -0.010290526784956455, -0.003403064562007785, 0.0025875275023281574, 0.007129628211259842, -0.005196499638259411, 0.0030028840992599726, -0.008750464767217636, -0.008190033957362175, -0.0025697823148220778, 0.0023415524046868086, -0.0025720405392348766, 0.011034991592168808, 0.005140986759215593, 0.00852928590029478, -0.009201926179230213, 0.002846341347321868, 0.009422827512025833, 0.011096798814833164, 0.010669020935893059, 0.011116087436676025, -0.004299591761082411, 0.007125984877347946, -0.00994937028735876, 0.010420098900794983, 6.224861863302067e-05, -0.006875084713101387, -0.009664224460721016, 0.009252633899450302, -0.009308367036283016, -0.00017552930512465537, -1.2016513210255653e-05, 0.00997921172529459, 0.00379319884814322, 0.002848357893526554, -0.011053640395402908, 0.008269809186458588, -0.011218110099434853, 0.010056915692985058, -0.0031630955636501312, 0.007720596622675657, -0.008720406331121922, -0.0023144951555877924, 0.0064289323054254055, 0.010304816998541355, -0.005632453598082066, 0.009768775664269924, -0.009264400228857994, -0.011131220497190952, 0.0032016627956181765, 0.010277778841555119, -0.009730158373713493, 0.008949130773544312], [0.012054692953824997, -0.012033258564770222, 0.008642145432531834, -0.004244072828441858, 0.010339665226638317, 0.0031533590517938137, 0.002425840590149164, 0.002508837264031172, 0.004449561703950167, -0.010428360663354397, -0.010889687575399876, -0.008646135218441486, 0.011446494609117508, 0.0033786960411816835, 0.011546825990080833, 0.010575304739177227, 0.010619807988405228, -0.002483621472492814, 0.009792530909180641, -0.0031157759949564934, 0.003032064065337181, -0.01068727858364582, -0.0065916539169847965, 0.00020733787096105516, 0.011872838251292706, -0.012378484942018986, 0.008809412829577923, -0.002478904090821743, 0.010793925262987614, -0.004947393201291561, 0.010754424147307873, -0.00016245400183834136, 0.00851440615952015, -0.010246447287499905, 0.002617857651785016, 0.012256993912160397, 0.011645146645605564, 0.011974280700087547, 0.012615375220775604, -0.0029679976869374514, 0.0026488511357456446, 0.0023433275055140257, -0.01334452535957098, -0.002612288109958172, 0.01189211755990982, -0.011054842732846737, -0.0027134523261338472, -0.012140540406107903, 0.009777240455150604, 0.009868419729173183, 0.002214705338701606, -0.002916928380727768, 0.0059503065422177315, -0.002428845502436161, 0.012671694159507751, 0.011943528428673744, 0.003388449549674988, 0.010309896431863308, 0.010684572160243988, -0.00026186034665443003, -0.004760291893035173, -0.011791073717176914, 0.0068845245987176895, -0.01166596170514822, 0.00970920268446207, -0.0021596294827759266, 0.010723412036895752, -4.093744428246282e-05, 0.004357393831014633, -0.009706481359899044, 0.011952833272516727, -0.010987254790961742, -0.00422851275652647, -0.011609232053160667, 0.003602893091738224, -0.003096200991421938, 0.012177089229226112, 0.010360904969274998, -0.011653060093522072, -0.011821561492979527, 0.009069124236702919, -0.003493478987365961, 0.0026994762010872364, 0.007819529622793198, 0.00235979026183486, -0.011180363595485687, 0.01223931647837162, -0.011195467785000801, -0.011455157771706581, -0.010861006565392017, 0.009697851724922657, -0.011081487871706486, -0.009690070524811745, -0.011857564561069012, -0.0049745929427444935, -0.011226891539990902, 0.013285059481859207, -0.00909519474953413, 0.011850534938275814, -0.003635405795648694, -0.0001425122463842854, 0.0036139395087957382, 0.011226188391447067, -0.010674549266695976, 0.004433015827089548, 0.00017796196334529668, 1.0811087122419849e-05, -0.008671782910823822, -0.009778276085853577, -0.002668097848072648, 0.0033499018754810095, -0.00990006048232317, 0.007017564959824085, -0.012779951095581055, 0.012554063461720943, -0.004356391727924347, 0.0030307387933135033, 0.01035250909626484, -0.00765346409752965, -0.012193061411380768, 0.010382084175944328, -0.006899979896843433, 0.010501803830265999, 0.006761834491044283, -0.0031979314517229795, -0.009783218614757061, 0.003028957871720195, -0.011496477760374546], [0.012278005480766296, -0.00457068532705307, 0.005694164894521236, -0.01104484312236309, 0.0028664651326835155, 0.0026804355438798666, 0.003660214599221945, 0.0052050757221877575, 0.0016478004399687052, -0.019717395305633545, -0.01138247735798359, -0.0033539498690515757, 0.0025042679626494646, 0.0035776873119175434, 0.006163406185805798, 0.024874664843082428, 0.001858804258517921, -0.003063357435166836, 0.0027244272641837597, -0.024271618574857712, 0.003055933862924576, -0.025710316374897957, -0.004960466641932726, 0.000325861998135224, 0.006348487455397844, -0.003018846968188882, 0.005452037323266268, -0.0025751893408596516, 0.00240377732552588, -0.006292123347520828, 0.002315521240234375, -0.00028608195134438574, 0.0011503702262416482, -0.005590259563177824, 0.0024350557941943407, 0.002672736067324877, 0.0020910154562443495, 0.022496243938803673, 0.01114647090435028, -0.019140586256980896, 0.002477453090250492, 0.020269516855478287, -0.0019892582204192877, -0.00218484946526587, 0.008653845638036728, -0.020699456334114075, -0.015817979350686073, -0.0023900007363408804, 0.0046599130146205425, 0.0037493081763386726, 0.008992142975330353, -0.003505048342049122, 0.00608755461871624, -0.0034121419303119183, 0.0026862884406000376, 0.0013243089197203517, 0.0016740401042625308, 0.02532869577407837, 0.002362129045650363, -0.0005957674002274871, -0.010934322141110897, -0.004611730109900236, 0.015205549076199532, -0.014900797046720982, 0.0038484709803014994, -0.00240727630443871, 0.0025640144012868404, 2.0118532120250165e-05, 0.013134386390447617, -0.005786676425486803, 0.007250141352415085, -0.0012901569716632366, -0.013824752531945705, -0.0028555053286254406, 0.019185397773981094, -0.0024763040710240602, 0.0021228522527962923, 0.004074013326317072, -0.0053364248014986515, -0.005965349264442921, 0.013242172077298164, -0.004897181876003742, 0.015216258354485035, 0.007227675057947636, 0.002255113795399666, -0.02391963079571724, 0.0025627329014241695, -0.003136532148346305, -0.0030690953135490417, -0.0028204438276588917, 0.004702212754637003, -0.0036881505511701107, -0.004443816374987364, -0.0032217479310929775, -0.010698842816054821, -0.002803766867145896, 0.005544301122426987, -0.011630081571638584, 0.001300713513046503, -0.019806820899248123, -0.00014401908265426755, 0.008986227214336395, 0.012879050336778164, -0.02062182128429413, 0.005949442274868488, 9.089714876608923e-05, 1.8207576431450434e-05, -0.001863037352450192, -0.010052911937236786, -0.02545640803873539, 0.016276247799396515, -0.002537053544074297, 0.007038532290607691, -0.023845676332712173, 0.0032707122154533863, -0.002045975998044014, 0.017594274133443832, 0.006444419268518686, -0.006790506187826395, -0.0009255681652575731, 0.0026250616647303104, -0.0011345538077875972, 0.002710483269765973, 0.008426466956734657, -0.019251009449362755, -0.002565069356933236, 0.009746224619448185, -0.002643946325406432], [0.00844596978276968, -0.0026175088714808226, 0.005226664710789919, -0.007748668547719717, 0.0026502071414142847, 0.012259019538760185, 0.012967031449079514, 0.003536296309903264, 0.01418867614120245, -0.013418138958513737, -0.006433579605072737, -0.013430546037852764, 0.015733467414975166, 0.013799917884171009, 0.013016771525144577, 0.01310096774250269, 0.0030586072243750095, -0.013917224481701851, 0.014199022203683853, -0.0031000473536551, 0.01484871655702591, -0.002655146410688758, -0.007180354557931423, 0.00018903148884419352, 0.011883383616805077, -0.011684954166412354, 0.004234642256051302, -0.014651463367044926, 0.01360033918172121, -0.011816250160336494, 0.013747334480285645, -8.765125676291063e-05, 0.0024773171171545982, -0.010195944458246231, 0.015600638464093208, 0.0027068061754107475, 0.0022267212625592947, 0.012642364017665386, 0.012797360308468342, -0.014820476062595844, 0.016004938632249832, 0.014896250329911709, -0.0024670870043337345, -0.002669496927410364, 0.0029383760411292315, -0.014405600726604462, -0.013670680113136768, -0.01762356609106064, 0.014793843030929565, 0.005174530204385519, 0.005521650426089764, -0.013157682493329048, 0.010716200806200504, -0.0025576860643923283, 0.014981063082814217, 0.014955004677176476, 0.01336699165403843, 0.012856555171310902, 0.013012690469622612, -0.0012330570025369525, -0.004935473203659058, -0.01542353630065918, 0.014127071015536785, -0.012322844937443733, 0.014905137941241264, -0.014612695202231407, 0.005146837793290615, 1.2328451703069732e-05, 0.008099440485239029, -0.009515325538814068, 0.013036972843110561, -0.014736689627170563, -0.0031636320054531097, -0.013591918163001537, 0.009223590604960918, -0.014312385581433773, 0.014590324833989143, 0.0033615045249462128, -0.015292431227862835, -0.006071394309401512, 0.010058647021651268, -0.012174067087471485, 0.0028611153829842806, 0.009746983647346497, 0.015676680952310562, -0.013949355110526085, 0.014364046975970268, -0.011617092415690422, -0.014772373251616955, -0.0025836965069174767, 0.013395213522017002, -0.013878325000405312, -0.013049375265836716, -0.012512242421507835, -0.006849710363894701, -0.013729398138821125, 0.005935993976891041, -0.00774267828091979, 0.014149792492389679, -0.013587004505097866, -2.1353534975787625e-05, 0.012852015905082226, 0.0031597779598087072, -0.01468546874821186, 0.011020287871360779, 8.080030238488689e-05, 3.061825918848626e-05, -0.001965451054275036, -0.012332828715443611, -0.002804357325658202, 0.012552935630083084, -0.010685402899980545, 0.008180650882422924, -0.014691530726850033, 0.003939527552574873, -0.0167844258248806, 0.0038991104811429977, 0.002565200673416257, -0.010656208731234074, -0.0151322977617383, 0.014400653541088104, -0.015020813792943954, 0.013220318593084812, 0.01127867866307497, -0.011612561531364918, -0.0030696261674165726, 0.016003645956516266, -0.014805065467953682], [-0.006414221134036779, 0.009391534142196178, -0.008549031801521778, 0.008553237654268742, -0.008900351822376251, -0.010087431408464909, -0.009201214648783207, -0.007642150856554508, -0.007296414580196142, 0.004108826629817486, 0.006547786295413971, 0.006665750872343779, -0.002285819733515382, -0.01033864077180624, -0.0030465498566627502, -0.00792740099132061, -0.006463212426751852, 0.00901611428707838, -0.010091989301145077, 0.007466687820851803, -0.00975064653903246, 0.009249656461179256, 0.008221927098929882, -0.00020017287170048803, -0.0096955681219697, 0.009747596457600594, -0.0099756745621562, 0.004462320823222399, -0.010779716074466705, 0.007851787842810154, -0.006179072428494692, 0.0005163881578482687, -0.007721238303929567, 0.008280673995614052, -0.004449178464710712, -0.010030316188931465, -0.007655310444533825, -0.0078090159222483635, -0.008075013756752014, 0.010649289935827255, -0.007022182922810316, -0.003754604607820511, 0.009721234440803528, 0.002526674885302782, -0.010148218832910061, 0.00975931528955698, 0.010277827270328999, 0.0029023601673543453, -0.00699427118524909, -0.009663334116339684, -0.010926044546067715, 0.009492458775639534, -0.007365819998085499, 0.002898797858506441, -0.006566303316503763, -0.008709731511771679, -0.010418917052447796, -0.009573270566761494, -0.008431583642959595, 0.0003295558562967926, 0.012847996316850185, 0.007776146754622459, -0.009807107970118523, 0.011842424049973488, -0.002070697722956538, 0.008515850640833378, -0.0098483357578516, 4.513833482633345e-05, -0.011445499956607819, 0.009147877804934978, -0.01070419605821371, 0.009662233293056488, 0.007930922321975231, 0.00955039169639349, -0.01172478124499321, 0.004385847598314285, -0.007674029562622309, -0.010241474956274033, 0.003220345824956894, 0.011839502491056919, -0.008962408639490604, 0.007407760247588158, -0.0027283653616905212, -0.01219893991947174, -0.009222588501870632, 0.00810270570218563, -0.002324415137991309, 0.01085682399570942, 0.004970136564224958, 0.00920057576149702, -0.005547247361391783, 0.00816250964999199, 0.00845358520746231, 0.009893096052110195, 0.010230579413473606, 0.008354022167623043, -0.003264361759647727, 0.011563685722649097, -0.009058782830834389, 0.003471310716122389, 3.169055707985535e-05, -0.004799229558557272, -0.011992606334388256, 0.002948314417153597, -0.005495947785675526, -0.00010181248217122629, -2.9142198400222696e-05, 0.00971002783626318, 0.009969052858650684, 0.009425831958651543, -0.008648807182908058, 0.01136943232268095, -0.011357544921338558, 0.0028345021419227123, -0.010538158006966114, 0.007979772984981537, -0.008312433958053589, -0.007433696184307337, 0.0057992166839540005, 0.010459751822054386, -0.005378191825002432, 0.007916304282844067, -0.00877528265118599, -0.006754644680768251, 0.005694936495274305, 0.0029105546418577433, -0.007871882058680058, 0.002461416879668832], [0.008235718123614788, -0.009650434367358685, 0.00804295763373375, -0.00018043046293314546, 0.00987166352570057, 0.008978184312582016, 0.006881440989673138, 0.003188526025041938, 0.005158681888133287, -0.0019544879905879498, -0.012620741501450539, -0.009692157618701458, 0.009122872725129128, 0.010093356482684612, 0.0029748890083283186, 0.004859487060457468, 0.008917160332202911, -0.009053723886609077, 0.009241288527846336, -0.0101922070607543, 0.0025421332102268934, -0.009437919594347477, -0.010755663737654686, 0.00023906932619865984, 0.009770900011062622, -0.008466342464089394, 0.010292275808751583, -0.0026124101132154465, 0.010488107800483704, -0.004020100459456444, 0.007297536823898554, -0.00036453225766308606, 0.008255301974713802, -0.007184488233178854, 0.00882305670529604, 0.011069525964558125, 0.008924855850636959, 0.008193986490368843, 0.011557006277143955, -0.008795875124633312, 0.0071069058030843735, 0.007223250810056925, -0.009351801127195358, -0.008653881959617138, 0.011180997826159, -0.007926746271550655, -0.010388865135610104, -0.007452196907252073, 0.008305378258228302, 0.0027558698784559965, 0.010157056152820587, -0.0027315972838550806, 0.007539764512330294, -0.007533724419772625, 0.00701964320614934, 0.002983562182635069, 0.009625566191971302, 0.008579088374972343, 0.0022082673385739326, -0.0032980642281472683, -0.010280875489115715, -0.003381832269951701, 0.002448188839480281, -0.0030532116070389748, 0.008950904943048954, -0.00727611081674695, 0.009593277238309383, 1.9977254851255566e-05, 0.012080882675945759, -0.009335730224847794, 0.009142001159489155, -0.00902685895562172, -0.007554752752184868, -0.009517784230411053, 0.009853229857981205, -0.010215666145086288, 0.00873301550745964, 0.01014700811356306, -0.008846987038850784, -0.004150932654738426, 0.010428423061966896, -0.0033311317674815655, 0.0102555425837636, 0.010300231166183949, 0.008740809746086597, -0.002974327653646469, 0.009707069024443626, -0.010775083675980568, -0.00718429870903492, -0.008340995758771896, 0.009085155092179775, -0.00403009494766593, -0.008758754469454288, -0.010158922523260117, -0.011697602458298206, -0.009343943558633327, 0.00028885144274681807, -0.0067298333160579205, 0.010189663618803024, -0.010807621292769909, 1.4596659639209975e-05, 0.0054920692928135395, 0.003256922122091055, -0.009760608896613121, 0.00947920884937048, 0.00015905237523838878, 5.8902674027194735e-06, -0.010518455877900124, -0.010077388025820255, -0.010494447313249111, 0.010847416706383228, -0.01055118627846241, 0.008001486770808697, -0.010185081511735916, 0.010334287770092487, -0.0019776613917201757, 0.009264345280826092, 0.0075292447581887245, -0.008106869645416737, -0.008070886135101318, 0.00874178297817707, -0.009727240540087223, 0.00761078018695116, 0.010987569577991962, -0.004108752124011517, -0.009253857657313347, 0.007771642412990332, -0.0038723915349692106], [-0.0076130228117108345, 0.01445858646184206, -0.009930756874382496, 0.009336292743682861, -0.013556575402617455, -0.012248420156538486, -0.012094279751181602, -0.0026873378083109856, -0.013501649722456932, 0.002125923056155443, 0.008682931773364544, 0.01391181256622076, -0.016250433400273323, -0.014638829044997692, -0.012497905641794205, -0.002728543244302273, -0.016742916777729988, 0.012571211904287338, -0.003046503057703376, 0.01275192853063345, -0.015387451276183128, 0.007974442094564438, 0.01069167722016573, -0.00022039315081201494, -0.013256259262561798, 0.011869486421346664, -0.01046037208288908, 0.002536200452595949, -0.0028727571479976177, 0.011402674950659275, -0.003996635787189007, 0.0005988714983686805, -0.006131682079285383, 0.009553961455821991, -0.015263497829437256, -0.013586964458227158, -0.016622252762317657, -0.013080759905278683, -0.013693845830857754, 0.014337369240820408, -0.01603756844997406, -0.013925158418715, 0.0023961723782122135, 0.002650490263476968, -0.0028433718252927065, 0.002662855666130781, 0.002753408392891288, 0.0025316092651337385, -0.012451731599867344, -0.012238303199410439, -0.009393516927957535, 0.013694794848561287, -0.0063409628346562386, 0.002612245036289096, -0.014496997930109501, -0.0030339392833411694, -0.010002247989177704, -0.012835920788347721, -0.01355738379061222, 0.0006692231399938464, 0.003777444129809737, 0.002321552252396941, -0.0027374939527362585, 0.011915129609405994, -0.00782164465636015, 0.01278478093445301, -0.0029885442927479744, -4.28571956945234e-06, -0.011160368099808693, 0.00680855568498373, -0.002817325061187148, 0.012619344517588615, 0.007754752412438393, 0.014111064374446869, -0.01318453624844551, 0.011274549178779125, -0.014453228563070297, -0.0050717745907604694, 0.01337441522628069, 0.00462760403752327, -0.004612698685377836, 0.012255105189979076, -0.01232264656573534, -0.00899882335215807, -0.016291499137878418, 0.002258456079289317, -0.014557721093297005, 0.012776861898601055, 0.013945524580776691, 0.016420872882008553, -0.014362994581460953, 0.014450302347540855, 0.0023923981934785843, 0.011088807135820389, 0.011948470957577229, 0.011296289972960949, -0.0006033880054019392, 0.010253224521875381, -0.013567947782576084, 0.013013480231165886, 3.7538378819590434e-05, -2.9854129024897702e-05, -0.013608718290925026, 0.004153899382799864, -0.011435816995799541, -0.0002115131646860391, -1.0794948138936888e-05, 0.009662116877734661, 0.004351622890681028, 0.012408379465341568, -0.003115900559350848, 0.012283732183277607, -0.004246216267347336, 0.012949217110872269, -0.0034373789094388485, 0.017136123031377792, -0.012451608665287495, -0.013944518752396107, 0.008045964874327183, 0.014275552704930305, -0.0025073804426938295, 0.015288084745407104, -0.012571626342833042, -0.012076805345714092, 0.013417480513453484, 0.013308430090546608, -0.014249268919229507, 0.012360247783362865], [0.00797926913946867, -0.003219202859327197, 0.003956068307161331, -0.010136417113244534, 0.011066138744354248, 0.004256364889442921, 0.002505812793970108, 0.012185096740722656, 0.0018616396700963378, -0.01129714772105217, -0.01205321867018938, -0.0026655038818717003, 0.011329644359648228, 0.006560102570801973, 0.012569321319460869, 0.011960537172853947, 0.01135208085179329, -0.002443396719172597, 0.002692111534997821, -0.012960435822606087, 0.012139429338276386, -0.010213818401098251, -0.007276753429323435, 0.0002648539957590401, 0.010990702547132969, -0.011946435086429119, 0.012553682550787926, -0.012706478126347065, 0.004237360320985317, -0.0037971679121255875, 0.009761912748217583, -0.0014130885247141123, 0.010962803848087788, -0.007146330084651709, 0.010527707636356354, 0.0026376070454716682, 0.010239395312964916, 0.011803586967289448, 0.011072136461734772, -0.01116378977894783, 0.012005860917270184, 0.011150524020195007, -0.0028682793490588665, -0.00594464223831892, 0.009641546756029129, -0.012656843289732933, -0.01271043997257948, -0.011711206287145615, 0.010486363433301449, 0.011456034146249294, 0.00887998752295971, -0.00275158928707242, 0.008142424747347832, -0.002683929866179824, 0.010578860528767109, 0.012295735999941826, 0.003681679954752326, 0.012065615504980087, 0.010997595265507698, -0.00035766875953413546, -0.0037313541397452354, -0.01016201451420784, 0.010306400246918201, -0.012689882889389992, 0.002363496460020542, -0.011269611306488514, 0.012202109210193157, -1.8763052139547653e-05, 0.011838458478450775, -0.01063481718301773, 0.012777564115822315, -0.010929228737950325, -0.008467765524983406, -0.009695936925709248, 0.011203399859368801, -0.004465326201170683, 0.010595934465527534, 0.010303633287549019, -0.009810244664549828, -0.012833040207624435, 0.011786960065364838, -0.009768134914338589, 0.011774366721510887, 0.009872843511402607, 0.010396535508334637, -0.01099717989563942, 0.0055394647642970085, -0.011102495715022087, -0.003552444279193878, -0.011566110886633396, 0.011816812679171562, -0.011193602345883846, -0.01040420588105917, -0.0029920609667897224, -0.010890514589846134, -0.004311281256377697, 0.008644331246614456, -0.006727926433086395, 0.011332756839692593, -0.011603299528360367, -0.00018193994765169919, 0.009706881828606129, 0.011954128742218018, -0.010390033945441246, 0.009628798812627792, 0.00024895096430554986, 1.1047727639379445e-05, -0.010628223419189453, -0.012589585036039352, -0.009979372844099998, 0.012620499357581139, -0.008988147601485252, 0.011699576862156391, -0.01057593896985054, 0.005009614862501621, -0.002863686066120863, 0.012564710341393948, 0.011242221109569073, -0.009498996660113335, -0.012835931964218616, 0.0025819723960012197, -0.011393074877560139, 0.010564162395894527, 0.01209147647023201, -0.010553909465670586, -0.010968240909278393, 0.01253297459334135, -0.010996118187904358], [-0.011606423184275627, 0.0026205384638160467, -0.011367192491889, 0.009494598954916, -0.0027888095937669277, -0.011134055443108082, -0.003811061615124345, -0.013495677150785923, -0.013762365095317364, 0.012352563440799713, 0.007526705507189035, 0.012044545263051987, -0.01482568122446537, -0.0038352254778146744, -0.014280895702540874, -0.01300717331469059, -0.014617901295423508, 0.013355235569179058, -0.012760978192090988, 0.013465733267366886, -0.006109515205025673, 0.013242858462035656, 0.00650728028267622, -0.0002862826222553849, -0.012980490922927856, 0.011588649824261665, -0.01208322774618864, 0.002538858214393258, -0.012305139563977718, 0.00425178837031126, -0.004034999758005142, 0.0002661889884620905, -0.012004136107861996, 0.009743659757077694, -0.015097282826900482, -0.013385053724050522, -0.014903426170349121, -0.013480366207659245, -0.010958933271467686, 0.01279072929173708, -0.002258585998788476, -0.012974646873772144, 0.0027811629697680473, 0.002553552621975541, -0.012411697767674923, 0.004262842703610659, 0.01268311869353056, 0.015507378615438938, -0.0025322367437183857, -0.011809533461928368, -0.008908980526030064, 0.004240282345563173, -0.006370909512042999, 0.013311831280589104, -0.012420274317264557, -0.015276010148227215, -0.005728182848542929, -0.0029000381473451853, -0.011993949301540852, 0.0006022370653226972, 0.007623364683240652, 0.012780826538801193, -0.012128718197345734, 0.012417665682733059, -0.014041522517800331, 0.014033974148333073, -0.0038781575858592987, -6.4734858824522234e-06, -0.012630779296159744, 0.009741533547639847, -0.010473937727510929, 0.003268954111263156, 0.009232835844159126, 0.012491809204220772, -0.014071044512093067, 0.01329877320677042, -0.013333577662706375, -0.004024724941700697, 0.01225113496184349, 0.014059850946068764, -0.003980251494795084, 0.010564231313765049, -0.011594243347644806, -0.010531216859817505, -0.002300465479493141, 0.01290651224553585, -0.013133050873875618, 0.01295010931789875, 0.0025781255681067705, 0.013351614587008953, -0.011793826706707478, 0.002491611987352371, 0.013558410108089447, 0.012528717517852783, 0.01186974998563528, 0.012775007635354996, -0.001536803669296205, 0.010101217776536942, -0.013256000354886055, 0.01130734384059906, 0.0001818778837332502, -0.012059078551828861, -0.011778142303228378, 0.013084445148706436, -0.008514261804521084, -0.0001755381526891142, -4.5237725316837896e-06, 0.010433451272547245, 0.008958308026194572, 0.011971959844231606, -0.013471837155520916, 0.010427967645227909, -0.007728245109319687, 0.00309992884285748, -0.01381677109748125, 0.015445580706000328, -0.012372550554573536, -0.01454002782702446, 0.005732310004532337, 0.01318897120654583, -0.0025845791678875685, 0.015080224722623825, -0.013179086148738861, -0.011381211690604687, 0.0042557744309306145, 0.011474993079900742, -0.015078630298376083, 0.013755440711975098], [0.006875401362776756, -0.0032195341773331165, 0.0035796051379293203, -0.010434931144118309, 0.011588059365749359, 0.012737315148115158, 0.011318791657686234, 0.013235890306532383, 0.001910907099954784, -0.010628512129187584, -0.01166874635964632, -0.0024806740693747997, 0.01316019706428051, 0.012333914637565613, 0.013052374124526978, 0.005179794039577246, 0.012244774028658867, -0.0025936856400221586, 0.011843615211546421, -0.003620019182562828, 0.012909180484712124, -0.011124174110591412, -0.011659769341349602, 0.00021117512369528413, 0.012827622704207897, -0.010384801775217056, 0.010112016461789608, -0.011853402480483055, 0.0029013860039412975, -0.007825970649719238, 0.009564368054270744, -0.00028488447424024343, 0.012084445916116238, -0.010732644237577915, 0.013718926347792149, 0.0025448924861848354, 0.013066082261502743, 0.00347181991674006, 0.012622908689081669, -0.0029388254042714834, 0.011105666868388653, 0.010792185552418232, -0.01344899833202362, -0.012793060392141342, 0.0029870534781366587, -0.0030585285276174545, -0.011999343521893024, -0.007583434693515301, 0.0024714230094105005, 0.002756701782345772, 0.008584230206906796, -0.012337722815573215, 0.006965946406126022, -0.011162739247083664, 0.013253667391836643, 0.004040246829390526, 0.011342347599565983, 0.004635942634195089, 0.002403153805062175, -0.0006145386723801494, -0.00373905710875988, -0.010749761015176773, 0.01021371129900217, -0.011991308070719242, 0.010900995694100857, -0.010997363366186619, 0.012691355310380459, -4.047274342156015e-05, 0.010763399302959442, -0.008527074940502644, 0.010568545199930668, -0.011631249450147152, -0.010117813013494015, -0.01194127555936575, 0.0033036107197403908, -0.013582248240709305, 0.011130550876259804, 0.009229684248566628, -0.010786525905132294, -0.00901371892541647, 0.009774421341717243, -0.013008816167712212, 0.007851459085941315, 0.00983174704015255, 0.0127329146489501, -0.0031305067241191864, 0.012326245196163654, -0.004124273080378771, -0.014126465655863285, -0.014275490306317806, 0.010419370606541634, -0.012059465050697327, -0.0023877762723714113, -0.011933459900319576, -0.011742787435650826, -0.011616723611950874, 0.0021207034587860107, -0.008471251465380192, 0.00680570350959897, -0.01323299016803503, -5.726721497012477e-07, 0.004773134831339121, 0.0030134173575788736, -0.012231086380779743, 0.007954510860145092, 0.0002569418866187334, 4.57170654044603e-06, -0.00952092930674553, -0.012195312418043613, -0.010950671508908272, 0.010128927417099476, -0.008598396554589272, 0.004068243782967329, -0.01177599374204874, 0.012632157653570175, -0.012156988494098186, 0.011986644938588142, 0.012229173444211483, -0.006534456741064787, -0.015770500525832176, 0.0025671361945569515, -0.011860986240208149, 0.012106653302907944, 0.011164136230945587, -0.011743687093257904, -0.002483129734173417, 0.013704093173146248, -0.011408793739974499], [0.006589954718947411, -0.010207758285105228, 0.007456411607563496, -0.007752798963338137, 0.009344791993498802, 0.010601604357361794, 0.010370803996920586, 0.003220335580408573, 0.009439242072403431, -0.001929960330016911, -0.01020537968724966, -0.0026812192518264055, 0.01184132695198059, 0.008578463457524776, 0.002901741536334157, 0.010418600402772427, 0.009937901981174946, -0.0101466728374362, 0.01059536449611187, -0.007019476033747196, 0.011995527893304825, -0.00311252917163074, -0.006799208931624889, 0.00017806737741921097, 0.011287562549114227, -0.002741405973210931, 0.009443636983633041, -0.011149893514811993, 0.010555929504334927, -0.010014578700065613, 0.009237242862582207, -0.0007023087237030268, 0.0025727266911417246, -0.010687978938221931, 0.0023627267219126225, 0.011812889017164707, 0.010785585269331932, 0.004515558481216431, 0.011635856702923775, -0.009738810360431671, 0.002568179043009877, 0.010756255127489567, -0.002409357577562332, -0.002419352065771818, 0.0029223018791526556, -0.011500626802444458, -0.012765265069901943, -0.002245335839688778, 0.010482312180101871, 0.0026681225281208754, 0.008956769481301308, -0.008889482356607914, 0.005868162494152784, -0.00981262605637312, 0.002642836654558778, 0.008924277499318123, 0.011259558610618114, 0.009235727600753307, 0.002264996524900198, -0.0008513335487805307, -0.011482884176075459, -0.01067952997982502, 0.0025579410139471292, -0.010671875439584255, 0.0020783268846571445, -0.010080401785671711, 0.011212327517569065, 1.2434009477146901e-05, 0.007976257242262363, -0.008277202025055885, 0.011057276278734207, -0.010372286662459373, -0.009233067743480206, -0.008665407076478004, 0.010978189297020435, -0.006962146144360304, 0.011265411972999573, 0.01001916266977787, -0.007146358955651522, -0.011772613041102886, 0.009730936028063297, -0.0029399036429822445, 0.0028227355796843767, 0.007852615788578987, 0.002242049667984247, -0.002242385409772396, 0.00959092192351818, -0.0029937310609966516, -0.011499255895614624, -0.010206392034888268, 0.01076551340520382, -0.011808265931904316, -0.010596275329589844, -0.011836720630526543, -0.010322311893105507, -0.012343242764472961, 0.016117550432682037, -0.00905844196677208, 0.009584550745785236, -0.010120409540832043, -8.565871212340426e-06, 0.004131981637328863, 0.010945374146103859, -0.008944270201027393, 0.008115238510072231, 0.0062484461814165115, 1.2077004612365272e-05, -0.009340480901300907, -0.01139344647526741, -0.009254160337150097, 0.009443653747439384, -0.010775226168334484, 0.008133693598210812, -0.002804779214784503, 0.012607885524630547, -0.009948697872459888, 0.009571096859872341, 0.0027187184896320105, -0.009921949356794357, -0.011467209085822105, 0.011353588663041592, -0.009506532922387123, 0.0022957217879593372, 0.008253248408436775, -0.011106413789093494, -0.002432247856631875, 0.010622515343129635, -0.010374768637120724], [0.006491904146969318, -0.012913443148136139, 0.00491308281198144, -0.003206848166882992, 0.011614118702709675, 0.01204272173345089, 0.01018145028501749, 0.0025367564521729946, 0.010625009424984455, -0.011219006963074207, -0.004755174275487661, -0.010996841825544834, 0.011440420523285866, 0.010543694719672203, 0.013109543360769749, 0.01128077507019043, 0.0023319909814745188, -0.009943941608071327, 0.011436326429247856, -0.011662744916975498, 0.012155852280557156, -0.011750299483537674, -0.008577156811952591, 0.0002664274943526834, 0.013050059787929058, -0.010405069217085838, 0.00775189371779561, -0.007508006878197193, 0.0033684696536511183, -0.011889658868312836, 0.002351053524762392, -0.0007439338369295001, 0.011095773428678513, -0.005026339087635279, 0.012910430319607258, 0.01196830254048109, 0.013090603053569794, 0.0029371820855885744, 0.005081730894744396, -0.010534415021538734, 0.01203144434839487, 0.010710873641073704, -0.0025267386808991432, -0.013097547926008701, 0.01337527483701706, -0.0101461848244071, -0.011048492975533009, -0.011187382973730564, 0.0025054861325770617, 0.011256558820605278, 0.008640071377158165, -0.0028941365890204906, 0.010603434406220913, -0.012547599151730537, 0.013158817775547504, 0.011491783894598484, 0.0036439355462789536, 0.011781129986047745, 0.010557166300714016, -0.00029559314134530723, -0.010959254577755928, -0.01177069079130888, 0.011768987402319908, -0.009667363949120045, 0.012514889240264893, -0.010620891116559505, 0.0031565730459988117, -4.0325183363165706e-05, 0.009273597970604897, -0.0082101384177804, 0.002817186526954174, -0.0026388992555439472, -0.011085995472967625, -0.010606838390231133, 0.011451790109276772, -0.01320598553866148, 0.012397222220897675, 0.0035200908314436674, -0.010335215367376804, -0.012134655378758907, 0.011633165180683136, -0.01208814699202776, 0.01240198127925396, 0.007462653797119856, 0.0024129522498697042, -0.010288596153259277, 0.0025945440866053104, -0.003071851097047329, -0.002457818016409874, -0.012597118504345417, 0.012085306458175182, -0.011864671483635902, -0.0096474289894104, -0.012607419863343239, -0.010842462070286274, -0.012054206803441048, 0.009021008387207985, -0.0076157222501933575, 0.002573790028691292, -0.010687485337257385, -0.00017320513143204153, 0.005617004353553057, 0.011948507279157639, -0.01044444553554058, 0.011461248621344566, 0.0002422528777970001, 2.1470777937793173e-06, -0.010612871497869492, -0.012725229375064373, -0.01016563456505537, 0.011044694110751152, -0.011134455911815166, 0.008127390407025814, -0.0034662364050745964, 0.0032743671908974648, -0.012584061361849308, 0.007358964998275042, 0.011147642508149147, -0.008953477256000042, -0.012719484977424145, 0.012847326695919037, -0.013189839199185371, 0.010169132612645626, 0.008107592351734638, -0.003193395212292671, -0.011127433739602566, 0.012973102740943432, -0.01208567526191473], [0.011422717012465, -0.0016290678177028894, 0.005567972548305988, -0.017001274973154068, 0.004400045610964298, 0.017381131649017334, 0.002346560824662447, 0.0010428286623209715, 0.0019301802385598421, -0.004796425346285105, -0.0043860431760549545, -0.0214338768273592, 0.002116409596055746, 0.0034675784409046173, 0.012521081604063511, 0.019396690651774406, 0.0022279080003499985, -0.002930711256340146, 0.0026527594309300184, -0.020839430391788483, 0.004810946993529797, -0.01930953562259674, -0.010406214743852615, 0.0002016433427343145, 0.0023897860664874315, -0.014025893993675709, 0.004228001926094294, -0.004706974606961012, 0.0027430038899183273, -0.0036076658871024847, 0.02098713256418705, -0.0005048745661042631, 0.0019666224252432585, -0.00956423208117485, 0.0026611587963998318, 0.0033841957338154316, 0.002226293319836259, 0.018446359783411026, 0.01606682687997818, -0.017446624115109444, 0.0008414078038185835, 0.018642334267497063, -0.002892006654292345, -0.006489770021289587, 0.006404256448149681, -0.015674598515033722, -0.016697915270924568, -0.000723035482224077, 0.001737057464197278, 0.01512744091451168, 0.010353180579841137, -0.00267020077444613, 0.006476105656474829, -0.009449324570596218, 0.0029296763241291046, 0.011009646579623222, 0.005037565249949694, 0.02194553054869175, 0.017335178330540657, -0.0004286167095415294, -0.011961335316300392, -0.017403798177838326, 0.012881606817245483, -0.0160440132021904, 0.0037293501663953066, -0.02021278254687786, 0.002792672486975789, -1.181086463475367e-05, 0.004232563078403473, -0.005566857289522886, 0.004088943358510733, -0.00112213846296072, -0.008448252454400063, -0.002516399137675762, 0.0032553805503994226, -0.0057784561067819595, 0.0009546297951601446, 0.003503978019580245, -0.0019605779089033604, -0.0030195736326277256, 0.0038448150735348463, -0.003003722755238414, 0.013652297668159008, 0.007372531108558178, 0.002357719000428915, -0.020393935963511467, 0.0028297302778810263, -0.003199408296495676, -0.0007431689300574362, -0.003302084282040596, 0.021544596180319786, -0.0018684875685721636, -0.016375787556171417, -0.01292691845446825, -0.005761271342635155, -0.0009011474321596324, 0.0026931266766041517, -0.004872731398791075, 0.002664955798536539, -0.018388208001852036, 7.324610123760067e-06, 0.00013532800949178636, 0.002933771349489689, -0.002456985181197524, 0.006462567485868931, 0.0002592958335299045, -4.80706148664467e-07, -0.007999857887625694, -0.004686038009822369, -0.002498992718756199, 0.014178712852299213, -0.004052525386214256, 0.008112789131700993, -0.016380567103624344, 0.012718096375465393, -0.0015565258217975497, 0.0029071499593555927, 0.000656337826512754, -0.009456907398998737, -0.0027065726462751627, 0.015436097979545593, -0.0028163299430161715, 0.001832653651945293, 0.00048686517402529716, -0.01846962422132492, -0.02059175819158554, 0.017430663108825684, -0.0021821283735334873], [0.006815390195697546, -0.008838165551424026, 0.005384310148656368, -0.007542060688138008, 0.0027288126293569803, 0.009037506766617298, 0.009387630969285965, 0.011292263865470886, 0.011663536541163921, -0.011188246309757233, -0.011493674479424953, -0.010955525562167168, 0.013488863594830036, 0.011964168399572372, 0.011452287435531616, 0.002556966617703438, 0.010482395999133587, -0.009688855148851871, 0.010001816786825657, -0.00302689615637064, 0.011863905936479568, -0.010896429419517517, -0.006962643936276436, 0.00024516909616068006, 0.010829203762114048, -0.0033215449657291174, 0.011888263747096062, -0.011649283580482006, 0.004453536123037338, -0.011403619311749935, 0.011182351969182491, -0.0003917569119948894, 0.009189281612634659, -0.008618687279522419, 0.010165889747440815, 0.0026795321609824896, 0.00999367330223322, 0.00961420126259327, 0.012143299914896488, -0.01125570759177208, 0.012359709478914738, 0.011768881231546402, -0.012014906853437424, -0.011436539702117443, 0.011830059811472893, -0.010820978321135044, -0.01155558880418539, -0.009153245948255062, 0.01054287888109684, 0.0027276792097836733, 0.009535891003906727, -0.011173896491527557, 0.006814278662204742, -0.002613902324810624, 0.009005818516016006, 0.009879568591713905, 0.011203115805983543, 0.00492291571572423, 0.01202484406530857, -0.0007054416928440332, -0.010442713275551796, -0.011288128793239594, 0.012472856789827347, -0.009572409093379974, 0.01057182252407074, -0.010097309947013855, 0.012662827037274837, 1.6006524674594402e-05, 0.010123959742486477, -0.011706129647791386, 0.0049318294040858746, -0.009637998417019844, -0.007637762930244207, -0.010482598096132278, 0.011334182694554329, -0.003981173038482666, 0.012701204046607018, 0.008823025971651077, -0.009059309028089046, -0.011510523036122322, 0.010539517737925053, -0.009762370958924294, 0.010585644282400608, 0.011624179780483246, 0.011410575360059738, -0.00305931712500751, 0.010028139688074589, -0.012765886262059212, -0.011329296976327896, -0.008853757753968239, 0.0062323021702468395, -0.008327278308570385, -0.0023735256399959326, -0.009838961064815521, -0.01006747130304575, -0.010987957008183002, 0.0021815928630530834, -0.010315571911633015, 0.012574431486427784, -0.011849110014736652, 1.793467345123645e-05, 0.010413371957838535, 0.013474853709340096, -0.01053236797451973, 0.012330892495810986, 0.00029310572426766157, 5.575175691774348e-06, -0.00963503960520029, -0.009772366844117641, -0.0024833092465996742, 0.011661563999950886, -0.011886083520948887, 0.007724907714873552, -0.003086111042648554, 0.010717567056417465, -0.010855557397007942, 0.0037498706951737404, 0.003653057850897312, -0.009802483022212982, -0.011535821482539177, 0.012025170959532261, -0.010101590305566788, 0.009878274984657764, 0.008511652238667011, -0.008943604305386543, -0.0037910519167780876, 0.01029820553958416, -0.0023289022501558065], [-0.011220220476388931, 0.007710654754191637, -0.003920743241906166, 0.0084449527785182, -0.006514337379485369, -0.010595116764307022, -0.009398953057825565, -0.00893008429557085, -0.009213022887706757, 0.002024267567321658, 0.005949290934950113, 0.010315977968275547, -0.00937593262642622, -0.011602450162172318, -0.009366445243358612, -0.002464619232341647, -0.008976937271654606, 0.009040559642016888, -0.009241826832294464, 0.0029325680807232857, -0.002942417748272419, 0.009040688164532185, 0.008575311861932278, -0.0002114934177370742, -0.008941509760916233, 0.009915503673255444, -0.01204304862767458, 0.011443453840911388, -0.011509893462061882, 0.01187437679618597, -0.00846374686807394, 0.0006096624420024455, -0.006947856862097979, 0.007593993097543716, -0.009064575657248497, -0.010209562256932259, -0.010068817995488644, -0.009163307957351208, -0.0027267944533377886, 0.011826343834400177, -0.009098945185542107, -0.007517303340137005, 0.011212475597858429, 0.010144236497581005, -0.00935091357678175, 0.002608519745990634, 0.011041061952710152, 0.008589095436036587, -0.009655600413680077, -0.003344894852489233, -0.006009659729897976, 0.010888987220823765, -0.007416401524096727, 0.010347632691264153, -0.009516322053968906, -0.010564504191279411, -0.0034586782567203045, -0.0028012157417833805, -0.0021914576645940542, 0.0007870497647672892, 0.013027038425207138, 0.002829489530995488, -0.011053248308598995, 0.010424031876027584, -0.002060431521385908, 0.008045915514230728, -0.01055107545107603, 1.0149890528055039e-07, -0.004300449043512344, 0.009861660189926624, -0.009487167000770569, 0.011015664786100388, 0.010081276297569275, 0.00306879635900259, -0.011767462827265263, 0.009044038131833076, -0.007570479530841112, -0.011766147799789906, 0.005062817595899105, 0.010686800815165043, -0.0104287164285779, 0.009880853816866875, -0.0036279051564633846, -0.008055763319134712, -0.003199146594852209, 0.00248978310264647, -0.010311136953532696, 0.004160559736192226, 0.008884247392416, 0.010076096281409264, -0.009260110557079315, 0.010453521274030209, 0.009572165086865425, 0.0028167529962956905, 0.010967717505991459, 0.006322210654616356, -0.0007448532851412892, 0.010234593413770199, -0.010057516396045685, 0.003129093674942851, -1.6492429494974203e-05, -0.001131371594965458, -0.010975586250424385, 0.010190168395638466, -0.010535682551562786, -0.00011631388042587787, -3.6052719224244356e-05, 0.009128873236477375, 0.010904311202466488, 0.0026235010009258986, -0.005610673688352108, 0.011194317601621151, -0.012300078757107258, 0.002756422618404031, -0.010604673996567726, 0.008735841140151024, -0.002804998541250825, -0.009047839790582657, 0.012241598218679428, 0.010381832718849182, -0.008777651935815811, 0.009347253479063511, -0.0028119415510445833, -0.01061154529452324, 0.010500607080757618, 0.00999409332871437, -0.008870700374245644, 0.010488363914191723], [0.012160501442849636, -0.010531912557780743, 0.005203289445489645, -0.009346624836325645, 0.008612864650785923, 0.011326140724122524, 0.010105589404702187, 0.0026063653640449047, 0.009249522350728512, -0.009576534852385521, -0.009063750505447388, -0.007761868182569742, 0.002884438494220376, 0.0046958341263234615, 0.010304911062121391, 0.008630271069705486, 0.008842086419463158, -0.002649192698299885, 0.009264633059501648, -0.0071895490400493145, 0.010961835272610188, -0.009457760490477085, -0.008744437247514725, 0.00020360284543130547, 0.004280805122107267, -0.009734638966619968, 0.012031204998493195, -0.002765390556305647, 0.009729154407978058, -0.01062350906431675, 0.008306633681058884, -0.00012942736793775111, 0.00826434139162302, -0.007239383179694414, 0.004932689480483532, 0.011920487508177757, 0.00941503793001175, 0.00866638496518135, 0.009787528775632381, -0.009385758079588413, 0.009726149961352348, 0.00934521108865738, -0.01001264713704586, -0.0039070118218660355, 0.010248725302517414, -0.01149709615856409, -0.01203811913728714, -0.008419398218393326, 0.010264604352414608, 0.007077955640852451, 0.008321698755025864, -0.009300300851464272, 0.009723341092467308, -0.009616382420063019, 0.0029616612009704113, 0.010308460332453251, 0.011606485582888126, 0.002598441205918789, 0.008591986261308193, -0.0012328937882557511, -0.009739307686686516, -0.002283842070028186, 0.0025751173961907625, -0.003106188727542758, 0.010228311643004417, -0.010559634305536747, 0.00380383781157434, -9.550924914947245e-06, 0.004392297938466072, -0.0054899477399885654, 0.004583482630550861, -0.004268102813512087, -0.006847134325653315, -0.009552602656185627, 0.0031644103582948446, -0.009661063551902771, 0.002786808181554079, 0.009465595707297325, -0.008054360747337341, -0.011193414218723774, 0.01105086412280798, -0.01053623203188181, 0.002938068937510252, 0.010716918855905533, 0.00243137264624238, -0.002326563699170947, 0.008903839625418186, -0.010309521108865738, -0.0025984232779592276, -0.00902548711746931, 0.0026803468354046345, -0.010045873932540417, -0.0067293220199644566, -0.002915499033406377, -0.004609690047800541, -0.010611423291265965, 0.00026287880609743297, -0.007135237567126751, 0.0046192859299480915, -0.00909779965877533, -0.00014472453040070832, 0.0036319829523563385, 0.0124703673645854, -0.0026851126458495855, 0.004371743183583021, 0.00021245822426863015, 2.9908873329986818e-05, -0.009351877495646477, -0.007654659915715456, -0.010654209181666374, 0.011340963654220104, -0.010425443761050701, 0.012272533029317856, -0.0029547633603215218, 0.0038424718659371138, -0.00898533035069704, 0.0027893218211829662, 0.0024637654423713684, -0.010077341459691525, -0.0028185381088405848, 0.010531454347074032, -0.010867620818316936, 0.010189750231802464, 0.008631872944533825, -0.006343776360154152, -0.0025122733786702156, 0.01115488726645708, -0.011238195933401585], [-3.2863888463907642e-06, 1.3239405234344304e-06, -0.07399749755859375, 0.011300344951450825, -1.97858753381297e-06, -7.669027581869159e-07, -8.375213838007767e-06, -5.7234310588683e-06, -3.5043190109718125e-06, 2.6057614377350546e-06, 0.017390171065926552, 8.949758012022357e-06, -8.818632522888947e-06, -9.923386642185505e-06, -8.407941095356364e-06, -6.578660531886271e-07, -2.639779040691792e-06, 3.6077562981517985e-07, -1.0907459000009112e-05, 1.6916798131205724e-06, -1.4229322005121503e-05, 2.2448637082561618e-06, 0.054966237396001816, 0.49323275685310364, -1.1402520385672688e-06, 4.3053228182543535e-06, -4.7035396164574195e-06, -4.828308192372788e-06, -4.790948878508061e-06, 5.573833277594531e-06, -4.714409442385659e-06, 0.5990288257598877, -4.761811851494713e-06, 0.035367462784051895, -2.07942093766178e-06, -1.0894221986745833e-06, -2.1527673652599333e-06, -1.7581290876478306e-06, -1.2515578191596433e-06, 4.2507639363975613e-07, -3.096471118624322e-06, -7.358979928540066e-06, 3.7837314721400617e-06, 4.650898063118802e-06, -2.511619641154539e-06, 6.228565780475037e-06, 4.785639248439111e-06, 2.2484944111056393e-06, -7.039909064587846e-07, -2.5461807240390044e-07, 0.051224395632743835, 1.4530607586493716e-05, -0.05930286645889282, 1.5861791325733066e-05, -7.050963631627383e-06, -2.3490181320084957e-06, -8.443336810159963e-06, -2.962906364700757e-07, -2.345861730645993e-06, -0.1266455501317978, 0.041929375380277634, 4.134992195758969e-06, -3.434894324527704e-06, 4.036822701891651e-06, -2.9830850962753175e-06, 4.26436372436001e-06, -7.449499662470771e-06, 0.6268087029457092, -0.00827423669397831, 0.023411115631461143, -3.817931883531855e-06, 2.0657198547269218e-06, 0.050744909793138504, 4.034725407109363e-06, -5.63197500014212e-06, 2.2473022909252904e-06, -8.584931492805481e-06, -2.442793523016462e-08, -1.9109755555746233e-07, 4.437881671037758e-06, -5.320929972185695e-07, 1.0587160431896336e-05, -3.933421794499736e-06, -0.0019275601953268051, -1.654686639085412e-05, 5.279291031001776e-07, -9.46561704040505e-06, 4.8160968617594335e-06, 5.680295998899965e-06, 3.08087010125746e-06, -1.0044231203210074e-05, 7.610172474414867e-07, 2.89179206447443e-06, 5.1980323405587114e-06, 9.157690215033654e-07, 4.0114205148711335e-06, -0.25997549295425415, 0.04681890085339546, -6.038293122401228e-06, 7.854471846258093e-07, -0.5762048959732056, -0.1764582246541977, -5.309472726366948e-06, 3.3466074000898516e-07, -0.026086850091814995, -0.5209630131721497, -0.5549129843711853, 1.8597676216813852e-06, 2.143019401046331e-06, 2.023538854700746e-06, -2.075958263958455e-06, 7.301078767341096e-06, -1.2369640671749949e-06, 4.167694896750618e-06, -4.928026100969873e-06, 1.573799818288535e-05, -1.1611786248977296e-05, -3.85422299586935e-06, 0.04116696119308472, 1.3815848660669872e-06, 4.0258406386328716e-08, 1.8566840935818618e-06, -3.345050117786741e-06, -1.7954930626729038e-06, 2.692175939955632e-06, 1.5082142681421828e-06, -3.5564567042456474e-06, 1.203833221552486e-06], [1.0007353012042586e-05, -3.362211828061845e-06, 0.052369315177202225, -0.012273863889276981, 2.9588022698590066e-06, 2.6688114758144366e-06, 1.0475974704604596e-05, 5.898667041037697e-06, 2.3614907149749342e-06, -2.672920800250722e-06, -0.024281242862343788, -9.816248166316655e-06, 8.45282102091005e-06, 9.837202014750801e-06, 1.2083048204658553e-05, 1.2478068356358563e-06, 9.150918458544766e-07, -5.195075573283248e-06, 4.513673957262654e-06, -3.928188107238384e-06, 7.10641643308918e-06, 3.753419264285185e-08, -0.031349580734968185, -0.6237283945083618, 6.1212340369820595e-06, -4.912294116365956e-06, 3.7424147194542456e-06, -5.041490112489555e-06, 4.523062671069056e-06, -3.837297754216706e-06, 2.5896417810145067e-06, -0.4988972544670105, 4.2794963519554585e-06, -0.013797758147120476, 5.428675535767979e-07, 9.264375080419995e-07, 1.338128896577473e-07, 5.823497986057191e-07, 2.2757014903618256e-06, -6.473812277363322e-07, 6.203265911608469e-06, 1.0043861948361155e-05, 1.1036864755453735e-09, -9.178428626910318e-06, 4.4210523810761515e-06, -2.3982106540643144e-06, -1.7573560171513236e-06, -1.5162603403950925e-06, 6.9464763328142e-06, 4.961913418810582e-06, -0.02652776800096035, -6.018175554345362e-06, 0.06134166568517685, -1.569866253703367e-05, 1.0988667781930417e-05, 1.9721492208191194e-06, 6.790851784899132e-06, 5.420231445896206e-07, 5.5058717407519e-06, 0.12932004034519196, -0.048563431948423386, -5.526718723558588e-06, 6.164619207993383e-06, -1.8567711776995566e-06, 2.9574416657851543e-06, -9.01153907761909e-06, 8.488470484735444e-06, -0.5180875658988953, 0.009725821204483509, -0.022076105698943138, 5.779750154033536e-06, -4.2789693566192e-07, -0.054782431572675705, -1.1373918823665008e-05, 5.852514277648879e-06, -3.6338478821562603e-06, 2.4037033654167317e-05, 1.7275392565352377e-06, -1.890475914478884e-06, -9.893289643514436e-06, 2.7534636046766536e-06, -6.908422164997319e-06, 1.2648904430534458e-06, 1.2171620937806438e-06, 5.9114836403750814e-06, 2.73887110324722e-07, 5.235676781012444e-07, -0.0009696260094642639, -4.6847890899925915e-08, -1.0107199159392621e-05, 9.470834811509121e-06, 2.5138723458439927e-07, -4.129954959353199e-06, -1.5682007870054804e-05, -0.00390764232724905, -4.121665824641241e-06, 0.24071919918060303, -0.04530154541134834, 1.065886522155779e-06, -2.854155582099338e-06, 0.5643544793128967, 0.1727166771888733, 3.837174972431967e-06, -2.8251263302081497e-06, 0.03612558916211128, 0.5146327614784241, 0.5897555351257324, -3.656086846604012e-06, -0.007723215036094189, -2.933093355750316e-06, 2.9145173812139546e-06, -7.66647372074658e-06, 1.0151263722946169e-06, -2.077061708405381e-06, 3.789023139688652e-06, -2.8118022328271763e-06, 2.2527183318743482e-06, 1.770362018760352e-06, -0.04766425862908363, -5.254684765532147e-06, 1.5293163642127183e-06, -2.711011802603025e-06, 3.2226930670731235e-06, 4.798179361387156e-06, -4.536631877272157e-06, -1.5759017060190672e-06, 1.1216155826332397e-06, -7.682935461161833e-07], [0.00840199925005436, -0.009905613027513027, 0.004379559308290482, -0.007691279053688049, 0.011114266701042652, 0.009282544255256653, 0.0025583310052752495, 0.011215883307158947, 0.01139657199382782, -0.00851617194712162, -0.004464536439627409, -0.01195293478667736, 0.012646152637898922, 0.013972488231956959, 0.012815776281058788, 0.0055512129329144955, 0.011291701346635818, -0.011220884509384632, 0.008489090017974377, -0.009718909859657288, 0.012480299919843674, -0.0026389467529952526, -0.006912741344422102, 0.0002050281036645174, 0.011976363137364388, -0.012458940967917442, 0.01269279234111309, -0.011110822670161724, 0.012698311358690262, -0.01109203789383173, 0.009843500331044197, -0.0006123549537733197, 0.010147666558623314, -0.007135463412851095, 0.0024751154705882072, 0.011546854861080647, 0.01053472701460123, 0.002885690424591303, 0.010049618780612946, -0.013264668174088001, 0.010966376401484013, 0.004984365310519934, -0.002613666234537959, -0.013351506553590298, 0.011004130356013775, -0.0028388253413140774, -0.01038914080709219, -0.0024376693181693554, 0.008021934889256954, 0.011902812868356705, 0.010575121268630028, -0.010621952824294567, 0.006309925578534603, -0.002636040560901165, 0.011208671145141125, 0.009961359202861786, 0.01242510974407196, 0.009772032499313354, 0.003190026618540287, -0.003845910308882594, -0.010940656065940857, -0.0033369329757988453, 0.011247124522924423, -0.0029650446958839893, 0.011124328710138798, -0.004017224535346031, 0.012840344570577145, 6.762804332538508e-06, 0.012056673876941204, -0.011166318319737911, 0.01305466890335083, -0.01140766404569149, -0.0099459458142519, -0.01205446757376194, 0.014286830089986324, -0.00953254196792841, 0.012577789835631847, 0.010231342166662216, -0.011859784834086895, -0.011285122483968735, 0.0046145981177687645, -0.009618879295885563, 0.010902456007897854, 0.010317605920135975, 0.011551775969564915, -0.011498377658426762, 0.011602615937590599, -0.01240260899066925, -0.010471861809492111, -0.011779550462961197, 0.009988485835492611, -0.004181764088571072, -0.0053395056165754795, -0.013575681485235691, -0.009526621550321579, -0.011697732843458652, 0.004602416418492794, -0.011528484523296356, 0.013462476432323456, -0.0034106664825230837, -3.5285531339468434e-05, 0.009750479832291603, 0.012186801992356777, -0.01039611455053091, 0.008234571665525436, 0.00017586890317033976, 3.57413555320818e-05, -0.010510857217013836, -0.009575496427714825, -0.009578839875757694, 0.011472661979496479, -0.007892577908933163, 0.010432427749037743, -0.012883762829005718, 0.012576689943671227, -0.005017275456339121, 0.01349136047065258, 0.012012973427772522, -0.008115525357425213, -0.005842504557222128, 0.011088999919593334, -0.003458691295236349, 0.009987233206629753, 0.012531077489256859, -0.010183067061007023, -0.008901157416403294, 0.010507078841328621, -0.004192149266600609], [0.008151267655193806, -0.0026973814237862825, 0.004390659276396036, -0.008648170158267021, 0.013122828677296638, 0.002816232154145837, 0.002393129048869014, 0.015520825982093811, 0.015760250389575958, -0.01422456931322813, -0.010035432875156403, -0.01416873000562191, 0.011407790705561638, 0.012936275452375412, 0.0029317308217287064, 0.01462955679744482, 0.016758501529693604, -0.014037846587598324, 0.01357100997120142, -0.00308567238971591, 0.015915293246507645, -0.012416253797709942, -0.008545029908418655, 0.00024852142087183893, 0.011061659082770348, -0.011185528710484505, 0.004044762346893549, -0.013240465894341469, 0.002819460816681385, -0.0036665231455117464, 0.013977626338601112, -0.0007049173000268638, 0.014157865196466446, -0.005048722494393587, 0.01594112068414688, 0.006360339466482401, 0.016510676592588425, 0.013461585156619549, 0.002702424069866538, -0.01271122321486473, 0.015284462831914425, 0.014883504249155521, -0.01435187179595232, -0.0023858160711824894, 0.002779825357720256, -0.014177100732922554, -0.01433215755969286, -0.015957560390233994, 0.014884664677083492, 0.012321338057518005, 0.003165040398016572, -0.00606503477320075, 0.006200158502906561, -0.002436390146613121, 0.01453141588717699, 0.0026829896960407495, 0.009064439684152603, 0.01216732058674097, 0.013753648847341537, -0.000508120923768729, -0.0004909890703856945, -0.005629074294120073, 0.0026946214493364096, -0.0077178156934678555, 0.003842656733468175, -0.008933262899518013, 0.0035264743492007256, 1.393936327076517e-05, 0.004279285669326782, -0.0095516974106431, 0.012524351477622986, -0.005994733888655901, -0.01237791683524847, -0.014515343122184277, 0.013899625279009342, -0.0154982665553689, 0.0027772127650678158, 0.0049424790777266026, -0.0025520827621221542, -0.00973715540021658, 0.0066508641466498375, -0.0029109735041856766, 0.013516223058104515, 0.00940711610019207, 0.0022619906812906265, -0.014564083889126778, 0.0024763434194028378, -0.0031181457452476025, -0.016940506175160408, -0.01466419082134962, 0.002562041161581874, -0.017627373337745667, -0.013642624020576477, -0.01313751470297575, -0.012081504799425602, -0.0031422290485352278, 0.002189833205193281, -0.008244059048593044, 0.012580291368067265, -0.0029835295863449574, 1.466390494897496e-05, 0.005103279836475849, 0.010626845993101597, -0.015119302086532116, 0.004558512941002846, 0.00024740584194660187, 3.452535383985378e-05, -0.009585775434970856, -0.01090715080499649, -0.013912416994571686, 0.011584537103772163, -0.009798792190849781, 0.007793765049427748, -0.01412357296794653, 0.012179277837276459, -0.01384089607745409, 0.013988763093948364, 0.002440263517200947, -0.005026798229664564, -0.015962233766913414, 0.0024335095658898354, -0.014231924898922443, 0.0024757226929068565, 0.00924985483288765, -0.014627593569457531, -0.013877740129828453, 0.01495072990655899, -0.015040723606944084], [0.00045157282147556543, -0.0011063035344704986, 0.00551242008805275, -0.013703214935958385, 0.002934696152806282, 0.01929928921163082, 0.022944891825318336, 0.002500834409147501, 0.002051558345556259, -0.0209965780377388, -0.010163958184421062, -0.0022372028324753046, 0.0029068305157124996, 0.012225508689880371, 0.003172223689034581, 0.026148386299610138, 0.0039841001853346825, -0.022067155689001083, 0.015169071964919567, -0.003461317392066121, 0.0027449149638414383, -0.003593131434172392, -0.008385153487324715, 0.00019488493853714317, 0.002445035148411989, -0.014918562024831772, 0.0100520309060812, -0.002813458675518632, 0.0023867380805313587, -0.006940991152077913, 0.024929502978920937, -0.00025760335847735405, 0.0222361721098423, -0.008118418045341969, 0.0028066635131835938, 0.006651930045336485, 0.0034938582684844732, 0.0029343401547521353, 0.003774619661271572, -0.002277800114825368, 0.0023396131582558155, 0.009074991568922997, -0.0034618990030139685, -0.00311965961009264, 0.013411824591457844, -0.02241424284875393, -0.0026800730265676975, -0.0009440903668291867, 0.01399906724691391, 0.022478178143501282, 0.0033106650225818157, -0.013210669159889221, 0.005505011882632971, -0.01654919423162937, 0.015226515009999275, 0.0026846560649573803, 0.0018554612761363387, 0.0035926681011915207, 0.021194642409682274, -0.13648582994937897, -0.0047006928361952305, -0.021311622112989426, 0.017599305137991905, -0.014856941066682339, 0.0008402391104027629, -0.025665422901511192, 0.00546321552246809, -3.703254333231598e-05, 0.004507432226091623, -0.009095373563468456, 0.0014596697874367237, -0.015176081098616123, -0.012218193151056767, -0.015464081428945065, 0.018829187378287315, -0.003995235078036785, 0.0027348846197128296, 0.003456796519458294, -0.002713231835514307, -0.006258624140173197, 0.012488415464758873, -0.02149355225265026, 0.016643546521663666, 0.009386842139065266, 0.0016792418900877237, -0.0022215128410607576, 0.001440856489352882, -0.0018624638905748725, -0.0031701773405075073, -0.0012078500585630536, 0.025118403136730194, -0.0030154550913721323, -0.009928547777235508, -0.012953217141330242, -0.011618692427873611, -0.0029140589758753777, 0.0013738326961174607, -0.00726102152839303, 0.0013227113522589207, -0.023507865145802498, -2.8496046979853418e-06, 0.003966788295656443, 0.01256221067160368, -0.002725115977227688, 0.012613353319466114, 0.0001327961217612028, 0.00010919390479102731, -0.009351792745292187, -0.01156263705343008, -0.030661705881357193, 0.01585981994867325, -0.003903539851307869, 0.006983226165175438, -0.02065105549991131, 0.008007938973605633, -0.0015083103207871318, 0.0031187834683805704, 0.0020280135795474052, -0.003398298751562834, -0.002378542209044099, 0.0025719027034938335, -0.010546556673943996, 0.002639224985614419, 0.002153289271518588, -0.02475658431649208, -0.0026631460059434175, 0.0023760017938911915, -0.0024410930927842855], [0.011609249748289585, -0.010642243549227715, 0.0023496162611991167, -0.007756546605378389, 0.00827967468649149, 0.010761501267552376, 0.008454437367618084, 0.009403246454894543, 0.009228937327861786, -0.0088965417817235, -0.007071992382407188, -0.00837006513029337, 0.0073186797089874744, 0.00331023707985878, 0.007637098431587219, 0.009818603284657001, 0.007642380427569151, -0.010211708955466747, 0.009456039406359196, -0.008585919626057148, 0.00937090627849102, -0.002590045565739274, -0.0071782274171710014, 0.00025278760585933924, 0.008946901187300682, -0.010403593070805073, 0.010831339284777641, -0.010034866631031036, 0.012037362903356552, -0.010468785651028156, 0.0021707438863813877, -0.000751935935113579, 0.010374875739216805, -0.00993578415364027, 0.0022735511884093285, 0.005027138628065586, 0.009543254040181637, 0.011147644370794296, 0.011424762196838856, -0.011665730737149715, 0.008005194365978241, 0.008418847806751728, -0.005191450472921133, -0.010664733126759529, 0.010479547083377838, -0.010202533565461636, -0.009902404621243477, -0.00834888406097889, 0.01064466405659914, 0.008177465759217739, 0.010324202477931976, -0.00924617424607277, 0.005984680261462927, -0.010713272728025913, 0.010502083227038383, 0.0031094455625861883, 0.008606316521763802, 0.0032351308036595583, 0.00865271594375372, -0.0012321933172643185, -0.003749667201191187, -0.008397533558309078, 0.008576538413763046, -0.0030389633029699326, 0.008668140508234501, -0.002381454221904278, 0.009438426233828068, 6.357633537845686e-06, 0.00784409511834383, -0.010392282158136368, 0.010377497412264347, -0.01065472885966301, -0.005299428012222052, -0.002642805688083172, 0.0035549199674278498, -0.006591113284230232, 0.009649508632719517, 0.010265265591442585, -0.0023983479477465153, -0.011829035356640816, 0.010547704063355923, -0.009182549081742764, 0.010395437479019165, 0.009514079429209232, 0.008592341095209122, -0.009977838024497032, 0.009206822142004967, -0.011450085788965225, -0.011197702027857304, -0.0032657235860824585, 0.008971169590950012, -0.009253253228962421, -0.00848535168915987, -0.0030936996918171644, -0.010192504152655602, -0.011055683717131615, 0.018137315288186073, -0.007953586056828499, 0.01078785490244627, -0.003022613702341914, -2.8472952180891298e-05, 0.007796642370522022, 0.009950252249836922, -0.010456317104399204, 0.004352365620434284, 0.0002428071602480486, 3.538312375894748e-05, -0.00997327920049429, -0.011267812922596931, -0.010487835854291916, 0.002985853934660554, -0.011321301572024822, 0.007174714934080839, -0.009413364343345165, 0.010908828116953373, -0.008346823044121265, 0.011634145863354206, 0.009600361809134483, -0.009081333875656128, -0.003676674095913768, 0.005633571185171604, -0.008850449696183205, 0.009356415830552578, 0.008043309673666954, -0.002772210631519556, -0.009731038473546505, 0.00923803448677063, -0.01088216993957758], [0.00771239073947072, -0.002423927653580904, 0.010728256776928902, -0.008164254948496819, 0.011332212015986443, 0.012247434817254543, 0.005677173379808664, 0.0023379528429359198, 0.012064282782375813, -0.011517568491399288, -0.010330913588404655, -0.0025185225531458855, 0.00863990280777216, 0.01070572528988123, 0.012418768368661404, 0.01224797684699297, 0.011246747337281704, -0.01038447767496109, 0.012524702586233616, -0.012169665656983852, 0.013340874575078487, -0.002639996586367488, -0.013318805024027824, 0.0002008942246902734, 0.012681710533797741, -0.011353857815265656, 0.008901426568627357, -0.012586254626512527, 0.011865837499499321, -0.012950966134667397, 0.010388020426034927, -7.852244743844494e-05, 0.011469367891550064, -0.010073637589812279, 0.003205861896276474, 0.00800370518118143, 0.011354160495102406, 0.012130307964980602, 0.002703978680074215, -0.010258743539452553, 0.013011373579502106, 0.01113243866711855, -0.013128253631293774, -0.012042731046676636, 0.01202572975307703, -0.006097209639847279, -0.011526803486049175, -0.013093623332679272, 0.011149421334266663, 0.009514213539659977, 0.01023515872657299, -0.002832939615473151, 0.006135733798146248, -0.011345240287482738, 0.013185331597924232, 0.01173470914363861, 0.011807221919298172, 0.007366537116467953, 0.011174197308719158, -0.0006149826804175973, -0.012379204854369164, -0.012655938044190407, 0.011767642572522163, -0.011676374822854996, 0.01208322960883379, -0.002488780301064253, 0.012321933172643185, -3.2307434594258666e-05, 0.010966107249259949, -0.010867084376513958, 0.012745424173772335, -0.012798747047781944, -0.003306848229840398, -0.010626195929944515, 0.0032077019568532705, -0.012616440653800964, 0.013241513632237911, 0.008814810775220394, -0.01118648611009121, -0.005706680007278919, 0.01105508767068386, -0.008720695041120052, 0.0037660165689885616, 0.009157625027000904, 0.0025606497656553984, -0.009956622496247292, 0.011765713803470135, -0.012048909440636635, -0.012792340479791164, -0.005053799599409103, 0.010989168658852577, -0.01084278803318739, -0.010669374838471413, -0.013318791054189205, -0.004984305705875158, -0.002506502903997898, 0.018093207851052284, -0.010304667055606842, 0.007033179048448801, -0.012679829262197018, -2.282710738654714e-05, 0.0068875993601977825, 0.008875512517988682, -0.01024600863456726, 0.01184361893683672, 0.00017273821868002415, 2.921480881923344e-05, -0.009362926706671715, -0.012303585186600685, -0.01206305529922247, 0.010022432543337345, -0.010876260697841644, 0.011516725644469261, -0.0029589482583105564, 0.010778349824249744, -0.004344566259533167, 0.011199010536074638, 0.01218163687735796, -0.008405816741287708, -0.012850572355091572, 0.010802073404192924, -0.0025416347198188305, 0.011768557131290436, 0.011389093473553658, -0.004287116229534149, -0.011872601695358753, 0.0022764098830521107, -0.012166802771389484], [0.0066548860631883144, -0.017501067370176315, 0.01471436582505703, -0.008517436683177948, 0.014491688460111618, 0.012760128825902939, 0.014296812936663628, 0.01676437072455883, 0.002960594603791833, -0.01426673959940672, -0.00639709597453475, -0.013086270540952682, 0.014305784367024899, 0.01162935420870781, 0.003192064119502902, 0.012261256575584412, 0.019340811297297478, -0.0026249694637954235, 0.01408603135496378, -0.0030417554080486298, 0.01625940389931202, -0.0024669512640684843, -0.01314621977508068, 0.00019708495528902858, 0.014289901591837406, -0.010807164013385773, 0.005383685231208801, -0.004725889768451452, 0.0027793149929493666, -0.006398595403879881, 0.002342614810913801, -0.00013212268822826445, 0.014648369513452053, -0.010582126677036285, 0.002806037198752165, 0.009057308547198772, 0.00240075564943254, 0.013245530426502228, 0.012375268153846264, -0.013334189541637897, 0.003356357105076313, 0.014632636681199074, -0.01589147560298443, -0.014674750156700611, 0.004485554993152618, -0.01264472957700491, -0.002673069480806589, -0.015985852107405663, 0.015275790356099606, 0.0025325927417725325, 0.008519494906067848, -0.014998210594058037, 0.010321267880499363, -0.016033414751291275, 0.0026318407617509365, 0.013698221184313297, 0.0032817479223012924, 0.013306142762303352, 0.0028614059556275606, -0.000463425851194188, -0.011699584312736988, -0.003932735417038202, 0.012265646830201149, -0.013859829865396023, 0.015397804789245129, -0.012478021904826164, 0.013165299780666828, -9.32360126171261e-06, 0.009351097978651524, -0.009785880334675312, 0.013510146178305149, -0.01467860583215952, -0.003291536821052432, -0.014356913045048714, 0.014235734939575195, -0.015487594529986382, 0.015293941833078861, 0.0035515939816832542, -0.01593046262860298, -0.011364682577550411, 0.013130745850503445, -0.012474668212234974, 0.011475748382508755, 0.010582052171230316, 0.017738142982125282, -0.013908782042562962, 0.014561149291694164, -0.003065424272790551, -0.014198202639818192, -0.01848423108458519, 0.002593363868072629, -0.0024296094197779894, -0.014015820808708668, -0.014330869540572166, -0.010612155310809612, -0.014220009557902813, 0.003251240821555257, -0.011580881662666798, 0.014161764644086361, -0.010451548732817173, 4.94332698508515e-06, 0.007643559947609901, 0.013259684666991234, -0.0024784551933407784, 0.004417174495756626, 0.0009254590258933604, 1.0816494977916591e-05, -0.008929402567446232, -0.011867961846292019, -0.0025365452747792006, 0.003354807384312153, -0.009639267809689045, 0.008082265965640545, -0.014199381694197655, 0.013492654077708721, -0.016446147114038467, 0.012995348311960697, 0.002332286909222603, -0.006767559330910444, -0.015713708475232124, 0.010733150877058506, -0.013470562174916267, 0.0023290442768484354, 0.011471712030470371, -0.014025485143065453, -0.010408025234937668, 0.01629423350095749, -0.013876181095838547], [-0.01174443494528532, 0.002701935824006796, -0.007623454090207815, 0.01086108386516571, -0.011927688494324684, -0.012270111590623856, -0.014104547910392284, -0.002532716142013669, -0.013984830118715763, 0.013889854773879051, 0.004970328416675329, 0.012796543538570404, -0.015257518738508224, -0.003411081852391362, -0.012273498810827732, -0.012683989480137825, -0.01778983697295189, 0.005795742385089397, -0.0026411772705614567, 0.012292183004319668, -0.016853220760822296, 0.011614149436354637, 0.006607105489820242, -0.0002051263872999698, -0.01416951883584261, 0.011588606983423233, -0.004518984816968441, 0.01391332596540451, -0.012546173296868801, 0.0035407638642936945, -0.01353764720261097, 0.0007534499163739383, -0.0147524643689394, 0.01121252216398716, -0.013528496958315372, -0.014492900110781193, -0.0023068776354193687, -0.011167265474796295, -0.002845479641109705, 0.010534737259149551, -0.002235676860436797, -0.0022682470735162497, 0.0023461123928427696, 0.005942740011960268, -0.013697253540158272, 0.011928188614547253, 0.002824337687343359, 0.0040964409708976746, -0.008204878307878971, -0.0032641717698425055, -0.010953945107758045, 0.014428557828068733, -0.006073050666600466, 0.012739825062453747, -0.012730794958770275, -0.0027537604328244925, -0.00328380917198956, -0.013843176886439323, -0.0022243161220103502, 0.0033279280178248882, 0.011618830263614655, 0.0024665247183293104, -0.004368744790554047, 0.013221298344433308, -0.002090338384732604, 0.005363163538277149, -0.0031130770221352577, 4.065403118147515e-05, -0.004682699218392372, 0.010151173919439316, -0.01439937949180603, 0.002602244261652231, 0.009964087046682835, 0.01316447276622057, -0.0032486661802977324, 0.01590641215443611, -0.014359942637383938, -0.010376501828432083, 0.0026551503688097, 0.005606343038380146, -0.01072493102401495, 0.012082845903933048, -0.01357803400605917, -0.01047611329704523, -0.01673019677400589, 0.0021674141753464937, -0.014061461202800274, 0.011615613475441933, 0.015225378796458244, 0.016931897029280663, -0.01435047760605812, 0.0024778619408607483, 0.007353798486292362, 0.002944254083558917, 0.012437987141311169, 0.015164239332079887, -0.004508452955633402, 0.007710848934948444, -0.013464448973536491, 0.011442499235272408, 2.21347045226139e-06, -0.005041803233325481, -0.012328720651566982, 0.0024626010563224554, -0.0045457277446985245, -8.16300162114203e-05, -2.723965917539317e-05, 0.010655281133949757, 0.004413533490151167, 0.012257643975317478, -0.0030280116479843855, 0.010159633122384548, -0.01098153367638588, 0.006677061319351196, -0.013791157864034176, 0.0026499368250370026, -0.013618426397442818, -0.0036384337581694126, 0.009916378185153008, 0.014367933385074139, -0.0024145704228430986, 0.0027227243408560753, -0.009146628901362419, -0.01188956294208765, 0.013420257717370987, 0.0024308632127940655, -0.0025051396805793047, 0.012748349457979202], [-0.00844584684818983, 0.014338959008455276, -0.007989599369466305, 0.008215591311454773, -0.01102172490209341, -0.01203999388962984, -0.012999655678868294, -0.012874691747128963, -0.012851931154727936, 0.0028911565896123648, 0.01125442236661911, 0.012972576543688774, -0.014833332970738411, -0.007416457403451204, -0.00461586331948638, -0.0026191603392362595, -0.012772063724696636, 0.01006343774497509, -0.011765241622924805, 0.012143390253186226, -0.004310438875108957, 0.005318434908986092, 0.006802674382925034, -0.00025540392380207777, -0.007594759110361338, 0.013742337003350258, -0.012477454729378223, 0.01318366639316082, -0.014998904429376125, 0.012063417583703995, -0.011934837326407433, 0.0007634711801074445, -0.012940675020217896, 0.006968875415623188, -0.002747531281784177, -0.012209346517920494, -0.0024418027605861425, -0.0029867736157029867, -0.013669410720467567, 0.0030829263851046562, -0.012834153138101101, -0.0035475522745400667, 0.013429591432213783, 0.016113262623548508, -0.012932188808918, 0.013244436122477055, 0.0026333576533943415, 0.014100457541644573, -0.01310032606124878, -0.01163405366241932, -0.007922778837382793, 0.01234566792845726, -0.010161256417632103, 0.0025719974655658007, -0.013155863620340824, -0.01236563641577959, -0.014614870771765709, -0.011374774388968945, -0.011979917995631695, 0.003865452716127038, 0.010333224199712276, 0.013471778482198715, -0.013375739566981792, 0.012041457928717136, -0.0025286816526204348, 0.012486315332353115, -0.013116136193275452, 1.884494486148469e-05, -0.010811657644808292, 0.006274809595197439, -0.008157387375831604, 0.014479651115834713, 0.009870601817965508, 0.012629132717847824, -0.003403373993933201, 0.012897488661110401, -0.012674889527261257, -0.004263106267899275, 0.013718919828534126, 0.013114102184772491, -0.012197868898510933, 0.003873480251058936, -0.012745581567287445, -0.009455231949687004, -0.013872173614799976, 0.002321576466783881, -0.012722183018922806, 0.012399410828948021, 0.01317569985985756, 0.014656398445367813, -0.013512415811419487, 0.011075189337134361, 0.002528662793338299, 0.012832174077630043, 0.004571177996695042, 0.0026754087302833796, -0.0013839654857292771, 0.009951605461537838, -0.014625312760472298, 0.0031560147181153297, -8.867548785929102e-06, -0.0033440543338656425, -0.013172241859138012, 0.013293924741446972, -0.0044580064713954926, -0.00013349350774660707, -9.737161690281937e-07, 0.00968096125870943, 0.004322339314967394, 0.01098670158535242, -0.009674236178398132, 0.011238781735301018, -0.012508333660662174, 0.012613807804882526, -0.013164268806576729, 0.012866592034697533, -0.01244734600186348, -0.013436459936201572, 0.008365293964743614, 0.002781752496957779, -0.0032556261867284775, 0.0141797149553895, -0.0024727657437324524, -0.008440252393484116, 0.012208034284412861, 0.009630516171455383, -0.01226783450692892, 0.013073284178972244], [0.007662867195904255, -0.009972917847335339, 0.007985255680978298, -0.007898647338151932, 0.00833890587091446, 0.0032509390730410814, 0.008391143754124641, 0.007747582159936428, 0.009299619123339653, -0.0045285532251000404, -0.00729987770318985, -0.007641895208507776, 0.008436617441475391, 0.010152030736207962, 0.010810717940330505, 0.010623670183122158, 0.007653362583369017, -0.010165566578507423, 0.008813818916678429, -0.006764019373804331, 0.009139922447502613, -0.010060462169349194, -0.007413059007376432, 0.00020761266932822764, 0.009930917993187904, -0.0030534605029970407, 0.012057820335030556, -0.011284185573458672, 0.010572061873972416, -0.010799751617014408, 0.007850711233913898, -0.0002747902472037822, 0.0025764850433915854, -0.00686838012188673, 0.008641183376312256, 0.011651081964373589, 0.0022918253671377897, 0.010339225642383099, 0.012018554843962193, -0.011697652749717236, 0.002686343854293227, 0.008833042345941067, -0.010451915673911572, -0.009183734655380249, 0.0029841705691069365, -0.009895729832351208, -0.0027366303838789463, -0.0024207665119320154, 0.008771969936788082, 0.00942735280841589, 0.00996110774576664, -0.010631803423166275, 0.010452920570969582, -0.008409575559198856, 0.002686775755137205, 0.010737918317317963, 0.0111194783821702, 0.002469961531460285, 0.0072280848398804665, -0.0023225038312375546, -0.010730896145105362, -0.007881809957325459, 0.010737272910773754, -0.0030483019072562456, 0.00963645987212658, -0.008683585561811924, 0.010305879637598991, -1.148185310739791e-05, 0.010758002288639545, -0.011103344149887562, 0.008263018913567066, -0.01104335393756628, -0.009551510214805603, -0.0027480083517730236, 0.004124988801777363, -0.01031247153878212, 0.0026267666835337877, 0.011937594041228294, -0.009039407595992088, -0.003279633354395628, 0.011505365371704102, -0.00952401664108038, 0.008654186502099037, 0.009590528905391693, 0.007758702151477337, -0.009991037659347057, 0.009226547554135323, -0.01169760525226593, -0.01051414292305708, -0.008019707165658474, 0.009904826059937477, -0.010635576210916042, -0.00791784469038248, -0.0031731994822621346, -0.007019339129328728, -0.011167848482728004, 0.011965242214500904, -0.006161578930914402, 0.011026461608707905, -0.00955506693571806, -8.602662273915485e-05, 0.004907853901386261, 0.0035231290385127068, -0.008068472146987915, 0.0078852828592062, 0.00016191588656511158, 6.4034684328362346e-06, -0.009483135305345058, -0.010731576010584831, -0.0027843143325299025, 0.007855347357690334, -0.011229821480810642, 0.010378533974289894, -0.010896013118326664, 0.010415495373308659, -0.009096219204366207, 0.00876565556973219, 0.008364125154912472, -0.008132274262607098, -0.009008222259581089, 0.009242745116353035, -0.009031347930431366, 0.010507850907742977, 0.00944342091679573, -0.009188756346702576, -0.009343498386442661, 0.0024939849972724915, -0.010010765865445137], [0.011987745761871338, -0.017523888498544693, 0.0060534393414855, -0.007950837723910809, 0.014557547867298126, 0.013279067352414131, 0.015354047529399395, 0.01760452799499035, 0.014754663221538067, -0.0022224935237318277, -0.00886879675090313, -0.002715879352763295, 0.017564641311764717, 0.0034581762738525867, 0.0032463078387081623, 0.01365544181317091, 0.019800610840320587, -0.006396704353392124, 0.015499107539653778, -0.0032798917964100838, 0.0066261314786970615, -0.005332164466381073, -0.007556628901511431, 0.00019659276586025953, 0.002360904822126031, -0.013766389340162277, 0.010507497936487198, -0.014647177420556545, 0.010800630785524845, -0.011909252032637596, 0.00730697438120842, -0.00048396052443422377, 0.002658416284248233, -0.00949340220540762, 0.01760745979845524, 0.01323536317795515, 0.0034020314924418926, 0.012606259435415268, 0.014264306984841824, -0.0031852778047323227, 0.01810726337134838, 0.014549518004059792, -0.002550931880250573, -0.0183714609593153, 0.007929833605885506, -0.007161462679505348, -0.003294822759926319, -0.02174866572022438, 0.015600834041833878, 0.014232195913791656, 0.010448815301060677, -0.006773737724870443, 0.011029157787561417, -0.015316158533096313, 0.015486583113670349, 0.01611432060599327, 0.013421527110040188, 0.012196661904454231, 0.0023235760163515806, -0.0003874853136949241, -0.0005954133812338114, -0.002685748040676117, 0.013791297562420368, -0.002989834640175104, 0.008582336828112602, -0.01391254086047411, 0.014218264259397984, -9.273655450670049e-06, 0.011132431216537952, -0.00557596143335104, 0.01437446754425764, -0.0045468769967556, -0.005978710949420929, -0.0026630184147506952, 0.015333101153373718, -0.002601846121251583, 0.0026926298160105944, 0.011073549278080463, -0.01594860479235649, -0.012502474710345268, 0.012594204396009445, -0.014009022153913975, 0.0041742511093616486, 0.008287819102406502, 0.017553355544805527, -0.014313804917037487, 0.01596609503030777, -0.013632011599838734, -0.017706051468849182, -0.003485747380182147, 0.015142517164349556, -0.014735857956111431, -0.013453842140734196, -0.013245188631117344, -0.011472166515886784, -0.015196114778518677, 0.01768801361322403, -0.010346814058721066, 0.015100750140845776, -0.01585332490503788, -1.0729369932960253e-05, 0.00022564760001841933, 0.003694301936775446, -0.01342158205807209, 0.011165536008775234, 0.00015298303333111107, 2.3484983103116974e-05, -0.009492643177509308, -0.006218055263161659, -0.004660844802856445, 0.012051376514136791, -0.003973850514739752, 0.006025581620633602, -0.0031095528975129128, 0.011476329527795315, -0.02013183757662773, 0.013505406677722931, 0.016172735020518303, -0.006777164060622454, -0.016957666724920273, 0.015401873737573624, -0.014955719001591206, 0.015074679628014565, 0.01069000642746687, -0.014086232520639896, -0.01393773965537548, 0.01786847412586212, -0.01073852926492691], [0.007635914254933596, -0.010775476694107056, 0.007071910426020622, -0.00926918350160122, 0.00266575557179749, 0.006318130996078253, 0.009018218144774437, 0.009283393621444702, 0.009035065770149231, -0.010339610278606415, -0.009931512176990509, -0.00861314870417118, 0.011862392537295818, 0.01262991689145565, 0.003035797970369458, 0.002902514534071088, 0.010585886426270008, -0.0027029041666537523, 0.010864811949431896, -0.011422860436141491, 0.011757079511880875, -0.01090305857360363, -0.008053670637309551, 0.00026901415549218655, 0.010992659255862236, -0.011940405704081059, 0.011000517755746841, -0.011039216071367264, 0.010450731962919235, -0.012931637465953827, 0.005515700206160545, -0.0003456546983215958, 0.009742013178765774, -0.006681724451482296, 0.00879052933305502, 0.013159353286027908, 0.010303369723260403, 0.0032042120583355427, 0.002839985303580761, -0.0040350728668272495, 0.009551390074193478, 0.008921586908400059, -0.010890807956457138, -0.008575270883738995, 0.009243984706699848, -0.011590356938540936, -0.002810778096318245, -0.01009199395775795, 0.010272212326526642, 0.002625234890729189, 0.007635653950273991, -0.010736055672168732, 0.007847374305129051, -0.010088887996971607, 0.010473248548805714, 0.002739777322858572, 0.0032185923773795366, 0.010810714215040207, 0.0024980639573186636, -0.0006102417246438563, -0.0118247726932168, -0.008942795917391777, 0.009738147258758545, -0.012082554399967194, 0.009991761296987534, -0.009298976510763168, 0.01119202934205532, -9.214632882503793e-06, 0.008036306127905846, -0.008381867781281471, 0.012464296072721481, -0.01123844925314188, -0.011239915154874325, -0.008637852966785431, 0.00993900652974844, -0.011233306489884853, 0.0027921285945922136, 0.012508227489888668, -0.009035564959049225, -0.011041419580578804, 0.009991195052862167, -0.00835211481899023, 0.010146450251340866, 0.009404283948242664, 0.009720086120069027, -0.009981553070247173, 0.01070296298712492, -0.012727965600788593, -0.010778008960187435, -0.011240965686738491, 0.010332574136555195, -0.011263701133430004, -0.002265830524265766, -0.010263347998261452, -0.0050108483992516994, -0.011799316853284836, 0.009709304198622704, -0.006428496912121773, 0.004645700100809336, -0.01072128489613533, -0.00011254525452386588, 0.004918617662042379, 0.010537926107645035, -0.004078816156834364, 0.005802925676107407, 0.00012503164180088788, 1.0642268534866162e-05, -0.007105289958417416, -0.01137799583375454, -0.010986716486513615, 0.010941621847450733, -0.003918164875358343, 0.013067596592009068, -0.002913166070356965, 0.003825779538601637, -0.0022769521456211805, 0.010593936778604984, 0.002431744709610939, -0.009181569330394268, -0.012376061640679836, 0.010297251865267754, -0.011245585046708584, 0.002837641164660454, 0.011212515644729137, -0.0032106274738907814, -0.004053381271660328, 0.0031257029622793198, -0.0029964614659547806], [0.011650549247860909, -0.008051779121160507, 0.004237645771354437, -0.008066887967288494, 0.0024716604966670275, 0.002568124793469906, 0.0022433344274759293, 0.008085551671683788, 0.006699720397591591, -0.007311821449548006, -0.009770852513611317, -0.006631967145949602, 0.008547535166144371, 0.00948546826839447, 0.007501472253352404, 0.007162382360547781, 0.00735437823459506, -0.008499066345393658, 0.0025355820544064045, -0.01002578530460596, 0.008090456016361713, -0.00787089578807354, -0.008584938012063503, 0.00018323211406823248, 0.009292238391935825, -0.008239228278398514, 0.010602300055325031, -0.009619268588721752, 0.009864356368780136, -0.011085273697972298, 0.0073789325542747974, -0.00018332550826016814, 0.00232595088891685, -0.007133172359317541, 0.006590147968381643, 0.0035725419875234365, 0.007127851247787476, 0.00583206070587039, 0.009060937911272049, -0.008074826560914516, 0.002164836274459958, 0.0026692585088312626, -0.00941788125783205, -0.008893328718841076, 0.008505191653966904, -0.006379066500812769, -0.010249646380543709, -0.006270939949899912, 0.007665225304663181, 0.007264845073223114, 0.007306778337806463, -0.008930367417633533, 0.011581065133213997, -0.00796559453010559, 0.007475181017071009, 0.007637342903763056, 0.010671134106814861, 0.0024143820628523827, 0.007705875672399998, -0.0007834911812096834, -0.009628639556467533, -0.007548441179096699, 0.007924145087599754, -0.009254852309823036, 0.0034748020116239786, -0.00695892795920372, 0.010973119176924229, 6.488372946478194e-06, 0.009621826931834221, -0.00615668622776866, 0.009696491993963718, -0.007000517565757036, -0.011049448512494564, -0.007121413480490446, 0.0030477717518806458, -0.00931509304791689, 0.006879867985844612, 0.006413247436285019, -0.0031750614289194345, -0.009577072225511074, 0.010221198201179504, -0.005336616653949022, 0.008142906241118908, 0.007196550723165274, 0.007071461528539658, -0.0020100055262446404, 0.007472801487892866, -0.0030203822534531355, -0.00844801589846611, -0.007167973555624485, 0.002430892316624522, -0.008884580805897713, -0.00788973644375801, -0.003577962750568986, -0.01138140819966793, -0.005581958685070276, 0.0011517828097566962, -0.008349986746907234, 0.003955652471631765, -0.0029539093375205994, -2.333187876502052e-05, 0.003416670486330986, 0.008853433653712273, -0.002473586006090045, 0.01081340853124857, 0.01170202624052763, 1.0694894626794849e-05, -0.008930950425565243, -0.010413761250674725, -0.009148232638835907, 0.0027797874063253403, -0.0038825843948870897, 0.011860981583595276, -0.008243069052696228, 0.003925875294953585, -0.006939639803022146, 0.007318006828427315, 0.006725792773067951, -0.009427264332771301, -0.002415066584944725, 0.00818190723657608, -0.008303043432533741, 0.004265411291271448, 0.011199305765330791, -0.008491933345794678, -0.002388008637353778, 0.002228159923106432, -0.0022715094964951277], [-0.011600025929510593, 0.011671238578855991, -0.011579849757254124, 0.008119044825434685, -0.0026556244120001793, -0.009794823825359344, -0.0037351285573095083, -0.010317118838429451, -0.01134946197271347, 0.002451671753078699, 0.005025301594287157, 0.01088152825832367, -0.0028227681759744883, -0.00896312016993761, -0.0030819096136838198, -0.01122300885617733, -0.006571617908775806, 0.009408230893313885, -0.011624169535934925, 0.0030210113618522882, -0.002704606857150793, 0.011103527620434761, 0.008743403479456902, -0.00017069948080461472, -0.01022961176931858, 0.011526105925440788, -0.010496693663299084, 0.011389926075935364, -0.012033764272928238, 0.011998110450804234, -0.01007724367082119, 0.00011007222201442346, -0.010150337591767311, 0.010356342419981956, -0.0075586955063045025, -0.0025895428843796253, -0.0022745917085558176, -0.008970403112471104, -0.009744144044816494, 0.012241254560649395, -0.010698746889829636, -0.010675789788365364, 0.012330945581197739, 0.012751854956150055, -0.010906856507062912, 0.010478104464709759, 0.012615298852324486, 0.009154420346021652, -0.0025195758789777756, -0.011197161860764027, -0.0076741501688957214, 0.01106079202145338, -0.011287841014564037, 0.008691609837114811, -0.0027529913932085037, -0.002543845446780324, -0.012348796240985394, -0.0026025702245533466, -0.0023934771306812763, 0.0006863886956125498, 0.010967736132442951, 0.002494356594979763, -0.01051340438425541, 0.011344404891133308, -0.010482615791261196, 0.010199340060353279, -0.01239017117768526, 4.0802991861710325e-05, -0.009820464067161083, 0.009260127320885658, -0.012334969826042652, 0.008738390170037746, 0.0070248935371637344, 0.01093677431344986, -0.00315528130158782, 0.0024246021639555693, -0.011691244319081306, -0.011855673976242542, 0.007747595198452473, 0.003366236574947834, -0.0038207354955375195, 0.0028284117579460144, -0.0029168170876801014, -0.008372596465051174, -0.010588296689093113, 0.003217539982870221, -0.009935096837580204, 0.003100167727097869, 0.0034572205040603876, 0.010265599004924297, -0.011684591881930828, 0.011844487860798836, 0.00252266856841743, 0.010727116838097572, 0.006885641720145941, 0.004313394892960787, -0.01796838268637657, 0.006643339060246944, -0.011663282290101051, 0.010977589525282383, 2.9725817512371577e-05, -0.004666722379624844, -0.012878868728876114, 0.0026919052470475435, -0.004816819913685322, -0.00014859286602586508, -6.75084265822079e-06, 0.00793519988656044, 0.01082882471382618, 0.010799579322338104, -0.01057302113622427, 0.011388170532882214, -0.011437244713306427, 0.011764333583414555, -0.01046680472791195, 0.0042358278296887875, -0.0028251558542251587, -0.011683673597872257, 0.008172408677637577, 0.011298948898911476, -0.00871415063738823, 0.01011662371456623, -0.009446578100323677, -0.006091028917580843, 0.009541426785290241, 0.009665759280323982, -0.00304701691493392, 0.003919095732271671], [0.011292598210275173, -0.0034313939977437258, 0.0113838454708457, -0.002134505659341812, 0.009963306598365307, 0.011245368048548698, 0.00249289209023118, 0.0024290732108056545, 0.010051078163087368, -0.009711495600640774, -0.01003972440958023, -0.002712775254622102, 0.011862281709909439, 0.003757498459890485, 0.012138857506215572, 0.010728090070188046, 0.00998440757393837, -0.009446529671549797, 0.0026651164516806602, -0.010575263760983944, 0.012198085896670818, -0.010711120441555977, -0.007078967522829771, 0.00019335182150825858, 0.01177708525210619, -0.011584801599383354, 0.01058891136199236, -0.009999522939324379, 0.006575664971023798, -0.004239788744598627, 0.009692208841443062, -0.00031918202876113355, 0.002423560479655862, -0.010721130296587944, 0.002293327357620001, 0.011818761937320232, 0.011518481187522411, 0.002823591697961092, 0.012671391479671001, -0.003442324697971344, 0.010267321951687336, 0.011860881932079792, -0.01124901045113802, -0.012600725516676903, 0.0031197317875921726, -0.002787383273243904, -0.012882722541689873, -0.010725019499659538, 0.01158073265105486, 0.011106564663350582, 0.009326103143393993, -0.0061399065889418125, 0.007480354513972998, -0.004034692887216806, 0.0030598859302699566, 0.012260816991329193, 0.004284704569727182, 0.008745591156184673, 0.008540463633835316, -0.0005287827225401998, -0.010308753699064255, -0.010376363061368465, 0.010028097778558731, -0.0030451458878815174, 0.01223081536591053, -0.010953892953693867, 0.012822343036532402, -9.171713827527128e-06, 0.009524818509817123, -0.006089213769882917, 0.006781476084142923, -0.0027439056430011988, -0.008030496537685394, -0.0027606224175542593, 0.012919905595481396, -0.0023720075841993093, 0.011386536061763763, 0.010623488575220108, -0.011513796634972095, -0.01074940524995327, 0.011226027272641659, -0.0030155673157423735, 0.010913695208728313, 0.008020644076168537, 0.01011709589511156, -0.010861027054488659, 0.010617095045745373, -0.011833755299448967, -0.010954972356557846, -0.010287943296134472, 0.011188486590981483, -0.011253764852881432, -0.01123120915144682, -0.01100978720933199, -0.003900389652699232, -0.004349011927843094, 0.0007819985039532185, -0.0063926707953214645, 0.010540418326854706, -0.010820184834301472, -3.2755757274571806e-05, 0.010058186016976833, 0.013044917024672031, -0.0041106040589511395, 0.010867416858673096, 0.011960478499531746, 1.2242538105056155e-05, -0.009601615369319916, -0.011611439287662506, -0.011343556456267834, 0.011938280425965786, -0.007532330695539713, 0.007241907529532909, -0.0028481045737862587, 0.0032171467319130898, -0.010032695718109608, 0.002946843160316348, 0.011802571825683117, -0.009858399629592896, -0.012548918835818768, 0.011476359330117702, -0.011264931410551071, 0.011427647434175014, 0.012370930053293705, -0.00261380011215806, -0.009444504044950008, 0.011187233962118626, -0.011888882145285606], [0.008320214226841927, -0.009590881876647472, 0.0134493513032794, -0.008954758755862713, 0.002870098687708378, 0.011013508774340153, 0.0075861611403524876, 0.010144831612706184, 0.009620293974876404, -0.008399922400712967, -0.00977715291082859, -0.007227329071611166, 0.00940739456564188, 0.006312722805887461, 0.0034735866356641054, 0.0026554055511951447, 0.008142916485667229, -0.00555187975987792, 0.009049370884895325, -0.0037138524930924177, 0.007537328638136387, -0.008876519277691841, -0.010710534639656544, 0.0002188296930398792, 0.0021932320669293404, -0.002681433456018567, 0.011816566810011864, -0.010168172419071198, 0.010688837617635727, -0.01111852191388607, 0.0074498699977993965, -0.0012729964219033718, 0.007087215315550566, -0.008710025809705257, 0.006870467681437731, 0.0026601837016642094, 0.00929069984704256, 0.0030190323013812304, 0.0027263748925179243, -0.009050948545336723, 0.00974567886441946, 0.009022481739521027, -0.010601605288684368, -0.002942584455013275, 0.009312095120549202, -0.009685114026069641, -0.0032535616774111986, -0.006350868381559849, 0.006788558792322874, 0.009752596728503704, 0.009115651249885559, -0.009215124882757664, 0.010255212895572186, -0.009407932870090008, 0.00857293140143156, 0.011481395922601223, 0.012812444940209389, 0.008924718014895916, 0.009857562370598316, -0.003418219042941928, -0.0037362428847700357, -0.0022347827907651663, 0.010090392082929611, -0.003144521964713931, 0.004023102577775717, -0.004956545773893595, 0.011923433281481266, -1.0219952855550218e-05, 0.012096390128135681, -0.011483170092105865, 0.010567779652774334, -0.009510744363069534, -0.013711962848901749, -0.00725178699940443, 0.012367685325443745, -0.010350625962018967, 0.009195161983370781, 0.012094232253730297, -0.009581935591995716, -0.011358924210071564, 0.003939198795706034, -0.010136343538761139, 0.010165850631892681, 0.009023083373904228, 0.009449873119592667, -0.00832144170999527, 0.009447869844734669, -0.009982164017856121, -0.010960884392261505, -0.008778833784162998, 0.004085659980773926, -0.00937688909471035, -0.0023226418998092413, -0.011660526506602764, -0.011414220556616783, -0.010299501940608025, 0.005304852966219187, -0.00977199524641037, 0.010757127776741982, -0.008747688494622707, 1.7481193935964257e-05, 0.005186066962778568, 0.011668495833873749, -0.008446730673313141, 0.004873262252658606, 0.00020667476928792894, 1.3648945014210767e-06, -0.009854472242295742, -0.004272494465112686, -0.00947683397680521, 0.01053327601402998, -0.011463291011750698, 0.010786616243422031, -0.010471793822944164, 0.01296395342797041, -0.0019764131866395473, 0.0036576606798917055, 0.0024463911540806293, -0.0040117609314620495, -0.009872885420918465, 0.008970092982053757, -0.008779379539191723, 0.0024032669607549906, 0.011500636115670204, -0.008549671620130539, -0.009798877872526646, 0.0022303543519228697, -0.003878816496580839], [0.007773247081786394, -0.02080133557319641, 0.005552823189646006, -0.0179135762155056, 0.0037665022537112236, 0.0027153657283633947, 0.019011925905942917, 0.02119058556854725, 0.019661923870444298, -0.016285700723528862, -0.007134063635021448, -0.021010061725974083, 0.015299714170396328, 0.004218084737658501, 0.006750696338713169, 0.015453766100108624, 0.0055159032344818115, -0.014578558504581451, 0.017963923513889313, -0.0031225518323481083, 0.024328459054231644, -0.01670232228934765, -0.006429922301322222, 0.00022269034525379539, 0.014601191505789757, -0.016938282176852226, 0.004763366654515266, -0.014300013892352581, 0.002895406447350979, -0.01406686007976532, 0.02086547575891018, -0.00024055373796727508, 0.020767830312252045, -0.009898457676172256, 0.016211476176977158, 0.00892072357237339, 0.018006542697548866, 0.0029597936663776636, 0.016052644699811935, -0.018817802891135216, 0.002503702649846673, 0.01987363211810589, -0.01596572808921337, -0.0027838924434036016, 0.015729296952486038, -0.01795070990920067, -0.0026089888997375965, -0.01561969704926014, 0.01836487278342247, 0.002878888277336955, 0.008912480436265469, -0.017308589071035385, 0.006441912613809109, -0.0027997286524623632, 0.01555641833692789, 0.01592489518225193, 0.008156303316354752, 0.019330738112330437, 0.018928106874227524, -0.029657939448952675, -0.0048572043888270855, -0.020092755556106567, 0.016342395916581154, -0.012223741039633751, 0.018868112936615944, -0.00229648151434958, 0.015388648957014084, 4.618888397089904e-06, 0.011092491447925568, -0.007052640430629253, 0.003317953320220113, -0.02286619320511818, -0.007746540475636721, -0.017542866989970207, 0.017565473914146423, -0.0024959282018244267, 0.01722542941570282, 0.00721039017662406, -0.021099407225847244, -0.010879185050725937, 0.015140875242650509, -0.01756797358393669, 0.016275089234113693, 0.009470175951719284, 0.019561853259801865, -0.010170233435928822, 0.015319415368139744, -0.00339916511438787, -0.014886794611811638, -0.01859942637383938, 0.017964821308851242, -0.002315649762749672, -0.01865258440375328, -0.0031151825096458197, -0.005540068261325359, -0.01655956543982029, 0.013575151562690735, -0.007772107142955065, 0.002872815355658531, -0.0176424290984869, -3.6574547266354784e-05, 0.000882960797753185, 0.0069042653776705265, -0.018209073692560196, 0.01137634739279747, 0.0009327020961791277, 5.406167929322692e-06, -0.009235518984496593, -0.009453942067921162, -0.014306539669632912, 0.01668540947139263, -0.013278241269290447, 0.004756959620863199, -0.013399478048086166, 0.004899234045296907, -0.015578743070363998, 0.01721821539103985, 0.018481696024537086, -0.007585884537547827, -0.0048154182732105255, 0.002662008861079812, -0.01843877322971821, 0.017325477674603462, 0.0059349569492042065, -0.014694400131702423, -0.017703557386994362, 0.002332668285816908, -0.0023020817898213863], [-0.008088328875601292, 0.018534133210778236, -0.00828943308442831, 0.00849942397326231, -0.0035837709438055754, -0.0028337256517261267, -0.015695083886384964, -0.002580460160970688, -0.015630872920155525, 0.0021619254257529974, 0.006445214152336121, 0.011890518479049206, -0.002653983887284994, -0.014031973667442799, -0.0031680739484727383, -0.002025810768827796, -0.002381708240136504, 0.014684806577861309, -0.01475351769477129, 0.005335142835974693, -0.0025653501506894827, 0.012227917090058327, 0.006190649699419737, -0.00022257577802520245, -0.015012088231742382, 0.011458253487944603, -0.010028885677456856, 0.012036909349262714, -0.013239637948572636, 0.00960354320704937, -0.002224863274022937, 0.0005872055771760643, -0.016322102397680283, 0.010218790732324123, -0.017251305282115936, -0.009285103529691696, -0.017780156806111336, -0.013778979890048504, -0.003159045707434416, 0.003182962303981185, -0.01822025142610073, -0.0024561858735978603, 0.017663292586803436, 0.0031822742894291878, -0.014798099175095558, 0.015624073334038258, 0.013911062851548195, 0.002392783295363188, -0.01712590456008911, -0.013852369040250778, -0.00805534515529871, 0.013088115490972996, -0.006401637103408575, 0.002487882738932967, -0.0027532055974006653, -0.0027681668289005756, -0.014066141098737717, -0.0026549878530204296, -0.014896244741976261, 0.0004362383624538779, 0.0006170474225655198, 0.016312455758452415, -0.0026173111982643604, 0.012311154045164585, -0.01588914915919304, 0.0021863426081836224, -0.01488408911973238, 1.128436724684434e-05, -0.011896864511072636, 0.00903270673006773, -0.014882986433804035, 0.016022786498069763, 0.012148269452154636, 0.010760356672108173, -0.013450219295918941, 0.0024508447386324406, -0.002862656954675913, -0.012662278488278389, 0.01641313172876835, 0.013483257964253426, -0.013005105778574944, 0.002417328767478466, -0.014125527814030647, -0.009834173135459423, -0.0023155182134360075, 0.009607521817088127, -0.016643255949020386, 0.013265512883663177, 0.017668500542640686, 0.019338397309184074, -0.002651253016665578, 0.0025572464801371098, 0.0024799578823149204, 0.013138094916939735, 0.004621978849172592, 0.0075936224311590195, -0.0023046648129820824, 0.010453692637383938, -0.013686221092939377, 0.003200005041435361, 0.0001910567661980167, -0.007139943074434996, -0.012829101644456387, 0.0027075058314949274, -0.010402880609035492, -0.00024300525547005236, -6.142223355709575e-06, 0.008571209385991096, 0.01015231478959322, 0.014217842370271683, -0.013350846245884895, 0.00943267997354269, -0.00939369946718216, 0.0029403918888419867, -0.0126081807538867, 0.018305525183677673, -0.003111964324489236, -0.014972220174968243, 0.00641566002741456, 0.00364176114089787, -0.003121810033917427, 0.003362115006893873, -0.015583708882331848, -0.01064397394657135, 0.013689279556274414, 0.015882695093750954, -0.01805832050740719, 0.013469272293150425], [0.011589568108320236, -0.024282436817884445, 0.009972145780920982, -0.01018258836120367, 0.002822280628606677, 0.013495750725269318, 0.0024157671723514795, 0.024191491305828094, 0.017644843086600304, -0.01518041267991066, -0.00420249393209815, -0.002569715492427349, 0.002516011940315366, 0.014301192946732044, 0.01563749462366104, 0.015170981176197529, 0.0022324207238852978, -0.0024476260878145695, 0.015684420242905617, -0.003803981002420187, 0.002993184607475996, -0.0024690404534339905, -0.007864735089242458, 0.00020251779642421752, 0.014861767180263996, -0.003447744296863675, 0.005363975185900927, -0.017398515716195107, 0.01499006524682045, -0.005205884110182524, 0.016006089746952057, -0.0002593906538095325, 0.018665751442313194, -0.0067830272018909454, 0.022252047434449196, 0.010117750614881516, 0.0032585959415882826, 0.002874697558581829, 0.0026332922279834747, -0.003090220969170332, 0.020070217549800873, 0.016851143911480904, -0.020457888022065163, -0.019749674946069717, 0.015044498257339, -0.002756836824119091, -0.0032575083896517754, -0.002393960952758789, 0.020850900560617447, 0.014654417522251606, 0.008815840817987919, -0.014580948278307915, 0.007434317842125893, -0.017941990867257118, 0.0036889349576085806, 0.01636677049100399, 0.012292508035898209, 0.015609321184456348, 0.018017448484897614, -0.003344570752233267, -0.004660661332309246, -0.018457410857081413, 0.01482001505792141, -0.013448861427605152, 0.0020980038680136204, -0.0028097883332520723, 0.015136045403778553, -8.736799827602226e-06, 0.004707686603069305, -0.005839119199663401, 0.01423471886664629, -0.0027403603307902813, -0.011373313143849373, -0.0027684252709150314, 0.013763041235506535, -0.014838098548352718, 0.01709933578968048, 0.003400852670893073, -0.018744153901934624, -0.012353342957794666, 0.003991117235273123, -0.003032040549442172, 0.014867503196001053, 0.010327696800231934, 0.003275020746514201, -0.016071267426013947, 0.0025208827573806047, -0.01347018126398325, -0.002477825852110982, -0.003397965105250478, 0.004684182815253735, -0.016600951552391052, -0.015131049789488316, -0.013639169745147228, -0.012208220548927784, -0.0027892286889255047, 0.002582717454060912, -0.009234274737536907, 0.014144998043775558, -0.00792012270539999, -0.00021640054183080792, 0.009393610991537571, 0.012997504323720932, -0.01705513708293438, 0.004442797973752022, 0.011700494214892387, 5.000566670787521e-05, -0.009413567371666431, -0.012408609502017498, -0.013048799708485603, 0.004548316355794668, -0.004524602089077234, 0.009925700724124908, -0.015432926826179028, 0.013180362991988659, -0.025304704904556274, 0.005531691946089268, 0.0023964326828718185, -0.006737823132425547, -0.005788156297057867, 0.019512634724378586, -0.0174581129103899, 0.002462679985910654, 0.011816253885626793, -0.013231387361884117, -0.016807513311505318, 0.020107677206397057, -0.0020782409701496363], [-0.012022585608065128, 0.0032536645885556936, -0.004155818838626146, 0.011131835170090199, -0.0033088629133999348, -0.011000335216522217, -0.0025250683538615704, -0.010597167536616325, -0.006635542027652264, 0.010369479656219482, 0.008136491291224957, 0.0025306011084467173, -0.011507482267916203, -0.011004590429365635, -0.011239282786846161, -0.011280471459031105, -0.009684315882623196, 0.005593439098447561, -0.002554078120738268, 0.009375584311783314, -0.009587341919541359, 0.0067111775279045105, 0.006495892535895109, -0.0001796921860659495, -0.009890803135931492, 0.009463600814342499, -0.008785441517829895, 0.011142391711473465, -0.011026435531675816, 0.010484644211828709, -0.00825923029333353, 0.0009383417200297117, -0.0023181261494755745, 0.009900150820612907, -0.009428971447050571, -0.0026669816579669714, -0.009868944063782692, -0.008344226516783237, -0.0026880602817982435, 0.009338985197246075, -0.00986994244158268, -0.002296975115314126, 0.011990057304501534, 0.011785384267568588, -0.011862190440297127, 0.01077241450548172, 0.01172109879553318, 0.0022739495616406202, -0.0024618839379400015, -0.010210379026830196, -0.0032613060902804136, 0.009607700631022453, -0.006245976313948631, 0.002579949563369155, -0.010505277663469315, -0.011826767586171627, -0.004062694031745195, -0.010094883851706982, -0.009583360515534878, 0.0004886837559752166, 0.010311215184628963, 0.007918033748865128, -0.008807579055428505, 0.010577468201518059, -0.009819542989134789, 0.007539699785411358, -0.010435646399855614, 8.869829798641149e-06, -0.009238498285412788, 0.010718717239797115, -0.01112720463424921, 0.0026993188075721264, 0.013648582622408867, 0.008704854175448418, -0.003076828084886074, 0.009900861419737339, -0.010699694976210594, -0.011415636166930199, 0.008665693923830986, 0.011194484308362007, -0.011351264081895351, 0.011103103868663311, -0.0028350278735160828, -0.008296028710901737, -0.0030667094979435205, 0.00925644114613533, -0.011496733874082565, 0.008869463577866554, 0.00958644226193428, 0.0025789011269807816, -0.00939446222037077, 0.009819540195167065, 0.008562449365854263, 0.011026343330740929, 0.005675465799868107, 0.01174273993819952, -0.000823725713416934, 0.007429105695337057, -0.0027039283886551857, 0.0030477812979370356, 3.8154757930897176e-05, -0.00020705853239633143, -0.002956220880150795, 0.00892802607268095, -0.007373875007033348, -0.011770077049732208, -2.7100461011286825e-05, 0.006406893488019705, 0.01075443159788847, 0.002665130654349923, -0.010141495615243912, 0.005052181892096996, -0.010474893264472485, 0.0027609237004071474, -0.012270418927073479, 0.0018730859737843275, -0.010466626845300198, -0.01082990225404501, 0.010084201581776142, 0.0027274396270513535, -0.0025766552425920963, 0.012207099236547947, -0.005314761307090521, -0.010848567821085453, 0.00995588954538107, 0.002325215609744191, -0.010638591833412647, 0.009031569585204124], [0.00814743060618639, -0.0023635493125766516, 0.004282282665371895, -0.00015870382776483893, 0.009210508316755295, 0.01094880048185587, 0.0070695336908102036, 0.008539518341422081, 0.0039266301319003105, -0.008287443779408932, -0.011080143041908741, -0.003724583424627781, 0.0026786995586007833, 0.00881341565400362, 0.011219829320907593, 0.003339706687256694, 0.007647940423339605, -0.010018187575042248, 0.005108484998345375, -0.002888347953557968, 0.009569275192916393, -0.007628803141415119, -0.00790922436863184, 0.00034876063000410795, 0.010741367936134338, -0.009020267054438591, 0.0062201060354709625, -0.0087288161739707, 0.010161125101149082, -0.008614582009613514, 0.008535296656191349, -0.0007147739524953067, 0.009000536054372787, -0.006846529897302389, 0.00778151722624898, 0.010764539241790771, 0.007500556297600269, 0.009303511120378971, 0.011093921959400177, -0.01033144723623991, 0.007402719464153051, 0.002297205850481987, -0.008162109181284904, -0.003556512063369155, 0.011119488626718521, -0.008655309677124023, -0.002829866949468851, -0.009449411183595657, 0.007768049370497465, 0.007883738726377487, 0.00910781417042017, -0.002823206828907132, 0.009614489041268826, -0.010097845457494259, 0.002523199189454317, 0.005830885376781225, 0.0105134267359972, 0.008625419810414314, 0.009292513132095337, -0.0004976883064955473, -0.009664472192525864, -0.00786676350980997, 0.0073918807320296764, -0.011046784929931164, 0.00781595055013895, -0.007376053836196661, 0.002990755718201399, 4.239652753312839e-06, 0.011083917692303658, -0.0055128117091953754, 0.008556168526411057, -0.0029302765615284443, -0.007770489901304245, -0.009965389035642147, 0.01195403840392828, -0.009777253493666649, 0.008197800256311893, 0.009413073770701885, -0.0024665696546435356, -0.010637296363711357, 0.008928432129323483, -0.008075403980910778, 0.003592761466279626, 0.010196570307016373, 0.009632619097828865, -0.006327257491648197, 0.008240336552262306, -0.010086113587021828, -0.010618074797093868, -0.00993790477514267, 0.007885721512138844, -0.002510353922843933, -0.002310947747901082, -0.009698482230305672, -0.010272635146975517, -0.00304821296595037, 0.007350313477218151, -0.011720219627022743, 0.010088611394166946, -0.010091307573020458, -0.0001857950701378286, 0.005001263692975044, 0.004130179062485695, -0.009915528818964958, 0.007332618813961744, 0.0009496370330452919, 6.071154075470986e-06, -0.010487241670489311, -0.011914263479411602, -0.00913630798459053, 0.011324090883135796, -0.010079058818519115, 0.009288390167057514, -0.010093700140714645, 0.012186050415039062, -0.007082890719175339, 0.008841094560921192, 0.010024386458098888, -0.00651813019067049, -0.00923941656947136, 0.010638946667313576, -0.009223956614732742, 0.00780300609767437, 0.012507540173828602, -0.007589470595121384, -0.009458571672439575, 0.009789543226361275, -0.0094722555950284], [0.008065800182521343, -0.002479997929185629, 0.010629617609083652, -0.009098365902900696, 0.009159041568636894, 0.009705754928290844, 0.008775687776505947, 0.010812916792929173, 0.010799804702401161, -0.011159923858940601, -0.009228266775608063, -0.01126269530504942, 0.012116840109229088, 0.010907038114964962, 0.004287068732082844, 0.0028819420840591192, 0.009131775237619877, -0.008466728031635284, 0.010667976923286915, -0.0031239583622664213, 0.011677959933876991, -0.010393132455646992, -0.006516979541629553, 0.0002732579887378961, 0.008459913544356823, -0.010036798194050789, 0.01157644297927618, -0.011071711778640747, 0.003354499116539955, -0.010912341065704823, 0.009122147224843502, -0.00013214669888839126, 0.010658069513738155, -0.007151094730943441, 0.009943539276719093, 0.012465409003198147, 0.010514706373214722, 0.002917710691690445, 0.0030387809965759516, -0.01011725328862667, 0.009699728339910507, 0.010663249529898167, -0.002319328486919403, -0.010675092227756977, 0.009750527329742908, -0.0032264753244817257, -0.011886682361364365, -0.009962506592273712, 0.009364386089146137, 0.009079113602638245, 0.00862190406769514, -0.00967627763748169, 0.007438702043145895, -0.009471023455262184, 0.00928005576133728, 0.008586554788053036, 0.012259384617209435, 0.010174809955060482, 0.00901830568909645, -0.0005851290188729763, -0.015723129734396935, -0.002456073649227619, 0.0111379474401474, -0.011037618853151798, 0.010892845690250397, -0.00947456806898117, 0.010543071664869785, -1.0097792824126373e-07, 0.01046842522919178, -0.009583753533661366, 0.011001805774867535, -0.011644781567156315, -0.007047866936773062, -0.010954921133816242, 0.003349167527630925, -0.011654232628643513, 0.009650979191064835, 0.010853989981114864, -0.008836484514176846, -0.01044143084436655, 0.009204329922795296, -0.010392094030976295, 0.0094157624989748, 0.007700386457145214, 0.009216620586812496, -0.008988047018647194, 0.010214095003902912, -0.012315435335040092, -0.0026647557970136404, -0.00251166638918221, 0.004321255721151829, -0.010948508977890015, -0.008986473083496094, -0.010248142294585705, -0.010445792227983475, -0.01158758532255888, 0.002165358979254961, -0.009341426193714142, 0.00349858938716352, -0.008631502278149128, -5.097371285955887e-06, 0.0034756443928927183, 0.012755945324897766, -0.009207741357386112, 0.010380248539149761, 0.00016273414075840265, 0.00010264196316711605, -0.009179714135825634, -0.0046242582611739635, -0.009830073453485966, 0.012143533676862717, -0.011303041130304337, 0.010632171295583248, -0.0029868725687265396, 0.01179844792932272, -0.009364618919789791, 0.002879324834793806, 0.010717893950641155, -0.007445735856890678, -0.011656912043690681, 0.009745090268552303, -0.0026735488791018724, 0.010282562114298344, 0.010152711533010006, -0.009055831469595432, -0.009793509729206562, 0.01179412566125393, -0.003872159868478775], [0.01132903341203928, -0.00915646180510521, 0.007346127647906542, -0.00164804479572922, 0.009669278748333454, 0.002731634071096778, 0.008730352856218815, 0.010877658613026142, 0.008117398247122765, -0.004302165005356073, -0.013254781253635883, -0.008692343719303608, 0.0024163799826055765, 0.00760740227997303, 0.010077457875013351, 0.009995046071708202, 0.009652746841311455, -0.010277331806719303, 0.009767776355147362, -0.011053456924855709, 0.0026806173846125603, -0.009219064377248287, -0.00725151551887393, 0.0002716749149840325, 0.010396438650786877, -0.003821439342573285, 0.010499384254217148, -0.009620369412004948, 0.010182131081819534, -0.008561547845602036, 0.0019656778313219547, -0.0003495389246381819, 0.0024130623787641525, -0.007429543882608414, 0.009611929766833782, 0.013105600140988827, 0.01073674950748682, 0.007101526018232107, 0.011129474267363548, -0.0037823705933988094, 0.008768654428422451, 0.002179001923650503, -0.0094539700075984, -0.008831092156469822, 0.010634271427989006, -0.00264707556925714, -0.002823102753609419, -0.01000103261321783, 0.010229338891804218, 0.00258885370567441, 0.008845478296279907, -0.00791637971997261, 0.007880385033786297, -0.00234772264957428, 0.010949542745947838, 0.01040913537144661, 0.011997397989034653, 0.0025460263714194298, 0.009387732483446598, -0.0005840248195454478, -0.009859809651970863, -0.0021938947029411793, 0.009782961569726467, -0.012337857857346535, 0.010019070468842983, -0.0023145817685872316, 0.00993379671126604, -3.0025212254258804e-05, 0.009980914182960987, -0.008044591173529625, 0.009810383431613445, -0.009016774594783783, -0.009861304424703121, -0.008879235945641994, 0.010213609784841537, -0.013103385455906391, 0.0027277616318315268, 0.010951105505228043, -0.00878832396119833, -0.009442956186830997, 0.01114807091653347, -0.0029349648393690586, 0.010655410587787628, 0.011284480802714825, 0.009969749487936497, -0.00997417513281107, 0.01154036819934845, -0.011414471082389355, -0.011494019068777561, -0.010330913588404655, 0.0109081557020545, -0.0025713355280458927, -0.007457406725734472, -0.005043262615799904, -0.012500599958002567, -0.011509886011481285, 0.0011416441993787885, -0.010425546206533909, 0.01030606497079134, -0.011346988379955292, 1.4626472875534091e-05, 0.002001117682084441, 0.010828112252056599, -0.005604024510830641, 0.006610663142055273, 0.00017043028492480516, 3.616653339122422e-05, -0.009882325306534767, -0.011621613055467606, -0.0026419912464916706, 0.00921711791306734, -0.009285546839237213, 0.011528697796165943, -0.008100831881165504, 0.006824555341154337, -0.001925250282511115, 0.01005224883556366, 0.009428772144019604, -0.01317919697612524, -0.00598505511879921, 0.009394068270921707, -0.0027694839518517256, 0.010083487257361412, 0.012039028108119965, -0.009672517888247967, -0.0029147148597985506, 0.010591644793748856, -0.010158530436456203], [0.006828199606388807, -0.010129312984645367, 0.008440264500677586, -0.009017985314130783, 0.002789099467918277, 0.00410503102466464, 0.009524614550173283, 0.003101801499724388, 0.0018529942026361823, -0.008801047690212727, -0.0072626215405762196, -0.010210626758635044, 0.01026189886033535, 0.0032767588272690773, 0.010262670926749706, 0.010202211327850819, 0.009132502600550652, -0.0025454543065279722, 0.008725516498088837, -0.010457131080329418, 0.009982524439692497, -0.007771131116896868, -0.006813344080001116, 0.00025372541858814657, 0.008497864939272404, -0.007158572785556316, 0.011110132560133934, -0.011316065676510334, 0.012110634706914425, -0.012210577726364136, 0.007706540636718273, -0.00029940862441435456, 0.0024169054813683033, -0.006997522432357073, 0.0031496842857450247, 0.012586847878992558, 0.009394262917339802, 0.0035272978711873293, 0.011431151069700718, -0.009804905392229557, 0.009154096245765686, 0.010308505035936832, -0.01191297173500061, -0.002345796674489975, 0.004489821381866932, -0.011049795895814896, -0.0028924450743943453, -0.009389551356434822, 0.0023364368826150894, 0.004446079954504967, 0.008143940009176731, -0.004098272882401943, 0.007343679666519165, -0.0029307848308235407, 0.009856510907411575, 0.0026356419548392296, 0.01120824459940195, 0.010344455949962139, 0.008775949478149414, -0.0004921550862491131, -0.004864565096795559, -0.00918988510966301, 0.011067811399698257, -0.003009392414242029, 0.010885132476687431, -0.00831958744674921, 0.01113904733210802, 1.378698925691424e-05, 0.0043859523721039295, -0.010110762901604176, 0.0033339301589876413, -0.00988808274269104, -0.010175498202443123, -0.009431875310838223, 0.0033604709897190332, -0.01223243959248066, 0.009825757704675198, 0.012952327728271484, -0.009210841730237007, -0.012186943553388119, 0.009458421729505062, -0.009487575851380825, 0.0026811142452061176, 0.012014712207019329, 0.010051524266600609, -0.0021637505851686, 0.0034917802549898624, -0.011564464308321476, -0.0025906728114932775, -0.010260427370667458, 0.002526157535612583, -0.011231343261897564, -0.0076233698055148125, -0.010435163043439388, -0.011602429673075676, -0.002524224342778325, 0.0018171893898397684, -0.0074156527407467365, 0.010733162984251976, -0.004414169117808342, -4.345388151705265e-05, 0.005181634332984686, 0.01165351364761591, -0.009009388275444508, 0.010014691390097141, 0.0001869792176876217, 2.8612381356651895e-05, -0.009446471929550171, -0.01031065545976162, -0.009430836886167526, 0.01067460235208273, -0.012337570078670979, 0.012197604402899742, -0.002778837690129876, 0.012230942957103252, -0.008677707985043526, 0.0029679550789296627, 0.008533584885299206, -0.00994080863893032, -0.011331072077155113, 0.010817816480994225, -0.00973990373313427, 0.010643196292221546, 0.009524527005851269, -0.010011659003794193, -0.010535797104239464, 0.010394614189863205, -0.006074190605431795], [-0.008109144866466522, 0.025048471987247467, -0.009838826954364777, 0.008067682385444641, -0.013543128967285156, -0.002651096321642399, -0.00260004960000515, -0.0025882699992507696, -0.01819416880607605, 0.0021215283777564764, 0.011937807314097881, 0.0038552796468138695, -0.0027563595212996006, -0.012715734541416168, -0.014540229924023151, -0.00866310391575098, -0.0022466646041721106, 0.010695761069655418, -0.0027083761524409056, 0.01477863360196352, -0.020843079313635826, 0.014168939553201199, 0.011699516326189041, -0.0003633936576079577, -0.012732761912047863, 0.01357767079025507, -0.008625572547316551, 0.01493543665856123, -0.013004341162741184, 0.009576970711350441, -0.0021339859813451767, 0.00017859444778878242, -0.016298478469252586, 0.010139777325093746, -0.020146938040852547, -0.009304487146437168, -0.0024173555430024862, -0.013790496625006199, -0.012405884452164173, 0.0029306141659617424, -0.020195676013827324, -0.016298720613121986, 0.016034139320254326, 0.002462010132148862, -0.013933287933468819, 0.002649161498993635, 0.013259737752377987, 0.0037728934548795223, -0.002653850009664893, -0.015013848431408405, -0.0015752671752125025, 0.003910169471055269, -0.010240406729280949, 0.017000088468194008, -0.01779109425842762, -0.016258662566542625, -0.009348012506961823, -0.013615918345749378, -0.015998560935258865, 0.0006901661981828511, 0.012518289498984814, 0.01721736043691635, -0.0025214911438524723, 0.0029089355375617743, -0.017575982958078384, 0.014287077821791172, -0.002884678542613983, 3.236867269151844e-05, -0.009368076920509338, 0.009534182026982307, -0.014087816700339317, 0.01625880040228367, 0.0118624959141016, 0.0025947210378944874, -0.0034604689572006464, 0.016459301114082336, -0.004069289658218622, -0.012229441665112972, 0.019574152305722237, 0.011335635557770729, -0.011415987275540829, 0.013460383750498295, -0.0027639102190732956, -0.008126718923449516, -0.024396199733018875, 0.015339570119976997, -0.018341373652219772, 0.002989931497722864, 0.002391344867646694, 0.02374199591577053, -0.002591080265119672, 0.017908835783600807, 0.014955636113882065, 0.002337841084226966, 0.006881879176944494, 0.0026223487220704556, -0.0011587621411308646, 0.00826579611748457, -0.014234079979360104, 0.0030727286357432604, 5.6673356993997e-06, -0.00024128364748321474, -0.01243807002902031, 0.011037742719054222, -0.007541918195784092, -0.0002097085234709084, -1.0751698027888779e-05, 0.00798396673053503, 0.011967649683356285, 0.012780423276126385, -0.013203077018260956, 0.006420268211513758, -0.009633888490498066, 0.002852401928976178, -0.003138779429718852, 0.009592697955667973, -0.008166817016899586, -0.017278796061873436, 0.0075385295785963535, 0.017207933589816093, -0.0168045312166214, 0.01575537584722042, -0.01837262511253357, -0.008370490744709969, 0.014114071615040302, 0.016504507511854172, -0.0024632085114717484, 0.014192943461239338], [0.007972638122737408, -0.005522045306861401, 0.0029244166798889637, -0.008355013094842434, 0.005930960178375244, 0.0024715338367968798, 0.007126856129616499, 0.005400275345891714, 0.004572020377963781, -0.001716345315799117, -0.0104115791618824, -0.006083161570131779, 0.00606143893674016, 0.00931337010115385, 0.0027335414197295904, 0.006151668727397919, 0.0020540670957416296, -0.00733970245346427, 0.003076982917264104, -0.008565585128962994, 0.006537287030369043, -0.0032952127512544394, -0.008689739741384983, 0.00018660778005141765, 0.007508516777306795, -0.008822215721011162, 0.003934253007173538, -0.010158372111618519, 0.0025558939669281244, -0.009521842934191227, 0.006390327587723732, -0.00011714154970832169, 0.0023873276077210903, -0.01175422128289938, 0.00716481264680624, 0.009455246850848198, 0.005445555783808231, 0.0029374826699495316, 0.006905189249664545, -0.007681774906814098, 0.005924996919929981, 0.0022771230433136225, -0.006312649697065353, -0.006187134422361851, 0.0060607935301959515, -0.006142043974250555, -0.002489818027243018, -0.0031979128252714872, 0.0022205577697604895, 0.0027212693821638823, 0.009648224338889122, -0.005774127319455147, 0.0065209027379751205, -0.007557419594377279, 0.005296819843351841, 0.006489528808742762, 0.00920081790536642, 0.0065603600814938545, 0.004177979193627834, -0.0004764512414112687, -0.011019629426300526, -0.00723598338663578, 0.0060441442765295506, -0.010706203058362007, 0.0018117844592779875, -0.004568847827613354, 0.008038727566599846, -1.1112523168321786e-07, 0.012757374905049801, -0.01152943354099989, 0.003771574469283223, -0.006490463390946388, -0.008369357325136662, -0.007733391597867012, 0.004447538871318102, -0.008344216272234917, 0.006192919798195362, 0.01081838272511959, -0.0022886961232870817, -0.003222724888473749, 0.0062261237762868404, -0.00272361165843904, 0.0036810196470469236, 0.007536870893090963, 0.003647102043032646, -0.0025445851497352123, 0.006078625563532114, -0.010579143650829792, -0.005487122572958469, -0.005683734081685543, 0.007538981270045042, -0.006607264745980501, -0.006646033376455307, -0.008012352511286736, -0.01130461972206831, -0.00734490854665637, 0.0014677131548523903, -0.008208626881241798, 0.006622047629207373, -0.00909911934286356, -0.0001140749009209685, 0.005140680819749832, 0.009765414521098137, -0.005693134851753712, 0.004469348583370447, 0.00021404997096396983, 3.723604550032178e-06, -0.009068441577255726, -0.007722194772213697, -0.0022967669647186995, 0.008790161460638046, -0.010041083209216595, 0.00669354060664773, -0.00806448794901371, 0.011543036438524723, -0.005600188858807087, 0.009010189212858677, 0.007127854973077774, -0.008820421993732452, -0.004175689071416855, 0.0022110810969024897, -0.007499825209379196, 0.006605432368814945, 0.013096665032207966, -0.004581707529723644, -0.004386991262435913, 0.006122694816440344, -0.0020669938530772924], [-0.00938725471496582, 0.011714284308254719, -0.010666564106941223, 0.008131642825901508, -0.011483993381261826, -0.008881213143467903, -0.010518438182771206, -0.01076600980013609, -0.011141959577798843, 0.010728779248893261, 0.007393253967165947, 0.002736935392022133, -0.00875941663980484, -0.011880043894052505, -0.011339079588651657, -0.0028291509952396154, -0.011720271781086922, 0.009756126441061497, -0.012475612573325634, 0.005210478790104389, -0.0025834497064352036, 0.010314037092030048, 0.007616402115672827, -0.00020084458810742944, -0.009554468095302582, 0.012308604083955288, -0.009942219592630863, 0.013110327534377575, -0.013568640686571598, 0.012706040404736996, -0.00619063526391983, 0.0005965539021417499, -0.012459967285394669, 0.00938049890100956, -0.0025666942819952965, -0.013255920261144638, -0.0024371647741645575, -0.0029729180969297886, -0.011213047429919243, 0.008332887664437294, -0.011252056807279587, -0.012159123085439205, 0.0025514804292470217, 0.012071273289620876, -0.012360935099422932, 0.013010252267122269, 0.01270648930221796, 0.007641476113349199, -0.012357670813798904, -0.009459175169467926, -0.01029067300260067, 0.0031299139373004436, -0.0050008962862193584, 0.012311268597841263, -0.011461598798632622, -0.002866605995222926, -0.013731899671256542, -0.012102722190320492, -0.0030571529641747475, 0.0008759914198890328, 0.01086761150509119, 0.010383769869804382, -0.012722939252853394, 0.011725650168955326, -0.011894362047314644, 0.002203727373853326, -0.01329273171722889, 2.0538374883471988e-05, -0.012432604096829891, 0.009604183956980705, -0.002796406392008066, 0.009339320473372936, 0.010632854886353016, 0.011120921932160854, -0.011785675771534443, 0.0024896888062357903, -0.01237475499510765, -0.013247912749648094, 0.01075010560452938, 0.011982986703515053, -0.011301938444375992, 0.011199587024748325, -0.010878550820052624, -0.00899475160986185, -0.0023910936433821917, 0.012238264083862305, -0.0024985400959849358, 0.005787536967545748, 0.011045611463487148, 0.005181117448955774, -0.009028935804963112, 0.01204783283174038, 0.010714971460402012, 0.008200390264391899, 0.010696610435843468, 0.0025291419588029385, -0.0023320047184824944, 0.006873491685837507, -0.01138875912874937, 0.010066849179565907, 2.633376425364986e-05, -0.005113727878779173, -0.010824251919984818, 0.010722373612225056, -0.009842694737017155, -0.00015336323122028261, -1.4707582522532903e-05, 0.009201214648783207, 0.010827325284481049, 0.011187812313437462, -0.011037923395633698, 0.012371283955872059, -0.007244963198900223, 0.002362963277846575, -0.012253688648343086, 0.011702940799295902, -0.011087263002991676, -0.005984295625239611, 0.00910081434994936, 0.012613908387720585, -0.012195766903460026, 0.011311626993119717, -0.012033681385219097, -0.011023771949112415, 0.011341533623635769, 0.011181159876286983, -0.013184553012251854, 0.012161239981651306], [-0.006143742706626654, 0.0024489315692335367, -0.013315961696207523, 0.002374148927628994, -0.011400435119867325, -0.009639092721045017, -0.003738166531547904, -0.016271594911813736, -0.00231916643679142, 0.012649714015424252, 0.010241731069982052, 0.010051270946860313, -0.01337264571338892, -0.010842389427125454, -0.011918269097805023, -0.013063369318842888, -0.002299584448337555, 0.012306613847613335, -0.012059058994054794, 0.007943707518279552, -0.0025596930645406246, 0.0024109696969389915, 0.006408702582120895, -0.00018885826284531504, -0.0023545334115624428, 0.008418095298111439, -0.008531861007213593, 0.011016476899385452, -0.0027005868032574654, 0.0035615426022559404, -0.012142731808125973, 0.00038156050140969455, -0.013167854398488998, 0.007032547611743212, -0.013922234065830708, -0.008871902711689472, -0.014551053754985332, -0.011125821620225906, -0.013194484636187553, 0.003078723093494773, -0.013608570210635662, -0.002290748292580247, 0.01428807619959116, 0.013830672949552536, -0.012265081517398357, 0.013108743354678154, 0.013820162974298, 0.015790726989507675, -0.002552381018176675, -0.01126541942358017, -0.008507559075951576, 0.012507988139986992, -0.0107935331761837, 0.013378744013607502, -0.014404164627194405, -0.014708604663610458, -0.009821150451898575, -0.012726901099085808, -0.013918498530983925, 0.0004897881299257278, 0.011990230530500412, 0.013326532207429409, -0.011122792027890682, 0.013868090696632862, -0.013459600508213043, 0.003384958254173398, -0.002910441718995571, 4.06148137699347e-05, -0.011725610122084618, 0.0074464017525315285, -0.003544948296621442, 0.013360626995563507, 0.013630226254463196, 0.0025642942637205124, -0.01098820473998785, 0.002450196538120508, -0.003176444908604026, -0.010823351331055164, 0.005143678281456232, 0.009550639428198338, -0.0039277165196835995, 0.0031015609856694937, -0.012723750434815884, -0.007824970409274101, -0.0047536082565784454, 0.011520670726895332, -0.002625491004437208, 0.01052005123347044, 0.0035064874682575464, 0.0024423040449619293, -0.013143117539584637, 0.002519106026738882, 0.011863413266837597, 0.011112134903669357, 0.011579717509448528, 0.004303877241909504, -0.0024308529682457447, 0.009822607971727848, -0.011609592474997044, 0.0035237607080489397, 0.0001541195815661922, -0.005465570837259293, -0.00342310918495059, 0.013571709394454956, -0.008065300062298775, -0.00018062976596411318, -1.4099820191404433e-06, 0.010497573763132095, 0.010592982172966003, 0.011754335835576057, -0.005973678082227707, 0.009777459315955639, -0.009465730749070644, 0.0047232466749846935, -0.010860659182071686, 0.00408422714099288, -0.005001380108296871, -0.014013859443366528, 0.009918862022459507, 0.016041113063693047, -0.015388359315693378, 0.0044320691376924515, -0.01323666051030159, -0.008410659618675709, 0.011537475511431694, 0.002958602737635374, -0.002269703894853592, 0.012621606700122356], [0.011414795182645321, -0.010543826967477798, 0.011416509747505188, -0.00748914759606123, 0.004729968495666981, 0.012402232736349106, 0.009409154765307903, 0.003446396440267563, 0.009431763552129269, -0.009864097461104393, -0.009605778381228447, -0.008924076333642006, 0.011642703786492348, 0.008680752478539944, 0.009558378718793392, 0.002501503564417362, 0.00852894689887762, -0.011310262605547905, 0.009631955996155739, -0.011878724209964275, 0.009528488852083683, -0.0026146331802010536, -0.006204809993505478, 0.00020422412490006536, 0.011001740582287312, -0.004010736010968685, 0.010394806042313576, -0.010632757097482681, 0.010481144301593304, -0.012476135976612568, 0.010196993127465248, -0.0001212984134326689, 0.00897978711873293, -0.006783302407711744, 0.00324602285400033, 0.013224947266280651, 0.00975553784519434, 0.010647952556610107, 0.011560008861124516, -0.0033027033787220716, 0.010102175176143646, 0.009698297828435898, -0.011380321346223354, -0.010518841445446014, 0.011662828736007214, -0.012176547199487686, -0.0127122662961483, -0.010393403470516205, 0.011102944612503052, 0.01062719151377678, 0.008849653415381908, -0.0032797805033624172, 0.007391906809061766, -0.011363736353814602, 0.012034604325890541, 0.011243999004364014, 0.010378604754805565, 0.010209916159510612, 0.0028724444564431906, -0.00039088184712454677, -0.009490354917943478, -0.008947879076004028, 0.0026171100325882435, -0.0031766670290380716, 0.010803195647895336, -0.010473557747900486, 0.01266214158385992, -1.0172504516958725e-05, 0.011853047646582127, -0.007967155426740646, 0.004650414455682039, -0.011521018110215664, -0.003778914688155055, -0.009937247261404991, 0.012942629866302013, -0.007412774488329887, 0.002735614310950041, 0.012142444029450417, -0.00520390085875988, -0.013245162554085255, 0.01061133574694395, -0.011385020799934864, 0.011514727026224136, 0.011407744139432907, 0.01016425434499979, -0.0023400005884468555, 0.0038709838408976793, -0.010719177313148975, -0.010867316275835037, -0.0025723660364747047, 0.011222871951758862, -0.011205471120774746, -0.011137733235955238, -0.010887792333960533, -0.004754973109811544, -0.011154131032526493, 0.004327887669205666, -0.010422284714877605, 0.003422325477004051, -0.012257383204996586, -7.703038136241958e-06, 0.006061293184757233, 0.010094508528709412, -0.008895224891602993, 0.012368381023406982, 0.00013279308041092008, 2.780897557386197e-05, -0.010432439856231213, -0.011643395759165287, -0.011960298754274845, 0.013053718954324722, -0.010210120119154453, 0.007707776501774788, -0.012782581150531769, 0.01155262440443039, -0.010894358158111572, 0.011899478733539581, 0.002392303431406617, -0.006533239968121052, -0.0028943780343979597, 0.002626177156344056, -0.0027988178189843893, 0.011740898713469505, 0.01238170638680458, -0.0027835150249302387, -0.010527096688747406, 0.010554133914411068, -0.0025258115492761135], [0.008145404979586601, -0.010857094079256058, 0.014679530635476112, -0.008243119344115257, 0.008831030689179897, 0.010222957469522953, 0.010998878628015518, 0.0054850331507623196, 0.00925628561526537, -0.009677023626863956, -0.009199501015245914, -0.008191093802452087, 0.010333461686968803, 0.00358089548535645, 0.010033263824880123, 0.010984564200043678, 0.006729567423462868, -0.0026307834777981043, 0.002812071470543742, -0.009567047469317913, 0.011209177784621716, -0.0071481745690107346, -0.00822819396853447, 0.00016992242308333516, 0.00972624309360981, -0.0034339497797191143, 0.01035690400749445, -0.002525941003113985, 0.012739098630845547, -0.01299181580543518, 0.01007216889411211, -9.364743891637772e-05, 0.0038816819433122873, -0.008177750743925571, 0.009013467468321323, 0.012465876527130604, 0.010274441912770271, 0.008928707800805569, 0.005346216261386871, -0.011929658241569996, 0.0057071601040661335, 0.009464255534112453, -0.011600661091506481, -0.012268361635506153, 0.0037779996637254953, -0.010195434093475342, -0.008924772031605244, -0.008456318639218807, 0.010907652787864208, 0.010081233456730843, 0.008600338362157345, -0.008385379798710346, 0.0058497278951108456, -0.002569285687059164, 0.008704587817192078, 0.004227554425597191, 0.011059424839913845, 0.0035868296399712563, 0.008921953849494457, -0.0003318821545690298, -0.0006665185792371631, -0.009707184508442879, 0.0034925811924040318, -0.01262223906815052, 0.002383032813668251, -0.011251699179410934, 0.0029271270614117384, -8.894503480405547e-06, 0.012195440009236336, -0.00836771260946989, 0.011941826902329922, -0.0090158237144351, -0.008421461097896099, -0.009897427633404732, 0.010017074644565582, -0.007179660722613335, 0.01085439883172512, 0.0036521716974675655, -0.008712533861398697, -0.013057919219136238, 0.011913212947547436, -0.009052366949617863, 0.010384902358055115, 0.008445829153060913, 0.009521730244159698, -0.009211931377649307, 0.010483129881322384, -0.012255960144102573, -0.010599316097795963, -0.01118158083409071, 0.004499355331063271, -0.010535201989114285, -0.010945599526166916, -0.0029625161550939083, -0.011817680671811104, -0.011072454042732716, 0.0016549309948459268, -0.010678309947252274, 0.010027938522398472, -0.0086211534217, -0.0002152973902411759, 0.003634759923443198, 0.012951060198247433, -0.010123537853360176, 0.010185372084379196, 0.00020780616614501923, 1.738634455250576e-05, -0.009236866608262062, -0.0044301715679466724, -0.011055707931518555, 0.0032092926558107138, -0.011730460450053215, 0.011650724336504936, -0.0031539094634354115, 0.003795894794166088, -0.009617322124540806, 0.012314312160015106, 0.010954080149531364, -0.002650222275406122, -0.011710035614669323, 0.011058703064918518, -0.010365460999310017, 0.002657340606674552, 0.013020789250731468, -0.010864625684916973, -0.008876563981175423, 0.004916828591376543, -0.0024414192885160446], [0.0058434223756194115, -0.01819336973130703, 0.0039305901154875755, -0.008731733076274395, 0.01790735125541687, 0.015499355271458626, 0.01981552690267563, 0.008298388682305813, 0.0020369437988847494, -0.019860459491610527, -0.004802230279892683, -0.021301688626408577, 0.003268918953835964, 0.003483290085569024, 0.01814766228199005, 0.01659476011991501, 0.0026486434508115053, -0.021178603172302246, 0.015933336690068245, -0.017665117979049683, 0.020905205979943275, -0.018217269331216812, -0.008198680356144905, 0.0003369223268236965, 0.0010996031342074275, -0.012090859934687614, 0.008804088458418846, -0.0032068085856735706, 0.0011596266413107514, -0.00935097225010395, 0.0038157093804329634, -0.00012436047836672515, 0.005771644879132509, -0.009662948548793793, 0.014904585666954517, 0.002558486768975854, 0.018131142482161522, 0.017369892448186874, 0.016117988154292107, -0.009561226703226566, 0.018694719299674034, 0.02136276848614216, -0.0008063985733315349, -0.015646573156118393, 0.014880129136145115, -0.01533666905015707, -0.016530368477106094, -0.001497364602982998, 0.019693642854690552, 0.015872055664658546, 0.010318205691874027, -0.01922120712697506, 0.007883251644670963, -0.006454692222177982, 0.0025048006791621447, 0.014779685996472836, 0.0016069095581769943, 0.02073753997683525, 0.021507469937205315, -0.06480761617422104, -0.013209575787186623, -0.0025083408690989017, 0.015093227848410606, -0.013417367823421955, 0.01903701387345791, -0.019792484119534492, 0.01256890594959259, -4.2875548388110474e-05, 0.008818660862743855, -0.009800311177968979, 0.014978748746216297, -0.012882351875305176, -0.010139917954802513, -0.016327684745192528, 0.014218129217624664, -0.0028490133117884398, 0.015994763001799583, 0.014417664147913456, -0.019482364878058434, -0.010149562731385231, 0.004679925739765167, -0.017838168889284134, 0.015640072524547577, 0.008032437413930893, 0.016135063022375107, -0.003156095976009965, 0.013514538295567036, -0.013632428832352161, -0.003131590085104108, -0.016365094110369682, 0.020558854565024376, -0.019665200263261795, -0.002429759129881859, -0.01582944765686989, -0.010093511082231998, -0.014118116348981857, 0.000892179028596729, -0.006518261507153511, 0.012605990283191204, -0.003103930503129959, -7.333621397265233e-06, 0.007165856659412384, 0.013721678406000137, -0.0026113807689398527, 0.009803053922951221, 0.0001134951671701856, 5.15768988407217e-06, -0.010043441317975521, -0.0043795788660645485, -0.0025860280729830265, 0.012657737359404564, -0.009146207012236118, 0.009449198842048645, -0.002963732462376356, 0.011556931771337986, -0.001596274902112782, 0.016846898943185806, 0.01850663684308529, -0.00672864681109786, -0.002342001534998417, 0.01943441480398178, -0.003998696804046631, 0.017573639750480652, 0.006000884808599949, -0.01975821703672409, -0.021320756524801254, 0.021633245050907135, -0.015266414731740952], [-0.00818253681063652, 0.012319586239755154, -0.00527205690741539, 0.008813693188130856, -0.003385918913409114, -0.0028461802285164595, -0.012213957495987415, -0.013619888573884964, -0.0019234089413657784, 0.012684395536780357, 0.011843273416161537, 0.011810860596597195, -0.013456557877361774, -0.011083800345659256, -0.012753639370203018, -0.010975782759487629, -0.0022130776196718216, 0.0030449971091002226, -0.013219723477959633, 0.011420018970966339, -0.005979446694254875, 0.002570466371253133, 0.00790330022573471, -0.00023472768953070045, -0.011365426704287529, 0.01238041091710329, -0.00908293854445219, 0.012417794205248356, -0.013934550806879997, 0.01316989678889513, -0.010994037613272667, 0.00018276344053447247, -0.010607783682644367, 0.007414198014885187, -0.011654124595224857, -0.013406204991042614, -0.014068315736949444, -0.009135316126048565, -0.011286832392215729, 0.01259577926248312, -0.0022376112174242735, -0.012005620636045933, 0.013171277940273285, 0.015007604844868183, -0.011670744977891445, 0.010614071041345596, 0.0026875436305999756, 0.012028006836771965, -0.012207155115902424, -0.012066405266523361, -0.009038753807544708, 0.011871636845171452, -0.008014388382434845, 0.012539093382656574, -0.0056541659869253635, -0.014898021705448627, -0.012986728921532631, -0.00247286562807858, -0.01136926282197237, 0.0006802136194892228, 0.009751974605023861, 0.013138076290488243, -0.010462482459843159, 0.003224955638870597, -0.011778747662901878, 0.011807182803750038, -0.007434381637722254, 8.725421139388345e-06, -0.01151574682444334, 0.008389785885810852, -0.013381574302911758, 0.01341765746474266, 0.009094713255763054, 0.011532807722687721, -0.013389172963798046, 0.0026050503365695477, -0.0121836606413126, -0.009021264500916004, 0.012427804991602898, 0.011482104659080505, -0.010115290060639381, 0.010037746280431747, -0.012027570977807045, -0.007444434799253941, -0.011676286347210407, 0.01254392508417368, -0.01420140452682972, 0.011686164885759354, 0.011412681080400944, 0.014228728599846363, -0.009267502464354038, 0.012066398747265339, 0.01179626677185297, 0.005592294503003359, 0.009303231723606586, 0.01335803885012865, -0.0004166984581388533, 0.0069457534700632095, -0.011255661025643349, 0.0030828528106212616, 3.665250915219076e-06, -0.009943392127752304, -0.013746002689003944, 0.010401757434010506, -0.009263182058930397, -0.0001412070996593684, -1.2846588106185663e-05, 0.009123027324676514, 0.005271752830594778, 0.002597014419734478, -0.0030476965475827456, 0.011009499430656433, -0.009482797235250473, 0.002886280883103609, -0.012828163802623749, 0.01221441850066185, -0.0031119403429329395, -0.01332129817456007, 0.008466227911412716, 0.002525106305256486, -0.006547071039676666, 0.012028508819639683, -0.012168478220701218, -0.009534904733300209, 0.0028868811205029488, 0.010865960270166397, -0.013489900156855583, 0.011133095249533653], [0.012075020931661129, -0.010939883068203926, 0.013541728258132935, -0.00841416697949171, 0.007010586094111204, 0.0098971426486969, 0.008129294961690903, 0.012493692338466644, 0.011134899221360683, -0.002125940751284361, -0.005884676706045866, -0.009809309616684914, 0.013357093557715416, 0.01104742381721735, 0.012457442469894886, 0.010334094986319542, 0.011262195184826851, -0.005666790530085564, 0.009750047698616982, -0.0029568239115178585, 0.012811093591153622, -0.00996494758874178, -0.00831472035497427, 0.0003544339560903609, 0.011463169939815998, -0.01175028644502163, 0.0041922302916646, -0.002481116447597742, 0.011812529526650906, -0.0036497339606285095, 0.0021513961255550385, -0.00026591410278342664, 0.009774146601557732, -0.006276573985815048, 0.002289037685841322, 0.002596639795228839, 0.010793250985443592, 0.004530102480202913, 0.012974075973033905, -0.007672181352972984, 0.0025206543505191803, 0.0064778560772538185, -0.011731338687241077, -0.01291987206786871, 0.0028746607713401318, -0.002677593845874071, -0.012726706452667713, -0.002756491769105196, 0.009788314811885357, 0.002575859660282731, 0.008325664326548576, -0.011242945678532124, 0.00683224480599165, -0.012120728380978107, 0.010628489777445793, 0.0039164163172245026, 0.012832071632146835, 0.0025314087979495525, 0.010268921963870525, -0.000316395191475749, -0.011573424562811852, -0.010880580171942711, 0.002561215776950121, -0.013226477429270744, 0.012086225673556328, -0.00962120946496725, 0.01165663544088602, -9.36911774829241e-08, 0.010181542485952377, -0.010701312683522701, 0.0026534004136919975, -0.010073383338749409, -0.010289734229445457, -0.002627649577334523, 0.011000530794262886, -0.002368158893659711, 0.010539201088249683, 0.00859924592077732, -0.011799292638897896, -0.003201609244570136, 0.0038321593310683966, -0.0029227708000689745, 0.009246689267456532, 0.007890366949141026, 0.010196377523243427, -0.003153757890686393, 0.012364465743303299, -0.012575176544487476, -0.012915604747831821, -0.010112626478075981, 0.01142001710832119, -0.01187941525131464, -0.004379357676953077, -0.011486010625958443, -0.011956311762332916, -0.0042092022486031055, 0.0024742158129811287, -0.006846507545560598, 0.010429790243506432, -0.011715835891664028, -0.00021706971165258437, 0.0071302070282399654, 0.01315469853579998, -0.011825663037598133, 0.011268474161624908, 0.009443492628633976, 4.576007540890714e-06, -0.009474756196141243, -0.011388800106942654, -0.010373321361839771, 0.011960730887949467, -0.011151177808642387, 0.011088334023952484, -0.012352668680250645, 0.0069405389949679375, -0.002070007612928748, 0.011553228832781315, 0.0023780008777976036, -0.013369763270020485, -0.002526992466300726, 0.010838537476956844, -0.0025018302258104086, 0.002553145634010434, 0.011140942573547363, -0.012108552269637585, -0.008395684882998466, 0.010336563922464848, -0.010707270354032516], [-0.01200832985341549, 0.008793732151389122, -0.010022255592048168, 0.007689062040299177, -0.006583563983440399, -0.010826627723872662, -0.007791530806571245, -0.008612724021077156, -0.0019316370598971844, 0.00811637844890356, 0.00990275014191866, 0.008356687612831593, -0.010408367961645126, -0.01003993023186922, -0.010708310641348362, -0.008589931763708591, -0.008900783956050873, 0.008751869201660156, -0.009215367957949638, 0.008769218809902668, -0.010830221697688103, 0.006609039381146431, 0.00799603946506977, -0.00019484742369968444, -0.009866039268672466, 0.009646848775446415, -0.009895684197545052, 0.011021243408322334, -0.0028968360275030136, 0.006313149817287922, -0.007928116247057915, 0.00013140597729943693, -0.008193237707018852, 0.011085409671068192, -0.009564793668687344, -0.011472754180431366, -0.010356241837143898, -0.01068827323615551, -0.0027475482784211636, 0.00928606279194355, -0.0023541569244116545, -0.010225127451121807, 0.010207506828010082, 0.010222552344202995, -0.012094035744667053, 0.00927139725536108, 0.011038783937692642, 0.0022969283163547516, -0.0067902435548603535, -0.002889087190851569, -0.00849727913737297, 0.007551003247499466, -0.006761062424629927, 0.008810346946120262, -0.010258105583488941, -0.009186027571558952, -0.012468031607568264, -0.0076139457523822784, -0.009428123012185097, 0.0004929864080622792, 0.001216053031384945, 0.007786675821989775, -0.010076039470732212, 0.011695695109665394, -0.01052282378077507, 0.009719676338136196, -0.004829282872378826, 1.1143078154418617e-05, -0.0053099701181054115, 0.010926156304776669, -0.010821856558322906, 0.008911528624594212, 0.008446356281638145, 0.008412616327404976, -0.003488760208711028, 0.00961459893733263, -0.00985726062208414, -0.009667693637311459, 0.009229996241629124, 0.012379666790366173, -0.01181540172547102, 0.007680416572839022, -0.01039431057870388, -0.01066894643008709, -0.008827410638332367, 0.0025995979085564613, -0.010336460545659065, 0.005543452221900225, 0.002615769859403372, 0.009545845910906792, -0.004136286675930023, 0.00418084254488349, 0.010103045962750912, 0.010829194448888302, 0.004738804418593645, 0.010619278065860271, -0.0011684182099997997, 0.00656317500397563, -0.009805708192288876, 0.007991915568709373, 3.4589306778798345e-06, -0.004829719662666321, -0.008340638130903244, 0.0026800280902534723, -0.010354596190154552, -0.0009315251954831183, -2.8710250262520276e-05, 0.009279058314859867, 0.007693826220929623, 0.008715668693184853, -0.00966300256550312, 0.0049711973406374454, -0.007356105837970972, 0.009963112883269787, -0.01034520287066698, 0.008302035741508007, -0.010814934968948364, -0.008653916418552399, 0.009462771937251091, 0.011582416482269764, -0.009818777441978455, 0.0027779764495790005, -0.008556348271667957, -0.01260071899741888, 0.0027239136397838593, 0.0025488955434411764, -0.009788746014237404, 0.010494302026927471], [0.0077939461916685104, -0.0311785526573658, 0.005061879754066467, -0.011500947177410126, 0.018238918855786324, 0.01587284542620182, 0.020864496007561684, 0.030081624165177345, 0.019868887960910797, -0.018255988135933876, -0.010167457163333893, -0.008312358520925045, 0.01876475289463997, 0.016578223556280136, 0.02071019820868969, 0.017512518912553787, 0.02183706872165203, -0.02161506563425064, 0.019446568563580513, -0.0176417026668787, 0.0027740721125155687, -0.019139455631375313, -0.007918977178633213, 0.0002013876655837521, 0.014810015447437763, -0.004633460193872452, 0.009863621555268764, -0.0027813876513391733, 0.015937792137265205, -0.013400239869952202, 0.02058788575232029, -0.0001810549001675099, 0.006976175121963024, -0.007668652106076479, 0.003337583038955927, 0.009203117340803146, 0.03125222399830818, 0.01606951281428337, 0.009630567394196987, -0.013676959089934826, 0.025127610191702843, 0.02031572349369526, -0.011853450909256935, -0.023462029173970222, 0.016302576288580894, -0.018151411786675453, -0.015244901180267334, -0.026485206559300423, 0.024305865168571472, 0.01850009895861149, 0.01027548685669899, -0.002875956706702709, 0.007799989078193903, -0.01991656795144081, 0.021991778165102005, 0.020099204033613205, 0.0059705316089093685, 0.017038805410265923, 0.020842639729380608, -0.0003782635903917253, -0.011155439540743828, -0.0025701946578919888, 0.017054185271263123, -0.013658913783729076, 0.02063918486237526, -0.019070737063884735, 0.005571229849010706, -1.4918493434379343e-05, 0.0067573171108961105, -0.009884173981845379, 0.016981858760118484, -0.01851610094308853, -0.01193937286734581, -0.02031746879220009, 0.016916589811444283, -0.018728164955973625, 0.002824694849550724, 0.004176513757556677, -0.022156555205583572, -0.0034807738848030567, 0.012767554260790348, -0.013062278740108013, 0.015368083491921425, 0.01088471245020628, 0.02930273301899433, -0.019190210849046707, 0.02484900876879692, -0.013974769972264767, -0.022914646193385124, -0.03399496525526047, 0.014123366214334965, -0.02452690526843071, -0.018425121903419495, -0.003143616719171405, -0.011355327442288399, -0.017811626195907593, 0.0023084066342562437, -0.009912042878568172, 0.01276955846697092, -0.019728276878595352, 1.1674472261802293e-05, 0.0037446434143930674, 0.0031664471607655287, -0.021543780341744423, 0.012280285358428955, 0.00019336318655405194, 7.819090387783945e-05, -0.008130576461553574, -0.004354226402938366, -0.01629369705915451, 0.003341131843626499, -0.006479950156062841, 0.011204470880329609, -0.01603182591497898, 0.013885283842682838, -0.023743001744151115, 0.01672135666012764, 0.024674752727150917, -0.00853135995566845, -0.022751150652766228, 0.022818664088845253, -0.02007155865430832, 0.023767715319991112, 0.009400665760040283, -0.002824716968461871, -0.0031700816471129656, 0.002327820286154747, -0.01808498241007328]], "sigmanet.nn.4.bias": [0.002316247671842575, 0.024463694542646408, -0.0611867718398571, 0.0919278934597969, -0.007839213125407696, 0.0723891630768776, -0.01149145420640707, 0.0326068215072155, -0.04115915670990944, -0.04057540372014046, -0.119167260825634, -0.022483179345726967, 0.023591604083776474, 0.08241499960422516, 0.09352613985538483, 0.057029031217098236, 0.031939588487148285, -0.0483860969543457, -0.0010533544700592756, 0.015216371975839138, 0.07003993541002274, 0.006198171526193619, -0.030428610742092133, -0.0027393645141273737, 0.08841832727193832, -0.060044024139642715, 0.0898946151137352, 0.089455746114254, 0.0015130541287362576, -0.01552546862512827, -0.03178969770669937, 0.08979491889476776, 0.04538159444928169, -0.04615500569343567, -0.07391516864299774, -0.047462347894907, 0.051327552646398544, 0.016204942017793655, 0.15075820684432983, 0.03254004567861557, 0.05235208943486214, 0.022201891988515854, -0.020747611299157143, 0.10041633993387222, 0.018546288833022118, 0.02760033681988716, 0.02426687255501747, 0.018880771473050117, 0.035433050245046616, -0.045941077172756195, 0.00807138904929161, 0.04906262829899788, -0.019915292039513588, -0.07375288009643555, 0.028592722490429878, 0.12508900463581085, 0.0187322236597538, 0.025529133155941963, 0.11268483847379684, 0.008790748193860054, 0.016276467591524124, -0.020983092486858368, 0.025213396176695824, 0.020626811310648918, 0.03442448750138283, -0.020111532881855965, -0.009393509477376938, -0.06020322069525719, -0.05112568289041519, 0.04632386937737465, -0.0063806455582380295, -0.0047387550584971905, 0.017205899581313133, -0.11937999725341797, 0.06730744987726212, 0.08118468523025513, -0.0276953037828207, -0.06542564928531647, -0.06313768029212952, -0.07446307688951492, 0.060046836733818054, 0.03442603349685669, 0.11105235666036606, -0.014265400357544422, 0.058101292699575424, 0.023200860247015953, 0.04234480485320091, -0.06247223541140556, -0.08848068863153458, 0.11691935360431671, -0.02338542602956295, -0.007242816966027021, 0.014311540871858597, -0.046149205416440964, 0.012168239802122116, -0.03849993273615837, 0.04099076986312866, -0.04543812572956085, -0.19583551585674286, -0.027805915102362633, 0.03416053578257561, 0.006085256114602089, -0.0041836039163172245, -0.0031524968799203634, -0.10303913801908493, -0.09433043748140335, -0.02360670641064644, -0.027289878576993942, 0.02601032145321369, -0.04015466198325157, 0.06566047668457031, 0.00892516691237688, 0.10753805935382843, -0.04438743367791176, -0.09115616977214813, 0.06490164995193481, -0.027271410450339317, -0.006412379443645477, 0.01841181516647339, -0.045444004237651825, 0.07272488623857498, 0.03318219259381294, -0.05376739799976349, -0.010548791848123074, 0.0009397923713549972, 0.0511317178606987, 0.08367577940225601, -0.05001165345311165], "sigmanet.nn.4.parametrizations.weight.original": [[-0.0036471388302743435, 0.009211409837007523, -0.008149358443915844, -0.00716026546433568, -0.005822169594466686, 0.008141053840517998, -0.0035102402325719595, -0.005065961740911007, -0.009793786332011223, -0.00805093627423048, -0.006563875824213028, -0.010104521177709103, 0.008131193928420544, 0.008086263202130795, -0.008050169795751572, -0.005621167831122875, 0.003472220618277788, 0.0031011661048978567, 0.009164677001535892, 0.004534442443400621, -0.008030635304749012, -0.003981756512075663, -0.0078648766502738, -0.00984102487564087, 0.006376958917826414, 0.005758577026426792, 0.005882048513740301, 0.006405247841030359, -0.007695515640079975, 0.003939394373446703, -0.0014790440909564495, 0.010393638163805008, -0.003433347912505269, -0.0026601257268339396, 0.008008301258087158, 0.006143286358565092, -0.008182600140571594, -0.0038348911330103874, 0.004047717433422804, 0.003758559236302972, 0.007209301460534334, 0.0064819143153727055, -0.008785257115960121, 0.00823204219341278, -0.0012388944160193205, -0.0046516223810613155, -0.0040189605206251144, 0.005636061076074839, -0.005135206039994955, -0.006068637128919363, 0.005379506386816502, 0.007348924875259399, 0.0016659506363794208, 0.002278100699186325, -0.0032352025154978037, 0.006210079416632652, 0.005707019940018654, 0.005654367618262768, -0.002845797222107649, 0.003218126017600298, -0.005298621952533722, -0.011486105620861053, -0.005787325091660023, 0.007760099601000547, -0.0030466795433312654, 0.007893575355410576, 0.008035262115299702, 0.009125616401433945, -0.003243805840611458, 0.011720588430762291, -0.008186450228095055, -0.0037935255095362663, -0.003300444455817342, -0.005364591255784035, 0.005556490272283554, 0.008250845596194267, -0.005370568484067917, 0.003711221506819129, -0.005996294319629669, -0.004397749900817871, -0.005309616215527058, 0.006520381197333336, -0.0032821360509842634, 0.009869003668427467, -0.003845937317237258, 0.0033773239701986313, -0.00640504714101553, -0.0062010143883526325, -0.008073549717664719, -0.008640524931252003, -0.005400469992309809, 0.010033355094492435, -0.0024722067173570395, 0.004874358884990215, -0.005035195965319872, -0.0058025214821100235, -0.007282365579158068, -0.006628275383263826, -0.009140614420175552, -0.007797066122293472, 0.007978714071214199, 0.00499862153083086, -0.003924029879271984, -0.004747871775180101, -0.009019464254379272, -0.008136573247611523, -0.008444853127002716, 0.006872681435197592, -0.006259615998715162, -0.004870888311415911, -0.002017256570979953, 0.0027013509534299374, -0.00907021202147007, 0.004256750922650099, -0.007448188960552216, -0.009701436385512352, -0.009927988983690739, 0.005895643029361963, -0.00518319895491004, 0.00233608135022223, -0.008000297471880913, 0.00821114145219326, -0.006677011493593454, -0.007656366564333439, -0.008413274772465229, 0.006410385016351938, -0.003015213878825307, 0.0078238844871521], [0.004518737550824881, -0.009084239602088928, 0.009959083050489426, 0.008533472195267677, 0.004370321054011583, -0.01092160027474165, 0.007178602274507284, 0.0038542416878044605, 0.007511364761739969, 0.006639835890382528, 0.0034424839541316032, 0.009945587255060673, -0.005186032969504595, -0.006673356983810663, 0.003637573216110468, 0.002467887010425329, -0.0036434666253626347, -0.003372905543074012, -0.008067639544606209, -0.010878265835344791, 0.0029533684719353914, 0.007427286822348833, 0.011431080289185047, 0.009323813021183014, -0.007386433891952038, -0.007438113912940025, -0.004494337365031242, -0.008091374300420284, 0.005104668438434601, -0.003318028524518013, 0.004325198009610176, -0.004073913209140301, 0.006386117078363895, 0.007765502668917179, -0.008179966360330582, -0.007539989892393351, 0.0043808515183627605, 0.007932983338832855, -0.013285805471241474, -0.003463743720203638, -0.00814778357744217, -0.0088664460927248, 0.008883494883775711, -0.004057700280100107, 0.00456931022927165, 0.005145345348864794, 0.006529519334435463, -0.00463451212272048, 0.007943065837025642, 0.007107062730938196, -0.006584029644727707, -0.0038013309240341187, -0.0013689413899555802, -0.004403905943036079, 0.007853029295802116, -0.005572197493165731, -0.006182793993502855, -0.008118967525660992, 0.006001175381243229, -0.008022258058190346, 0.004110507667064667, 0.014731192961335182, 0.0033978011924773455, -0.004933930933475494, 0.006145055405795574, -0.008441147394478321, -0.00404888391494751, -0.0033602186013013124, 0.006443829741328955, -0.010492436587810516, 0.008926653303205967, 0.004384651314467192, 0.008860383182764053, 0.006067499052733183, -0.010169656947255135, -0.00306787365116179, 0.0046137794852256775, -0.006723057013005018, 0.0033847722224891186, 0.005034158937633038, 0.005989018827676773, -0.008900664746761322, 0.005785469431430101, -0.00648060766980052, 0.007779725827276707, -0.004286822397261858, 0.004281891509890556, 0.0035012108273804188, 0.0034615027252584696, 0.00597321055829525, 0.003949570003896952, -0.0056426189839839935, 0.002500640694051981, -0.0024811215698719025, 0.003960579168051481, 0.0033400258980691433, 0.005815218202769756, 0.0061967154033482075, 0.0038893853779882193, 0.0031869958620518446, -0.007057964336127043, -0.008623815141618252, 0.008026424795389175, 0.008401000872254372, 0.0037994554731994867, 0.003465017769485712, 0.008631388656795025, -0.0034412893000990152, 0.0038229224737733603, 0.0049736760556697845, 0.003972041420638561, -0.0076454211957752705, 0.003768014023080468, -0.00650168489664793, 0.010264254175126553, 0.00957430712878704, 0.003769220784306526, -0.003135311882942915, 0.009925131686031818, -0.003130582859739661, 0.00878129992634058, -0.007436481770128012, 0.003307194681838155, 0.006848199758678675, 0.0037100189365446568, -0.006791900843381882, 0.008183346129953861, -0.002860001288354397], [-0.005449139047414064, 0.008543647825717926, -0.006582850124686956, -0.006801794283092022, -0.0011543304426595569, 0.0035697221755981445, -0.003296236041933298, -0.0028028772212564945, -0.0035503036342561245, -0.0039588832296431065, -0.0017555792583152652, -0.008934738114476204, 0.0041219452396035194, 0.0071737621910870075, -0.006601465400308371, -0.0028716435190290213, 0.005377011839300394, 0.003480433952063322, 0.008765008300542831, 0.009731918573379517, -0.004739189054816961, -0.003336896188557148, -0.007165445946156979, -0.007704377174377441, 0.0031054706778377295, 0.005066552199423313, 0.0029041115194559097, 0.003607627237215638, -0.0028692935593426228, 0.003349797800183296, -0.00302768568508327, 0.004477563314139843, -0.003307477803900838, -0.003689546138048172, 0.0032641817815601826, 0.005753290839493275, -0.00644323555752635, -0.004015618935227394, 0.01183928083628416, 0.00015116589202079922, 0.002433882327750325, 0.008877044543623924, -0.006359987426549196, 0.006859320681542158, -0.001038338989019394, -0.005028481595218182, -0.0024880743585526943, 0.0023349979892373085, -0.006768328137695789, -0.0036120866425335407, 0.005607889033854008, 0.003805722575634718, 0.001604145159944892, 0.0028577668126672506, -0.001595875364728272, 0.00372339878231287, 0.004275202751159668, 0.00796067900955677, -0.008847816847264767, 0.008465245366096497, -0.0039550550282001495, -0.01091630570590496, -0.0019866719376295805, 0.007859984412789345, -0.005353840067982674, 0.004638367332518101, 0.004515573848038912, 0.00722677493467927, -0.003967315889894962, 0.005112630780786276, -0.008321834728121758, -0.004426851402968168, -0.0037649974692612886, -0.0034368429332971573, 0.0038426737301051617, 0.006841761060059071, -0.004885298665612936, 0.0030926417093724012, -0.004589842166751623, -0.005395674612373114, -0.003258097218349576, 0.0024372402112931013, -0.004223930183798075, 0.00689109368249774, -0.008836786262691021, 0.0043706148862838745, -0.0028543351218104362, -0.0038462355732917786, -0.010235261172056198, -0.0038423817604780197, -0.004384820349514484, 0.004430417437106371, -0.002367640845477581, 0.0016795620322227478, -0.0065498072654008865, -0.006199872586876154, -0.002666712738573551, -0.0035271404776722193, -0.003127997275441885, -0.0026679232250899076, 0.0037118340842425823, 0.005634878296405077, -0.003205265384167433, -0.004197345580905676, -0.006937878206372261, -0.007655848748981953, -0.0014849761500954628, 0.00658076535910368, -0.0013568807626143098, -0.006106988061219454, -0.002884247340261936, 0.002829398261383176, -0.00726934801787138, 0.004350618924945593, -0.004554633982479572, -0.009363973513245583, -0.0074982489459216595, 0.002841406734660268, -0.009861915372312069, 0.0030492397490888834, -0.002645769389346242, 0.004053942393511534, -0.002807861426845193, -0.007061406970024109, -0.0034105738159269094, 0.007994757033884525, -0.008221683092415333, 0.0022607753053307533], [0.03492032364010811, -0.02624000422656536, 0.028011437505483627, 0.022938653826713562, 0.033011287450790405, -0.025983238592743874, 0.017726359888911247, 0.031107012182474136, 0.021048281341791153, 0.017872128635644913, 0.005957126617431641, 0.026481270790100098, -0.02294066548347473, -0.009123319759964943, 0.02944270707666874, 0.02764320932328701, -0.019950222223997116, -0.025722945109009743, -0.0056756772100925446, -0.004045418463647366, 0.006755538284778595, 0.02659749425947666, 0.004774503875523806, 0.02143486961722374, -0.030613210052251816, -0.03807731717824936, -0.023375922814011574, -0.010686994530260563, 0.03488927707076073, -0.027333293110132217, 0.023464785888791084, -0.007032556924968958, 0.00513515854254365, 0.0335724875330925, -0.023623665794730186, -0.03043910674750805, 0.02779213897883892, 0.02576437033712864, -0.006313452962785959, -0.03299494460225105, -0.029879292473196983, -0.02039368636906147, 0.028931444510817528, -0.02096863090991974, 0.04020453244447708, 0.027374733239412308, 0.03955097869038582, -0.0382952056825161, 0.02946172095835209, 0.005159985739737749, -0.025113200768828392, -0.032141633331775665, -0.032061152160167694, -0.03182537853717804, 0.02908734604716301, -0.009918221272528172, -0.019811328500509262, -0.025010958313941956, 0.022996840998530388, -0.004557844251394272, 0.03165112063288689, 0.014788927510380745, 0.006075427867472172, -0.02086275815963745, 0.0054046837612986565, -0.024306925013661385, -0.02211938053369522, -0.005570243578404188, 0.022565949708223343, -0.02453814260661602, 0.02391951158642769, 0.005091921892017126, 0.027257448062300682, 0.004227854311466217, -0.017387380823493004, -0.030925968661904335, 0.005391300190240145, -0.03063848800957203, 0.026204686611890793, 0.017080506309866905, 0.03125694766640663, -0.02916041389107704, 0.030940037220716476, -0.004542941693216562, 0.02793467789888382, -0.004941852297633886, 0.031881507486104965, 0.004797087982296944, 0.021685238927602768, 0.016547253355383873, 0.005667050834745169, -0.022782234475016594, 0.017055068165063858, -0.034947264939546585, 0.030364731326699257, 0.0206499844789505, 0.03611250966787338, 0.018319131806492805, 0.029949938878417015, 0.008733983151614666, -0.019376035779714584, -0.004965889733284712, 0.03546958789229393, 0.007677644491195679, 0.035840846598148346, 0.0236394964158535, 0.0377824567258358, -0.004969051107764244, 0.03630607947707176, 0.021946579217910767, 0.005790804512798786, -0.02779424376785755, 0.03351075202226639, -0.004695831332355738, 0.004697366151958704, 0.025934845209121704, 0.016226068139076233, -0.02870486117899418, 0.00739445723593235, -0.03854183852672577, 0.040761709213256836, -0.025940459221601486, 0.028371114283800125, 0.020267978310585022, 0.01170020829886198, -0.004552673548460007, 0.004074700642377138, -0.035139042884111404], [-0.01531112939119339, 0.006202553864568472, -0.008181505836546421, -0.01136720459908247, -0.014185805805027485, 0.014228987507522106, -0.014604317024350166, -0.015402399934828281, -0.005129431374371052, -0.010071641765534878, -0.012933936901390553, -0.0036660144105553627, 0.01236155815422535, 0.01562673971056938, -0.009645669721066952, -0.011606954969465733, 0.005963674280792475, 0.005349477753043175, 0.015717286616563797, 0.014583353884518147, -0.004506942816078663, -0.00366659602150321, -0.01277490146458149, -0.014842547476291656, 0.014416426420211792, 0.01296063233166933, 0.012532425113022327, 0.00996491126716137, -0.004598371218889952, 0.016450269147753716, -0.013734301552176476, 0.013973443768918514, -0.014021322131156921, -0.007737448904663324, 0.0044849528931081295, 0.004090542905032635, -0.013017640449106693, -0.01364298164844513, 0.01357977744191885, 0.007476261351257563, 0.017507128417491913, 0.013140156865119934, -0.01451537199318409, 0.009604368358850479, -0.01684114709496498, -0.014971197582781315, -0.015002083033323288, 0.01484639011323452, -0.015084217302501202, -0.009998996742069721, 0.01533223781734705, 0.01209239847958088, 0.01124090887606144, 0.004911988973617554, -0.013350005261600018, 0.01500004529953003, 0.011063288897275925, 0.013991707935929298, -0.006731032859534025, 0.012667018920183182, -0.013374383561313152, -0.004968307912349701, -0.0186566561460495, 0.0139821358025074, -0.01580178551375866, 0.013720245100557804, 0.005940000992268324, 0.009079852141439915, -0.011630388908088207, 0.007067830767482519, -0.014861014671623707, -0.00501335971057415, -0.003632161533460021, -0.01376545149832964, 0.004623591434210539, 0.012289990670979023, -0.01580074243247509, 0.004147270694375038, -0.004503932781517506, -0.011149625293910503, -0.012213842943310738, 0.015509306453168392, -0.014486439526081085, 0.004862033296376467, -0.010688499547541142, 0.004479171708226204, -0.011754711158573627, -0.013620351441204548, -0.014990061521530151, -0.0034598566126078367, -0.0186621081084013, 0.004772757645696402, -0.019186286255717278, 0.015513324178755283, -0.016447078436613083, -0.004675715696066618, -0.004668818321079016, -0.004930133931338787, -0.004122200887650251, -0.01112391334027052, 0.0050281947478652, 0.014178400859236717, -0.010416987352073193, -0.011699946597218513, -0.017317529767751694, -0.0037755260709673166, -0.01296264212578535, 0.01655331440269947, -0.01602487452328205, -0.013040630146861076, -0.005198963917791843, 0.0049255164340138435, -0.01592235080897808, 0.016260523349046707, -0.013998816721141338, -0.006702850107103586, -0.0043584126979112625, 0.012002285569906235, -0.017042633146047592, 0.014634402468800545, -0.01345171220600605, 0.012675623409450054, -0.016451125964522362, -0.011980362236499786, -0.01461400743573904, 0.004390296060591936, -0.01176345907151699, 0.007647233549505472], [0.02569863572716713, -0.02338968962430954, 0.005273057613521814, 0.005483103450387716, 0.026044584810733795, -0.010018309578299522, 0.027878878638148308, 0.025932691991329193, 0.004994635470211506, 0.0076874964870512486, 0.025248592719435692, 0.020148027688264847, -0.024463165551424026, -0.004729036241769791, 0.030298084020614624, 0.0041532269679009914, -0.006442774087190628, -0.014758654870092869, -0.005840037949383259, -0.022527707740664482, 0.0283310879021883, 0.004281401634216309, 0.005591093562543392, 0.02207118086516857, -0.0254116952419281, -0.005188337992876768, -0.0241659227758646, -0.030894774943590164, 0.005605881102383137, -0.02575785666704178, 0.006090356037020683, -0.005068900529295206, 0.02854773961007595, 0.027771636843681335, -0.022999437525868416, -0.023506944999098778, 0.025652512907981873, 0.021860038861632347, -0.004208218771964312, -0.026055678725242615, -0.023209476843476295, -0.0006715440540574491, 0.013073173351585865, -0.02049371972680092, 0.013465319760143757, 0.0035418260376900434, 0.00619787210598588, -0.030365651473402977, 0.02768554352223873, 0.023436736315488815, -0.005586095154285431, -0.02614006958901882, -0.006837178952991962, -0.028743259608745575, 0.031127315014600754, -0.03228755667805672, -0.019766096025705338, -0.025739146396517754, 0.022668378427624702, -0.004143220838159323, 0.024649666622281075, 0.012061862275004387, 0.004751148633658886, -0.017759177833795547, 0.02842976339161396, -0.022664206102490425, -0.009766226634383202, -0.00466027669608593, 0.03254493325948715, -0.014552784152328968, 0.0014413963072001934, 0.015427862294018269, 0.02555903047323227, 0.024511391296982765, -0.004711054731160402, -0.029939759522676468, 0.013457033783197403, -0.029540402814745903, 0.025235630571842194, 0.01387876272201538, 0.028534770011901855, -0.0017038527876138687, 0.005052167922258377, -0.023244591429829597, 0.005691933445632458, -0.02356707863509655, 0.026887839660048485, 0.025455886498093605, 0.023696666583418846, 0.01259085163474083, 0.027729282155632973, -0.02097858488559723, 0.00652691163122654, -0.02570214681327343, 0.004478975664824247, 0.019711559638381004, 0.026771998032927513, 0.02049802802503109, 0.026749152690172195, 0.025813808664679527, -0.020666280761361122, -0.02715003304183483, 0.0017673191614449024, 0.005096618551760912, 0.014625145122408867, 0.01176854781806469, 0.029524436220526695, -0.027194324880838394, 0.0053685191087424755, 0.01742587424814701, 0.005934753455221653, -0.025139154866337776, 0.029555782675743103, -0.028461456298828125, 0.030335567891597748, 0.02507063001394272, 0.02563987858593464, -0.017837747931480408, 0.0035277744755148888, -0.025585001334547997, 0.027784982696175575, -0.026286136358976364, 0.004778865724802017, 0.005673915147781372, 0.027124624699354172, -0.024621905758976936, 0.011913861148059368, -0.017392508685588837], [-0.003768778406083584, 0.009672622196376324, -0.005302465055137873, -0.004389684181660414, -0.005223979242146015, 0.006584898568689823, -0.004371251445263624, -0.007148973643779755, -0.004510878585278988, -0.010166045278310776, -0.008674434386193752, -0.0034101426135748625, 0.004052422475069761, 0.010079074651002884, -0.009207148104906082, -0.004336887504905462, 0.011328201740980148, 0.010160494595766068, 0.003357019042596221, 0.009831007570028305, -0.006336634978652, -0.007010782603174448, -0.012880750931799412, -0.010672503150999546, 0.005602479446679354, 0.00982342567294836, 0.004193682223558426, 0.004291031043976545, -0.010228266939520836, 0.007667432073503733, -0.008580198511481285, 0.004815921187400818, -0.006444486789405346, -0.010667779482901096, 0.007219590712338686, 0.006368400063365698, -0.0036895498633384705, -0.008720961399376392, 0.004729371052235365, 0.003338017500936985, 0.007450954522937536, 0.006936527788639069, -0.003940375987440348, 0.004279734566807747, -0.009720181114971638, -0.005489595700055361, -0.006519526708871126, 0.00888986885547638, -0.006769489496946335, -0.006169467698782682, 0.01078731007874012, 0.005927886813879013, 0.0025665201246738434, 0.003992254380136728, -0.006497359834611416, 0.004045240115374327, 0.009524072520434856, 0.00940046925097704, -0.008180191740393639, 0.01057120319455862, -0.003951077349483967, -0.004882315173745155, -0.003746108617633581, 0.008425871841609478, -0.005984444171190262, 0.010202435776591301, 0.00930404756218195, 0.009881572797894478, -0.003671953920274973, 0.004411586560308933, -0.008188368752598763, -0.003975819796323776, -0.008662368170917034, -0.00934772938489914, 0.00619784789159894, 0.0037855200935155153, -0.0038752693217247725, 0.009278676472604275, -0.008246335200965405, -0.010181387886404991, -0.006957360543310642, 0.007220434490591288, -0.003323750337585807, 0.008989084511995316, -0.00791643001139164, 0.009432974271476269, -0.003588818944990635, -0.004131835885345936, -0.003304419107735157, -0.012137718498706818, -0.004500943701714277, 0.01056252047419548, -0.0023518200032413006, 0.005171403754502535, -0.00669072987511754, -0.009616410359740257, -0.0040525649674236774, -0.005093144718557596, -0.003483946667984128, -0.004932990297675133, 0.005536767654120922, 0.008979175239801407, -0.0035949856974184513, -0.009857847355306149, -0.006628400646150112, -0.010427640751004219, -0.009755008853971958, 0.008320803754031658, -0.010681219398975372, -0.003934190142899752, -0.009613965637981892, 0.006007152143865824, -0.008974787779152393, 0.009702006354928017, -0.004152397625148296, -0.01122850552201271, -0.008760352618992329, 0.005365690682083368, -0.0105433976277709, 0.004093050491064787, -0.008249102160334587, 0.006427678279578686, -0.003634760621935129, -0.005067311227321625, -0.003567085135728121, 0.003991827834397554, -0.009297169744968414, 0.006581978406757116], [-0.008737958036363125, 0.009545779787003994, -0.005060679279267788, -0.009257916361093521, -0.007478647865355015, 0.007465200033038855, -0.0046340953558683395, -0.004788446240127087, -0.007006310857832432, -0.0035793373826891184, -0.0037953900173306465, -0.01015339232981205, 0.009580128826200962, 0.007856937125325203, -0.00600650766864419, -0.00347283692099154, 0.005012116860598326, 0.008233120664954185, 0.005394530016928911, 0.010030143894255161, -0.003776369383558631, -0.0028856927528977394, -0.007497269194573164, -0.0033613669220358133, 0.0030462397262454033, 0.0073829349130392075, 0.006636243313550949, 0.006059663835912943, -0.0075150225311517715, 0.0039719706401228905, -0.003579225391149521, 0.005158938933163881, -0.007065038662403822, -0.004628124181181192, 0.006207529921084642, 0.008727283217012882, -0.0059199645183980465, -0.003932918421924114, 0.011591608636081219, 0.0038894712924957275, 0.008233107626438141, 0.0030265995301306248, -0.007447260431945324, 0.002950785681605339, -0.0016531380824744701, -0.009739569388329983, -0.00606749951839447, 0.0036337976343929768, -0.0068732975050807, -0.004902432207018137, 0.008904220536351204, 0.0035136265214532614, 0.001006088568829, 0.006317954044789076, -0.0017710138345137239, 0.007179996930062771, 0.004548846744000912, 0.009560621343553066, -0.007350062020123005, 0.008628111332654953, -0.005332784727215767, -0.009669232182204723, -0.0015088149812072515, 0.0032563304994255304, -0.006622055545449257, 0.005802626255899668, 0.007845758460462093, 0.0031244452111423016, -0.0053948936983942986, 0.008570922538638115, -0.00684249447658658, -0.004996923729777336, -0.003132775193080306, -0.008726048283278942, 0.003977586515247822, 0.005037270952016115, -0.002909122034907341, 0.004419512581080198, -0.0028051265981048346, -0.009076418355107307, -0.004275360144674778, 0.006978591904044151, -0.006951136514544487, 0.005767822265625, -0.00426667183637619, 0.0065436228178441525, -0.0037431870587170124, -0.008608912117779255, -0.0033204378560185432, -0.009439454413950443, -0.003644651034846902, 0.00384280807338655, -0.0029402023646980524, 0.0026845745742321014, -0.003565211547538638, -0.00797317549586296, -0.00376308336853981, -0.004699406214058399, -0.007894429378211498, -0.0027553096879273653, 0.004204356111586094, 0.0037627138663083315, -0.006371390074491501, -0.004884551744908094, -0.0077264560386538506, -0.008684875443577766, -0.002359046135097742, 0.0065670679323375225, -0.008384875021874905, -0.002917278092354536, -0.0033016905654221773, 0.005390306003391743, -0.0032766906078904867, 0.0041010500863194466, -0.008532291278243065, -0.005550061818212271, -0.0063287001103162766, 0.0038157759699970484, -0.010084726847708225, 0.0036898679099977016, -0.005149365868419409, 0.006450274959206581, -0.005734431091696024, -0.0033593359403312206, -0.00428047077730298, 0.004535568878054619, -0.007521872408688068, 0.006876917090266943], [-0.022317422553896904, 0.003990223631262779, -0.014041303656995296, -0.01793128252029419, -0.005262452177703381, 0.02177848480641842, -0.021044490858912468, -0.023384612053632736, -0.017050225287675858, -0.0011020052479580045, -0.017354464158415794, -0.02126002497971058, 0.01830657199025154, 0.019030125811696053, -0.0051756747998297215, -0.0048959325067698956, 0.01629595085978508, 0.01820503920316696, 0.016921615228056908, 0.01804436184465885, -0.005252370610833168, -0.015861129388213158, -0.016754167154431343, -0.015112730674445629, 0.004361845552921295, 0.02701845020055771, 0.018713613972067833, 0.02431609481573105, -0.0054189469665288925, 0.020612366497516632, -0.005294442176818848, 0.022503884509205818, -0.01903257891535759, -0.005099171306937933, 0.01114802248775959, 0.004554060287773609, -0.004210192710161209, -0.004649673588573933, 0.009723993018269539, 0.007131926715373993, 0.005646360106766224, 0.01815149001777172, -0.004417233169078827, 0.01256076991558075, -0.02581549808382988, -0.02896668203175068, -0.023005850613117218, 0.00493494002148509, -0.020562879741191864, -0.01713988184928894, 0.01895950175821781, 0.01599225588142872, 0.01858389377593994, 0.018632538616657257, -0.02225199155509472, 0.021525133401155472, 0.01747809164226055, 0.007929105311632156, -0.0041075884364545345, 0.015419566072523594, -0.020144464448094368, -0.008390622213482857, -0.03418207913637161, 0.017840152606368065, -0.023044344037771225, 0.01486442144960165, 0.011674478650093079, 0.004315641708672047, -0.019349705427885056, 0.006125378422439098, -0.014842433854937553, -0.01203958597034216, -0.0036974071990698576, -0.016245955601334572, 0.016700655221939087, 0.004503780975937843, -0.005410301499068737, 0.022994665428996086, -0.005022052209824324, -0.014166872017085552, -0.020135696977376938, 0.008173837326467037, -0.02140888199210167, 0.00442182831466198, -0.004187433980405331, 0.016753723844885826, -0.0043118176981806755, -0.02300930768251419, -0.003941649105399847, -0.007638539187610149, -0.005183279514312744, 0.02178214117884636, -0.02182641625404358, 0.018525999039411545, -0.02138371951878071, -0.013009119778871536, -0.005244002677500248, -0.005192074459046125, -0.0043285866267979145, -0.018597694113850594, 0.004962494131177664, 0.009967589750885963, -0.005195061210542917, -0.005113937426358461, -0.0037681162357330322, -0.004300930071622133, -0.02302512526512146, 0.0038889956194907427, -0.02415662817656994, -0.0068231564946472645, -0.009428301826119423, 0.007599648553878069, -0.0251235980540514, 0.020927954465150833, -0.018625248223543167, -0.016424570232629776, -0.018208445981144905, 0.01690627820789814, -0.017923174425959587, 0.02227099798619747, -0.00918703991919756, 0.010906652547419071, -0.02198767103254795, -0.016926711425185204, -0.00496299983933568, 0.008543397299945354, -0.005074747838079929, 0.004169515334069729], [-0.0039290133863687515, 0.009585370309650898, -0.0039645032957196236, -0.007922355085611343, -0.006932107266038656, 0.009640448726713657, -0.009563349187374115, -0.0043567148968577385, -0.004217613488435745, -0.004301469307392836, -0.004478372633457184, -0.009999926201999187, 0.0037865142803639174, 0.007054668385535479, -0.006945035420358181, -0.002847859635949135, 0.006776661146432161, 0.003117178101092577, 0.010074492543935776, 0.011072945781052113, -0.004310488700866699, -0.002855326747521758, -0.0075418418273329735, -0.0034506788942962885, 0.00782194547355175, 0.003529823385179043, 0.0037381930742412806, 0.006004416849464178, -0.003914469853043556, 0.003332636086270213, -0.0012169474503025413, 0.011379728093743324, -0.0029598595574498177, -0.008624795824289322, 0.003381674410775304, 0.0038956475909799337, -0.008087961934506893, -0.009746824391186237, 0.0073644742369651794, 0.002606536028906703, 0.004813993349671364, 0.012462813407182693, -0.004137981683015823, 0.0038671535439789295, -0.0050139045342803, -0.010418650694191456, -0.003874123329296708, 0.002768106060102582, -0.007918158546090126, -0.0035582727286964655, 0.005732137244194746, 0.0026568430475890636, 0.0030365786515176296, 0.0043418798595666885, -0.002291956217959523, 0.004225944168865681, 0.005033901426941156, 0.007924908772110939, -0.008172615431249142, 0.0031916226726025343, -0.0036318597849458456, -0.0031579737551510334, -0.004053422249853611, 0.003938040696084499, -0.0035868145059794188, 0.006231748033314943, 0.006397732067853212, 0.01240592822432518, -0.003341320902109146, 0.005094553343951702, -0.007243448868393898, -0.0042177047580480576, -0.010316330008208752, -0.003537951037287712, 0.003589445725083351, 0.00676010362803936, -0.004178731702268124, 0.0073891072534024715, -0.006926960777491331, -0.008053041994571686, -0.010674381628632545, 0.009509417228400707, -0.003920179791748524, 0.009013564325869083, -0.005955839063972235, 0.004768147133290768, -0.004935804288834333, -0.008099175058305264, -0.009176689200103283, -0.004614235367625952, -0.009630906395614147, 0.0036402461118996143, -0.009703297168016434, 0.002314018551260233, -0.009063389152288437, -0.003597775474190712, -0.0032523591071367264, -0.00425006402656436, -0.008401710540056229, -0.0026730129029601812, 0.008165807463228703, 0.006187003571540117, -0.00850430317223072, -0.008170723915100098, -0.003668204415589571, -0.0036358062643557787, -0.002821478759869933, 0.004293274600058794, -0.009314030408859253, -0.003125152550637722, -0.003934499341994524, 0.007331586442887783, -0.013930193148553371, 0.0036519088316708803, -0.011360984295606613, -0.004287546034902334, -0.0065802172757685184, 0.005623656790703535, -0.0030314279720187187, 0.0036316998302936554, -0.0038292917888611555, 0.0036344449035823345, -0.006616106256842613, -0.003495963057503104, -0.005510768387466669, 0.003391917096450925, -0.00736639928072691, 0.006279438268393278], [-0.010822364129126072, 0.011920223012566566, -0.005346276797354221, -0.0059716165997087955, -0.006328439339995384, 0.005446060560643673, -0.007402742747217417, -0.002887934911996126, -0.0033904220908880234, -0.02874213084578514, -0.007162348832935095, -0.002324815606698394, 0.005502796731889248, 0.004755566827952862, -0.011764854192733765, -0.025838857516646385, 0.011460181325674057, 0.0049539590254426, 0.006371873430907726, 0.010041694156825542, -0.009040269069373608, -0.011227032169699669, -0.002312468132004142, -0.0021187022794038057, 0.007034074980765581, 0.0062730154022574425, 0.005481043364852667, 0.00702248141169548, -0.005592540837824345, 0.003173497272655368, -0.01088657695800066, 0.0029111020267009735, -0.00607562530785799, -0.007135605439543724, 0.013875529170036316, 0.005631217733025551, -0.005871180444955826, -0.010129714384675026, 0.036812689155340195, 0.010292165912687778, 0.0029877605848014355, 0.006394139025360346, -0.00650062644854188, 0.0027318766806274652, -0.007696998305618763, -0.005491721443831921, -0.006498289760202169, 0.010952017270028591, -0.014232134446501732, -0.005077313631772995, 0.0052532171830534935, 0.005872467998415232, 0.006975025404244661, 0.007836494594812393, -0.0034207331482321024, 0.0022542388178408146, 0.030375109985470772, 0.00535404309630394, -0.003951005171984434, 0.005275281611829996, -0.007372583728283644, -0.03587454557418823, -0.007770777214318514, 0.025429269298911095, -0.016514018177986145, 0.004080081824213266, 0.007974518463015556, 0.005455216392874718, -0.005300075281411409, 0.0033008300233632326, -0.00409513246268034, -0.02769157662987709, -0.004036386031657457, -0.003974997904151678, 0.004393056966364384, 0.011877097189426422, -0.007174319121986628, 0.013113852590322495, -0.01656459830701351, -0.030243046581745148, -0.006671058014035225, 0.007158408872783184, -0.011919773183763027, 0.004922386724501848, -0.005802649538964033, 0.0028237132355570793, -0.0061090076342225075, -0.0026703611947596073, -0.003653229447081685, -0.024830030277371407, -0.009526179172098637, 0.008689342997968197, -0.006588753312826157, 0.007760658394545317, -0.002801343100145459, -0.002591329161077738, -0.011279357597231865, -0.005626601167023182, -0.005788079928606749, -0.006339216139167547, 0.004586667753756046, 0.0059268116019666195, -0.0031696136575192213, -0.004433236084878445, -0.008406472392380238, -0.004713852424174547, -0.0032079799566417933, 0.0077229030430316925, -0.005341625772416592, -0.02121300995349884, -0.0039955670945346355, 0.008111802861094475, -0.00568298390135169, 0.0026741258334368467, -0.005740013904869556, -0.004703837912529707, -0.005987767595797777, 0.008192302659153938, -0.0023479496594518423, 0.012911154888570309, -0.01138562522828579, 0.006515124347060919, -0.006559097673743963, -0.027595171704888344, -0.0057739499025046825, 0.010983921587467194, -0.023330887779593468, 0.0032234410755336285], [-0.0026173086371272802, 0.002992627676576376, -0.004375420976430178, -0.00811038352549076, -0.0020349740516394377, 0.0037429023068398237, -0.00349472020752728, -0.0016804924234747887, -0.0039683748036623, -0.005519846919924021, -0.0040983096696436405, -0.005578379612416029, 0.004722395911812782, 0.002692659618332982, -0.0032440535724163055, -0.0008325459784828126, 0.002853210549801588, 0.00641068909317255, 0.009069763123989105, 0.007244983687996864, -0.003741394728422165, -0.002283497015014291, -0.004391586408019066, -0.004014310892671347, 0.0025055198930203915, 0.0008766716346144676, 0.003920870367437601, 0.0029985758010298014, -0.00267972145229578, 0.0025532578583806753, -0.0030838961247354746, 0.004935416858643293, -0.0037202253006398678, -0.003741336055099964, 0.0032099741511046886, 0.0026045863050967455, -0.002832012949511409, -0.004976305179297924, 0.008565669879317284, 0.0031217921059578657, 0.001591121545061469, 0.007962560281157494, -0.0033477130346000195, 0.0014175570104271173, -0.0010306278709322214, -0.0017603732412680984, -0.0033065436873584986, 0.004453070927411318, -0.0023340468760579824, -0.0025645901914685965, 0.0035282003227621317, 0.0014151212526485324, 0.003886793740093708, 0.0033843840938061476, -0.002505404641851783, 0.0035597882233560085, 0.0022353760432451963, 0.0047132340259850025, -0.0064432090148329735, 0.002824273891746998, -0.00307632889598608, -0.011284340173006058, -0.003347422694787383, 0.0066529251635074615, -0.003029875224456191, 0.003269237233325839, 0.005238329526036978, 0.005530479829758406, -0.002270285738632083, 0.004788884427398443, -0.0031554228626191616, -0.004148055799305439, -0.0027779927477240562, -0.0054439702071249485, 0.0035004885867238045, 0.0036116759292781353, -0.00394075270742178, 0.0011386335827410221, -4.6583943912992254e-05, -0.00503404950723052, -0.0035558314993977547, 0.0009201137581840158, -0.0007746552000753582, 0.003978940658271313, -0.0023968254681676626, 0.004999432247132063, -0.003472519339993596, -0.0037004242185503244, -0.0031754348892718554, -0.004145004320889711, -0.0012229771818965673, 0.004192161373794079, -0.00041022221557796, 0.0029217384289950132, -0.002465397585183382, -0.0017980667762458324, -0.002993624424561858, -0.0008351936703547835, -0.0031043519265949726, -0.002570929005742073, 0.0027966622728854418, 0.0015521604800596833, -0.002229144796729088, -0.0021597740706056356, -0.0011596893891692162, -0.0028317091055214405, -0.0003255826304666698, 0.000742586562409997, -0.0020378718618303537, -0.0024428931064903736, -0.002199153881520033, 0.003115084720775485, -0.0012622949434444308, 0.0037499095778912306, -0.004625130444765091, -0.005829398520290852, -0.0035816554445773363, 0.001845623948611319, -0.003027193946763873, 0.003654035972431302, -0.0009319155942648649, 0.004925059620290995, -0.0033236276358366013, -0.0016873599961400032, -0.002879025414586067, 0.002973231254145503, -0.0020395731553435326, 0.0008945362642407417], [0.003489975119009614, -0.00791246723383665, 0.003901519114151597, 0.004597270395606756, 0.002991210436448455, -0.006634970661252737, 0.003105058567598462, 0.0034138942137360573, 0.008501529693603516, 0.0038530523888766766, 0.003250504145398736, 0.011801445856690407, -0.006303097121417522, -0.011297586373984814, 0.0036965487524867058, 0.003997746389359236, -0.00447831628844142, -0.010572448372840881, -0.00560284499078989, -0.0032759776804596186, 0.0033676798921078444, 0.005573137663304806, 0.009984501637518406, 0.005604295060038567, -0.003238142002373934, -0.00728648342192173, -0.004840553738176823, -0.00776468263939023, 0.0037389060016721487, -0.003324484219774604, 0.004528026096522808, -0.009394497610628605, 0.008162559010088444, 0.004298372659832239, -0.004562812391668558, -0.004045933485031128, 0.003859689924865961, 0.00894924346357584, -0.0028659719973802567, -0.0030878204852342606, -0.003522291546687484, -0.01129532977938652, 0.00348000880330801, -0.0034182206727564335, 0.0018166081281378865, 0.008413570933043957, 0.005764587316662073, -0.0034376310650259256, 0.0036698991898447275, 0.0033054514788091183, -0.008754173293709755, -0.006247696932405233, -0.0030788241419941187, -0.00503165740519762, 0.0032825188245624304, -0.006708973087370396, -0.0043616704642772675, -0.00849167350679636, 0.007824543863534927, -0.009752982296049595, 0.005392963998019695, 0.004932118114084005, 0.004246176686137915, -0.008762091398239136, 0.0033141658641397953, -0.006178237032145262, -0.007567466236650944, -0.00813363865017891, 0.008444522507488728, -0.00487122219055891, 0.00962578784674406, 0.0037413714453577995, 0.004168081097304821, 0.007143106311559677, -0.009227030910551548, -0.0077035995200276375, 0.004633357748389244, -0.003983201924711466, 0.005211083218455315, 0.004201693460345268, 0.0037343697622418404, -0.003967432305216789, 0.004015488084405661, -0.004640682600438595, 0.007235685829073191, -0.003999440465122461, 0.003256245283409953, 0.006847748067229986, 0.01074308343231678, 0.005094194319099188, 0.004950000438839197, -0.010169918648898602, 0.0008499212563037872, -0.00742768170312047, 0.006440769415348768, 0.0038496749475598335, 0.007070600986480713, 0.005362654570490122, 0.0071823447942733765, 0.004193125292658806, -0.0034537632018327713, -0.008236908353865147, 0.0034016703721135855, 0.0035019663628190756, 0.005063530523329973, 0.00854494608938694, 0.004648222122341394, -0.007375285029411316, 0.0036691161803901196, 0.007450327277183533, 0.003976224455982447, -0.004286167677491903, 0.0034693973138928413, -0.003853130154311657, 0.0034877846483141184, 0.007469951640814543, 0.007529380731284618, -0.003468155162408948, 0.013414175249636173, -0.0032603752333670855, 0.006755083333700895, -0.0044373683631420135, 0.003942088223993778, 0.0039739469066262245, 0.007127870339900255, -0.005966829136013985, 0.0036682412028312683, -0.0036123499739915133], [0.00932494830340147, -0.012875447049736977, 0.009507623501121998, 0.00709771690890193, 0.0058128382079303265, -0.011247681453824043, 0.006798282731324434, 0.008593573234975338, 0.0038230044301599264, 0.005372948944568634, 0.004372694995254278, 0.003274055663496256, -0.004544672090560198, -0.015084657818078995, 0.005576362833380699, 0.00435520987957716, -0.004138697870075703, -0.0033804536797106266, -0.014067940413951874, -0.011230254545807838, 0.008136586286127567, 0.006665530614554882, 0.009870723821222782, 0.003813252318650484, -0.007948028855025768, -0.010978818871080875, -0.008013351820409298, -0.008054612204432487, 0.005548383574932814, -0.0027308021672070026, 0.004452031571418047, -0.010014026425778866, 0.007595742587000132, 0.008346027694642544, -0.0075233131647109985, -0.008060237392783165, 0.006154470145702362, 0.007462750189006329, -0.007791741285473108, -0.003111344063654542, -0.006408078595995903, -0.003190824296325445, 0.004137774929404259, -0.003328384133055806, 0.003706463146954775, 0.0071596005000174046, 0.0039095645770430565, -0.006694488693028688, 0.00783553160727024, 0.0077929412946105, -0.003707143012434244, -0.006598884705454111, -0.0002788061392493546, -0.0041295671835541725, 0.006712284404784441, -0.003734052646905184, -0.005935484077781439, -0.01059600431472063, 0.008473684079945087, -0.01138326246291399, 0.002663235878571868, 0.007994243875145912, 0.0010661203414201736, -0.0056109558790922165, 0.006043217144906521, -0.010391808114945889, -0.005385595839470625, -0.011858430691063404, 0.00373546639457345, -0.00879175029695034, 0.012999051250517368, 0.00716732582077384, 0.0121224420145154, 0.00691522192209959, -0.0071379817090928555, -0.005031134467571974, 0.0036658020690083504, -0.0044255927205085754, 0.004006736911833286, 0.007224627770483494, 0.010948730632662773, -0.009663810953497887, 0.007654448039829731, -0.0045214747078716755, 0.010096120648086071, -0.003817817661911249, 0.0034374333918094635, 0.01013516541570425, 0.013349500484764576, 0.010571448132395744, 0.005263907369226217, -0.007007252890616655, 0.006753085181117058, -0.00323471543379128, 0.00327580445446074, 0.006058016791939735, 0.006777947768568993, 0.008075729012489319, 0.009772950783371925, 0.0037891289684921503, -0.0039645410142838955, -0.00810109544545412, 0.007163666654378176, 0.004207470919936895, 0.004380177240818739, 0.011590263806283474, 0.0033442522399127483, -0.0038049500435590744, 0.008378189988434315, 0.003579751355573535, 0.00412436667829752, -0.005785349756479263, 0.010504323989152908, -0.009379291906952858, 0.010802454315125942, 0.00799176748842001, 0.009227520786225796, -0.007456262595951557, 0.004836077801883221, -0.007155940402299166, 0.003358288900926709, -0.008174430578947067, 0.0038463762030005455, 0.005668697413057089, 0.008169388398528099, -0.008763299323618412, 0.005153477191925049, -0.004828220698982477], [0.007313237059861422, -0.0275306086987257, 0.02237277291715145, 0.03388411924242973, 0.02830747701227665, -0.0050789061933755875, 0.0016504002269357443, 0.005479727406054735, 0.031255122274160385, 0.005696453619748354, 0.008435679599642754, 0.004557390231639147, -0.004937885794788599, -0.02268887497484684, 0.005189759656786919, 0.029362834990024567, -0.03185705840587616, -0.002678923076018691, -0.0061560748144984245, -0.0018539465963840485, 0.03181866183876991, 0.028946587815880775, 0.008289778605103493, 0.0017097365343943238, -0.024159913882613182, -0.025691628456115723, -0.03104439005255699, -0.0018908572383224964, 0.028321057558059692, -0.03484827280044556, 0.031747110188007355, -0.0019201543182134628, 0.03417716547846794, 0.023873040452599525, -0.004857804160565138, -0.004868365358561277, 0.03274067863821983, 0.004769386723637581, -0.0147960614413023, -0.02960902638733387, -0.007381831295788288, -0.001429246156476438, 0.004643178544938564, -0.030576186254620552, 0.006449000909924507, 0.0016636386280879378, 0.008752626366913319, -0.005212709773331881, 0.026516875252127647, 0.03609851747751236, -0.03089967742562294, -0.022260528057813644, -0.034489523619413376, -0.034673769026994705, 0.030420074239373207, -0.004725773353129625, -0.005617883056402206, -0.0015892785741016269, 0.02724955603480339, -0.016140591353178024, 0.030790109187364578, 0.01897822506725788, 0.005985389929264784, -0.00518149696290493, 0.005585654638707638, -0.006201499607414007, -0.005482660606503487, -0.00603433046489954, 0.036561012268066406, -0.023537328466773033, 0.021372707560658455, 0.005421903450042009, 0.0013468143297359347, 0.025122202932834625, -0.005514901131391525, -0.004905594978481531, 0.02928929403424263, -0.003978260327130556, 0.03434839844703674, 0.011511540971696377, 0.0017453483305871487, -0.004641162697225809, 0.018117470666766167, -0.0276032742112875, 0.038880735635757446, -0.036605335772037506, 0.02552509680390358, 0.005012971349060535, 0.0017735722940415144, 0.027343207970261574, 0.0065463543869555, -0.005354764871299267, 0.00597044313326478, -0.02977054938673973, 0.0030859156977385283, 0.032094649970531464, 0.004443250130861998, 0.02851330116391182, 0.007791098672896624, 0.027485117316246033, -0.03261040523648262, -0.024919141083955765, 0.0046306573785841465, 0.009090485982596874, 0.016326364129781723, 0.004456083755940199, 0.002223337534815073, -0.005374946165829897, 0.004116624593734741, 0.003869176609441638, 0.008439711295068264, -0.006950648967176676, 0.003889624495059252, -0.025846034288406372, 0.015655627474188805, 0.0015907124616205692, 0.0050351303070783615, -0.03235470503568649, 0.004403649363666773, -0.029213564470410347, 0.003974370192736387, -0.03435778617858887, 0.0017652338137850165, 0.024620356038212776, 0.025827130302786827, -0.026650048792362213, 0.030231066048145294, -0.006050257943570614], [0.017780130729079247, -0.0038067600689828396, 0.004643883556127548, 0.013827822171151638, 0.011859603226184845, -0.016131196171045303, 0.013488154858350754, 0.0046956539154052734, 0.013929624110460281, 0.012159805744886398, 0.016615433618426323, 0.015947220847010612, -0.011682214215397835, -0.014798656105995178, 0.011654832400381565, 0.004670858383178711, -0.006995765492320061, -0.013060850091278553, -0.01342425961047411, -0.01467087771743536, 0.011512761935591698, 0.011625360697507858, 0.015753183513879776, 0.012350388802587986, -0.0040184510871768, -0.0041788374073803425, -0.013708996586501598, -0.014651204459369183, 0.004864043090492487, -0.014692551456391811, 0.01283477246761322, -0.01180148683488369, 0.013593708164989948, 0.01835775561630726, -0.0058930679224431515, -0.014149648137390614, 0.010082549415528774, 0.010727406479418278, -0.004111557267606258, -0.014120799489319324, -0.017916496843099594, -0.011875391937792301, 0.015696268528699875, -0.004783466458320618, 0.018481651321053505, 0.010227513499557972, 0.015279152430593967, -0.01777341030538082, 0.011290231719613075, 0.010779541917145252, -0.010981390252709389, -0.0044540478847920895, -0.014009375125169754, -0.005329333711415529, 0.015581444837152958, -0.01498610433191061, -0.01017238199710846, -0.015837987884879112, 0.012913727201521397, -0.012160136364400387, 0.013014374300837517, 0.0061911954544484615, 0.025991596281528473, -0.01094896625727415, 0.01727096550166607, -0.013592280447483063, -0.011236907914280891, -0.004032453987747431, 0.01590896211564541, -0.017065037041902542, 0.0031974390149116516, 0.004957080818712711, 0.003361512441188097, 0.0040223184041678905, -0.013614374212920666, -0.01339948270469904, 0.018338404595851898, -0.016126012429594994, 0.004392603412270546, 0.01148924045264721, 0.004875565879046917, -0.019756721332669258, 0.012033297680318356, -0.011190813966095448, 0.0051419115625321865, -0.014716917648911476, 0.004459961783140898, 0.007961743511259556, 0.014047697186470032, 0.010287651792168617, 0.02019609697163105, -0.013901411555707455, 0.004542487673461437, -0.014852344989776611, 0.012914073653519154, 0.011332700029015541, 0.017421962693333626, 0.01439353171736002, 0.004197586327791214, 0.005831380374729633, -0.013447496108710766, -0.012852592393755913, 0.004825987387448549, 0.004991550929844379, 0.018200162798166275, 0.015537053346633911, 0.01757742650806904, -0.004644425120204687, 0.020690055564045906, 0.012071629986166954, 0.01589362509548664, -0.011034523136913776, 0.019304942339658737, -0.00478700827807188, 0.004327423870563507, 0.013422916643321514, 0.01561912801116705, -0.01401176955550909, 0.014349068515002728, -0.004743595141917467, 0.013904942199587822, -0.012806279584765434, 0.016242820769548416, 0.013491097837686539, 0.004303499590605497, -0.006660629529505968, 0.004838588647544384, -0.00497502600774169], [-0.005822521168738604, 0.007842469029128551, -0.00361884874291718, -0.004414789378643036, -0.0028531893622130156, 0.009174156934022903, -0.0035978241357952356, -0.0021517686545848846, -0.004362114705145359, -0.004830221179872751, -0.005645636934787035, -0.0031797823030501604, 0.0069888741709291935, 0.00959157943725586, -0.005762751679867506, -0.0014502546982839704, 0.0059309182688593864, 0.006543434225022793, 0.007403469178825617, 0.007472196128219366, -0.004212956875562668, -0.0033773789182305336, -0.010398381389677525, -0.0066180601716041565, 0.0027765249833464622, 0.005650844890624285, 0.002262755297124386, 0.001649038284085691, -0.0040097045712172985, 0.0036841887049376965, -0.0023390701971948147, 0.008099506609141827, -0.0025836084969341755, -0.0033817251678556204, 0.0030393486376851797, 0.0028355647809803486, -0.0029934595804661512, -0.0033135032281279564, 0.011826462112367153, 0.003103322349488735, 0.006088982801884413, 0.007514531724154949, -0.007533774245530367, 0.005536017473787069, -0.0001723325258353725, -0.005775930359959602, -6.057940117898397e-05, 0.006094972137361765, -0.004094836767762899, -0.007552796509116888, 0.007709607947617769, 0.005837562493979931, 0.0009345319704152644, 0.003144920337945223, -0.005031940061599016, 0.005982065573334694, 0.0022997097112238407, 0.0033300432842224836, -0.006230332888662815, 0.00510816927999258, -0.002411506837233901, -0.009745926596224308, -0.00020210906222928315, 0.0034421805758029222, -0.003187485970556736, 0.003206805558875203, 0.004095402080565691, 0.0029287911020219326, -0.002799964975565672, 0.008562278933823109, -0.007261726539582014, -0.006242244504392147, -0.007191081997007132, -0.00666813226416707, 0.003208761103451252, 0.0040868790820240974, -0.003167315386235714, 0.00404991814866662, -0.004006130620837212, -0.006475923117250204, -0.006081829778850079, 0.005909197498112917, -0.0021995168644934893, 0.004669675137847662, -0.0026974608190357685, 0.0028083366341888905, -0.003827249864116311, -0.00791591964662075, -0.008088309317827225, -0.004506288096308708, -0.0024899044074118137, 0.007043894845992327, -0.00023220838920678943, 0.0030075700487941504, -0.0037780979182571173, -0.006873942445963621, -0.004732009023427963, -0.004011774901300669, -0.0029822776559740305, -0.0026248102076351643, 0.00869697704911232, 0.0030043094884604216, -0.000779398949816823, -0.006697340402752161, -0.002466469770297408, -0.00842762179672718, -0.003841918893158436, 0.0035236687399446964, -0.002800664631649852, -0.002730101114138961, -0.0036656870506703854, 0.0027768579311668873, -0.003131628967821598, 0.00603680033236742, -0.00557585246860981, -0.00872559193521738, -0.008637404069304466, 0.004684084560722113, -0.00814052764326334, 0.005987130105495453, -0.0045852079056203365, 0.005049641244113445, -0.005057354923337698, -0.0033106158953160048, -0.002356739481911063, 0.00653120456263423, -0.0028321545105427504, 0.00032596252276562154], [-0.011974706314504147, 0.009180883876979351, -0.013800939545035362, -0.009774490259587765, -0.011535822413861752, 0.01554018072783947, -0.0036917845718562603, -0.013368931598961353, -0.01043203379958868, -0.012830495834350586, -0.007932065986096859, -0.003910651430487633, 0.007233386859297752, 0.004562304820865393, -0.010676505044102669, -0.0040925913490355015, 0.012726535089313984, 0.006635407917201519, 0.01029554009437561, 0.0041149877943098545, -0.0045302752405405045, -0.007859587669372559, -0.012817171402275562, -0.008749566040933132, 0.01047169417142868, 0.006587146781384945, 0.004492293577641249, 0.01265036966651678, -0.013974905014038086, 0.013216257095336914, -0.01059239823371172, 0.0140288220718503, -0.008284926414489746, -0.006666093599051237, 0.006939439568668604, 0.011976772919297218, -0.008121834136545658, -0.008639897219836712, 0.011348019354045391, 0.009764342568814754, 0.014314168132841587, 0.012352488934993744, -0.012057322077453136, 0.009184930473566055, -0.011393489316105843, -0.013017598539590836, -0.00862338487058878, 0.014547880738973618, -0.005048073828220367, -0.010673115029931068, 0.012950928881764412, 0.014192632399499416, 0.009501460939645767, 0.013907643035054207, -0.008282416500151157, 0.009290819987654686, 0.009474125690758228, 0.011371476575732231, -0.008733032271265984, 0.009855772368609905, -0.012714891694486141, -0.015186218544840813, -0.014145766384899616, 0.012536097317934036, -0.01109409611672163, 0.0038101752288639545, 0.01303720660507679, 0.0036230473779141903, -0.007730892859399319, 0.012294557876884937, -0.01138460636138916, -0.01020955853164196, -0.0033559862058609724, -0.0037529231049120426, 0.013018585741519928, 0.008833006024360657, -0.006909147836267948, 0.011859769932925701, -0.009113039821386337, -0.004447320941835642, -0.00948854349553585, 0.013258015736937523, -0.012321550399065018, 0.011415896937251091, -0.014731168746948242, 0.010423745028674603, -0.008469335734844208, -0.006910978816449642, -0.006494869943708181, -0.011434130370616913, -0.006986260414123535, 0.004203157965093851, -0.0035484046675264835, 0.010148568078875542, -0.010992328636348248, -0.006577061489224434, -0.00822378695011139, -0.0124552296474576, -0.006269919686019421, -0.008624606765806675, 0.014046070165932178, 0.01065126433968544, -0.010860785841941833, -0.007764532696455717, -0.004317953251302242, -0.014346716925501823, -0.008260329253971577, 0.013165382668375969, -0.011857121251523495, -0.010413787327706814, -0.004569654818624258, 0.01249393168836832, -0.011616531759500504, 0.011470729485154152, -0.012022185139358044, -0.012469223700463772, -0.0040860865265131, 0.010837924666702747, -0.01132715493440628, 0.01272731926292181, -0.005160938948392868, 0.011895661242306232, -0.009251601062715054, -0.011576500721275806, -0.011454084888100624, 0.013032922521233559, -0.005604627542197704, 0.012698453851044178], [-0.015922410413622856, 0.01064408291131258, -0.015293181873857975, -0.006395306903868914, -0.014166503213346004, 0.018223648890852928, -0.014917434193193913, -0.01407646480947733, -0.0050715189427137375, -0.012940648011863232, -0.012402545660734177, -0.014441975392401218, 0.014411049894988537, 0.0074846637435257435, -0.015627337619662285, -0.01375623606145382, 0.013858319260179996, 0.013090122491121292, 0.0037941394839435816, 0.012525331228971481, -0.014652452431619167, -0.0036428063176572323, -0.014364589937031269, -0.010565942153334618, 0.016260728240013123, 0.004742124117910862, 0.014663121663033962, 0.013681342825293541, -0.004725502338260412, 0.013278459198772907, -0.01090956013649702, 0.004811832681298256, -0.004133318550884724, -0.017754530534148216, 0.014398825354874134, 0.0046782284043729305, -0.010357934050261974, -0.011455821804702282, 0.01595897413790226, 0.005064171738922596, 0.018583418801426888, 0.01479001622647047, -0.0127446623519063, 0.01551151555031538, -0.004929548129439354, -0.015701299533247948, -0.0061855618841946125, 0.014387508854269981, -0.012069025076925755, -0.015762977302074432, 0.012177051976323128, 0.007703494280576706, 0.005696624051779509, 0.0063902041874825954, -0.014008690603077412, 0.013313883915543556, 0.010562105104327202, 0.01507814321666956, -0.004833495244383812, 0.011640259064733982, -0.004781002178788185, -0.015889784321188927, -0.016501493752002716, 0.013320541009306908, -0.010000047273933887, 0.013700525276362896, 0.005487760528922081, 0.015558869577944279, -0.014632657170295715, 0.013673980720341206, -0.013053776696324348, -0.009767656214535236, -0.014236658811569214, -0.015340435318648815, 0.004537373781204224, 0.004331865813583136, -0.01557175349444151, 0.013389852829277515, -0.012969846837222576, -0.011876657605171204, -0.01314502488821745, 0.017520803958177567, -0.013014496304094791, 0.015696842223405838, -0.01487965602427721, 0.015440870076417923, -0.013330934569239616, -0.015575384721159935, -0.013430125080049038, -0.013569428585469723, -0.018425386399030685, 0.016915446147322655, -0.011733551509678364, 0.010077678598463535, -0.01697104424238205, -0.013024389743804932, -0.013847836293280125, -0.01156182773411274, -0.01330226194113493, -0.011563104577362537, 0.011199756525456905, 0.004152143839746714, -0.015411104075610638, -0.01187875960022211, -0.0046388679184019566, -0.016997119411826134, -0.017636587843298912, 0.004534515552222729, -0.011281583458185196, -0.014071375131607056, -0.005127352196723223, 0.013951580040156841, -0.004541829228401184, 0.011890720576047897, -0.0048025525175035, -0.014938147738575935, -0.0135578578338027, 0.014606628566980362, -0.014761531725525856, 0.011809068731963634, -0.012986372224986553, 0.013800947926938534, -0.015166467987000942, -0.014464612118899822, -0.013194572180509567, 0.013751916587352753, -0.01559432316571474, 0.004831843078136444], [-0.003689562901854515, 0.006619569379836321, -0.003454912919551134, -0.0027691505383700132, -0.0005685380310751498, 0.006765174679458141, -0.0037061802577227354, -0.00436184648424387, -0.0031947256065905094, -0.005976226180791855, -0.003136669984087348, -0.007510166149586439, 0.004046812653541565, 0.0034074282739311457, -0.006148689426481724, -0.000674361246638, 0.003117059823125601, 0.007798474282026291, 0.005358580499887466, 0.006532051134854555, -0.0041533163748681545, -0.002155948430299759, -0.0037533617578446865, -0.002947872271761298, 0.003933507949113846, 0.0035392972640693188, 0.0018819664837792516, 0.002849926007911563, -0.005009130109101534, 0.003100222209468484, -0.0037772643845528364, 0.007780421990901232, -0.003981450106948614, -0.0015093358233571053, 0.0048859030939638615, 0.0024722805246710777, -0.002027306007221341, -0.0021834743674844503, 0.007606874220073223, 0.0005429995944723487, 0.006090912036597729, 0.006993343587964773, -0.004067340400069952, 0.004184035584330559, -0.0019326785113662481, -0.003956553526222706, -0.0032603354193270206, 0.00051491754129529, -0.005091897677630186, -0.003684515366330743, 0.006243138108402491, 0.0011692410334944725, 0.0009454145911149681, 0.0031156556215137243, -0.0010978658683598042, 0.004676413722336292, 0.0034034692216664553, 0.0036399418022483587, -0.002849666401743889, 0.002923076506704092, -0.00400811480358243, -0.0030940971337258816, -0.0027389468159526587, 0.002484296914190054, -0.0006415427196770906, 0.0030865820590406656, 0.006992856040596962, 0.003264773404225707, -0.005157163366675377, 0.004398870747536421, -0.004471623804420233, -0.0051584732718765736, -0.0058429911732673645, -0.003623509081080556, 0.002739179180935025, 0.005877555347979069, -0.003127994481474161, 0.0030882605351507664, -0.0028017607983201742, -0.004082546103745699, -0.003150703152641654, 0.003071482991799712, -0.0005532931536436081, 0.005692087579518557, -0.003547350177541375, 0.002069634385406971, -0.0027327765710651875, -0.003552255453541875, -0.006764826364815235, -0.00363006629049778, -0.0013114186003804207, 0.0033581876195967197, -0.0022814832627773285, 0.002308417810127139, -0.005783185362815857, -0.0036052027717232704, -0.004041559994220734, -0.0034638363867998123, -0.003572252579033375, -0.00509763415902853, 0.0030714995227754116, 0.0031088695395737886, -0.00014453078620135784, -0.0044114794582128525, -0.005834471434354782, -0.004374019335955381, -0.003832058282569051, 0.0017770037520676851, -0.003739125095307827, -0.0022430415265262127, -0.00391663983464241, 0.004287175368517637, -0.0034871106036007404, 0.006888422183692455, -0.005355983506888151, -0.005885536782443523, -0.0049586049281060696, 0.002505853306502104, -0.0068295919336378574, 0.0025700374972075224, -0.001665152027271688, 0.00367739493958652, -0.0021655841264873743, -0.004554963205009699, -0.002054800745099783, 0.005578144919127226, -0.003249760251492262, 0.002304448513314128], [0.008311791345477104, -0.0036560643929988146, 0.004462609067559242, 0.010765350423753262, 0.008158358745276928, -0.004021052271127701, 0.008349133655428886, 0.010548511520028114, 0.007299988996237516, 0.00661446712911129, 0.006195425521582365, 0.013266443274915218, -0.004266461357474327, -0.003252932569012046, 0.00466731283813715, 0.0051264469511806965, -0.003977383021265268, -0.012881975620985031, -0.011366558261215687, -0.010626359842717648, 0.003928899299353361, 0.0032054430339485407, 0.012276127003133297, 0.004096959717571735, -0.010860174894332886, -0.006680876947939396, -0.008033777587115765, -0.005483991000801325, 0.008052254095673561, -0.005927545949816704, 0.004415904637426138, -0.009482823312282562, 0.009806430898606777, 0.0073823025450110435, -0.0033263349905610085, -0.010095207951962948, 0.006238601636141539, 0.007437484804540873, -0.004709719214588404, -0.007769323419779539, -0.009260558523237705, -0.014788618311285973, 0.010871109552681446, -0.003752226009964943, 0.003985717426985502, 0.0037918773014098406, 0.00664253905415535, -0.004319156985729933, 0.009188580326735973, 0.010590139776468277, -0.011434842832386494, -0.0035037253983318806, -0.004326547496020794, -0.010123580694198608, 0.007627651561051607, -0.00955711305141449, -0.0044789789244532585, -0.011258609592914581, 0.003528422210365534, -0.012206544168293476, 0.008902549743652344, 0.009090018458664417, 0.004820216912776232, -0.011806469410657883, 0.009846624918282032, -0.00969618745148182, -0.010542046278715134, -0.010922756046056747, 0.004977946635335684, -0.006136130541563034, 0.008047745563089848, 0.00816449522972107, 0.011201848275959492, 0.011090515181422234, -0.011779779568314552, -0.008413593284785748, 0.007033675443381071, -0.011345096863806248, 0.007784534245729446, 0.0036413869820535183, 0.008726715110242367, -0.012794574722647667, 0.0060224286280572414, -0.007863816805183887, 0.005207869689911604, -0.00781650748103857, 0.004349946044385433, 0.009649164974689484, 0.011737083084881306, 0.004101828206330538, 0.005830461625009775, -0.010092593729496002, 0.003282928140833974, -0.01052381657063961, 0.010140018537640572, 0.00558566814288497, 0.010758735239505768, 0.006462129298597574, 0.008989150635898113, 0.0038324182387441397, -0.006765604950487614, -0.0040138461627066135, 0.012223772704601288, 0.009816977195441723, 0.0073195262812078, 0.01173707377165556, 0.011755525134503841, -0.009429997764527798, 0.010077442042529583, 0.006386221386492252, 0.009430107660591602, -0.008681977167725563, 0.01017468236386776, -0.013044136576354504, 0.008321830071508884, 0.0104864202439785, 0.009071984328329563, -0.0036505735479295254, 0.003221697872504592, -0.004343418870121241, 0.007623070385307074, -0.004627051763236523, 0.012070836499333382, 0.010641653090715408, 0.0037823987659066916, -0.003934834618121386, 0.004409882705658674, -0.010201873257756233], [0.008495569229125977, -0.00905930157750845, 0.00769532285630703, 0.0088124955072999, 0.003405606606975198, -0.006933052092790604, 0.006398404948413372, 0.008041254244744778, 0.00803030002862215, 0.005623869597911835, 0.003409755416214466, 0.011232266202569008, -0.003737576538696885, -0.0096005043014884, 0.007045960985124111, 0.0047945366241037846, -0.008279841393232346, -0.011677326634526253, -0.010170282796025276, -0.011695303954184055, 0.004466213285923004, 0.004317819606512785, 0.0038632231298834085, 0.007794070057570934, -0.005649165250360966, -0.004779747221618891, -0.005730380304157734, -0.006392835173755884, 0.005209020338952541, -0.007536992896348238, 0.0022462825290858746, -0.004803764633834362, 0.006939543876796961, 0.005330974236130714, -0.0036404053680598736, -0.0033493642695248127, 0.008535180240869522, 0.008524621836841106, -0.00607382832095027, -0.0029092482291162014, -0.010539773851633072, -0.010830501094460487, 0.009036770090460777, -0.004117543343454599, 0.004791081417351961, 0.003440567059442401, 0.0027115049306303263, -0.004516520071774721, 0.004101958125829697, 0.004822632763534784, -0.005156036466360092, -0.008732988499104977, -0.0027394602075219154, -0.005548418499529362, 0.006588466465473175, -0.007449892349541187, -0.003616125090047717, -0.0035988749004900455, 0.008396990597248077, -0.00957009568810463, 0.005372101906687021, 0.004673255607485771, 0.005502363201230764, -0.007653004489839077, 0.007920918054878712, -0.0077246371656656265, -0.004055533092468977, -0.0031938236206769943, 0.004956206772476435, -0.009546137414872646, 0.0061904690228402615, 0.008263036608695984, 0.008204436860978603, 0.009877871721982956, -0.009282990358769894, -0.006487310864031315, 0.004411841277033091, -0.0035691990051418543, 0.0066589913330972195, 0.004359816666692495, 0.009592944756150246, -0.009984208270907402, 0.004037503153085709, -0.004293815232813358, 0.005459536798298359, -0.0075112152844667435, 0.003920768387615681, 0.009711881168186665, 0.010040325112640858, 0.007200766820460558, 0.002868399489670992, -0.005073107313364744, 0.0023220933508127928, -0.0028769001364707947, 0.008951694704592228, 0.004414321854710579, 0.009805010631680489, 0.0035340788308531046, 0.005643315613269806, 0.005432422272861004, -0.009284238331019878, -0.006229166407138109, 0.002489716513082385, 0.003653217339888215, 0.0057521965354681015, 0.009571855887770653, 0.005985751748085022, -0.006594851613044739, 0.0056430883705616, 0.0037869159132242203, 0.002559961285442114, -0.008246020413935184, 0.00937894731760025, -0.010824507102370262, 0.007609642576426268, 0.0103388587012887, 0.010763335973024368, -0.007358051370829344, 0.014406261965632439, -0.006303812377154827, 0.0031642229296267033, -0.005134767387062311, 0.003968242090195417, 0.0038605451118201017, 0.006619390565901995, -0.0033653168939054012, 0.0061280387453734875, -0.002436209237203002], [-0.005354477092623711, 0.011900579556822777, -0.010323978029191494, -0.0044462354853749275, -0.006474905181676149, 0.01247251033782959, -0.011210598982870579, -0.007375260815024376, -0.008775935508310795, -0.008070414885878563, -0.010945193469524384, -0.010303264483809471, 0.007422931957989931, 0.00819849967956543, -0.0038660268764942884, -0.010846530087292194, 0.008235618472099304, 0.011235636658966541, 0.009709307923913002, 0.01189146563410759, -0.007293860428035259, -0.003338914131745696, -0.007251419126987457, -0.01087136659771204, 0.003676398191601038, 0.005258762277662754, 0.004699768032878637, 0.0040002851746976376, -0.007704919204115868, 0.004473580047488213, -0.010492193512618542, 0.008329514414072037, -0.01140893716365099, -0.010774804279208183, 0.006151912268251181, 0.008576351217925549, -0.005790043622255325, -0.004161014221608639, 0.008524746634066105, 0.004221510142087936, 0.004657883197069168, 0.003543958067893982, -0.004205141682177782, 0.011091268621385098, -0.006271488964557648, -0.008478561416268349, -0.00600931653752923, 0.010984535329043865, -0.004007893148809671, -0.004411729983985424, 0.009857536293566227, 0.008664374239742756, 0.004799720831215382, 0.010476095601916313, -0.006342192180454731, 0.010524693876504898, 0.011044297367334366, 0.011582475155591965, -0.0033721697982400656, 0.011399542912840843, -0.007982118055224419, -0.011367595754563808, -0.008339048363268375, 0.01330537162721157, -0.011502781882882118, 0.008917689323425293, 0.01008423138409853, 0.006441127508878708, -0.008055959828197956, 0.003828940913081169, -0.0031684308778494596, -0.008748956955969334, -0.010475194081664085, -0.0056496537290513515, 0.003875730326399207, 0.004018708597868681, -0.004250143188983202, 0.008329629898071289, -0.0070003024302423, -0.004199711140245199, -0.009261226281523705, 0.00883569661527872, -0.008027389645576477, 0.010638032108545303, -0.009754225611686707, 0.008009560406208038, -0.010033955797553062, -0.01026870310306549, -0.01183377206325531, -0.004460079129785299, -0.00453063054010272, 0.011044670827686787, -0.005006205290555954, 0.007470109965652227, -0.007530684117227793, -0.004141314420849085, -0.004343918990343809, -0.010980591177940369, -0.010770734399557114, -0.009732695296406746, 0.011259577237069607, 0.008357378654181957, -0.004301000386476517, -0.009363233111798763, -0.009180045686662197, -0.009438625536859035, -0.009617402218282223, 0.011672127060592175, -0.0042183781042695045, -0.00987451896071434, -0.009773045778274536, 0.010456690564751625, -0.004162029828876257, 0.009075506590306759, -0.003920091316103935, -0.00843948032706976, -0.011844579130411148, 0.00617370055988431, -0.0032976206857711077, 0.006844442803412676, -0.011421752162277699, 0.006754403468221426, -0.011031671427190304, -0.004498773254454136, -0.0069564408622682095, 0.005456895567476749, -0.005719413515180349, 0.01189421396702528], [0.013641984201967716, -0.0012709095608443022, 0.015475991182029247, 0.015456058084964752, 0.003385853720828891, -0.0013931278372183442, 0.0033992272801697254, 0.014382348395884037, 0.001418312662281096, 0.013944259844720364, 0.01484355516731739, 0.0012893159873783588, -0.003064086427912116, -0.0037631485611200333, 0.0124368816614151, 0.0031210104934871197, -0.005531758069992065, -0.0011654089903458953, -0.003094614250585437, -0.0021278553176671267, 0.003465697867795825, 0.005065827164798975, 0.005390027537941933, 0.013055721297860146, -0.0034439365845173597, -0.001773111056536436, -0.01548780221492052, -0.013822614215314388, 0.0038430781569331884, -0.015858501195907593, 0.0020902673713862896, -0.003066126722842455, 0.001722056302241981, 0.014499884098768234, -0.008828270249068737, -0.002204922726377845, 0.010669791139662266, 0.008786792866885662, -0.0037758948747068644, -0.0038764039054512978, -0.015440206043422222, -0.0053194561041891575, 0.004407593514770269, -0.003021566430106759, 0.002566894283518195, 0.014016080647706985, 0.015175556764006615, -0.014654641039669514, 0.01450083777308464, 0.01097625121474266, -0.007746370043605566, -0.007307808846235275, -0.014988120645284653, -0.0007738776621408761, 0.003784686094149947, -0.0038575923535972834, -0.01565507799386978, -0.012768198736011982, 0.0017116825329139829, -0.002776858163997531, 0.014425503090023994, 0.011509551666676998, 0.009581700898706913, -0.0009739533998072147, 0.002659254241734743, -0.008843726478517056, -0.003128248266875744, -0.0010574564803391695, 0.0006514978595077991, -0.003129837801679969, 0.005040227435529232, 0.0034563743975013494, 0.0020148223266005516, 0.004919263068586588, -0.0020443846005946398, -0.0027723154053092003, 0.002955763367936015, -0.013047922402620316, 0.014081066474318504, 0.002258394844830036, 0.007345589809119701, -0.0007841240148991346, 0.00526204751804471, -0.01308358646929264, 0.0035865253303200006, -0.014254777692258358, 0.0030455966480076313, 0.00283426814712584, 0.003264873055741191, 0.002983319340273738, 0.015569099225103855, -0.011851266957819462, 0.0018773071933537722, -0.0018564026104286313, 0.007001045159995556, 0.004079204518347979, 0.0028357713017612696, 0.015861503779888153, 0.003436226164922118, 0.005792892072349787, -0.0005024510901421309, -0.003166249953210354, 0.003300250042229891, 0.015472645871341228, 0.014065701514482498, 0.0028796771075576544, 0.016036391258239746, -0.0026400748174637556, 0.0064684804528951645, 0.001990155316889286, 0.0017937346128746867, -0.014843509532511234, 0.0063518923707306385, -0.014269535429775715, 0.006636073347181082, 0.00988182332366705, 0.006655821576714516, -0.005110148806124926, 0.0022324086166918278, -0.0011041400721296668, 0.01476708147674799, -0.00012804256402887404, 0.012572942301630974, 0.0013798843137919903, 0.01299736462533474, -0.007398446090519428, 0.004384676460176706, -0.01466092187911272], [0.015991460531949997, -0.004699008539319038, 0.005801863968372345, 0.02225533127784729, 0.020079925656318665, -0.013016615994274616, 0.012885396368801594, 0.02375972643494606, 0.03187379240989685, 0.00848157238215208, 0.017241522669792175, 0.009804456494748592, -0.005585637409240007, -0.0019648545421659946, 0.004275245126336813, 0.006169802043586969, -0.023179471492767334, -0.004307678434997797, -0.007261951453983784, -0.012625539675354958, 0.022353436797857285, 0.005036617163568735, 0.02480180747807026, 0.03049766644835472, -0.011655059643089771, -0.002404189435765147, -0.0070847501046955585, -0.011657003313302994, 0.006865760311484337, -0.010393358767032623, 0.021139241755008698, -0.011482431553304195, 0.011571906507015228, 0.005335203837603331, -0.02207917533814907, -0.020357193425297737, 0.010921192355453968, 0.021510841324925423, -0.01648615673184395, -0.020620282739400864, -0.01340156514197588, -0.0037466681096702814, 0.013805244117975235, -0.02385576441884041, 0.013018214143812656, 0.0019918729085475206, 0.01288405992090702, -0.012191073969006538, 0.007014893926680088, 0.024723777547478676, -0.006841667927801609, -0.0054749962873756886, -0.01892749033868313, -0.022470545023679733, 0.014060716144740582, -0.013528186827898026, -0.025009559467434883, -0.0016771996160969138, 0.004308136645704508, -0.0204274021089077, 0.013274741359055042, 0.02282894402742386, 0.002695137867704034, -0.006900717969983816, 0.005788331851363182, -0.021605107933282852, -0.024530204012989998, -0.0014608545461669564, 0.003482832107692957, -0.02370982989668846, 0.011645358987152576, 0.026181505993008614, 0.0023992990609258413, 0.013326043263077736, -0.021964898332953453, -0.015911173075437546, 0.006014727987349033, -0.005585617385804653, 0.018101785331964493, 0.023075776174664497, 0.01511966809630394, -0.00203206785954535, 0.01130705326795578, -0.005037081893533468, 0.01786673627793789, -0.005722653586417437, 0.005003173369914293, 0.011804446578025818, 0.02109196037054062, 0.02733093686401844, 0.012767661362886429, -0.01588847115635872, 0.005447744391858578, -0.004051015246659517, 0.015543710440397263, 0.019974229857325554, 0.012375248596072197, 0.026485497131943703, 0.01996438391506672, 0.017609840258955956, -0.00639893626794219, -0.005249990150332451, 0.006052103824913502, 0.011525020003318787, 0.011195738799870014, 0.014305133372545242, 0.01595385931432247, -0.01621483638882637, 0.011866344138979912, 0.00410474045202136, 0.020475374534726143, -0.01848355121910572, 0.007416743319481611, -0.00536634586751461, 0.00479634664952755, 0.003553893184289336, 0.01068449579179287, -0.01794358715415001, 0.0031971512362360954, -0.005582572892308235, 0.012852062471210957, -0.016949312761425972, 0.015994690358638763, 0.023418676108121872, 0.012500396929681301, -0.01773015409708023, 0.025013552978634834, -0.013015233911573887], [-0.014405804686248302, 0.00251379469409585, -0.014694295823574066, -0.01429917011409998, -0.01645289920270443, 0.016367586329579353, -0.004181436728686094, -0.015087267383933067, -0.005317197646945715, -0.019277462735772133, -0.005545633379369974, -0.0017468389123678207, 0.01670670323073864, 0.0015390899498015642, -0.014579596929252148, -0.014252018183469772, 0.013297676108777523, 0.009998824447393417, 0.001921328017488122, 0.0033305601682513952, -0.005586042068898678, -0.004305408801883459, -0.0049769761972129345, -0.017025690525770187, 0.013152646832168102, 0.013777269050478935, 0.016297614201903343, 0.011958046816289425, -0.015158060006797314, 0.008024553768336773, -0.01586383767426014, 0.006258055102080107, -0.004378152545541525, -0.0057661873288452625, 0.004772291053086519, 0.013699588365852833, -0.010818873532116413, -0.014246059581637383, 0.004826645366847515, 0.016244128346443176, 0.014010646380484104, 0.008448622189462185, -0.004812541883438826, 0.005837847478687763, -0.005629279185086489, -0.004625449422746897, -0.016129054129123688, 0.005368179641664028, -0.014535152353346348, -0.017830602824687958, 0.014309672638773918, 0.015124698169529438, 0.015953637659549713, 0.0059632002376019955, -0.005485591944307089, 0.010672785341739655, 0.01699873059988022, 0.013112805783748627, -0.0029194618109613657, 0.004125079605728388, -0.014015432447195053, -0.006774508859962225, -0.013424977660179138, 0.022382238879799843, -0.014421293511986732, 0.0041532963514328, 0.005457242019474506, 0.012422055937349796, -0.0100144874304533, 0.007767053786665201, -0.009492267854511738, -0.01764635182917118, -0.001491032657213509, -0.015688106417655945, 0.012905712239444256, 0.014417313039302826, -0.016156477853655815, 0.0020745161455124617, -0.005127635318785906, -0.005407080054283142, -0.011229117400944233, 0.0048647066578269005, -0.0057074641808867455, 0.013581856153905392, -0.005690950900316238, 0.012419360689818859, -0.013753600418567657, -0.01392350997775793, -0.0021952136885374784, -0.013994715176522732, -0.014352884143590927, 0.014542878605425358, -0.0031072397250682116, 0.009690362960100174, -0.007534311152994633, -0.018037067726254463, -0.012870674952864647, -0.018708743155002594, -0.004866541363298893, -0.008081148378551006, 0.017056945711374283, 0.006947321817278862, -0.0069465371780097485, -0.014145741239190102, -0.011961032636463642, -0.009070584550499916, -0.005913089029490948, 0.01492325123399496, -0.013248132541775703, -0.012805627658963203, -0.014222013764083385, 0.01577841304242611, -0.01057632826268673, 0.015297959558665752, -0.014546725898981094, -0.007605110295116901, -0.01311542373150587, 0.01228454988449812, -0.004156993702054024, 0.004194241017103195, -0.016130667179822922, 0.014817452058196068, -0.012659464962780476, -0.014266693964600563, -0.013325522653758526, 0.013467533513903618, -0.017797023057937622, 0.006399971432983875], [0.0109522994607687, -0.012444080784916878, 0.007316121831536293, 0.003632047912105918, 0.005964151583611965, -0.010978021658957005, 0.0022527133114635944, 0.00574090052396059, 0.003509857226163149, 0.006455985829234123, 0.006883114576339722, 0.009421493858098984, -0.005515331868082285, -0.003772507654502988, 0.011963172815740108, 0.03182246536016464, -0.02284965105354786, -0.004699066746979952, -0.004908646456897259, -0.004292585421353579, 0.013822212815284729, 0.012985537759959698, 0.006065215449780226, 0.0063982075080275536, -0.005875570233911276, -0.005117029417306185, -0.01670769229531288, -0.002767219441011548, 0.011757411994040012, -0.005369259975850582, 0.02464917302131653, -0.006330257747322321, 0.011165501549839973, 0.005132689606398344, -0.029895737767219543, -0.01166739035397768, 0.004800681956112385, 0.004921732936054468, -0.0460963100194931, -0.014164970256388187, -0.006125126499682665, -0.0022335206158459187, 0.005472508724778891, -0.017644470557570457, 0.013265007175505161, 0.004485909827053547, 0.009815889410674572, -0.008024073205888271, 0.010597567074000835, 0.005708170589059591, -0.005783098749816418, -0.006709242705255747, -0.008398633450269699, -0.004263781942427158, 0.010331762954592705, -0.004666595254093409, -0.008711532689630985, -0.007450012024492025, 0.024891391396522522, -0.007020385004580021, 0.01037584152072668, 0.00829644501209259, 0.007725567556917667, -0.02590949274599552, 0.0066143847070634365, -0.006822936236858368, -0.005541729740798473, -0.00516152661293745, 0.004832297097891569, -0.011851423420011997, 0.009410619735717773, 0.008883772417902946, 0.0038798192981630564, 0.00785098597407341, -0.005713040940463543, -0.005955505650490522, 0.00799649115651846, -0.01317172683775425, 0.017207954078912735, 0.008857707493007183, 0.004837237764149904, -0.0057581569999456406, 0.005946969147771597, -0.0058699240908026695, 0.005685852374881506, -0.005165517795830965, 0.005198316182941198, 0.005108055658638477, 0.004767861682921648, 0.012308378703892231, 0.005862442310899496, -0.0025045282673090696, 0.02914492040872574, -0.010737227275967598, 0.006942584179341793, 0.00264595914632082, 0.003053084947168827, 0.035139329731464386, 0.005252286791801453, 0.015411258675158024, -0.00618417514488101, -0.01561704371124506, 0.006621711887419224, 0.027141006663441658, 0.011076893657445908, 0.004164640326052904, 0.006607583723962307, -0.009422358125448227, 0.00532168336212635, 0.0381871834397316, 0.008339076302945614, -0.006769288331270218, 0.0065927463583648205, -0.0025296080857515335, 0.004919665399938822, 0.005530690308660269, 0.004591398872435093, -0.008254161104559898, 0.004301711451262236, -0.006355318706482649, 0.005872099194675684, -0.00612990465015173, 0.006115685682743788, 0.03318888694047928, 0.006601622328162193, -0.005911457818001509, 0.02961367554962635, -0.009140679612755775], [0.008116751909255981, -0.010526779107749462, 0.0063407039269804955, 0.005136929918080568, 0.004225757904350758, -0.013830889016389847, 0.009909410960972309, 0.00477817514911294, 0.007917927578091621, 0.004604248329997063, 0.004504723008722067, 0.014097020961344242, -0.010138535872101784, -0.013077963143587112, 0.009474026039242744, 0.008294697850942612, -0.010865564458072186, -0.004092583432793617, -0.009506014175713062, -0.00588929932564497, 0.003991690929979086, 0.010359312407672405, 0.01340552419424057, 0.010608518496155739, -0.003890818916261196, -0.014456134289503098, -0.005939343478530645, -0.004163424018770456, 0.01216624304652214, -0.009184707887470722, 0.0046649812720716, -0.014426806010305882, 0.0036307971458882093, 0.014733592048287392, -0.008336429484188557, -0.01034698449075222, 0.004014885518699884, 0.004207664635032415, -0.010293141938745975, -0.005166772753000259, -0.012010856531560421, -0.0041304342448711395, 0.014710201881825924, -0.010726195760071278, 0.010544845834374428, 0.014928672462701797, 0.004982544109225273, -0.011280090548098087, 0.009508047252893448, 0.004797582980245352, -0.012336235493421555, -0.004584033973515034, -0.0044650970958173275, -0.012434981763362885, 0.004837134853005409, -0.009992341510951519, -0.008792719803750515, -0.011302736587822437, 0.010310822166502476, -0.00911455787718296, 0.010403244756162167, 0.011760820634663105, 0.010159289464354515, -0.00620470754802227, 0.008089457638561726, -0.011187400668859482, -0.012514147907495499, -0.005291228648275137, 0.0141254011541605, -0.01567510887980461, 0.012612521648406982, 0.010617409832775593, 0.01187513954937458, 0.01082404050976038, -0.009260591119527817, -0.0038882861845195293, 0.0129389688372612, -0.0039792368188500404, 0.011597190983593464, 0.006717630196362734, 0.013933748938143253, -0.007181377615779638, 0.0037411830853670835, -0.012597776018083096, 0.00931298267096281, -0.004562957212328911, 0.011795656755566597, 0.006457659415900707, 0.008547617122530937, 0.004299513064324856, 0.01431393250823021, -0.013594167307019234, 0.006512549240142107, -0.005398866720497608, 0.010234490968286991, 0.010688475333154202, 0.014586188830435276, 0.006419546436518431, 0.010052114725112915, 0.01057065837085247, -0.010720738209784031, -0.013006278313696384, 0.014400766231119633, 0.004106431268155575, 0.011010641232132912, 0.013756527565419674, 0.013880223035812378, -0.010081331245601177, 0.012243511155247688, 0.007416606415063143, 0.004478135611861944, -0.012374705635011196, 0.01594793237745762, -0.014323716051876545, 0.004361073952168226, 0.0103529067710042, 0.013091286644339561, -0.010037879459559917, 0.01724330708384514, -0.007185745984315872, 0.012519370764493942, -0.01020587794482708, 0.012648981995880604, 0.008029990829527378, 0.012893752194941044, -0.010797758586704731, 0.011510632000863552, -0.014010388404130936], [0.003887261962518096, -0.003530683694407344, 0.009570046328008175, 0.009748956188559532, 0.0036711080465465784, -0.00438294280320406, 0.004440309479832649, 0.009625176899135113, 0.008180011063814163, 0.001769061665982008, 0.004480546806007624, 0.012186541222035885, -0.003927798941731453, -0.008578416891396046, 0.005953239277005196, 0.006847602315247059, -0.007873203605413437, -0.009970531798899174, -0.010131350718438625, -0.008508574217557907, 0.0037762129213660955, 0.003415257902815938, 0.010355898179113865, 0.009198416955769062, -0.008423013612627983, -0.00782898161560297, -0.00811951793730259, -0.0035994870122522116, 0.0042058127000927925, -0.007012554444372654, 0.005615197587758303, -0.0078120604157447815, 0.0072652418166399, 0.005271537229418755, -0.003929081838577986, -0.0065413471311330795, 0.008957630023360252, 0.007391801569610834, -0.002925748471170664, -0.007579675409942865, -0.004025022499263287, -0.009981164708733559, 0.009199324995279312, -0.008130916394293308, 0.007562961895018816, 0.005695397965610027, 0.0033003089483827353, -0.00757445627823472, 0.009870645590126514, 0.006274321582168341, -0.0074023958295583725, -0.0043168324045836926, -0.004116700030863285, -0.004862620960921049, 0.004265789408236742, -0.004740677308291197, -0.006853275932371616, -0.004198201932013035, 0.007647344376891851, -0.0033232569694519043, 0.006659157574176788, 0.0049428995698690414, 0.005158262327313423, -0.009120441041886806, 0.004027840681374073, -0.00528775155544281, -0.005644288845360279, -0.003986900672316551, 0.008356777019798756, -0.0014493322232738137, 0.008427422493696213, 0.004180986434221268, 0.007764578331261873, 0.006212521344423294, -0.008191326633095741, -0.008312485180795193, 0.0055138058960437775, -0.003814987139776349, 0.005385904107242823, 0.008470797911286354, 0.003865207778289914, -0.007466552779078484, 0.007614766713231802, -0.006287907250225544, 0.009574908763170242, -0.003895884146913886, 0.0038916030898690224, 0.003816723357886076, 0.010899428278207779, 0.006355214864015579, 0.010082116350531578, -0.009791303426027298, 0.007246967405080795, -0.007947027683258057, 0.0093219093978405, 0.004667778965085745, 0.007108200807124376, 0.006234335247427225, 0.0037012933753430843, 0.00524440361186862, -0.003886621445417404, -0.0060584768652915955, 0.008957857266068459, 0.008039524778723717, 0.007361003663390875, 0.007966418750584126, 0.009024779312312603, -0.007966193370521069, 0.004213922191411257, 0.006494614295661449, 0.008662104606628418, -0.004571820143610239, 0.005999086890369654, -0.004320763051509857, 0.007222694344818592, 0.003913680091500282, 0.0038188365288078785, -0.005802377592772245, 0.004521927796304226, -0.00368375307880342, 0.009605747647583485, -0.009790719486773014, 0.006373411510139704, 0.008892545476555824, 0.008210116066038609, -0.006163624580949545, 0.0037759379483759403, -0.008632238954305649], [-0.004551456309854984, 0.0031330049969255924, -0.0047913179732859135, -0.003702552057802677, -0.0022606418933719397, 0.005528106354176998, -0.002757077803835273, -0.003723116358742118, -0.002230471232905984, -0.0028073913417756557, -0.00027093570679426193, -0.005356536712497473, 0.0012010375503450632, 0.003921109717339277, -0.004468604922294617, -0.0008521524141542614, 0.002178006572648883, 0.002966503845527768, 0.0032410079147666693, 0.007420710753649473, -0.0037541023921221495, -0.0024206878151744604, -0.003098070155829191, -0.001557420240715146, 0.003158415900543332, 0.0008757499745115638, 0.0024292506277561188, 0.0006078442092984915, -0.004235531203448772, 0.002872415352612734, -0.0027321125380694866, 0.00332623184658587, -0.005126523785293102, -0.0037251515313982964, 0.0031305940356105566, 0.0021751869935542345, -0.0032448593992739916, -0.0016808324726298451, 0.0039521134458482265, 0.0010012495331466198, 0.002529866760596633, 0.00925267580896616, -0.00455802446231246, 0.0006389489863067865, -0.004129796288907528, -0.0010626724688336253, -0.015331659466028214, 0.0033214043360203505, -0.001303821918554604, -0.0031842554453760386, 0.0035706921480596066, 0.0016465872758999467, 0.014827525243163109, 0.004123377148061991, -0.000963834987487644, 0.0034432807005941868, 0.002846525050699711, 0.0017141005955636501, -0.0054399254731833935, 0.0029070554301142693, -0.0027695766184479, -0.006836988497525454, -0.0028326830361038446, 0.0022547871340066195, -0.0014916718937456608, 0.002978174714371562, 0.0050141457468271255, 0.0036000055260956287, -0.002857052255421877, 0.0034937686286866665, -0.0024012781213968992, -0.006095191463828087, -0.002531945938244462, -0.0019585145637392998, 0.002955639734864235, 0.004225036595016718, -0.0009218935738317668, 0.001877439091913402, -0.014496928080916405, -0.0027630820404738188, -0.0036895661614835262, 0.0017775094602257013, -0.0023756090085953474, 0.004191252868622541, -0.0039153252728283405, 0.0046350713819265366, -0.0015762497205287218, -0.002924564527347684, -0.005647609476000071, -0.004931981209665537, -0.0038766786456108093, 0.0021171753760427237, -0.007288366090506315, 0.000526036077644676, -0.0027515694964677095, -0.004412197042256594, -0.005025583319365978, -0.0027099987491965294, -0.0011219095904380083, -4.544194234767929e-05, 0.004885787144303322, 0.0016169227892532945, -0.015385087579488754, -0.0024798635859042406, -0.0031620613299310207, -0.005929755046963692, -0.0005049855099059641, 0.003682442009449005, -0.0012780292890965939, -0.002986360341310501, -0.0024541900493204594, 0.0004897120525129139, -0.0033145928755402565, 0.002084114821627736, -0.0044234865345060825, -0.003989512100815773, -0.003201301908120513, 0.0024423946160823107, -0.0030161042232066393, 0.0022322372533380985, -0.004263872280716896, 0.0056748948991298676, -0.00014346481475513428, -0.0007562065147794783, -0.002470937790349126, 0.005358295515179634, -0.0007067511905916035, 0.0031801017466932535], [-0.013234126381576061, 0.011094942688941956, -0.014619206078350544, -0.00911772157996893, -0.009661241434514523, 0.004388909321278334, -0.0038711668457835913, -0.012027496472001076, -0.00485772592946887, -0.009939275681972504, -0.004887809976935387, -0.003571131033822894, 0.004536411724984646, 0.01330315787345171, -0.0044303108006715775, -0.009334748610854149, 0.004339825827628374, 0.01190002728253603, 0.011891541071236134, 0.0038293793331831694, -0.004334375262260437, -0.011785075068473816, -0.01371122244745493, -0.009138496592640877, 0.003704369068145752, 0.014111962169408798, 0.010415214113891125, 0.011070788837969303, -0.014888201840221882, 0.004427202511578798, -0.012466887943446636, 0.0046872482635080814, -0.00381461507640779, -0.012989438138902187, 0.010243027471005917, 0.01105952076613903, -0.010922365821897984, -0.012593298219144344, 0.004792926833033562, 0.011107536032795906, 0.011104575358331203, 0.013219528831541538, -0.004241454880684614, 0.00918644480407238, -0.00994417816400528, -0.01361236535012722, -0.014027943834662437, 0.014371170662343502, -0.01393428910523653, -0.010892832651734352, 0.015034123323857784, 0.00961137656122446, 0.00905865989625454, 0.012528817169368267, -0.012649024836719036, 0.011328767985105515, 0.00548648601397872, 0.006005794275552034, -0.012780031189322472, 0.01305114384740591, -0.011342908255755901, -0.005048649851232767, -0.004797210916876793, 0.010934309102594852, -0.004278430715203285, 0.0095643550157547, 0.012577689252793789, 0.011107918806374073, -0.012791972607374191, 0.008706418797373772, -0.01266278326511383, -0.009156947955489159, -0.011225339956581593, -0.003763082902878523, 0.011791312135756016, 0.0087190056219697, -0.011524360626935959, 0.013413120992481709, -0.011576219461858273, -0.0017176136607304215, -0.011684215627610683, 0.012805095873773098, -0.0039518955163657665, 0.004609896335750818, -0.005188381765037775, 0.01330580934882164, -0.00386218074709177, -0.010131741873919964, -0.012518569827079773, -0.013335268013179302, -0.00449584424495697, 0.013180297799408436, -0.0037627997808158398, 0.012945013120770454, -0.013559199869632721, -0.0041528064757585526, -0.011481220833957195, -0.013030356727540493, -0.010669359937310219, -0.011616642586886883, 0.008688843809068203, 0.009807555936276913, -0.015928400680422783, -0.013392405584454536, -0.004208800848573446, -0.015477833338081837, -0.011945964768528938, 0.010558071546256542, -0.004451845772564411, -0.003948282916098833, -0.012471661902964115, 0.010120155289769173, -0.013364631682634354, 0.011534105986356735, -0.013544423505663872, -0.013672673143446445, -0.012326418422162533, 0.0038300217129290104, -0.01464024093002081, 0.011779345571994781, -0.011326891370117664, 0.004086531698703766, -0.015184050425887108, -0.01110762357711792, -0.004828051198273897, 0.004205786157399416, -0.009608051739633083, 0.014625763520598412], [0.004674823489040136, -0.020566368475556374, 0.02546602115035057, 0.022890539839863777, 0.023184459656476974, -0.0047526112757623196, 0.02332855947315693, 0.019758857786655426, 0.02091282792389393, 0.01607074961066246, 0.0046480633318424225, 0.01424312498420477, -0.01476399227976799, -0.003687424585223198, 0.026402177289128304, 0.004839948378503323, -0.005687566939741373, -0.004185813013464212, -0.0035805879160761833, -0.012791691347956657, 0.02158758044242859, 0.02040134370326996, 0.020411306992173195, 0.022754790261387825, -0.004256605636328459, -0.005067639984190464, -0.02522791549563408, -0.020794086158275604, 0.004567021504044533, -0.026847321540117264, 0.019419968128204346, -0.005110655911266804, 0.02510567009449005, 0.004114985466003418, -0.02176746539771557, -0.02370748482644558, 0.023134076967835426, 0.023729752749204636, -0.0057214475236833096, -0.0214708149433136, -0.0012904132017865777, -0.0038581539411097765, 0.010029641911387444, -0.005097970832139254, 0.019674940034747124, 0.0033937841653823853, 0.004866710864007473, -0.004642374813556671, 0.025314917787909508, 0.02326822094619274, -0.024309778586030006, -0.01953844726085663, -0.024109309539198875, -0.020046738907694817, 0.02370818890631199, -0.02825239486992359, -0.01572435349225998, -0.016704941168427467, 0.01990901120007038, -0.004957591649144888, 0.004611584823578596, 0.005747165996581316, 0.004468793049454689, -0.003909759223461151, 0.025565875694155693, -0.023887846618890762, -0.0188438817858696, -0.0013134162873029709, 0.02987167425453663, -0.005500082392245531, 0.020950306206941605, 0.004555828869342804, 0.020159779116511345, 0.02562721073627472, -0.01496319193392992, -0.004449665080755949, 0.025179004296660423, -0.0011320860357955098, 0.022710850462317467, 0.018112927675247192, 0.0023933975026011467, -0.003371721599251032, 0.02583366446197033, -0.019756823778152466, 0.022103698924183846, -0.023019414395093918, 0.027103496715426445, 0.004320049192756414, 0.020963309332728386, 0.004856296349316835, 0.005204802844673395, -0.014273201115429401, 0.014193736016750336, -0.015475348569452763, 0.0041736275888979435, 0.0059544723480939865, 0.01663905940949917, 0.01955166645348072, 0.022193286567926407, 0.019816525280475616, -0.02160170115530491, -0.008640510961413383, 0.003961196169257164, 0.003894219873473048, 0.020121412351727486, 0.004891640972346067, 0.02465331368148327, -0.023567428812384605, 0.0015819431282579899, 0.018170125782489777, 0.005116858519613743, -0.025408679619431496, 0.004672548733651638, -0.013959716074168682, 0.020887911319732666, 0.003810302587226033, 0.018047479912638664, -0.020820114761590958, 0.004151791334152222, -0.02701127901673317, 0.014068885706365108, -0.004902515560388565, 0.009851580485701561, 0.004860274959355593, 0.02104347199201584, -0.004221944138407707, 0.01964697241783142, -0.005424437113106251], [0.011493346653878689, -0.014649739488959312, 0.012661975808441639, 0.0069570778869092464, 0.011211329139769077, -0.012944377958774567, 0.010996678844094276, 0.010796712711453438, 0.013459357433021069, 0.008710374124348164, 0.012060265056788921, 0.01567956432700157, -0.01018147636204958, -0.013214904814958572, 0.004076896235346794, 0.010226312093436718, -0.014061099849641323, -0.01461487915366888, -0.013635273091495037, -0.003838655538856983, 0.004447150509804487, 0.004102344159036875, 0.013509376905858517, 0.003717356827110052, -0.012100706808269024, -0.01426498219370842, -0.009677024558186531, -0.004017041530460119, 0.015477050095796585, -0.009698490612208843, 0.004471656400710344, -0.013333535753190517, 0.011184422299265862, 0.012723037041723728, -0.00404328340664506, -0.012147110886871815, 0.012346173636615276, 0.0043429057113826275, -0.005896782502532005, -0.011657219380140305, -0.01618325337767601, -0.003310434753075242, 0.015410014428198338, -0.008079259656369686, 0.009904791601002216, 0.004218245390802622, 0.004203336779028177, -0.0117473304271698, 0.01076604425907135, 0.014773976989090443, -0.010439051315188408, -0.01271839439868927, -0.004183751996606588, -0.01200286578387022, 0.010607258416712284, -0.004057364072650671, -0.009509214200079441, -0.011242254637181759, 0.0036792843602597713, -0.003486981615424156, 0.012790746055543423, 0.01445273868739605, 0.013261795975267887, -0.0025483097415417433, 0.01304014865309, -0.010827528312802315, -0.009588857181370258, -0.0149342967197299, 0.011805442161858082, -0.009722612798213959, 0.003562457859516144, 0.013158608227968216, 0.0115670682862401, 0.010541211813688278, -0.011086711660027504, -0.004439336247742176, 0.013362668454647064, -0.004248243756592274, 0.004798928741365671, 0.0034427933860570192, 0.0130654601380229, -0.014880847185850143, 0.004058037418872118, -0.010127449408173561, 0.0066175577230751514, -0.010784506797790527, 0.012114751152694225, 0.011499423533678055, 0.015024062246084213, 0.009974882937967777, 0.011627553030848503, -0.004654593765735626, 0.0039131115190684795, -0.011204537004232407, 0.004487064201384783, 0.00444159796461463, 0.004386564251035452, 0.01222285907715559, 0.0040190210565924644, 0.013436623848974705, -0.01294583361595869, -0.004314286168664694, 0.00500144949182868, 0.004668812267482281, 0.0155324162915349, 0.017293084412813187, 0.013957680203020573, -0.015393520705401897, 0.016147954389452934, 0.012223276309669018, 0.004557889886200428, -0.010538019239902496, 0.014901422895491123, -0.011097894981503487, 0.013099419884383678, 0.012104816734790802, 0.011580230668187141, -0.008703709580004215, 0.018056290224194527, -0.004232611507177353, 0.004543141927570105, -0.004398191813379526, 0.004048645030707121, 0.011807559989392757, 0.011227941140532494, -0.010067748837172985, 0.012269172817468643, -0.015180028043687344], [-0.004861955065280199, 0.006629368290305138, -0.00551355117931962, -0.0036364903207868338, -0.005503855179995298, 0.009329790249466896, -0.003131123958155513, -0.005456051789224148, -0.008405906148254871, -0.00664843525737524, -0.0032966011203825474, -0.009211516007781029, 0.004468194674700499, 0.007541001308709383, -0.004144631326198578, -0.003223096951842308, 0.0037352624349296093, 0.00869014486670494, 0.007819496095180511, 0.003578901058062911, -0.003170956624671817, -0.005108886864036322, -0.006950750946998596, -0.005272644106298685, 0.006737830583006144, 0.004717327654361725, 0.0036560078151524067, 0.005526290740817785, -0.0045725819654762745, 0.002945579821243882, -0.004193887580186129, 0.004435053560882807, -0.008457676507532597, -0.006589650642126799, 0.005746733397245407, 0.0083334781229496, -0.00755686592310667, -0.007007426582276821, 0.0043271007016301155, 0.0064703477546572685, 0.0037823552265763283, 0.009319895878434181, -0.008780095726251602, 0.004294404294341803, -0.00442065903916955, -0.00377043429762125, -0.005952386651188135, 0.0036383490078151226, -0.006928401533514261, -0.008361651562154293, 0.005868368782103062, 0.007816044613718987, 0.0016230723122134805, 0.004739902447909117, -0.00399041036143899, 0.003744506975635886, 0.003438052721321583, 0.005758314859122038, -0.008158943615853786, 0.009138640947639942, -0.006113579496741295, -0.007684438489377499, -0.006663974840193987, 0.007823658175766468, -0.003940882161259651, 0.007304866332560778, 0.009613784961402416, 0.008040291257202625, -0.004055954981595278, 0.002146906917914748, -0.0062265279702842236, -0.009789636358618736, -0.00701134605333209, -0.00581839494407177, 0.004576989449560642, 0.004770927596837282, -0.006381995975971222, 0.004054611083120108, -0.006171020213514566, -0.00395010644569993, -0.009900403209030628, 0.0050565628334879875, -0.004088519606739283, 0.005701032001525164, -0.004397840239107609, 0.006626484915614128, -0.004229664336889982, -0.003768965834751725, -0.0034558798652142286, -0.007236739620566368, -0.004709148313850164, 0.01030229777097702, -0.004622712265700102, 0.0030504316091537476, -0.003623763332143426, -0.007428626995533705, -0.004560877103358507, -0.004810076206922531, -0.00810809712857008, -0.004080947954207659, 0.0068235197104513645, 0.003337195608764887, -0.004317445680499077, -0.006113000679761171, -0.006784272845834494, -0.003092151368036866, -0.00517691345885396, 0.004175144247710705, -0.008572402410209179, -0.004981720354408026, -0.002950997557491064, 0.005798737984150648, -0.004165477119386196, 0.007680918555706739, -0.003888427745550871, -0.006696986500173807, -0.008707381784915924, 0.00309892394579947, -0.007480233907699585, 0.006880097556859255, -0.004508937243372202, 0.005189882591366768, -0.006969773676246405, -0.0037688103038817644, -0.008825255557894707, 0.009302491322159767, -0.008822046220302582, 0.0038769044913351536], [-0.014340625144541264, 0.014436707831919193, -0.005425516050308943, -0.011922351084649563, -0.01855088211596012, 0.019555315375328064, -0.01567165181040764, -0.004462965298444033, -0.0053005702793598175, -0.010617696680128574, -0.011297469027340412, -0.017797330394387245, 0.00479104183614254, 0.004014989361166954, -0.01625831611454487, -0.01680600270628929, 0.004464346915483475, 0.017328647896647453, 0.01124611496925354, 0.016750017181038857, -0.015284658409655094, -0.01397636253386736, -0.018590886145830154, -0.016544828191399574, 0.01771024614572525, 0.02031402476131916, 0.013740641064941883, 0.015873465687036514, -0.020107775926589966, 0.01871993951499462, -0.005069831386208534, 0.008101360872387886, -0.013765799812972546, -0.02146332524716854, 0.004064454231411219, 0.014255518093705177, -0.01478574424982071, -0.01566478982567787, 0.007122827228158712, 0.004754142370074987, 0.018868338316679, 0.004751767963171005, -0.004245831165462732, 0.014627938158810139, -0.00511681055650115, -0.02517782896757126, -0.008760998956859112, 0.021586893126368523, -0.013651121407747269, -0.013645995408296585, 0.015784261748194695, 0.01752685196697712, 0.01167075615376234, 0.0049761272966861725, -0.017535848543047905, 0.016976721584796906, 0.013530365191400051, 0.016757672652602196, -0.01410231739282608, 0.014656818471848965, -0.015252819284796715, -0.007655075751245022, -0.025225846096873283, 0.012953901663422585, -0.017522728070616722, 0.013591565191745758, 0.012758312746882439, 0.019988927990198135, -0.003981004469096661, 0.005342193879187107, -0.00723270233720541, -0.014672119170427322, -0.016177764162421227, -0.010991248302161694, 0.00454952847212553, 0.0175709817558527, -0.015107649378478527, 0.01705710031092167, -0.008014803752303123, -0.01428207103163004, -0.01678106188774109, 0.02057761698961258, -0.01650197245180607, 0.011675809510052204, -0.01355369295924902, 0.016883226111531258, -0.015355309471487999, -0.005940655712038279, -0.0048606921918690205, -0.013781825080513954, -0.02333853393793106, 0.01581324264407158, -0.0057084751315414906, 0.004396812058985233, -0.01823265478014946, -0.004708502907305956, -0.020468909293413162, -0.01528654620051384, -0.01546041201800108, -0.004506263881921768, 0.015103963203728199, 0.017450449988245964, -0.020556937903165817, -0.015531104989349842, -0.019928190857172012, -0.007467916700989008, -0.016473710536956787, 0.017907414585351944, -0.021843699738383293, -0.013865877874195576, -0.014931851997971535, 0.01345892809331417, -0.01804094761610031, 0.01582973450422287, -0.018569055944681168, -0.016976967453956604, -0.015920551493763924, 0.015206899493932724, -0.019577614963054657, 0.019507449120283127, -0.020326297730207443, 0.004648149944841862, -0.018846184015274048, -0.014967864379286766, -0.017137663438916206, 0.01541136484593153, -0.014598141424357891, 0.022124113515019417], [-0.015951426699757576, 0.012505832128226757, -0.007966695353388786, -0.009057237766683102, -0.004872320219874382, 0.010723534040153027, -0.013919943943619728, -0.015295172110199928, -0.0041756173595786095, -0.008625363931059837, -0.0038847168907523155, -0.01779712364077568, 0.012551349587738514, 0.021647250279784203, -0.004042709246277809, -0.004246186930686235, 0.00396862393245101, 0.0036754971370100975, 0.020322628319263458, 0.018694112077355385, -0.01377125270664692, -0.012565882876515388, -0.01188887283205986, -0.013434269465506077, 0.015661772340536118, 0.01611708663403988, 0.011202867142856121, 0.006429299712181091, -0.01740177348256111, 0.013562701642513275, -0.0078544607385993, 0.004954734817147255, -0.016477705910801888, -0.013898241333663464, 0.013668674975633621, 0.0038563923444598913, -0.014986353926360607, -0.014136712066829205, 0.00469414796680212, 0.008436029776930809, 0.004067851230502129, 0.014373966492712498, -0.013226719573140144, 0.00667217094451189, -0.011566155590116978, -0.0034149123821407557, -0.005128184333443642, 0.00837682094424963, -0.004406294319778681, -0.014298700727522373, 0.015425722114741802, 0.01303405873477459, 0.00632416782900691, 0.009853924624621868, -0.01249889750033617, 0.0038274896796792746, 0.004201914649456739, 0.01302334200590849, -0.003320148680359125, 0.003634570399299264, -0.004525119438767433, -0.01197410561144352, -0.0049688792787492275, 0.013057130388915539, -0.017348112538456917, 0.003957879263907671, 0.010039775632321835, 0.017175858840346336, -0.012627538293600082, 0.012800348922610283, -0.013946997001767159, -0.011495956219732761, -0.01708631031215191, -0.01568574830889702, 0.01569649577140808, 0.010986528359353542, -0.017786633223295212, 0.013621284626424313, -0.00801553763449192, -0.011512314900755882, -0.012708821333944798, 0.003965734038501978, -0.01460261456668377, 0.01438343245536089, -0.01218707300722599, 0.009627972729504108, -0.015564000234007835, -0.017889104783535004, -0.015336846001446247, -0.01072954572737217, -0.0079601826146245, 0.010087389498949051, -0.003824186511337757, 0.014988681301474571, -0.005652958527207375, -0.011722088791429996, -0.004115281160920858, -0.012129363603889942, -0.01697365939617157, -0.014818908646702766, 0.011237625032663345, 0.013533373363316059, -0.012159949168562889, -0.011878431774675846, -0.004370379727333784, -0.003500860184431076, -0.004346965346485376, 0.004582122899591923, -0.011580616235733032, -0.007495037745684385, -0.011743905022740364, 0.00534543814137578, -0.004280997905880213, 0.00410447595641017, -0.004026750102639198, -0.00369233638048172, -0.017194172367453575, 0.0036584583576768637, -0.009866727516055107, 0.015801453962922096, -0.019883407279849052, 0.011681853793561459, -0.012208690866827965, -0.008282952010631561, -0.016340965405106544, 0.004318236839026213, -0.011640265583992004, 0.0081098023802042], [0.015903759747743607, -0.01384577713906765, 0.015048456378281116, 0.008358015678822994, 0.0165817029774189, -0.004949483089148998, 0.0040476154536008835, 0.018478237092494965, 0.010746882297098637, 0.008369846269488335, 0.005082889460027218, 0.019126029685139656, -0.010450323112308979, -0.015325106680393219, 0.01617230847477913, 0.004662028979510069, -0.004678382072597742, -0.0038175948429852724, -0.014123533852398396, -0.0051539381965994835, 0.010053890757262707, 0.011574290692806244, 0.013333389535546303, 0.01367462519556284, -0.004869647789746523, -0.020146114751696587, -0.016793349757790565, -0.016884706914424896, 0.00881399679929018, -0.01364271529018879, 0.01504011731594801, -0.004801540169864893, 0.01189256552606821, 0.01841672696173191, -0.011227610521018505, -0.01556328870356083, 0.014261233620345592, 0.004337364342063665, -0.006976183038204908, -0.016338704153895378, -0.019385509192943573, -0.00349722639657557, 0.017727190628647804, -0.010636675171554089, 0.005649914499372244, 0.004363869782537222, 0.015719279646873474, -0.020043199881911278, 0.014268678613007069, 0.005187380593270063, -0.004895882681012154, -0.01805756613612175, -0.004848156124353409, -0.00508234603330493, 0.018338875845074654, -0.015339717268943787, -0.01041730772703886, -0.00508563918992877, 0.003832256654277444, -0.01300005055963993, 0.015154006890952587, 0.007328427396714687, 0.005793116986751556, -0.008000877685844898, 0.015303279273211956, -0.004163702484220266, -0.014654211699962616, -0.016201304271817207, 0.014392795972526073, -0.008278736844658852, 0.01576942391693592, 0.010847002267837524, 0.01511078979820013, 0.004094110801815987, -0.014265618287026882, -0.01717487722635269, 0.01673031784594059, -0.018067317083477974, 0.01295072864741087, 0.012528606690466404, 0.019109265878796577, -0.023102622479200363, 0.004742933437228203, -0.013588807545602322, 0.005360724404454231, -0.01265625935047865, 0.004567560739815235, 0.004177112597972155, 0.013371888548135757, 0.004405728541314602, 0.02159396931529045, -0.010927078314125538, 0.01762600615620613, -0.00707487016916275, 0.014064162038266659, 0.009636487811803818, 0.020604019984602928, 0.0047975811176002026, 0.01626194827258587, 0.00483118137344718, -0.007342023309320211, -0.01699215918779373, 0.022695545107126236, 0.014433743432164192, 0.016393505036830902, 0.019534271210432053, 0.009692017920315266, -0.01637229509651661, 0.02177063561975956, 0.013840378262102604, 0.014041484333574772, -0.012250478379428387, 0.019252678379416466, -0.008556008338928223, 0.01727355644106865, 0.014650249853730202, 0.00392060587182641, -0.013807060196995735, 0.004755913745611906, -0.004713284783065319, 0.011808921582996845, -0.009187368676066399, 0.018651798367500305, 0.013548911549150944, 0.016507811844348907, -0.013511847704648972, 0.007820844650268555, -0.005395127926021814], [-0.007602876517921686, 0.007124430499970913, -8.916592923924327e-05, -0.004245875868946314, -0.015037782490253448, 0.002982205245643854, -0.0007813652628101408, -0.0021480771247297525, -0.011265134438872337, -0.005341876298189163, -0.014972261153161526, -0.0034592957235872746, 0.003934795036911964, 0.003532067872583866, -0.0005406203563325107, -0.005970844067633152, 0.002822223585098982, 0.002611702773720026, 0.007952389307320118, 0.003048972226679325, -0.0063497284427285194, -0.0015567218651995063, -0.0059121036902070045, -0.0031692611519247293, 0.0031068860553205013, 0.013801307417452335, 0.014544552192091942, 0.0064614624716341496, -3.1718387617729604e-05, 0.004072311334311962, -0.00906345434486866, 0.000730344676412642, -0.003255431540310383, -0.014517156407237053, 0.0031853043474256992, 0.01100704912096262, -0.0018372677732259035, -0.004303953144699335, 0.004774733912199736, 0.015512403100728989, 0.000997195253148675, 0.005507384426891804, -0.0038064534310251474, 0.014506139792501926, -0.0028682067058980465, -0.0034887336660176516, -0.014360067434608936, 0.006503754295408726, -0.0012865003664046526, -0.0015824711881577969, 0.0035812559071928263, 0.0020847185514867306, 0.01662115938961506, 0.0007941952208057046, -0.00012460307334549725, 0.0003351820632815361, 0.0017540267435833812, 0.005369734019041061, -0.003913814201951027, 0.0030284966342151165, -0.001889101229608059, -0.008869699202477932, -0.0163263026624918, 0.0031066315714269876, -0.01425962708890438, 0.004265663214027882, 0.006562927272170782, 0.002208733931183815, -0.002679968485608697, 0.009167158976197243, -0.0022915105801075697, -0.001583616016432643, -0.0029839298222213984, -0.005242574959993362, 0.0014586600009351969, 0.003463051514700055, -0.009612368419766426, 0.0032144247088581324, -0.0031977694015949965, -0.003533989889547229, -0.002431834815070033, 0.00064442417351529, -0.0130551066249609, 0.006688830442726612, -0.000917367113288492, 0.004014146514236927, -0.0020431706216186285, -0.01046041864901781, -0.007808290887624025, -0.00558495381847024, -0.003883868223056197, 0.0026142611168324947, -0.00047361775068566203, 0.002348619047552347, -0.0024306164123117924, -0.0032840892672538757, -0.0005791523144580424, -0.00265327887609601, -0.0025169476866722107, -0.00021930690854787827, 0.005754453595727682, 0.003575327340513468, -0.015079718083143234, -0.0009975522989407182, -0.0012276346096768975, -0.0012054695980623364, -0.0024593460839241743, 0.002348350826650858, -0.0036129129584878683, -0.00039416211075149477, -0.0011246876092627645, 0.012740238569676876, -0.00011821998486993834, 0.004203657619655132, -0.0019580547232180834, -0.002795548876747489, -0.001963093876838684, 0.0016656642546877265, -0.002753948327153921, 0.0006963437772355974, -0.011527962051331997, 1.0810755156853702e-05, -0.012729154899716377, -0.004152198787778616, -0.0020908741280436516, 0.0037273119669407606, -0.0018938982393592596, 0.0035978886298835278], [0.008193162269890308, -0.011843163520097733, 0.003429790260270238, 0.00905501376837492, 0.006811733357608318, -0.0026838495396077633, 0.004387354012578726, 0.0028722076676785946, 0.00987559650093317, 0.003023984842002392, 0.00955212488770485, 0.0022970805875957012, -0.009984780102968216, -0.007888811640441418, 0.005437363404780626, 0.011101546697318554, -0.007663679774850607, -0.00481414794921875, -0.003926056437194347, -0.005469305906444788, 0.006431561429053545, 0.007215376943349838, 0.004564373753964901, 0.006163002457469702, -0.0030958151910454035, -0.005597763694822788, -0.006618628744035959, -0.004293476231396198, 0.005516468547284603, -0.005914278794080019, 0.008836431428790092, -0.005387944635003805, 0.0024758896324783564, 0.005496239755302668, -0.005667793098837137, -0.006033484824001789, 0.0046953135170042515, 0.0050072749145329, -0.017691906541585922, -0.007495412137359381, -0.003094632877036929, -0.004825318232178688, 0.004778859671205282, -0.002943208208307624, 0.010224924422800541, 0.004358263686299324, 0.007252355571836233, -0.005263692233711481, 0.005977478343993425, 0.006456619128584862, -0.005083639174699783, -0.003247724613174796, -0.01355136651545763, -0.004270460456609726, 0.008007016032934189, -0.0032884664833545685, -0.006878389976918697, -0.002165387850254774, 0.005859024822711945, -0.0048253354616463184, 0.0057496316730976105, 0.006145050283521414, 0.003967188764363527, -0.012489515356719494, 0.0036274271551519632, -0.008289075456559658, -0.006692163180559874, -0.004069446586072445, 0.00245006219483912, -0.006787771824747324, 0.0043146987445652485, 0.014106047339737415, 0.00419637793675065, 0.002812531078234315, -0.005010646767914295, -0.005807328037917614, 0.0034391372464597225, -0.005720024462789297, 0.0031356841791421175, 0.015594255179166794, 0.004604649264365435, -0.005236194469034672, 0.010800103656947613, -0.008352399803698063, 0.005774640012532473, -0.006434720940887928, 0.0060855126939713955, 0.002692937618121505, 0.0020945623982697725, 0.019457904621958733, 0.00836600549519062, -0.004919268656522036, 0.015011933632194996, -0.004717939533293247, 0.005208906717598438, 0.00591246597468853, 0.009873077273368835, 0.0059049720875918865, 0.0031487205997109413, 0.013400539755821228, -0.004642341285943985, -0.006149370688945055, 0.006900324020534754, 0.0063036587089300156, 0.004924423526972532, 0.004784208256751299, 0.0033818939700722694, -0.0033960603177547455, 0.00625376682728529, 0.00927035789936781, 0.007665961980819702, -0.00839304644614458, 0.007785554975271225, -0.003946051467210054, 0.005789358634501696, 0.005825490225106478, 0.005900364834815264, -0.006316834129393101, 0.006589965894818306, -0.0035311596002429724, 0.005469531286507845, -0.011716971173882484, 0.0060198064893484116, 0.007235916797071695, 0.007108479272574186, -0.007074258755892515, 0.005927088670432568, -0.008190491236746311], [0.003297930583357811, -0.00893056858330965, 0.0013678515097126365, 0.003944514784961939, 0.0014464774867519736, -0.00749438488855958, 0.00173488212749362, 0.0009393535437993705, 0.0035188577603548765, 0.003842483274638653, 0.0034302317071706057, 0.0032077257055789232, -0.005585257895290852, -0.0074296751990914345, 0.0010890127159655094, 0.002221283968538046, -0.006437503267079592, -0.007252990733832121, -0.007573139388114214, -0.004407646134495735, 0.001019256073050201, 0.0003520692989695817, 0.002603669883683324, 0.002620444633066654, -0.001192786148749292, -0.0035426709800958633, -0.0021125830244272947, -0.0035816754680126905, 0.0030781161040067673, -0.002361543709412217, 0.00366831012070179, -0.007273730356246233, 0.005560874938964844, 0.00158888369332999, -0.0037831177469342947, -0.0021862401627004147, 0.0012371051125228405, 0.002994296606630087, -0.015379714779555798, -0.0014729781541973352, -0.001826964900828898, -0.005836712196469307, 0.006355691235512495, -0.00196602544747293, 0.003023073310032487, 0.005401758477091789, 0.009921062737703323, -0.0015129956882447004, 0.002822538372129202, 0.004496498499065638, -0.005919095128774643, -6.263684917939827e-05, -0.014490730129182339, -0.001288434024900198, 0.0024814193602651358, -0.0021564557682722807, -0.003791178110986948, -0.00263983104377985, 0.005036508198827505, -0.003996463026851416, 0.011678438633680344, 0.004149367101490498, 0.0006107866647653282, -0.0054077282547950745, 0.00323220225982368, -0.002469172701239586, -0.0020941642578691244, -0.004820522386580706, 0.004204303026199341, -0.002828259253874421, 0.007685178425163031, 0.002033237600699067, 0.0045112124644219875, 0.0028838820289820433, -0.006817645858973265, -0.004831457044929266, 0.0009840488201007247, -0.002776299836114049, 0.0034407947678118944, 0.014363043941557407, 0.005509344395250082, -0.0011705684009939432, 0.0008117915713228285, -0.004262322559952736, 0.0033034258522093296, -0.004229741171002388, 0.003922704141587019, 0.004847919102758169, 0.006767189595848322, 0.004505823366343975, 0.0021657708566635847, -0.007496757432818413, 0.0021867782343178988, -0.00513466726988554, 0.0037291194312274456, 0.004010455217212439, 0.003183904569596052, 0.0031887590885162354, 0.004827674012631178, 0.0010778194991871715, -0.005762642249464989, -0.003674170933663845, 0.0012136560399085283, 0.003154005156829953, 0.002872115932404995, 0.0053965868428349495, 0.00394744798541069, -0.0014699333114549518, 0.0028524459339678288, 0.003339839167892933, 0.0027937907725572586, -0.013713047839701176, 0.0053406767547130585, -0.00491110235452652, 0.006284640170633793, 0.0031201376114040613, 0.0023998478427529335, -0.0015564804198220372, 0.0037600675132125616, -0.0030269641429185867, 0.0038093221373856068, -0.005767869763076305, 0.004018195904791355, 0.004488663282245398, 0.003626275807619095, -0.005668150261044502, 0.003989164251834154, -0.0001557005161885172], [0.01630094274878502, -0.011747144162654877, 0.010981384664773941, 0.003907461650669575, 0.007429634220898151, -0.00443927850574255, 0.003825945081189275, 0.013221903704106808, 0.004799298942089081, 0.008824492804706097, 0.010695666074752808, 0.014150410890579224, -0.010856830514967442, -0.013665832579135895, 0.009893673472106457, 0.01315833069384098, -0.009612467139959335, -0.014323638752102852, -0.005121965426951647, -0.0039570946246385574, 0.014381282962858677, 0.011395018547773361, 0.01115731243044138, 0.012758494354784489, -0.013989442959427834, -0.0048142047598958015, -0.005067373625934124, -0.013393032364547253, 0.004821497015655041, -0.010081930086016655, 0.009847188368439674, -0.004806662909686565, 0.004981277044862509, 0.016240114346146584, -0.004445560742169619, -0.005203534383326769, 0.0108581418171525, 0.0052900295704603195, -0.004521780647337437, -0.012131255120038986, -0.01628602109849453, -0.003271351335570216, 0.012209880165755749, -0.006974433548748493, 0.015108082443475723, 0.006798231042921543, 0.015571004711091518, -0.013985930941998959, 0.013093066401779652, 0.004373971372842789, -0.007727530784904957, -0.004536687862128019, -0.012100392952561378, -0.005560210905969143, 0.004752670880407095, -0.010048269294202328, -0.007454858161509037, -0.01290216762572527, 0.012111179530620575, -0.010438596829771996, 0.005432371981441975, 0.004519208334386349, 0.005664066877216101, -0.012658699415624142, 0.012598170898854733, -0.010664451867341995, -0.009912624023854733, -0.015799805521965027, 0.00407750066369772, -0.009722325019538403, 0.0036895049270242453, 0.011631295084953308, 0.009622174315154552, 0.0041197906248271465, -0.010355345904827118, -0.010814989916980267, 0.01580890454351902, -0.013377503491938114, 0.011493561789393425, 0.010586408898234367, 0.0171034075319767, -0.013850106857717037, 0.01310362946242094, -0.010249435901641846, 0.014343257993459702, -0.011088491417467594, 0.0050863176584243774, 0.00443301722407341, 0.013868884183466434, 0.010208798572421074, 0.01903802528977394, -0.004360097926110029, 0.0140799880027771, -0.011864683590829372, 0.014657125808298588, 0.009225163608789444, 0.01529538445174694, 0.010953809134662151, 0.004354540258646011, 0.014694670215249062, -0.0054885586723685265, -0.013294159434735775, 0.004876256454735994, 0.004428633954375982, 0.012855811975896358, 0.01571480929851532, 0.015944158658385277, -0.004844312090426683, 0.01834072731435299, 0.00856705754995346, 0.011078115552663803, -0.004707923159003258, 0.013872365467250347, -0.01203745137900114, 0.012582211755216122, 0.01504507940262556, 0.014050056226551533, -0.0047942837700247765, 0.014847947284579277, -0.01305336318910122, 0.01411431934684515, -0.013878385536372662, 0.00407343590632081, 0.011312413960695267, 0.013259882107377052, -0.013295081444084644, 0.011815098114311695, -0.00596100278198719], [-0.003557716030627489, 0.007117200177162886, -0.008608317002654076, -0.006083964835852385, -0.004974949173629284, 0.008162267506122589, -0.008941153064370155, -0.0036311503499746323, -0.0046371775679290295, -0.008121516555547714, -0.0037258996162563562, -0.00860108993947506, 0.008126219734549522, 0.008703479543328285, -0.003815166186541319, -0.00563510786741972, 0.007583534345030785, 0.009060001000761986, 0.009557063691318035, 0.005133092403411865, -0.008297917433083057, -0.0028880012687295675, -0.012130978517234325, -0.00994724128395319, 0.009956295602023602, 0.0038848475087434053, 0.005693662911653519, 0.0036681927740573883, -0.007493625860661268, 0.0034035861026495695, -0.00179117766674608, 0.010022170841693878, -0.0037206392735242844, -0.006977408193051815, 0.00885890144854784, 0.007717406842857599, -0.00850262027233839, -0.00946949515491724, 0.008319860324263573, 0.007990720681846142, 0.006877627223730087, 0.00379091314971447, -0.003737016813829541, 0.004378767218440771, -0.0039041093550622463, -0.007400935050100088, -0.0036973957903683186, 0.004242167342454195, -0.005509151145815849, -0.005904991179704666, 0.01025718729943037, 0.009061598218977451, 0.004482070449739695, 0.004148338921368122, -0.004754250403493643, 0.003609785344451666, 0.007231579627841711, 0.007115262560546398, -0.010240580886602402, 0.007052028551697731, -0.007104550953954458, -0.01241067610681057, -0.003317236667498946, 0.007770192809402943, -0.0074963681399822235, 0.0033437656238675117, 0.00790918804705143, 0.008410275913774967, -0.0030707907862961292, 0.010907746851444244, -0.009242046624422073, -0.003899078816175461, -0.011201144196093082, -0.01037409994751215, 0.008571536280214787, 0.009215442463755608, -0.0040708277374506, 0.006705467123538256, -0.007224105764180422, -0.003066800767555833, -0.01020890474319458, 0.010212743654847145, -0.007329294458031654, 0.004623943008482456, -0.006979524623602629, 0.006977491080760956, -0.008947199210524559, -0.0081257876008749, -0.00906960666179657, -0.007434613071382046, -0.007770788390189409, 0.011644207872450352, -0.00807388685643673, 0.00865054503083229, -0.006218219641596079, -0.006898294668644667, -0.0054132756777107716, -0.008987964130938053, -0.009657781571149826, -0.0034075973089784384, 0.00394359789788723, 0.008135488256812096, -0.009193141013383865, -0.004715482704341412, -0.010210094042122364, -0.0048085362650454044, -0.004731505643576384, 0.008377240039408207, -0.005753342527896166, -0.0038510963786393404, -0.004858782980591059, 0.007575026713311672, -0.005295568145811558, 0.008842025883495808, -0.00649587158113718, -0.0037777097895741463, -0.0036577379796653986, 0.0047976430505514145, -0.008039364591240883, 0.007282099686563015, -0.00911159161478281, 0.004191558808088303, -0.007069492246955633, -0.004537746775895357, -0.003337369067594409, 0.008196093142032623, -0.003802540013566613, 0.004308628849685192], [-0.008528819307684898, 0.003220449900254607, -0.008151070214807987, -0.00846892036497593, -0.009638147428631783, 0.010524237528443336, -0.003562313038855791, -0.005880163516849279, -0.01178444642573595, -0.00923340767621994, -0.010050052776932716, -0.008960230275988579, 0.00989515706896782, 0.01111092884093523, -0.010372580960392952, -0.006827263161540031, 0.004516168963164091, 0.011424451135098934, 0.01161411963403225, 0.00347560434602201, -0.008637955412268639, -0.0065094404853880405, -0.012976039201021194, -0.012283840216696262, 0.0037068668752908707, 0.010407072491943836, 0.00842722225934267, 0.00503673916682601, -0.008345481008291245, 0.011081168428063393, -0.010252123698592186, 0.009830123744904995, -0.007496820297092199, -0.011171658523380756, 0.010045996867120266, 0.005425179377198219, -0.003461680142208934, -0.006914216559380293, 0.012201491743326187, 0.0049918596632778645, 0.004153274465352297, 0.00949003268033266, -0.008661058731377125, 0.009015082381665707, -0.004339331295341253, -0.008936859667301178, -0.00530234957113862, 0.007929322309792042, -0.009015070274472237, -0.004505172371864319, 0.004053183831274509, 0.008661946281790733, 0.0030363937839865685, 0.006338134873658419, -0.007660237606614828, 0.007942126132547855, 0.009433483704924583, 0.009194756858050823, -0.008392850868403912, 0.011407619342207909, -0.0037509785033762455, -0.012700401246547699, -0.006974371615797281, 0.0038921379018574953, -0.00538215134292841, 0.011082333512604237, 0.009699413552880287, 0.009430346079170704, -0.010577640496194363, 0.01622573845088482, -0.004688864573836327, -0.009449910372495651, -0.009940391406416893, -0.00873022060841322, 0.003880338976159692, 0.010247097350656986, -0.010058040730655193, 0.010809280909597874, -0.01103554479777813, -0.004497435409575701, -0.009862943552434444, 0.003351232036948204, -0.004639958031475544, 0.012061432003974915, -0.010356799699366093, 0.007711406331509352, -0.009053289890289307, -0.003736607264727354, -0.0032022022642195225, -0.009402251802384853, -0.004789298865944147, 0.010717097669839859, -0.001289810985326767, 0.003283271100372076, -0.0036014600191265345, -0.006395036820322275, -0.009539798833429813, -0.011481809429824352, -0.010664702393114567, -0.0038617125246673822, 0.004932140465825796, 0.003634972730651498, -0.0038095139898359776, -0.00899903941899538, -0.01038694940507412, -0.0076800985261797905, -0.00770542211830616, 0.008563593961298466, -0.004079606384038925, -0.007225502748042345, -0.0042498414404690266, 0.005709089804440737, -0.009494646452367306, 0.009407758712768555, -0.009205054491758347, -0.007884607650339603, -0.007003366947174072, 0.0033324866089969873, -0.007666357327252626, 0.009846358560025692, -0.007045889738947153, 0.011191196739673615, -0.0033740161452442408, -0.00724027119576931, -0.007952488958835602, 0.008577490225434303, -0.00808990839868784, 0.006100064143538475], [0.0019949334673583508, -0.024281887337565422, 0.024586299434304237, 0.006911194417625666, 0.005892268382012844, -0.007076888345181942, 0.0053443158976733685, 0.001901729148812592, 0.005431054159998894, 0.037871357053518295, 0.006755006033927202, 0.0015097715659067035, -0.022547606378793716, -0.0054609100334346294, 0.022048907354474068, 0.02827550284564495, -0.012673299759626389, -0.004362781532108784, -0.006583028472959995, -0.0019861531909555197, 0.015788516029715538, 0.005726099945604801, 0.005062997341156006, 0.017044754698872566, -0.02001914568245411, -0.008274071849882603, -0.005486754234880209, -0.005886465776711702, 0.005468238145112991, -0.0062515572644770145, 0.031989626586437225, -0.002114690374583006, 0.0021960423327982426, 0.003783064428716898, -0.031827766448259354, -0.007257520221173763, 0.004801246337592602, 0.005154081620275974, -0.036152079701423645, -0.013102581724524498, -0.006810688879340887, -0.0017811020370572805, 0.006679127924144268, -0.014302450232207775, 0.015635352581739426, 0.004343472421169281, 0.016690505668520927, -0.005601396784186363, 0.0058825379237532616, 0.01741793379187584, -0.006252225022763014, -0.0019463998032733798, -0.005978785455226898, -0.023627061396837234, 0.009190342389047146, -0.017445756122469902, -0.020748920738697052, -0.010363535024225712, 0.004393881186842918, -0.004673142451792955, 0.02267630584537983, 0.03653210401535034, 0.005167883355170488, -0.026398681104183197, 0.021334147080779076, -0.0017288088565692306, -0.0062431348487734795, -0.001679437467828393, 0.0036597242578864098, -0.018124103546142578, 0.004204580094665289, 0.03637077286839485, 0.005654162727296352, 0.023155691102147102, -0.011322977021336555, -0.0131296431645751, 0.022812742739915848, -0.003480741288512945, 0.027191590517759323, 0.00595311913639307, 0.0022965583484619856, -0.004137960262596607, 0.01701824739575386, -0.0053609623573720455, 0.009412035346031189, -0.003617272013798356, 0.010862954892218113, 0.012682577595114708, 0.001926208147779107, 0.006605984177440405, 0.008362424559891224, -0.0038587916642427444, 0.023482760414481163, -0.01062057912349701, 0.007508797571063042, 0.031107988208532333, 0.00561128556728363, 0.034695252776145935, 0.00845186784863472, 0.027655906975269318, -0.005253128707408905, -0.008429475128650665, 0.004172099754214287, 0.005907850340008736, 0.007637024857103825, 0.0035650257486850023, 0.010280083864927292, -0.002159825759008527, 0.002230788813903928, 0.03426866605877876, 0.020576031878590584, -0.02662738785147667, 0.0018865243764594197, -0.01732870563864708, 0.0062597040086984634, 0.0017603137530386448, 0.004361678846180439, -0.008143837563693523, 0.0037230479065328836, -0.003772253403440118, 0.0021867139730602503, -0.024739593267440796, 0.00423314468935132, 0.027679702267050743, 0.006226083263754845, -0.014756705611944199, 0.005892953369766474, -0.002104849787428975], [-0.003741474589332938, 0.0034386140760034323, -0.009572471491992474, -0.009684750810265541, -0.004129405599087477, 0.008897924795746803, -0.013575666584074497, -0.0038037323392927647, -0.004381081555038691, -0.006670046132057905, -0.00783553160727024, -0.014368089847266674, 0.006882252171635628, 0.015605115331709385, -0.011424490250647068, -0.011303204111754894, 0.007670313585549593, 0.010933793149888515, 0.00605016527697444, 0.007686783093959093, -0.011406013742089272, -0.008665474131703377, -0.004103346727788448, -0.003721140790730715, 0.010122522711753845, 0.011010602116584778, 0.011160613968968391, 0.0096366498619318, -0.010521122254431248, 0.004050462041050196, -0.0048788017593324184, 0.004116477910429239, -0.011697547510266304, -0.007893537171185017, 0.008436819538474083, 0.007881449535489082, -0.011366534978151321, -0.006718990858644247, 0.007524880114942789, 0.004061536397784948, 0.0038733764085918665, 0.007475967984646559, -0.012609587050974369, 0.008748994208872318, -0.005396262742578983, -0.007731268182396889, -0.0033803987316787243, 0.008405768312513828, -0.005440880544483662, -0.008840253576636314, 0.008641819469630718, 0.00928560085594654, 0.008054729551076889, 0.007204913068562746, -0.008532432839274406, 0.010524715296924114, 0.006975687108933926, 0.014739269390702248, -0.0035552619956433773, 0.013274059630930424, -0.008995416574180126, -0.008331891149282455, -0.001058959518559277, 0.010423294268548489, -0.00731241051107645, 0.00639015669003129, 0.008249797858297825, 0.017042888328433037, -0.013140994124114513, 0.018925689160823822, -0.0036021177656948566, -0.008000843226909637, -0.014192643575370312, -0.003926435485482216, 0.003979614470154047, 0.012466175481677055, -0.01003445778042078, 0.013644724152982235, -0.006729497108608484, -0.006680723745375872, -0.0038490418810397387, 0.012888338416814804, -0.010217539966106415, 0.008802581578493118, -0.013222969137132168, 0.004082749132066965, -0.0040685939602553844, -0.010435895062983036, -0.012778648175299168, -0.0007952676387503743, -0.007315485272556543, 0.01199860405176878, -0.01141409482806921, 0.014990025199949741, -0.0036432030610740185, -0.0073402984999120235, -0.01325388252735138, -0.004408206325024366, -0.014133752323687077, -0.0076737781055271626, 0.0069127315655350685, 0.01241117250174284, -0.009253893978893757, -0.00683578010648489, -0.0076043386943638325, -0.0045284125953912735, -0.005031496286392212, 0.0038224642630666494, -0.003817180637270212, -0.0031360939610749483, -0.007049488835036755, 0.00744209811091423, -0.0035424588713794947, 0.007303061429411173, -0.011492692865431309, -0.009938600473105907, -0.004669554065912962, 0.008230491541326046, -0.0028885244391858578, 0.0066370535641908646, -0.00692174443975091, 0.010891151614487171, -0.0034602335654199123, -0.00929691456258297, -0.00895253662019968, 0.00997120700776577, -0.004788572899997234, 0.008075103163719177], [0.012214386835694313, -0.01171491201967001, 0.012817153707146645, 0.004676437471061945, 0.008225458674132824, -0.01131182536482811, 0.003765345551073551, 0.013107373379170895, 0.00433435570448637, 0.009686007164418697, 0.007108932361006737, 0.011529751121997833, -0.00833089742809534, -0.01088572945445776, 0.00464857229962945, 0.009470166638493538, -0.006380449514836073, -0.012946445494890213, -0.010303536430001259, -0.010961306281387806, 0.008866633288562298, 0.006406294647604227, 0.004402304533869028, 0.010954276658594608, -0.007625229191035032, -0.007493300829082727, -0.00445577735081315, -0.005645918659865856, 0.006027772556990385, -0.004955210257321596, 0.0047607761807739735, -0.004196076653897762, 0.0035154735669493675, 0.007343049626797438, -0.010755658149719238, -0.0087188221514225, 0.007028678432106972, 0.011326814070343971, -0.010990524664521217, -0.010458540171384811, -0.01394959818571806, -0.010036958381533623, 0.007066891994327307, -0.009250815957784653, 0.007156560197472572, 0.014582895673811436, 0.013427448458969593, -0.011805239133536816, 0.01215875893831253, 0.008102254010736942, -0.010764406062662601, -0.01288541965186596, -0.009934389032423496, -0.011034241877496243, 0.00531469751149416, -0.01220358069986105, -0.007787678856402636, -0.012108130380511284, 0.0035447285044938326, -0.004122075624763966, 0.004063819535076618, 0.004622119944542646, 0.006867605727165937, -0.003367651253938675, 0.008819665759801865, -0.010110207833349705, -0.011942729353904724, -0.009407076984643936, 0.01192837581038475, -0.015504708513617516, 0.007724872324615717, 0.005498094018548727, 0.009187055751681328, 0.009028738364577293, -0.01129571907222271, -0.006694451905786991, 0.011176534928381443, -0.013292460702359676, 0.011085937730967999, 0.005895306821912527, 0.010532966814935207, -0.009322764351963997, 0.01069357804954052, -0.008882603608071804, 0.013891109265387058, -0.00864588376134634, 0.0074149323627352715, 0.013117508962750435, 0.012029467150568962, 0.007540697697550058, 0.013743155635893345, -0.009534034878015518, 0.009891469962894917, -0.005837993696331978, 0.003828539978712797, 0.00914878398180008, 0.0073909396305680275, 0.00961629580706358, 0.004314551129937172, 0.007162563037127256, -0.01291809044778347, -0.011368386447429657, 0.009742341935634613, 0.004765715915709734, 0.012791931629180908, 0.011124209500849247, 0.01311596017330885, -0.00907654594630003, 0.008781804703176022, 0.0018014946253970265, 0.008548040874302387, -0.009874631650745869, 0.010839279741048813, -0.012908877804875374, 0.013201269321143627, 0.010217906907200813, 0.012475795112550259, -0.005219671409577131, 0.006830788683146238, -0.009243765845894814, 0.009007963351905346, -0.010922062210738659, 0.010328934527933598, 0.007657479494810104, 0.012467674911022186, -0.008448217995464802, 0.010535449720919132, -0.005694083869457245], [0.007270334288477898, -0.010441332124173641, 0.008591573685407639, 0.0056620389223098755, 0.004299860913306475, -0.009994558990001678, 0.00326129631139338, 0.007320505101233721, 0.007299432530999184, 0.007256390061229467, 0.0037225394044071436, 0.006559615023434162, -0.009233856573700905, -0.009870477020740509, 0.007180944085121155, 0.00394302885979414, -0.007643162738531828, -0.008570093661546707, -0.00919490959495306, -0.007968434132635593, 0.00410530436784029, 0.005434282589703798, 0.010643470101058483, 0.010195869021117687, -0.0032177718821913004, -0.006739859469234943, -0.009428928606212139, -0.003915098961442709, 0.006755763199180365, -0.0033782892860472202, 0.006971779745072126, -0.005423520691692829, 0.003481512423604727, 0.0077947890385985374, -0.006784531287848949, -0.00681171054020524, 0.007544947322458029, 0.005544567480683327, -0.00863936822861433, -0.002971829380840063, -0.004612136632204056, -0.009291755966842175, 0.009355753660202026, -0.00613434799015522, 0.0023081707768142223, 0.005929099395871162, 0.002981010125949979, -0.005907366052269936, 0.004998359363526106, 0.004235647618770599, -0.003999556880444288, -0.005037590395659208, -0.004369520116597414, -0.004531628452241421, 0.004932732786983252, -0.003572082845494151, -0.007829023525118828, -0.006991721224039793, 0.009639367461204529, -0.008176460862159729, 0.003112688660621643, 0.007906741462647915, 0.0012381788110360503, -0.00847887247800827, 0.006521596107631922, -0.0054953754879534245, -0.005308736581355333, -0.009633777663111687, 0.004110086243599653, -0.0042488230392336845, 0.007552068214863539, 0.010416390374302864, 0.0066707865335047245, 0.007031782530248165, -0.0038571201730519533, -0.004726771730929613, 0.007746133487671614, -0.004075439181178808, 0.0072532352060079575, 0.006400980055332184, 0.00911572016775608, -0.0033734876196831465, 0.0034371581859886646, -0.0036997871939092875, 0.009139446541666985, -0.0036807155702263117, 0.0031925418879836798, 0.00887571182101965, 0.009056414477527142, 0.008694346994161606, 0.004819717723876238, -0.003827793290838599, 0.002731116022914648, -0.0044282590970396996, 0.009813104756176472, 0.007177672348916531, 0.005245691630989313, 0.0033183724153786898, 0.00339071499183774, 0.0031176400370895863, -0.008113058283925056, -0.003297465620562434, 0.006864611990749836, 0.004122413694858551, 0.007110835053026676, 0.008405010215938091, 0.0030493203084915876, -0.003495127195492387, 0.003328343154862523, 0.00569967832416296, 0.005052405875176191, -0.004492045845836401, 0.007081141229718924, -0.003718813881278038, 0.008179208263754845, 0.006841803435236216, 0.007836533710360527, -0.0029991096816956997, 0.007719741202890873, -0.0073693180456757545, 0.007055842317640781, -0.006315481383353472, 0.008010590448975563, 0.006171524524688721, 0.005547537934035063, -0.004602580331265926, 0.008612630888819695, -0.005556961055845022], [0.009710509330034256, -0.009280728176236153, 0.009516734629869461, 0.004850483499467373, 0.01021140068769455, -0.004466255661100149, 0.01002128142863512, 0.010777033865451813, 0.0066749220713973045, 0.007083314470946789, 0.0039845723658800125, 0.009145410731434822, -0.007718558423221111, -0.009576846845448017, 0.005790987517684698, 0.00877234898507595, -0.003887045895680785, -0.011759640648961067, -0.011723997071385384, -0.010354050435125828, 0.006340648513287306, 0.00596137810498476, 0.013065407983958721, 0.00856699887663126, -0.007753890007734299, -0.0035884822718799114, -0.008793995715677738, -0.0039432174526154995, 0.007062752731144428, -0.008450469933450222, 0.0061349389143288136, -0.011933469213545322, 0.01041895430535078, 0.008542207069694996, -0.003970127087086439, -0.003842988982796669, 0.007032913155853748, 0.006888836622238159, -0.010554835200309753, -0.008427372202277184, -0.004929735790938139, -0.01049787551164627, 0.010950690135359764, -0.005237973760813475, 0.005957975517958403, 0.010837126523256302, 0.00686639454215765, -0.003988528624176979, 0.0040684533305466175, 0.004590986762195826, -0.009765910916030407, -0.003789823967963457, -0.003192477859556675, -0.007797096855938435, 0.005369786638766527, -0.004875881131738424, -0.01020102296024561, -0.006592405494302511, 0.0078036729246377945, -0.00741757545620203, 0.004670468159019947, 0.0102251460775733, 0.006341963540762663, -0.003689827397465706, 0.010029057040810585, -0.007885796949267387, -0.00494929077103734, -0.011806434951722622, 0.008011610247194767, -0.012271208688616753, 0.0030488029588013887, 0.009954583831131458, 0.011106234975159168, 0.00583954481408, -0.010986551642417908, -0.006415615323930979, 0.01144053228199482, -0.009439915418624878, 0.005250793881714344, 0.008898373693227768, 0.011975769884884357, -0.0037193945609033108, 0.009722908027470112, -0.0038336750585585833, 0.010607491247355938, -0.011149932630360126, 0.010374406352639198, 0.0068717775866389275, 0.0033951399382203817, 0.004256002139300108, 0.004257840104401112, -0.011782531626522541, 0.005956521723419428, -0.005784858949482441, 0.003634141990914941, 0.004383692983537912, 0.010490835644304752, 0.007629849947988987, 0.009077085182070732, 0.004482896998524666, -0.005451857578009367, -0.008974866941571236, 0.011418195441365242, 0.008257772773504257, 0.0037719851825386286, 0.01053107064217329, 0.011714446358382702, -0.00983602087944746, 0.009022475220263004, 0.0037240530364215374, 0.004203602205961943, -0.005103209987282753, 0.011042768135666847, -0.003962708171457052, 0.008870869874954224, 0.00884241983294487, 0.008031660690903664, -0.003314667148515582, 0.007845519110560417, -0.005415894091129303, 0.006713914219290018, -0.00915005523711443, 0.009835292585194111, 0.008134964853525162, 0.008183765225112438, -0.007602747995406389, 0.007698696572333574, -0.0060597932897508144], [-0.006042879540473223, 0.006743002217262983, -0.006862302776426077, -0.008033479563891888, -0.0067367274314165115, 0.003879442811012268, -0.005059758201241493, -0.008022286929190159, -0.009569905698299408, -0.006329996511340141, -0.008058049716055393, -0.01104412879794836, 0.0086392005905509, 0.009280641563236713, -0.0061263153329491615, -0.00788760744035244, 0.009946397505700588, 0.011501938104629517, 0.01106659509241581, 0.010257032699882984, -0.003316096030175686, -0.007325706537812948, -0.011770637705922127, -0.010137633420526981, 0.009109401144087315, 0.00324590178206563, 0.004727546591311693, 0.008902927860617638, -0.0037476171273738146, 0.006205740850418806, -0.00406171940267086, 0.007153341546654701, -0.003406540723517537, -0.005925087258219719, 0.007076940033584833, 0.0044099995866417885, -0.0031977056059986353, -0.009089615195989609, 0.004486731719225645, 0.00692394096404314, 0.006653385702520609, 0.009274998679757118, -0.008464685641229153, 0.0039393180049955845, -0.0028439874295145273, -0.00320436991751194, -0.0026695451233536005, 0.005594936199486256, -0.008367164991796017, -0.003941898699849844, 0.006800209637731314, 0.005721177440136671, 0.0013772663660347462, 0.007555333897471428, -0.0031088099349290133, 0.003351400140672922, 0.00488421693444252, 0.006788710132241249, -0.008939814753830433, 0.00599837489426136, -0.006051903590559959, -0.0045853834599256516, -0.005402131471782923, 0.0036248923279345036, -0.006084717810153961, 0.003832995193079114, 0.004166934173554182, 0.005031497683376074, -0.0030157319270074368, 0.0032819996122270823, -0.004753167275339365, -0.007785321678966284, -0.00350314867682755, -0.008287754841148853, 0.0067630126141011715, 0.0037377127446234226, -0.0033205864019691944, 0.003313510213047266, -0.0038627348840236664, -0.0014324663206934929, -0.003993187565356493, 0.0058210790157318115, -0.003911695908755064, 0.010395250283181667, -0.00386175699532032, 0.005020824261009693, -0.005808832589536905, -0.0038662513252347708, -0.010511714033782482, -0.008010415360331535, -0.00528624327853322, 0.003938303329050541, -0.0086507648229599, 0.002848234260454774, -0.007809942588210106, -0.009035537019371986, -0.004419978708028793, -0.006440775003284216, -0.00699926121160388, -0.0036115413531661034, 0.003793987212702632, 0.004961388185620308, -0.006984056904911995, -0.006989159155637026, -0.004123718477785587, -0.006325561087578535, -0.007325304672122002, 0.004212528467178345, -0.008039053529500961, -0.004888030234724283, -0.004279844928532839, 0.00495774345472455, -0.006871443707495928, 0.006683242507278919, -0.005690820515155792, -0.007664982229471207, -0.007814174517989159, 0.006322088185697794, -0.003291974077001214, 0.005923108197748661, -0.008338011801242828, 0.004614842124283314, -0.009059477597475052, -0.004032412078231573, -0.008139234967529774, 0.003904126351699233, -0.00355015997774899, 0.00786877516657114], [-0.00791895017027855, 0.009442567825317383, -0.0043983859941363335, -0.006493520922958851, -0.013335715048015118, 0.01165835466235876, -0.01342790573835373, -0.01197118405252695, -0.008750628679990768, -0.012546345591545105, -0.009936743415892124, -0.006189423613250256, 0.009782075881958008, 0.014524804428219795, -0.010707882232964039, -0.00893112551420927, 0.004360260907560587, 0.01104524452239275, 0.011737215332686901, 0.01420882809907198, -0.004256245214492083, -0.008937317878007889, -0.004441182129085064, -0.00925746001303196, 0.013036336749792099, 0.014141346327960491, 0.004521779716014862, 0.014376402832567692, -0.00986301526427269, 0.005982104688882828, -0.012760165147483349, 0.012795480899512768, -0.011136491782963276, -0.003956236410886049, 0.00940029975026846, 0.00768639100715518, -0.008046199567615986, -0.010629412718117237, 0.01295547466725111, 0.011448781006038189, 0.014074326492846012, 0.013070223852992058, -0.011497232131659985, 0.007436496205627918, -0.009538967162370682, -0.017330966889858246, -0.012135390192270279, 0.011279670521616936, -0.004542876500636339, -0.008685600943863392, 0.008772462606430054, 0.013181432150304317, 0.00868937000632286, 0.0058784992434084415, -0.00730269867926836, 0.011432119645178318, 0.004809819161891937, 0.011998279951512814, -0.011883613653481007, 0.013480317778885365, -0.011487118899822235, -0.010285511612892151, -0.015168488956987858, 0.01056827511638403, -0.0044588614255189896, 0.005366695579141378, 0.009823309257626534, 0.010525311343371868, -0.010706457309424877, 0.008380240760743618, -0.0033632460981607437, -0.012511308304965496, -0.012367754243314266, -0.0035293002147227526, 0.006145783234387636, 0.010516033507883549, -0.00934342946857214, 0.01148821972310543, -0.00836635660380125, -0.01084436010569334, -0.012144993990659714, 0.011709397658705711, -0.009700637310743332, 0.009048768319189548, -0.011722274124622345, 0.004430809989571571, -0.0038693961687386036, -0.009972767904400826, -0.010310167446732521, -0.0042434739880263805, -0.011531762778759003, 0.014091280288994312, -0.005976282991468906, 0.01007429976016283, -0.010541190393269062, -0.010976351797580719, -0.014036856591701508, -0.004909503273665905, -0.004046185407787561, -0.012082408182322979, 0.006006498355418444, 0.012535986490547657, -0.015936676412820816, -0.008958833292126656, -0.014606790617108345, -0.014654199592769146, -0.013459725305438042, 0.010801523923873901, -0.013459164649248123, -0.009232048876583576, -0.004749555140733719, 0.007262865547090769, -0.015373245812952518, 0.013027273118495941, -0.004509882070124149, -0.011471389792859554, -0.01054456364363432, 0.009590641595423222, -0.013371746055781841, 0.00911324005573988, -0.013973037712275982, 0.011115197092294693, -0.01166278775781393, -0.004134175833314657, -0.009891856461763382, 0.007431765086948872, -0.00994481984525919, 0.012611844576895237], [-0.0036155825946480036, 0.01078884955495596, -0.004678244702517986, -0.0045317658223211765, -0.0072465394623577595, 0.007558139506727457, -0.0032880965154618025, -0.0036473951768130064, -0.0033881396520882845, -0.0043000103905797005, -0.005934834014624357, -0.00467647472396493, 0.00851451139897108, 0.007623949088156223, -0.007509796880185604, -0.0020504258573055267, 0.00858348235487938, 0.007924784906208515, 0.00897945836186409, 0.007891335524618626, -0.0031062348280102015, -0.0028001770842820406, -0.008072376251220703, -0.005436839535832405, 0.0039380379021167755, 0.006118407938629389, 0.004070846363902092, 0.006200397852808237, -0.0034281625412404537, 0.0040878672152757645, -0.0005604965845122933, 0.006076320074498653, -0.007427937816828489, -0.00303364684805274, 0.004037423990666866, 0.0034223992843180895, -0.003035211469978094, -0.0037689765449613333, 0.003744876477867365, 0.002626709872856736, 0.0037774667143821716, 0.0037418780848383904, -0.0034992487635463476, 0.0037140550557523966, -0.0034514088183641434, -0.006659524515271187, -0.0041352869011461735, 0.004162583965808153, -0.005086460616439581, -0.006174064241349697, 0.0074206767603755, 0.004488515201956034, 0.004029802046716213, 0.002313467441126704, -0.007244675420224667, 0.006433787290006876, 0.006184752099215984, 0.008086321875452995, -0.006010839249938726, 0.008478178642690182, -0.0036662910133600235, -0.004606426693499088, -0.008236485533416271, 0.006605411879718304, -0.005056305322796106, 0.003625523764640093, 0.00672217458486557, 0.00863347202539444, -0.0034607271663844585, 0.004517175257205963, -0.002921144710853696, -0.006671196315437555, -0.0077992090955376625, -0.004650644958019257, 0.0035566415172070265, 0.0033597066067159176, -0.006201508920639753, 0.008596818894147873, -0.006456026341766119, -0.0032473159953951836, -0.006694301031529903, 0.00914077740162611, -0.002809517551213503, 0.0036369715817272663, -0.010568758472800255, 0.0072997575625777245, -0.008494159206748009, -0.00796809233725071, -0.0033919704146683216, -0.0037281038239598274, -0.004491785541176796, 0.0038938610814511776, -0.002438899828121066, 0.003460515523329377, -0.0033401953987777233, -0.005638778675347567, -0.006747064646333456, -0.00309585127979517, -0.009207436814904213, -0.00575922941789031, 0.0047029051929712296, 0.003982958383858204, -0.006853505503386259, -0.0035936927888542414, -0.008016057312488556, -0.010401912964880466, -0.005034117493778467, 0.0035532403271645308, -0.006863943301141262, -0.0043708146549761295, -0.0021017335820943117, 0.0036043596919625998, -0.009241776540875435, 0.007080732844769955, -0.004777314607053995, -0.006722900550812483, -0.0035819390323013067, 0.005927235819399357, -0.010176064446568489, 0.006389171816408634, -0.007212484255433083, 0.008054104633629322, -0.005112787242978811, -0.004599873907864094, -0.006021608132869005, 0.004372796509414911, -0.006458286661654711, 0.008571188896894455], [0.003291942412033677, -0.008851811289787292, 0.0038353982381522655, 0.004278165753930807, 0.003009222215041518, -0.004457967821508646, 0.007673653773963451, 0.005149356555193663, 0.0037723088171333075, 0.005178336054086685, 0.002510537626221776, 0.0033071227371692657, -0.0037733244244009256, -0.0034151405561715364, 0.007547865621745586, 0.004056918900460005, -0.005398076493293047, -0.003242214908823371, -0.009064937941730022, -0.0034883609041571617, 0.0052992249839007854, 0.0029196026735007763, 0.010605555027723312, 0.00815738644450903, -0.005322733428329229, -0.0032988530583679676, -0.004023011773824692, -0.0035185653250664473, 0.006931609474122524, -0.005678193178027868, 0.0014664647169411182, -0.007061626296490431, 0.008314290083944798, 0.006229579448699951, -0.0062429229728877544, -0.004787355195730925, 0.004279911983758211, 0.0041496227495372295, -0.004446215461939573, -0.002432112814858556, -0.004185990896075964, -0.010824140161275864, 0.00517159141600132, -0.0070936414413154125, 0.00455199321731925, 0.0032434731256216764, 0.0015668065752834082, -0.005983702372759581, 0.006707351189106703, 0.00845476146787405, -0.010056260041892529, -0.003585126716643572, -0.0036868606694042683, -0.0025566413532942533, 0.004031359683722258, -0.0048988135531544685, -0.004562722984701395, -0.0034047046210616827, 0.0031370962969958782, -0.006813876796513796, 0.003819540375843644, 0.009664453566074371, 0.0007444741204380989, -0.0032138212118297815, 0.003971730824559927, -0.0035385005176067352, -0.006332269869744778, -0.009497418999671936, 0.005031637381762266, -0.004893065895885229, 0.0028451355174183846, 0.008040212094783783, 0.010657734237611294, 0.0034537382889539003, -0.009843017905950546, -0.007122903596609831, 0.004345346707850695, -0.00934254564344883, 0.006994248833507299, 0.008340969681739807, 0.006511762738227844, -0.003221249207854271, 0.005808212794363499, -0.005663811694830656, 0.003906483296304941, -0.00497892452403903, 0.006975417025387287, 0.0033983453176915646, 0.008331065997481346, 0.006327948532998562, 0.0030567615758627653, -0.007720431312918663, 0.005366997793316841, -0.002781966235488653, 0.008899916894733906, 0.003956698812544346, 0.004708142951130867, 0.007246956694871187, 0.006597738713026047, 0.0034924542997032404, -0.007338270545005798, -0.006246514152735472, 0.0035803981591016054, 0.004172006156295538, 0.006505603902041912, 0.010607440955936909, 0.004465925972908735, -0.003212982788681984, 0.0057229166850447655, 0.00812799483537674, 0.003839657176285982, -0.0024887127801775932, 0.009404790587723255, -0.003525899024680257, 0.004663069266825914, 0.009868547320365906, 0.008187167346477509, -0.005925139412283897, 0.011347215622663498, -0.004420966375619173, 0.006987736560404301, -0.007144287694245577, 0.0029393199365586042, 0.006995322648435831, 0.002989561762660742, -0.007013020571321249, 0.007830015383660793, -0.00495213083922863], [0.00859209056943655, -0.003286671591922641, 0.00849886890500784, 0.005623705685138702, 0.0036768331192433834, -0.009949197992682457, 0.007133545819669962, 0.005809453781694174, 0.008802437223494053, 0.008278819732367992, 0.003450050950050354, 0.004821616690605879, -0.0037715439684689045, -0.011315819807350636, 0.008202603086829185, 0.008803367614746094, -0.011262809857726097, -0.009956828318536282, -0.009228276088833809, -0.011550003662705421, 0.004622585605829954, 0.004736592061817646, 0.0040182447992265224, 0.008164579048752785, -0.0036316991318017244, -0.003843751735985279, -0.009326251223683357, -0.007157034240663052, 0.00474740331992507, -0.00369814271107316, 0.0033339497167617083, -0.009471096098423004, 0.006410893518477678, 0.004695728421211243, -0.003716744715347886, -0.01014438085258007, 0.003343654330819845, 0.004174358677119017, -0.013363518752157688, -0.0027461457066237926, -0.006246715784072876, -0.010085755959153175, 0.010798725299537182, -0.0034065549261868, 0.004866034258157015, 0.008513727225363255, 0.002757708542048931, -0.009551113471388817, 0.007597286254167557, 0.010518159717321396, -0.0036835658829659224, -0.006303180009126663, -0.002640179358422756, -0.004106504842638969, 0.0037615937180817127, -0.0034558780025690794, -0.004240748938173056, -0.004262242466211319, 0.009203644469380379, -0.00894632562994957, 0.006087911780923605, 0.004887821152806282, 0.0003738479863386601, -0.009279322810471058, 0.005517016630619764, -0.008862004615366459, -0.004421918652951717, -0.0073029398918151855, 0.00902190338820219, -0.015690594911575317, 0.008523951284587383, 0.011309121735394001, 0.010485230945050716, 0.0036880383267998695, -0.009751335717737675, -0.003638125956058502, 0.008622533641755581, -0.0066216266714036465, 0.004557843320071697, 0.008405613712966442, 0.00907580554485321, -0.006721448618918657, 0.006378971505910158, -0.010627453215420246, 0.0038621523417532444, -0.00377284805290401, 0.0042431894689798355, 0.0035080222878605127, 0.003276247764006257, 0.010949673131108284, 0.007840316742658615, -0.0071468898095190525, 0.007587233558297157, -0.009736430831253529, 0.0035946425050497055, 0.007228143513202667, 0.010626752860844135, 0.007729835342615843, 0.007889823988080025, 0.00945925060659647, -0.009389499202370644, -0.003855276620015502, 0.008400244638323784, 0.004937219433486462, 0.0066415476612746716, 0.012987704947590828, 0.009612496010959148, -0.007164777722209692, 0.010479070246219635, 0.004092017654329538, 0.006725480314344168, -0.004846179857850075, 0.009083770215511322, -0.005573222879320383, 0.008671525865793228, 0.011079194955527782, 0.011415200307965279, -0.0033486734610050917, 0.011776995845139027, -0.003708187723532319, 0.009065940044820309, -0.006350816693156958, 0.0031845388002693653, 0.006731140427291393, 0.006517802365124226, -0.0037271890323609114, 0.0038571078330278397, -0.004845876712352037], [-0.02731199935078621, 0.004249252378940582, -0.0053332289680838585, -0.02248387597501278, -0.02696065977215767, 0.019663004204630852, -0.016014061868190765, -0.005228263791650534, -0.020229468122124672, -0.007044068071991205, -0.026227908208966255, -0.003981758840382099, 0.019195077940821648, 0.02183212898671627, -0.005240849684923887, -0.005095120519399643, 0.004699744749814272, 0.003986668307334185, 0.02175150439143181, 0.004094487521797419, -0.013892950490117073, -0.019530175253748894, -0.004699864890426397, -0.00402102991938591, 0.004465647507458925, 0.027908379212021828, 0.004937466233968735, 0.029101355001330376, -0.006959206890314817, 0.02738073654472828, -0.005865153856575489, 0.0256511103361845, -0.004211048595607281, -0.024461297318339348, 0.0043823509477078915, 0.004508203826844692, -0.022585544735193253, -0.02257155068218708, 0.003987097181379795, 0.004147698637098074, 0.005916708614677191, 0.003473285585641861, -0.023789694532752037, 0.018562478944659233, -0.031985681504011154, -0.012462226673960686, -0.025069009512662888, 0.023999210447072983, -0.004489306826144457, -0.009950372390449047, 0.004475754220038652, 0.0228459183126688, 0.02498054690659046, 0.005986365489661694, -0.029210079461336136, 0.0035045654512941837, 0.0049529289826750755, 0.02397051826119423, -0.0185813270509243, 0.01844685897231102, -0.026110954582691193, -0.008342902176082134, -0.0019399500451982021, 0.015178961679339409, -0.018317395821213722, 0.004036270081996918, 0.020790040493011475, 0.02752714976668358, -0.004582876805216074, 0.023236412554979324, -0.020592449232935905, -0.012751491740345955, -0.02283748798072338, -0.021648958325386047, 0.021738726645708084, 0.026480432599782944, -0.030444243922829628, 0.006037730723619461, -0.02298709936439991, -0.004911954514682293, -0.013018995523452759, 0.012745916843414307, -0.02543366700410843, 0.008095897734165192, -0.02634977363049984, 0.023848338052630424, -0.025001948699355125, -0.025346925482153893, -0.0199830774217844, -0.004611833952367306, -0.025374215096235275, 0.021439608186483383, -0.027750657871365547, 0.01584765315055847, -0.01977660320699215, -0.01753152161836624, -0.024955887347459793, -0.006283431779593229, -0.02523775026202202, -0.004818132147192955, 0.017911357805132866, 0.022054487839341164, -0.02393258735537529, -0.019750626757740974, -0.023691898211836815, -0.005718123633414507, -0.03207064047455788, 0.02846044860780239, -0.02040592022240162, -0.0051740617491304874, -0.028525855392217636, 0.02544184774160385, -0.004638602025806904, 0.025176383554935455, -0.005148772615939379, -0.02378329634666443, -0.004110526293516159, 0.004705885890871286, -0.004714940674602985, 0.0279880128800869, -0.025302531197667122, 0.023510662838816643, -0.005758439656347036, -0.005512838717550039, -0.026920260861516, 0.024840321391820908, -0.01699947752058506, 0.02457095868885517], [0.010407642461359501, -0.011308280751109123, 0.010176831856369972, 0.008659382350742817, 0.004734789486974478, -0.004061521962285042, 0.011116400361061096, 0.004581689368933439, 0.011788423173129559, 0.004667213186621666, 0.005146033130586147, 0.015741191804409027, -0.009771882556378841, -0.0035006427206099033, 0.010787585750222206, 0.009343938902020454, -0.013299011625349522, -0.003432454541325569, -0.01253130380064249, -0.013921936973929405, 0.006213180720806122, 0.011944252997636795, 0.008513443171977997, 0.012100661173462868, -0.009226152673363686, -0.012290151789784431, -0.008257252164185047, -0.0040147313848137856, 0.013265823014080524, -0.008024046197533607, 0.008145450614392757, -0.00408709654584527, 0.005949744489043951, 0.008945618756115437, -0.005038602743297815, -0.003842892125248909, 0.00864661019295454, 0.009112332947552204, -0.014936588704586029, -0.007789701223373413, -0.014130562543869019, -0.012808958068490028, 0.011087452061474323, -0.004530149046331644, 0.011723128147423267, 0.013592036440968513, 0.008949978277087212, -0.011400364339351654, 0.004082501400262117, 0.0047379788011312485, -0.009541580453515053, -0.00925796665251255, -0.004760610871016979, -0.0042537203989923, 0.007837705314159393, -0.010605283081531525, -0.004069108981639147, -0.014961863867938519, 0.009587529115378857, -0.009781595319509506, 0.004720593802630901, 0.014603802934288979, 0.006421953905373812, -0.0007837506127543747, 0.007781386841088533, -0.012051243335008621, -0.006027581170201302, -0.013640612363815308, 0.003580343909561634, -0.01437746174633503, 0.012503397651016712, 0.011172319762408733, 0.01360111590474844, 0.008398255333304405, -0.010044053196907043, -0.009599532000720501, 0.01333486195653677, -0.009629073552787304, 0.004598215222358704, 0.009043264202773571, 0.0037971048150211573, -0.01178199052810669, 0.009224282577633858, -0.012190141715109348, 0.005232613068073988, -0.00939404871314764, 0.003653771011158824, 0.014405526220798492, 0.004314839374274015, 0.009675719775259495, 0.013493754900991917, -0.01241322048008442, 0.010542476549744606, -0.012789523229002953, 0.01283009722828865, 0.011265628039836884, 0.004904704634100199, 0.012288819067180157, 0.012885929085314274, 0.010307311080396175, -0.009317033924162388, -0.010690854862332344, 0.014631715603172779, 0.012547748163342476, 0.003953926730901003, 0.0037046850193291903, 0.013260943815112114, -0.011895310133695602, 0.007959210313856602, 0.003876418573781848, 0.010961491614580154, -0.009064196608960629, 0.01454379502683878, -0.01215323992073536, 0.011560505256056786, 0.003920560237020254, 0.00377287226729095, -0.012765918858349323, 0.014813273213803768, -0.007540291175246239, 0.010599580593407154, -0.004568549804389477, 0.014697819948196411, 0.008495462127029896, 0.011169664561748505, -0.012973925098776817, 0.013700921088457108, -0.01402655802667141], [0.004669018555432558, -0.02921088971197605, 0.028889566659927368, 0.03261271491646767, 0.012555048801004887, -0.002359844511374831, 0.01310605090111494, 0.00262974901124835, 0.0284452922642231, 0.027296224609017372, 0.02510249800980091, 0.0018841336714103818, -0.025835245847702026, -0.007832877337932587, 0.02787751518189907, 0.029325583949685097, -0.005296428222209215, -0.004067422356456518, -0.0018862232100218534, -0.004766319878399372, 0.030278658494353294, 0.02801772952079773, 0.005193689838051796, 0.003883394645527005, -0.006455801893025637, -0.0056389328092336655, -0.009763162583112717, -0.0024138970766216516, 0.0027043060399591923, -0.026783231645822525, 0.02809613011777401, -0.00606232974678278, 0.032418832182884216, 0.015220695175230503, -0.028051719069480896, -0.0024756542406976223, 0.005667733959853649, 0.005162864923477173, -0.02220720238983631, -0.02537439949810505, -0.0024155662395060062, -0.00831145141273737, 0.004637214820832014, -0.026904212310910225, 0.006375467404723167, 0.005709240213036537, 0.00515010766685009, -0.009516751393675804, 0.004406840540468693, 0.028349492698907852, -0.005799124948680401, -0.005087397992610931, -0.02379000373184681, -0.008132560178637505, 0.02998429723083973, -0.01829911209642887, -0.028560882434248924, -0.005388149060308933, 0.026330118998885155, -0.0050278278067708015, 0.020750008523464203, 0.028065919876098633, 0.01401696726679802, -0.0062185931019485, 0.01277053914964199, -0.004931487143039703, -0.03405386954545975, -0.0075800116173923016, 0.020674237981438637, -0.01045097503811121, 0.0041739619337022305, 0.026921914890408516, 0.01034869346767664, 0.02992302179336548, -0.009487602859735489, -0.005758920218795538, 0.006453932728618383, -0.006186952814459801, 0.005871714558452368, 0.02688569203019142, 0.003931748680770397, -0.004937713034451008, 0.004753111395984888, -0.026849692687392235, 0.03256703540682793, -0.032018084079027176, 0.005448656622320414, 0.010710930451750755, 0.004047291819006205, 0.0030012736096978188, 0.005197371821850538, -0.002090060617774725, 0.02328263781964779, -0.031602535396814346, 0.0039770333096385, 0.005633626598864794, 0.002570944605395198, 0.030163779854774475, 0.0053484030067920685, 0.029886962845921516, -0.03384215012192726, -0.014889024198055267, 0.002870167838409543, 0.030429838225245476, 0.005683707073330879, 0.0021076230332255363, 0.0028197725769132376, -0.011702043004333973, 0.002688154112547636, 0.025998583063483238, 0.03513307124376297, -0.00936507061123848, 0.005227976944297552, -0.002186628058552742, 0.00635059829801321, 0.0049379426054656506, 0.0018957131542265415, -0.02824496664106846, 0.007217780686914921, -0.0056119211949408054, 0.00470467284321785, -0.0327417328953743, 0.00972440280020237, 0.007149941753596067, 0.002713772002607584, -0.02266847714781761, 0.030654894188046455, -0.002885746769607067], [0.006751879584044218, -0.013513085432350636, 0.004854755010455847, 0.012359601445496082, 0.005365794990211725, -0.018168527632951736, 0.015413261950016022, 0.016514860093593597, 0.011948579922318459, 0.01219160482287407, 0.004581803921610117, 0.016532817855477333, -0.005529078189283609, -0.016130974516272545, 0.004312724806368351, 0.012184265069663525, -0.012365671806037426, -0.015774738043546677, -0.01472683809697628, -0.017847327515482903, 0.01382120419293642, 0.014508870430290699, 0.013346211053431034, 0.014390182681381702, -0.013548028655350208, -0.01609947346150875, -0.013469097204506397, -0.01496383361518383, 0.004460302647203207, -0.00579839525744319, 0.0086534284055233, -0.020881596952676773, 0.007420259993523359, 0.017280282452702522, -0.011842198669910431, -0.016014695167541504, 0.013509286567568779, 0.004118936602026224, -0.014283547177910805, -0.009640107862651348, -0.018805136904120445, -0.01638765074312687, 0.01491034496575594, -0.013415711931884289, 0.014521334320306778, 0.01625550352036953, 0.014984660781919956, -0.016415121033787727, 0.015884654596447945, 0.014630027115345001, -0.015335459262132645, -0.01352714654058218, -0.014811787754297256, -0.016325106844305992, 0.005427916534245014, -0.015298889018595219, -0.013421324081718922, -0.006482635624706745, 0.015330778434872627, -0.0162697434425354, 0.004424296319484711, 0.009896022267639637, 0.02345149964094162, -0.010695749893784523, 0.014268973842263222, -0.0040872725658118725, -0.005052787717431784, -0.013275711797177792, 0.009374321438372135, -0.01175311952829361, 0.013128086924552917, 0.01093385647982359, 0.015871508046984673, 0.014705627225339413, -0.015219797380268574, -0.016472192481160164, 0.004473501350730658, -0.014381876215338707, 0.006680247373878956, 0.011799546889960766, 0.017225950956344604, -0.017325617372989655, 0.01187801081687212, -0.007423502393066883, 0.01663724146783352, -0.011080700904130936, 0.012854073196649551, 0.016742335632443428, 0.01512148603796959, 0.012341370806097984, 0.019231026992201805, -0.004122360143810511, 0.018360478803515434, -0.013597694225609303, 0.018360618501901627, 0.004878130275756121, 0.016237059608101845, 0.005053719971328974, 0.004480140283703804, 0.014798149466514587, -0.014819440431892872, -0.00406487425789237, 0.022568874061107635, 0.004966069012880325, 0.004233189392834902, 0.018530026078224182, 0.005094563588500023, -0.011414865963160992, 0.01751043274998665, 0.010250425897538662, 0.013641875237226486, -0.012869622558355331, 0.006187479477375746, -0.013312757015228271, 0.01655971258878708, 0.014355259016156197, 0.014410504139959812, -0.014029104262590408, 0.014698518440127373, -0.012828684411942959, 0.01628643274307251, -0.014071243815124035, 0.015986409038305283, 0.013149484060704708, 0.016023248434066772, -0.016336951404809952, 0.0050099315121769905, -0.018550530076026917], [-0.007091159466654062, 0.007542642764747143, -0.0067480639554560184, -0.009173868224024773, -0.007046970538794994, 0.009150903671979904, -0.004458008334040642, -0.0037763973232358694, -0.0036411306355148554, -0.0061971149407327175, -0.0023893765173852444, -0.007885235361754894, 0.008118613623082638, 0.0030164739582687616, -0.0061074900440871716, -0.003337525762617588, 0.0064513590186834335, 0.008531196042895317, 0.010236593894660473, 0.010026523843407631, -0.007185108959674835, -0.004949302412569523, -0.0076043508015573025, -0.005603452678769827, 0.002928041620180011, 0.0062630209140479565, 0.006659445818513632, 0.006571951787918806, -0.0063606854528188705, 0.0045374659821391106, -0.00041190037154592574, 0.009628912433981895, -0.006783203687518835, -0.0023164984304457903, 0.003520877566188574, 0.006943976040929556, -0.00593244843184948, -0.004267680458724499, 0.0042982627637684345, 0.004442689009010792, 0.0037807754706591368, 0.005975642241537571, -0.007211276330053806, 0.0031891155522316694, -0.0032366085797548294, -0.003319619921967387, -0.0018158144084736705, 0.0024010888300836086, -0.0040615759789943695, -0.004524699877947569, 0.005597122944891453, 0.002762901596724987, 0.0050209565088152885, 0.007663233205676079, -0.0021284958347678185, 0.0034964182414114475, 0.0035731149837374687, 0.008841480128467083, -0.008826561272144318, 0.008249558508396149, -0.001770094269886613, -0.00985786598175764, -0.005092618986964226, 0.0019634838681668043, -0.0028898196760565042, 0.007297884672880173, 0.007839705795049667, 0.0043656229972839355, -0.0063402652740478516, 0.011058587580919266, -0.008393323048949242, -0.004115134011954069, -0.006888909265398979, -0.004200390540063381, 0.004002652131021023, 0.002933189971372485, -0.007938521914184093, 0.007404905743896961, -0.00526755815371871, -0.006089664995670319, -0.009868819266557693, 0.008183077909052372, -0.0035717617720365524, 0.003898793598636985, -0.006676929537206888, 0.003694318002089858, -0.007115161512047052, -0.008180870674550533, -0.00788907427340746, -0.003934438806027174, -0.006696718744933605, 0.010620024986565113, -0.0012316431384533644, 0.002364863408729434, -0.0077763767912983894, -0.004065120127052069, -0.005976826883852482, -0.0033758962526917458, -0.005442646332085133, -0.0032102304976433516, 0.0037922083865851164, 0.006126087158918381, -0.0019655199721455574, -0.005285515915602446, -0.007485002279281616, -0.007655249908566475, -0.004254426807165146, 0.0029245023615658283, -0.008039155043661594, -0.00310888746753335, -0.002977230818942189, 0.0023540896363556385, -0.006833645980805159, 0.006007874850183725, -0.004333186894655228, -0.005507949739694595, -0.003096642903983593, 0.004928904119879007, -0.006630004849284887, 0.003133190795779228, -0.0029949811287224293, 0.00370071385987103, -0.003145132912322879, -0.0034465882927179337, -0.005111682694405317, 0.0040959687903523445, -0.004166217986494303, 0.005034595262259245], [0.0035779718309640884, -0.02990797534584999, 0.005780814681202173, 0.005672629456967115, 0.006231706123799086, -0.002005003858357668, 0.0019665684085339308, 0.002184009412303567, 0.030345041304826736, 0.02874128893017769, 0.031280528753995895, 0.001758070313371718, -0.005439911503344774, -0.004155329428613186, 0.028659682720899582, 0.04068662226200104, -0.026808852329850197, -0.006112098228186369, -0.004914200399070978, -0.02092617005109787, 0.006355405785143375, 0.027826791629195213, 0.0061997827142477036, 0.016904156655073166, -0.026698606088757515, -0.005502399057149887, -0.021612951532006264, -0.0037629303988069296, 0.0021016737446188927, -0.007653012406080961, 0.041257113218307495, -0.0041859345510602, 0.004826218355447054, 0.0021192338317632675, -0.035155683755874634, -0.027173809707164764, 0.0286885853856802, 0.0076087177731096745, -0.013404048047959805, -0.03258713334798813, -0.006358763203024864, -0.003986588679254055, 0.0056280759163200855, -0.030068302527070045, 0.024752900004386902, 0.006930420640856028, 0.0024963757023215294, -0.005834733601659536, 0.006481881253421307, 0.004307596478611231, -0.02950567565858364, -0.006215372122824192, -0.029643481597304344, -0.01979871094226837, 0.027359357103705406, -0.013728470541536808, -0.03235240280628204, -0.0016335578402504325, 0.0042552943341434, -0.0258403941988945, 0.017130056396126747, 0.0050688679330050945, 0.008106613531708717, -0.0056390888057649136, 0.026063663884997368, -0.02142348513007164, -0.005516157951205969, -0.0032743746414780617, 0.027791498228907585, -0.00708664720878005, 0.020896391943097115, 0.02565735951066017, 0.01805906370282173, 0.02453102171421051, -0.004862048663198948, -0.021597038954496384, 0.015847299247980118, -0.0038562959525734186, 0.03762413561344147, 0.005446623545140028, 0.003637472400441766, -0.004224017728120089, 0.022756658494472504, -0.025894904509186745, 0.006980889942497015, -0.02050788886845112, 0.018683403730392456, 0.0018980205059051514, 0.005615547765046358, 0.03220893070101738, 0.0063444944098591805, -0.006298860535025597, 0.009839517064392567, -0.03697393089532852, 0.00209680269472301, 0.037390630692243576, 0.003316206857562065, 0.03289659693837166, 0.008708039298653603, 0.03788167983293533, -0.02919061854481697, -0.026981856673955917, 0.0071919928304851055, 0.009704980067908764, 0.006432289723306894, 0.0016436362639069557, 0.0023733971174806356, -0.006224233191460371, 0.007082891650497913, 0.0350952073931694, 0.043392714112997055, -0.03829581290483475, 0.002091399859637022, -0.014062756672501564, 0.007337492424994707, 0.001578564173541963, 0.004683064296841621, -0.036988452076911926, 0.003703128779307008, -0.010069850832223892, 0.0022469237446784973, -0.005261312238872051, 0.004230216611176729, 0.03245505318045616, 0.016874128952622414, -0.02494330331683159, 0.03493482992053032, -0.006365050096064806], [0.004103653132915497, -0.012520826421678066, 0.0077309864573180676, 0.004526426550000906, 0.004645124077796936, -0.0042415508069098, 0.007220093160867691, 0.011220810003578663, 0.009047956205904484, 0.008966503664851189, 0.006352342665195465, 0.009844278916716576, -0.009702117182314396, -0.012051491066813469, 0.003597652306780219, 0.0064771296456456184, -0.008090303279459476, -0.010739701800048351, -0.010069026611745358, -0.01163740735501051, 0.004350760020315647, 0.009451040998101234, 0.011725930497050285, 0.004094299394637346, -0.003977607004344463, -0.008658587001264095, -0.011600501835346222, -0.009014083072543144, 0.006749878637492657, -0.010310035198926926, 0.005774245597422123, -0.011119483038783073, 0.005078491754829884, 0.011345267295837402, -0.008999119512736797, -0.008166844956576824, 0.003600112395361066, 0.0077683571726083755, -0.016426408663392067, -0.007484149187803268, -0.010445195250213146, -0.011668960563838482, 0.009792156517505646, -0.0050541311502456665, 0.007430899888277054, 0.00477615324780345, 0.003949753940105438, -0.006981261074542999, 0.01233248133212328, 0.008573729544878006, -0.004211575724184513, -0.003698084270581603, -0.003200572682544589, -0.0054689329117536545, 0.006037661340087652, -0.010693932883441448, -0.005362865049391985, -0.008558470755815506, 0.0033607296645641327, -0.012274185195565224, 0.003821207443252206, 0.01316874846816063, 0.004266057629138231, -0.0035565022844821215, 0.003912936896085739, -0.0038649013731628656, -0.010635645128786564, -0.003760306863114238, 0.011663215234875679, -0.005359100643545389, 0.004930431488901377, 0.004584836307913065, 0.006927867420017719, 0.0038097964134067297, -0.01044352538883686, -0.007614621426910162, 0.008750773034989834, -0.003945461008697748, 0.008171726018190384, 0.007749719079583883, 0.007198982406407595, -0.008945452980697155, 0.009129401296377182, -0.01301269605755806, 0.007224997505545616, -0.011343099176883698, 0.005787995178252459, 0.0037442559842020273, 0.0033751768060028553, 0.011374462395906448, 0.00413164496421814, -0.009148741140961647, 0.0030395162757486105, -0.005212985444813967, 0.010766645893454552, 0.0040952120907604694, 0.010387217625975609, 0.010851724073290825, 0.007257079239934683, 0.0035456917248666286, -0.004470729734748602, -0.0034823312889784575, 0.007643030025064945, 0.008719871751964092, 0.009647760540246964, 0.012249359861016273, 0.006851397920399904, -0.008880379609763622, 0.009023800492286682, 0.010089745745062828, 0.005501426290720701, -0.010058523155748844, 0.0036490517668426037, -0.008724678307771683, 0.010366575792431831, 0.010544560849666595, 0.013099610805511475, -0.006432867143303156, 0.012292522937059402, -0.009816142730414867, 0.009163240902125835, -0.0038511843886226416, 0.00939845945686102, 0.008034888654947281, 0.0036310835275799036, -0.004235505126416683, 0.007064671255648136, -0.010249110870063305], [0.007391392719000578, -0.003280912758782506, 0.008745244704186916, 0.009651576168835163, 0.005310714244842529, -0.0038423228543251753, 0.010910999029874802, 0.007679417729377747, 0.006406198721379042, 0.004963581450283527, 0.00457783043384552, 0.012017367407679558, -0.0071251592598855495, -0.01185440644621849, 0.0034280738327652216, 0.0015144554199650884, -0.0059428708627820015, -0.01253525447100401, -0.003268350614234805, -0.007114572916179895, 0.0038174542132765055, 0.007981156930327415, 0.007786668371409178, 0.006995792035013437, -0.009030782617628574, -0.011987673118710518, -0.00564063573256135, -0.004412900190800428, 0.004606686066836119, -0.007645145058631897, 0.003963498864322901, -0.0039962297305464745, 0.009523146785795689, 0.0057617356069386005, -0.005765503738075495, -0.007291736546903849, 0.006148528307676315, 0.008538796566426754, -0.007101129274815321, -0.007743820082396269, -0.00759921595454216, -0.011423977091908455, 0.008783034048974514, -0.003210975555703044, 0.007561997976154089, 0.0035031845327466726, 0.004541438072919846, -0.007949363440275192, 0.004132050555199385, 0.003720284905284643, -0.004373316187411547, -0.008458792231976986, -0.0037088259123265743, -0.00420357147231698, 0.004466846119612455, -0.0035719075240194798, -0.008133532479405403, -0.003939691931009293, 0.010007544420659542, -0.0030603946652263403, 0.00618716748431325, 0.008152371272444725, 0.017769906669855118, -0.0059516094624996185, 0.0064084772020578384, -0.006781483069062233, -0.004855545237660408, -0.013450111262500286, 0.0036212708801031113, -0.00635624909773469, 0.0030616656877100468, 0.003731462173163891, 0.011786263436079025, 0.0031038348097354174, -0.003192627802491188, -0.008485386148095131, 0.004650409333407879, -0.003604256547987461, 0.004869366995990276, 0.006592419929802418, 0.011095182038843632, -0.00859609805047512, 0.003862017532810569, -0.004279314074665308, 0.004096067976206541, -0.004750340711325407, 0.0035414097364991903, 0.010537173599004745, 0.010497216135263443, 0.003993386868387461, 0.003911948762834072, -0.004335100296884775, 0.017800284549593925, -0.01626182161271572, 0.0030464334413409233, 0.0036385420244187117, 0.00899839773774147, 0.004517245572060347, 0.0038914403412491083, 0.005242811981588602, -0.004318161401897669, -0.008603349328041077, 0.009239117614924908, 0.008959436789155006, 0.003649982390925288, 0.01091616228222847, 0.007797944825142622, -0.005892873741686344, 0.0036601233296096325, 0.008749231696128845, 0.008120553568005562, -0.008012400008738041, 0.0108643164858222, -0.01096561923623085, 0.003740588203072548, 0.0033817808143794537, 0.0073542469181120396, -0.007485277019441128, 0.005869815591722727, -0.004734608810395002, 0.006317049730569124, -0.009402766823768616, 0.003344947472214699, 0.004559338558465242, 0.0034854747354984283, -0.0034950643312186003, 0.0066963862627744675, -0.007358322851359844], [0.004000658169388771, -0.005541475489735603, 0.0051804520189762115, 0.0020336038433015347, 0.004223193507641554, -0.004562351852655411, 0.002194314496591687, 0.005398751236498356, 0.0017263178015127778, 0.0020474412012845278, 0.003422142006456852, 0.008601216599345207, -0.004891517572104931, -0.005479770712554455, 0.005524123553186655, 0.004104727879166603, -0.002480294555425644, -0.0029581859707832336, -0.0030059944838285446, -0.00438400823622942, 0.0009830116759985685, 0.0012389214243739843, 0.0037713712081313133, 0.005705984774976969, -0.0019177208887413144, -0.003701298264786601, -0.004451060201972723, -0.002819817280396819, 0.002143928548321128, -0.0033929755445569754, 0.0009787982562556863, -0.0035724537447094917, 0.003096770029515028, 0.004215740133076906, -0.0023849315475672483, -0.0013947077095508575, 0.004031728953123093, 0.0058436100371181965, -0.0025671222247183323, -0.004163235891610384, -0.0026340314652770758, -0.002702044788748026, 0.005837767384946346, -0.004102468024939299, 0.0007954213651828468, 0.004568004049360752, 0.015138900838792324, -0.0016176149947568774, 0.0032847386319190264, 0.003877830458804965, -0.0034598498605191708, -0.003493997035548091, -0.015542020089924335, -0.0012387671740725636, 0.0014709895476698875, -0.003588592866435647, -0.0038920834194868803, -0.0035771457478404045, 0.002891846699640155, -0.006587837357074022, 0.0033058151602745056, 0.002341929590329528, 0.007020017132163048, -0.0006947402725927532, 0.0031518354080617428, -0.0037559133488684893, -0.002710865344852209, -0.0057144202291965485, 0.0020252768881618977, -0.010415795259177685, 0.004099724814295769, 0.0030846816953271627, 0.002863934263586998, 0.002580215223133564, -0.002935240976512432, -0.0024297621566802263, 0.003479446517303586, -0.0034076939336955547, 0.002925482578575611, 0.00349404732696712, 0.0034290023613721132, -0.0019642694387584925, 0.004067541565746069, -0.005026934202760458, 0.002920371713116765, -0.0014796751784160733, 0.0017949604662135243, 0.003757462138310075, 0.0029336679726839066, 0.0038027281407266855, 0.00034486220101825893, -0.0032860238570719957, 0.010115109384059906, -0.002046696376055479, 0.0032062039244920015, 0.004097198601812124, 0.005581154488027096, 0.0011936408700421453, 0.003859656397253275, 0.005161602515727282, -0.0040037622675299644, -0.0020150411874055862, 0.0012407120084390044, 0.002994839334860444, 0.0014474039198830724, 0.003323717974126339, 0.004622889216989279, -0.003647089935839176, 0.003774831769987941, 0.004490547813475132, 0.0003546143416315317, -0.0002413666370557621, 0.006516130641102791, -0.003163872752338648, 0.006781268864870071, 0.004460906609892845, 0.002248806180432439, -0.0012001633876934648, 0.0025181013625115156, -0.00356325157918036, 0.0014507609885185957, -0.0035739524755626917, 0.0011444424744695425, 0.0015177997993305326, 0.0025408072397112846, -0.001828121254220605, 0.003371698781847954, -0.0017808873672038317], [0.0031934366561472416, -0.0034403237514197826, 0.00319311348721385, 0.0037701583933085203, 0.0008768892148509622, -0.0031479336321353912, 0.004275072365999222, 0.005671341437846422, 0.002531008329242468, 0.005345785524696112, 0.0037317576352506876, 0.008272592909634113, -0.0029695755802094936, -0.008709379471838474, 0.002108208602294326, 0.0020701580215245485, -0.0069390516728162766, -0.008978665806353092, -0.01105305552482605, -0.00747074605897069, 0.00150446523912251, 0.002970934147015214, 0.004955991171300411, 0.00462744478136301, -0.003315356560051441, -0.004132239148020744, -0.0027873425278812647, -0.0033750482834875584, 0.002206681529060006, -0.003010137239471078, 0.0008732827845960855, -0.0038316939026117325, 0.0034040764439851046, 0.002901162952184677, -0.0031588010024279356, -0.005461889784783125, 0.003994243685156107, 0.003632250940427184, -0.009944837540388107, -0.003890972351655364, -0.0026312952395528555, -0.0107435816898942, 0.0033095127437263727, -0.004054304677993059, 0.0006747785373590887, 0.006992146838456392, 0.001919803791679442, -0.0031157108023762703, 0.007171736564487219, 0.004800333175808191, -0.0036216932348906994, -0.005099649541079998, -0.007132503669708967, -0.0033226257655769587, 0.000539730244781822, -0.003934090957045555, -0.0053635891526937485, -0.003268067492172122, 0.0028613393660634756, -0.004777527879923582, 0.003562545869499445, 0.007113117724657059, 0.0010805432684719563, -0.006417217664420605, 0.003789053065702319, -0.0029198010452091694, -0.007979901507496834, -0.005051081534475088, 0.0033335897605866194, -0.012351137585937977, 0.0033656617160886526, 0.005907402839511633, 0.006721743382513523, 0.00324376136995852, -0.00808902457356453, -0.002191155683249235, 0.005070894490927458, -0.00532544543966651, 0.003094013314694166, 0.007427467033267021, 0.007405341602861881, -0.0033444520086050034, 0.002724871737882495, -0.003523381659761071, 0.004538083914667368, -0.006783334072679281, 0.0027674708981066942, 0.007160713896155357, 0.010284560732543468, 0.009631751105189323, 0.0016436140285804868, -0.008560288697481155, 0.0023934056516736746, -0.002690281253308058, 0.004425660707056522, 0.007400738075375557, 0.004219041205942631, 0.0033173265401273966, 0.0036911347415298223, 0.0019830497913062572, -0.0032026506960392, -0.002719579730182886, 0.0028293116483837366, 0.002829092787578702, 0.003440089290961623, 0.0071148197166621685, 0.004517924040555954, -0.0028208426665514708, 0.002243376336991787, 0.0030886109452694654, 0.0006585753872059286, -0.005055541172623634, 0.004227987490594387, -0.003913249354809523, 0.003174394369125366, 0.007349840831011534, 0.0030215380247682333, -0.0031720248516649008, 0.011074954643845558, -0.002119319746270776, 0.003696383908390999, -0.0036861856933683157, 0.0022837440483272076, 0.004703848622739315, 0.006537588778883219, -0.003676661057397723, 0.003586661070585251, -0.004276780411601067], [0.016504380851984024, -0.011539844796061516, 0.0120118772611022, 0.003848452353850007, 0.013128918595612049, -0.01590101607143879, 0.006495125591754913, 0.00427888473495841, 0.0045847054570913315, 0.004515259992331266, 0.011263190768659115, 0.007208579685539007, -0.014741349965333939, -0.016223376616835594, 0.012629691511392593, 0.012881603091955185, -0.004176691640168428, -0.007143927738070488, -0.015480691567063332, -0.005112599581480026, 0.015111908316612244, 0.014580722898244858, 0.014771735295653343, 0.016108987852931023, -0.012479887343943119, -0.016298776492476463, -0.01641465723514557, -0.014650007709860802, 0.01570584625005722, -0.004857131280004978, 0.006273087579756975, -0.01684080809354782, 0.015180930495262146, 0.00445076497271657, -0.005903992801904678, -0.012517115101218224, 0.011527037248015404, 0.012925309129059315, -0.0057733370922505856, -0.013755563646554947, -0.009972717612981796, -0.016278443858027458, 0.016763081774115562, -0.009941422380506992, 0.012811025604605675, 0.022641576826572418, 0.015738174319267273, -0.015560462139546871, 0.011930865235626698, 0.014326835051178932, -0.005681476090103388, -0.015201184898614883, -0.008580600842833519, -0.015478575602173805, 0.015469369478523731, -0.014763033017516136, -0.01203558687120676, -0.003909336868673563, 0.006276255007833242, -0.0037844195030629635, 0.014216765761375427, 0.004789656028151512, 0.017525628209114075, -0.002663184655830264, 0.004674036055803299, -0.011815764009952545, -0.01112178061157465, -0.017921114340424538, 0.012599247507750988, -0.004170455504208803, 0.014747929759323597, 0.013225274160504341, 0.015119766816496849, 0.011082838289439678, -0.011936984956264496, -0.011932850815355778, 0.016502084210515022, -0.017074482515454292, 0.00997978262603283, 0.004861231427639723, 0.017812330275774002, -0.005897331051528454, 0.003970451653003693, -0.011658565141260624, 0.016172047704458237, -0.011537211947143078, 0.015652552247047424, 0.013739926740527153, 0.01691150851547718, 0.011151516810059547, 0.01932932622730732, -0.01838052272796631, 0.017887717112898827, -0.013878255151212215, 0.01707109436392784, 0.011545289307832718, 0.017570672556757927, 0.008647581562399864, 0.003950293641537428, 0.014195987023413181, -0.01380794495344162, -0.010991721414029598, 0.02011760324239731, 0.006097780074924231, 0.018605835735797882, 0.011676515452563763, 0.00526858028024435, -0.01740870252251625, 0.016671419143676758, 0.010474913753569126, 0.0063296714797616005, -0.01169895101338625, 0.015772590413689613, -0.004363435320556164, 0.004822969902306795, 0.014296390116214752, 0.017248816788196564, -0.013436833396553993, 0.015842419117689133, -0.004275706131011248, 0.01634124107658863, -0.0047535221092402935, 0.004020898137241602, 0.008783966302871704, 0.0040823626331985, -0.013590531423687935, 0.004816253203898668, -0.01631181314587593], [0.008304341696202755, -0.0034602596424520016, 0.004350570961833, 0.006395649164915085, 0.002796369604766369, -0.009178281761705875, 0.007435498293489218, 0.007650922052562237, 0.004211468622088432, 0.0028863304760307074, 0.004854283295571804, 0.010578423738479614, -0.0033701793290674686, -0.0029797081369906664, 0.004122824873775244, 0.004671772010624409, -0.005299306008964777, -0.008734951727092266, -0.011019464582204819, -0.0037434406112879515, 0.006394542288035154, 0.002525696763768792, 0.0073639689944684505, 0.007024511229246855, -0.004281324800103903, -0.0075647663325071335, -0.0033687998075038195, -0.004755575209856033, 0.007654207292944193, -0.004210019484162331, 0.004397510550916195, -0.009845856577157974, 0.0032481688540428877, 0.003444147063419223, -0.0051361024379730225, -0.005121987778693438, 0.003443871159106493, 0.0031566726975142956, -0.004853054415434599, -0.003180381841957569, -0.00413301307708025, -0.010099003091454506, 0.005510890856385231, -0.004303813446313143, 0.003976885695010424, 0.008672831580042839, 0.003334831213578582, -0.004866806324571371, 0.0032451129518449306, 0.003131905337795615, -0.006273949984461069, -0.0027942704036831856, -0.001819825847633183, -0.005527362693101168, 0.0026254833210259676, -0.004751626867800951, -0.002853431273251772, -0.008277986198663712, 0.0053600431419909, -0.0033974400721490383, 0.0054351286962628365, 0.00853328313678503, 0.005463819019496441, -0.00836603157222271, 0.007272026967257261, -0.004079779144376516, -0.003565787570551038, -0.005206771194934845, 0.003108210163190961, -0.0017372905276715755, 0.009608404710888863, 0.003932128194719553, 0.003461444517597556, 0.005669598933309317, -0.0033499794080853462, -0.0034242109395563602, 0.003765877103433013, -0.004200409632176161, 0.0038604277651757, 0.0025416873395442963, 0.0039076171815395355, -0.004198420327156782, 0.004414780996739864, -0.004312516655772924, 0.0039918553084135056, -0.003244722029194236, 0.004287062678486109, 0.007040075492113829, 0.010541407391428947, 0.0037176087498664856, 0.004397768061608076, -0.008955849334597588, 0.0036715713795274496, -0.0043586986139416695, 0.00649320287629962, 0.003548487788066268, 0.0065487464889883995, 0.002224395517259836, 0.0044902474619448185, 0.004111014306545258, -0.0035636071115732193, -0.004713119938969612, 0.0023794928565621376, 0.002783019095659256, 0.002984006889164448, 0.003385680029168725, 0.002981991972774267, -0.0041669439524412155, 0.002940843813121319, 0.004819829016923904, 0.004976295400410891, -0.0017171234358102083, 0.0042389435693621635, -0.0056016030721366405, 0.0034908540546894073, 0.008557758294045925, 0.007681927643716335, -0.002305584726855159, 0.009430156089365482, -0.004029680043458939, 0.0042182630859315395, -0.005672920495271683, 0.006245594006031752, 0.003495682030916214, 0.004214561078697443, -0.0037220935337245464, 0.005231691058725119, -0.0032776331063359976], [-0.010460342280566692, 0.009492500685155392, -0.0038470325525850058, -0.006984975654631853, -0.007708220276981592, 0.011395920068025589, -0.006224588956683874, -0.004308592528104782, -0.004828501958400011, -0.009804854169487953, -0.0038027327973395586, -0.011225533671677113, 0.008214693516492844, 0.011203004978597164, -0.0038928757421672344, -0.0035868962295353413, 0.006456953939050436, 0.009687240235507488, 0.008841018192470074, 0.01084413006901741, -0.004175302106887102, -0.005048159044235945, -0.011665795929729939, -0.007774326950311661, 0.00585872121155262, 0.00920651201158762, 0.004178259056061506, 0.005126474425196648, -0.008558354340493679, 0.003776350524276495, -0.0055051157251000404, 0.010562220588326454, -0.006500814575701952, -0.004155497532337904, 0.0048088738694787025, 0.00822227168828249, -0.004720850382000208, -0.004113079514354467, 0.006846931762993336, 0.007608311250805855, 0.006927276495844126, 0.009874756447970867, -0.005403983872383833, 0.006839514244347811, -0.007462034933269024, -0.00965139176696539, -0.008394081145524979, 0.009531007148325443, -0.004298293963074684, -0.004553850274533033, 0.0040306225419044495, 0.009741358458995819, 0.0068221502006053925, 0.00905362144112587, -0.007689515594393015, 0.010943036526441574, 0.004449285101145506, 0.0034915723372250795, -0.008785860612988472, 0.011100648902356625, -0.005508906673640013, -0.006482362747192383, -0.006395160220563412, 0.011225140653550625, -0.0033850842155516148, 0.009794473648071289, 0.008749354630708694, 0.010482221841812134, -0.0034538372419774532, 0.007870551198720932, -0.0029683418106287718, -0.004225622862577438, -0.006545482203364372, -0.008008243516087532, 0.009748377837240696, 0.006605210248380899, -0.0037188229616731405, 0.006595096550881863, -0.009048942476511002, -0.008520678617060184, -0.008137023076415062, 0.0035062378738075495, -0.006766879931092262, 0.008892611600458622, -0.005913008935749531, 0.0049279602244496346, -0.006141552701592445, -0.010776364244520664, -0.009520569816231728, -0.006140790414065123, -0.008857076987624168, 0.011662385426461697, -0.004131749738007784, 0.006735318806022406, -0.00941389799118042, -0.004264810588210821, -0.010524623095989227, -0.005363516043871641, -0.004532468970865011, -0.004045552108436823, 0.006242317613214254, 0.007447854615747929, -0.005409043747931719, -0.007388209458440542, -0.005708110053092241, -0.012469562701880932, -0.007458651904016733, 0.0068220761604607105, -0.00783184077590704, -0.0033640058245509863, -0.00771960848942399, 0.006571289151906967, -0.01003841683268547, 0.004008392803370953, -0.008226494304835796, -0.008134494535624981, -0.00895853154361248, 0.009244226850569248, -0.012718116864562035, 0.00441057700663805, -0.005579919554293156, 0.0036649329122155905, -0.005863635800778866, -0.0034915758296847343, -0.006589301396161318, 0.004282406065613031, -0.004422666039317846, 0.006667352747172117], [-0.002447131322696805, 0.007420343346893787, -0.004903289955109358, -0.006245267111808062, -0.0033245044760406017, 0.00404412392526865, -0.00655409786850214, -0.002651427173987031, -0.0031638680957257748, -0.003858547890558839, -0.005603936035186052, -0.00477531086653471, 0.006866790354251862, 0.008397873491048813, -0.005598324351012707, -0.0012045466573908925, 0.002694568829610944, 0.007325580343604088, 0.008446188643574715, 0.003655925625935197, -0.005386597942560911, -0.004198853392153978, -0.0036745856050401926, -0.003152859164401889, 0.005884988233447075, 0.0020444539841264486, 0.006173848640173674, 0.006185959093272686, -0.006550557911396027, 0.0005691481637768447, -0.0010142785031348467, 0.0068197958171367645, -0.007682375144213438, -0.003735664300620556, 0.0025914781726896763, 0.005779309663921595, -0.006542680319398642, -0.003999690990895033, 0.008753985166549683, 0.0006344118737615645, 0.002322661690413952, 0.00870377104729414, -0.004696687683463097, 0.001516243675723672, -0.0026209962088614702, -0.003720653709024191, -0.002552914898842573, 0.001890453859232366, -0.0017672781832516193, -0.00503906887024641, 0.006840058136731386, 0.003735255915671587, 0.0008031440083868802, 0.0035899134818464518, -0.005727992858737707, 0.0030745049007236958, 0.0049590617418289185, 0.003910623956471682, -0.002970361616462469, 0.002917437581345439, -0.002995426533743739, -0.004301819019019604, -0.005145222879946232, 0.008579765446484089, -0.0010441680205985904, 0.005417732987552881, 0.0030325360130518675, 0.007387776859104633, -0.0020681004971265793, 0.0037593445740640163, -0.002843065420165658, -0.0037731467746198177, -0.006572485435754061, -0.0028259758837521076, 0.004545422736555338, 0.0032510256860405207, -0.0042732576839625835, 0.0034999637864530087, -0.0012319275410845876, -0.00370183028280735, -0.008462480269372463, 0.003216448239982128, -0.0029344316571950912, 0.003187231719493866, -0.0038826351519674063, 0.0035007342230528593, -0.00378726189956069, -0.0030106953345239162, -0.006230222061276436, -0.004640386439859867, -0.000830832461360842, 0.0032558825332671404, -0.008051377721130848, 0.0070856548845767975, -0.0020409696735441685, -0.00372950523160398, -0.0040563782677054405, -0.0024324783589690924, -0.0043496023863554, -0.0034251061733812094, 0.007194073870778084, 0.004740885924547911, -0.003962507005780935, -0.004635881632566452, -0.0053704846650362015, -0.003148552728816867, -0.003521854057908058, 0.004675804637372494, -0.0012823420111089945, -0.004468547645956278, -0.0036419539246708155, 0.0018308692378923297, -0.004223515745252371, 0.005515072029083967, -0.005300910212099552, -0.003641843795776367, -0.0036931545473635197, 0.004729674197733402, -0.007604994811117649, 0.0030418976675719023, -0.0037598980125039816, 0.004534236155450344, -0.004223116207867861, -0.005046347621828318, -0.0021290816366672516, 0.0070123872719705105, -0.004268125630915165, 0.004862751346081495], [-0.015509863384068012, 0.0036009852774441242, -0.011839880608022213, -0.015567943453788757, -0.005142128095030785, 0.017602575942873955, -0.01654079742729664, -0.01412568986415863, -0.01622534543275833, -0.00496692443266511, -0.014258976094424725, -0.0163667481392622, 0.015678156167268753, 0.0037422406021505594, -0.004263807088136673, -0.004716809839010239, 0.012555355206131935, 0.018754873424768448, 0.003557940712198615, 0.0039515807293355465, -0.014165003784000874, -0.00360286608338356, -0.016456076875329018, -0.0070795114152133465, 0.0041884975507855415, 0.015746502205729485, 0.016360687091946602, 0.016897257417440414, -0.004829124081879854, 0.004958369769155979, -0.0054246517829597, 0.020188448950648308, -0.015441196039319038, -0.007654649671167135, 0.004927440080791712, 0.015098394826054573, -0.011434133164584637, -0.013826464302837849, 0.004973555449396372, 0.00481520127505064, 0.016291171312332153, 0.014344550669193268, -0.015376728028059006, 0.01504511944949627, -0.013727057725191116, -0.022460853680968285, -0.005525749176740646, 0.0043230545707046986, -0.004774010740220547, -0.012935408391058445, 0.013784633949398994, 0.01584494858980179, 0.012392587959766388, 0.004726979415863752, -0.013551990501582623, 0.006750570610165596, 0.010575216263532639, 0.01691843941807747, -0.013646241277456284, 0.014577976427972317, -0.012146104127168655, -0.01760912872850895, -0.004816118627786636, 0.012550296261906624, -0.01544860377907753, 0.013730810955166817, 0.007444947492331266, 0.015314457938075066, -0.017202066257596016, 0.020907312631607056, -0.013388467021286488, -0.0047936588525772095, -0.003536835080012679, -0.01616981066763401, 0.0044235545210540295, 0.014382119290530682, -0.01522432267665863, 0.016269033774733543, -0.009764449670910835, -0.005025717429816723, -0.004407947417348623, 0.018462415784597397, -0.004445458296686411, 0.012554430402815342, -0.004878082312643528, 0.004770874045789242, -0.015406675636768341, -0.01753220148384571, -0.004700439982116222, -0.017731791362166405, -0.00494340481236577, 0.016902653500437737, -0.014859172515571117, 0.003699922002851963, -0.01616026647388935, -0.013032561168074608, -0.016981003805994987, -0.010988648980855942, -0.010846784338355064, -0.014042850583791733, 0.004499607253819704, 0.0046117063611745834, -0.010128875263035297, -0.01651179790496826, -0.004487900994718075, -0.01849995367228985, -0.01450043823570013, 0.01181367039680481, -0.020668458193540573, -0.004783471580594778, -0.005148771218955517, 0.004439386073499918, -0.00470671197399497, 0.012979373335838318, -0.017759809270501137, -0.014130881056189537, -0.0154731972143054, 0.004221787676215172, -0.018242426216602325, 0.012566756457090378, -0.005030791275203228, 0.013367014937102795, -0.02213549241423607, -0.010551294311881065, -0.015839938074350357, 0.01419811975210905, -0.004972553346306086, 0.01959485560655594], [-0.01274936180561781, 0.004681449383497238, -0.014635109342634678, -0.015797629952430725, -0.01394627895206213, 0.004877634346485138, -0.013565153814852238, -0.0152088962495327, -0.01148133259266615, -0.010873537510633469, -0.011937248520553112, -0.014395417645573616, 0.004692616872489452, 0.0037415598053485155, -0.0059472303837537766, -0.004400248639285564, 0.005505479406565428, 0.003961330745369196, 0.01383938454091549, 0.012247655540704727, -0.012031513266265392, -0.0037327343598008156, -0.0125879542902112, -0.0037824674509465694, 0.013884830288589, 0.017001712694764137, 0.01226180698722601, 0.01358496118336916, -0.016621218994259834, 0.006336651276797056, -0.014803112484514713, 0.016184594482183456, -0.003727633273229003, -0.013682907447218895, 0.011568804271519184, 0.011292319744825363, -0.011248872615396976, -0.014504987746477127, 0.007494191639125347, 0.004881993401795626, 0.01839243620634079, 0.0034926296211779118, -0.0133760254830122, 0.009540447033941746, -0.00548309413716197, -0.020779002457857132, -0.005219692829996347, 0.016404105350375175, -0.015223527327179909, -0.012397115118801594, 0.015431387349963188, 0.015058062970638275, 0.010266754776239395, 0.01607651449739933, -0.005986957810819149, 0.015902485698461533, 0.013411969877779484, 0.0148907620459795, -0.010012775659561157, 0.0063428739085793495, -0.01381008792668581, -0.009876805357635021, -0.00605019461363554, 0.0006323367706499994, -0.004765755962580442, 0.01015886478126049, 0.004539285320788622, 0.004260512068867683, -0.013691837899386883, 0.015839403495192528, -0.013070421293377876, -0.013359772972762585, -0.01516795065253973, -0.01272746454924345, 0.013801991008222103, 0.014793065376579762, -0.009013989008963108, 0.0045646801590919495, -0.004575342871248722, -0.010868859477341175, -0.018357014283537865, 0.016772015020251274, -0.0043947938829660416, 0.005533281248062849, -0.014805525541305542, 0.010741371661424637, -0.01357839722186327, -0.00437629409134388, -0.012683244422078133, -0.00993600208312273, -0.014409537427127361, 0.01570749469101429, -0.009986571036279202, 0.005107035860419273, -0.012446713633835316, -0.00869325827807188, -0.0077207377180457115, -0.012247188948094845, -0.011946088634431362, -0.00472273351624608, 0.0059108734130859375, 0.01328131090849638, -0.017679020762443542, -0.00472573796287179, -0.017112240195274353, -0.013935726135969162, -0.008810147643089294, 0.013418116606771946, -0.004454700741916895, -0.0041543240658938885, -0.016643820330500603, 0.005126929841935635, -0.016352003440260887, 0.005699282046407461, -0.017222171649336815, -0.004143489524722099, -0.014874947257339954, 0.006691677495837212, -0.015247019939124584, 0.01361584011465311, -0.005184633191674948, 0.00873748492449522, -0.01511739194393158, -0.011413829401135445, -0.013855193741619587, 0.010940670035779476, -0.009601105004549026, 0.005122060421854258], [0.008339323103427887, -0.0173015333712101, 0.016039153560996056, 0.012437921017408371, 0.015020068734884262, -0.018581679090857506, 0.019166670739650726, 0.01996181532740593, 0.016584647819399834, 0.008561867289245129, 0.01943233236670494, 0.020133672282099724, -0.016136091202497482, -0.01872118189930916, 0.005041993223130703, 0.008647201582789421, -0.01543408539146185, -0.018231472000479698, -0.016326120123267174, -0.004020571708679199, 0.007602722849696875, 0.010727578774094582, 0.016940534114837646, 0.012481953017413616, -0.01660042814910412, -0.021577997133135796, -0.0049995481967926025, -0.02081918902695179, 0.018594417721033096, -0.014938728883862495, 0.016355613246560097, -0.02300778403878212, 0.015981273725628853, 0.021007169038057327, -0.01479861605912447, -0.004511342383921146, 0.012683858163654804, 0.013950998894870281, -0.00862881075590849, -0.015317350625991821, -0.022163033485412598, -0.01695379801094532, 0.01791427843272686, -0.005975683685392141, 0.022655485197901726, 0.004847007803618908, 0.021044569090008736, -0.008062691427767277, 0.017018424347043037, 0.011762955226004124, -0.013828825205564499, -0.02144336886703968, -0.00539294583722949, -0.016354819759726524, 0.009921170771121979, -0.01657182350754738, -0.013009173795580864, -0.01755671016871929, 0.014907721430063248, -0.0036264907103031874, 0.004499414935708046, 0.004627053160220385, 0.02787487581372261, -0.004718029405921698, 0.016873888671398163, -0.012914017774164677, -0.012618022039532661, -0.01741887629032135, 0.0040565417148172855, -0.007277211174368858, 0.014555561356246471, 0.010583723895251751, 0.006952944677323103, 0.013872279785573483, -0.016420243307948112, -0.0048863752745091915, 0.010060692206025124, -0.02002028003334999, 0.012859867885708809, 0.015532040037214756, 0.005481517408043146, -0.00437948340550065, 0.01615818403661251, -0.014998574741184711, 0.015442452393472195, -0.006181832402944565, 0.016810234636068344, 0.01682521030306816, 0.003989868797361851, 0.004669203422963619, 0.023676017299294472, -0.016767704859375954, 0.005474538076668978, -0.007966824807226658, 0.003973555751144886, 0.011524198576807976, 0.020341260358691216, 0.012943675741553307, 0.018732786178588867, 0.0046484447084367275, -0.004666069522500038, -0.009377921931445599, 0.005317243747413158, 0.009607437998056412, 0.004446187987923622, 0.005209330003708601, 0.01954481191933155, -0.018133431673049927, 0.005021508317440748, 0.013366364873945713, 0.015273134224116802, -0.005518526304513216, 0.007382026873528957, -0.006011230405420065, 0.008025217801332474, 0.016668645665049553, 0.015850305557250977, -0.017115594819188118, 0.017332760617136955, -0.019206272438168526, 0.020431239157915115, -0.016283825039863586, 0.004687599837779999, 0.013045004568994045, 0.016180913895368576, -0.004352034535259008, 0.006626343820244074, -0.004929156508296728], [0.007273211143910885, -0.009931289590895176, 0.00940678734332323, 0.0075676823034882545, 0.00781518779695034, -0.00636846199631691, 0.003789187641814351, 0.010861198417842388, 0.009727378375828266, 0.00601672288030386, 0.005217724945396185, 0.008281775750219822, -0.0069996933452785015, -0.009622426703572273, 0.00597023731097579, 0.0052265808917582035, -0.0039046022575348616, -0.013968516141176224, -0.010802039876580238, -0.003613309236243367, 0.007221045438200235, 0.008894594386219978, 0.00868451688438654, 0.011742502450942993, -0.009855496697127819, -0.012296576984226704, -0.008898720145225525, -0.008336481638252735, 0.00685055460780859, -0.006668748799711466, 0.0059778266586363316, -0.008316481485962868, 0.0036437888629734516, 0.006564402021467686, -0.006180089898407459, -0.006127584259957075, 0.010254010558128357, 0.004050130024552345, -0.010553699918091297, -0.009642007760703564, -0.011645260266959667, -0.013045663945376873, 0.00376514857634902, -0.004363829270005226, 0.003624403616413474, 0.004176073241978884, 0.0067217242904007435, -0.005291817244142294, 0.007033343892544508, 0.006850934121757746, -0.009109647013247013, -0.004194495268166065, -0.006283260881900787, -0.007946180179715157, 0.003719721455127001, -0.010816987603902817, -0.0032678269781172276, -0.008164367638528347, 0.009310291148722172, -0.012539274990558624, 0.00865640863776207, 0.004092400427907705, 0.005889611784368753, -0.008792991749942303, 0.00562179833650589, -0.007121300790458918, -0.009055638685822487, -0.0032665457110852003, 0.0032704267650842667, -0.004386064596474171, 0.01090277824550867, 0.005639850627630949, 0.01214592531323433, 0.007441264111548662, -0.009158371016383171, -0.0036972230300307274, 0.011695842258632183, -0.011148666962981224, 0.004038541577756405, 0.00881057046353817, 0.012161280028522015, -0.008506303653120995, 0.005914629437029362, -0.010629583150148392, 0.009790063835680485, -0.006961948703974485, 0.01022588461637497, 0.011372387409210205, 0.013484899885952473, 0.003982853144407272, 0.01127354521304369, -0.010880714282393456, 0.01066676340997219, -0.009770708158612251, 0.011657423339784145, 0.003584831254556775, 0.011712190695106983, 0.00795197207480669, 0.008183901198208332, 0.004263340961188078, -0.004147589672356844, -0.0038360466714948416, 0.008106185123324394, 0.00942580122500658, 0.008446482010185719, 0.010119416750967503, 0.0060346112586557865, -0.003988297190517187, 0.012173682451248169, 0.004393018316477537, 0.010707305744290352, -0.00368119147606194, 0.003627386875450611, -0.011580605059862137, 0.012060627341270447, 0.011498500593006611, 0.012050565332174301, -0.007383271586149931, 0.013010893017053604, -0.009095207788050175, 0.005586531013250351, -0.006384151987731457, 0.0034864204935729504, 0.007754623889923096, 0.006913099437952042, -0.0038537774235010147, 0.008071673102676868, -0.009852269664406776], [-0.010312391445040703, 0.013847301714122295, -0.01028386689722538, -0.012504667043685913, -0.00805157795548439, 0.004128351341933012, -0.012809439562261105, -0.004501450806856155, -0.01088493037968874, -0.004702414385974407, -0.004263595212250948, -0.0034710122272372246, 0.009767448529601097, 0.014534507878124714, -0.00538835022598505, -0.007925967685878277, 0.013269604183733463, 0.012088250368833542, 0.013060825876891613, 0.012142968364059925, -0.004592427518218756, -0.008984345942735672, -0.00425858935341239, -0.009388463571667671, 0.012881760485470295, 0.004294519778341055, 0.004759522154927254, 0.003979221917688847, -0.005805319640785456, 0.005822874139994383, -0.010766977444291115, 0.011888928711414337, -0.012177170254290104, -0.010918961837887764, 0.004787065088748932, 0.013142101466655731, -0.010113092139363289, -0.01133024599403143, 0.011455838568508625, 0.008877727203071117, 0.015077241696417332, 0.011463000439107418, -0.012404290027916431, 0.008785129524767399, -0.012009263038635254, -0.012041721493005753, -0.004614179488271475, 0.004091776907444, -0.009467193856835365, -0.0048022703267633915, 0.0043548899702727795, 0.00827948097139597, 0.005710594356060028, 0.004653036128729582, -0.010761291719973087, 0.009734578430652618, 0.01189443189650774, 0.011827419511973858, -0.0052749281749129295, 0.011312350630760193, -0.011005849577486515, -0.012488729320466518, -0.004289369098842144, 0.01371313538402319, -0.006846297066658735, 0.012246388010680676, 0.004644368309527636, 0.012933842837810516, -0.009089290164411068, 0.009508875198662281, -0.009543105028569698, -0.0044862148351967335, -0.01092489529401064, -0.0035777485463768244, 0.008847765624523163, 0.005652846302837133, -0.004290019161999226, 0.013348850421607494, -0.0038647654000669718, -0.007302205543965101, -0.011064402759075165, 0.011485197581350803, -0.00895097479224205, 0.010615973733365536, -0.008663858287036419, 0.011688780970871449, -0.008021488785743713, -0.004259178880602121, -0.012214848771691322, -0.008808431215584278, -0.010977735742926598, 0.004106113221496344, -0.017916912212967873, 0.012704219669103622, -0.013872399926185608, -0.011402135714888573, -0.009064155630767345, -0.0053575956262648106, -0.003848670981824398, -0.0039300029166042805, 0.01260947436094284, 0.004461385775357485, -0.009746943600475788, -0.008122175931930542, -0.011620829813182354, -0.016000086441636086, -0.00941238272935152, 0.009115882217884064, -0.012890366837382317, -0.0068239131942391396, -0.008120090700685978, 0.00887247920036316, -0.013447185046970844, 0.012902897782623768, -0.012326543219387531, -0.013433828018605709, -0.005675655789673328, 0.00961593072861433, -0.012787343934178352, 0.010517729446291924, -0.01286027580499649, 0.010662378743290901, -0.005338069051504135, -0.010338821448385715, -0.0038455789908766747, 0.010312538594007492, -0.009026573039591312, 0.014301355928182602], [0.004160541109740734, -0.004840929061174393, 0.004183774348348379, 0.003461743937805295, 0.00394997326657176, -0.004049414303153753, 0.002719235373660922, 0.005413413979113102, 0.015174569562077522, 0.0034645150881260633, 0.003347973106428981, 0.0027923008892685175, -0.0014769822591915727, -0.0037874924018979073, 0.003920965362340212, 0.013635790906846523, -0.0029385406523942947, -0.0011361780343577266, -0.004838444292545319, -0.001312431413680315, 0.0025971222203224897, 0.0036981033626943827, 0.004003137815743685, 0.01162793394178152, -0.0041441842913627625, -0.009583873674273491, -0.015619039535522461, -0.006854213774204254, 0.002265204442664981, -0.003300416050478816, 0.008720780722796917, -0.004074454307556152, 0.0041591692715883255, 0.004223724361509085, -0.0071663158014416695, -0.003468145616352558, 0.0035614457447081804, 0.013536845333874226, -0.009342411532998085, -0.005881079006940126, -0.00444311136379838, -0.008374120108783245, 0.0042017302475869656, -0.0022827484644949436, 0.0038541171234101057, 0.010181759484112263, 0.015704970806837082, -0.007316378876566887, 0.014635749161243439, 0.012890545651316643, -0.003086325479671359, -0.0049064564518630505, -0.01563328318297863, -0.007041797041893005, 0.007174951024353504, -0.00412949500605464, -0.015816224738955498, -0.00862733181566, 0.009511676616966724, -0.003045605029910803, 0.004645003937184811, 0.0006630644202232361, 0.005871670786291361, -0.010971334762871265, 0.0028129431884735823, -0.0025331650394946337, -0.003291922155767679, -0.0070683304220438, 0.004597595427185297, -0.003447349648922682, 0.0017143631121143699, 0.012011807411909103, 0.0025150328874588013, 0.012467600405216217, -0.0023228880017995834, -0.0078049455769360065, 0.0034973742440342903, -0.00798472948372364, 0.004600503481924534, 0.01544106937944889, 0.010411173105239868, -0.008024897426366806, 0.0032180282287299633, -0.002079222584143281, 0.00967284943908453, -0.01236475445330143, 0.0035238952841609716, 0.0019297183025628328, 0.0019957954064011574, 0.006738890893757343, 0.002882452681660652, -0.0042837243527174, 0.008748175576329231, -0.009701606817543507, 0.0010447044624015689, 0.0024583828635513783, 0.005757584236562252, 0.0052369218319654465, 0.0029881561640650034, 0.004206316079944372, -0.0024399664252996445, -0.00559769244864583, 0.004599868785589933, 0.0019166449783369899, 0.0065035526640713215, 0.0033536055125296116, 0.008724061772227287, -0.006336033809930086, 0.003863981692120433, 0.0027052948717027903, 0.004412567242980003, -0.0031548761762678623, 0.009216935373842716, -0.00470977695658803, 0.003305604448541999, 0.004067270550876856, 0.005882090888917446, -0.002342711668461561, 0.0049666608683764935, -0.0032481772359460592, 0.006507799495011568, -0.004225362557917833, 0.004357563331723213, 0.0032897808123379946, 0.005120445508509874, -0.0024481734726577997, 0.002923964988440275, -0.007844774052500725], [-0.006640553940087557, 0.005177656654268503, -0.005058744456619024, -0.00884819496423006, -0.010183976963162422, 0.016643669456243515, -0.0052330382168293, -0.02344190701842308, -0.006589127238839865, -0.038177356123924255, -0.026638658717274666, -0.006531020626425743, 0.032793816179037094, 0.01476733572781086, -0.02528543956577778, -0.006990544032305479, 0.005511658266186714, 0.0074364617466926575, 0.0014713703421875834, 0.006019040010869503, -0.007709347177296877, -0.046872857958078384, -0.0019359418656677008, -0.003194929799064994, 0.010252969339489937, 0.00901847518980503, 0.006196200847625732, 0.022090604528784752, -0.023057816550135612, 0.014233998954296112, -0.062439825385808945, 0.005418797489255667, -0.0164595115929842, -0.013011770322918892, 0.04558947682380676, 0.004531312733888626, -0.001944169169291854, -0.012727988883852959, 0.0007932267617434263, 0.01377115584909916, 0.006743331905454397, 0.004562482703477144, -0.004279704764485359, 0.05242636427283287, -0.003599397372454405, -0.002473154803737998, -0.006046777591109276, 0.006467052269726992, -0.015967167913913727, -0.021203983575105667, 0.014652853831648827, 0.006398728117346764, 0.009104987606406212, 0.008618956431746483, -0.011036522686481476, 0.0040871761739254, 0.006408074405044317, 0.0062939878553152084, -0.011976736597716808, 0.013039837591350079, -0.024867955595254898, -0.008871840313076973, -0.00956912524998188, 0.005451780743896961, -0.01528046652674675, 0.005975179839879274, 0.05228476971387863, 0.0138512859120965, -0.01421800535172224, 0.021094447001814842, -0.01127147488296032, -0.00594767089933157, -0.004358973354101181, -0.004914757329970598, 0.01742582768201828, 0.0020951135084033012, -0.015757687389850616, 0.0025260683614760637, -0.01615355722606182, -0.03898165374994278, -0.011889833025634289, 0.002676095347851515, -0.008474163711071014, 0.04139145836234093, -0.0022756424732506275, 0.015128075145184994, -0.02986888960003853, -0.023651061579585075, -0.008212080225348473, -0.005300706252455711, -0.014078439213335514, 0.0020356602035462856, -0.02086319774389267, 0.012018168345093727, -0.004582317546010017, -0.050712939351797104, -0.002979082753881812, -0.04861801490187645, -0.012761515565216541, -0.01772691309452057, 0.0452619269490242, 0.017108449712395668, -0.0058670989237725735, -0.05329321697354317, -0.006038771476596594, -0.007104380056262016, -0.003263582941144705, 0.003014802699908614, -0.008765975013375282, -0.04350574314594269, -0.06593327224254608, 0.01628400944173336, -0.012154946103692055, 0.0021016360260546207, -0.009869623929262161, -0.001799766207113862, -0.0088912108913064, 0.005552368238568306, -0.0055729118175804615, 0.00686692725867033, -0.019364792853593826, 0.003883071942254901, -0.005922405514866114, -0.010194551199674606, -0.015840182080864906, 0.011660059913992882, -0.053778667002916336, 0.009830820374190807], [0.019937681034207344, -0.01643124781548977, 0.016256488859653473, 0.004717695061117411, 0.01934792846441269, -0.0194874107837677, 0.019576365128159523, 0.004615944344550371, 0.004719722084701061, 0.004575601778924465, 0.004957210272550583, 0.005325173493474722, -0.007841609418392181, -0.016707301139831543, 0.015644699335098267, 0.014153819531202316, -0.004340867977589369, -0.014401531778275967, -0.0148753197863698, -0.01817217655479908, 0.017459774389863014, 0.015443772077560425, 0.00440316554158926, 0.003943738527595997, -0.01763671636581421, -0.02410770021378994, -0.01509146112948656, -0.0047871433198452, 0.0161949060857296, -0.015301009640097618, 0.017608152702450752, -0.023730795830488205, 0.013379042036831379, 0.01836974360048771, -0.0048873452469706535, -0.018196268007159233, 0.012519238516688347, 0.013567990623414516, -0.0036484976299107075, -0.00880457740277052, -0.023806484416127205, -0.017202427610754967, 0.004371349234133959, -0.00417701480910182, 0.019425278529524803, 0.024953948333859444, 0.02084844745695591, -0.021051527932286263, 0.013835400342941284, 0.0147932730615139, -0.0156629029661417, -0.018717540428042412, -0.01691429130733013, -0.013304338790476322, 0.018724359571933746, -0.019168784841895103, -0.01184307411313057, -0.020004015415906906, 0.01611173525452614, -0.01609819196164608, 0.01599050685763359, 0.006016840692609549, 0.025479521602392197, -0.015841299667954445, 0.019638771191239357, -0.013628804124891758, -0.013964963145554066, -0.01970544271171093, 0.0185627993196249, -0.01304762065410614, 0.0037550742272287607, 0.012976156547665596, 0.0037015052512288094, 0.0039013696368783712, -0.010433630086481571, -0.014602706767618656, 0.004858286585658789, -0.019361155107617378, 0.01591717079281807, 0.006316890940070152, 0.022782081738114357, -0.02163790352642536, 0.0199257954955101, -0.004361871164292097, 0.01621628925204277, -0.012462291866540909, 0.005592216271907091, 0.004402127582579851, 0.016260098665952682, 0.004374324809759855, 0.021630918607115746, -0.014790029264986515, 0.022521601989865303, -0.00409928523004055, 0.01707487925887108, 0.0018889224156737328, 0.013075420632958412, 0.00500683207064867, 0.006105364300310612, 0.01309840939939022, -0.012018365785479546, -0.0042824652045965195, 0.026286209002137184, 0.005143297836184502, 0.01657453551888466, 0.02192297950387001, 0.021243751049041748, -0.00644877040758729, 0.02040872536599636, 0.012230724096298218, 0.01701563410460949, -0.004616646096110344, 0.022815294563770294, -0.01569249853491783, 0.01636498235166073, 0.015942560508847237, 0.011452347971498966, -0.016053153201937675, 0.018574394285678864, -0.016277847811579704, 0.0058329966850578785, -0.003689572447910905, 0.019744856283068657, 0.012373505160212517, 0.009111572988331318, -0.0157057773321867, 0.005699876230210066, -0.02317921258509159], [0.005036039277911186, -0.0161653533577919, 0.00497031444683671, 0.01994723454117775, 0.00537271611392498, -0.027552040293812752, 0.021807929500937462, 0.025647569447755814, 0.021181205287575722, 0.014238975942134857, 0.02077155001461506, 0.026185449212789536, -0.016410641372203827, -0.023296194151043892, 0.020251238718628883, 0.005244003608822823, -0.01512167789041996, -0.008280918933451176, -0.02154047228395939, -0.0040255580097436905, 0.024984190240502357, 0.01942932792007923, 0.004560914356261492, 0.004239491652697325, -0.02151164598762989, -0.030094414949417114, -0.018067877739667892, -0.022442301735281944, 0.005068991333246231, -0.02348066307604313, 0.020446674898266792, -0.03021344356238842, 0.01822834089398384, 0.02910780906677246, -0.019264578819274902, -0.023097001016139984, 0.0172662865370512, 0.017400087788701057, -0.011337204836308956, -0.023929953575134277, -0.02657957561314106, -0.018789073452353477, 0.004597097169607878, -0.018723472952842712, 0.03042646124958992, 0.02314082719385624, 0.025249067693948746, -0.030974896624684334, 0.01881156489253044, 0.01885620877146721, -0.02234744466841221, -0.02437145635485649, -0.0074333068914711475, -0.0237563643604517, 0.02379683591425419, -0.022478783503174782, -0.014857811853289604, -0.024490291252732277, 0.01824522763490677, -0.018441982567310333, 0.02060277946293354, 0.004944141488522291, 0.034922510385513306, -0.02020018734037876, 0.022697225213050842, -0.017690444365143776, -0.015028349123895168, -0.02455112710595131, 0.02200351282954216, -0.0043390607461333275, 0.02052205801010132, 0.015311089344322681, 0.0039201173931360245, 0.015496297739446163, -0.004683565814048052, -0.004689090885221958, 0.01075431052595377, -0.02727320045232773, 0.019607258960604668, 0.016963019967079163, 0.027937892824411392, -0.03006967343389988, 0.025292592123150826, -0.004530504811555147, 0.02333403192460537, -0.00492120673879981, 0.0047367895022034645, 0.027151724323630333, 0.021727601066231728, 0.016410229727625847, 0.03037969022989273, -0.0220059584826231, 0.005959200672805309, -0.009143736213445663, 0.023913173004984856, 0.017589598894119263, 0.006465500686317682, 0.01651589572429657, 0.00448349816724658, 0.004910129588097334, -0.004789761267602444, -0.004715344402939081, 0.03584269806742668, 0.0175904780626297, 0.02493605576455593, 0.025863882154226303, 0.005828610621392727, -0.007063668221235275, 0.00540491146966815, 0.014291915111243725, 0.009396351873874664, -0.022976230829954147, 0.028853964060544968, -0.009361564181745052, 0.023472175002098083, 0.019028350710868835, 0.02460288442671299, -0.0044768014922738075, 0.00237752846442163, -0.004958484787493944, 0.028576957061886787, -0.018170451745390892, 0.03369233384728432, 0.00532406335696578, 0.004923119675368071, -0.004776707850396633, 0.004965048283338547, -0.03355923667550087], [0.016657523810863495, -0.014408639632165432, 0.012790562584996223, 0.013154455460608006, 0.009706147015094757, -0.01684604212641716, 0.004374984186142683, 0.01291054766625166, 0.014775058254599571, 0.012416892684996128, 0.0060053332708776, 0.0037396252155303955, -0.013233297504484653, -0.015444672666490078, 0.012693509459495544, 0.009083744138479233, -0.009268233552575111, -0.01713700406253338, -0.0034929842222481966, -0.016556020826101303, 0.010876734741032124, 0.012296680361032486, 0.016205808147788048, 0.004080622922629118, -0.015580548904836178, -0.004094758536666632, -0.011344271712005138, -0.010709339752793312, 0.015696324408054352, -0.004289649426937103, 0.004515592474490404, -0.01610095612704754, 0.003976634703576565, 0.004905631300061941, -0.004293303936719894, -0.004698635544627905, 0.010867773555219173, 0.004321834072470665, -0.013173040002584457, -0.01155349612236023, -0.013246007263660431, -0.006568107753992081, 0.01503888051956892, -0.006546677090227604, 0.014097246341407299, 0.01796758361160755, 0.012250790372490883, -0.012399354949593544, 0.006041269749403, 0.011514434590935707, -0.014814999885857105, -0.015661519020795822, -0.010625272057950497, -0.01386251300573349, 0.010290487669408321, -0.004334079567342997, -0.004219756927341223, -0.013059953227639198, 0.010612612590193748, -0.014131763949990273, 0.01089045312255621, 0.010213811881840229, 0.014610459096729755, -0.015000424347817898, 0.014336645603179932, -0.010797840543091297, -0.011585844680666924, -0.013195894658565521, 0.010438577271997929, -0.01410617958754301, 0.011894947849214077, 0.004876692779362202, 0.01256388146430254, 0.01248255092650652, -0.014661968685686588, -0.009518761187791824, 0.016847506165504456, -0.01212997455149889, 0.004604122135788202, 0.006008404307067394, 0.0126845333725214, -0.015635009855031967, 0.004138716030865908, -0.012218444608151913, 0.013206534087657928, -0.014520817436277866, 0.00404147244989872, 0.014815200120210648, 0.012888663448393345, 0.004444883204996586, 0.014298408292233944, -0.005988236051052809, 0.01869156025350094, -0.015177677385509014, 0.013198105618357658, 0.010571448132395744, 0.01773492805659771, 0.005597245413810015, 0.013990819454193115, 0.010061345994472504, -0.004362990614026785, -0.006786631420254707, 0.0045082722790539265, 0.005669436417520046, 0.014640220440924168, 0.0038732727989554405, 0.004883098416030407, -0.012446105480194092, 0.0049931639805436134, 0.008643195964396, 0.004421905614435673, -0.015008139424026012, 0.017847523093223572, -0.004287312272936106, 0.004097996279597282, 0.01611604541540146, 0.012169277295470238, -0.006240468006581068, 0.018016550689935684, -0.011374417692422867, 0.005860349629074335, -0.004231962841004133, 0.01629641093313694, 0.0075811296701431274, 0.011823783628642559, -0.013224402442574501, 0.004641009494662285, -0.018757645040750504], [-0.016407491639256477, 0.010439101606607437, -0.004670628346502781, -0.00812598504126072, -0.012419215403497219, 0.0050409468822181225, -0.014778541401028633, -0.017103122547268867, -0.01632612943649292, -0.005516675300896168, -0.0045832437463104725, -0.013923552818596363, 0.012951117008924484, 0.015134326182305813, -0.004334538243710995, -0.008521721698343754, 0.012031701393425465, 0.01077678706496954, 0.012700292281806469, 0.007263106759637594, -0.011972243897616863, -0.010999616235494614, -0.014101148582994938, -0.016243144869804382, 0.013715806417167187, 0.01324804313480854, 0.004648466128855944, 0.006605671718716621, -0.016857605427503586, 0.011499383486807346, -0.004877886269241571, 0.018156690523028374, -0.011102482676506042, -0.013459106907248497, 0.004267668351531029, 0.007168321870267391, -0.013094638474285603, -0.01439871359616518, 0.013488773256540298, 0.010238894261419773, 0.016039138659834862, 0.01512099802494049, -0.015883086249232292, 0.011928325518965721, -0.013906066305935383, -0.015877241268754005, -0.004355506971478462, 0.009246080182492733, -0.004593235440552235, -0.0047560930252075195, 0.005856300704181194, 0.013360259123146534, 0.01282600685954094, 0.004665674641728401, -0.012929704040288925, 0.014146745204925537, 0.007632373366504908, 0.00991534162312746, -0.011452573351562023, 0.0039277104660868645, -0.01351174060255289, -0.009017568081617355, -0.01752718724310398, 0.010571625083684921, -0.013526535592973232, 0.012600818648934364, 0.011223073117434978, 0.013283343985676765, -0.004268377088010311, 0.005643120501190424, -0.0032954751513898373, -0.013651258312165737, -0.011432823725044727, -0.014583596959710121, 0.015427869744598866, 0.014859247952699661, -0.012168573215603828, 0.01540533360093832, -0.013051661662757397, -0.01120750606060028, -0.017046228051185608, 0.01815393567085266, -0.012917429208755493, 0.01086477655917406, -0.005009439308196306, 0.004521610215306282, -0.013915899209678173, -0.010792615823447704, -0.012640934437513351, -0.014222457073628902, -0.019211770966649055, 0.004179080482572317, -0.014894920401275158, 0.014729449525475502, -0.015915341675281525, -0.01252114400267601, -0.015092357061803341, -0.004729731008410454, -0.01495157927274704, -0.00567471282556653, 0.011265264824032784, 0.01352973747998476, -0.018135488033294678, -0.005188836250454187, -0.009983036667108536, -0.017222145572304726, -0.004998276010155678, 0.013750046491622925, -0.018495474010705948, -0.012635970488190651, -0.013168726116418839, 0.004646944813430309, -0.014727783389389515, 0.01418894063681364, -0.013349195010960102, -0.004378476645797491, -0.01635480858385563, 0.006724606733769178, -0.003352753585204482, 0.015620268881320953, -0.014714368619024754, 0.004614085890352726, -0.01834951341152191, -0.004723914433270693, -0.004147373605519533, 0.004508840385824442, -0.012608206830918789, 0.013197116553783417], [-0.0037432052195072174, 0.012265008874237537, -0.013688051141798496, -0.012482180260121822, -0.009806225076317787, 0.013575895689427853, -0.013176409527659416, -0.011091914027929306, -0.006673398893326521, -0.009300095960497856, -0.007395625580102205, -0.003924984484910965, 0.007522922940552235, 0.0035419815685600042, -0.004008025396615267, -0.009140539914369583, 0.0073126838542521, 0.0037016349378973246, 0.0036248653195798397, 0.0034610426519066095, -0.004540510941296816, -0.003489146940410137, -0.003938366658985615, -0.012078951112926006, 0.003978322260081768, 0.004437907598912716, 0.00788791012018919, 0.0086731081828475, -0.004812024533748627, 0.009053335525095463, -0.004155591130256653, 0.010378530248999596, -0.004071181174367666, -0.010407979600131512, 0.01144378911703825, 0.010021851398050785, -0.010422326624393463, -0.004192998167127371, 0.009305890649557114, 0.005994803737848997, 0.00847746804356575, 0.002982432721182704, -0.003732390236109495, 0.006516283378005028, -0.009687359444797039, -0.009570177644491196, -0.00598706491291523, 0.004136699717491865, -0.009376411326229572, -0.00407911092042923, 0.01251082494854927, 0.0037011096719652414, 0.007198244333267212, 0.004158912226557732, -0.008038599044084549, 0.011416342109441757, 0.01043885387480259, 0.003477375954389572, -0.004624343942850828, 0.012295256368815899, -0.0045706438831985, -0.004461556673049927, -0.0026229938957840204, 0.004767149221152067, -0.007374139968305826, 0.012536809779703617, 0.011583646759390831, 0.01560763269662857, -0.011527396738529205, 0.017758704721927643, -0.010287906974554062, -0.004192384425550699, -0.01378130353987217, -0.0036612835247069597, 0.0037024165503680706, 0.0037712915800511837, -0.0038809720426797867, 0.00367731973528862, -0.009514588862657547, -0.004330695606768131, -0.012004781514406204, 0.010176417417824268, -0.004840197507292032, 0.010282155126333237, -0.011064242571592331, 0.0041312226094305515, -0.003477324964478612, -0.009761943481862545, -0.012209936045110226, -0.012315171770751476, -0.008358883671462536, 0.003956790082156658, -0.0015394239453598857, 0.002699133474379778, -0.010666530579328537, -0.007055011112242937, -0.010835503228008747, -0.009345578029751778, -0.003645792370662093, -0.00397756090387702, 0.004704991355538368, 0.010746168904006481, -0.00773761747404933, -0.008686916902661324, -0.010318182408809662, -0.003475853009149432, -0.0044619920663535595, 0.004079274833202362, -0.007955056615173817, -0.009226346388459206, -0.010771912522614002, 0.003995439037680626, -0.004138109739869833, 0.003975501284003258, -0.01243564859032631, -0.010474735870957375, -0.009551860392093658, 0.010041918605566025, -0.0008793651359155774, 0.009932538494467735, -0.011445491574704647, 0.00381868495605886, -0.004239859990775585, -0.005532868672162294, -0.009470874443650246, 0.00362765253521502, -0.009310576133430004, 0.004431090317666531], [-0.01068371906876564, 0.014016691595315933, -0.01006095577031374, -0.010222832672297955, -0.004242233000695705, 0.004033002536743879, -0.003858104581013322, -0.01145180407911539, -0.0036196790169924498, -0.009979002177715302, -0.010469108819961548, -0.014615705236792564, 0.008131375536322594, 0.014375134371221066, -0.009307819418609142, -0.0036981625016778708, 0.0038702350575476885, 0.0034213135950267315, 0.014113555662333965, 0.014383606612682343, -0.004623593296855688, -0.009217709302902222, -0.012482326477766037, -0.0036037203390151262, 0.003454794641584158, 0.00405126204714179, 0.0038860624190419912, 0.009981940500438213, -0.012052166275680065, 0.0041161696426570415, -0.0038366620428860188, 0.012350649572908878, -0.00872888509184122, -0.009171963669359684, 0.008729425258934498, 0.003640746232122183, -0.007453634403645992, -0.008534411899745464, 0.007020981982350349, 0.004574652761220932, 0.011605014093220234, 0.01508741918951273, -0.003763494547456503, 0.005362293682992458, -0.008403168059885502, -0.008824529126286507, -0.004323122091591358, 0.012897644191980362, -0.00382698024623096, -0.008304223418235779, 0.004288195166736841, 0.010710920207202435, 0.004981528501957655, 0.009899378754198551, -0.009753108955919743, 0.004756197798997164, 0.004420040175318718, 0.011367558501660824, -0.010016639716923237, 0.011825972236692905, -0.008031296543776989, -0.007861748337745667, -0.009993920102715492, 0.006633247248828411, -0.010161098092794418, 0.0093025341629982, 0.010876733809709549, 0.012283112853765488, -0.008458470925688744, 0.00873863510787487, -0.012171326205134392, -0.007179507985711098, -0.011469898745417595, -0.004100528080016375, 0.011778721585869789, 0.010031110607087612, -0.004567923489958048, 0.0037563187070190907, -0.008371403440833092, -0.009197590872645378, -0.012753868475556374, 0.01154856476932764, -0.00397472083568573, 0.0041123367846012115, -0.007664719130843878, 0.006670148577541113, -0.007316584698855877, -0.009040637873113155, -0.008116315118968487, -0.007125853560864925, -0.010372250340878963, 0.010698935948312283, -0.0030583871994167566, 0.0076555730774998665, -0.0035642136353999376, -0.008869505487382412, -0.009962067939341068, -0.009518465027213097, -0.01129594910889864, -0.00420877430588007, 0.00976502150297165, 0.01149712409824133, -0.010825730860233307, -0.005901389755308628, -0.004289220552891493, -0.013494936749339104, -0.005760197527706623, 0.012655111029744148, -0.0037702901754528284, -0.007636229041963816, -0.009904964827001095, 0.0037765356246382, -0.015543771907687187, 0.0037171654403209686, -0.013380425050854683, -0.012534406036138535, -0.00985771045088768, 0.010331030003726482, -0.01651357300579548, 0.0038742905016988516, -0.0048194508999586105, 0.0036900853738188744, -0.01443855557590723, -0.0042950804345309734, -0.008897462859749794, 0.003973727114498615, -0.006539622321724892, 0.004388496745377779], [0.012133575044572353, -0.010521339252591133, 0.011933773756027222, 0.01209314912557602, 0.004960546735674143, -0.004198282025754452, 0.011817779392004013, 0.010150564834475517, 0.0042877900414168835, 0.001914890599437058, 0.011436854489147663, 0.017897089943289757, -0.011279556900262833, -0.016540907323360443, 0.010791025124490261, 0.008360525593161583, -0.008396939374506474, -0.003545644460245967, -0.014648727141320705, -0.01569679006934166, 0.0035753552801907063, 0.010772662237286568, 0.014604443684220314, 0.010820526629686356, -0.01246892474591732, -0.015103845857083797, -0.011400929652154446, -0.013446240685880184, 0.015034026466310024, -0.011850505135953426, 0.010247732512652874, -0.004445276223123074, 0.011362035758793354, 0.015171384438872337, -0.00840133335441351, -0.010096031241118908, 0.005167651455849409, 0.012584438547492027, -0.00988687388598919, -0.00952846184372902, -0.01633632183074951, -0.011833778582513332, 0.014272111468017101, -0.0039343577809631824, 0.010183543898165226, 0.009310687892138958, 0.006415695883333683, -0.004732656292617321, 0.011998521164059639, 0.012839263305068016, -0.0038286675699055195, -0.0041663008742034435, -0.0037387104239314795, -0.010607736185193062, 0.004063236527144909, -0.012464972212910652, -0.004031921271234751, -0.017813146114349365, 0.011003893800079823, -0.008489402011036873, 0.01000673696398735, 0.013349497690796852, 0.0009601035271771252, -0.010347823612391949, 0.010127252899110317, -0.01179839763790369, -0.004580739885568619, -0.01793140172958374, 0.015349759720265865, -0.004931651055812836, 0.013386877253651619, 0.012130767107009888, 0.015111797489225864, 0.012842845171689987, -0.01250799372792244, -0.012319689616560936, 0.004274166654795408, -0.017367815598845482, 0.008485491387546062, 0.00453440984711051, 0.017971856519579887, -0.01778218150138855, 0.0067520467564463615, -0.013297204859554768, 0.005182204302400351, -0.0044035292230546474, 0.004192443564534187, 0.0038153547793626785, 0.0035447340924292803, 0.001033010077662766, 0.004286408424377441, -0.01491827517747879, 0.013401709496974945, -0.003505953587591648, 0.016231590881943703, 0.009294960647821426, 0.005071328021585941, 0.0046158526092767715, 0.012219365686178207, 0.004226228687912226, -0.012178921140730381, -0.011150440201163292, 0.00427762558683753, 0.012705179862678051, 0.007427742704749107, 0.020269524306058884, 0.013394013047218323, -0.005762854125350714, 0.016051659360527992, 0.010015693493187428, 0.0044916048645973206, -0.007656401488929987, 0.01692095585167408, -0.015176447108387947, 0.015418031252920628, 0.013421713374555111, 0.013247780501842499, -0.011888071894645691, 0.0036127353087067604, -0.004374735988676548, 0.004726184066385031, -0.009507052600383759, 0.02086011692881584, 0.010849229991436005, 0.012568692676723003, -0.003922854084521532, 0.009153807535767555, -0.014858934096992016], [0.01413566991686821, -0.01419298816472292, 0.009697310626506805, 0.009835492819547653, 0.004892072640359402, -0.015156774781644344, 0.013401621952652931, 0.011826501227915287, 0.010883844457566738, 0.011705269105732441, 0.004562992602586746, 0.007028432562947273, -0.010479633696377277, -0.0037716259248554707, 0.012501967139542103, 0.0050832731649279594, -0.004594405647367239, -0.015397458337247372, -0.003678459906950593, -0.014354613609611988, 0.013618686236441135, 0.010545141063630581, 0.011666319333016872, 0.01309104636311531, -0.012325219810009003, -0.014745346270501614, -0.01189583819359541, -0.004894710145890713, 0.01247164886444807, -0.010513421148061752, 0.01070657279342413, -0.004523646552115679, 0.011634300462901592, 0.004284404683858156, -0.011152775958180428, -0.004977888893336058, 0.0040352921932935715, 0.00675668939948082, -0.009554574266076088, -0.012161478400230408, -0.015477634966373444, -0.013434143736958504, 0.014280137605965137, -0.011264286004006863, 0.005090133752673864, 0.022204481065273285, 0.013370607048273087, -0.015173899941146374, 0.011684475466609001, 0.004694208037108183, -0.011244039982557297, -0.016684183850884438, -0.01213279739022255, -0.0053162663243710995, 0.004402788355946541, -0.014540796168148518, -0.008105451241135597, -0.013573495671153069, 0.012023264542222023, -0.003491228213533759, 0.01063250470906496, 0.001031921012327075, 0.018945075571537018, -0.004363302141427994, 0.015113933943212032, -0.011765126138925552, -0.013439085334539413, -0.008746582083404064, 0.003847906133159995, -0.011788001284003258, 0.013973768800497055, 0.010508391074836254, 0.015384312719106674, 0.0038518449291586876, -0.006734819151461124, -0.011494803242385387, 0.005074379500001669, -0.0152405621483922, 0.009190334007143974, 0.010801420547068119, 0.016045380383729935, -0.01976487971842289, 0.012431317940354347, -0.006723915226757526, 0.004908179864287376, -0.01225762814283371, 0.004013055004179478, 0.004394702147692442, 0.015243158675730228, 0.004535914398729801, 0.01615404523909092, -0.014104774221777916, 0.0041046142578125, -0.0044156210497021675, 0.012667179107666016, 0.00857589766383171, 0.004696573596447706, 0.008560005575418472, 0.014249877072870731, 0.011638304218649864, -0.013791595585644245, -0.0159606896340847, 0.004507672507315874, 0.014944547787308693, 0.013486235402524471, 0.004607037175446749, 0.013402353040874004, -0.01340910978615284, 0.016799651086330414, 0.00401207385584712, 0.011869671754539013, -0.004681541584432125, 0.014180554077029228, -0.004652115982025862, 0.015061862766742706, 0.011064811609685421, 0.01480245403945446, -0.011794840916991234, 0.017860744148492813, -0.011846689507365227, 0.004902529530227184, -0.010033592581748962, 0.016469545662403107, 0.00478814821690321, 0.014378666877746582, -0.013843661174178123, 0.004852882120758295, -0.01619970053434372], [0.024171384051442146, -0.00632780184969306, 0.006435717921704054, 0.005720051005482674, 0.03494524583220482, -0.005165469832718372, 0.025431813672184944, 0.006162549369037151, 0.026153571903705597, 0.02115698903799057, 0.03691694140434265, 0.007798370905220509, -0.025404267013072968, -0.0048636747524142265, 0.00698533421382308, 0.03814542666077614, -0.027956092730164528, -0.0016896917950361967, -0.004031521733850241, -0.016976188868284225, 0.03724667429924011, 0.03397852182388306, 0.016647888347506523, 0.004166378639638424, -0.029580755159258842, -0.0020232456736266613, -0.006263068411499262, -0.005590667948126793, 0.030837204307317734, -0.03639059141278267, 0.01596580445766449, -0.002137849573045969, 0.03316414728760719, 0.002058465266600251, -0.028667999431490898, -0.012828442268073559, 0.032281290739774704, 0.01133385393768549, -0.003456217236816883, -0.03603990748524666, -0.0022411763202399015, -0.020426757633686066, 0.021279456093907356, -0.02633173204958439, 0.03318052366375923, 0.0017620648723095655, 0.003958915825933218, -0.004418712574988604, 0.01645282469689846, 0.03080269694328308, -0.026486527174711227, -0.014332309365272522, -0.04220985248684883, -0.03822232037782669, 0.02827845886349678, -0.0290229395031929, -0.031537387520074844, -0.0032945298589766026, 0.004354919772595167, -0.029867952689528465, 0.030782751739025116, 0.008088755421340466, 0.003004103433340788, -0.0014764673542231321, 0.01809411495923996, -0.02146974578499794, -0.032527338713407516, -0.006143797188997269, 0.022228475660085678, -0.010324370115995407, 0.022530799731612206, 0.02303454279899597, 0.018925122916698456, 0.004391834139823914, -0.028159448876976967, -0.03500388562679291, 0.008494935929775238, -0.005142036359757185, 0.03702688589692116, 0.027129165828227997, 0.008583909831941128, -0.004124979954212904, 0.005416754633188248, -0.010380202904343605, 0.009253684431314468, -0.0053224945440888405, 0.0320541113615036, 0.005881933961063623, 0.018453584983944893, 0.025127727538347244, 0.00620529567822814, -0.001754838740453124, 0.04944756627082825, -0.04289780557155609, 0.018749302253127098, 0.005895494017750025, 0.005960944574326277, 0.006469091400504112, 0.030282532796263695, 0.03601071983575821, -0.029722649604082108, -0.02868012525141239, 0.0033756718039512634, 0.0057763587683439255, 0.024854877963662148, 0.007176846731454134, 0.011618340387940407, -0.03090750053524971, 0.010014121420681477, 0.032503459602594376, 0.04124188423156738, -0.04126695170998573, 0.021099887788295746, -0.026548324152827263, 0.023495644330978394, 0.018930254504084587, 0.005934801418334246, -0.0049468218348920345, 0.003077442990615964, -0.03371288627386093, 0.030009474605321884, -0.005638194736093283, 0.022241739556193352, 0.033850185573101044, 0.03225622698664665, -0.029616331681609154, 0.0325884073972702, -0.006283516064286232], [0.004073820076882839, -0.011404627934098244, 0.00952610932290554, 0.008256473578512669, 0.010824734345078468, -0.01390979066491127, 0.007341924123466015, 0.004239984322339296, 0.008456765674054623, 0.00420296099036932, 0.005644953344017267, 0.01527376938611269, -0.010315688326954842, -0.014239590615034103, 0.004589647054672241, 0.010639289394021034, -0.01151531282812357, -0.0038546319119632244, -0.007001595105975866, -0.013874206691980362, 0.004354995209723711, 0.007676859851926565, 0.004114799201488495, 0.012679026462137699, -0.013491321355104446, -0.0057413349859416485, -0.011594639159739017, -0.008361444808542728, 0.011109553277492523, -0.004846758209168911, 0.009848646819591522, -0.004264512564986944, 0.012175314128398895, 0.014048783108592033, -0.010039567947387695, -0.012540270574390888, 0.007727574557065964, 0.0048930449411273, -0.010365230031311512, -0.010251366533339024, -0.014839780516922474, -0.013144627213478088, 0.01495592761784792, -0.004448511637747288, 0.007258133962750435, 0.014997047372162342, 0.00861076544970274, -0.01074173767119646, 0.004835008643567562, 0.013117811642587185, -0.014163829386234283, -0.009258794598281384, -0.010509070940315723, -0.004352288320660591, 0.0042520505376160145, -0.0073652430437505245, -0.011536686681210995, -0.010352796874940395, 0.01222868263721466, -0.0037457430735230446, 0.008355360478162766, 0.013826601207256317, 0.013970795087516308, -0.002735570538789034, 0.012392162345349789, -0.010413645766675472, -0.00865571666508913, -0.012775860726833344, 0.009310129098594189, -0.004285003524273634, 0.011727645061910152, 0.004821054171770811, 0.008190641179680824, 0.011333064176142216, -0.01313867513090372, -0.0038395230658352375, 0.0076308888383209705, -0.011047258041799068, 0.007397084962576628, 0.00557737099006772, 0.003993155434727669, -0.012432948686182499, 0.00846409797668457, -0.004212018568068743, 0.009459774009883404, -0.009145834483206272, 0.010685223154723644, 0.014602580107748508, 0.003611272666603327, 0.007972965016961098, 0.009707091376185417, -0.004292065743356943, 0.010493810288608074, -0.011116194538772106, 0.007893327623605728, 0.0058741201646625996, 0.004373718984425068, 0.00490917544811964, 0.012507510371506214, 0.009243178181350231, -0.013050410896539688, -0.010657841339707375, 0.009638160467147827, 0.011047227308154106, 0.013965356163680553, 0.017377715557813644, 0.011154288426041603, -0.004858828149735928, 0.015837498009204865, 0.006282866932451725, 0.0048119486309587955, -0.008996586315333843, 0.01372473407536745, -0.008264074102044106, 0.009169738739728928, 0.00970755610615015, 0.013307202607393265, -0.004291490651667118, 0.016662755981087685, -0.008006209507584572, 0.008610205724835396, -0.01276109553873539, 0.01455879770219326, 0.004201204981654882, 0.004158752504736185, -0.009713792242109776, 0.007627800107002258, -0.014612880535423756], [0.012970732524991035, -0.003949101082980633, 0.008961846120655537, 0.008219986222684383, 0.0057745156809687614, -0.004423070698976517, 0.012505521066486835, 0.0045263259671628475, 0.004136106465011835, 0.006033041980117559, 0.004735591355711222, 0.0034695668146014214, -0.0055548325181007385, -0.015726488083600998, 0.0033256623428314924, 0.010777351446449757, -0.011427358724176884, -0.018199237063527107, -0.013389171101152897, -0.01582426205277443, 0.011070589534938335, 0.008475998416543007, 0.004025645554065704, 0.011389701627194881, -0.012123284861445427, -0.01267279963940382, -0.004360188264399767, -0.004516960121691227, 0.0036246429663151503, -0.004971337504684925, 0.0034066445659846067, -0.004192175343632698, 0.00426454097032547, 0.006975008174777031, -0.01078382320702076, -0.004156476818025112, 0.009522601030766964, 0.009873135946691036, -0.0007157708168961108, -0.009793737903237343, -0.013597419485449791, -0.0033377087675035, 0.014320584014058113, -0.0036373951006680727, 0.004080808721482754, 0.0037333769723773003, 0.011771936900913715, -0.008634330704808235, 0.004334586672484875, 0.012507771141827106, -0.009646914899349213, -0.013627028092741966, -0.006176824681460857, -0.009964203462004662, 0.004086140543222427, -0.007577880285680294, -0.008586910553276539, -0.003789752023294568, 0.003678044304251671, -0.0026415493339300156, 0.00439263042062521, 0.00327658629976213, 0.007449428550899029, -0.0008800791692920029, 0.004193575587123632, -0.012036344967782497, -0.004399052821099758, -0.0035021821968257427, 0.0037572903092950583, -0.010166567750275135, 0.012195107527077198, 0.008649373427033424, 0.015932470560073853, 0.004115362651646137, -0.010678241029381752, -0.003079103073105216, 0.012116416357457638, -0.01301236916333437, 0.003888389328494668, 0.009600448422133923, 0.014635990373790264, -0.016400713473558426, 0.009952728636562824, -0.009660767391324043, 0.012843499891459942, -0.011207535862922668, 0.0036702286452054977, 0.014446635730564594, 0.004062401596456766, 0.004250501282513142, 0.012428894639015198, -0.01222692895680666, 0.013570315204560757, -0.012020186521112919, 0.014313938096165657, 0.006457910872995853, 0.009950610809028149, 0.008372362703084946, 0.01053609512746334, 0.0031748292967677116, -0.007053443230688572, -0.0037847571074962616, 0.004415699280798435, 0.007035316899418831, 0.013816507533192635, 0.003496994497254491, 0.009508208371698856, -0.0041978973895311356, 0.014303925447165966, 0.007825997658073902, 0.00973600521683693, -0.003295443020761013, 0.004639994353055954, -0.011662054806947708, 0.014642255380749702, 0.012328163720667362, 0.014653054066002369, -0.010892205871641636, 0.0036100405268371105, -0.011201661080121994, 0.003932265564799309, -0.004231846425682306, 0.004583503119647503, 0.006165989674627781, 0.003895963542163372, -0.003882839810103178, 0.0038867718540132046, -0.013752465136349201], [0.004639102146029472, -0.0038242503069341183, 0.006773663684725761, 0.005130323115736246, 0.013589524663984776, -0.004741271957755089, 0.014171679504215717, 0.004701998084783554, 0.012892065569758415, 0.011515266261994839, 0.004239282105118036, 0.016441641375422478, -0.004397516138851643, -0.014454449526965618, 0.011607859283685684, 0.00967267993837595, -0.014525850303471088, -0.014644353650510311, -0.0035396707244217396, -0.003698097774758935, 0.010567075572907925, 0.013149150647222996, 0.013269223272800446, 0.011550810188055038, -0.0040539042092859745, -0.004475516267120838, -0.011863753199577332, -0.012601890601217747, 0.012571178376674652, -0.00460587115958333, 0.011198967695236206, -0.017993275076150894, 0.009820681065320969, 0.013558456674218178, -0.004398735705763102, -0.012023509480059147, 0.0041887192055583, 0.012341856025159359, -0.012754580937325954, -0.004878364969044924, -0.004934987053275108, -0.013917463831603527, 0.01390925608575344, -0.004775248933583498, 0.01302485540509224, 0.02118486538529396, 0.010655212216079235, -0.01636160910129547, 0.010730481706559658, 0.008723298087716103, -0.01550413016229868, -0.014669832773506641, -0.010586096905171871, -0.014106860384345055, 0.009425935335457325, -0.011090255342423916, -0.004383117891848087, -0.003936686087399721, 0.005965495016425848, -0.011971795000135899, 0.011263527907431126, 0.010055966675281525, 0.01872878149151802, -0.004083612468093634, 0.012323643080890179, -0.01388438232243061, -0.01215397845953703, -0.01656639389693737, 0.005980329588055611, -0.004467112477868795, 0.012247185222804546, 0.004611590411514044, 0.013541755266487598, 0.010420075617730618, -0.004660225939005613, -0.004386193118989468, 0.015813522040843964, -0.013830240815877914, 0.005786130204796791, 0.00581922335550189, 0.007922455668449402, -0.019351396709680557, 0.012220230884850025, -0.004012351389974356, 0.004521767608821392, -0.010304614901542664, 0.012560157105326653, 0.016543781384825706, 0.015280806459486485, 0.010102485306560993, 0.01321273110806942, -0.015387069433927536, 0.01576107367873192, -0.016382962465286255, 0.014166278764605522, 0.011307149194180965, 0.014315959066152573, 0.007206880487501621, 0.0163042601197958, 0.00420199753716588, -0.005041076801717281, -0.013950465247035027, 0.008513294160366058, 0.005180329084396362, 0.004300479311496019, 0.019216345623135567, 0.004948488436639309, -0.016024980694055557, 0.017214426770806313, 0.010564158670604229, 0.011631550267338753, -0.004565086681395769, 0.004020440857857466, -0.012226376682519913, 0.0045347390696406364, 0.01362930703908205, 0.015450880862772465, -0.010739535093307495, 0.017211904749274254, -0.004725189413875341, 0.010525943711400032, -0.014635912142693996, 0.018320171162486076, 0.008033356629312038, 0.014936049468815327, -0.012139786966145039, 0.004457912407815456, -0.015112589113414288], [0.004997121635824442, -0.004299800377339125, 0.004474523011595011, 0.011174849234521389, 0.00592760881409049, -0.002356582321226597, 0.011932827532291412, 0.005988994147628546, 0.0023058736696839333, 0.031696904450654984, 0.006494485307484865, 0.0072577884420752525, -0.0064756134524941444, -0.004347481299191713, 0.010740875266492367, 0.05154064670205116, -0.004335541743785143, -0.005255210679024458, -0.0035261132288724184, -0.008938431739807129, 0.0063300481997430325, 0.004359105601906776, 0.0022368342615664005, 0.0031440185848623514, -0.005722310859709978, -0.005734553094953299, -0.0026294824201613665, -0.005261528305709362, 0.01058377418667078, -0.002827691612765193, 0.011225092224776745, -0.0074501847848296165, 0.005033186171203852, 0.002575532766059041, -0.005773650016635656, -0.0022703553549945354, 0.009273545816540718, 0.002079952973872423, -0.025623831897974014, -0.01727791503071785, -0.005447506904602051, -0.005731816869229078, 0.010054243728518486, -0.004564658273011446, 0.009316671639680862, 0.0025905449874699116, 0.009114458225667477, -0.005160598549991846, 0.002630309434607625, 0.011044972576200962, -0.007035613059997559, -0.0028093315195292234, -0.0068857017904520035, -0.007371312472969294, 0.006397984456270933, -0.013187161646783352, -0.04820534586906433, -0.005329144187271595, 0.006471390835940838, -0.008605899289250374, 0.0026567685417830944, 0.006916556041687727, 0.012195373885333538, -0.00742853619158268, 0.012048359960317612, -0.0035928520374000072, -0.004633328877389431, -0.004118189215660095, 0.011456926353275776, -0.004598668776452541, 0.0020704767666757107, 0.004037125036120415, 0.0033755681943148375, 0.006457513198256493, -0.00512811029329896, -0.010447192005813122, 0.012858921661973, -0.007735629100352526, 0.010290632024407387, 0.0017476847860962152, 0.0046766665764153, -0.005574427545070648, 0.005946402903646231, -0.0021655005402863026, 0.006029099691659212, -0.0071275727823376656, 0.00728081539273262, 0.005674500018358231, 0.005450496915727854, 0.034170739352703094, 0.002805930096656084, -0.007978839799761772, 0.010326451621949673, -0.010591567493975163, 0.006876289378851652, 0.0042533655650913715, 0.002693773712962866, 0.010264034382998943, 0.004767964594066143, 0.010535950772464275, -0.014420782215893269, -0.005160082131624222, 0.010858696885406971, 0.0023861322551965714, 0.002930897055193782, 0.0057681347243487835, 0.006088209338486195, -0.01168601680546999, 0.010361365042626858, 0.05314991995692253, 0.0066421059891581535, -0.006661585066467524, 0.004217421170324087, -0.005432820878922939, 0.009081341326236725, 0.005010327324271202, 0.0019605543930083513, -0.0020946008153259754, 0.006435168441385031, -0.011442448012530804, 0.005273966118693352, -0.01647810824215412, 0.004570812452584505, 0.042507898062467575, 0.00276422337628901, -0.004683871287852526, 0.001878758193925023, -0.005832857917994261], [-0.004586590453982353, 0.00747418450191617, -0.005286211613565683, -0.0068693021312355995, -0.00659796642139554, 0.00630893325433135, -0.005798239726573229, -0.005375937093049288, -0.007255684118717909, -0.006742575671523809, -0.00630385335534811, -0.0054763564839959145, 0.006047545000910759, 0.00449726264923811, -0.008799857459962368, -0.010613852180540562, 0.0060595558024942875, 0.004820322617888451, 0.0035004252567887306, 0.004619264043867588, -0.00726622948423028, -0.0074624610133469105, -0.006363342981785536, -0.003235301934182644, 0.005351366475224495, 0.008365178480744362, 0.004832899197936058, 0.0071031479164958, -0.0071232994087040424, 0.008232205174863338, -0.010742077603936195, 0.007735977414995432, -0.007806833367794752, -0.007382265292108059, 0.0035694409161806107, 0.004995604511350393, -0.004690425004810095, -0.005989468190819025, 0.002425547456368804, 0.006588449701666832, 0.007662031799554825, 0.004643005318939686, -0.004172514192759991, 0.004783150739967823, -0.010830319486558437, -0.0064338259398937225, -0.008329752832651138, 0.007990580052137375, -0.007677328772842884, -0.008111423812806606, 0.007482767105102539, 0.0055220904760062695, 0.01069484930485487, 0.01099934708327055, -0.0064345370046794415, 0.007549023721367121, 0.00889784935861826, 0.0070097194984555244, -0.003744881134480238, 0.005283820442855358, -0.005882843863219023, -0.006490702740848064, -0.0067235869355499744, 0.002820483176037669, -0.006609031464904547, 0.006133264396339655, 0.0031341458670794964, 0.00681597413495183, -0.006638702470809221, 0.001463147345930338, -0.0062088873237371445, -0.007679069880396128, -0.0035424171946942806, -0.006461222190409899, 0.004577413201332092, 0.00546667817980051, -0.006226500496268272, 0.00834615807980299, -0.00723629305139184, -0.003654444357380271, -0.007622858509421349, 0.006590631324797869, -0.00885161105543375, 0.004109492991119623, -0.005719813052564859, 0.005130198784172535, -0.006010833196341991, -0.004840919282287359, -0.004084200132638216, -0.003566238097846508, -0.005656373221427202, 0.003940829541534185, -0.004602361004799604, 0.004835422616451979, -0.006990079768002033, -0.00690792640671134, -0.00829303078353405, -0.007570335641503334, -0.005068986676633358, -0.008288989774882793, 0.003690446261316538, 0.007510016672313213, -0.00606941245496273, -0.004732150584459305, -0.008619986474514008, -0.005023251287639141, -0.011687200516462326, 0.004851990379393101, -0.0070965648628771305, -0.0035428679548203945, -0.006618221290409565, 0.008365663699805737, -0.005730158183723688, 0.006554689258337021, -0.004653431475162506, -0.005866828374564648, -0.006583534646779299, 0.00818952452391386, -0.004801205359399319, 0.00988109689205885, -0.008290628902614117, 0.003362350631505251, -0.008335225284099579, -0.007033900823444128, -0.005647033452987671, 0.006865244358778, -0.007204135414212942, 0.010579816065728664], [-0.00424032611772418, 0.016965007409453392, -0.019200008362531662, -0.014090248383581638, -0.01771339401602745, 0.00917854718863964, -0.015803905203938484, -0.019881436601281166, -0.012397258542478085, -0.009404366835951805, -0.019133489578962326, -0.0038623949512839317, 0.014425037428736687, 0.017056629061698914, -0.019305430352687836, -0.012994648888707161, 0.01625719480216503, 0.0034610400907695293, 0.018017342314124107, 0.0037443239707499743, -0.005254280287772417, -0.014687796123325825, -0.015154457651078701, -0.016699103638529778, 0.015235954895615578, 0.01066330261528492, 0.01829211413860321, 0.004790750332176685, -0.007521641906350851, 0.004715691786259413, -0.015311304479837418, 0.004826562479138374, -0.004721995908766985, -0.01511446200311184, 0.01604045182466507, 0.017699895426630974, -0.014319675974547863, -0.009805215522646904, 0.002563341986387968, 0.011882548220455647, 0.004712711088359356, 0.0038197773974388838, -0.004668528214097023, 0.004511076956987381, -0.01334497518837452, -0.002955300733447075, -0.01680573634803295, 0.008910952135920525, -0.013118834234774113, -0.01756211183965206, 0.004028343595564365, 0.01862332411110401, 0.01498173363506794, 0.005744281690567732, -0.020201710984110832, 0.0183862317353487, 0.00482844328507781, 0.011004633270204067, -0.0036921771243214607, 0.003571505658328533, -0.004377616569399834, -0.0035976662766188383, -0.013012642972171307, 0.012170983478426933, -0.019623512402176857, 0.01692190021276474, 0.00446932902559638, 0.013739369809627533, -0.016536368057131767, 0.014628452248871326, -0.003402343485504389, -0.010646901093423367, -0.01606374979019165, -0.014297982677817345, 0.01889180578291416, 0.0186754297465086, -0.01678953319787979, 0.009583784267306328, -0.015241778455674648, -0.01376733835786581, -0.002500788075849414, 0.0010872922139242291, -0.01638382486999035, 0.0044828481040894985, -0.018912138417363167, 0.014605462551116943, -0.013833087868988514, -0.018107539042830467, -0.009128407575190067, -0.010313292033970356, -0.013256248086690903, 0.004470638930797577, -0.008104025386273861, 0.010023814626038074, -0.012514798901975155, -0.013643230311572552, -0.01794278249144554, -0.004816948901861906, -0.011855275370180607, -0.018527960404753685, 0.013971416279673576, 0.016274461522698402, -0.0046001155860722065, -0.013888218440115452, -0.004572872072458267, -0.006007221527397633, -0.021664492785930634, 0.004653050564229488, -0.006861701607704163, -0.011481267400085926, -0.0071909986436367035, 0.0169179979711771, -0.0024474533274769783, 0.016326839104294777, -0.0194383654743433, -0.015264049172401428, -0.014939822256565094, 0.003908676095306873, -0.0039083403535187244, 0.007586209569126368, -0.022671207785606384, 0.00788892898708582, -0.0056205433793365955, -0.011385299265384674, -0.011941683478653431, 0.018372051417827606, -0.011656942777335644, 0.016844088211655617], [0.024764565750956535, -0.006488584913313389, 0.03565381094813347, 0.033493902534246445, 0.03507811203598976, -0.00625661900267005, 0.01140598114579916, 0.02547628991305828, 0.008490941487252712, 0.0230401623994112, 0.029120564460754395, 0.004636469297111034, -0.005248428788036108, -0.0048933373764157295, 0.025261323899030685, 0.006026118528097868, -0.027074163779616356, -0.019927581772208214, -0.02213715948164463, -0.004500302020460367, 0.03176708519458771, 0.029001550748944283, 0.023649971932172775, 0.023496726527810097, -0.01916639879345894, -0.012188853695988655, -0.0058552417904138565, -0.027121204882860184, 0.027729233726859093, -0.031180301681160927, 0.03569319099187851, -0.013159462250769138, 0.028241146355867386, 0.013636152260005474, -0.03097757324576378, -0.02456466667354107, 0.02539929933845997, 0.03079293668270111, -0.007124947849661112, -0.027607005089521408, -0.006294833496212959, -0.008866062387824059, 0.01726582832634449, -0.03015744872391224, 0.028263377025723457, 0.004598555620759726, 0.027850832790136337, -0.010317365638911724, 0.023676156997680664, 0.005647252779453993, -0.02125638537108898, -0.025840166956186295, -0.03402063995599747, -0.033121176064014435, 0.006289341952651739, -0.006118259858340025, -0.02588183432817459, -0.013796297833323479, 0.022442428395152092, -0.008803384378552437, 0.017094025388360023, 0.006871847901493311, 0.016048770397901535, -0.011178229935467243, 0.0057210675440728664, -0.024964697659015656, -0.03353431448340416, -0.004254444967955351, 0.031236952170729637, -0.031132670119404793, 0.020723562687635422, 0.005172593519091606, 0.017941046506166458, 0.006962465588003397, -0.03150813654065132, -0.01580837555229664, 0.006445947103202343, -0.020491788163781166, 0.005399672314524651, 0.025832021608948708, 0.0018184308428317308, -0.0020481247920542955, 0.024766243994235992, -0.027389980852603912, 0.03070843406021595, -0.03260822966694832, 0.0251323115080595, 0.009290959686040878, 0.005332543049007654, 0.018700402230024338, 0.005809982772916555, -0.004976463504135609, 0.0238339863717556, -0.01187990978360176, 0.01990061067044735, 0.03168155625462532, 0.01999596320092678, 0.02969737909734249, 0.005145595408976078, 0.006091597955673933, -0.030683796852827072, -0.023190848529338837, 0.009633020497858524, 0.005452181212604046, 0.01948631927371025, 0.0052009765058755875, 0.03205722197890282, -0.028118669986724854, 0.013067513704299927, 0.023776959627866745, 0.03328193351626396, -0.03254759684205055, 0.00491398386657238, -0.012350436300039291, 0.012560024857521057, 0.020538032054901123, 0.004283861257135868, -0.029359595850110054, 0.005841482896357775, -0.027895739302039146, 0.010749096050858498, -0.006854699924588203, 0.0018852994544431567, 0.00609508715569973, 0.0057615600526332855, -0.019312068819999695, 0.005579368211328983, -0.0024484903551638126], [-0.004328911192715168, 0.003851013956591487, -0.010840331204235554, -0.0075087654404342175, -0.0077246418222785, 0.010736309923231602, -0.0033491821959614754, -0.007118523586541414, -0.003980310168117285, -0.009121963754296303, -0.009726507589221, -0.01385694369673729, 0.00861014612019062, 0.0031882720068097115, -0.0038707281928509474, -0.00465736398473382, 0.009197771549224854, 0.010504860430955887, 0.0033704498782753944, 0.0102824866771698, -0.010202229022979736, -0.010245135053992271, -0.011337469331920147, -0.010448407381772995, 0.003510445822030306, 0.009278539568185806, 0.004703034181147814, 0.011300093494355679, -0.009486919268965721, 0.005163347348570824, -0.004170508123934269, 0.013957956805825233, -0.0038075458724051714, -0.004089974332600832, 0.006657030433416367, 0.007080054841935635, -0.007021872792392969, -0.0037713581696152687, 0.010981783270835876, 0.008146188221871853, 0.0116347074508667, 0.003128417767584324, -0.01096146646887064, 0.00765935517847538, -0.003909110091626644, -0.014404899440705776, -0.003985073417425156, 0.007082417141646147, -0.006667459383606911, -0.007448092568665743, 0.003878310089930892, 0.009500016458332539, 0.004228397738188505, 0.009843272157013416, -0.004845244809985161, 0.0036456543020904064, 0.0055630626156926155, 0.003588589606806636, -0.0033276204485446215, 0.0032888692803680897, -0.0034809960052371025, -0.01117714587599039, -0.005282398778945208, 0.009424900636076927, -0.010182357393205166, 0.007963760755956173, 0.008843747898936272, 0.008660734631121159, -0.011408965103328228, 0.007225565612316132, -0.01099948026239872, -0.008343997411429882, -0.003521547419950366, -0.00992987584322691, 0.00987707544118166, 0.007088928483426571, -0.0048177726566791534, 0.010598227381706238, -0.00600595073774457, -0.005749278701841831, -0.011262455023825169, 0.012371180579066277, -0.005001089069992304, 0.009630732238292694, -0.008063767105340958, 0.003989540506154299, -0.010134421288967133, -0.005242791958153248, -0.009581993333995342, -0.004105264320969582, -0.0045900424011051655, 0.009430021978914738, -0.0026562034618109465, 0.0059126210398972034, -0.011537144891917706, -0.005619731731712818, -0.010103722102940083, -0.001992117613554001, -0.00387492380104959, -0.008188759908080101, 0.00791749358177185, 0.00931626372039318, -0.01151416078209877, -0.00588515680283308, -0.005758173763751984, -0.010873154737055302, -0.008130688220262527, 0.010797741822898388, -0.011520959436893463, -0.005000458098948002, -0.006484784185886383, 0.004681420978158712, -0.009707885794341564, 0.004111320246011019, -0.011253716424107552, -0.010442149825394154, -0.0035463713575154543, 0.007457209285348654, -0.0115143908187747, 0.006521359086036682, -0.007364930119365454, 0.00898086279630661, -0.008396558463573456, -0.008928239345550537, -0.0035669642966240644, 0.007333256769925356, -0.0057291798293590546, 0.008934296667575836], [-0.004159035161137581, 0.013858562335371971, -0.004871704615652561, -0.009902342222630978, -0.011276904493570328, 0.019714554771780968, -0.015325162559747696, -0.01537064928561449, -0.014172307215631008, -0.008353790268301964, -0.0043965354561805725, -0.018528366461396217, 0.007069205865263939, 0.00341380899772048, -0.012715019285678864, -0.011813859455287457, 0.01053053978830576, 0.014749573543667793, 0.0035256510600447655, 0.016617577522993088, -0.014232875779271126, -0.011117090471088886, -0.014392642304301262, -0.012752922251820564, 0.016343776136636734, 0.005129916127771139, 0.011094160377979279, 0.016445154324173927, -0.004406016319990158, 0.009157915599644184, -0.005970167927443981, 0.02015608921647072, -0.010520498268306255, -0.005027501843869686, 0.010443813167512417, 0.015501265414059162, -0.010657825507223606, -0.009301772341132164, 0.00825917162001133, 0.004407735075801611, 0.014278811402618885, 0.0036897535901516676, -0.01841716654598713, 0.008833103813230991, -0.016402004286646843, -0.01884157955646515, -0.013551369309425354, 0.016473006457090378, -0.012220862321555614, -0.004391235765069723, 0.007563490886241198, 0.014123024418950081, 0.012486955150961876, 0.014300943352282047, -0.013661588542163372, 0.01578114554286003, 0.004539124201983213, 0.016601108014583588, -0.01429387740790844, 0.011409099213778973, -0.004347753245383501, -0.009568084962666035, -0.019984548911452293, 0.013635936193168163, -0.004727562423795462, 0.004643894266337156, 0.005087073892354965, 0.017132174223661423, -0.006901083048433065, 0.0159103125333786, -0.0036072551738470793, -0.014321334660053253, -0.0035590785555541515, -0.010960295796394348, 0.011571729555726051, 0.014134530909359455, -0.016837190836668015, 0.013707680627703667, -0.008077233098447323, -0.010964076966047287, -0.012933138757944107, 0.017962832003831863, -0.01136717852205038, 0.013119043782353401, -0.01684918999671936, 0.014383298344910145, -0.012545031495392323, -0.014892451465129852, -0.015536968596279621, -0.010562097653746605, -0.014960899017751217, 0.012820892967283726, -0.01820896379649639, 0.013867386616766453, -0.008994823321700096, -0.008153583854436874, -0.01407402753829956, -0.009323546662926674, -0.016523059457540512, -0.01461671944707632, 0.010987241752445698, 0.016261519864201546, -0.0050147520378232, -0.013941883109509945, -0.015734558925032616, -0.01841619424521923, -0.005204223562031984, 0.004502534866333008, -0.01897641085088253, -0.004105770960450172, -0.016815874725580215, 0.015476425178349018, -0.016741586849093437, 0.012940227054059505, -0.014469965361058712, -0.015794916078448296, -0.01591113582253456, 0.01479132380336523, -0.014861435629427433, 0.012461205013096333, -0.012599959038197994, 0.015096237882971764, -0.004184941295534372, -0.004318275488913059, -0.013457327149808407, 0.014411626383662224, -0.013102198950946331, 0.004507287871092558], [0.004606227390468121, -0.006486032623797655, 0.010088768787682056, 0.006156533025205135, 0.00400962820276618, -0.0009852456860244274, 0.00958395004272461, 0.007844152860343456, 0.004798311740159988, 0.007520467508584261, 0.0038475499022752047, 0.0008388839778490365, -0.006645737681537867, -0.0032487877178937197, 0.007450130768120289, 0.013834142126142979, -0.007238870020955801, -0.004378326702862978, -0.015707409009337425, -0.01461954228579998, 0.004611162468791008, 0.0032210617791861296, 0.012047995813190937, 0.003636386711150408, -0.003981376998126507, -0.003782391082495451, -0.006108133587986231, -0.008997171185910702, 0.0036874113138765097, -0.004756739363074303, 0.005175713449716568, -0.0038958799559623003, 0.009103978984057903, 0.005623467732220888, -0.009041748009622097, -0.006361577194184065, 0.008301539346575737, 0.010428384877741337, -0.009407298639416695, -0.0028063540812581778, -0.004083487670868635, -0.0017233534017577767, 0.0024350155144929886, -0.004819312132894993, 0.0003011794469784945, 0.0023387682158499956, 0.004734559450298548, -0.003235106123611331, 0.0035204351879656315, 0.003889834973961115, -0.011485193856060505, -0.003400629386305809, -0.004628299735486507, -0.0020567229948937893, 0.0021586883813142776, -0.011530417017638683, -0.006486131809651852, -0.009004938416182995, 0.010809251107275486, -0.011887134052813053, 0.005416213534772396, 0.014142266474664211, 0.004387576598674059, -0.0068700420670211315, 0.005286483094096184, -0.0041642519645392895, -0.003724613692611456, -0.003742741420865059, 0.014426467940211296, -0.018379397690296173, 0.010594948194921017, 0.009488177485764027, 0.003425341099500656, 0.011627593077719212, -0.004191863816231489, -0.006713115144520998, 0.006982830818742514, -0.00968236569315195, 0.004938447382301092, 0.01059753354638815, 0.003148395102471113, -0.002100487006828189, 0.013121156021952629, -0.00844279583543539, 0.004094790201634169, -0.00464431568980217, 0.006353798788040876, 0.009458943270146847, 0.014149460941553116, 0.003900596173480153, 0.0031519043259322643, -0.002731583546847105, 0.0038412222638726234, -0.003151180688291788, 0.0008558110566809773, 0.004331078380346298, 0.003297206247225404, 0.0046343691647052765, 0.00852268934249878, 0.005714460741728544, -0.009282322600483894, -0.003709392389282584, 0.0022148406133055687, 0.0037304628640413284, 0.003230445319786668, 0.002739936113357544, 0.003616068512201309, -0.006835700944066048, 0.004056729841977358, 0.004045775625854731, 0.0047790189273655415, -0.004302373621612787, 0.002810955513268709, -0.012264720164239407, 0.004704371094703674, 0.011267540045082569, 0.010943576693534851, -0.007078506518155336, 0.0021404726430773735, -0.003930236212909222, 0.004776197951287031, -0.003905610414221883, 0.013018556870520115, 0.0019797382410615683, 0.009010681882500648, -0.00791686587035656, 0.005667310208082199, -0.0008036098442971706], [-0.010162723250687122, 0.0077249291352927685, -0.0057697901502251625, -0.00656798155978322, -0.003962811082601547, 0.00771643640473485, -0.0097885113209486, -0.005743805319070816, -0.0037122874055057764, -0.0075449831783771515, -0.0042725661769509315, -0.004000008571892977, 0.007845892570912838, 0.010062292218208313, -0.006483685225248337, -0.003511094721034169, 0.004517119377851486, 0.004114510025829077, 0.010782750323414803, 0.010473384521901608, -0.0036674526054412127, -0.007305684965103865, -0.004195688758045435, -0.00813745055347681, 0.00983260478824377, 0.008695784024894238, 0.009368181228637695, 0.004785710945725441, -0.00816966313868761, 0.009866144508123398, -0.004619604907929897, 0.010262466967105865, -0.006492894608527422, -0.007492026314139366, 0.004892386961728334, 0.0035005155950784683, -0.006448700558394194, -0.0037503205239772797, 0.006562038790434599, 0.00542314862832427, 0.008101671934127808, 0.0029959240928292274, -0.007555366959422827, 0.0037881878670305014, -0.006216283887624741, -0.007428578566759825, -0.004616062622517347, 0.0074029178358614445, -0.009684144519269466, -0.010175570845603943, 0.009824790060520172, 0.0038869089912623167, 0.002639323240146041, 0.005544457584619522, -0.006206408143043518, 0.0062275780364871025, 0.0047291177324950695, 0.008499495685100555, -0.003182395827025175, 0.009501705877482891, -0.006887232419103384, -0.007318191695958376, -0.007288406603038311, 0.011300857178866863, -0.0057247658260166645, 0.010131369344890118, 0.011051206849515438, 0.007909282110631466, -0.005038796458393335, 0.0034759934060275555, -0.008044063113629818, -0.005003195721656084, -0.008287264965474606, -0.00964787881821394, 0.006260312162339687, 0.003554440103471279, -0.006569567136466503, 0.010309343226253986, -0.008145886473357677, -0.006926033645868301, -0.008026361465454102, 0.010595748201012611, -0.008515133522450924, 0.009248482063412666, -0.009459896013140678, 0.005434398539364338, -0.009103968739509583, -0.01011562254279852, -0.00766201363876462, -0.007591781206429005, -0.009942330420017242, 0.010435297153890133, -0.002969711786136031, 0.009930134750902653, -0.0035371584817767143, -0.00551230926066637, -0.008693315088748932, -0.008417838253080845, -0.008114310912787914, -0.008531296625733376, 0.006187537685036659, 0.008959499187767506, -0.006251979619264603, -0.00440574437379837, -0.010865798220038414, -0.009956106543540955, -0.005126835312694311, 0.005693736486136913, -0.010354707017540932, -0.005442961119115353, -0.0036222380585968494, 0.009984971955418587, -0.0037878837902098894, 0.0038132157642394304, -0.007224970031529665, -0.007889816537499428, -0.006881549023091793, 0.0052694296464324, -0.011573282070457935, 0.006675678305327892, -0.006871615070849657, 0.006699005141854286, -0.00421890988945961, -0.007199618965387344, -0.0084178876131773, 0.004265750292688608, -0.004787158686667681, 0.0066590867936611176], [0.009674226865172386, -0.004697545897215605, 0.011200500652194023, 0.002606157213449478, 0.015348325483500957, -0.005196151323616505, 0.000597521138843149, 0.0010220551630482078, 0.015194796025753021, 0.015286444686353207, 0.003556326264515519, 0.0067437998950481415, -0.011638691648840904, -0.0038913211319595575, 0.0009106035577133298, 0.0033332444727420807, -0.013980420306324959, -0.004978680983185768, -0.005226129665970802, -0.005611923988908529, 0.004080887883901596, 0.004960539285093546, 0.0002360017242608592, 0.012954553589224815, -0.0014025889104232192, -0.0032233393285423517, -0.004187590442597866, -0.00037829787470400333, 0.014430682174861431, -0.004089576192200184, 0.012767015025019646, -0.002804406452924013, 0.0034941055346280336, 0.0029533077031373978, -0.00025098916376009583, -0.006565880961716175, 0.000673272181302309, 0.008811188861727715, -0.0032085829880088568, -0.012478637509047985, -0.00044267933117225766, -0.0027746488340198994, 0.0009901390876621008, -0.009556603617966175, 0.009914131835103035, 0.001252307090908289, 0.015251358970999718, -0.008152601309120655, 0.003019065596163273, 0.0013643590500578284, -0.003474932862445712, -0.006343189161270857, -0.0037397469859570265, -0.012025048956274986, 0.0008464091806672513, -0.003247396321967244, -0.0022261030972003937, -0.003181906184181571, 0.002366595668718219, -0.0018463474698364735, 0.014547551050782204, 0.005819724407047033, 0.0027699251659214497, -0.0048382882960140705, 0.0036885077133774757, -0.011396130546927452, -0.006163851357996464, -0.0014532916247844696, 0.002097142394632101, -0.0011220372980460525, 0.002150315558537841, 0.003998645581305027, 0.0028541572391986847, 0.0027756544295698404, -0.0016805619234219193, -0.0017748774262145162, 0.01257040724158287, -0.001088491640985012, 0.0009959819726645947, 0.0038632480427622795, 0.004036074038594961, -0.00018091683159582317, 0.007425402756780386, -0.009935488924384117, 0.004411807283759117, -0.003710828023031354, 0.008314418606460094, 0.007610938511788845, 0.004907817114144564, 0.004266070201992989, 0.003184087108820677, -0.0035712094977498055, 0.00017528027819935232, -0.0006944001652300358, 0.011473612859845161, 0.008630206808447838, 0.003498087404295802, 0.00417766347527504, 0.0020677128341048956, 0.00038625139859505, -0.0017154261004179716, -0.0006471414817497134, 0.003288016654551029, 0.01574285328388214, 0.014114826917648315, 0.0028274538926780224, 0.003994067199528217, -0.0032020937651395798, 0.003070916049182415, 0.0032131015323102474, 0.003981517627835274, -0.0005178253049962223, 0.0027068236377090216, -0.0026441786903887987, 0.0027329009026288986, 0.0021813877392560244, 0.0017066089203581214, -0.00029711154638789594, 0.0073319547809660435, -0.0019506076350808144, 0.00259462371468544, -0.0027984583284705877, 0.006159044802188873, 0.0008153258822858334, 0.006298413034528494, -0.01343071460723877, 0.011996377259492874, -0.009994402527809143], [0.004568669945001602, -0.006258179433643818, 0.004511138424277306, 0.0011288417736068368, 0.0012337520020082593, -0.0016001140465959907, 0.004185862839221954, 0.0012628610711544752, 0.0001468660484533757, 0.00033769573201425374, 0.003598694456741214, 0.007077249698340893, -0.0030907168984413147, -0.0035188058391213417, 0.0001858495088526979, 3.112237754976377e-05, -0.003232608549296856, -0.0029889692086726427, -0.002987943822517991, -0.003412695834413171, 0.0033252446446567774, 0.0025891622062772512, 0.0028379601426422596, 0.003808567300438881, -0.0030974794644862413, -0.004144639708101749, -0.003642214462161064, -0.000661333731841296, 0.00033794064074754715, -0.0035439948551356792, 0.004439172800630331, -0.003168983617797494, 0.004242766182869673, 0.008281411603093147, -0.0033922747243195772, -0.0024097985588014126, 0.0034182278905063868, 0.0031296578235924244, -0.006913647521287203, -0.003940124064683914, -0.0015407601604238153, -0.006913313642144203, 0.003362237475812435, -0.0033865526784211397, 0.0006798913236707449, 0.004717228934168816, 0.0021897105034440756, -0.0021467176266014576, 0.00403266167268157, 0.0031866326462477446, -0.0023430853616446257, -0.0027491580694913864, -0.0011122270952910185, -0.003136702813208103, 0.0021794692147523165, -0.005353843793272972, -0.00384999206289649, -0.002569755306467414, 0.0051767295226454735, -0.0033579550217837095, 0.0005642823525704443, 0.0030049432534724474, 0.004017944447696209, -0.0032331913243979216, 0.0020540659315884113, -0.0037501563783735037, -0.0038284065667539835, -0.004780246876180172, 0.001975027844309807, -0.014375368133187294, 0.0024844706058502197, 0.0019559396896511316, 0.007264856249094009, 0.0020730048418045044, -0.0031144600361585617, -0.0003878100833389908, 0.002607624977827072, -0.0033067374024540186, 0.0025245973374694586, 0.002841176465153694, 0.003557681106030941, -0.005425889045000076, 0.0021474191453307867, -0.0017048208974301815, 0.0021796084474772215, -0.004401630721986294, 0.004677510820329189, 0.004940617363899946, 0.003371325321495533, 0.004545507952570915, 0.0022854027338325977, -0.0022740173153579235, 0.002526978263631463, -0.0037397018168121576, 0.005061385687440634, 0.0038715561386197805, 0.004413553047925234, 0.004651885479688644, 0.002038014819845557, 0.0008664728957228363, -0.004093616269528866, -0.0031806284096091986, 0.0006182926590554416, 0.004050344694405794, 0.00046236434718593955, 0.0034041879698634148, 0.002543251495808363, -0.0029875237960368395, 0.003637919668108225, 0.0034726604353636503, 0.004632571246474981, -0.0005323935765773058, 0.0066219172440469265, -0.0069501702673733234, 0.004477767739444971, 0.005431438330560923, 0.004520211834460497, -0.002881292486563325, 0.004816457163542509, -0.003434771904721856, 0.002822838956490159, -0.005563665181398392, 0.003602979239076376, 0.00410575233399868, 0.003497637342661619, -0.003735166974365711, 0.0002520938578527421, -0.001072052400559187], [-0.005678152199834585, 0.004410892724990845, -0.005685610231012106, -0.0027332999743521214, -0.0025090789422392845, 0.002853750018402934, -0.006117669865489006, -0.0021983454935252666, -0.004710125736892223, -0.001648868783377111, -0.0008221280877478421, -0.006788147613406181, 0.0036161208990961313, 0.004173137713223696, -0.0030012500938028097, -0.0026488753501325846, 0.0070072258822619915, 0.0029984735883772373, 0.0030325271654874086, 0.0060614910908043385, -0.0025818333961069584, -0.00023891369346529245, -0.0033717637415975332, -0.0026878269854933023, 0.0016623497940599918, 0.0006883958703838289, 0.004281691275537014, 0.0034568121191114187, -0.0021715927869081497, 0.003133609425276518, -0.004055133555084467, 0.0016159728402271867, -0.0039025498554110527, -0.0035303214099258184, 0.003521495498716831, 0.0030124662443995476, -0.0010550294537097216, -0.0017394389724358916, 0.004053134471178055, 0.003918047063052654, 0.005495807621628046, 0.0071203941479325294, -0.005759736523032188, 0.004404169507324696, -0.01493548322468996, -0.0008682901971042156, -0.00019745255121961236, 0.001553489244543016, -0.0010749874636530876, -0.0021407133899629116, 0.003730108728632331, 0.0026725088246166706, 0.014301404356956482, 0.003856559516862035, -0.002042465377599001, 0.0041116988286376, 0.002643790328875184, 0.002252554055303335, -0.003279101802036166, 0.0030831708572804928, -0.0008175827097147703, -0.00681645143777132, -0.002966449363157153, 0.002951187314465642, -0.002321104984730482, 0.0057753873988986015, 0.007348774001002312, 0.006963353604078293, -0.0033216739539057016, 0.003585872473195195, -0.0041208346374332905, -0.004070650320500135, -0.005185134708881378, -0.00543584069237113, 0.0028881076723337173, 0.004589445423334837, -0.004853586200624704, 0.005065271630883217, -0.0038541778922080994, -0.0024362250696867704, -0.005185301881283522, 0.005401788279414177, -0.004195796325802803, 0.0038712304085493088, -0.005678430199623108, 0.005652816966176033, -0.0022635406348854303, -0.002460197312757373, -0.007553118746727705, -0.004202012903988361, -0.0002798824571073055, 0.0066544353030622005, -0.009723511524498463, 0.0011914222268387675, -0.00205158325843513, -0.0031109037809073925, -0.003513358999043703, -0.0018960346933454275, -0.003322221804410219, -0.00040780482231639326, 0.0030712943989783525, 0.0030765600968152285, -0.0035123853012919426, -0.001773534226231277, -0.0003290514287073165, -0.006234444212168455, -0.003707531839609146, 0.0038264356553554535, -0.0007259728736244142, -0.0016143202083185315, -0.00303573883138597, 0.0013487046817317605, -0.004674915224313736, 0.0028318329714238644, -0.0037475954741239548, -0.0029646758921444416, -0.0050721438601613045, 0.0020749098621308804, -0.005903930868953466, 0.003424507100135088, -0.004886822309345007, 0.0042974199168384075, -0.002015817677602172, -0.00340987928211689, -0.00488089956343174, 0.006596250459551811, -0.0038655323442071676, 0.0018013595836237073], [-0.0035448046401143074, 0.00679587060585618, -0.003975857514888048, -0.007140472996979952, -0.004399977624416351, 0.0071340277791023254, -0.004900144878774881, -0.006991902831941843, -0.003147611627355218, -0.007511959411203861, -0.002561847446486354, -0.008714080788195133, 0.0038403228390961885, 0.007403201889246702, -0.005965494550764561, -0.0016705624293535948, 0.005902300588786602, 0.008450372144579887, 0.01034440565854311, 0.009018673561513424, -0.004144364036619663, -0.00516090402379632, -0.007768158335238695, -0.003947467543184757, 0.0032545297872275114, 0.004781252704560757, 0.006055743433535099, 0.006992900278419256, -0.002986291889101267, 0.003102665301412344, -0.004141682293266058, 0.008101130835711956, -0.0066620782017707825, -0.002833582228049636, 0.0047527761198580265, 0.005163623485714197, -0.0056274570524692535, -0.006128468085080385, 0.00880866963416338, 0.004520807880908251, 0.006214775610715151, 0.002880648011341691, -0.004449847619980574, 0.0024587458465248346, -0.001630573533475399, -0.0031037654262036085, -0.0014023615512996912, 0.0032006031833589077, -0.0035040765069425106, -0.005081253591924906, 0.008044354617595673, 0.005047405604273081, 0.0007537734345532954, 0.001705471077002585, -0.0036560799926519394, 0.0047620320692658424, 0.005836630240082741, 0.004680761136114597, -0.005252504255622625, 0.007639216724783182, -0.004104844760149717, -0.008681693114340305, -0.003992924466729164, 0.006690859794616699, -0.004319342318922281, 0.00591301592066884, 0.007508107926696539, 0.007464726455509663, -0.0040336293168365955, 0.008751986548304558, -0.003668933641165495, -0.00385117856785655, -0.008441979996860027, -0.007071278989315033, 0.004812107887119055, 0.003756711259484291, -0.0031660753302276134, 0.005251615773886442, -0.0026918412186205387, -0.004114821553230286, -0.008009810000658035, 0.0036544494796544313, -0.0024774600751698017, 0.006877281237393618, -0.0036109713837504387, 0.0031261194963008165, -0.004692678805440664, -0.0054728928953409195, -0.009670689702033997, -0.00405577477067709, -0.006050250492990017, 0.008922295644879341, -0.002521055517718196, 0.003560734912753105, -0.0038332396652549505, -0.003807586617767811, -0.004345459397882223, -0.0035369095858186483, -0.005757255479693413, -0.0036282462533563375, 0.0038263399619609118, 0.007075870409607887, -0.004422372207045555, -0.0062799095176160336, -0.0037714187055826187, -0.00782889872789383, -0.004821127280592918, 0.003292819019407034, -0.003436855971813202, -0.005550493486225605, -0.0034723414573818445, 0.004164477810263634, -0.004089811351150274, 0.006397772580385208, -0.003360114758834243, -0.004447679501026869, -0.007021316792815924, 0.0049883401952683926, -0.009915594011545181, 0.002062701154500246, -0.00605533504858613, 0.004099958576261997, -0.005202345084398985, -0.00865440908819437, -0.005690924823284149, 0.0032154982909560204, -0.007872236892580986, 0.004711656831204891], [-0.007979472167789936, 0.005908525548875332, -0.007088350597769022, -0.006906622555106878, -0.009592735208570957, 0.006596396677196026, -0.006171675864607096, -0.007559816353023052, -0.0061802854761481285, -0.006121292244642973, -0.00847711879760027, -0.00651029497385025, 0.006890199612826109, 0.005819079466164112, -0.006858325097709894, -0.010358684696257114, 0.006078469567000866, 0.004706603940576315, 0.0030631395056843758, 0.005262806545943022, -0.010050235316157341, -0.006930700037628412, -0.004372526425868273, -0.005492058116942644, 0.008790978230535984, 0.007908260449767113, 0.007648416794836521, 0.007626339793205261, -0.007649742998182774, 0.006885909475386143, -0.015178277157247066, 0.008546502329409122, -0.008144519291818142, -0.008646045811474323, 0.005964719224721193, 0.006618938874453306, -0.007334799040108919, -0.0033804753329604864, 0.0006229863502085209, 0.009981011040508747, 0.007883135229349136, 0.005647948477417231, -0.006285014096647501, 0.005070046987384558, -0.009772940538823605, -0.006696544587612152, -0.008761836215853691, 0.008005455136299133, -0.0033490373753011227, -0.00724266329780221, 0.006133549381047487, 0.008206004276871681, 0.008344457484781742, 0.009876103140413761, -0.009784221649169922, 0.0064214663580060005, 0.008653403259813786, 0.006613856181502342, -0.004820739384740591, 0.00602922635152936, -0.006742153316736221, -0.0031756421085447073, -0.008238052017986774, 0.008485178463160992, -0.009428359568119049, 0.00623024208471179, 0.0063735139556229115, 0.00398439634591341, -0.006647386588156223, 0.002417830051854253, -0.004393429961055517, -0.008728882297873497, -0.004821556154638529, -0.005630433093756437, 0.005441187880933285, 0.008007893338799477, -0.00849792081862688, 0.004945836961269379, -0.007426021154969931, -0.008504818193614483, -0.005578453186899424, 0.007626691833138466, -0.009576557204127312, 0.005198596976697445, -0.007255773060023785, 0.007648545317351818, -0.006989667657762766, -0.005642511881887913, -0.0045379395596683025, -0.006816074252128601, -0.008991244249045849, 0.006075375713407993, -0.01612177863717079, 0.005466810893267393, -0.0063203549943864346, -0.0066319797188043594, -0.008657417260110378, -0.010244855657219887, -0.007842576131224632, -0.009113769978284836, 0.0058808778412640095, 0.00770327914506197, -0.005955823231488466, -0.005705972667783499, -0.0074509927071630955, -0.0065154568292200565, -0.010315888561308384, 0.008696218952536583, -0.008217331022024155, -0.006776361260563135, -0.010643335059285164, 0.0071357241831719875, -0.00567975640296936, 0.006111335474997759, -0.006472564768046141, -0.005114169791340828, -0.00621362728998065, 0.00783553533256054, -0.003981296438723803, 0.009092929773032665, -0.006713394075632095, 0.007962442003190517, -0.00783674605190754, -0.008602778427302837, -0.009163230657577515, 0.004737779963761568, -0.005207441281527281, 0.009673619642853737], [0.020245911553502083, -0.005843733437359333, 0.01851203478872776, 0.01769363507628441, 0.0063752904534339905, -0.022124892100691795, 0.016686921939253807, 0.024494260549545288, 0.013725860975682735, 0.009237067773938179, 0.021872784942388535, 0.004341922700405121, -0.005119159817695618, -0.005722656846046448, 0.017494890838861465, 0.00711082573980093, -0.01662539504468441, -0.014872809872031212, -0.0135304881259799, -0.013726305216550827, 0.024411480873823166, 0.004674263298511505, 0.004599918611347675, 0.005116228014230728, -0.01905517280101776, -0.015099111013114452, -0.01917387545108795, -0.022964581847190857, 0.02440892718732357, -0.021792784333229065, 0.006429716013371944, -0.006132245063781738, 0.014958860352635384, 0.00647969963029027, -0.005187215283513069, -0.017646988853812218, 0.005547511391341686, 0.016176922246813774, -0.008341748267412186, -0.00647051353007555, -0.006172816269099712, -0.01518725510686636, 0.008358153514564037, -0.00493503687903285, 0.025803495198488235, 0.005736557301133871, 0.023008177056908607, -0.01082566473633051, 0.021058259531855583, 0.009007745422422886, -0.01779259368777275, -0.02169007807970047, -0.0262812040746212, -0.025354580953717232, 0.024228563532233238, -0.019843341782689095, -0.005241529084742069, -0.004915193654596806, 0.013532069511711597, -0.01293193083256483, 0.022317910566926003, 0.0035838678013533354, 0.04038894549012184, -0.005716565065085888, 0.023461217060685158, -0.011692038737237453, -0.014299357309937477, -0.004694140050560236, 0.021064601838588715, -0.014945689588785172, 0.0041347588412463665, 0.004612704738974571, 0.004987563472241163, 0.013441788963973522, -0.004766278434544802, -0.00681676808744669, 0.023834630846977234, -0.013569559901952744, 0.009988362900912762, 0.012844170443713665, 0.009089267812669277, -0.00725577212870121, 0.019808398559689522, -0.015688296407461166, 0.006585285067558289, -0.022525565698742867, 0.017052611336112022, 0.007307901047170162, 0.012805052101612091, 0.008166905492544174, 0.024261916056275368, -0.022003313526511192, 0.010508302599191666, -0.01908467337489128, 0.009800810366868973, 0.002490782178938389, 0.006122438702732325, 0.008066393435001373, 0.018472367897629738, 0.02040323242545128, -0.014974008314311504, -0.017599772661924362, 0.029141707345843315, 0.015455489046871662, 0.02092808298766613, 0.018300166353583336, 0.013851160183548927, -0.023825066164135933, 0.023172616958618164, 0.01410595327615738, 0.009908397682011127, -0.02350916899740696, 0.01815965212881565, -0.018627330660820007, 0.02104194089770317, 0.004637416452169418, 0.014871034771203995, -0.0066056703217327595, 0.01493918802589178, -0.023913083598017693, 0.01069615874439478, -0.021098492667078972, 0.01964554190635681, 0.009862186387181282, 0.005715351551771164, -0.0051488569006323814, 0.00782104767858982, -0.01261332631111145], [0.012992128729820251, -0.01018388383090496, 0.005161442793905735, 0.004271635785698891, 0.004909752868115902, -0.012521680444478989, 0.011631915345788002, 0.004112961236387491, 0.011032105423510075, 0.0047483439557254314, 0.004385558422654867, 0.006177748553454876, -0.009991783648729324, -0.00378315057605505, 0.014091551303863525, 0.0044773053377866745, -0.00863407738506794, -0.003688843222334981, -0.011377538554370403, -0.012523154728114605, 0.010386671870946884, 0.011244069784879684, 0.005703135393559933, 0.009792126715183258, -0.010211160406470299, -0.014260424301028252, -0.011988349258899689, -0.010959593579173088, 0.014385910704731941, -0.008015773259103298, 0.0044661532156169415, -0.0048737493343651295, 0.008554044179618359, 0.009341397322714329, -0.004210455343127251, -0.012786248698830605, 0.0042303563095629215, 0.004063822794705629, -0.007662760093808174, -0.006490237545222044, -0.015786556527018547, -0.01174197532236576, 0.012556249275803566, -0.008481591939926147, 0.004838206805288792, 0.017155056819319725, 0.01014042180031538, -0.010833009146153927, 0.011770140379667282, 0.012815000489354134, -0.008171957917511463, -0.0119086978957057, -0.007334874477237463, -0.010849804617464542, 0.011624555103480816, -0.004042503889650106, -0.003946206998080015, -0.0036446477752178907, 0.011421824805438519, -0.00872647762298584, 0.004777171649038792, 0.009362142533063889, 0.013304869644343853, -0.012396364472806454, 0.010580969974398613, -0.008464503102004528, -0.012614434584975243, -0.012019865214824677, 0.011632410809397697, -0.007672951556742191, 0.010680093429982662, 0.010887914337217808, 0.012420708313584328, 0.008402826264500618, -0.0038781175389885902, -0.00881277211010456, 0.01359727792441845, -0.01276892889291048, 0.004394667688757181, 0.0052491831593215466, 0.011304374784231186, -0.004334867931902409, 0.010804624296724796, -0.009852969087660313, 0.00900997407734394, -0.009272030554711819, 0.009505716152489185, 0.014212516136467457, 0.010810865089297295, 0.008719286881387234, 0.011363287456333637, -0.011020392179489136, 0.0031507709063589573, -0.009008052758872509, 0.011113286018371582, 0.007297712378203869, 0.014826793223619461, 0.01006829459220171, 0.00963856466114521, 0.011483477428555489, -0.011426553130149841, -0.009780057705938816, 0.013232727535068989, 0.010481905192136765, 0.011968264356255531, 0.012913050130009651, 0.00628717290237546, -0.01178615354001522, 0.01257869228720665, 0.0040440307930111885, 0.010795903392136097, -0.004590439610183239, 0.010619121603667736, -0.009995732456445694, 0.012818251736462116, 0.009244181215763092, 0.012479787692427635, -0.008345303125679493, 0.014997829683125019, -0.010959677398204803, 0.013537002727389336, -0.012578733265399933, 0.010988130234181881, 0.0044229906052351, 0.009480769746005535, -0.008799884468317032, 0.011709177866578102, -0.013509276323020458], [0.008546308614313602, -0.002789450576528907, 0.0010206745937466621, 0.015664903447031975, 0.014287280850112438, -0.0015347199514508247, 0.007599118165671825, 0.013719853945076466, 0.0007101778755895793, 0.0007398019661195576, 0.005238344892859459, 0.00503289420157671, -0.0023506530560553074, -0.0030927055049687624, 0.0024412586353719234, 0.010165656916797161, -0.00728496303781867, -0.005426998715847731, -0.0029456974007189274, -0.0020494800992310047, 0.008951835334300995, 0.011179506778717041, 0.003001489909365773, 0.0036417979281395674, -0.002954762428998947, -0.005726873409003019, -0.015017532743513584, -0.007298577111214399, 0.00439957482740283, -0.01578819938004017, 0.015659211203455925, -0.00237883604131639, 0.0037476951256394386, 0.012968307361006737, -0.0022108121775090694, -0.002178050111979246, 0.003911829553544521, 0.002200733870267868, -0.004158537369221449, -0.010717513971030712, -0.0008141285507008433, -0.007075754459947348, 0.013157525099813938, -0.003699060995131731, 0.00717956805601716, 0.013848282396793365, 0.015165627934038639, -0.014565641060471535, 0.003492552088573575, 0.0007634863723069429, -0.002626825822517276, -0.01400593388825655, -0.00466574402526021, -0.009441131725907326, 0.00791214220225811, -0.0017808183329179883, -0.0008098958060145378, -0.0013987862039357424, 0.0031188740395009518, -0.0021663594525307417, 0.012012497521936893, 0.0031796726398169994, 0.0024325097911059856, -0.0029904390685260296, 0.00288873421959579, -0.012245968915522099, -0.0001208702233270742, -0.0025109155103564262, 0.0034078287426382303, -0.002358624478802085, 0.00592007813975215, 0.0025316854007542133, 0.0025187795981764793, 0.012556100264191628, -0.00274132308550179, -0.003789001377299428, 0.0003513720876071602, -0.0018519099103286862, 0.011244595050811768, 0.010233035311102867, 0.003108555916696787, -0.00361431110650301, 0.013323999010026455, -0.00456209434196353, 0.003953712061047554, -0.0012599043548107147, 0.003367004916071892, 0.001655025640502572, 0.002732769586145878, 0.0019175356719642878, 0.01548794750124216, -0.0015714039327576756, 0.0019533499144017696, -0.0012024031020700932, 0.012469382956624031, 0.013411876745522022, 0.0005735207814723253, 0.0001513690804131329, 0.0012168362736701965, 0.013689941726624966, -0.004301699809730053, -0.0036350160371512175, 0.015260905027389526, 0.007857202552258968, 0.014487064443528652, 0.0022976368200033903, 0.0036728703416883945, -0.004490542691200972, 0.00949860829859972, 0.0031535883899778128, 0.010127405636012554, -0.0025010842364281416, 0.00013854997814632952, -0.0033945785835385323, 0.002174179069697857, 0.0023263932671397924, 0.0036996237467974424, -0.0029348249081522226, 0.004547009710222483, -0.012313108891248703, 0.014910345897078514, -0.001625370467081666, 0.01276782900094986, 0.002934144577011466, 0.0034468912053853273, -0.006381927989423275, 0.003970277030020952, -0.01558639295399189], [0.006776486989110708, -0.007296459283679724, 0.004505685530602932, 0.0064060501754283905, 0.002207817044109106, -0.006002042908221483, 0.005190497264266014, 0.003903223667293787, 0.004196357447654009, 0.003132912330329418, 0.004149402026087046, 0.0033007143065333366, -0.0041902377270162106, -0.005544745828956366, 0.002579354913905263, 0.0033409520983695984, -0.004111382178962231, -0.0032960805110633373, -0.003176873316988349, -0.003413722850382328, 0.005072935484349728, 0.00233304500579834, 0.008110477589070797, 0.0044524092227220535, -0.0030170688405632973, -0.0030132450629025698, -0.0021033489610999823, -0.004078196827322245, 0.005378162954002619, -0.00389490625821054, 0.0008711100090295076, -0.003417656756937504, 0.0047863018698990345, 0.00589988986030221, -0.003356178756803274, -0.005180420354008675, 0.005094445776194334, 0.004112709779292345, -0.005380481947213411, -0.0005338333430700004, -0.003558843396604061, -0.008785786107182503, 0.0041413819417357445, -0.0014743669889867306, 0.0018975812708958983, 0.0073180291801691055, 0.0027641691267490387, -0.004791858606040478, 0.0037069537211209536, 0.0026452874299138784, -0.0033792087342590094, -0.005783888045698404, -0.0033930360805243254, -0.0007722937734797597, 0.00535610131919384, -0.0033188278321176767, -0.00417412631213665, -0.005250721238553524, 0.005422864109277725, -0.004024914465844631, 0.0005595905822701752, 0.008461682125926018, 0.004450690932571888, -0.0068672168999910355, 0.0026818187907338142, -0.0035818114411085844, -0.00755880493670702, -0.0031344671733677387, 0.0024211741983890533, -0.0026936715003103018, 0.004281945992261171, 0.004190796986222267, 0.003539548022672534, 0.006054016761481762, -0.00408892659470439, -0.006136536598205566, 0.0025084526278078556, -0.005019779782742262, 0.004239667672663927, 0.003724220674484968, 0.005348300561308861, -0.0031429119408130646, 0.003795803291723132, -0.004016112070530653, 0.0040460922755301, -0.0030637106392532587, 0.004935927223414183, 0.003248525783419609, 0.005656016990542412, 0.0029625948518514633, 0.003991629462689161, -0.004529553931206465, 0.001017682021483779, -0.002852461999282241, 0.005679626949131489, 0.004738494288176298, 0.0038880673237144947, 0.002525517251342535, 0.006416098214685917, 0.0024448225740343332, -0.00403324980288744, -0.003060002811253071, 0.0042389133013784885, 0.004388817120343447, 0.0027622829657047987, 0.0057901982218027115, 0.0024500463623553514, -0.004938338417559862, 0.004579110071063042, 0.004726467654109001, 0.0025222115218639374, -0.0050137462094426155, 0.008097209967672825, -0.004133292008191347, 0.0036978223361074924, 0.004619939252734184, 0.003187681082636118, -0.004294043406844139, 0.00853930227458477, -0.0014348728582262993, 0.003222895320504904, -0.003224670886993408, 0.002459216397255659, 0.006376907229423523, 0.004850063472986221, -0.004538294859230518, 0.0031335700768977404, -0.004380150698125362], [0.003933648578822613, -0.00396217405796051, 0.004384840372949839, 0.011234266683459282, 0.010695092380046844, -0.005379984620958567, 0.009022040292620659, 0.011116846464574337, 0.007918030023574829, 0.011224783957004547, 0.010262408293783665, 0.015054605901241302, -0.012879898771643639, -0.0040826331824064255, 0.009275306016206741, 0.009094886481761932, -0.007608725223690271, -0.01592753827571869, -0.012907607480883598, -0.012241506949067116, 0.006718209013342857, 0.009801605716347694, 0.012479135766625404, 0.009477688930928707, -0.010891339741647243, -0.0049209995195269585, -0.008546005003154278, -0.012132968753576279, 0.0038494348991662264, -0.006433905102312565, 0.006271508522331715, -0.012697081081569195, 0.010636399500072002, 0.004379589110612869, -0.004486861173063517, -0.010442792437970638, 0.0047322483733296394, 0.009560605511069298, -0.004894142970442772, -0.004782535135746002, -0.012230705469846725, -0.013514870777726173, 0.0040349336341023445, -0.008414615876972675, 0.0037067218217998743, 0.0036568772047758102, 0.011332034133374691, -0.004931951407343149, 0.004250598605722189, 0.004184179473668337, -0.01041458547115326, -0.0038348252419382334, -0.0042311931028962135, -0.010716626420617104, 0.010542269796133041, -0.0038146423175930977, -0.004149597603827715, -0.011212033219635487, 0.0036338013596832752, -0.011526674963533878, 0.008511416614055634, 0.012302501127123833, 0.01324414275586605, -0.011686853133141994, 0.008152189664542675, -0.003881291253492236, -0.004617977421730757, -0.014117365702986717, 0.0038146195001900196, -0.0004758062423206866, 0.005671152379363775, 0.009146345779299736, 0.012689037248492241, 0.011906803585588932, -0.010440981946885586, -0.010532306507229805, 0.009560960344970226, -0.011494865640997887, 0.010910416953265667, 0.00986535008996725, 0.004075946286320686, -0.012042195536196232, 0.003611247753724456, -0.004115269053727388, 0.004551715683192015, -0.009295154362916946, 0.01127762719988823, 0.009596992284059525, 0.003335621440783143, 0.010120196267962456, 0.011056310497224331, -0.011542022228240967, 0.003951115999370813, -0.013854609802365303, 0.012485211715102196, 0.006249710917472839, 0.00446892948821187, 0.006927597336471081, 0.010721331462264061, 0.010803399607539177, -0.0044434936717152596, -0.012451748363673687, 0.010707004927098751, 0.009136626496911049, 0.012793611735105515, 0.013784173876047134, 0.01218454260379076, -0.012157601304352283, 0.0046991752460598946, 0.008543972857296467, 0.004901699256151915, -0.0046226889826357365, 0.01177096925675869, -0.005437170621007681, 0.004272394813597202, 0.012272133491933346, 0.0034736809320747852, -0.008605151437222958, 0.00362480990588665, -0.011212637647986412, 0.01086072251200676, -0.010694139637053013, 0.013351855799555779, 0.004427226260304451, 0.004061383195221424, -0.011318028904497623, 0.004655215889215469, -0.009908554144203663], [-0.006982267834246159, 0.004131305497139692, -0.027292387560009956, -0.005109819117933512, -0.005219757556915283, 0.006333620753139257, -0.023282663896679878, -0.004727482795715332, -0.004556330386549234, -0.011560894548892975, -0.026847047731280327, -0.00437871553003788, 0.021898597478866577, 0.004967509303241968, -0.029192162677645683, -0.00566260889172554, 0.023964110761880875, 0.02007240243256092, 0.003954537678509951, 0.025120185688138008, -0.02669755555689335, -0.0038700138684362173, -0.01718927174806595, -0.01699208654463291, 0.026971526443958282, 0.013035133481025696, 0.022472897544503212, 0.004498244263231754, -0.029536254703998566, 0.00477388221770525, -0.0050865719094872475, 0.005625108256936073, -0.024905400350689888, -0.021790161728858948, 0.01867927797138691, 0.029235702008008957, -0.02628498524427414, -0.028037307783961296, 0.008207976818084717, 0.029082175344228745, 0.0015718734357506037, 0.018553931266069412, -0.001343242242000997, 0.01796664297580719, -0.01221567951142788, -0.003208208829164505, -0.005173751153051853, 0.0038167485035955906, -0.021670278161764145, -0.004399069584906101, 0.004358762409538031, 0.0050118244253098965, 0.004872106481343508, 0.015777084976434708, -0.027852030470967293, 0.0234150979667902, 0.013306968845427036, 0.0015837782993912697, -0.025603055953979492, 0.027535323053598404, -0.03026745654642582, -0.008027796633541584, -0.005469869822263718, 0.013702994212508202, -0.03510132431983948, 0.02480069361627102, 0.003970813471823931, 0.0010806069476529956, -0.0037445174530148506, 0.0036891603376716375, -0.020376291126012802, -0.017275970429182053, -0.021205581724643707, -0.015596780925989151, 0.02857084386050701, 0.032011911273002625, -0.004947287030518055, 0.019719701260328293, -0.023803729563951492, -0.014744690619409084, -0.0014781932113692164, 0.0032464051619172096, -0.0350717231631279, 0.022232554852962494, -0.004961009137332439, 0.005099009722471237, -0.02866678312420845, -0.026445472612977028, -0.003870221320539713, -0.015183396637439728, -0.0015386452432721853, 0.004091789945960045, -0.004786355420947075, 0.028184231370687485, -0.004234684631228447, -0.014499204233288765, -0.0013911344576627016, -0.004561056382954121, -0.031669098883867264, -0.023912159726023674, 0.004827880300581455, 0.004280444700270891, -0.0036253267899155617, -0.02350042574107647, -0.004588947631418705, -0.0038357560988515615, -0.027636108919978142, 0.034075140953063965, -0.005115593783557415, -0.018590569496154785, -0.005139559507369995, 0.023901451379060745, -0.004200114868581295, 0.019963832572102547, -0.00474689994007349, -0.002255147323012352, -0.004735860973596573, 0.027459828183054924, -0.0031086348462849855, 0.004676331765949726, -0.006425719242542982, 0.02757880836725235, -0.0028432246763259172, -0.008696719072759151, -0.0313127264380455, 0.02074391022324562, -0.015454213134944439, 0.0038432010915130377], [-0.001710793818347156, 0.004359775688499212, -0.004441951867192984, -0.006333705969154835, -0.03777914121747017, 0.007274121046066284, -0.024556679651141167, -0.005862824153155088, -0.03273196145892143, -0.025285307317972183, -0.031611453741788864, -0.0033204066567122936, 0.032330222427845, 0.001452998141758144, -0.038048189133405685, -0.03681033477187157, 0.03125074505805969, 0.013607067987322807, 0.00392832001671195, 0.004493371583521366, -0.005785084795206785, -0.03759384527802467, -0.005043898709118366, -0.0041711460798978806, 0.027814244851469994, 0.012360920198261738, 0.0061655486933887005, 0.026484649628400803, -0.005389001220464706, 0.037569303065538406, -0.006414884701371193, 0.005512630566954613, -0.030872685834765434, -0.025418875738978386, 0.034043021500110626, 0.0286712609231472, -0.03779848292469978, -0.0374310277402401, 0.011458035558462143, 0.03241894766688347, 0.0019210814498364925, 0.003818049095571041, -0.001798713463358581, 0.029862739145755768, -0.006197014357894659, -0.003859159303829074, -0.005645279306918383, 0.00370018626563251, -0.00482490099966526, -0.035431068390607834, 0.004909231793135405, 0.008468134328722954, 0.04275237396359444, 0.04025040939450264, -0.036281295120716095, 0.028239617124199867, 0.01744641736149788, 0.0015274313045665622, -0.03504066541790962, 0.033958800137043, -0.009083912707865238, -0.02175186388194561, -0.00233680522069335, 0.03111492469906807, -0.006862943526357412, 0.026935720816254616, 0.005312473513185978, 0.003125223331153393, -0.00473135057836771, 0.004862908739596605, -0.004608418792486191, -0.026296047493815422, -0.003948402591049671, -0.03288412466645241, 0.03328568860888481, 0.0406261645257473, -0.005709233693778515, 0.0016166442073881626, -0.005302540026605129, -0.027266837656497955, -0.0033042943105101585, 0.005038986913859844, -0.03093338944017887, 0.03110898844897747, -0.005400308407843113, 0.03958933800458908, -0.03254854306578636, -0.007942521013319492, -0.004167905542999506, -0.005842228885740042, -0.0060363635420799255, 0.005361994728446007, -0.03944890946149826, 0.036919061094522476, -0.0018631117418408394, -0.02411750517785549, -0.0017922073602676392, -0.029295029118657112, -0.032123517245054245, -0.030246097594499588, 0.011557448655366898, 0.031313054263591766, -0.004701471887528896, -0.035542748868465424, -0.006687991786748171, -0.001742935972288251, -0.006100474391132593, 0.034002069383859634, -0.008870341815054417, -0.0062708440236747265, -0.005865183193236589, 0.006090682931244373, -0.00724414037540555, 0.02592218481004238, -0.025219671428203583, -0.0016124678077176213, -0.00428195483982563, 0.038423310965299606, -0.0038904338143765926, 0.03380011394619942, -0.006215979345142841, 0.006459139287471771, -0.003977861255407333, -0.03223225101828575, -0.03279551863670349, 0.03042975254356861, -0.005973035003989935, 0.006662097759544849], [-0.009931658394634724, 0.009768885560333729, -0.005583017133176327, -0.012664844281971455, -0.00940016657114029, 0.012687090784311295, -0.008974939584732056, -0.010977615602314472, -0.004519348032772541, -0.012229845859110355, -0.010228619910776615, -0.013805059716105461, 0.011632134206593037, 0.004483332857489586, -0.004331964999437332, -0.010291463695466518, 0.0070020295679569244, 0.013966904953122139, 0.003367682918906212, 0.012368599884212017, -0.004776002373546362, -0.012623711489140987, -0.005020554177463055, -0.01338348351418972, 0.0116011006757617, 0.0042300294153392315, 0.008154833689332008, 0.0043778992258012295, -0.004989072680473328, 0.008713657967746258, -0.012921181507408619, 0.00434607220813632, -0.009597172960639, -0.012986467219889164, 0.00977316964417696, 0.012383120134472847, -0.004048000555485487, -0.009092031978070736, 0.014991777949035168, 0.0103696184232831, 0.010943745262920856, 0.0031571306753903627, -0.010259469039738178, 0.004458086099475622, -0.010090132243931293, -0.014875316992402077, -0.011928854510188103, 0.005840752273797989, -0.009845769964158535, -0.009543471038341522, 0.0101600531488657, 0.004725397564470768, 0.004781728610396385, 0.010290903970599174, -0.004857515916228294, 0.01208192016929388, 0.00432816194370389, 0.0039654322899878025, -0.012042224407196045, 0.00359875475987792, -0.011650239117443562, -0.003502793377265334, -0.012256165966391563, 0.012637143023312092, -0.0060793072916567326, 0.010935308411717415, 0.00509487371891737, 0.013746988028287888, -0.003994405269622803, 0.0038129067979753017, -0.011516431346535683, -0.006365840323269367, -0.010382067412137985, -0.012221884913742542, 0.010641095228493214, 0.004476973321288824, -0.005270359572023153, 0.013045990839600563, -0.004230565391480923, -0.004484339151531458, -0.012582710012793541, 0.01090913824737072, -0.004473702982068062, 0.011113562621176243, -0.0047485725954174995, 0.010519573464989662, -0.011865506879985332, -0.012911730445921421, -0.0034008556976914406, -0.004785260185599327, -0.00900835357606411, 0.011547692120075226, -0.004980627913028002, 0.0037303653080016375, -0.013756285421550274, -0.010626059956848621, -0.012923536822199821, -0.009166422300040722, -0.005060272756963968, -0.010114659555256367, 0.009807043708860874, 0.0038584021385759115, -0.012993395328521729, -0.004568220116198063, -0.004495374858379364, -0.012814550660550594, -0.005336744245141745, 0.013706154190003872, -0.004288714379072189, -0.00908613484352827, -0.013726091012358665, 0.008047494105994701, -0.004165092948824167, 0.004894800018519163, -0.004311823286116123, -0.012801533564925194, -0.004609019961208105, 0.011743414215743542, -0.01131536066532135, 0.013497032225131989, -0.004312656354159117, 0.010009495541453362, -0.012484399601817131, -0.008426890708506107, -0.01160354632884264, 0.009225592017173767, -0.014722408726811409, 0.012733240611851215], [-0.010440027341246605, 0.0036484997253865004, -0.012440538965165615, -0.008765597827732563, -0.01237634476274252, 0.013877684250473976, -0.012212573550641537, -0.010175487026572227, -0.011096841655671597, -0.012607707642018795, -0.010163421742618084, -0.013455452397465706, 0.009420867078006268, 0.01165445800870657, -0.010179980657994747, -0.010659893043339252, 0.013225517235696316, 0.014424319379031658, 0.003796105971559882, 0.011602567508816719, -0.007096572779119015, -0.009806215763092041, -0.010633515194058418, -0.011785117909312248, 0.010687901638448238, 0.004110049456357956, 0.008889337070286274, 0.005960050504654646, -0.008766253478825092, 0.01111459918320179, -0.013653657399117947, 0.004366428125649691, -0.009303925558924675, -0.008649904280900955, 0.0042607905343174934, 0.010645980946719646, -0.011011038906872272, -0.01338008139282465, 0.014795719645917416, 0.004562125541269779, 0.006260398309677839, 0.013358142226934433, -0.013190751895308495, 0.0051885382272303104, -0.012641197070479393, -0.014354526996612549, -0.009428723715245724, 0.012789230793714523, -0.009183264337480068, -0.01179600041359663, 0.011811244301497936, 0.004340438172221184, 0.011173741891980171, 0.004455516580492258, -0.006110359914600849, 0.0038493454921990633, 0.006937473546713591, 0.0040059881284832954, -0.009195641614496708, 0.012486492283642292, -0.012003450654447079, -0.005364167504012585, -0.01230377983301878, 0.01201627030968666, -0.012613368220627308, 0.003671277780085802, 0.009216892533004284, 0.012162009254097939, -0.012927749194204807, 0.004827688913792372, -0.012211649678647518, -0.011301238089799881, -0.012579897418618202, -0.011596789583563805, 0.006669789087027311, 0.003901321440935135, -0.012915308587253094, 0.004560332745313644, -0.010025444440543652, -0.004650636110454798, -0.010674462653696537, 0.014776484109461308, -0.009206597693264484, 0.012339940294623375, -0.008264848031103611, 0.009673216380178928, -0.0039055580273270607, -0.013211400248110294, -0.01173345372080803, -0.010262629017233849, -0.010859875939786434, 0.008293191902339458, -0.005609862040728331, 0.0035048099234700203, -0.004376804456114769, -0.006790280807763338, -0.011935926042497158, -0.0037437083665281534, -0.011968354694545269, -0.013453562743961811, 0.00431835325434804, 0.013704819604754448, -0.013990281149744987, -0.009712194092571735, -0.011963832192122936, -0.0037322810385376215, -0.012765839695930481, 0.014295900240540504, -0.00444799056276679, -0.008586691692471504, -0.014491736888885498, 0.010167253203690052, -0.012616129592061043, 0.004378817044198513, -0.01160875428467989, -0.01094042044132948, -0.010105754248797894, 0.008688596077263355, -0.0113712502643466, 0.0091382572427392, -0.014322195202112198, 0.010301528498530388, -0.011306239292025566, -0.00435434328392148, -0.013271682895720005, 0.006295429542660713, -0.013354203663766384, 0.010567232966423035], [0.0016041756607592106, -0.0032402013894170523, 0.004018372390419245, 0.0041450257413089275, 0.0009814210934564471, -0.0028024527709931135, 0.006621320731937885, 0.00269767502322793, 0.0049662296660244465, 0.003362891264259815, 0.0038721971213817596, 0.00768953887745738, -0.0018148744711652398, -0.00667333509773016, 0.00326163019053638, 0.002370846224948764, -0.004233322571963072, -0.007591253612190485, -0.003152549033984542, -0.003005668520927429, 0.003993485122919083, 0.0013162832474336028, 0.0042945947498083115, 0.005385697819292545, -0.005772189237177372, -0.005875627510249615, -0.001607683370821178, -0.004469605628401041, 0.002954078372567892, -0.0038595697842538357, 0.008389465510845184, -0.004805442411452532, 0.002549281343817711, 0.0020555024966597557, -0.0007646536687389016, -0.002795509295538068, 0.0038623458240181208, 0.003107657888904214, -0.006706829648464918, -0.002571801422163844, -0.003664278192445636, -0.0030474497471004725, 0.002162189455702901, -0.004903859458863735, 0.014076600782573223, 0.007872565649449825, 0.0024308771826326847, -0.001764872926287353, 0.0022749851923435926, 0.002700564218685031, -0.0018268362618982792, -0.0025411255192011595, -0.0006479283911176026, -0.004175716545432806, 0.003588079707697034, -0.004423458594828844, -0.0030625045765191317, -0.00414709746837616, 0.005371809937059879, -0.0031156903132796288, 0.004298404790461063, 0.003336777677759528, 0.000977616524323821, -0.004206359852105379, 0.0005148568307049572, -0.0038422797806560993, -0.002430450404062867, -0.00671974616125226, 0.004509993828833103, -0.0008713906863704324, 0.00542802968993783, 0.0020262696780264378, 0.008082096464931965, 0.0030868053436279297, -0.0036834569182246923, -0.005666309967637062, 0.0014056633226573467, -0.007708396762609482, 0.0043595633469522, 0.0038258929271250963, 0.004122070036828518, -0.005234964191913605, 0.0020662378519773483, -0.0028063917998224497, 0.0035585409495979548, -0.0032862306106835604, 0.005160770379006863, 0.0065268538892269135, 0.005150069482624531, 0.0029372263234108686, 0.004174516536295414, -0.0024778079241514206, 0.009253963828086853, -0.003297307761386037, 0.0028992879670113325, 0.003647012636065483, 0.0033624409697949886, 0.0053148576989769936, 0.003180007915943861, 0.004304088652133942, -0.0011687143705785275, -0.0019432519329711795, 0.0018560950411483645, 0.003398738568648696, 0.0040658884681761265, 0.008220228366553783, 0.0014183821622282267, -0.0012533568078652024, 0.0017159869894385338, 0.003884012345224619, 0.0009645411628298461, -0.000687369960360229, 0.004462575539946556, -0.004423671402037144, 0.0022754729725420475, 0.0027399901300668716, 0.0033928591292351484, -0.0031494416762143373, 0.00943868700414896, -0.002536799991503358, 0.003171870019286871, -0.003960046451538801, 0.0015907974448055029, 0.005593688227236271, 0.004437896888703108, -0.004912994336336851, 0.0038837622851133347, -0.0048687453381717205], [-0.01243146788328886, 0.0037451740354299545, -0.008413164876401424, -0.006283109541982412, -0.012066206894814968, 0.01590115949511528, -0.014685967937111855, -0.012348972260951996, -0.013232863508164883, -0.011125599034130573, -0.011792642995715141, -0.0038094783667474985, 0.008254681713879108, 0.003645476419478655, -0.014343374408781528, -0.01295157615095377, 0.013736567460000515, 0.013327575288712978, 0.004101333674043417, 0.012360884808003902, -0.006699861492961645, -0.01056671142578125, -0.012047811411321163, -0.013470767997205257, 0.012691185809671879, 0.004492355044931173, 0.008224323391914368, 0.01354110799729824, -0.010995511896908283, 0.004886769223958254, -0.011593179777264595, 0.016719777137041092, -0.00407289108261466, -0.014028969220817089, 0.011962324380874634, 0.011900289915502071, -0.012888151220977306, -0.010150584392249584, 0.004312244709581137, 0.011330553330481052, 0.004785275552421808, 0.004800033289939165, -0.013300986960530281, 0.010712414048612118, -0.01683308370411396, -0.01632944867014885, -0.017510628327727318, 0.004701451864093542, -0.015109139494597912, -0.01376246940344572, 0.011645241640508175, 0.015093991532921791, 0.010668005794286728, 0.0050202603451907635, -0.004971839487552643, 0.0043053352274000645, 0.005353634711354971, 0.013678011484444141, -0.01216310914605856, 0.011578716337680817, -0.012565409764647484, -0.011610044166445732, -0.01786467246711254, 0.009018585085868835, -0.011736101470887661, 0.012850661762058735, 0.010568982921540737, 0.014290574938058853, -0.011648359708487988, 0.014887147583067417, -0.011874997988343239, -0.00984155386686325, -0.011444207280874252, -0.013473868370056152, 0.015023446641862392, 0.014101103879511356, -0.00859485287219286, 0.00415478739887476, -0.0047747110947966576, -0.00493155512958765, -0.013169519603252411, 0.013794073835015297, -0.004417544696480036, 0.0043089925311505795, -0.00545604107901454, 0.009825979359447956, -0.012763489037752151, -0.012946651317179203, -0.010990245267748833, -0.01018592156469822, -0.0049135456793010235, 0.004304084461182356, -0.010206995531916618, 0.0010081810178235173, -0.014532906003296375, -0.01284564845263958, -0.015267827548086643, -0.012446945533156395, -0.011832180432975292, -0.01272340677678585, 0.014524979516863823, 0.013602858409285545, -0.016697891056537628, -0.012127278372645378, -0.016209829598665237, -0.00720581691712141, -0.016278989613056183, 0.016493462026119232, -0.00568207586184144, -0.010572408325970173, -0.011862593702971935, 0.010699192062020302, -0.01633322983980179, 0.004630918148905039, -0.014735349453985691, -0.004352928604930639, -0.014496740885078907, 0.013317063450813293, -0.013284417800605297, 0.013732824474573135, -0.004632607102394104, 0.013880022801458836, -0.01591368578374386, -0.009446438401937485, -0.011177719570696354, 0.011346662417054176, -0.010231863707304, 0.01894538663327694], [0.0031784572638571262, -0.0075207846239209175, 0.006193593144416809, 0.008502771146595478, 0.006374898366630077, -0.008386777713894844, 0.005295078735798597, 0.003749951021745801, 0.005540689453482628, 0.005503861699253321, 0.008246170356869698, 0.011508298106491566, -0.008881083689630032, -0.0030702229123562574, 0.0033906863536685705, 0.004680299200117588, -0.0036614621058106422, -0.004477268550544977, -0.0035512298345565796, -0.008672413416206837, 0.008037070743739605, 0.004768038634210825, 0.00738727068528533, 0.005377653054893017, -0.00881081074476242, -0.006603230256587267, -0.005478056147694588, -0.00433713011443615, 0.004905018489807844, -0.003996348939836025, 0.0025878308806568384, -0.00905965082347393, 0.006206189282238483, 0.0034382911399006844, -0.004546417389065027, -0.003616858972236514, 0.0034620685037225485, 0.007271936163306236, -0.009184052236378193, -0.005158822983503342, -0.004121857229620218, -0.012208606116473675, 0.008608182892203331, -0.0035397426690906286, 0.0044478438794612885, 0.006143665406852961, 0.0015187785029411316, -0.006855906452983618, 0.008861692622303963, 0.007103704381734133, -0.003980298060923815, -0.007036349270492792, -0.0008102901047095656, -0.006833535619080067, 0.007265762891620398, -0.003218871308490634, -0.007843507453799248, -0.01015934906899929, 0.0035314273554831743, -0.00885614100843668, 0.0042932950891554356, 0.004509096499532461, 0.006047397386282682, -0.006791602820158005, 0.0032387725077569485, -0.005087235476821661, -0.008468285202980042, -0.006796413566917181, 0.0033921741414815187, -0.011620311997830868, 0.007594681344926357, 0.004346646834164858, 0.009764296002686024, 0.0036583496257662773, -0.003887543687596917, -0.003105941228568554, 0.004051498603075743, -0.006947025656700134, 0.005748862400650978, 0.0037446743808686733, 0.00804653950035572, -0.007069878745824099, 0.003300971584394574, -0.009447366930544376, 0.010015459731221199, -0.008682792074978352, 0.004519187845289707, 0.007530915550887585, 0.0031605842523276806, 0.006208579521626234, 0.00839988887310028, -0.005837424658238888, 0.0016914518782868981, -0.006727831903845072, 0.007600896526128054, 0.004955080337822437, 0.00651260232552886, 0.003001619828864932, 0.005500854924321175, 0.006871914491057396, -0.003707341616973281, -0.008264412172138691, 0.007902800105512142, 0.00827043317258358, 0.003977450542151928, 0.008256401866674423, 0.006976919714361429, -0.009155905805528164, 0.006227084435522556, 0.007220680825412273, 0.002281624125316739, -0.007775572594255209, 0.0035550319589674473, -0.0037000158336013556, 0.006163482088595629, 0.0067833284847438335, 0.006954903248697519, -0.0034786295145750046, 0.01116481889039278, -0.003831984242424369, 0.00398790929466486, -0.0036524224560707808, 0.007206757087260485, 0.004750893451273441, 0.003410500241443515, -0.006371795199811459, 0.005235699005424976, -0.0035824361257255077], [0.0043124048970639706, -0.007411302998661995, 0.0038179527036845684, 0.004883593413978815, 0.0014887013239786029, -0.0040927608497440815, 0.0035730658564716578, 0.0009822335559874773, 0.004526167176663876, 0.0063796876929700375, 0.0023942121770232916, 0.010877123102545738, -0.0059424107894301414, -0.009944839403033257, 0.002249967074021697, 0.0014244697522372007, -0.004120723344385624, -0.008772782981395721, -0.008935566991567612, -0.01050811167806387, 0.005324222147464752, 0.0027607053052634, 0.005133972968906164, 0.003226490458473563, -0.003929611295461655, -0.003725287038832903, -0.0030878789257258177, -0.0016284622251987457, 0.0016310431528836489, -0.0022062005009502172, 0.0032820513006299734, -0.0067527564242482185, 0.006400627549737692, 0.0016306063625961542, -0.006736615672707558, -0.0036898620892316103, 0.0036770692095160484, 0.003673743922263384, -0.0063633075915277, -0.0008357636397704482, -0.004920343402773142, -0.002861575921997428, 0.003526345593854785, -0.004123657010495663, 0.004207693971693516, 0.004307082388550043, 0.011732388287782669, -0.012755950912833214, 0.0029242434538900852, 0.0020998776890337467, -0.0043607354164123535, -0.004138761665672064, -0.0010537810157984495, -0.0028253805357962847, 0.0010894541628658772, -0.006626262329518795, -0.0015986217185854912, -0.00430125929415226, 0.0029957329388707876, -0.0033978053834289312, 0.0030019457917660475, 0.008469601161777973, 0.004326735157519579, -0.009143369272351265, 0.0028973580338060856, -0.0059994980692863464, -0.006237680558115244, -0.003509114496409893, 0.005116162821650505, -0.00539705716073513, 0.010282459668815136, 0.004301457665860653, 0.008982504718005657, 0.0038969002198427916, -0.004857102874666452, -0.005339466035366058, 0.004438603296875954, -0.00507076783105731, 0.004280545748770237, 0.0035952527541667223, 0.005821991711854935, -0.002359657781198621, 0.002195399720221758, -0.0038440644275397062, 0.0026748895179480314, -0.003261856734752655, 0.0039731599390506744, 0.0037157749757170677, 0.01021761354058981, 0.0036184892524033785, 0.004024631809443235, -0.0028962295036762953, 0.0036640465259552, -0.0025938651524484158, 0.0034260645043104887, 0.0022560548968613148, 0.004845840856432915, 0.004183453507721424, 0.003727334551513195, 0.003929345402866602, -0.005718478932976723, -0.004253373481333256, 0.01053948886692524, 0.0022100445348769426, 0.0037218108773231506, 0.00941671896725893, 0.0009673589374870062, -0.004473802633583546, 0.004266350995749235, 0.003481587627902627, 0.0022599205840379, -0.0019849371165037155, 0.0041982862167060375, -0.006333867087960243, 0.003199642291292548, 0.003965548239648342, 0.0034694778732955456, -0.0026311567053198814, 0.010543795302510262, -0.003373488085344434, 0.0006678246427327394, -0.008026129566133022, 0.00062097905902192, 0.005494073498994112, 0.004034609533846378, -0.0026911443565040827, 0.0009081083699129522, -0.003712967038154602], [0.0068263402208685875, -0.0036344132386147976, 0.005553571507334709, 0.006408538203686476, 0.004011617973446846, -0.0024450516793876886, 0.0031124718952924013, 0.014429358765482903, 0.04872746393084526, 0.027290014550089836, 0.015059316530823708, 0.002023036126047373, -0.004337533842772245, -0.012163662351667881, 0.02072814293205738, 0.03952961787581444, -0.006261694710701704, -0.008446795865893364, -0.008715994656085968, -0.007655499968677759, 0.037017546594142914, 0.03202614188194275, 0.0023081814870238304, 0.013502237387001514, -0.002058200305327773, -0.00434461422264576, -0.014052160084247589, -0.006580810062587261, 0.014736064709722996, -0.015485753305256367, 0.010899219661951065, -0.0027998031582683325, 0.012076307088136673, 0.004567067604511976, -0.006421204656362534, -0.024751875549554825, 0.017628708854317665, 0.0024461615830659866, -0.01767115108668804, -0.007148985285311937, -0.0058630965650081635, -0.012352514080703259, 0.004506033845245838, -0.04121257737278938, 0.010626970790326595, 0.005652033723890781, 0.010291112586855888, -0.004044271074235439, 0.005944967269897461, 0.014155779033899307, -0.006021733395755291, -0.013824133202433586, -0.023558232933282852, -0.00578268663957715, 0.013103259727358818, -0.014177211560308933, -0.04118551313877106, -0.007500237785279751, 0.02029753290116787, -0.02765733003616333, 0.006579725071787834, 0.005262093152850866, 0.010501456446945667, -0.022100552916526794, 0.007230694871395826, -0.003996978048235178, -0.006150859873741865, -0.0037628193385899067, 0.011482754722237587, -0.005730504170060158, 0.00822772178798914, 0.04011246934533119, 0.0037189454305917025, 0.0234050452709198, -0.004578202962875366, -0.008977572433650494, 0.0257024634629488, -0.0024421310517936945, 0.03780275583267212, 0.040268685668706894, 0.006248784251511097, -0.0132334278896451, 0.024353602901101112, -0.0037005760241299868, 0.01376110129058361, -0.013673835434019566, 0.006092592608183622, 0.013547683134675026, 0.007678058929741383, 0.0332614928483963, 0.0028885463252663612, -0.0021754412446171045, 0.018714802339673042, -0.014327704906463623, 0.014158161357045174, 0.042237889021635056, 0.0030450832564383745, 0.007124042604118586, 0.011438385583460331, 0.021739399060606956, -0.005909709259867668, -0.006184643134474754, 0.007228609640151262, 0.0461299754679203, 0.006835304666310549, 0.005011298693716526, 0.016252784058451653, -0.006622889544814825, 0.005153486970812082, 0.014195781201124191, 0.008189779706299305, -0.007101118564605713, 0.004444947000592947, -0.008712273091077805, 0.0029455984476953745, 0.0062981522642076015, 0.014404951594769955, -0.03796698898077011, 0.0035434074234217405, -0.006933983415365219, 0.00565439835190773, -0.011502298526465893, 0.0030691069550812244, 0.03809507563710213, 0.012812288478016853, -0.0036891140043735504, 0.04832959920167923, -0.0065591540187597275], [-0.002166509861126542, 0.0038970885798335075, -0.021139157935976982, -0.006714074872434139, -0.01604648306965828, 0.016766998916864395, -0.011815856210887432, -0.004683636594563723, -0.010568797588348389, -0.0057809725403785706, -0.0174523014575243, -0.013408818282186985, 0.014110948890447617, 0.003592092776671052, -0.0044310190714895725, -0.004699010401964188, 0.019700391218066216, 0.01702658273279667, 0.01155724748969078, 0.0038040040526539087, -0.0051634907722473145, -0.003968445118516684, -0.018638595938682556, -0.0041872053407132626, 0.0043159169144928455, 0.005458718631416559, 0.01693730056285858, 0.016342680901288986, -0.017714908346533775, 0.01827690191566944, -0.005275602452456951, 0.011897644028067589, -0.004442113451659679, -0.004567635711282492, 0.015477794222533703, 0.017967049032449722, -0.01457369327545166, -0.015821244567632675, 0.004743947647511959, 0.01525536086410284, 0.005450811702758074, 0.012559719383716583, -0.013198718428611755, 0.018739989027380943, -0.0139083880931139, -0.0027300056535750628, -0.005154796410351992, 0.008830632083117962, -0.005229606293141842, -0.0051534357480704784, 0.009288603439927101, 0.004901733249425888, 0.014103470370173454, 0.004138444550335407, -0.00843537412583828, 0.012747183442115784, 0.017097925767302513, 0.011675063520669937, -0.015541119500994682, 0.00397422956302762, -0.015522665344178677, -0.015071704983711243, -0.007541661616414785, 0.01497420109808445, -0.004705877974629402, 0.00419815955683589, 0.018445003777742386, 0.003682647831737995, -0.011592322029173374, 0.004712128080427647, -0.014385915361344814, -0.01548756193369627, -0.012806798331439495, -0.004195045214146376, 0.016589751467108727, 0.013101433403789997, -0.01466655544936657, 0.011204355396330357, -0.01767568103969097, -0.015561933629214764, -0.011468397453427315, 0.004295113030821085, -0.01222918275743723, 0.004614031407982111, -0.011839182116091251, 0.004836380481719971, -0.008812435902655125, -0.008924447000026703, -0.003777845995500684, -0.016891708597540855, -0.012816645205020905, 0.009664044715464115, -0.010856584645807743, 0.00907276663929224, -0.003970398101955652, -0.004896331112831831, -0.015717241913080215, -0.00846813153475523, -0.004427317064255476, -0.016247214749455452, 0.015641167759895325, 0.015333589166402817, -0.012508810497820377, -0.021457362920045853, -0.014861863106489182, -0.009436605498194695, -0.0056682792492210865, 0.005328319501131773, -0.002891713986173272, -0.016588561236858368, -0.005564998369663954, 0.013556241989135742, -0.004596134182065725, 0.014225127175450325, -0.01507893018424511, -0.012839331291615963, -0.003884118515998125, 0.020499330013990402, -0.0011051755864173174, 0.005117666907608509, -0.003750775707885623, 0.014688787050545216, -0.0017404317623004317, -0.01180492527782917, -0.015826907008886337, 0.016295498237013817, -0.0168460700660944, 0.005454491823911667], [-0.01499844528734684, 0.014482890255749226, -0.011076835915446281, -0.013380019925534725, -0.010076746344566345, 0.016787787899374962, -0.014342128299176693, -0.004486104007810354, -0.014716087840497494, -0.00869324803352356, -0.014563003554940224, -0.017374081537127495, 0.013611605390906334, 0.016287488862872124, -0.01601748913526535, -0.013706489466130733, 0.006988812703639269, 0.0034705880098044872, 0.012326369993388653, 0.015864381566643715, -0.0108400983735919, -0.01189292874187231, -0.014399443753063679, -0.010895519517362118, 0.007358124479651451, 0.0042714448645710945, 0.011900740675628185, 0.013731857761740685, -0.016161948442459106, 0.00489832041785121, -0.0044814106076955795, 0.0167328380048275, -0.012574098072946072, -0.01604372449219227, 0.012151189148426056, 0.012323969975113869, -0.003956672735512257, -0.010516558773815632, 0.005260984878987074, 0.014619155786931515, 0.013149498030543327, 0.015624084509909153, -0.013816850259900093, 0.010711347684264183, -0.016031062230467796, -0.022291619330644608, -0.015728851780295372, 0.01591251604259014, -0.014886087737977505, -0.011320201680064201, 0.011617408134043217, 0.014280371367931366, 0.004216077271848917, 0.010892651975154877, -0.012321756221354008, 0.01334843598306179, 0.0066458964720368385, 0.017845332622528076, -0.011693174950778484, 0.014435297809541225, -0.004385833628475666, -0.006726639345288277, -0.010650242678821087, 0.013552130199968815, -0.015993893146514893, 0.003851391840726137, 0.011152688413858414, 0.01340574026107788, -0.01509832963347435, 0.00512152723968029, -0.011292645707726479, -0.0044695185497403145, -0.014225251041352749, -0.009411766193807125, 0.013086911290884018, 0.011969609186053276, -0.016102029010653496, 0.016443543136119843, -0.009050135500729084, -0.010534774512052536, -0.004627737682312727, 0.018831344321370125, -0.01389672514051199, 0.00419907970353961, -0.011573954485356808, 0.013724942691624165, -0.01203877292573452, -0.0042454213835299015, -0.013030537404119968, -0.009290053509175777, -0.005411768332123756, 0.013730051927268505, -0.00398414907976985, 0.012886016629636288, -0.012224854901432991, -0.009927450679242611, -0.01551372092217207, -0.00815691240131855, -0.015332166105508804, -0.012752915732562542, 0.010913231410086155, 0.012089991942048073, -0.018587002530694008, -0.013337723910808563, -0.014755603857338428, -0.00359528511762619, -0.016503700986504555, 0.014891759492456913, -0.004483939614146948, -0.004193948581814766, -0.012365705333650112, 0.010383924469351768, -0.004108285065740347, 0.014616530388593674, -0.017347289249300957, -0.01473109982907772, -0.013943835161626339, 0.010881546884775162, -0.01653120294213295, 0.013350087217986584, -0.011651324108242989, 0.004691221285611391, -0.0178290493786335, -0.0044845351949334145, -0.016329482197761536, 0.012726888060569763, -0.004964535590261221, 0.004524591378867626], [0.010751615278422832, -0.0035915186163038015, 0.008343768306076527, 0.006942299194633961, 0.0042555443942546844, -0.012277591973543167, 0.003741702763363719, 0.013435517437756062, 0.004103821702301502, 0.006250136997550726, 0.011005392298102379, 0.014284390024840832, -0.007091667503118515, -0.01227046363055706, 0.009753395803272724, 0.00762800732627511, -0.004692422691732645, -0.01176024042069912, -0.011151491664350033, -0.01063632033765316, 0.011063039302825928, 0.00905152689665556, 0.010002607479691505, 0.008315972052514553, -0.011345976032316685, -0.016259917989373207, -0.009131843224167824, -0.014388748444616795, 0.014015930704772472, -0.005573034752160311, 0.008652050979435444, -0.018144533038139343, 0.01113410945981741, 0.011495972983539104, -0.004847354255616665, -0.00395036768168211, 0.011483743786811829, 0.008982521481812, -0.004183475859463215, -0.008904469199478626, -0.004375754855573177, -0.014276661910116673, 0.012081907130777836, -0.006530763115733862, 0.009339507669210434, 0.020655252039432526, 0.013208613730967045, -0.013313720934092999, 0.004319224506616592, 0.011648807674646378, -0.005905823316425085, -0.012425515800714493, -0.01165084820240736, -0.01001938246190548, 0.011158219538629055, -0.0038632068317383528, -0.004077489022165537, -0.011896949261426926, 0.012418314814567566, -0.009083790704607964, 0.009736990556120872, 0.0064862994477152824, 0.02306239865720272, -0.005825750529766083, 0.010021449066698551, -0.006660522427409887, -0.010338300839066505, -0.015341339632868767, 0.015031545422971249, -0.006964863743633032, 0.012388728559017181, 0.004427003674209118, 0.01455126516520977, 0.008021237328648567, -0.008071523159742355, -0.012265840545296669, 0.010589100420475006, -0.011850637383759022, 0.00646112859249115, 0.007755829952657223, 0.004190296400338411, -0.015873875468969345, 0.003965796437114477, -0.004188136663287878, 0.011482397094368935, -0.008360124193131924, 0.011770639568567276, 0.014692886732518673, 0.013808592222630978, 0.009505849331617355, 0.012044327333569527, -0.0074808937497437, 0.010603970848023891, -0.005059906281530857, 0.0036972961388528347, 0.004465803969651461, 0.004673557821661234, 0.010980659164488316, 0.014019515365362167, 0.011606178246438503, -0.006756394635885954, -0.010142937302589417, 0.005722136702388525, 0.011371658183634281, 0.013736847788095474, 0.014810413122177124, 0.00513631384819746, -0.003989366348832846, 0.005602948367595673, 0.003881365992128849, 0.012715627439320087, -0.011048895306885242, 0.015504620037972927, -0.006108544766902924, 0.005697720218449831, 0.004335165023803711, 0.009510291740298271, -0.011317849159240723, 0.0031019719317555428, -0.004032593686133623, 0.009312591515481472, -0.010116565972566605, 0.014575689099729061, 0.0058441851288080215, 0.009919445961713791, -0.011795497499406338, 0.005404765717685223, -0.016883816570043564], [-0.0038712038658559322, 0.0037136299069970846, -0.007611908484250307, -0.012565757147967815, -0.0048440322279930115, 0.01319891307502985, -0.008211134001612663, -0.008611926808953285, -0.004391548223793507, -0.00023959350073710084, -0.011070889420807362, -0.003578058909624815, 0.008471263572573662, 0.008606752380728722, -0.0045007262378931046, -0.006802181247621775, 0.004607541020959616, 0.008510268293321133, 0.011656091548502445, 0.003742503933608532, -0.011106097139418125, -0.01005635503679514, -0.004359493497759104, -0.008885260671377182, 0.003920401446521282, 0.01211172342300415, 0.009785939939320087, 0.011612419970333576, -0.009717929176986217, 0.004847724922001362, -0.005411589052528143, 0.01122133620083332, -0.0038877639453858137, -0.004044699016958475, 0.00453694723546505, 0.010488670319318771, -0.006262778304517269, -0.009513182565569878, 0.00600156607106328, 0.004764491226524115, 0.014402161352336407, 0.012904300354421139, -0.010435827076435089, 0.009917275048792362, -0.0045463950373232365, -0.004190597217530012, -0.008036958053708076, 0.008629447780549526, -0.012439249083399773, -0.010940826497972012, 0.010998121462762356, 0.008546300232410431, 0.007047515362501144, 0.004623476415872574, -0.004339993465691805, 0.012253327295184135, 0.003967541269958019, 0.01329190842807293, -0.0034660445526242256, 0.008679580874741077, -0.003756029764190316, -0.010939978994429111, -0.013302006758749485, 0.01008201390504837, -0.0047964309342205524, 0.011149193160235882, 0.004340281710028648, 0.009784993715584278, -0.009566543623805046, 0.003689722390845418, -0.012572658248245716, -0.006880716886371374, -0.003886495716869831, -0.006734758149832487, 0.010037558153271675, 0.011736951768398285, -0.00806568656116724, 0.011867675930261612, -0.004722407553344965, -0.009111972525715828, -0.013494759798049927, 0.012119811959564686, -0.008769464679062366, 0.009034499526023865, -0.01008058525621891, 0.009423316456377506, -0.01131556835025549, -0.009983675554394722, -0.010989737696945667, -0.004607776645570993, -0.004164096899330616, 0.010519459843635559, -0.010678716003894806, 0.003316157963126898, -0.011832463555037975, -0.008888382464647293, -0.014090655371546745, -0.004671736154705286, -0.003983020316809416, -0.008716502226889133, 0.006521586328744888, 0.012119054794311523, -0.012140174396336079, -0.0061923544853925705, -0.012229598127305508, -0.003972799051553011, -0.009801164269447327, 0.009889903478324413, -0.014187820255756378, -0.006957154721021652, -0.00883706845343113, 0.004125792067497969, -0.013996136374771595, 0.004568435251712799, -0.004489503335207701, -0.009699912741780281, -0.009006516076624393, 0.00997015368193388, -0.0030682196374982595, 0.01200927048921585, -0.004934384953230619, 0.009159072302281857, -0.00972775463014841, -0.004450075328350067, -0.0107360128313303, 0.00829394906759262, -0.007751848082989454, 0.01094033569097519], [0.007506519556045532, -0.00936136208474636, 0.00970421265810728, 0.00799694936722517, 0.004853577818721533, -0.00424882723018527, 0.008094234392046928, 0.006006103008985519, 0.004471574444323778, 0.0007940290961414576, 0.003732111304998398, 0.0034715267829596996, -0.004650639370083809, -0.0082766218110919, 0.004559841472655535, 0.004908932372927666, -0.006272385828197002, -0.009908022359013557, -0.009062389843165874, -0.009897325187921524, 0.008857452310621738, 0.007202773354947567, 0.01146567054092884, 0.007834281772375107, -0.003307634498924017, -0.009048796258866787, -0.0039871204644441605, -0.00791184976696968, 0.009604991413652897, -0.007810134906321764, 0.0044504376128315926, -0.010126047767698765, 0.0038398641627281904, 0.0043318565003573895, -0.00952299777418375, -0.004220040049403906, 0.005130883771926165, 0.007965884171426296, -0.0013487868709489703, -0.0066623506136238575, -0.00799876730889082, -0.010281546972692013, 0.009587296284735203, -0.009188154712319374, 0.0041809286922216415, 0.0061228517442941666, 0.004924893844872713, -0.004235657397657633, 0.006197933107614517, 0.0070107001811265945, -0.005379590205848217, -0.003674081526696682, -0.00409433851018548, -0.004613210447132587, 0.004368084017187357, -0.003665515221655369, -0.0037883969489485025, -0.011054161004722118, 0.008345943875610828, -0.00999421812593937, 0.006313197314739227, 0.01093424391001463, 0.001423796289600432, -0.007776887156069279, 0.0035359475295990705, -0.0097354082390666, -0.006418117322027683, -0.006973820272833109, 0.0032266853377223015, -0.012980319559574127, 0.007978985086083412, 0.009943371638655663, 0.009999716654419899, 0.0034345670137554407, -0.008924836292862892, -0.007196742109954357, 0.007083598989993334, -0.009710072539746761, 0.004469186998903751, 0.005059606395661831, 0.0036127218045294285, -0.003600576426833868, 0.0033646761439740658, -0.007515387609601021, 0.004114007577300072, -0.004458490293473005, 0.008319754153490067, 0.007703498005867004, 0.009455027058720589, 0.004411627538502216, 0.004469234496355057, -0.007860261015594006, 0.006322704721242189, -0.004356264136731625, 0.00806916318833828, 0.005787069443613291, 0.008281516842544079, 0.004297181498259306, 0.0087404390797019, 0.0038393368013203144, -0.003995511215180159, -0.004290866199880838, 0.005153109319508076, 0.010067515075206757, 0.004043462220579386, 0.008433607406914234, 0.003821068210527301, -0.0056802500039339066, 0.00392399076372385, 0.00936922337859869, 0.004416587296873331, -0.004145663231611252, 0.008808434009552002, -0.00454116752371192, 0.009889122098684311, 0.00372881768271327, 0.006931072100996971, -0.0036762573290616274, 0.008530963212251663, -0.0038172604981809855, 0.006809094920754433, -0.010928337462246418, 0.008332771249115467, 0.010481946170330048, 0.007550053298473358, -0.008344127796590328, 0.006350653246045113, -0.006465368904173374], [0.0034006803762167692, -0.0032634094823151827, 0.003815971314907074, 0.0046502817422151566, 0.0004984168917872012, -0.004276057239621878, 0.002497779903933406, 0.0042963046580553055, 0.0045683057978749275, 0.0036724982783198357, 0.0005397897912189364, 0.002952038077637553, -0.003749118885025382, -0.008223419077694416, 0.0026762813795357943, 0.0035581644624471664, -0.004146079067140818, -0.0033722124062478542, -0.010521138086915016, -0.0068799532018601894, 0.000905359338503331, 0.003470092313364148, 0.00384994363412261, 0.00587351294234395, -0.00362572749145329, -0.0020553506910800934, -0.003256074618548155, -0.003164276946336031, 0.003228719811886549, -0.0023416064213961363, 0.003660932183265686, -0.00439936388283968, 0.0046723890118300915, 0.002137623028829694, -0.004556368570774794, -0.0035310520324856043, 0.0028708958998322487, 0.005885661579668522, -0.0005798502243123949, -0.003832115326076746, -0.0025004902854561806, -0.010553418658673763, 0.005700708832591772, -0.005181287415325642, 0.004114245995879173, 0.005282149650156498, 0.0009246760746464133, -0.003566160798072815, 0.002835302846506238, 0.004450456704944372, -0.004207374062389135, -0.0031628443393856287, -0.0029003990348428488, -8.481616532662883e-05, 0.001502511091530323, -0.003100368659943342, -0.002627869602292776, -0.004633744712918997, 0.005842520389705896, -0.00035617532557807863, 0.00010513941379031166, 0.008036837913095951, 0.004322385881096125, -0.003988109063357115, 0.0021882050205022097, -0.005822150968015194, -0.00350708095356822, -0.0028739047702401876, 0.0038894962053745985, -0.007067906204611063, 0.003151342272758484, 0.005674862768501043, 0.0030066058970987797, 0.0038940361700952053, -0.005645887926220894, -0.00487658241763711, 0.004584452137351036, -0.0042287628166377544, 0.0007073339656926692, 0.006889680400490761, 0.0041983104310929775, -0.0029293601401150227, 0.0017928165616467595, -0.006105100270360708, 0.0034032182302325964, -0.004255110397934914, 0.0027266701217740774, 0.0036831810139119625, 0.009686296805739403, 0.009916002862155437, 0.0016104181995615363, -0.00420663645491004, 0.0006272679311223328, -0.0019091881113126874, 0.004353238735347986, 0.004132678732275963, 0.004618793725967407, 0.005073025356978178, 0.003634116379544139, 0.003217513905838132, -0.0029721325263381004, -0.003920200280845165, 0.003407405922189355, 0.005936440546065569, 0.005206557922065258, 0.0030519457068294287, 0.00106252811383456, -0.005398260895162821, 0.0021191562991589308, 0.0026729644741863012, 0.003038589609786868, -0.0037927026860415936, 0.005917625967413187, -0.004327425733208656, 0.006488416343927383, 0.0033126091584563255, 0.003836735151708126, -0.0034415246918797493, 0.010688294656574726, -0.0028720747213810682, 0.0043984525837004185, -0.0061357282102108, 0.0033363925758749247, 0.006623933091759682, 0.002877109684050083, -0.00276764458976686, 0.0043382649309933186, -0.0025326120667159557], [0.003385441144928336, -0.003819356905296445, 0.003702011425048113, 0.0038985195569694042, 0.005114499945193529, -0.010468287393450737, 0.005181455984711647, 0.004038861021399498, 0.0037367679178714752, 0.004284752998501062, 0.00311871781013906, 0.00930056069046259, -0.008589929901063442, -0.00532060582190752, 0.008387786336243153, 0.003728265408426523, -0.003684460651129484, -0.008775170892477036, -0.009148523211479187, -0.0032293531112372875, 0.007081401534378529, 0.0045917704701423645, 0.003957774955779314, 0.00487704761326313, -0.0030622927006334066, -0.0035360390320420265, -0.00893412996083498, -0.003551483852788806, 0.0034561108332127333, -0.0050867958925664425, 0.002680846257135272, -0.00982057023793459, 0.005739386193454266, 0.003508713562041521, -0.003603764344006777, -0.006927273701876402, 0.0031723997090011835, 0.005230644252151251, -0.004413469694554806, -0.004077421501278877, -0.00445292005315423, -0.009890212677419186, 0.00792960450053215, -0.005255915690213442, 0.0032960630487650633, 0.0046844747848808765, 0.0037747251335531473, -0.006595953833311796, 0.006690915208309889, 0.008892892859876156, -0.009149775840342045, -0.0033408477902412415, -0.0013671715278178453, -0.007366979029029608, 0.0034373169764876366, -0.00871780700981617, -0.006804443895816803, -0.0034666070714592934, 0.00835095439106226, -0.0050664022564888, 0.0026204909663647413, 0.004113688599318266, 0.005974326748400927, -0.00895961094647646, 0.003047343110665679, -0.0038020992651581764, -0.003975854720920324, -0.006560218054801226, 0.0039670346304774284, -0.005829682108014822, 0.007720932364463806, 0.004309192765504122, 0.005939365830272436, 0.0032213139347732067, -0.006222668569535017, -0.0029293152038007975, 0.004051765892654657, -0.008639457635581493, 0.004117647185921669, 0.005343085154891014, 0.010581315495073795, -0.004435067996382713, 0.0067700911313295364, -0.003718041116371751, 0.00917569175362587, -0.007577097974717617, 0.003261156380176544, 0.008141715079545975, 0.006333384662866592, 0.004049863666296005, 0.005854509770870209, -0.009754663333296776, 0.004520014859735966, -0.002712793415412307, 0.008523143827915192, 0.004385952837765217, 0.006497869733721018, 0.005593355279415846, 0.004671992734074593, 0.002740702126175165, -0.004103323444724083, -0.008518842048943043, 0.00535479374229908, 0.0030627415981143713, 0.006960365455597639, 0.004861380904912949, 0.007095653098076582, -0.007697818800806999, 0.0036153041291981936, 0.006731157656759024, 0.004405249375849962, -0.003926493693143129, 0.0035483185201883316, -0.0036222820635885, 0.0068479436449706554, 0.009846154600381851, 0.0052070897072553635, -0.004277849104255438, 0.006817728281021118, -0.006911151111125946, 0.005789036396890879, -0.007822050713002682, 0.006547462195158005, 0.008575612679123878, 0.004341591149568558, -0.005999063607305288, 0.004924445413053036, -0.004636754281818867], [0.011969131417572498, -0.01262564305216074, 0.01397597324103117, 0.007793783210217953, 0.015323683619499207, -0.007496221456676722, 0.01383280660957098, 0.012978468090295792, 0.009903362020850182, 0.006366271525621414, 0.015496575273573399, 0.004108446650207043, -0.010805492289364338, -0.014237327501177788, 0.004306805785745382, 0.011533728800714016, -0.011730683036148548, -0.014447206631302834, -0.012911558151245117, -0.004062472842633724, 0.011907369829714298, 0.01045383233577013, 0.005228871945291758, 0.009389354847371578, -0.004493799526244402, -0.004395065829157829, -0.011494479142129421, -0.015978870913386345, 0.01658816449344158, -0.014755980111658573, 0.00828476995229721, -0.0049399337731301785, 0.012140464968979359, 0.012712731957435608, -0.003961598034948111, -0.009988395497202873, 0.013715391047298908, 0.012761191464960575, -0.008327658288180828, -0.004934367258101702, -0.017991049215197563, -0.013576753437519073, 0.004469935316592455, -0.011269408278167248, 0.017400287091732025, 0.014927849173545837, 0.012253881432116032, -0.013192911632359028, 0.004756031092256308, 0.005747859366238117, -0.0046195900067687035, -0.014808264560997486, -0.009222502820193768, -0.011696415022015572, 0.015851791948080063, -0.013524124398827553, -0.009841619990766048, -0.014131108298897743, 0.010251859202980995, -0.013206735253334045, 0.005699603818356991, 0.010311068966984749, 0.01653418503701687, -0.007006182335317135, 0.013363981619477272, -0.012190232053399086, -0.013977051712572575, -0.014861712232232094, 0.010871660895645618, -0.01083819568157196, 0.013292325660586357, 0.014033278450369835, 0.014191544614732265, 0.013477975502610207, -0.004281990695744753, -0.011321746744215488, 0.014938540756702423, -0.012565881945192814, 0.004310402553528547, 0.011384287849068642, 0.016244255006313324, -0.014999332837760448, 0.01437714695930481, -0.012864602729678154, 0.005955057218670845, -0.004526267293840647, 0.0039812130853533745, 0.013571198098361492, 0.012751610018312931, 0.01244918629527092, 0.012466908432543278, -0.0159161277115345, 0.01797117479145527, -0.012973511591553688, 0.013341398909687996, 0.008775393478572369, 0.005873241927474737, 0.00530007341876626, 0.014746046625077724, 0.004308165516704321, -0.012896846048533916, -0.004411714151501656, 0.014925680123269558, 0.010095719248056412, 0.0053171725012362, 0.003926421515643597, 0.01253296434879303, -0.010474918410182, 0.015625951811671257, 0.009992057457566261, 0.015509366057813168, -0.010765288025140762, 0.01190352626144886, -0.014879456721246243, 0.012152031064033508, 0.01325966976583004, 0.012319552712142467, -0.003887598169967532, 0.015697428956627846, -0.010663917288184166, 0.004719747696071863, -0.01211932860314846, 0.014572861604392529, 0.012619463726878166, 0.011569296009838581, -0.01300293393433094, 0.010678218677639961, -0.014456089586019516], [0.0052384426817297935, -0.003691490041092038, 0.009575208649039268, 0.012942032888531685, 0.006170416716486216, -0.004274492617696524, 0.01181057095527649, 0.00918139610439539, 0.013331517577171326, 0.004972012713551521, 0.008317256346344948, 0.016222747042775154, -0.01018946710973978, -0.016801930963993073, 0.008939605206251144, 0.011041592806577682, -0.00951478537172079, -0.016950571909546852, -0.015235175378620625, -0.016244174912571907, 0.011937486939132214, 0.0034441733732819557, 0.0079836156219244, 0.012021878734230995, -0.0038038580678403378, -0.016179338097572327, -0.008376316167414188, -0.013264133594930172, 0.014142049476504326, -0.004166026599705219, 0.010208796709775925, -0.01630476675927639, 0.003742043860256672, 0.003981053363531828, -0.009344961494207382, -0.008026043884456158, 0.008440062403678894, 0.012487913481891155, -0.014505786821246147, -0.007260380778461695, -0.01602080650627613, -0.015210769139230251, 0.003788407426327467, -0.008048254065215588, 0.004844136070460081, 0.015771785750985146, 0.004441592842340469, -0.013051819987595081, 0.013328731060028076, 0.004285488277673721, -0.014536856673657894, -0.003911148756742477, -0.01011462602764368, -0.007956704124808311, 0.004413219168782234, -0.0051604206673800945, -0.004566876217722893, -0.01410354021936655, 0.009818777441978455, -0.013783345930278301, 0.0037539128679782152, 0.013306580483913422, 0.004721401259303093, -0.014313903637230396, 0.012731373310089111, -0.013632470741868019, -0.008033345453441143, -0.015579869970679283, 0.011474969796836376, -0.009777386672794819, 0.013276208192110062, 0.010366452857851982, 0.003875242779031396, 0.01096973568201065, -0.010688102804124355, -0.00927803199738264, 0.005292144138365984, -0.004809594247490168, 0.00850740633904934, 0.008198253810405731, 0.004030237905681133, -0.003951518330723047, 0.004095050040632486, -0.004748099017888308, 0.004844994284212589, -0.012151543982326984, 0.010726185515522957, 0.013042408972978592, 0.01398808229714632, 0.01121460646390915, 0.011532447300851345, -0.007440656889230013, 0.002629233058542013, -0.004841120447963476, 0.01241329312324524, 0.009510049596428871, 0.004707873798906803, 0.008192435838282108, 0.010401759296655655, 0.010291820392012596, -0.011590279638767242, -0.013916729018092155, 0.01375966239720583, 0.00850676465779543, 0.004104317631572485, 0.0034494316205382347, 0.00429401034489274, -0.01051854807883501, 0.015961911529302597, 0.003639949019998312, 0.011932497844099998, -0.003913453780114651, 0.01517721451818943, -0.014298701658844948, 0.0038331185933202505, 0.010734880343079567, 0.004036884289234877, -0.008991478011012077, 0.012602737173438072, -0.004497422371059656, 0.004317892249673605, -0.011058920063078403, 0.014356289990246296, 0.005949976854026318, 0.012664694339036942, -0.013339020311832428, 0.010320792905986309, -0.011707084253430367], [-0.004709593486040831, 0.0059457803145051, -0.004821121692657471, -0.00615160446614027, -0.01600409485399723, 0.004575047641992569, -0.0038672322407364845, -0.018901582807302475, -0.004661804996430874, -0.013366596773266792, -0.013434763997793198, -0.003478127997368574, 0.004938127472996712, 0.004765333142131567, -0.005182167515158653, -0.007615258917212486, 0.015799103304743767, 0.02194906771183014, 0.02085360512137413, 0.020689871162176132, -0.014786300249397755, -0.017397617921233177, -0.019080480560660362, -0.016970818862318993, 0.016225336119532585, 0.004272019490599632, 0.004763282835483551, 0.01925945281982422, -0.02003460004925728, 0.015689076855778694, -0.007648605387657881, 0.01793401874601841, -0.013590310700237751, -0.004671839997172356, 0.015453987754881382, 0.019210752099752426, -0.014507652260363102, -0.017365513369441032, 0.016970166936516762, 0.00474729435518384, 0.004626527428627014, 0.00331590767018497, -0.020919281989336014, 0.01499729324132204, -0.00497019337490201, -0.00830124132335186, -0.021162888035178185, 0.020032808184623718, -0.018584119156003, -0.004603967536240816, 0.0047762636095285416, 0.01804223842918873, 0.003679280634969473, 0.015758896246552467, -0.004651873372495174, 0.015689507126808167, 0.010864376090466976, 0.018462946638464928, -0.01790853589773178, 0.0038477624766528606, -0.01523810438811779, -0.00575209828093648, -0.005166703835129738, 0.020782075822353363, -0.004983939230442047, 0.01683066412806511, 0.005254925228655338, 0.022415125742554665, -0.01558183878660202, 0.013061130419373512, -0.01592501997947693, -0.004923858679831028, -0.022242030128836632, -0.004351202864199877, 0.01777421124279499, 0.015729336068034172, -0.0047825975343585014, 0.018552063032984734, -0.013982001692056656, -0.010951831005513668, -0.004688238725066185, 0.020799020305275917, -0.01794256642460823, 0.016021205112338066, -0.01522311381995678, 0.01701846718788147, -0.015528449788689613, -0.018793506547808647, -0.007046200335025787, -0.01786915399134159, -0.012597586028277874, 0.019718920812010765, -0.013271846808493137, 0.002694863360375166, -0.024571742862462997, -0.015180191956460476, -0.02094132825732231, -0.006894582416862249, -0.0178547203540802, -0.01511391345411539, 0.015683239325881004, 0.018800390884280205, -0.02220747247338295, -0.006485024467110634, -0.0043950253166258335, -0.020624764263629913, -0.01230654027312994, 0.0055119795724749565, -0.024314088746905327, -0.01429837942123413, -0.017977986484766006, 0.01585729792714119, -0.00456928089261055, 0.0044766757637262344, -0.004379205871373415, -0.01800435036420822, -0.0193013958632946, 0.017308009788393974, -0.0057914466597139835, 0.01697685942053795, -0.021916262805461884, 0.014621430076658726, -0.027315350249409676, -0.0009484306792728603, -0.003386887488886714, 0.0035586676094681025, -0.004979309160262346, 0.02228214405477047], [-0.00866840872913599, 0.008915737271308899, -0.0071927569806575775, -0.00803895853459835, -0.007224589120596647, 0.005262058228254318, -0.008800162002444267, -0.0057293204590678215, -0.004621520172804594, -0.0029366081580519676, -0.005885920953005552, -0.01160980574786663, 0.007057962007820606, 0.010940531268715858, -0.006849948782473803, -0.0035433147568255663, 0.009085905738174915, 0.0087282108142972, 0.0036794033367186785, 0.006481179501861334, -0.006689250469207764, -0.004640389699488878, -0.008320634253323078, -0.006665629334747791, 0.005462113302201033, 0.006668279878795147, 0.004245627671480179, 0.003640024457126856, -0.00550438929349184, 0.008302483707666397, -0.004071568138897419, 0.010923181660473347, -0.01054673083126545, -0.006198246031999588, 0.003515006275847554, 0.007079518865793943, -0.003943188581615686, -0.0037329636979848146, 0.00599899934604764, 0.0032677161507308483, 0.010812276042997837, 0.0032927184365689754, -0.00945668388158083, 0.005878409370779991, -0.00392746040597558, -0.004241695161908865, -0.008749740198254585, 0.00833484809845686, -0.006563318427652121, -0.00423529464751482, 0.004038387443870306, 0.00369414035230875, 0.0022820790763944387, 0.005873991176486015, -0.004082731902599335, 0.004493256099522114, 0.0025653010234236717, 0.009268702939152718, -0.007620771881192923, 0.0030563571490347385, -0.003929457161575556, -0.0033714319579303265, -0.009854678995907307, 0.00577489472925663, -0.004009547643363476, 0.0069631049409508705, 0.005666040349751711, 0.009904885664582253, -0.007730142213404179, 0.0039618914015591145, -0.006361147854477167, -0.007427542004734278, -0.006576495710760355, -0.003908839076757431, 0.007739223074167967, 0.0067994301207363605, -0.0037335448432713747, 0.00991467759013176, -0.00323730637319386, -0.0067415786907076836, -0.007731406018137932, 0.009096449241042137, -0.003343375865370035, 0.009199370630085468, -0.011785020120441914, 0.009074656292796135, -0.005308053456246853, -0.008569161407649517, -0.010139315389096737, -0.003216404002159834, -0.003769467119127512, 0.009773490019142628, -0.004798757843673229, 0.0036685371305793524, -0.00913249421864748, -0.005086197983473539, -0.009507774375379086, -0.007281298283487558, -0.010256705805659294, -0.003728303126990795, 0.0061482773162424564, 0.007644713390618563, -0.008881024084985256, -0.006508863065391779, -0.005849666427820921, -0.0035695647820830345, -0.0045144506730139256, 0.007673327811062336, -0.007715684827417135, -0.003133208490908146, -0.006171267945319414, 0.0077885170467197895, -0.003926907200366259, 0.007708453573286533, -0.00744981924071908, -0.0037479184102267027, -0.008674385026097298, 0.004580969922244549, -0.008604421280324459, 0.00422287592664361, -0.006177956238389015, 0.0035849486012011766, -0.005971258040517569, -0.003795691067352891, -0.003506041830405593, 0.008517758920788765, -0.003109085839241743, 0.010542919859290123], [0.005540378391742706, -0.005546790547668934, 0.004975674673914909, 0.0052039651200175285, 0.0023752411361783743, -0.008183274418115616, 0.004248315468430519, 0.0021966532804071903, 0.001970314886420965, 0.002664766740053892, 0.0011631755623966455, 0.005288864020258188, -0.004561135079711676, -0.0075486889109015465, 0.0031266817823052406, 0.0007626233855262399, -0.004556296393275261, -0.007749335374683142, -0.0060896920040249825, -0.009386331774294376, 0.0033836946822702885, 0.0029895645566284657, 0.0069917370565235615, 0.00587851507589221, -0.002549485070630908, -0.0026178478728979826, -0.004704571329057217, -0.005089792888611555, 0.0037041204050183296, -0.0025753749068826437, 0.0037394172977656126, -0.004257448483258486, 0.006751700304448605, 0.0015167787205427885, -0.003334772540256381, -0.0036485318560153246, 0.0034620228689163923, 0.0030232102144509554, -0.004265447147190571, -0.00294120772741735, -0.0032032099552452564, -0.009609933942556381, 0.003974076360464096, -0.002767465077340603, 0.003472154261544347, 0.0033911322243511677, 0.0033300076611340046, -0.0021644949447363615, 0.00419917656108737, 0.003312353976070881, -0.0031589590944349766, -0.001537421834655106, -0.002018194179981947, -0.002268817275762558, 0.0036228979006409645, -0.003873446024954319, -0.0034191042650491, -0.006083334796130657, 0.0052507780492305756, -0.003152131801471114, 0.003086747834458947, 0.00887252576649189, 0.0015881048748269677, -0.00592533266171813, 0.005750819109380245, -0.006700077559798956, -0.00427561579272151, -0.005514219403266907, 0.0027054166421294212, -0.004214487969875336, 0.008409555070102215, 0.0073250108398497105, 0.007120304275304079, 0.004883119370788336, -0.0058062016032636166, -0.0025241172406822443, 0.003807930275797844, -0.0057341489009559155, 0.001664770650677383, 0.0033088424243032932, 0.0060926154255867004, -0.002418561838567257, 0.0026722243055701256, -0.0037653695326298475, 0.003285470884293318, -0.0049013555981218815, 0.005830484442412853, 0.00486562168225646, 0.0069895400665700436, 0.005343298427760601, 0.0032652111258357763, -0.006795233581215143, 0.0005010687164030969, -0.004211357329040766, 0.004042373970150948, 0.006097819656133652, 0.007222083862870932, 0.005525154061615467, 0.005007157102227211, 0.0036252255085855722, -0.003905076999217272, -0.0032199928537011147, 0.0005868583102710545, 0.004426934290677309, 0.003145134076476097, 0.008460049517452717, 0.0016865185461938381, -0.004558062646538019, 0.0020841273944824934, 0.0031424444168806076, 0.005327609833329916, -0.00324654090218246, 0.0029982856940478086, -0.008914372883737087, 0.0074954829178750515, 0.009396705776453018, 0.007123633753508329, -0.0030789643060415983, 0.007227025926113129, -0.005093070212751627, 0.0014615271938964725, -0.0029390091076493263, 0.005373156629502773, 0.0035039717331528664, 0.004972152411937714, -0.00371691957116127, 0.002419946948066354, -0.004623421933501959], [0.003258895128965378, -0.010333355516195297, 0.008615948259830475, 0.004651286639273167, 0.002926708897575736, -0.008861499838531017, 0.0036336418706923723, 0.00834424328058958, 0.006334199570119381, 0.003977712709456682, 0.006996552459895611, 0.003090361598879099, -0.005493590142577887, -0.01009464357048273, 0.003920148592442274, 0.003399658715352416, -0.0037972861900925636, -0.009016955271363258, -0.008007697761058807, -0.009590492583811283, 0.00727706216275692, 0.008037739433348179, 0.010046049021184444, 0.004140330478549004, -0.008447583764791489, -0.0070161279290914536, -0.003717943327501416, -0.0031612918246537447, 0.006092336028814316, -0.006536182016134262, 0.00431910902261734, -0.009166189469397068, 0.0037916540168225765, 0.003322772914543748, -0.003303700126707554, -0.006975983735173941, 0.006694014184176922, 0.008505115285515785, -0.004594095051288605, -0.006624716334044933, -0.0059133656322956085, -0.011134709231555462, 0.005239349789917469, -0.0038229196798056364, 0.0010374989360570908, 0.008869018405675888, 0.006258768029510975, -0.004384587053209543, 0.006629639305174351, 0.009088968858122826, -0.006398206111043692, -0.004337325692176819, -0.0037923140916973352, -0.005833024624735117, 0.0026975010987371206, -0.006089762784540653, -0.004699416924268007, -0.00956252682954073, 0.0034495708532631397, -0.008853545412421227, 0.0023861636873334646, 0.0015653485897928476, 0.004317084793001413, -0.003406067378818989, 0.0063768913969397545, -0.0058691250160336494, -0.005990416742861271, -0.0036189937964081764, 0.004769779741764069, -0.00415125722065568, 0.007679698523133993, 0.0037166245747357607, 0.008819064125418663, 0.007245711982250214, -0.006493813823908567, -0.0037583080120384693, 0.006183545105159283, -0.0034703551791608334, 0.0035410767886787653, 0.004728274419903755, 0.003357253037393093, -0.005817962810397148, 0.002752976957708597, -0.00626627029851079, 0.005193968769162893, -0.004031285177916288, 0.0038795871660113335, 0.004733498673886061, 0.007629035972058773, 0.010929089039564133, 0.003047783626243472, -0.003990058321505785, 0.0025380533188581467, -0.0031254226341843605, 0.003944637253880501, 0.007498251739889383, 0.0036755690816789865, 0.0040555549785494804, 0.0034648217260837555, 0.0035478752106428146, -0.005401244852691889, -0.00681786984205246, 0.0024190654512494802, 0.005742659326642752, 0.0034509124234318733, 0.007510716561228037, 0.006428148131817579, -0.007658723276108503, 0.0037979083135724068, 0.006597247906029224, 0.0028029114473611116, -0.0033807801082730293, 0.009358331561088562, -0.00888293981552124, 0.004476165398955345, 0.00818315427750349, 0.009711974300444126, -0.006913386285305023, 0.010567250661551952, -0.0038625856395810843, 0.0033796203788369894, -0.00361975678242743, 0.008040063083171844, 0.0062682051211595535, 0.003129424061626196, -0.006998783443123102, 0.004425999242812395, -0.006897699553519487], [0.020060624927282333, -0.006849220022559166, 0.006450725253671408, 0.01344799529761076, 0.01729024387896061, -0.005681359209120274, 0.01930082216858864, 0.021308600902557373, 0.004782297182828188, 0.01386201661080122, 0.018361512571573257, 0.003616741392761469, -0.004728425294160843, -0.022602740675210953, 0.00515090161934495, 0.004824655130505562, -0.014662002213299274, -0.003803789149969816, -0.018332330510020256, -0.00859181396663189, 0.0056065828539431095, 0.0038759915623813868, 0.004515286535024643, 0.01685251295566559, -0.02158355340361595, -0.027180051431059837, -0.01827405020594597, -0.023997481912374496, 0.005147214978933334, -0.014391635544598103, 0.015815582126379013, -0.027526481077075005, 0.01714286208152771, 0.024282848462462425, -0.01278394740074873, -0.004330470226705074, 0.01766306720674038, 0.016620296984910965, -0.012885039672255516, -0.009100412018597126, -0.027693286538124084, -0.020090531557798386, 0.025086335837841034, -0.014171772636473179, 0.005495603196322918, 0.012909585610032082, 0.024353694170713425, -0.026542529463768005, 0.018656780943274498, 0.0049975113943219185, -0.004520162008702755, -0.020578444004058838, -0.0065772938542068005, -0.0058207642287015915, 0.0048347096890211105, -0.004267712589353323, -0.006957666482776403, -0.021237384527921677, 0.004240147303789854, -0.01585312932729721, 0.018582848832011223, 0.0158027745783329, 0.02674364484846592, -0.012462410144507885, 0.005063103977590799, -0.017908280715346336, -0.008243207819759846, -0.023995187133550644, 0.015992121770977974, -0.013847063295543194, 0.01868598349392414, 0.004849412944167852, 0.004094384144991636, 0.01623307168483734, -0.016739247366786003, -0.018553515896201134, 0.02323228493332863, -0.0046028513461351395, 0.014583277516067028, 0.010750501416623592, 0.005194923374801874, -0.029582323506474495, 0.018453918397426605, -0.013860899023711681, 0.016450438648462296, -0.017065605148673058, 0.01920473389327526, 0.004358937498182058, 0.00780888507142663, 0.016004957258701324, 0.025797871872782707, -0.021358568221330643, 0.022087786346673965, -0.017855893820524216, 0.021713143214583397, 0.013211098499596119, 0.023357078433036804, 0.0048266826197505, 0.01930953375995159, 0.0072016241028904915, -0.0038189010228961706, -0.009494433179497719, 0.028804413974285126, 0.01809784024953842, 0.021868553012609482, 0.02932063676416874, 0.005292332265526056, -0.016161033883690834, 0.029573215171694756, 0.00434043537825346, 0.012590130791068077, -0.014556464739143848, 0.0052379886619746685, -0.021308867260813713, 0.004705557134002447, 0.0045951735228300095, 0.0201751496642828, -0.01811201684176922, 0.027642332017421722, -0.02133016847074032, 0.022176070138812065, -0.015980873256921768, 0.004535553511232138, 0.012354000471532345, 0.005109306424856186, -0.018145838752388954, 0.004931235685944557, -0.02929195575416088], [-0.00958484411239624, 0.011147480458021164, -0.007256768643856049, -0.004394258372485638, -0.004059387370944023, 0.011321068741381168, -0.00877391081303358, -0.012057813815772533, -0.003958374261856079, -0.011165989562869072, -0.008020556531846523, -0.011863772757351398, 0.011638029478490353, 0.003367968602105975, -0.009549912996590137, -0.004475132562220097, 0.009027855470776558, 0.012301010079681873, 0.012114216573536396, 0.012928555719554424, -0.004363046493381262, -0.0034691940527409315, -0.009662508033216, -0.004099708050489426, 0.007943930104374886, 0.012594712898135185, 0.010669858194887638, 0.007333328947424889, -0.009928302839398384, 0.005152418278157711, -0.005228327587246895, 0.010275733657181263, -0.00569232227280736, -0.004012987017631531, 0.010011903941631317, 0.007519731763750315, -0.00343007268384099, -0.009215856902301311, 0.007795269135385752, 0.00411449559032917, 0.013745088130235672, 0.011748977936804295, -0.010031528770923615, 0.004993119742721319, -0.004327795468270779, -0.011280383914709091, -0.004075455013662577, 0.003992708399891853, -0.011746539734303951, -0.008989760652184486, 0.012351368553936481, 0.004108557477593422, 0.0069974204525351524, 0.005924536380916834, -0.00623747892677784, 0.0038855094462633133, 0.008687810972332954, 0.010245169512927532, -0.011012573726475239, 0.012188965454697609, -0.008110265247523785, -0.009876704774796963, -0.013894039206206799, 0.0115893529728055, -0.006337421480566263, 0.0037134187296032906, 0.01162740122526884, 0.010187264531850815, -0.00834307074546814, 0.00849912315607071, -0.010427460074424744, -0.007002822123467922, -0.003277854062616825, -0.011712618172168732, 0.011332766152918339, 0.011019233614206314, -0.008257499895989895, 0.0038928519934415817, -0.0059973569586873055, -0.003901233896613121, -0.012738513760268688, 0.013785266317427158, -0.007028945721685886, 0.007190770003944635, -0.011611197143793106, 0.004230408929288387, -0.010250266641378403, -0.003922527190297842, -0.011725143529474735, -0.010897188447415829, -0.009737065061926842, 0.012917805463075638, -0.011863439343869686, 0.008940202184021473, -0.009404810145497322, -0.005856402684003115, -0.012211713008582592, -0.007025009021162987, -0.0036686579696834087, -0.010246272198855877, 0.01179733406752348, 0.011128010228276253, -0.012513347901403904, -0.007815267890691757, -0.00404577050358057, -0.012090828269720078, -0.011062225326895714, 0.004123827442526817, -0.010668960399925709, -0.009583141654729843, -0.0077898623421788216, 0.008938528597354889, -0.006801656913012266, 0.008707419037818909, -0.00725386431440711, -0.010556070134043694, -0.010487405583262444, 0.003622589632868767, -0.0151459826156497, 0.008367430418729782, -0.004757910966873169, 0.011574078351259232, -0.004629842005670071, -0.004238852299749851, -0.00757079990580678, 0.007417856249958277, -0.004192736465483904, 0.004864188376814127]], "sigmanet.nn.6.bias": [0.05439487099647522, 0.0025665536522865295, 0.01863432489335537, 0.007429707329720259, -0.014749876223504543, -0.01611257717013359, 0.009523521177470684, -0.01996932551264763, 0.02500491961836815, -0.015585044398903847, 0.015567447058856487, 0.024930253624916077, -0.026034852489829063, -0.014576499350368977, -0.0340811163187027, 0.03731382265686989, -0.025035938248038292, -0.0012648928677663207, -0.06030213087797165, -0.02522829920053482, -0.034572068601846695, -0.05387286841869354, 0.041884515434503555, 0.04158566892147064, -0.06939627975225449, 0.06289806962013245, 0.017027955502271652, 0.009198563173413277, 0.014671471901237965, 0.020298859104514122, -0.1233815997838974, -0.012795471586287022, 0.0016847379738464952, -0.011777726002037525, -0.021287236362695694, 0.043994124978780746, -0.06920117139816284, 0.04872286319732666, 0.018890801817178726, -0.02945638820528984, 0.054403405636548996, 0.03130283206701279, 0.010798259638249874, 0.029622308909893036, 0.028161216527223587, -0.011428521946072578, -0.020536543801426888, 0.036781616508960724, 0.062386155128479004, 0.13220851123332977, 0.06063612923026085, 0.015417709946632385, -0.05959811806678772, 0.08880526572465897, -0.04729362577199936, 0.006323280278593302, -0.0466814748942852, 0.02811894193291664, 0.06011020019650459, 0.08175573498010635, 0.022278662770986557, 0.0344042144715786, -0.03160758689045906, -0.03612259402871132, 0.04508625343441963, 0.034913741052150726, 0.017115091904997826, -0.04920542985200882, -0.06046516075730324, -0.06280840933322906, -0.014349952340126038, -0.01889994740486145, -0.004941844847053289, 0.023073256015777588, -0.027095559984445572, 0.08364792168140411, 0.04396745562553406, 0.018362609669566154, -0.02637181431055069, 0.029149260371923447, 0.03120957687497139, -0.18038533627986908, 0.02937200292944908, 0.031024888157844543, 0.0006718271179124713, 0.030819538980722427, -0.010419290512800217, -0.01205665897578001, 0.07738853245973587, 0.03052884340286255, 0.0229979008436203, -0.037804413586854935, -0.03556462749838829, -0.014986741356551647, 0.03928619250655174, -0.008577904663980007, 0.009434799663722515, 0.006637027487158775, -0.11382028460502625, -0.04528104141354561, 0.015920229256153107, -0.005013716872781515, 0.09280342608690262, -0.03743426874279976, 0.0951390489935875, 0.0707189217209816, 0.03318650647997856, 0.009834915399551392, -0.024435395374894142, 0.08726873248815536, -0.06570346653461456, 0.04770086705684662, 0.057604096829891205, -0.01546986773610115, 0.0351780541241169, -0.09258837252855301, -0.025046270340681076, 0.04774899780750275, -0.010932372882962227, -0.023485230281949043, 0.028888771310448647, -0.0316106416285038, 0.027667982503771782, -0.06230704486370087, -0.01302230916917324, 0.08327147364616394, -0.027919700369238853, -0.04341167211532593], "sigmanet.nn.6.parametrizations.weight.original": [[-0.0028284441214054823, 0.004810321144759655, -0.007642969023436308, 0.005066719371825457, -0.011931476183235645, 0.0005712785059586167, 0.0005713793798349798, 0.005855632480233908, 0.0014866543933749199, 0.0011672800173982978, 0.00840358529239893, 0.002213979372754693, -0.0037987681571394205, -0.0032073508482426405, -0.0028520592022687197, -0.01515437476336956, 0.0049143023788928986, 0.00712951784953475, 0.0026682696770876646, 0.0008256257860921323, -0.0030857473611831665, -0.007434777449816465, -0.00686850817874074, 0.0030431197956204414, -0.0024828133173286915, 0.004554357845336199, -0.0011869482696056366, -0.001889519626274705, -0.0022329804487526417, 0.00394571153447032, -0.0024541912134736776, 0.0012141590705141425, -0.010001853108406067, 0.001495738630183041, 0.003320275340229273, 0.0020408518612384796, -0.008554152213037014, 0.00807594507932663, -0.0051810587756335735, -0.006553843151777983, -0.0030007027089595795, 0.0028375021647661924, -0.007241995073854923, 0.0010241296840831637, -0.003978716675192118, 0.00605081208050251, -0.0034970820415765047, -0.0006675571785308421, 0.0026424680836498737, 0.004889590200036764, -0.004897879436612129, 0.0031833373941481113, -0.0051741525530815125, 0.008440679870545864, -0.0003748690360225737, -0.006185809150338173, -0.002563453046604991, 0.006086892914026976, -0.004854600876569748, -0.0021987957879900932, -0.007840766571462154, -0.0009675072506070137, -0.0033208823297172785, -0.0021652732975780964, -0.002521247137337923, 0.005508950911462307, 0.004712176043540239, 0.0043756188824772835, -0.006108159199357033, 0.0008811507141217589, -0.0025217956863343716, 0.004766284022480249, -0.0028288555331528187, 0.0032678572461009026, -0.011926311068236828, -0.007664533797651529, -0.0036700651980936527, 0.0033966717310249805, 0.0020995649974793196, 0.0009364522993564606, -0.0005058690439909697, -0.0038384252693504095, -0.001790693961083889, -0.0018259072676301003, -0.0007240975392051041, -0.0030150616075843573, -0.00016463396605104208, 0.010602830909192562, -0.0007719583809375763, 0.0028491797856986523, 0.003690116573125124, 0.005099608562886715, -0.0026643068995326757, 0.0026969867758452892, -0.007752207573503256, -0.007654943969100714, 0.002536752261221409, 0.006086250301450491, -0.0010649730684235692, 0.007175906095653772, -0.0026116259396076202, -0.0039735580794513226, -0.002986419014632702, -0.004360069986432791, 0.01299844030290842, 0.0028190286830067635, 0.013788939453661442, 0.0008767814724706113, -0.0063839806243777275, 0.001209791167639196, -0.0025883077178150415, -0.0040395003743469715, -0.013696537353098392, 0.0021019799169152975, -0.0007913476438261569, 0.003013340290635824, -0.0006765714497305453, 0.0020477687940001488, -0.0011918904492631555, -0.0074424948543310165, -0.0021160601172596216, -0.000549961521755904, 0.0076578157022595406, 0.0022961043287068605, -0.005304372403770685, -0.003973100800067186, -0.002822230104357004, 0.012192138470709324], [-0.004510830156505108, 0.003529638983309269, -0.012391661293804646, 0.006826926488429308, -0.0030899273697286844, 0.013836167752742767, 0.0021860573906451464, 0.003199000610038638, 0.0036684724036604166, 0.00017388907144777477, 0.01070133876055479, 0.00744611443951726, -0.007293698377907276, -0.0035332543775439262, -0.002824535360559821, -0.000987186678685248, 0.002624648855999112, 0.0059752329252660275, 0.003666115226224065, 0.002147110877558589, -0.007437029853463173, -0.0031186258420348167, -0.004247124772518873, 0.0030944268219172955, -0.0068158297799527645, 0.006003143731504679, -0.003786453977227211, -0.005958411376923323, -0.005317729897797108, 0.006695999298244715, -0.004162598866969347, 0.002776501001790166, -0.0029844222590327263, 0.002756511326879263, 0.005322321783751249, 0.0034453340340405703, -0.0014745161170139909, 0.003273545065894723, -0.006705117877572775, -0.010052098892629147, -0.00028652953915297985, 0.0036769083235412836, -0.00645884545519948, 0.006030612625181675, -0.005340387113392353, 0.003816792042925954, -0.0059472559951245785, -0.004501080606132746, 0.003236524062231183, 0.007972141727805138, -0.005881476681679487, 0.0029290448874235153, -0.0074201528914272785, 0.0009993626736104488, -0.003249211935326457, -0.002114803297445178, -0.003166378475725651, 0.003594632027670741, -0.0035093508195132017, -0.001825063838623464, -0.004561395850032568, -0.004682215861976147, -0.003069972386583686, -0.005841363221406937, -0.00855487771332264, 0.004202778916805983, 0.0029715043492615223, 0.004965693224221468, -0.013911671936511993, 0.0028549740090966225, -0.005089688580483198, 0.0058314683847129345, -0.004165901802480221, 0.003945427946746349, -0.00035965556162409484, -0.004053963348269463, -0.0023540372494608164, 0.0013449754333123565, 0.005981680937111378, 0.006962605752050877, -0.0032195188105106354, -0.00038504015537910163, -0.003383817384019494, -0.004510021768510342, -0.00054790242575109, -0.003418387146666646, -0.00039028353057801723, 0.011897997930645943, -0.005240578204393387, 0.004766717553138733, 0.0026913646142929792, 0.0036047231405973434, -0.0035208987537771463, 0.0026033297181129456, -0.0045445021241903305, -0.0033674361184239388, 0.005359760485589504, 0.009244689717888832, -0.004918725695461035, 0.008148862048983574, -0.0028165148105472326, -0.003844357328489423, -0.005455632694065571, -0.0051835100166499615, 0.003143199486657977, 0.003051887731999159, 0.003076561726629734, 0.003957716748118401, -0.003061222843825817, 0.01312271412461996, -0.005864622071385384, -0.008194643072783947, -0.0018731777090579271, 0.003812917275354266, -0.0038639705162495375, 0.003028809791430831, -0.0029847153928130865, 0.0026571520138531923, -0.00275049707852304, -0.005787927191704512, -0.004589310381561518, -0.0036647075321525335, 0.004026978276669979, 0.005343850702047348, -0.003414323553442955, -0.005866494495421648, -0.012266557663679123, 0.0040456317365169525], [-0.013414639048278332, 0.011831136420369148, -0.0023089007008820772, 0.013604466803371906, -0.00356713542714715, 0.008713365532457829, 0.010841285809874535, 0.012362039647996426, 0.011635259725153446, 0.0039587123319506645, 0.010618750005960464, 0.014038712717592716, -0.010985604487359524, -0.013556880876421928, -0.003899548202753067, -0.0026447500567883253, 0.010984896682202816, 0.013313567265868187, 0.01073465310037136, 0.006820430513471365, -0.014162890613079071, -0.006189408246427774, -0.003912804648280144, 0.013299408368766308, -0.011324460618197918, 0.01137885358184576, -0.013191815465688705, -0.012747225351631641, -0.012386331334710121, 0.014965435490012169, -0.0010399303864687681, 0.003764103166759014, -0.004016658756881952, 0.0167158842086792, 0.004324961453676224, 0.004064610227942467, -0.010144318453967571, 0.011005274020135403, -0.009351053275167942, -0.012338466010987759, -0.007570949383080006, 0.0052715931087732315, -0.0038037279155105352, 0.01099218986928463, -0.00933667179197073, 0.0098935067653656, -0.010783014819025993, -0.013755633495748043, 0.010199522599577904, 0.0033476846292614937, -0.012177511118352413, 0.012642881833016872, -0.012205353006720543, 0.007501899264752865, -0.0038622368592768908, -0.008775372058153152, -0.007799642160534859, 0.012426269240677357, -0.012223010882735252, -0.005877652205526829, -0.01341696735471487, -0.009930332191288471, -0.00936912465840578, -0.013958082534372807, -0.014011488296091557, 0.01325242966413498, 0.013381772674620152, 0.007534021977335215, -0.003589167958125472, 0.007669983897358179, -0.01178683154284954, 0.010603935457766056, -0.005056584719568491, 0.008963805623352528, -0.007774684112519026, -0.005301116965711117, -0.004325101152062416, 0.003836109070107341, 0.0039702667854726315, 0.013105791062116623, -0.009772333316504955, -0.009397963993251324, -0.0035026727709919214, -0.004867436829954386, -0.003612503409385681, -0.012991175055503845, -0.003811492817476392, 0.0030395332723855972, -0.004359393380582333, 0.004822060465812683, 0.013274960219860077, 0.004597765859216452, -0.00438281986862421, 0.014297639019787312, -0.014819919131696224, -0.005322085693478584, 0.0117386719211936, 0.0035333128180354834, -0.012237448245286942, 0.009780466556549072, -0.011353596113622189, -0.012274524196982384, -0.009584842249751091, -0.003432006109505892, 0.005386712029576302, 0.009373364970088005, 0.00689743971452117, 0.012233874760568142, -0.004960932768881321, 0.0035174409858882427, -0.011125453747808933, -0.012524308636784554, -0.009368902072310448, 0.012930200435221195, -0.010011892765760422, 0.00421376945450902, -0.013843435794115067, 0.0056115733459591866, -0.0038187941536307335, -0.0032521465327590704, -0.013924410566687584, -0.010075194761157036, 0.0071848537772893906, 0.0032657247502356768, -0.014320171438157558, -0.011102451011538506, -0.008522267453372478, 0.003843635553494096], [-0.013125767931342125, 0.011762700974941254, -0.007525329943746328, 0.005631349980831146, -0.00423436937853694, 0.0031537904869765043, 0.0029870299622416496, 0.0034501689951866865, 0.008182105608284473, 0.005090441554784775, 0.012526351027190685, 0.01173668634146452, -0.003433867823332548, -0.008323428221046925, -0.003799071069806814, -0.0032861207146197557, 0.006196140311658382, 0.010226160287857056, 0.011258604004979134, 0.0036699287593364716, -0.0032066432759165764, -0.005168495699763298, -0.01278645358979702, 0.008126121014356613, -0.0040215603075921535, 0.0073477160185575485, -0.014627796597778797, -0.004251369275152683, -0.010183840058743954, 0.006768054328858852, -0.008138668723404408, 0.004131567198783159, -0.00368630257435143, 0.011341036297380924, 0.001652526087127626, 0.01031635794788599, -0.008261133916676044, 0.0030768676660954952, -0.012104436755180359, -0.012537745758891106, -0.0032724656630307436, 0.009456044994294643, -0.011893105693161488, 0.008518440648913383, -0.003732089651748538, 0.007928052917122841, -0.011597043834626675, -0.012745914049446583, 0.005060935392975807, 0.003113233018666506, -0.009385543875396252, 0.0027289895806461573, -0.009152472950518131, 0.004661484621465206, -0.006031238008290529, -0.004891230724751949, -0.0028038870077580214, 0.012580783106386662, -0.008405864238739014, -0.002299706684425473, -0.012940550222992897, -0.003508852794766426, -0.0016711339121684432, -0.009553419426083565, -0.0030685923993587494, 0.011469794437289238, 0.00935239065438509, 0.007542522624135017, -0.003915359266102314, 0.00773594481870532, -0.003439306979998946, 0.004467474762350321, -0.003244902240112424, 0.010149785317480564, -0.005430344492197037, -0.0022309767082333565, -0.003943321295082569, 0.0035702937748283148, 0.003709301119670272, 0.008944197557866573, -0.0036603226326406, -0.003631172701716423, -0.006698832381516695, -0.0023170439526438713, -0.0015317571815103292, -0.0033085444010794163, -0.006128613371402025, 0.009056185372173786, -0.006135720759630203, 0.009225372225046158, 0.009737761691212654, 0.001086000818759203, -0.011048171669244766, 0.01200052723288536, -0.011610716581344604, -0.011084466241300106, 0.012214518152177334, 0.0035852084401994944, -0.011228326708078384, 0.010484728962182999, -0.013953082263469696, -0.004140024539083242, -0.0031886082142591476, -0.006041559390723705, 0.003626446705311537, 0.0033035241067409515, 0.0008771648281253874, 0.005582988262176514, -0.01222677156329155, 0.0012833187356591225, -0.005244268570095301, -0.003718911437317729, -0.006449010688811541, 0.010735330171883106, -0.006506080739200115, 0.003664711955934763, -0.00916274730116129, 0.008922932669520378, -0.011874871328473091, -0.009334370493888855, -0.00295069208368659, -0.006383808795362711, 0.0040540448389947414, 0.006505363155156374, -0.0030968922656029463, -0.0030670110136270523, -0.0033922940492630005, 0.004574915394186974], [0.0031379626598209143, -0.006444592494517565, 0.003303348086774349, -0.007766185328364372, 0.003059562062844634, -0.0030928042251616716, -0.001754561671987176, -0.004196804482489824, -0.004526802804321051, -0.003892702516168356, -0.010753518901765347, -0.005319420713931322, 0.007116629742085934, 0.003418415319174528, 0.002523483242839575, 0.0009460488217882812, -0.0014828246785327792, -0.0059539442881941795, -0.002424380276352167, -0.0019332021474838257, 0.003190077608451247, 0.005049938336014748, 0.006571643520146608, -0.0014838826609775424, 0.004287381656467915, -0.007341258693486452, 0.0027993095573037863, 0.004798359237611294, 0.003023911267518997, -0.0030146539211273193, 0.0017391361761838198, -0.0030136152636259794, 0.003922115545719862, -0.005099743138998747, -0.0040176925249397755, -0.0026417274493724108, 0.002011242089793086, -0.0037830022629350424, 0.0033968461211770773, 0.010629039257764816, 0.003683259477838874, -0.0032503800466656685, 0.004999901633709669, -0.002649721223860979, 0.002948927925899625, -0.006137317046523094, 0.0026435814797878265, 0.0042308634147048, -0.003509020898491144, -0.002688040491193533, 0.004177656024694443, -0.003976304549723864, 0.003169671632349491, -0.000291877833660692, 0.005683941766619682, 0.004404816776514053, 0.0034538714680820704, -0.004386472050100565, 0.0039050665218383074, 0.004345084074884653, 0.008065703324973583, 0.0028523451182991266, 0.0034590880386531353, 0.0031269812025129795, 0.0035936711356043816, -0.003917973022907972, -0.003435085527598858, -0.003747415030375123, 0.003312275279313326, -0.0022217968944460154, 0.0025718212127685547, -0.003843687940388918, 0.008668314665555954, -0.0023294053971767426, 0.002067549852654338, 0.0007434766157530248, 0.0009443099261261523, -0.000877949467394501, -0.0072137764655053616, -0.0033120515290647745, 0.006236850284039974, 0.0032391794957220554, 0.0004015355370938778, 0.004978790879249573, 0.004226983059197664, 0.003305000253021717, 0.0029150734189897776, -0.0022217200603336096, 0.0034503727219998837, -0.00350133515894413, -0.003814548486843705, -0.004167006351053715, 0.005585457663983107, -0.005826013628393412, 0.006638114806264639, 0.003836391493678093, -0.007420343812555075, -0.006630457006394863, 0.004592354875057936, -0.00886007770895958, 0.002645248081535101, 0.003512423951178789, 0.0035029479768127203, 0.0028446316719055176, -0.0002535399980843067, -0.0043603540398180485, -0.0031603635288774967, -0.003106023883447051, 0.0030669611878693104, -0.0015914669493213296, 0.007030379958450794, 0.0037898484151810408, 0.003388699609786272, -0.001684778486378491, 0.005747209768742323, -0.0028814354445785284, 0.002075751079246402, -0.0036636898294091225, 0.0037417388521134853, 0.004880526103079319, 0.002189761260524392, 0.003623674623668194, -0.0029075483325868845, -0.00463942950591445, 0.003426538547500968, 0.004393930081278086, 0.0012722373940050602, -0.003229748457670212], [-0.024892542511224747, 0.004392449278384447, -0.011925005353987217, 0.020429890602827072, -0.01772623136639595, 0.005105283111333847, 0.026024602353572845, 0.004400329664349556, 0.006267187651246786, 0.020479464903473854, 0.013031047768890858, 0.02166205644607544, -0.004363677930086851, -0.026968441903591156, -0.0038047146517783403, -0.020163126289844513, 0.026667237281799316, 0.017371786758303642, 0.02198196016252041, 0.023079251870512962, -0.019399087876081467, -0.024154920130968094, -0.020012715831398964, 0.02742859721183777, -0.018307384103536606, 0.019798535853624344, -0.004589170217514038, -0.022194262593984604, -0.02483518421649933, 0.0038088802248239517, -0.02280554734170437, 0.005603954195976257, -0.023623455315828323, 0.025556568056344986, 0.005688739940524101, 0.0045332699082791805, -0.00465805409476161, 0.003930492792278528, -0.01844141259789467, -0.008979241363704205, -0.021432090550661087, 0.02074703946709633, -0.014645488001406193, 0.023599030449986458, -0.012989971786737442, 0.00566140515729785, -0.021408338099718094, -0.0045820679515600204, 0.0044741397723555565, 0.026827828958630562, -0.004163600970059633, 0.020572945475578308, -0.004681188613176346, 0.004550565965473652, -0.0060147447511553764, -0.021941591054201126, -0.005329256411641836, 0.008845724165439606, -0.004225830547511578, -0.017668405547738075, -0.019404927268624306, -0.004182121250778437, -0.019770679995417595, -0.017259011045098305, -0.008012807928025723, 0.021618323400616646, 0.01965911127626896, 0.02138475701212883, -0.020254498347640038, 0.01951214112341404, -0.004735496360808611, 0.0023035118356347084, -0.0036863985005766153, 0.023935141041874886, -0.022806933149695396, -0.01749360002577305, -0.022660328075289726, 0.024258771911263466, 0.004561698064208031, 0.013587670400738716, -0.00516763748601079, -0.008278097957372665, -0.025271069258451462, -0.014589306898415089, -0.002441162709146738, -0.00499188294634223, -0.025740932673215866, 0.004173475783318281, -0.005150263197720051, 0.02268664538860321, 0.02455933205783367, 0.02245122753083706, -0.0017419729847460985, 0.02596139721572399, -0.0219920314848423, -0.004347304347902536, 0.004656389355659485, 0.017597302794456482, -0.004502620082348585, 0.008969578891992569, -0.02026863396167755, -0.02176850475370884, -0.02183373086154461, -0.005807776004076004, 0.005972602870315313, 0.005391690880060196, 0.01700311340391636, 0.003514011623337865, -0.004598674364387989, 0.00624688807874918, -0.014506012201309204, -0.017834391444921494, -0.02305430918931961, 0.00614710571244359, -0.005142006557434797, 0.02436904050409794, -0.0038074578624218702, 0.022693313658237457, -0.005480293650180101, -0.018768539652228355, -0.026073742657899857, -0.02162184752523899, 0.017194274812936783, 0.022149216383695602, -0.019786512479186058, -0.02182312123477459, -0.02060018479824066, 0.02508627437055111], [-0.0032796943560242653, 0.01378143485635519, -0.005462088156491518, 0.003893585642799735, -0.003514176467433572, 0.006468756590038538, 0.0034091288689523935, 0.012505355291068554, 0.011022980324923992, 0.003679797053337097, 0.012669645249843597, 0.013579233549535275, -0.010363408364355564, -0.004004765301942825, -0.004133103881031275, -0.00973434280604124, 0.011377682909369469, 0.011187983676791191, 0.012426832690834999, 0.00950081367045641, -0.00347722927108407, -0.013002266176044941, -0.01267646998167038, 0.003565525868907571, -0.015334118157625198, 0.012097938917577267, -0.013874929398298264, -0.016389355063438416, -0.010353481397032738, 0.005577303934842348, -0.010929334908723831, 0.009930595755577087, -0.0040753125213086605, 0.0030960813164711, 0.007040105760097504, 0.012208772823214531, -0.0039638434536755085, 0.0039021754637360573, -0.0033152829855680466, -0.013239666819572449, -0.010540510527789593, 0.008642789907753468, -0.012296541593968868, 0.010696842335164547, -0.0047414060682058334, 0.009500116109848022, -0.01225713174790144, -0.004811781924217939, 0.008496809750795364, 0.009820378385484219, -0.012116876430809498, 0.011161564849317074, -0.011000723578035831, 0.010489648208022118, -0.00997566431760788, -0.0045292372815310955, -0.00593317486345768, 0.0067724972032010555, -0.011652988381683826, -0.011143939569592476, -0.011925418861210346, -0.004926231689751148, -0.007880155928432941, -0.0038592040073126554, -0.014638852328062057, 0.009535425342619419, 0.010324831120669842, 0.012687448412179947, -0.007145687937736511, 0.003491941373795271, -0.0095312325283885, 0.006203350145369768, -0.012460222467780113, 0.013957819901406765, -0.01011551171541214, -0.01013027410954237, -0.006890743970870972, 0.008849713951349258, 0.007871381938457489, 0.011967601254582405, -0.011811056174337864, -0.005905816797167063, -0.009932891465723515, -0.011961684562265873, -0.005936617497354746, -0.012847763486206532, -0.004157478455454111, 0.006961692590266466, -0.0045065321028232574, 0.006321934517472982, 0.00470446702092886, 0.00471824174746871, -0.014755629003047943, 0.015264930203557014, -0.011641962453722954, -0.014688459224998951, 0.0035602282732725143, 0.006554946769028902, -0.011853541247546673, 0.010578278452157974, -0.011271905153989792, -0.01005293894559145, -0.011090761981904507, -0.014400005340576172, 0.009796016849577427, 0.008186182007193565, 0.006267123389989138, 0.004003917798399925, -0.012020966038107872, 0.0036484154406934977, -0.004076097160577774, -0.004107446875423193, -0.01350929494947195, 0.009921876713633537, -0.01173456571996212, 0.011214612983167171, -0.005464819259941578, 0.009551075287163258, -0.012131990864872932, -0.012252885848283768, -0.003906399942934513, -0.01044241152703762, 0.009522772394120693, 0.003331452375277877, -0.01072392612695694, -0.012735170312225819, -0.004233082756400108, 0.0036828271113336086], [-0.0035099030937999487, 0.010751786641776562, -0.007346830330789089, 0.012621012516319752, -0.006735305767506361, 0.008971231058239937, 0.006798950489610434, 0.008856208994984627, 0.009086573496460915, 0.010824891738593578, 0.011111811734735966, 0.011150968261063099, -0.010461078956723213, -0.012596864253282547, -0.004014838952571154, -0.009706596843898296, 0.0033790920861065388, 0.003268469823524356, 0.012192143127322197, 0.010239352472126484, -0.010443156585097313, -0.012162836268544197, -0.0036609501112252474, 0.012269708327949047, -0.010338827967643738, 0.0017298492603003979, -0.010707976296544075, -0.014848824590444565, -0.003618561429902911, 0.01236740779131651, -0.006966696586459875, 0.006047829054296017, -0.004533739294856787, 0.01285836286842823, 0.006204198580235243, 0.012524072080850601, -0.0038292112294584513, 0.010443150997161865, -0.009409080259501934, -0.014021121896803379, -0.011594337411224842, 0.011190582066774368, -0.015405439771711826, 0.009374593384563923, -0.004272067919373512, 0.003979634493589401, -0.003373257117345929, -0.003716983599588275, 0.010143441148102283, 0.0035000259522348642, -0.013067084364593029, 0.0031883064657449722, -0.010210392996668816, 0.002807372948154807, -0.009907089173793793, -0.011894016526639462, -0.00626177666708827, 0.011845959350466728, -0.011155444197356701, -0.010465766303241253, -0.012290867045521736, -0.005173246376216412, -0.011117693036794662, -0.01248047687113285, -0.00952852237969637, 0.003558940952643752, 0.009116302244365215, 0.0039831651374697685, -0.0036340111400932074, 0.010458561591804028, -0.0038383654318749905, 0.008762579411268234, -0.011995836161077023, 0.007073115091770887, -0.004036741331219673, -0.007683567702770233, -0.004399516619741917, 0.004039107821881771, 0.011835609562695026, 0.007118142209947109, -0.004106285981833935, -0.010350714437663555, -0.004968326538801193, -0.01189334038645029, -0.0043931519612669945, -0.012411804869771004, -0.008083060383796692, 0.011566025204956532, -0.0038498169742524624, 0.003918197005987167, 0.00493614561855793, 0.004966146312654018, -0.004226692020893097, 0.00801788829267025, -0.0037867894861847162, -0.01337753888219595, 0.01165238581597805, 0.010637152008712292, -0.01077938824892044, 0.010148700326681137, -0.0033216390293091536, -0.010664043016731739, -0.007678094785660505, -0.012730919755995274, 0.01003933884203434, 0.003907259088009596, 0.00594669533893466, 0.010002562776207924, -0.0031578312627971172, 0.006908049341291189, -0.003718939609825611, -0.009470322169363499, -0.0042885043658316135, 0.012284349650144577, -0.0031263844575732946, 0.004096038173884153, -0.007771014701575041, 0.0029272758401930332, -0.0035868787672370672, -0.003026848193258047, -0.003381566144526005, -0.00817193929105997, 0.004187491722404957, 0.0036654239520430565, -0.003654717467725277, -0.0024955137632787228, -0.009354366920888424, 0.008091401308774948], [0.012752008624374866, -0.01260218396782875, 0.007019717711955309, -0.011659884825348854, 0.004229507874697447, -0.010250309482216835, -0.011743606068193913, -0.004051703028380871, -0.009859688580036163, -0.0116111496463418, -0.00859006680548191, -0.012640220113098621, 0.01331833004951477, 0.013032350689172745, 0.011323584243655205, 0.002197474241256714, -0.011341933161020279, -0.01217828132212162, -0.004055377561599016, -0.01335817389190197, 0.013306179083883762, 0.008517594076693058, 0.011947264894843102, -0.009005987085402012, 0.0035898827482014894, -0.01133315172046423, 0.014186909422278404, 0.015386026352643967, 0.006570525001734495, -0.003808901645243168, 0.012475814670324326, -0.01417025737464428, 0.013828720897436142, -0.015845024958252907, -0.010009369812905788, -0.01319076493382454, 0.003762969048693776, -0.012759719975292683, 0.010478567332029343, 0.011924837715923786, 0.012730997055768967, -0.013334982097148895, 0.003060449380427599, -0.011684775352478027, 0.013321689330041409, -0.010307193733751774, 0.013934529386460781, 0.004377187229692936, -0.013856664299964905, -0.013736695051193237, 0.009854310192167759, -0.01022467203438282, 0.012001033872365952, -0.007527963723987341, 0.014442862942814827, 0.014101361855864525, 0.010377486236393452, -0.014271766878664494, 0.003793164622038603, 0.011799467727541924, 0.010612568818032742, 0.01585211046040058, 0.012874973006546497, 0.012820322997868061, 0.014306032098829746, -0.01139305904507637, -0.012196236290037632, -0.004142861347645521, 0.009675228968262672, -0.0037362216971814632, 0.00437568686902523, -0.015644202008843422, 0.01236472837626934, -0.0044623264111578465, 0.013520941138267517, 0.005379235837608576, 0.010239885188639164, -0.006363591644912958, -0.00969688594341278, -0.013960151001811028, 0.004681420978158712, 0.00949026644229889, 0.011609923094511032, 0.004493651911616325, 0.01291754748672247, 0.010781694203615189, 0.009144988842308521, -0.010539663955569267, 0.008897311054170132, -0.01170973852276802, -0.004587076138705015, -0.014215166680514812, 0.01504665706306696, -0.0036719883792102337, 0.010317375883460045, 0.011248359456658363, -0.01317226979881525, -0.01158163882791996, 0.012880750931799412, -0.009960939176380634, 0.012765134684741497, 0.009799587540328503, 0.0055832639336586, 0.013123486191034317, -0.0047945864498615265, -0.012459313496947289, -0.011808610521256924, -0.01285009179264307, 0.009622172452509403, -0.009810828603804111, 0.0038373135030269623, 0.012990005314350128, 0.011424222029745579, -0.011055071838200092, 0.013346044346690178, -0.007942309603095055, 0.015822695568203926, -0.01116615068167448, 0.012507885694503784, 0.003246689448133111, 0.013194940984249115, 0.012607298791408539, -0.010316622443497181, -0.010967381298542023, 0.013051911257207394, 0.010097652673721313, 0.011921431869268417, -0.011033359915018082], [0.011789828538894653, -0.011747476644814014, 0.00014493140042759478, -0.013576382771134377, 0.009707978926599026, -0.0034443617332726717, -0.003813699586316943, -0.011713995598256588, -0.008594943210482597, -0.00292232190258801, -0.003012874163687229, -0.006719262804836035, 0.00497673824429512, 0.009414725005626678, 0.0064101070165634155, 0.007758365478366613, -0.0026243149768561125, -0.009786625392735004, -0.0117434561252594, -0.00804971344769001, 0.00353741436265409, 0.007358257193118334, 0.007781131658703089, -0.01165453065186739, 0.007686343509703875, -0.010400844737887383, 0.009564005769789219, 0.009605394676327705, 0.010652288794517517, -0.013502001762390137, 0.003635305678471923, -0.0033276001922786236, 0.0037605215329676867, -0.006580210290849209, -0.004479356110095978, -0.010434134863317013, 0.003630467690527439, -0.012770425528287888, 0.009330177679657936, 0.006151774898171425, 0.0047195409424602985, -0.011022116057574749, 0.0041868253611028194, -0.0035885395482182503, 0.0076397014781832695, -0.010614991188049316, 0.009023772552609444, 0.010616322979331017, -0.005920518655329943, -0.012881158851087093, 0.011417386122047901, -0.008752629160881042, 0.009782831184566021, -0.004584356211125851, 0.00933933723717928, 0.003756092395633459, 0.0063271066173911095, -0.013946072198450565, 0.009337942115962505, 0.005257456563413143, 0.013138153590261936, 0.004064810927957296, 0.003443380817770958, 0.0044898283667862415, 0.003252849681302905, -0.0033532418310642242, -0.009444723837077618, -0.011906135827302933, 0.001220088917762041, -0.0039053563959896564, 0.011160464957356453, -0.005851112771779299, 0.004844114650040865, -0.006383702624589205, 0.003143217647448182, 0.002132977358996868, 0.00851514469832182, -0.005780388601124287, -0.011000002734363079, -0.009889594279229641, 0.011467660777270794, 0.003139814594760537, 0.007836061529815197, 0.004040711559355259, 0.0038473745808005333, 0.007160144858062267, 0.006429561413824558, -0.0022392317187041044, 0.004252232611179352, -0.0035831881687045097, -0.009951593354344368, -0.004394245333969593, 0.013656514696776867, -0.011547495611011982, 0.011441978625953197, 0.013211612589657307, -0.012606571428477764, -0.0034009097144007683, 0.01224189531058073, -0.008263240568339825, 0.011915103532373905, 0.009825284592807293, 0.006397276185452938, 0.013778435997664928, -0.0018219152698293328, -0.002400666940957308, -0.007110488135367632, -0.00696154311299324, 0.01140256691724062, -0.005223250947892666, 0.012349879369139671, 0.012339534237980843, 0.0036339880898594856, -0.009733454324305058, 0.003635168308392167, -0.005805565509945154, 0.012083848007023335, -0.009000711143016815, 0.013346577063202858, 0.00389980454929173, 0.009647456929087639, 0.0072183809243142605, -0.007589402142912149, -0.010704133659601212, 0.012202528305351734, 0.006499656476080418, 0.0030881331767886877, -0.010529733262956142], [0.005751390475779772, -0.004316885955631733, 0.006122894119471312, -0.0037834655959159136, 0.0009544851491227746, -0.014364127069711685, -0.021751079708337784, -0.003939823713153601, -0.0040373182855546474, -0.013400700874626637, -0.01214414183050394, -0.016936197876930237, 0.0009807008318603039, 0.017277229577302933, 0.01826847903430462, 0.003812652314081788, -0.0036167779471725225, -0.0016153061296790838, -0.004224357660859823, -0.004624315071851015, 0.003582706907764077, 0.017047438770532608, 0.018349410966038704, -0.018873311579227448, 0.011811322532594204, -0.014675440266728401, 0.018573282286524773, 0.011176825501024723, 0.02062864974141121, -0.0046148402616381645, 0.004669095855206251, -0.017268329858779907, 0.015788810327649117, -0.003114921972155571, -0.013112097978591919, -0.007470917422324419, 0.01393184345215559, -0.0026868374552577734, 0.003539775498211384, 0.008830886334180832, 0.016086243093013763, -0.004288771655410528, 0.01344288419932127, -0.02024238370358944, 0.004372131545096636, -0.014828807674348354, 0.020013602450489998, 0.02109033428132534, -0.00373495789244771, -0.018762661144137383, 0.017630159854888916, -0.01830344833433628, 0.007650111801922321, -0.010651212185621262, 0.004163957200944424, 0.01273344550281763, 0.004640319384634495, -0.009622510522603989, 0.016381867229938507, 0.008846069686114788, 0.004575217608362436, 0.015162779949605465, 0.014080467633903027, 0.003838399425148964, 0.01772787980735302, -0.016526762396097183, -0.0154349310323596, -0.0019168948056176305, 0.0039028881583362818, -0.013291439041495323, 0.004045264329761267, -0.016201060265302658, 0.019042840227484703, -0.011697417125105858, 0.014565465040504932, 0.011114592663943768, 0.004764885641634464, -0.0034949874971061945, -0.015678077936172485, -0.015458637848496437, 0.004536096006631851, 0.013928689062595367, 0.01758781261742115, 0.010434690862894058, 0.004340578336268663, 0.017341183498501778, 0.014758579432964325, -0.011033233255147934, 0.01411597803235054, -0.0155586963519454, -0.017984798178076744, -0.004530308302491903, 0.01431880984455347, -0.004238585941493511, 0.016977280378341675, 0.004123999737203121, -0.003661948023363948, -0.018697267398238182, 0.0036794727202504873, -0.009243088774383068, 0.003445620881393552, 0.01607835479080677, 0.015479371882975101, 0.003619223600253463, -0.012949835509061813, -0.009961060248315334, -0.00029359987820498645, -0.003794189775362611, 0.01697400212287903, -0.015392209403216839, 0.018520940095186234, 0.008721875958144665, 0.0045233312994241714, -0.004551128949970007, 0.004084682557731867, -0.004085863474756479, 0.01947886124253273, -0.00400485098361969, 0.01973327435553074, 0.01594778150320053, 0.019853997975587845, 0.004613376222550869, -0.011582241393625736, -0.020496061071753502, 0.002677161479368806, 0.018851805478334427, 0.014597882516682148, -0.017082111909985542], [-0.013047152198851109, 0.006390125025063753, -0.007539304904639721, 0.0038394564762711525, -0.00340465409681201, 0.0038744027260690928, 0.013542448170483112, 0.013353955000638962, 0.013723444193601608, 0.009466023184359074, 0.004706013482064009, 0.004631041549146175, -0.003990004304796457, -0.014812935143709183, -0.013287710957229137, -0.00769399106502533, 0.013079721480607986, 0.0034631972666829824, 0.01431828923523426, 0.011396564543247223, -0.011978874914348125, -0.010986204259097576, -0.015793204307556152, 0.015781929716467857, -0.004411803558468819, 0.0080040842294693, -0.004193500615656376, -0.01245555654168129, -0.01457156240940094, 0.014326335862278938, -0.009146138094365597, 0.01387491263449192, -0.004282225854694843, 0.014486510306596756, 0.004962655249983072, 0.011437714099884033, -0.009001044556498528, 0.012735491618514061, -0.013221317902207375, -0.009407028555870056, -0.0093814916908741, 0.013861586339771748, -0.011340536177158356, 0.014670517295598984, -0.011714356951415539, 0.012790553271770477, -0.0032816540915519, -0.013534118421375751, 0.007956715300679207, 0.004160089883953333, -0.014652040787041187, 0.010183201171457767, -0.013445695862174034, 0.004739309661090374, -0.011852459982037544, -0.012011895887553692, -0.012652414850890636, 0.004034979268908501, -0.012357894331216812, -0.011619362980127335, -0.006829620338976383, -0.007691352628171444, -0.010005129501223564, -0.004348834976553917, -0.014855695888400078, 0.012051680125296116, 0.004365929402410984, 0.014064531773328781, -0.0087905777618289, 0.0036897254176437855, -0.004144585691392422, 0.012593967840075493, -0.014333484694361687, 0.008711107075214386, -0.003926956094801426, -0.01028797123581171, -0.013577861711382866, 0.012342791073024273, 0.006181519944220781, 0.004928871989250183, -0.012092324905097485, -0.013535643927752972, -0.013637499883770943, -0.007928995415568352, -0.011316155083477497, -0.004663298837840557, -0.010297092609107494, 0.008979955688118935, -0.013234303332865238, 0.01639614813029766, 0.014465718530118465, 0.010398592799901962, -0.005472968798130751, 0.015522154048085213, -0.0035321058239787817, -0.014972487464547157, 0.013673046603798866, 0.008820313028991222, -0.0063929082825779915, 0.009087135083973408, -0.011409296654164791, -0.004812273196876049, -0.011931585147976875, -0.011921786703169346, 0.004452081862837076, 0.013437635265290737, 0.012207265943288803, 0.012404212728142738, -0.0035967756994068623, 0.008118944242596626, -0.0042281001806259155, -0.01561161782592535, -0.010060286149382591, 0.01329746749252081, -0.004323123954236507, 0.013177799992263317, -0.014715390279889107, 0.0038091172464191914, -0.004067935515195131, -0.014239371754229069, -0.003881187876686454, -0.005021772813051939, 0.0041208514012396336, 0.004338908474892378, -0.003784848377108574, -0.012262653559446335, -0.01203622855246067, 0.015584745444357395], [-0.012189497239887714, 0.003877484006807208, -0.0036300283391028643, 0.0037588642444461584, -0.0045043849386274815, 0.005802617873996496, 0.010615875013172626, 0.003993399441242218, 0.010981091298162937, 0.0085518229752779, 0.008626897819340229, 0.013749021105468273, -0.003832985647022724, -0.004160798620432615, -0.01044915895909071, -0.005833885166794062, 0.011496790684759617, 0.011418670415878296, 0.009604396298527718, 0.010474714450538158, -0.0034714501816779375, -0.009355916641652584, -0.0037534688599407673, 0.008921117521822453, -0.0048039937391877174, 0.011744813062250614, -0.007297671400010586, -0.009375014342367649, -0.013025614432990551, 0.011925817467272282, -0.010401683859527111, 0.004101242870092392, -0.010176812298595905, 0.014988082461059093, 0.004404975567013025, 0.0036152757238596678, -0.009530670009553432, 0.0033723448868840933, -0.013100806623697281, -0.010668815113604069, -0.003985432907938957, 0.01301494613289833, -0.00379205122590065, 0.009574726223945618, -0.01232141349464655, 0.00627937912940979, -0.011085557751357555, -0.012349355034530163, 0.009276499040424824, 0.014287684112787247, -0.012971471063792706, 0.012968098744750023, -0.012820441275835037, 0.0029566092416644096, -0.0034983244258910418, -0.004001901485025883, -0.003214772790670395, 0.003541261423379183, -0.010729003697633743, -0.006668330170214176, -0.00304616941139102, -0.0110222939401865, -0.005249490961432457, -0.003809202928096056, -0.005061159376055002, 0.011915362440049648, 0.00921357236802578, 0.009566264227032661, -0.00419230991974473, 0.003245952306315303, -0.0037654510233551264, 0.004216816741973162, -0.012999139726161957, 0.011619926430284977, -0.008388813585042953, -0.004887749906629324, -0.004670052323490381, 0.010416456498205662, 0.01432250440120697, 0.012400164268910885, -0.004855569917708635, -0.007503451779484749, -0.003773441771045327, -0.00643271766602993, -0.003495196346193552, -0.012053253129124641, -0.010181440971791744, 0.0028744260780513287, -0.004114631563425064, 0.006232698913663626, 0.004416650161147118, 0.00760108046233654, -0.0101513946428895, 0.014809750020503998, -0.012737225741147995, -0.003773633623495698, 0.012869706377387047, 0.014017322100698948, -0.007427877746522427, 0.008810161612927914, -0.003764805616810918, -0.004988529719412327, -0.0037557606119662523, -0.012652984820306301, 0.0046112495474517345, 0.0037601615767925978, 0.002642332809045911, 0.0075044287368655205, -0.011983058415353298, 0.007496125064790249, -0.01261229906231165, -0.01169956661760807, -0.009526100009679794, 0.003183250315487385, -0.013352857902646065, 0.004102783743292093, -0.004252413287758827, 0.009188075549900532, -0.003468378446996212, -0.010205063037574291, -0.012224888429045677, -0.010476957075297832, 0.006005792412906885, 0.003169164527207613, -0.012108396738767624, -0.008086989633738995, -0.0035125226713716984, 0.011142410337924957], [0.002207695972174406, -0.00532194459810853, 0.00938031543046236, -0.0031215299386531115, 0.010631520301103592, -0.00041244918247684836, -0.0005690287798643112, -0.0034871164243668318, -0.013611670583486557, -0.0008064631256274879, -0.007875122129917145, -0.004803543444722891, 0.006695651914924383, 0.012468664906919003, 0.00039431123877875507, 0.0012489923974499106, -0.009202906861901283, -0.003179921768605709, -0.004782034549862146, -0.0033147353678941727, 0.0034445752389729023, 0.01207178644835949, 0.0033645271323621273, -0.011341912671923637, 0.0010047071846202016, -0.0035363566130399704, 0.003354995744302869, 0.0008415942429564893, 0.0017063221894204617, -0.007272960618138313, 0.004958589095622301, -0.003364419098943472, 0.009280197322368622, -0.003421588335186243, -0.004081315360963345, -0.0018960557645186782, 0.007582294289022684, -0.0077303689904510975, 0.003060031682252884, 0.010013085789978504, 0.011768762022256851, -0.0024611237458884716, 0.0023364878725260496, -0.002808092627674341, 0.000623810279648751, -0.003778577083721757, 0.0036149092484265566, 0.003471802221611142, -0.0013105426914989948, -0.005522964987903833, 0.005189075134694576, -0.0026558043900877237, 0.006060422398149967, -0.009492254815995693, 0.0008154908427968621, 0.00979674980044365, 0.0017064112471416593, -0.005611801985651255, 0.003109171288087964, 0.01616031490266323, 0.006473597139120102, 0.0042434921488165855, 0.0021084509789943695, 0.002661962527781725, 0.005204204935580492, -0.003959642723202705, -0.0032479390501976013, -0.001077192137017846, 0.007292118389159441, -0.0032710926607251167, 0.003058893606066704, -0.0025441290345042944, 0.007145820651203394, -0.009697657078504562, 0.005279965698719025, 0.002166568534448743, 0.00023975007934495807, -0.0036327852867543697, -0.00356021779589355, -0.005207017995417118, 0.0038815224543213844, 0.012429795227944851, 0.0017821642104536295, 0.0038362399209290743, 0.0005114841624163091, 0.002408986911177635, 0.0011163188610225916, -0.007936899550259113, 0.003214883850887418, -0.004675392527133226, -3.78077311324887e-05, -0.0036075208336114883, 0.003907705191522837, -0.0013439231552183628, 0.005723145790398121, 0.003348821308463812, -0.0023360061459243298, -0.00514712929725647, 0.0014613670064136386, -0.006713444367051125, 0.0031681805849075317, 0.0016670571640133858, 0.003706899005919695, 0.0033145835623145103, -0.003048495389521122, -0.010308392345905304, -0.003664243733510375, -0.003016987582668662, 0.006293731741607189, -0.0007065109675750136, 0.003355159889906645, 0.0029054414480924606, 0.014198925346136093, -0.0029826031532138586, 0.0007286512409336865, -0.00324433040805161, 0.0022834332194179296, -0.0012416366953402758, 0.0023857944179326296, 0.003551485948264599, 0.003973627928644419, 0.0017597891855984926, -0.0001515437033958733, -0.0035282329190522432, 0.004584031645208597, 0.0017065989086404443, 0.012105951085686684, -0.001955888234078884], [-0.0036869095638394356, 0.02257835492491722, -0.0036647196393460035, 0.019447406753897667, -0.003171058837324381, 0.021634843200445175, 0.024845320731401443, 0.019768083468079567, 0.017293060198426247, 0.014018462039530277, 0.013965576887130737, 0.0011610036017373204, -0.0030645637307316065, -0.022213280200958252, -0.003415843704715371, -0.010236312635242939, 0.02397848479449749, 0.016862815245985985, 0.023116452619433403, 0.004432992078363895, -0.018715381622314453, -0.004324234090745449, -0.018641946837306023, 0.011658870615065098, -0.01836406998336315, 0.017599686980247498, -0.006231843959540129, -0.005584429483860731, -0.026500975713133812, 0.0036429259926080704, -0.00527223851531744, 0.0206756591796875, -0.02150966040790081, 0.003844558261334896, 0.014122668653726578, 0.005931648425757885, -0.014773780480027199, 0.004149830434471369, -0.0081382030621171, -0.006552628241479397, -0.0015996041474863887, 0.004531004931777716, -0.014272191561758518, 0.02272951602935791, -0.021025601774454117, 0.0045032198540866375, -0.022134654223918915, -0.026332339271903038, 0.021053912118077278, 0.023841476067900658, -0.004148266278207302, 0.021146245300769806, -0.023056088015437126, 0.008468037471175194, -0.02021756023168564, -0.005722652189433575, -0.012342489324510098, 0.011615840718150139, -0.018859446048736572, -0.01199783943593502, -0.019694048911333084, -0.0054431939497590065, -0.007811333052814007, -0.009800711646676064, -0.004135528579354286, 0.008292760699987411, 0.003974282182753086, 0.004546670708805323, -0.0033254665322601795, 0.004220536444336176, -0.0035715061239898205, 0.022865435108542442, -0.020084168761968613, 0.012904620729386806, -0.0033159214071929455, -0.014877572655677795, -0.001020407653413713, 0.012449124827980995, 0.01769816130399704, 0.02019750140607357, -0.01152275875210762, -0.004480159841477871, -0.00116260617505759, -0.011493874713778496, -0.019794868305325508, -0.021989855915308, -0.01932414621114731, 0.0035297430586069822, -0.015215539373457432, 0.01649179682135582, 0.023192044347524643, 0.007813025265932083, -0.016199657693505287, 0.0038470542058348656, -0.0036065815947949886, -0.019761240109801292, 0.0038787119556218386, 0.004108127672225237, -0.003874531015753746, 0.009465641342103481, -0.020580926910042763, -0.003770075738430023, -0.021104058250784874, -0.004758739378303289, 0.014974112622439861, 0.017367886379361153, 0.0045325481332838535, 0.0072592333890497684, -0.019316550344228745, 0.018416672945022583, -0.022615598514676094, -0.01591910608112812, -0.01091725379228592, 0.0009355543879792094, -0.004220101051032543, 0.020449958741664886, -0.008506850339472294, 0.0030699006747454405, -0.020793844014406204, -0.01762111857533455, -0.0038845324888825417, -0.016383390873670578, 0.017213836312294006, 0.010147594846785069, -0.019865576177835464, -0.02299170009791851, -0.014025476761162281, 0.006004309747368097], [-0.0017961912089958787, 0.005757493432611227, -0.012638467364013195, 0.006087816320359707, -0.004148943815380335, 0.005570083390921354, 0.003272783476859331, 0.003038241295143962, 0.006263270042836666, 0.002511632163077593, 0.01442551240324974, 0.007890534587204456, -0.009918405674397945, -0.006998742930591106, -0.0034066166263073683, -0.003452697303146124, 0.01160157285630703, 0.006736248731613159, 0.006346061360090971, 0.006195546127855778, -0.007244813721626997, -0.00534758111461997, -0.011582892388105392, 0.0043786196038126945, -0.004771522246301174, 0.005181401502341032, -0.007799185812473297, -0.01057865284383297, -0.0032079340890049934, 0.0012975477147847414, -0.0062775565311312675, 0.005855105351656675, -0.003416568972170353, 0.004084573592990637, 0.0055063990876078606, 0.00836921390146017, -0.003313374938443303, 0.005599686410278082, -0.006142197176814079, -0.003228007350116968, -0.0029589682817459106, 0.007231402676552534, -0.010899428278207779, 0.005234168842434883, -0.007181078195571899, 0.0024714984465390444, -0.002889805007725954, -0.00518192071467638, 0.0031444195192307234, 0.007793865166604519, -0.008902075700461864, 0.004859661217778921, -0.0037291652988642454, 0.004729331936687231, -0.005327444989234209, -0.0008281230693683028, -0.003017750568687916, 0.005714811850339174, -0.003153118072077632, -0.00850286241620779, -0.007538556586951017, -0.00851617194712162, -0.0030513987876474857, -0.0034988799598068, -0.0035226577892899513, 0.006436939351260662, 0.004616036079823971, 0.00715225376188755, -0.0038819178007543087, 0.004834031220525503, -0.009457641281187534, 0.007084897719323635, -0.009767590090632439, 0.011380388401448727, -0.003796163946390152, -0.004920116625726223, -0.002072719158604741, 0.0034443235490471125, 0.004466577898710966, 0.006899764761328697, -0.007586978375911713, -0.006658944766968489, -0.00619360338896513, -0.0013895556330680847, -0.0051009999588131905, -0.005189398769289255, -0.011112933978438377, 0.00989043340086937, -0.004721037577837706, 0.009471261873841286, 0.004258397035300732, 0.0012463390594348311, -0.007819936610758305, 0.006424941588193178, -0.0032789900433272123, -0.003617103910073638, 0.006429693195968866, 0.0030415335204452276, -0.007569042034447193, 0.010558328591287136, -0.00626305490732193, -0.0071380180306732655, -0.005641056690365076, -0.002915578195825219, 0.003928196616470814, 0.003733809804543853, 0.0009729656740091741, 0.006698119454085827, -0.009195149876177311, 0.0035144889261573553, -0.009192540310323238, -0.0088637201115489, -0.008549087680876255, 0.003883947851136327, -0.00440752599388361, 0.003867202904075384, -0.007949577644467354, 0.005999067798256874, -0.003974399995058775, -0.005692023318260908, -0.003283229423686862, -0.0039558871649205685, 0.00731465220451355, 0.005699511617422104, -0.0069738575257360935, -0.0029441704973578453, -0.0050275893881917, 0.003226784523576498], [-0.008678605780005455, 0.01721484586596489, -0.009798958897590637, 0.003915165551006794, -0.00429154047742486, 0.013643321581184864, 0.019658567383885384, 0.00363848521374166, 0.01222627516835928, 0.01479470357298851, 0.015373073518276215, 0.013001232407987118, -0.00460555125027895, -0.01602276787161827, -0.004750602878630161, -0.01237928494811058, 0.016173511743545532, 0.015347977168858051, 0.015925368294119835, 0.004786461591720581, -0.014570639468729496, -0.004423385951668024, -0.015921542420983315, 0.020554564893245697, -0.017198706045746803, 0.011571235954761505, -0.005396624095737934, -0.006149508990347385, -0.003810617607086897, 0.006447061896324158, -0.005935097113251686, 0.004793032072484493, -0.015494993887841702, 0.0034713209606707096, 0.013499237596988678, 0.004132260102778673, -0.004303224850445986, 0.016161669045686722, -0.015306949615478516, -0.013247895985841751, -0.015096918679773808, 0.01305499766021967, -0.0020350725390017033, 0.01859891787171364, -0.02020895481109619, 0.01099354401230812, -0.0178623478859663, -0.017962370067834854, 0.015272933058440685, 0.020703086629509926, -0.01313747651875019, 0.016095951199531555, -0.005281353835016489, 0.014221089892089367, -0.015294571407139301, -0.004845639690756798, -0.01749347150325775, 0.003761847270652652, -0.01649404689669609, -0.012978431768715382, -0.014133026823401451, -0.01546500064432621, -0.004339873790740967, -0.014084679074585438, -0.01763775758445263, 0.015284259803593159, 0.013588797301054, 0.017184682190418243, -0.015912653878331184, 0.01789483055472374, -0.015013953670859337, 0.004181590862572193, -0.012226457707583904, 0.007055247202515602, -0.011894281953573227, -0.01595870405435562, -0.0054666525684297085, 0.013974836096167564, 0.003938197158277035, 0.004708496388047934, -0.019824381917715073, -0.013090606778860092, -0.0043883612379431725, -0.00532092759385705, -0.004932817537337542, -0.015983954071998596, -0.010604810900986195, 0.010596787557005882, -0.012310042977333069, 0.017005514353513718, 0.016056492924690247, 0.016909165307879448, -0.01813526265323162, 0.016969885677099228, -0.014512111432850361, -0.016911063343286514, 0.010506573133170605, 0.015234120190143585, -0.00376901775598526, 0.011556996963918209, -0.013785594142973423, -0.004843192640691996, -0.01695304922759533, -0.018862657248973846, 0.017452768981456757, 0.005351044703274965, 0.006244715768843889, 0.014703658409416676, -0.01182942371815443, 0.01690812222659588, -0.0136701175943017, -0.01575077697634697, -0.012839154340326786, 0.01687260903418064, -0.016276704147458076, 0.01372376549988985, -0.02078569494187832, 0.018352262675762177, -0.017804844304919243, -0.012142835184931755, -0.01999223232269287, -0.015900515019893646, 0.016557469964027405, 0.0034356655087321997, -0.0035623281728476286, -0.01643950864672661, -0.004850739613175392, 0.017558446153998375], [-0.01447039470076561, 0.015698252245783806, -0.009349972009658813, 0.01353427954018116, -0.009996360167860985, 0.012972184456884861, 0.015416883863508701, 0.014749893918633461, 0.0044776275753974915, 0.012778705917298794, 0.010442807339131832, 0.012954830192029476, -0.014695473946630955, -0.01586044579744339, -0.004347064066678286, -0.011654670350253582, 0.013941369019448757, 0.015933504328131676, 0.016995901241898537, 0.004860889632254839, -0.014131882227957249, -0.010575992986559868, -0.0040435162372887135, 0.015583104453980923, -0.014288704842329025, 0.004297545645385981, -0.008910869248211384, -0.01584610901772976, -0.016420170664787292, 0.0035783820785582066, -0.013091457076370716, 0.016834262758493423, -0.014542133547365665, 0.016395334154367447, 0.017108198255300522, 0.014548949897289276, -0.01363697461783886, 0.011435655876994133, -0.003851543413475156, -0.010789427906274796, -0.004307580646127462, 0.016377951949834824, -0.015094500035047531, 0.015027807094156742, -0.004450042732059956, 0.013655188493430614, -0.0035301714669913054, -0.015635183081030846, 0.015263534151017666, 0.016339601948857307, -0.012601732276380062, 0.014035866595804691, -0.00440213130787015, 0.012427184730768204, -0.01384415477514267, -0.011364713311195374, -0.015586594119668007, 0.017299415543675423, -0.014820722863078117, -0.010257072746753693, -0.013060471042990685, -0.012693649157881737, -0.013659130781888962, -0.008427067659795284, -0.0037495295982807875, 0.004077247343957424, 0.011737845838069916, 0.013937229290604591, -0.0045914179645478725, 0.0041721658781170845, -0.014303735457360744, 0.004805153235793114, -0.013894305564463139, 0.016220733523368835, -0.0043477159924805164, -0.010628785006701946, -0.014236238785088062, 0.004209556151181459, 0.015331956557929516, 0.012201898731291294, -0.013669309206306934, -0.004458524286746979, -0.004902194254100323, -0.005546247120946646, -0.014216830022633076, -0.013765827752649784, -0.008505642414093018, 0.00825467798858881, -0.014392565935850143, 0.013268387876451015, 0.016558010131120682, 0.015533997677266598, -0.0058110435493290424, 0.010820320807397366, -0.015149160288274288, -0.006052333861589432, 0.0038801839109510183, 0.003724057227373123, -0.010594496503472328, 0.007791963871568441, -0.013492352329194546, -0.008240053430199623, -0.01647617667913437, -0.015940017998218536, 0.015093325637280941, 0.01078725140541792, 0.012416996993124485, 0.01644783467054367, -0.013347107917070389, 0.01696164160966873, -0.010216759517788887, -0.009082465432584286, -0.013376490212976933, 0.013783974573016167, -0.00439462112262845, 0.013928685337305069, -0.004648689180612564, 0.004298076964914799, -0.005930877290666103, -0.01485078688710928, -0.014388497918844223, -0.012472537346184254, 0.004235089756548405, 0.015531466342508793, -0.015752475708723068, -0.004002641886472702, -0.004325724672526121, 0.01336636021733284], [0.0030892184004187584, -0.0074355751276016235, 0.002699818927794695, -0.0030406564474105835, 0.0012197312898933887, -0.002739695832133293, -0.004962125793099403, -0.007662888616323471, -0.005613574292510748, -0.0029505619313567877, -0.01058825384825468, -0.007697457913309336, 0.008590278215706348, 0.005872250068932772, 0.003379576141014695, 0.0034940263722091913, -0.0006104211206547916, -0.006724191829562187, -0.006204283330589533, -0.0008543722215108573, 0.007615535985678434, 0.005099930334836245, 0.005200596060603857, -0.002372147748246789, 0.00518401525914669, -0.007972491905093193, 0.004658520221710205, 0.009241947904229164, 0.005987460725009441, -0.009007623419165611, 0.003477626945823431, -0.0034141710493713617, 0.0066053131595253944, -0.007126144133508205, -0.004155529197305441, -0.007370749022811651, 0.0011017139768227935, -0.00826333649456501, 0.009559161961078644, 0.005880602169781923, 0.00011029773304471746, -0.007129034958779812, 0.009552333503961563, -0.006687907502055168, 0.004164549987763166, -0.002367876935750246, 0.00713194627314806, 0.004557582084089518, -0.00602343026548624, -0.0027639332693070173, 0.003616947680711746, -0.0028629570733755827, 0.007074350956827402, -0.002563206013292074, 0.0034263094421476126, 0.005665504839271307, 0.001956033054739237, -0.006828714162111282, 0.005766327492892742, 0.0020169320050626993, 0.00779695576056838, 0.0014207629719749093, 0.0014263567281886935, 0.006356904748827219, 0.006135798059403896, -0.0030112024396657944, -0.0045506637543439865, -0.005167254712432623, 0.0012016143882647157, -0.0031077866442501545, 0.006681500468403101, -0.0027306387200951576, 0.008046185597777367, -0.0048904926516115665, 0.0013709815684705973, 0.0006225444958545268, 0.001271866261959076, -0.0036570955999195576, -0.005626386031508446, -0.005196086131036282, 0.003272837959229946, 0.0026220378931611776, 0.005031951703131199, 0.002865773858502507, 0.003285817801952362, 0.004963972605764866, 0.011424894444644451, -0.012590003199875355, 0.0025798268616199493, -0.0056786565110087395, -0.005264146253466606, -0.0025640111416578293, 0.0035870354622602463, -0.00491268141195178, 0.005245720036327839, 0.01107801403850317, -0.0029677816201001406, -0.0028699005488306284, 0.004216942936182022, -0.009480137377977371, 0.003894362598657608, 0.0038065877743065357, 0.003541166428476572, 0.008838554844260216, -0.003541739424690604, -0.002480688039213419, -0.003334594424813986, -0.005577148403972387, 0.008925114758312702, -0.002657906385138631, 0.008458231575787067, 0.007033970206975937, 0.005094969179481268, -0.001536322757601738, 0.003243029350414872, -0.005488489288836718, 0.0033629348035901785, -0.00524854613468051, 0.005665281321853399, 0.00517464242875576, 0.005380638875067234, 0.000626187480520457, -0.0017579413251951337, -0.003590881358832121, 0.0036611624527722597, 0.004143554717302322, 0.0006648051203228533, -0.005434412509202957], [0.005345142912119627, -0.008035391569137573, 0.0028399548027664423, -0.00519372895359993, 0.0004404413921292871, -0.0037273867055773735, -0.008376198820769787, -0.003225413616746664, -0.007641172502189875, -0.002801991533488035, -0.009058329276740551, -0.007790687028318644, 0.009024090133607388, 0.007713955361396074, 0.008301788941025734, 0.0011647101491689682, -0.0026959774550050497, -0.0064131394028663635, -0.0036854888312518597, -0.00806017592549324, 0.00708168838173151, 0.003375548403710127, 0.009506013244390488, -0.007642260752618313, 0.004578693769872189, -0.0058163306675851345, 0.007892909459769726, 0.00552168395370245, 0.009563296101987362, -0.010241234675049782, 0.005761908832937479, -0.0035541376564651728, 0.002706702332943678, -0.007274993695318699, -0.004605744034051895, -0.002965689869597554, 0.0029347592499107122, -0.008860413916409016, 0.003302088938653469, 0.011084029451012611, 0.00247684377245605, -0.004470554180443287, 0.008528641425073147, -0.007377053610980511, 0.009426112286746502, -0.0052485172636806965, 0.003090773243457079, 0.005738740786910057, -0.004315956961363554, -0.004829820711165667, 0.005566534120589495, -0.0033144899643957615, 0.0032027799170464277, -0.0008256227592937648, 0.007074296474456787, 0.0062521169893443584, 0.002826543292030692, -0.009686475619673729, 0.008870487101376057, 0.004364134278148413, 0.0028442349284887314, 0.005686148535460234, 0.0033922623842954636, 0.008130828849971294, 0.010395841673016548, -0.00506496662274003, -0.0030819873791188, -0.005314354784786701, 0.003637890564277768, -0.006889249198138714, 0.00911297369748354, -0.002942339750006795, 0.009566979482769966, -0.005630648694932461, 0.00301401992328465, 0.0023149955086410046, 0.005430304445326328, -0.005514074116945267, -0.005301715340465307, -0.004183228127658367, 0.003869828535243869, 0.002682826016098261, 0.0039909458719193935, 0.002183718141168356, 0.005954016465693712, 0.003160845022648573, 0.0020931758917868137, -0.004875865299254656, 0.0025853354018181562, -0.005464552901685238, -0.0057332986034452915, -0.005343663040548563, 0.005226077977567911, -0.006784736644476652, 0.008135232143104076, 0.008461992256343365, -0.007912159897387028, -0.010236978530883789, 0.008046595379710197, -0.009009654633700848, 0.005833434872329235, 0.0035008881241083145, 0.009527561254799366, 0.003120851470157504, -0.0036489455960690975, -0.0047952341847121716, -0.0012953159166499972, -0.0030752073507755995, 0.0029672877863049507, -0.003225848777219653, 0.009495455771684647, 0.0036912288051098585, 0.002661538776010275, -0.007705945521593094, 0.005963404197245836, -0.003021230222657323, 0.0073398989625275135, -0.005338904447853565, 0.006690485868602991, 0.007342644967138767, 0.007338178809732199, 0.002840431872755289, -0.004775969311594963, -0.0029416661709547043, 0.0032791539561003447, 0.002895558252930641, 0.002739734249189496, -0.00491428654640913], [0.005501527339220047, -0.004910582210868597, 0.008997914381325245, -0.0034875019919127226, 0.008880398236215115, -0.0020994162186980247, -0.0024390514008700848, -0.0034029632806777954, -0.0029935676138848066, -0.004430247005075216, -0.012096960097551346, -0.008818279020488262, 0.0071499524638056755, 0.0026957676745951176, 0.002969061490148306, 0.0030794013291597366, -0.0015094078844413161, -0.002916345838457346, -0.0035796493757516146, -0.0035358010791242123, 0.005113694351166487, 0.005610144697129726, 0.010605484247207642, -0.002217052271589637, 0.006939246319234371, -0.005544218234717846, 0.0045324466191232204, 0.006613770499825478, 0.0035646299365907907, -0.00545354513451457, 0.0043569826520979404, -0.003280192380771041, 0.004992635454982519, -0.007131590973585844, -0.004951357841491699, -0.0029136324301362038, 0.012664164416491985, -0.008929877541959286, 0.009004008024930954, 0.011002974584698677, 0.0002927908790297806, -0.005876739043742418, 0.007374527398496866, -0.006429621018469334, 0.003315397771075368, -0.006213561166077852, 0.0026446112897247076, 0.0027974534314125776, -0.002886023838073015, -0.006891600787639618, 0.00427955761551857, -0.00672279205173254, 0.0041572838090360165, -0.0034984552767127752, 0.002602569991722703, 0.0030932873487472534, 0.002889766590669751, -0.008625277318060398, 0.0031756442040205, 0.00334723386913538, 0.008208357729017735, 0.001754525932483375, 0.0022896488662809134, 0.0068247364833951, 0.008070647716522217, -0.004257589112967253, -0.004228831268846989, -0.004034895449876785, 0.0013738727429881692, -0.0009999467292800546, 0.003316418966278434, -0.003863656660541892, 0.008825196884572506, -0.003445211099460721, 0.008656296879053116, 0.0005769244162365794, 0.000821807247120887, -0.003256385214626789, -0.003802092745900154, -0.006989298388361931, 0.003012122353538871, 0.002188432030379772, 0.003860107623040676, 0.005202786065638065, 0.0014244617195799947, 0.0055887834168970585, 0.0013065182138234377, -0.008647758513689041, 0.003209349699318409, -0.0034579590428620577, -0.0034035551361739635, -0.0041330293752253056, 0.007896864786744118, -0.0028237851802259684, 0.008327489718794823, 0.009667310863733292, -0.003217338817194104, -0.008114509284496307, 0.005380167160183191, -0.010170861147344112, 0.0057345484383404255, 0.005723519716411829, 0.0016331290826201439, 0.005712130572646856, -0.014138891361653805, -0.006088633555918932, -0.0034659644588828087, -0.0019572116434574127, 0.009150196798145771, -0.0034870600793510675, 0.006276674568653107, 0.003714297665283084, 0.004673411138355732, -0.00290225213393569, 0.0035254857502877712, -0.0028396460693329573, 0.005066412501037121, -0.0023850600700825453, 0.0030997563153505325, 0.007867352105677128, 0.0027176474686712027, 0.003846221836283803, -0.0031146344263106585, -0.004530151374638081, 0.008409439586102962, 0.006470497231930494, 0.012475721538066864, -0.0024259251076728106], [0.00913060549646616, -0.003375438041985035, 0.009612835012376308, -0.0070700920186936855, 0.0021626553498208523, -0.0026601646095514297, -0.00576404994353652, -0.009347635321319103, -0.0048001669347286224, -0.0031064716167747974, -0.0039268010295927525, -0.003197114448994398, 0.0039611500687897205, 0.006248438265174627, 0.010090621188282967, 0.0010030182311311364, -0.004335026256740093, -0.007896778173744678, -0.0034874079283326864, -0.004188643768429756, 0.00843801163136959, 0.0076647489331662655, 0.004066887311637402, -0.003171912394464016, 0.00853033922612667, -0.007063060533255339, 0.008201466873288155, 0.008549095131456852, 0.009561130777001381, -0.008739534765481949, 0.0038619188126176596, -0.004720601718872786, 0.006799273658543825, -0.008257677778601646, -0.006631376221776009, -0.003796409582719207, 0.003478537779301405, -0.01139103714376688, 0.007744055241346359, 0.004705747123807669, 0.002871774835512042, -0.008650343865156174, 0.00929178949445486, -0.006213612388819456, 0.006749632302671671, -0.0035245283506810665, 0.003033927408978343, 0.005446257535368204, -0.007083072327077389, -0.0036413841880857944, 0.008293204940855503, -0.007943795993924141, 0.011145182885229588, -0.007483112160116434, 0.009107704274356365, 0.007118978071957827, 0.006587540730834007, -0.0035918981302529573, 0.010996873490512371, 0.007907720282673836, 0.011142962612211704, 0.005541209131479263, 0.00593209732323885, 0.010390843264758587, 0.007352312095463276, -0.0109215397387743, -0.005847455468028784, -0.010340993292629719, 0.002436077455058694, -0.004514903295785189, 0.009124638512730598, -0.0034793345257639885, 0.00893536675721407, -0.004473341163247824, 0.003075674409046769, 0.0030267350375652313, 0.006728158798068762, -0.007637906353920698, -0.008141903206706047, -0.01094128843396902, 0.00978119671344757, 0.006714347284287214, 0.006179622374475002, 0.006906925234943628, 0.003434198908507824, 0.008395225740969181, 0.0032952341716736555, -0.011723882518708706, 0.006670009810477495, -0.008692272007465363, -0.007203254848718643, -0.008761274628341198, 0.011514006182551384, -0.01023496501147747, 0.010199458338320255, 0.004759599920362234, -0.008630840107798576, -0.011334344744682312, 0.00831968616694212, -0.0072377403266727924, 0.0034971178974956274, 0.008478725329041481, 0.007441228721290827, 0.00794399157166481, -0.005236299242824316, -0.008035601116716862, -0.002766730496659875, -0.0100899962708354, 0.011342895217239857, -0.0058521400205791, 0.009827055968344212, 0.009535761550068855, 0.00427716039121151, -0.009486272931098938, 0.005339217372238636, -0.003552803071215749, 0.00360066257417202, -0.003226320957764983, 0.0063745793886482716, 0.00973967183381319, 0.002967894310131669, 0.004316596779972315, -0.006211332511156797, -0.009423746727406979, 0.009877190925180912, 0.009560635313391685, 0.0031013842672109604, -0.005912671331316233], [0.002106480533257127, -7.861829362809658e-05, 0.013090910390019417, -0.0004688034823630005, 0.0033714810851961374, -0.012919407337903976, -0.0030305255204439163, -0.00012074760888935998, -0.0027578077279031277, -0.0030357367359101772, -0.004650637973099947, -0.003032385604456067, 0.0037563687656074762, 0.012361849658191204, 0.012051114812493324, 0.0048092748038470745, -0.011369656771421432, -0.0035972706973552704, -0.0003198132326360792, -0.003933357540518045, 0.0023305390495806932, 0.012898716144263744, 0.0035474691540002823, -0.011696936562657356, 4.094104588148184e-05, -0.0019258775282651186, 0.003092885250225663, 0.0018995183054357767, 0.0014234967529773712, -0.001845763297751546, 0.0016688058385625482, -0.013029545545578003, 0.00441609276458621, -0.00395493907853961, -0.0163895171135664, -0.006557275541126728, 0.006073429249227047, -0.004245717544108629, 0.010051819495856762, 0.012413514778017998, 0.0044231112115085125, -0.001786859706044197, 0.008868495933711529, -0.006601699162274599, 0.0027038941625505686, -0.0027478872798383236, 0.0022523500956594944, 0.0007698204135522246, -0.004692400805652142, -0.0015168145764619112, 0.0017982380231842399, -0.002815122250467539, 0.0007700680871494114, -0.013081111013889313, 0.0008176538394764066, 0.0022335373796522617, 0.014423622749745846, -9.950032836059108e-05, 0.0105265062302351, 7.181976252468303e-05, 0.007898448035120964, 0.0011987417237833142, 0.002033401280641556, 0.0028179867658764124, 0.002339483005926013, -0.00190124346408993, -0.0007112096063792706, -0.012903764843940735, 0.008134444244205952, -5.154773134563584e-06, 0.004430045373737812, -0.003406684147194028, 0.008300944231450558, -0.012997524812817574, 0.0026986077427864075, 0.013905026018619537, 0.002924807369709015, -0.013587740249931812, -0.0034076853189617395, -0.004224331118166447, 0.0019162786193192005, 0.012162018567323685, 0.012269973754882812, 0.0007855014409869909, 0.00011275608994765207, 0.012678837403655052, 0.005117946304380894, -0.007210182957351208, 0.00506677757948637, -0.002219157526269555, -0.0020393063314259052, -0.003860648488625884, 0.0012891519581899047, -0.0022106890100985765, 0.0047975084744393826, 0.006658249534666538, -0.003634659107774496, -0.00243614730425179, 0.0020021984819322824, -0.010817494243383408, 0.0017592021031305194, 0.0010590343736112118, 0.000961124780587852, 0.00580448005348444, -0.016311218962073326, -0.007724205031991005, -0.013338989578187466, -0.012617044150829315, 0.005214157048612833, -0.01310484018176794, 0.005362596362829208, 0.0025291091296821833, 0.01440743263810873, -0.012928251177072525, 0.00015575744328089058, -0.013158956542611122, 0.0033289724960923195, -0.012821737676858902, 0.002806557808071375, 0.0029256134293973446, 0.0005758365150541067, 0.015009589493274689, -0.002065592212602496, -0.0025631580501794815, 0.002283118199557066, 0.0015750069869682193, 0.0019712960347533226, -0.011939737014472485], [0.01628860831260681, -0.014117694459855556, 0.004520039074122906, -0.010398803278803825, 0.014601902104914188, -0.02039794996380806, -0.019550517201423645, -0.013953307643532753, -0.01271810382604599, -0.015511793084442616, -0.012134195305407047, -0.014268639497458935, 0.01604076474905014, 0.013253494165837765, 0.0045347679406404495, 0.01220370177179575, -0.015194375067949295, -0.018751850351691246, -0.015158047899603844, -0.01887654885649681, 0.003766612382605672, 0.004320615436881781, 0.017392460256814957, -0.01744222082197666, 0.005582875106483698, -0.004316995851695538, 0.005636571440845728, 0.006190188229084015, 0.020390953868627548, -0.0165843702852726, 0.004958671983331442, -0.004339414183050394, 0.008759899064898491, -0.0035881861113011837, -0.005570907145738602, -0.01814010925590992, 0.01589655689895153, -0.0034257820807397366, 0.003507038811221719, 0.0059641459956765175, 0.0174685250967741, -0.020362181589007378, 0.014584388583898544, -0.018111344426870346, 0.004211521241813898, -0.015855632722377777, 0.017791572958230972, 0.019331244751811028, -0.015416957437992096, -0.02410270646214485, 0.013838307000696659, -0.01604785956442356, 0.018467547371983528, -0.01460365392267704, 0.015875084325671196, 0.0164919663220644, 0.015404781326651573, -0.021169738844037056, 0.017200922593474388, 0.013522121123969555, 0.014428763650357723, 0.006753636058419943, 0.004894917830824852, 0.014357758685946465, 0.01641557365655899, -0.017308905720710754, -0.0054892124608159065, -0.017444703727960587, 0.017172537744045258, -0.004076593555510044, 0.019599677994847298, -0.004457387141883373, 0.01367264986038208, -0.005019200034439564, 0.01995975710451603, 0.015208182856440544, 0.0064309872686862946, -0.015382811427116394, -0.016792841255664825, -0.012322246097028255, 0.018461495637893677, 0.011769401840865612, 0.02010480687022209, 0.01679917424917221, 0.004874006379395723, 0.01912035420536995, 0.004885928705334663, -0.010736067779362202, 0.005669304635375738, -0.016648709774017334, -0.015392345376312733, -0.017280934378504753, 0.0071496013551950455, -0.009487136267125607, 0.01949463039636612, 0.016496822237968445, -0.014578781090676785, -0.004373369738459587, 0.004273557104170322, -0.010175158269703388, 0.01746491715312004, 0.004824046045541763, 0.020357847213745117, 0.01948506198823452, -0.006726365070790052, -0.016752997413277626, -0.0181649811565876, -0.02111540362238884, 0.012681597843766212, -0.004189861007034779, 0.006703977007418871, 0.004673577845096588, 0.01415190938860178, -0.005051990505307913, 0.015273463912308216, -0.015892885625362396, 0.0043336632661521435, -0.017437409609556198, 0.022145792841911316, 0.01315544918179512, 0.012633003294467926, 0.004982861690223217, -0.014556891284883022, -0.01757519505918026, 0.015931129455566406, 0.0059393965639173985, 0.015348786488175392, -0.004449752159416676], [-0.005838130135089159, 0.025975164026021957, -0.025917422026395798, 0.029022885486483574, -0.03367632254958153, 0.04397550970315933, 0.004794667474925518, 0.004455269780009985, 0.03732084855437279, 0.02673647366464138, 0.003907781559973955, 0.029759401455521584, -0.028331533074378967, -0.007967837154865265, -0.03968147933483124, -0.004721022676676512, 0.004084494896233082, 0.003921277355402708, 0.03442773595452309, 0.04977728798985481, -0.030666086822748184, -0.03630884364247322, -0.004553547594696283, 0.028650380671024323, -0.013133062049746513, 0.004649205598980188, -0.004827643744647503, -0.006535916589200497, -0.005694343242794275, 0.028272079303860664, -0.029804890975356102, 0.004804027266800404, -0.042516034096479416, 0.02210725098848343, 0.023230884224176407, 0.042165644466876984, -0.04267125576734543, 0.03250221908092499, -0.026944514364004135, -0.005835842806845903, -0.012993228621780872, 0.017448075115680695, -0.004444694612175226, 0.022687600925564766, -0.008942138403654099, 0.02631247043609619, -0.0321669727563858, -0.008758943527936935, 0.04114069044589996, 0.005541736725717783, -0.03323391452431679, 0.028472600504755974, -0.018613511696457863, 0.030110308900475502, -0.03268618509173393, -0.028017902746796608, -0.022864986211061478, 0.00554733956232667, -0.03152511268854141, -0.02403518185019493, -0.02230076678097248, -0.029233703389763832, -0.0350785106420517, -0.02710775099694729, -0.0038822200149297714, 0.004250858444720507, 0.03209970146417618, 0.031550243496894836, -0.005106307100504637, 0.04427456855773926, -0.03401584178209305, 0.043286167085170746, -0.024873211979866028, 0.0019021512707695365, -0.04225143790245056, -0.03794390335679054, -0.04168722778558731, 0.041331104934215546, 0.029916195198893547, 0.004094948060810566, -0.0055627888068556786, -0.037236619740724564, -0.04016079008579254, -0.026693694293498993, -0.04016494378447533, -0.033953625708818436, -0.03242627531290054, 0.01019807904958725, -0.025767847895622253, 0.026724431663751602, 0.04188264533877373, 0.04137950390577316, -0.028423607349395752, 0.015794619917869568, -0.02214597910642624, -0.017589528113603592, 0.003967677243053913, 0.005065158940851688, -0.010318778455257416, 0.01814519613981247, -0.03638029098510742, -0.038496509194374084, -0.036811091005802155, -0.02788253128528595, 0.02562880888581276, 0.032724276185035706, 0.036881569772958755, 0.04144391044974327, -0.02570803463459015, 0.043109361082315445, -0.03321076184511185, -0.011777663603425026, -0.013964136131107807, 0.032668422907590866, -0.03178858384490013, 0.0396544486284256, -0.03195025026798248, 0.0371253676712513, -0.02479412779211998, -0.02627076767385006, -0.036101941019296646, -0.0057664960622787476, 0.010590028017759323, 0.03496335819363594, -0.030080482363700867, -0.03650917485356331, -0.03788020461797714, 0.03128210827708244], [0.0038065097760409117, -0.016100240871310234, 0.016411039978265762, -0.0125696687027812, 0.00712619861587882, -0.004777211230248213, -0.004339383449405432, -0.015136459842324257, -0.0038927081041038036, -0.004561229143291712, -0.009429244324564934, -0.0024908811319619417, 0.018047237768769264, 0.0038809950929135084, 0.01962224580347538, 0.007526847999542952, -0.0022609031293541193, -0.018118059262633324, -0.004355339333415031, -0.00813937559723854, 0.01599966734647751, 0.004243351519107819, 0.003820741316303611, -0.003856037510558963, 0.01418221089988947, -0.012543493881821632, 0.007575243711471558, 0.01764788292348385, 0.01558716967701912, -0.012168636545538902, 0.011851578019559383, -0.013485414907336235, 0.019899945706129074, -0.003286609658971429, -0.01676679216325283, -0.01978110708296299, 0.018989387899637222, -0.01957196369767189, 0.014565235935151577, 0.0067724925465881824, 0.01753171719610691, -0.004402662627398968, 0.005347938276827335, -0.003859227290377021, 0.00415037339553237, -0.017264094203710556, 0.013186703436076641, 0.007157082203775644, -0.0047544557601213455, -0.006061849184334278, 0.01198045164346695, -0.011152618564665318, 0.018744507804512978, -0.0044959657825529575, 0.004274655133485794, 0.016105029731988907, 0.0211457759141922, -0.013096584938466549, 0.006659321021288633, 0.018083345144987106, 0.013988658785820007, 0.022754235193133354, 0.022085590288043022, 0.013027604669332504, 0.013022417202591896, -0.015398279763758183, -0.01903305947780609, -0.012142974883317947, 0.009229189716279507, -0.020435316488146782, 0.020969083532691002, -0.022577669471502304, 0.0032052770256996155, -0.014752739109098911, 0.021704308688640594, 0.0037878493312746286, 0.015059899538755417, -0.004476290196180344, -0.012019927613437176, -0.0036688498221337795, 0.005532320123165846, 0.014352877624332905, 0.0047950753942132, 0.021577661857008934, 0.005579099059104919, 0.018203193321824074, 0.003986760042607784, -0.012372302822768688, 0.00929766520857811, -0.005844746250659227, -0.018386295065283775, -0.022534333169460297, 0.005133971571922302, -0.010162964463233948, 0.010349610820412636, 0.018107842653989792, -0.013414439745247364, -0.010235226713120937, 0.013114961795508862, -0.014901074580848217, 0.015155757777392864, 0.02065688744187355, 0.0047563533298671246, 0.012747724540531635, -0.01676448993384838, -0.02245798520743847, -0.014409900642931461, -0.02146640606224537, 0.01720009744167328, -0.017454281449317932, 0.003935512155294418, 0.016061510890722275, 0.003175421617925167, -0.004275490064173937, 0.018701910972595215, -0.0041067637503147125, 0.005047731101512909, -0.004076214972883463, 0.005516470409929752, 0.017719300463795662, 0.0014846792910248041, 0.005315628368407488, -0.005081254988908768, -0.010854337364435196, 0.01444920338690281, 0.01191258616745472, 0.0212775357067585, -0.010375459678471088], [-0.01093269046396017, 0.010923715308308601, -0.002903055865317583, 0.008854103274643421, -0.0008742791251279414, 0.0035151366610080004, 0.003098373766988516, 0.008444943465292454, 0.005656028166413307, 0.004866729490458965, 0.010607002303004265, 0.004523435607552528, -0.012117456644773483, -0.003387018106877804, -0.005327720195055008, -0.0008181302109733224, 0.005840558558702469, 0.007661968935281038, 0.009260382503271103, 0.0031505655497312546, -0.010459886863827705, -0.004990607500076294, -0.0035993752535432577, 0.009054412133991718, -0.004036919213831425, 0.010911860503256321, -0.003895618487149477, -0.005562089383602142, -0.011703342199325562, 0.011510534211993217, -0.005926779005676508, 0.0069409701973199844, -0.0030695132445544004, 0.011038051918148994, 0.002685629529878497, 0.008902527391910553, -0.0063839321956038475, 0.011596466414630413, -0.011521367356181145, -0.009656652808189392, -0.005355449393391609, 0.012842302210628986, -0.006916007958352566, 0.003600636264309287, -0.0035862138029187918, 0.007796179968863726, -0.009748296812176704, -0.004249884281307459, 0.008012254722416401, 0.011472422629594803, -0.003287622006610036, 0.003175264922901988, -0.010765896178781986, 0.0052612703293561935, -0.009826836176216602, -0.0031952480785548687, -0.002215335611253977, 0.011133805848658085, -0.007758616004139185, -0.0030611292459070683, -0.010801643133163452, -0.00850010197609663, -0.005606402177363634, -0.010499715805053711, -0.0037219934165477753, 0.003301207209005952, 0.003499330021440983, 0.011478211730718613, -0.0033737928606569767, 0.0031175855547189713, -0.004019561223685741, 0.005310266278684139, -0.003321155207231641, 0.003741717431694269, -0.004730852320790291, -0.0008289890247397125, -0.006380047183483839, 0.0071127768605947495, 0.007561472710222006, 0.01105049904435873, -0.011454684659838676, -0.007218922022730112, -0.007742196787148714, -0.0033347285352647305, -0.0036832077894359827, -0.005942752584815025, -0.007222000043839216, 0.0023494435008615255, -0.004657857585698366, 0.011178004555404186, 0.011379924602806568, 0.0032349100802093744, -0.012919611297547817, 0.011882837861776352, -0.003464755369350314, -0.011418369598686695, 0.003254897426813841, 0.014408539980649948, -0.008710026741027832, 0.006771849934011698, -0.010221509262919426, -0.009043417870998383, -0.003702696179971099, -0.010204579681158066, 0.0013110708678141236, 0.00325417541898787, 0.0006410723435692489, 0.0034712916240096092, -0.0062417155131697655, 0.0009406530298292637, -0.008966135792434216, -0.0036036476958543062, -0.001981722190976143, 0.005599478259682655, -0.003631570842117071, 0.0038290726952254772, -0.0035542077384889126, 0.010605398565530777, -0.0035007151309400797, -0.0031141277868300676, -0.008331488817930222, -0.0046654995530843735, 0.0029892318416386843, 0.008169209584593773, -0.012644405476748943, -0.011408481746912003, -0.0022012311965227127, 0.00576720992103219], [-0.008164936676621437, 0.003900214098393917, -0.0038061130326241255, 0.00854630395770073, -0.003859129035845399, 0.005876781884580851, 0.006118347868323326, 0.003540801117196679, 0.0038167419843375683, 0.003426716662943363, 0.012257126159965992, 0.0033010065089911222, -0.004822120536118746, -0.003310737432911992, -0.008982122875750065, -0.005393341649323702, 0.004697631578892469, 0.0032265083864331245, 0.010462062433362007, 0.0035142903216183186, -0.010836509987711906, -0.009497938677668571, -0.00916929543018341, 0.01108891423791647, -0.011802748776972294, 0.006497629452496767, -0.006424689199775457, -0.010144422762095928, -0.005902710370719433, 0.0038661907892674208, -0.005290272645652294, 0.006187113001942635, -0.004113393370062113, 0.010575568303465843, 0.007788687013089657, 0.0034757470712065697, -0.0046782419085502625, 0.0034283362329006195, -0.005272014066576958, -0.009438997134566307, -0.00533013790845871, 0.004177106078714132, -0.013274027965962887, 0.008542405441403389, -0.0037385153118520975, 0.003404486458748579, -0.009108598344027996, -0.006008745636790991, 0.007675532251596451, 0.004733700305223465, -0.007270309142768383, 0.009550387039780617, -0.008777002803981304, 0.003980094101279974, -0.007901674136519432, -0.003606577403843403, -0.0035521050449460745, 0.009586063213646412, -0.003387992735952139, -0.006936511490494013, -0.009480076842010021, -0.009591476991772652, -0.004043807275593281, -0.003533350769430399, -0.008682234212756157, 0.0037629578728228807, 0.00901211891323328, 0.010578262619674206, -0.0069047254510223866, 0.005736230406910181, -0.007840747013688087, 0.009145811200141907, -0.008906669914722443, 0.006543850060552359, -0.0058211819268763065, -0.005487548187375069, -0.00751413032412529, 0.007659160997718573, 0.009910104796290398, 0.010290836915373802, -0.0038863173685967922, -0.006315502803772688, -0.004238330293446779, -0.009238079190254211, -0.005841933656483889, -0.008082138374447823, -0.00288388691842556, 0.002537505468353629, -0.004990865010768175, 0.0071616098284721375, 0.009907716885209084, 0.006198156159371138, -0.0038282107561826706, 0.003280076663941145, -0.008500571362674236, -0.009416393004357815, 0.007465428672730923, 0.0037017615977674723, -0.0029903848189860582, 0.00904176477342844, -0.003480693558230996, -0.0061634075827896595, -0.006957022938877344, -0.010387004353106022, 0.004520502872765064, 0.005329688545316458, 0.0030539592262357473, 0.003988670185208321, -0.007105761673301458, 0.004673915449529886, -0.006727543659508228, -0.007813590578734875, -0.009094365872442722, 0.0036680237390100956, -0.009807659313082695, 0.004096510820090771, -0.00872779916971922, 0.008789006620645523, -0.007148997392505407, -0.007951650768518448, -0.004815435502678156, -0.007015039678663015, 0.005058823619037867, 0.008334395475685596, -0.007620588410645723, -0.004167900420725346, -0.0031244235578924417, 0.010009506717324257], [0.0051903133280575275, -0.012991056777536869, 0.0028293749783188105, -0.005270271562039852, 0.005003918893635273, -0.008342336863279343, -0.013109118677675724, -0.004472728352993727, -0.015357286669313908, -0.011105583049356937, -0.00466745113953948, -0.011820112355053425, 0.011233711615204811, 0.0031700057443231344, 0.010645871981978416, 0.00713733397424221, -0.014487571083009243, -0.011673500761389732, -0.013524847105145454, -0.007805947680026293, 0.012757631950080395, 0.013465111143887043, 0.0041122836992144585, -0.015231303870677948, 0.011375832371413708, -0.01385939959436655, 0.016966918483376503, 0.004985747393220663, 0.004032385069876909, -0.014236871153116226, 0.012136265635490417, -0.011969163082540035, 0.009545325301587582, -0.01810557395219803, -0.00988852046430111, -0.013730192556977272, 0.010397547855973244, -0.01258564181625843, 0.003846236038953066, 0.005650550592690706, 0.013854390010237694, -0.010363960638642311, 0.011207486502826214, -0.003921428229659796, 0.013147569261491299, -0.00888216681778431, 0.014176507480442524, 0.013284648768603802, -0.0036018891260027885, -0.013994480483233929, 0.0142563721165061, -0.01468238141387701, 0.009603613056242466, -0.00674277450889349, 0.0038493371102958918, 0.011861279606819153, 0.006376298144459724, -0.0035060851369053125, 0.011322662234306335, 0.0099038602784276, 0.01431194692850113, 0.00970577634871006, 0.010347550734877586, 0.013319553807377815, 0.0162709578871727, -0.0037108317483216524, -0.011773457750678062, -0.0056854188442230225, 0.0083730174228549, -0.0035533166956156492, 0.00867426861077547, -0.007748668547719717, 0.013821193017065525, -0.004444946069270372, 0.009427453391253948, 0.00935497134923935, 0.0040077040903270245, -0.0102155776694417, -0.015939507633447647, -0.00376207591034472, 0.004616172052919865, 0.011158829554915428, 0.0037624307442456484, 0.0072860210202634335, 0.003669754369184375, 0.014771129004657269, 0.00429111160337925, -0.005178404040634632, 0.009500068612396717, -0.015468818135559559, -0.013429053127765656, -0.007156806066632271, 0.01308044046163559, -0.0035878759808838367, 0.01408504880964756, 0.013123729266226292, -0.013487940654158592, -0.015316870994865894, 0.0037155793979763985, -0.011160635389387608, 0.014779729768633842, 0.010572544299066067, 0.010083719156682491, 0.01591658592224121, -0.009583787061274052, -0.007776790298521519, -0.008861943148076534, -0.008994251489639282, 0.012892762199044228, -0.007759231608361006, 0.015556483529508114, 0.004713976290076971, 0.011970057152211666, -0.01290671993046999, 0.016690481454133987, -0.011901697143912315, 0.009484058246016502, -0.010918308980762959, 0.013395782560110092, 0.011846254579722881, 0.012860167771577835, 0.005064468365162611, -0.007124422118067741, -0.013651279732584953, 0.012352661229670048, 0.013757752254605293, 0.008015403524041176, -0.0036675583105534315], [-0.015412653796374798, 0.012372562661767006, -0.003713552374392748, 0.011388076469302177, -0.0036806596908718348, 0.0037349946796894073, 0.012649701908230782, 0.01279051136225462, 0.015742206946015358, 0.011892798356711864, 0.01260172389447689, 0.0043916041031479836, -0.013117342256009579, -0.013223312795162201, -0.01093803346157074, -0.004596404265612364, 0.012879302725195885, 0.012615037150681019, 0.010482252575457096, 0.011599709279835224, -0.01336628943681717, -0.007368669845163822, -0.005771032068878412, 0.015182492323219776, -0.01324530877172947, 0.013964052312076092, -0.004384222906082869, -0.015141475014388561, -0.00510604539886117, 0.004841900430619717, -0.013555441983044147, 0.0121987359598279, -0.012781629338860512, 0.016796402633190155, 0.004928681533783674, 0.0037671993486583233, -0.012392000295221806, 0.010564425960183144, -0.014866857789456844, -0.011666694656014442, -0.013516226783394814, 0.008553806692361832, -0.01093914732336998, 0.014007759280502796, -0.005590279120951891, 0.004282220266759396, -0.012168806977570057, -0.015127159655094147, 0.01202904898673296, 0.003555537899956107, -0.01645205169916153, 0.012903465889394283, -0.0136483209207654, 0.005147946532815695, -0.010538249276578426, -0.010885047726333141, -0.006721381563693285, 0.015832168981432915, -0.012896750122308731, -0.000758467533160001, -0.00456028850749135, -0.004522379487752914, -0.007501619402319193, -0.004202643875032663, -0.01582917757332325, 0.015044479630887508, 0.013674421235918999, 0.013922405429184437, -0.009131171740591526, 0.00559510663151741, -0.004720435477793217, 0.01166859082877636, -0.012365941889584064, 0.013691660948097706, -0.00457024248316884, -0.006461307872086763, -0.005806440487504005, 0.011721924878656864, 0.013750393874943256, 0.011676914058625698, -0.004625056404620409, -0.010361905209720135, -0.011501734144985676, -0.008989853784441948, -0.007981053553521633, -0.008760160766541958, -0.01370138768106699, 0.01267071533948183, -0.01564490981400013, 0.01628299243748188, 0.011820299550890923, 0.003945104777812958, -0.015915466472506523, 0.016589129343628883, -0.01309519074857235, -0.016178172081708908, 0.005742382258176804, 0.010523492470383644, -0.015152597799897194, 0.008717682212591171, -0.013333281502127647, -0.013605378568172455, -0.011753981932997704, -0.013857338577508926, 0.006842916365712881, 0.0030583441257476807, 0.008438837714493275, 0.013810185715556145, -0.013333884067833424, 0.008226130157709122, -0.012840386480093002, -0.004469770472496748, -0.0035514528863132, 0.004497726913541555, -0.016277166083455086, 0.01367945596575737, -0.015173583291471004, 0.014623919501900673, -0.00506250374019146, -0.011670131236314774, -0.015484857372939587, -0.004833882208913565, 0.007911520078778267, 0.012825111858546734, -0.01392552349716425, -0.0152556411921978, -0.0038479487411677837, 0.006931942421942949], [-0.0025565887335687876, 0.005119576118886471, -0.011803371831774712, 0.005329200532287359, -0.005397785920649767, 0.014712821692228317, 0.0049508907832205296, 0.007371783256530762, 0.005568839609622955, 0.010828481987118721, 0.005410359241068363, 0.011544853448867798, -0.01241493783891201, -0.005152883939445019, -0.006277529057115316, -0.007098813075572252, 0.005455044098198414, 0.0044877310283482075, 0.01248942967504263, 0.005835492163896561, -0.00570909958332777, -0.006000622175633907, -0.0038042834494262934, 0.004909696988761425, -0.0028948835097253323, 0.005676939617842436, -0.004599787760525942, -0.002441390650346875, -0.008093328215181828, 0.0021213951986283064, -0.007132771424949169, 0.006411230191588402, -0.010541174560785294, 0.006354279816150665, 0.007700480055063963, 0.005961440037935972, -0.005915349815040827, 0.004528088495135307, -0.007216653786599636, -0.002859986387193203, -0.009762214496731758, 0.01253535132855177, -0.00517625454813242, 0.002815245883539319, -0.0051004039123654366, 0.011427581310272217, -0.005676570814102888, -0.007026251405477524, 0.0029513672925531864, 0.006363759282976389, -0.004828167147934437, 0.008191492408514023, -0.006005994975566864, 0.003973518963903189, -0.003193892305716872, -0.005442647263407707, -0.007809140253812075, 0.010169021785259247, -0.006855222396552563, -0.006219336297363043, -0.0053697810508310795, -0.0041771624237298965, -0.006253163330256939, -0.0060307034291327, -0.0030077011324465275, 0.008856646716594696, 0.002717492403462529, 0.00640108622610569, -0.003851433517411351, 0.008418643847107887, -0.007992678321897984, 0.006093749776482582, -0.00676561938598752, 0.002635249635204673, -0.005361875984817743, -0.006047344300895929, -0.013481435365974903, 0.011698720045387745, 0.005385295022279024, 0.007172096986323595, -0.003737853141501546, -0.01009954884648323, -0.0073471046052873135, -0.008862331509590149, -0.00438799848780036, -0.0036616057623177767, -0.013931632973253727, 0.020165996626019478, -0.009665854275226593, 0.006855187937617302, 0.006647143512964249, 0.007847918197512627, -0.012752854265272617, 0.0052437493577599525, -0.0026534423232078552, -0.0029866157565265894, 0.00483132665976882, 0.004368956666439772, -0.007156682200729847, 0.007052558474242687, -0.004997297655791044, -0.006080613937228918, -0.016061995178461075, -0.0056832944974303246, 0.007122766226530075, 0.004813528154045343, 0.0033177207224071026, 0.006498329341411591, -0.010761795565485954, 0.0029402668587863445, -0.005079191643744707, -0.005718488711863756, -0.006558853201568127, 0.009908956475555897, -0.005364435259252787, 0.004902326501905918, -0.01033006701618433, 0.0073624663054943085, -0.005484739318490028, -0.0025677247904241085, -0.005208449903875589, -0.01126545574516058, 0.0068737659603357315, 0.0026257524732500315, -0.005079243797808886, -0.008776760660111904, -0.003034964669495821, 0.005535355303436518], [-0.009853653609752655, 0.0038813971914350986, -0.0024285432882606983, 0.00953812524676323, -0.007059580646455288, 0.004575247876346111, 0.008395466022193432, 0.009387122467160225, 0.010624193586409092, 0.006632565520703793, 0.004365531262010336, 0.01133211050182581, -0.003998585976660252, -0.011510591022670269, -0.009623076766729355, -0.008904442191123962, 0.010232564061880112, 0.0032286755740642548, 0.01202569343149662, 0.009340186603367329, -0.009637951850891113, -0.01021406427025795, -0.011290464550256729, 0.0035254766698926687, -0.012098251841962337, 0.0042272163555026054, -0.010417494922876358, -0.009856359101831913, -0.0038832006976008415, 0.010486581362783909, -0.009149156510829926, 0.004543555900454521, -0.004091995768249035, 0.011157630942761898, 0.00427671242505312, 0.0036993296816945076, -0.002774790395051241, 0.010236702859401703, -0.0036324141547083855, -0.011102958582341671, -0.005027191247791052, 0.004139746073633432, -0.013453605584800243, 0.011931088753044605, -0.00988142378628254, 0.0039226943626999855, -0.008844194002449512, -0.009026451967656612, 0.004131672438234091, 0.012875101529061794, -0.01242015790194273, 0.0034532882273197174, -0.004197640810161829, 0.0065759653225541115, -0.006950918585062027, -0.003942159470170736, -0.00841391459107399, 0.013628553599119186, -0.00882679596543312, -0.0054181721061468124, -0.0033466985914856195, -0.005240613128989935, -0.009843713603913784, -0.00415308540686965, -0.011938890442252159, 0.00899379700422287, 0.009306379593908787, 0.01159457303583622, -0.0034782567527145147, 0.008117614313960075, -0.009989285841584206, 0.010726111009716988, -0.010310174897313118, 0.009764028713107109, -0.003379214322194457, -0.005317116156220436, -0.004108525812625885, 0.005582848098129034, 0.002850875025615096, 0.01116944383829832, -0.00419475045055151, -0.00363730825483799, -0.008110659196972847, -0.008407434448599815, -0.008083449676632881, -0.004166691564023495, -0.0034254719503223896, 0.008058944717049599, -0.00411229208111763, 0.012057746760547161, 0.010204179212450981, 0.00494617922231555, -0.004259217996150255, 0.0108909010887146, -0.012582987546920776, -0.010263007134199142, 0.009715773165225983, 0.0033169870730489492, -0.0035813450813293457, 0.010052830912172794, -0.00977231003344059, -0.01193685457110405, -0.004000798333436251, -0.011851765215396881, 0.00470639718696475, 0.010503015480935574, 0.004632466472685337, 0.007375891786068678, -0.011622837744653225, 0.00632950384169817, -0.009963109157979488, -0.01287386566400528, -0.008172987028956413, 0.00888756848871708, -0.011066608130931854, 0.007973098196089268, -0.01098206639289856, 0.010873857885599136, -0.003744915360584855, -0.010474823415279388, -0.008706306107342243, -0.0067888121120631695, 0.0067091346718370914, 0.0036218890454620123, -0.012105659581720829, -0.011541331186890602, -0.009076662361621857, 0.008558920584619045], [0.008809118531644344, -0.01233043521642685, 0.0017485588323324919, -0.01109481230378151, 0.005050248000770807, -0.004113991744816303, -0.011152662336826324, -0.011179501190781593, -0.009868279099464417, -0.008412091061472893, -0.012190870940685272, -0.0031716767698526382, 0.010347702540457249, 0.009943066164851189, 0.0035441587679088116, 0.0009817705722525716, -0.010557505302131176, -0.006387798115611076, -0.0117911072447896, -0.007275140378624201, 0.00923564750701189, 0.003916874062269926, 0.012614227831363678, -0.010585757903754711, 0.009644574485719204, -0.009642275050282478, 0.006061496678739786, 0.01004801969975233, 0.008520173840224743, -0.012800014577805996, 0.007801292464137077, -0.003415914950892329, 0.006920287851244211, -0.003735617268830538, -0.006404383108019829, -0.01045573316514492, 0.005127010401338339, -0.010788626037538052, 0.011629619635641575, 0.010314811952412128, 0.004878917243331671, -0.00825582630932331, 0.011371567845344543, -0.010178509168326855, 0.007696857210248709, -0.006826956756412983, 0.011373134329915047, 0.0036629007663577795, -0.008666140027344227, -0.010005252435803413, 0.0033818583469837904, -0.011404800228774548, 0.003927492070943117, -0.004524555988609791, 0.008313753642141819, 0.008418918587267399, 0.007809492759406567, -0.013403655961155891, 0.00915973074734211, 0.00873928889632225, 0.00829237885773182, 0.009830407798290253, 0.003915329929441214, 0.01279005128890276, 0.012482045218348503, -0.009490294381976128, -0.009807695634663105, -0.003540770383551717, 0.0038321760948747396, -0.0038085668347775936, 0.008995236828923225, -0.01003312785178423, 0.011692630127072334, -0.003439656924456358, 0.006391345988959074, 0.00569056486710906, 0.006716369651257992, -0.0039011421613395214, -0.008719587698578835, -0.011428141966462135, 0.007793324533849955, 0.005096548702567816, 0.0034356280229985714, 0.007712519261986017, 0.00701427087187767, 0.011331220157444477, 0.0081218546256423, -0.008524416945874691, 0.004370399750769138, -0.009097740985453129, -0.008497795090079308, -0.0057884687557816505, 0.003926498349756002, -0.01250449474900961, 0.011941816657781601, 0.004006779287010431, -0.003453004639595747, -0.010796983726322651, 0.010842309333384037, -0.008602580055594444, 0.009816433303058147, 0.010897169820964336, 0.00886122789233923, 0.011910579167306423, -0.002104793442413211, -0.005589830689132214, -0.006686229258775711, -0.010247291997075081, 0.003436930710449815, -0.004068317357450724, 0.010998575016856194, 0.010726965963840485, 0.0037069013342261314, -0.009880319237709045, 0.009429802186787128, -0.009163646958768368, 0.003877955721691251, -0.008177735842764378, 0.004421461373567581, 0.0029733942355960608, 0.003564735408872366, 0.009558357298374176, -0.008662204258143902, -0.004121158737689257, 0.011653829365968704, 0.01015621330589056, 0.0027195699512958527, -0.003483004402369261], [0.004055369179695845, -0.0029183083679527044, 0.012957295402884483, -0.004865266848355532, 0.0030269769486039877, -0.013789506629109383, -0.0015299104852601886, -0.003417894011363387, -0.00352410483174026, -0.0035651996731758118, -0.013191343285143375, -0.004100992809981108, 0.0057396008633077145, 0.003196052275598049, 0.0009736251668073237, 0.011634238995611668, -0.011391179636120796, -0.002738265786319971, -0.004363500513136387, -0.003308940678834915, 0.0028178878128528595, 0.003534650430083275, 0.007115375716239214, -0.002668609144166112, 0.005241475999355316, -0.0058382065035402775, 0.004006518982350826, 0.004360878840088844, 0.002539330627769232, -0.003120799781754613, 0.002582481363788247, -0.003794210497289896, 0.0013619178207591176, -0.005195186007767916, -0.000899171398486942, -0.001142784021794796, 0.0032445292454212904, -0.002988248597830534, 0.007549460511654615, 0.012891142629086971, 0.0008562020375393331, -0.0024050625506788492, 0.011460029520094395, -0.002269807970151305, 0.002563381101936102, -0.004323508590459824, 0.0040580276399850845, 0.0038472546730190516, -0.0012738228542730212, -0.0031096343882381916, 0.0033152049873024225, -0.004596135579049587, 0.0023438651114702225, -0.0032265910413116217, 0.004213639535009861, 0.005724339280277491, 0.014456079341471195, -0.0035650040954351425, 0.0030346233397722244, 0.0036490201018750668, 0.00680231349542737, 0.0005981432623229921, 0.0008956392994150519, 0.0027005502488464117, 0.006274718791246414, -0.0023101982660591602, -0.002838835120201111, -0.004922106862068176, 0.002417011419311166, -0.0019890868570655584, 0.004373651929199696, -0.0017091959016397595, 0.008943905122578144, -0.0034828530624508858, 0.0005866036517545581, 0.0008037150255404413, 0.015172899700701237, -0.0006666051922366023, -0.008918704465031624, -0.0055207740515470505, 0.002434931229799986, 0.000819986336864531, 0.0024561635218560696, 0.00352949439547956, 0.0025033531710505486, 0.0020414458122104406, 0.00945985596626997, -0.002478318754583597, 0.0022700298577547073, -0.005513627547770739, -0.0017178227426484227, -0.000984553131274879, 0.0026550821494311094, -0.0031381717417389154, 0.005631647072732449, 0.003246197011321783, -0.0028056614100933075, -0.0059253196232020855, 0.0029267226345837116, -0.010258610360324383, 0.006737414747476578, 0.004110111854970455, 0.0036364933475852013, 0.0031903802882879972, -0.007086298428475857, -0.0005231412942521274, -0.0005117899854667485, -0.003311933483928442, 0.005772664677351713, -0.0031173808965831995, 0.00302031054161489, 0.005614385008811951, 0.0027445603627711535, -0.004644653759896755, 0.004150985740125179, -0.0034893120173364878, 0.0016805938212201, -0.0022793354000896215, 0.003065861528739333, 0.004201453644782305, 0.002079355763271451, 0.015659136697649956, -0.0008991699432954192, -0.003425012109801173, 0.006507485173642635, 0.00311062834225595, 0.01234270166605711, -0.0035594564396888018], [-0.014067405834794044, 0.013787084259092808, -0.0020486819557845592, 0.004371562972664833, -0.006044911686331034, 0.003959017340093851, 0.016467778012156487, 0.014051524922251701, 0.010363691486418247, 0.009840130805969238, 0.004165674559772015, 0.015626151114702225, -0.013918234035372734, -0.010612161830067635, -0.013144570402801037, -0.004428536165505648, 0.012287317775189877, 0.012769151479005814, 0.012963829562067986, 0.011713714338839054, -0.01357210986316204, -0.011787458322942257, -0.009113217703998089, 0.017494523897767067, -0.007836694829165936, 0.01063844095915556, -0.011369227431714535, -0.012673301622271538, -0.004230566322803497, 0.015135222114622593, -0.005773554556071758, 0.010620631277561188, -0.015486911870539188, 0.003420253749936819, 0.010959695093333721, 0.0066623566672205925, -0.0076014334335923195, 0.013497217558324337, -0.013790477998554707, -0.01041822973638773, -0.0036837717052549124, 0.014500883407890797, -0.003748868824914098, 0.0160245131701231, -0.011692766100168228, 0.006609648931771517, -0.012412143871188164, -0.014261696487665176, 0.004045539535582066, 0.016939328983426094, -0.016474509611725807, 0.015754029154777527, -0.014204243198037148, 0.005696693900972605, -0.00956841092556715, -0.003904688637703657, -0.010051658377051353, 0.013451448641717434, -0.006690334994345903, -0.006806474179029465, -0.013984736986458302, -0.011623542755842209, -0.013424595817923546, -0.01643620990216732, -0.01697581820189953, 0.00393412820994854, 0.0036731883883476257, 0.015327084809541702, -0.006686034146696329, 0.004159503150731325, -0.014832835644483566, 0.01295518409460783, -0.012872191146016121, 0.009712673723697662, -0.0036438540555536747, -0.007964177057147026, -0.012377435341477394, 0.0042891246266663074, 0.003799593774601817, 0.014344293624162674, -0.014796593226492405, -0.010474061593413353, -0.004103965125977993, -0.006334315985441208, -0.014071134850382805, -0.011894120834767818, -0.011433535255491734, 0.009746343828737736, -0.008954607881605625, 0.01119265053421259, 0.013576631434261799, 0.008325205184519291, -0.013786450028419495, 0.016884390264749527, -0.01565880887210369, -0.016940120607614517, 0.012498005293309689, 0.016220808029174805, -0.004578054416924715, 0.008129059337079525, -0.011151256039738655, -0.01534085813909769, -0.004159239586442709, -0.017446182668209076, 0.006354685872793198, 0.012152733281254768, 0.003952442202717066, 0.010805313475430012, -0.013061338104307652, 0.009869438596069813, -0.012142668478190899, -0.012280353344976902, -0.0076833744533360004, 0.015100281685590744, -0.004143847618252039, 0.01319901179522276, -0.004080727696418762, 0.012105436995625496, -0.018858229741454124, -0.014453274197876453, -0.012341518886387348, -0.008584050461649895, 0.007180254906415939, 0.0033511347137391567, -0.014035897329449654, -0.014181146398186684, -0.0033918432891368866, 0.014836776070296764], [0.014845005236566067, -0.01363530196249485, 0.005036060232669115, -0.015399152413010597, 0.004222840536385775, -0.008965077809989452, -0.003711163764819503, -0.014615636318922043, -0.004492837004363537, -0.0130991255864501, -0.004408413078635931, -0.015081794932484627, 0.014249328523874283, 0.01293499767780304, 0.0042851935140788555, 0.007283505983650684, -0.00352261820808053, -0.012881563045084476, -0.0040061138570308685, -0.016300426796078682, 0.015735797584056854, 0.004396094474941492, 0.014878509566187859, -0.008624305948615074, 0.011600540019571781, -0.016354035586118698, 0.01811751164495945, 0.005084983538836241, 0.0037662058603018522, -0.014430242590606213, 0.0138319693505764, -0.004159093834459782, 0.013145019300282001, -0.018701734021306038, -0.004868279676884413, -0.014972626231610775, 0.012250697240233421, -0.01265663094818592, 0.014024361036717892, 0.01172943040728569, 0.003631793661043048, -0.009586111642420292, 0.013586086221039295, -0.014846572652459145, 0.01699850894510746, -0.0075380923226475716, 0.0032639873679727316, 0.01873154565691948, -0.008580989204347134, -0.016940070316195488, 0.008427354507148266, -0.015979675576090813, 0.015455704182386398, -0.009625039994716644, 0.004147933330386877, 0.007912514731287956, 0.004197532311081886, -0.008943945169448853, 0.014328853227198124, 0.005085016135126352, 0.0029296395368874073, 0.011478439904749393, 0.005022155120968819, 0.013326218351721764, 0.005410444922745228, -0.015128051862120628, -0.0036166897043585777, -0.004067329689860344, 0.012175390496850014, -0.0039774649776518345, 0.013963058590888977, -0.009241082705557346, 0.015043939463794231, -0.014133907854557037, 0.004885280039161444, 0.010126559063792229, 0.007717928383499384, -0.0044748433865606785, -0.01339398231357336, -0.0036623531486839056, 0.012885707430541515, 0.004145433194935322, 0.010645406320691109, 0.009173971600830555, 0.009143243543803692, 0.009003298357129097, 0.016807442530989647, -0.01209211815148592, 0.011228933930397034, -0.016440613195300102, -0.01178754959255457, -0.007749801501631737, 0.015308981761336327, -0.003885657759383321, 0.017284007743000984, 0.015293609350919724, -0.014235510490834713, -0.012255419045686722, 0.003417939879000187, -0.01084901299327612, 0.01578356884419918, 0.01200280711054802, 0.00432939175516367, 0.014691522344946861, -0.003938249312341213, -0.002880420768633485, -0.009165107272565365, -0.01125411968678236, 0.003607554594054818, -0.012898379936814308, 0.013238447718322277, 0.008404875174164772, 0.01031402125954628, -0.004447064362466335, 0.014621395617723465, -0.013471328653395176, 0.013734276406466961, -0.00383547181263566, 0.003881368087604642, 0.014939548447728157, 0.01787610352039337, 0.010541695170104504, -0.010702116414904594, -0.01401545014232397, 0.01602954976260662, 0.014594709500670433, 0.011812236160039902, -0.004053778946399689], [-0.007491178344935179, 0.028099210932850838, -0.017057718709111214, 0.024663129821419716, -0.0201201681047678, 0.02831590175628662, 0.03247951343655586, 0.02308608777821064, 0.02629527635872364, 0.023998988792300224, 0.014403690584003925, 0.0036030737683176994, -0.020721429958939552, -0.0043771169148385525, -0.02953597530722618, -0.011338834650814533, 0.004017113242298365, 0.027289798483252525, 0.013836733065545559, 0.0374695286154747, -0.02451237663626671, -0.0046511562541127205, -0.02296927571296692, 0.02511495165526867, -0.005226803943514824, 0.02347632683813572, -0.007122138049453497, -0.00469208462163806, -0.03069893829524517, 0.024393221363425255, -0.007273029536008835, 0.004508320242166519, -0.004952731542289257, 0.003460270818322897, 0.007943594828248024, 0.02603919617831707, -0.03005039691925049, 0.02406042441725731, -0.023272210732102394, -0.009097795002162457, -0.030061399564146996, 0.027316145598888397, -0.0055781276896595955, 0.0042319889180362225, -0.032708629965782166, 0.018919894471764565, -0.027902251109480858, -0.0339113287627697, 0.029019830748438835, 0.025334782898426056, -0.025063440203666687, 0.026713844388723373, -0.015734827145934105, 0.020849963650107384, -0.024974720552563667, -0.021580064669251442, -0.005147360265254974, 0.024133360013365746, -0.006344304885715246, -0.019848262891173363, -0.023340029641985893, -0.005631683394312859, -0.02608845941722393, -0.023410893976688385, -0.003873515408486128, 0.026551207527518272, 0.004165614489465952, 0.028075629845261574, -0.005632162094116211, 0.030673770233988762, -0.004683498293161392, 0.030585944652557373, -0.02160959132015705, 0.02776557393372059, -0.03028736263513565, -0.0177821833640337, -0.027352260425686836, 0.010010196827352047, 0.02347821556031704, 0.02192712016403675, -0.00892001111060381, -0.004633162636309862, -0.004549542907625437, -0.018971307203173637, -0.0292232483625412, -0.026845375075936317, -0.024274654686450958, 0.009540227241814137, -0.00527312234044075, 0.02361166663467884, 0.02969188429415226, 0.026443637907505035, -0.021740566939115524, 0.005456211045384407, -0.020863838493824005, -0.02227739989757538, 0.027377434074878693, 0.02100297622382641, -0.004074505064636469, 0.010066533461213112, -0.026051076129078865, -0.005020061042159796, -0.004750612657517195, -0.029890455305576324, 0.0224660262465477, 0.0052330382168293, 0.029997268691658974, 0.03314419835805893, -0.02052151784300804, 0.004332868382334709, -0.026571298018097878, -0.025417029857635498, -0.005260852165520191, 0.026079511269927025, -0.00733456714078784, 0.02719837985932827, -0.027430320158600807, 0.028752116486430168, -0.00944058783352375, -0.020244024693965912, -0.03209129348397255, -0.0055663492530584335, 0.01995709538459778, 0.029250074177980423, -0.026132799685001373, -0.025333216413855553, -0.005625017452985048, 0.02467082440853119], [0.02777995727956295, -0.027134781703352928, 0.019350575283169746, -0.028012877330183983, 0.02706325054168701, -0.030724413692951202, -0.041812632232904434, -0.02479555830359459, -0.02895358018577099, -0.025380728766322136, -0.01718400977551937, -0.025486204773187637, 0.0041618309915065765, 0.03288209065794945, 0.032306473702192307, 0.02149371989071369, -0.04583155736327171, -0.026416193693876266, -0.029549721628427505, -0.0050126854330301285, 0.023387327790260315, 0.028059786185622215, 0.004228879697620869, -0.017966046929359436, 0.026511777192354202, -0.024929439648985863, 0.03314848989248276, 0.031947530806064606, 0.007507339119911194, -0.004717802628874779, 0.006955103483051062, -0.03523755446076393, 0.004881764762103558, -0.03784146532416344, -0.026194555684924126, -0.005980481393635273, 0.004917650017887354, -0.021176068112254143, 0.0037419404834508896, 0.01551080122590065, 0.03279809653759003, -0.016514886170625687, 0.024573100730776787, -0.026522593572735786, 0.03513297438621521, -0.021527079865336418, 0.005772341042757034, 0.00542932003736496, -0.017474263906478882, -0.0040579610504209995, 0.027177050709724426, -0.03177036717534065, 0.027088643983006477, -0.004995199851691723, 0.005988542456179857, 0.02835984155535698, 0.005106186028569937, -0.006055524572730064, 0.02652089111506939, 0.00701610604301095, 0.026264594867825508, 0.021179402247071266, 0.02757030911743641, 0.025018014013767242, 0.027276428416371346, -0.028581513091921806, -0.02425261214375496, -0.007164766080677509, 0.005204520188271999, -0.023953240364789963, 0.024979906156659126, -0.026936575770378113, 0.02125321701169014, -0.02852833829820156, 0.008898643776774406, 0.02738758735358715, 0.024379495531320572, -0.033229339867830276, -0.026917610317468643, -0.014758060686290264, 0.005370534025132656, 0.032952144742012024, 0.03218989074230194, 0.0184615608304739, 0.027002276852726936, 0.004929623566567898, 0.010222336277365685, -0.0043710400350391865, 0.008098908700048923, -0.025900430977344513, -0.031723618507385254, -0.005577790085226297, 0.011436978355050087, -0.04022001475095749, 0.028786970302462578, 0.004814015235751867, -0.028279053047299385, -0.02837727777659893, 0.03499563783407211, -0.010569884441792965, 0.02797483652830124, 0.0050380476750433445, 0.026867471635341644, 0.004515836946666241, -0.02111269161105156, -0.005444251466542482, -0.033283066004514694, -0.030333667993545532, 0.022226445376873016, -0.0374525785446167, 0.0040804073214530945, 0.008733459748327732, 0.026150697842240334, -0.0253402441740036, 0.03016800433397293, -0.028804613277316093, 0.03344622999429703, -0.007579723373055458, 0.037072956562042236, 0.022276245057582855, 0.00985820684581995, 0.03245288506150246, -0.0047184559516608715, -0.03229830041527748, 0.025792576372623444, 0.030340828001499176, 0.0296920333057642, -0.004610168747603893], [0.006111774127930403, -0.007100780960172415, 0.00372106465511024, -0.006588950287550688, 0.01339222677052021, -0.002688269130885601, -0.0026962258853018284, -0.0034482365008443594, -0.002875156234949827, -0.0017780697671696544, -0.004420585930347443, -0.00281256390735507, 0.008776240050792694, 0.003380468348041177, 0.0023810742422938347, 0.0027710937429219484, -0.011560034938156605, -0.003924263175576925, -0.0024186831433326006, -0.00010935719183180481, 0.007992692291736603, 0.0007141154492273927, 0.003233082126826048, -0.0019705169834196568, 0.004707248881459236, -0.006502287462353706, 0.001769367721863091, 0.001584538840688765, 0.004922304302453995, -0.002879025414586067, 0.0009008619817905128, -6.353576463880017e-05, 0.002389537403360009, -0.005475842393934727, -0.002327499445527792, -0.0014048853190615773, 0.0006713055772706866, -0.0029944516718387604, 0.005656079389154911, 0.009103490971028805, 0.000886986032128334, -0.0033698687329888344, 0.003966234158724546, -0.0025160803925246, 0.005329831037670374, -0.0031193529721349478, 0.003417036961764097, 0.003596263937652111, -0.003550169290974736, -0.0027178737800568342, 0.0028498603496700525, -0.004613368306308985, 0.003975492436438799, -0.0005189101211726665, 0.0008632488898001611, 0.002884600544348359, 0.002687432337552309, -0.005258134100586176, 0.0033382773399353027, 0.004162648227065802, 0.009044970385730267, 0.002959278179332614, 0.0033687702380120754, 0.005823364481329918, 0.007300469558686018, -0.005406073294579983, -0.005786174442619085, -0.0032440817449241877, 0.013139860704541206, -0.0010265492601320148, 0.005212719086557627, -0.004497891757637262, 0.009882824495434761, -0.012104489840567112, 0.01209199521690607, 1.4164106687530875e-05, 0.0021869041956961155, -0.0027520826552063227, -0.0072738914750516415, -0.004401192534714937, 0.002306985203176737, 0.0004850390541832894, 0.0006423000595532358, 0.002347565023228526, 0.0012157835299149156, 0.001107355928979814, 0.009661446325480938, -0.011211839504539967, 0.0034987858962267637, -0.002576451748609543, -0.0027756227646023035, -0.0038663852028548717, 0.0030055083334445953, -0.0042537180706858635, 0.0027098827995359898, 0.006016998551785946, -0.0026946314610540867, -0.00786788109689951, 0.0039510480128228664, -0.008022000081837177, 0.005810900591313839, 0.002739657647907734, 0.0018726399866864085, 0.005991632584482431, -0.006056804209947586, -0.012258955277502537, -0.003381565446034074, -0.0008125524618662894, 0.008059479296207428, -0.0031264848075807095, 0.004146008286625147, 0.0013649582397192717, 0.014624977484345436, -0.004326381254941225, 0.003103371476754546, -0.001056102686561644, 0.002851043129339814, -0.0034756939858198166, 0.004472006112337112, 0.006750359665602446, 0.0008649865631014109, 0.002158150542527437, -0.002757223090156913, -0.004828754812479019, 0.006047847215086222, 0.003246268490329385, 0.001976525876671076, -0.0027854188811033964], [0.0029977629892528057, -0.005209306254982948, 0.0024806219153106213, -0.010284137912094593, 0.010682277381420135, -0.0031739049591124058, -0.0022352400701493025, -0.003385244868695736, -0.0039305854588747025, -0.0022643355187028646, -0.004216670524328947, -0.002262993948534131, 0.004730660002678633, 0.00233475212007761, 0.0008144296589307487, 0.015784045681357384, -0.0021802133414894342, -0.0051482743583619595, -0.002250910736620426, -0.005105440504848957, 0.0030903543811291456, 0.001944315037690103, 0.008654057048261166, -0.001903985976241529, 0.0020518440287560225, -0.005667693912982941, 0.002951785223558545, 0.002339281141757965, 0.0013332009548321366, -0.003049728460609913, 0.0009103373158723116, -0.0027903756126761436, 0.0016355402767658234, -0.005464537069201469, -0.0038988078013062477, -0.0015735931228846312, 0.003230858827009797, -0.0033234725706279278, 0.006599270738661289, 0.007671067025512457, 0.011921738274395466, -0.0024949307553470135, 0.002997598610818386, -0.0035958464723080397, 0.00034527311800047755, -0.0038915667682886124, 0.006204830016940832, 0.005406287964433432, -0.0016065197996795177, -0.0026587441097944975, 0.00991218350827694, -0.006641483400017023, 0.004151687026023865, -0.000571809709072113, 0.003562544472515583, 0.0020852773450315, 0.014170262031257153, -0.006682729814201593, 0.0036291012074798346, 0.0020107917953282595, 0.0027960704173892736, 0.0001667651376919821, 0.0007042433135211468, 0.0066427867859601974, 0.005205200053751469, -0.005875851958990097, -0.004772735759615898, -0.002726879669353366, 0.003472197102382779, -0.003023395547643304, 0.0017623984022065997, -0.00011330794222885743, 0.010221954435110092, -0.0015269037103280425, 0.0014805515529587865, 0.0015884333988651633, 0.0025283927097916603, -0.0013312103692442179, -0.003775949589908123, -0.007223442662507296, 0.0012501598102971911, 0.013032305054366589, 0.0009766831062734127, 0.004252328537404537, 0.015012364834547043, 0.0031286997254937887, 0.010928969830274582, -0.002080284059047699, 0.0027915288228541613, -0.0061973510310053825, -0.0024363771080970764, -0.0023550947662442923, 0.006289377808570862, -0.004262521397322416, 0.007996080443263054, 0.010546605102717876, -0.009566827677190304, -0.009272540919482708, 0.002330665709450841, -0.007674959488213062, 0.005659786518663168, 0.0040852646343410015, 0.003495851531624794, 0.0037512851413339376, -0.006585259456187487, -0.01314328983426094, -0.008829477243125439, -0.003422896843403578, 0.005825137719511986, -0.009732060134410858, 0.0075975279323756695, 0.004171902313828468, 0.0033293336164206266, -0.0011227901559323072, 0.003411342855542898, -0.005501171108335257, 0.005342201329767704, -0.002012405777350068, 0.005360136274248362, 0.002990519627928734, 0.0007095597684383392, 0.0009586778469383717, -0.0034331833012402058, -0.002480512484908104, 0.003113384824246168, 0.004687370266765356, 0.0017828529234975576, -0.00315602938644588], [-0.003062271513044834, 0.003569610882550478, -0.010758102871477604, 0.004359762649983168, -0.0025887894444167614, 0.004647308960556984, 0.0051458715461194515, 0.008035958744585514, 0.0025438254233449697, 0.000568287679925561, 0.007835457101464272, 0.008885789662599564, -0.003369787475094199, -0.0027716043405234814, -0.0010303949238732457, -0.007380484137684107, 0.0007629950414411724, 0.006915037054568529, 0.00673242611810565, 0.0024368951562792063, -0.009457818232476711, -0.0025843181647360325, -0.007946175523102283, 0.003254843642935157, -0.004310862626880407, 0.006998115684837103, -0.003875123802572489, -0.0035696537233889103, -0.005252799950540066, 0.006752503104507923, -0.0011075399816036224, 0.002788633108139038, -0.0055456641130149364, 0.007100438233464956, 0.005217713303864002, 0.006555261556059122, -0.0009722185204736888, 0.007278813514858484, -0.007446137722581625, -0.009177331812679768, -0.002788843121379614, 0.0035650255158543587, -0.008228841237723827, 0.006000774912536144, -0.0010401251493021846, 0.005996012594550848, -0.002858756110072136, -0.005332254339009523, 0.004037169273942709, 0.007252202834933996, -0.00872761383652687, 0.006461524870246649, -0.0054281894117593765, 0.0017126469174399972, -0.002658442361280322, -0.0029199726413935423, -0.0032843344379216433, 0.008175952360033989, -0.006030598655343056, -0.00032750610262155533, -0.0067776888608932495, -0.001342759933322668, -0.0005536625976674259, -0.008681532926857471, -0.0030109533108770847, 0.005386727396398783, 0.005746379029005766, 0.005615128669887781, -0.0001601561816642061, 0.0032493958715349436, -0.008436442352831364, 0.004488623235374689, -0.00408240407705307, 0.0022011289838701487, -0.007718574721366167, -0.0011776246828958392, -0.0033092943485826254, 0.0007732458761893213, 0.00416503706946969, 0.0072729275561869144, -0.0036183902993798256, -0.0017999712144955993, -0.0031519767362624407, -0.0006740088574588299, -0.012648480013012886, -0.0032661063596606255, -0.010460366494953632, 0.0008836339693516493, -0.0012400122359395027, 0.0032110875472426414, 0.00705783860757947, 0.00213339040055871, -0.004517366643995047, 0.002432226901873946, -0.005917456932365894, -0.00947309099137783, 0.008712773211300373, 0.0079893684014678, -0.003912106156349182, 0.007843428291380405, -0.005276416894048452, -0.005400181747972965, -0.0063768005929887295, -0.008277888409793377, 0.011897912248969078, 0.003098453627899289, 0.0010074146557599306, 0.002415931783616543, -0.0036480824928730726, 0.006803683005273342, -0.003349865321069956, -0.009289764799177647, -0.0026507596485316753, 0.0019337134435772896, -0.004016234073787928, 0.001658716588281095, -0.0019989314023405313, 0.0027709121350198984, -0.00633410457521677, -0.0027753901667892933, -0.003982787020504475, -0.0025309850461781025, 0.002844372298568487, 0.006241472903639078, -0.004709302447736263, -0.0028899291064590216, -0.0042573497630655766, 0.0029787311796098948], [0.015838341787457466, -0.007076541893184185, 0.0032462584786117077, -0.016074780374765396, 0.0021639657206833363, -0.004732876550406218, -0.015333942137658596, -0.01424617413431406, -0.003844349877908826, -0.002765033161267638, -0.014235084876418114, -0.014483633451163769, 0.00713521521538496, 0.016277002170681953, 0.004103784915059805, 0.0032368493266403675, -0.009140613488852978, -0.0034959325566887856, -0.016076641157269478, -0.0030184094794094563, 0.01522756740450859, 0.010603508912026882, 0.015757203102111816, -0.011510913260281086, 0.013043728657066822, -0.012050203047692776, 0.0031422898173332214, 0.015025985427200794, 0.014560974203050137, -0.0033767670392990112, 0.0041696843691170216, -0.0033930400386452675, 0.003213047282770276, -0.013798383064568043, -0.003154524601995945, -0.012644362635910511, 0.007175014354288578, -0.007870124652981758, 0.0033898784313350916, 0.012253210879862309, 0.010703032836318016, -0.0037096617743372917, 0.008568152785301208, -0.016163621097803116, 0.01310142781585455, -0.003983240574598312, 0.014011814258992672, 0.015499907545745373, -0.010273945517838001, -0.010541794821619987, 0.01764417253434658, -0.0033659525215625763, 0.014325854368507862, -0.0039384253323078156, 0.01150455977767706, 0.00917074829339981, 0.004265709780156612, -0.0034150644205510616, 0.002558906562626362, 0.004444868769496679, 0.01784813404083252, 0.005028583575040102, 0.004210245329886675, 0.014946428127586842, 0.01570088230073452, -0.008034104481339455, -0.012767595238983631, -0.00379856931976974, 0.006745301187038422, -0.003683889750391245, 0.003912299871444702, -0.0030977288261055946, 0.01077931746840477, -0.003779342630878091, 0.0038831504061818123, 0.003026046324521303, 0.003024242352694273, -0.009543455205857754, -0.015280388295650482, -0.012754610739648342, 0.007698547560721636, 0.011524738743901253, 0.011349213309586048, 0.0007107689161784947, 0.00506591098383069, 0.013999631628394127, 0.012525445781648159, -0.0031326848547905684, 0.0110852075740695, -0.0009608060936443508, -0.0044037532061338425, -0.002395421965047717, 0.004492252599447966, -0.01415522862225771, 0.0032935142517089844, 0.003816403914242983, -0.018041444942355156, -0.016342394053936005, 0.01564813405275345, -0.009782422333955765, 0.0034330773632973433, 0.004205381032079458, 0.003956696484237909, 0.004839726723730564, -0.004820602480322123, -0.004359154962003231, -0.004335689824074507, -0.009655220434069633, 0.016527514904737473, -0.006764818914234638, 0.0036579561419785023, 0.01383044570684433, 0.006726565770804882, -0.012415861710906029, 0.013137776404619217, -0.014207419939339161, 0.010058187879621983, -0.0033794003538787365, 0.011690283194184303, 0.003010706976056099, 0.0033507191110402346, 0.0044180559925735, -0.0033755081240087748, -0.0035088162403553724, 0.005444008857011795, 0.003211777424439788, 0.005713818594813347, -0.0037700256798416376], [-0.01041895616799593, 0.00784948468208313, -0.0011471776524558663, 0.01106575969606638, -0.0032654686365276575, 0.00030101207084953785, 0.0031740127597004175, 0.009428040124475956, 0.009858536534011364, 0.0028838336002081633, 0.012304892763495445, 0.01217061560600996, -0.009829935617744923, -0.0036879796534776688, -0.0050159296952188015, -0.0018663108348846436, 0.007973873987793922, 0.008347557857632637, 0.009185283444821835, 0.004351756535470486, -0.0033987804781645536, -0.009974664077162743, -0.011478433385491371, 0.008013520389795303, -0.008343005552887917, 0.005755857098847628, -0.0038216551765799522, -0.004256587475538254, -0.005634164437651634, 0.012360421009361744, -0.009150097146630287, 0.0029752561822533607, -0.0031805080361664295, 0.0033325727563351393, 0.004791606683284044, 0.0035172817297279835, -0.002818638226017356, 0.003836302785202861, -0.009772283025085926, -0.010457741096615791, -0.005853412672877312, 0.008506427519023418, -0.00997919961810112, 0.008108243346214294, -0.006052488461136818, 0.003071896731853485, -0.007190241012722254, -0.0036998686846345663, 0.007785328663885593, 0.0035028487909585238, -0.01169579103589058, 0.009944365359842777, -0.004060117527842522, 0.0032171744387596846, -0.006525991950184107, -0.007941996678709984, -0.0033730315044522285, 0.009660176932811737, -0.003524167463183403, -0.006712970789521933, -0.007891137152910233, -0.002600438892841339, -0.003944640513509512, -0.005862560588866472, -0.009904272854328156, 0.01035605650395155, 0.0035999722313135862, 0.008973706513643265, -0.0006298678927123547, 0.002642269479110837, -0.007946014404296875, 0.005694499704986811, -0.010755106806755066, 0.0028091499116271734, -0.0036098493728786707, -0.004100828431546688, -0.0029020621441304684, 0.007884662598371506, 0.012030008248984814, 0.002592861419543624, -0.003498862497508526, -0.0028527642134577036, -0.002436370123177767, -0.0007991140591911972, -0.0016998075880110264, -0.00990111380815506, -0.004638954531401396, 0.0028500251937657595, -0.007985619828104973, 0.003931498154997826, 0.008826624602079391, 0.00236336886882782, -0.004067834932357073, 0.01080677192658186, -0.009184787981212139, -0.010745457373559475, 0.010992700234055519, 0.009974195621907711, -0.008548679761588573, 0.010535210371017456, -0.0030035735107958317, -0.004141480196267366, -0.0036248594988137484, -0.00920602772384882, 0.003947034012526274, 0.0014559049159288406, 0.0039005260914564133, 0.008134560659527779, -0.011126706376671791, 0.0046086180955171585, -0.006528864614665508, -0.009639338590204716, -0.003132062731310725, 0.009311105124652386, -0.0037262982223182917, 0.008088147267699242, -0.008333517238497734, 0.003946131095290184, -0.009368708357214928, -0.0036685739178210497, -0.006119867786765099, -0.003069821512326598, 0.002056179102510214, 0.0033032235223799944, -0.0033865587320178747, -0.009686432778835297, -0.0026336777955293655, 0.0102594755589962], [0.0038761519826948643, -0.005514031741768122, 0.011754688806831837, -0.004191495943814516, 0.004290038254112005, -0.024255363270640373, -0.0317426472902298, -0.00412732595577836, -0.0034345241729170084, -0.004498144146054983, -0.004426943138241768, -0.02651405893266201, 0.007001909427344799, 0.02210572175681591, 0.005300677381455898, 0.015475897118449211, -0.028416084125638008, -0.02575145848095417, -0.028625182807445526, -0.0049939462915062904, 0.024199241772294044, 0.006333769764751196, 0.023310823366045952, -0.024070970714092255, 0.020729001611471176, -0.020530134439468384, 0.030009079724550247, 0.017116349190473557, 0.029898498207330704, -0.02862207591533661, 0.020853720605373383, -0.028890110552310944, 0.02784033678472042, -0.021146798506379128, -0.017172114923596382, -0.004116615746170282, 0.024197816848754883, -0.024249734356999397, 0.003782350569963455, 0.012747370637953281, 0.026816926896572113, -0.004717286676168442, 0.014619194902479649, -0.004340068437159061, 0.024411052465438843, -0.018623456358909607, 0.02614550106227398, 0.02503947541117668, -0.02697886899113655, -0.004166996572166681, 0.02456064522266388, -0.0264413021504879, 0.0051948875188827515, -0.018509121611714363, 0.022712061181664467, 0.01840747334063053, 0.021468911319971085, -0.004567400086671114, 0.004221383947879076, 0.014394255355000496, 0.005150305572897196, 0.005117346532642841, 0.021160604432225227, 0.021873675286769867, 0.004152242559939623, -0.02735530398786068, -0.024326598271727562, -0.02767905965447426, 0.004684807267040014, -0.02451195940375328, 0.0043903677724301815, -0.02258930169045925, 0.023725269362330437, -0.006578180473297834, 0.004407646134495735, 0.012458698824048042, 0.004913567565381527, -0.027110811322927475, -0.02225305326282978, -0.02470364421606064, 0.0228857584297657, 0.004330561961978674, 0.004476654808968306, 0.006585853639990091, 0.022508511319756508, 0.023440832272171974, 0.010016216896474361, -0.012967325747013092, 0.003699210938066244, -0.009477751329541206, -0.004476358648389578, -0.013591770082712173, 0.004964323714375496, -0.005417909938842058, 0.003829463617876172, 0.005185388959944248, -0.003792156931012869, -0.003797085490077734, 0.0059324936009943485, -0.008998093195259571, 0.003621912794187665, 0.004992983303964138, 0.004751246888190508, 0.029880676418542862, -0.012405065819621086, -0.017162147909402847, -0.004619070328772068, -0.027425672858953476, 0.009843110106885433, -0.026148946955800056, 0.025852076709270477, 0.024530401453375816, 0.013582149520516396, -0.004760344047099352, 0.0054160961881279945, -0.022989319637417793, 0.004390593618154526, -0.0245344415307045, 0.023048752918839455, 0.02211112529039383, 0.003167875576764345, 0.02410663105547428, -0.01753631792962551, -0.03173960745334625, 0.005646612029522657, 0.024158868938684464, 0.004110615700483322, -0.0245862677693367], [-0.004716317169368267, 0.005719746928662062, -0.011607613414525986, 0.005026505794376135, -0.010378289967775345, 0.0018648812547326088, 0.004298918880522251, 0.005853882525116205, 0.00047779467422515154, 0.003092453582212329, 0.0052995700389146805, 0.006513985339552164, -0.005288861691951752, -0.0031743193976581097, -0.003042426658794284, -0.0022029029205441475, 0.0015532878460362554, 0.0061741420067846775, 0.005557510070502758, 0.0005071201012469828, -0.008695251308381557, -0.0011495946673676372, -0.00738780340179801, 0.0020154546946287155, -0.0024072579108178616, 0.005188164301216602, -0.003116810694336891, -0.004474280867725611, -0.005931511055678129, 0.005880111828446388, -0.003752556862309575, 0.0009395304368808866, -0.0008674616692587733, 0.0035036427434533834, 0.0006904165493324399, 0.0051224553026258945, -0.0002955664531327784, 0.006171866320073605, -0.0077287424355745316, -0.011082199402153492, -0.001387881813570857, 0.004151010420173407, -0.009787592105567455, 0.005752954166382551, -0.0029358791653066874, 0.0033266316168010235, -0.004288979806005955, -0.003861354198306799, 0.0018612451385706663, 0.004915808327496052, -0.004999104421585798, 0.00583581393584609, -0.005916307680308819, 0.0033400419633835554, -0.004382467363029718, -0.0017479460220783949, -0.0007308372878469527, 0.0030492697842419147, -0.00609213300049305, -0.0013123801909387112, -0.003979923203587532, -0.0013609982561320066, -0.0040822867304086685, -0.0040463050827383995, -0.0041921851225197315, 0.0041725728660821915, 0.006200846284627914, 0.005972709506750107, -0.0008728608372621238, 0.0025521281640976667, -0.003285775426775217, 0.003953647334128618, -0.0097031956538558, 0.0019603068940341473, -0.0013324286555871367, -0.001434565638191998, -0.004510186146944761, 0.001257356838323176, 0.0029211409855633974, 0.004997909069061279, -0.006064998917281628, -0.0009376289672218263, -0.0043915044516325, -0.0018371512414887547, -0.002358262427151203, -0.0037448040675371885, -0.0008849008590914309, 0.008406875655055046, -0.0012770832981914282, 0.0031703447457402945, 0.0066759842447936535, 0.000559910899028182, -0.0083300257101655, 0.0033008388709276915, -0.006913825403898954, -0.009253758005797863, 0.006137433461844921, 0.008820897899568081, -0.0026167731266468763, 0.008281229063868523, -0.0027301665395498276, -0.002476626541465521, -0.0034820502623915672, -0.0026921674143522978, 0.013868370093405247, 0.0019143401877954602, 8.474235073663294e-05, 0.004586792550981045, -0.0059189521707594395, 0.0016179297817870975, -0.0030017904937267303, -0.007362188771367073, -0.0020075556822121143, 0.0017167634796351194, -0.004648884292691946, 0.004580119624733925, -0.0035974313504993916, 0.00212668115273118, -0.002553610596805811, -0.004087286535650492, -0.004679599776864052, -0.0040071746334433556, 0.00245394348166883, 0.0022805752232670784, -0.002727277809754014, -0.0022242674604058266, -0.0013207928277552128, 0.001871586893685162], [0.0033341459929943085, -0.005554175470024347, 0.012498188763856888, -0.0035237069241702557, 0.013000884093344212, -0.010175074450671673, -0.002780461683869362, -0.0034974487498402596, -0.003991615492850542, -0.0020587891340255737, -0.011715495027601719, -0.008026224561035633, 0.008129237219691277, 0.0046682776883244514, 0.00016577690257690847, 0.010417003184556961, -0.007730020675808191, -0.006791757419705391, -0.003322077915072441, -0.014107264578342438, 0.00803207978606224, 0.005706507712602615, 0.010072577744722366, -0.001403582631610334, 0.0027825459837913513, -0.004070298280566931, 0.007161369547247887, 0.003147488459944725, 0.00431471224874258, -0.00874352641403675, 0.003241343190893531, -0.0039940401911735535, 0.0013367782812565565, -0.00594365643337369, -0.00017578201368451118, -0.004237730521708727, 0.010326415300369263, -0.0061643291264772415, 0.003396374639123678, 0.010266485624015331, 0.0010253728833049536, -0.0031062322668731213, 0.004261186812072992, -0.00371880317106843, 0.0027913853991776705, -0.003515816992148757, 0.00582296634092927, 0.0022676638327538967, -0.00043720557005144656, -0.00584169989451766, 0.00480476813390851, -0.002520001493394375, 0.0028326562605798244, -0.00082201580516994, 0.0014875027118250728, 0.0015729567967355251, 0.0036259430926293135, -0.002837286563590169, 0.004648052155971527, 0.0007620971300639212, 0.002809093566611409, 0.0034581723157316446, 0.003818458877503872, 0.0043059526942670345, 0.00491222133859992, -0.0026309548411518335, -0.004245068412274122, -0.002559527289122343, 0.007103388197720051, -0.0017854420002549887, 0.005948674399405718, -0.0033209898974746466, 0.0100559638813138, -0.00015668428386561573, 0.012592663057148457, 0.0001907337864395231, 0.004204887896776199, -0.003208370413631201, -0.0058188349939882755, -0.00789356417953968, 0.004742668475955725, 0.0030433302745223045, 0.0006758288363926113, 0.004277792293578386, 0.00938933715224266, 0.0017193870153278112, 0.011554880067706108, -0.007876402698457241, 0.002667606808245182, -0.0030951951630413532, -0.0038497692439705133, -0.004061013460159302, 0.0036492440849542618, -0.003556749550625682, 0.003813088871538639, 0.006375868339091539, -0.004784508142620325, -0.003085597651079297, 0.010062706656754017, -0.009398949332535267, 0.006612430326640606, 0.004387120250612497, 0.002613625954836607, 0.0027810249011963606, -0.003016282804310322, -0.0008318555192090571, -0.000773847394157201, -0.0002564872265793383, 0.0030342023819684982, -0.008649659343063831, 0.005035820417106152, 0.010496271774172783, 0.0039323316887021065, -0.003004657104611397, 0.005740352440625429, -0.0028991729486733675, 0.0033458827529102564, -0.002343405270949006, 0.001367109245620668, 0.006145348306745291, 0.0009293278562836349, 0.0022506355307996273, -0.012929683551192284, -0.0030223687645047903, 0.002849142998456955, 0.00453609973192215, 0.012079562991857529, -0.00474576186388731], [-0.009085630998015404, 0.012751661241054535, -0.0031344187445938587, 0.003470516996458173, -0.0006727917934767902, 0.0031830789521336555, 0.0037374712992459536, 0.011488249525427818, 0.008815700188279152, 0.0066088116727769375, 0.013047948479652405, 0.012709044851362705, -0.0007220783154480159, -0.009648005478084087, -0.0037190206348896027, -0.0028387000784277916, 0.002980634802952409, 0.003298461437225342, 0.0045135365799069405, 0.005728248041123152, -0.0009282599203288555, -0.009645701386034489, -0.003842577338218689, 0.003116700565442443, -0.006298958323895931, 0.010817197151482105, -0.010626019909977913, -0.007284943480044603, -0.0035119391977787018, 0.011203286238014698, -0.0047378335148096085, 0.0029472424648702145, -0.003957995679229498, 0.009208090603351593, 0.003066876670345664, 0.00628696521744132, -0.005150299519300461, 0.0026008712593466043, -0.0033425563015043736, -0.013278629630804062, -0.0008859913796186447, 0.003944702446460724, -0.007122950628399849, 0.003652040846645832, -0.0031817436683923006, 0.008570868521928787, -0.011520699597895145, -0.00396276218816638, 0.00386207178235054, 0.010587751865386963, -0.0036158524453639984, 0.011588905937969685, -0.011565952561795712, 0.003105538198724389, -0.010023492388427258, -0.005365900229662657, -0.00313194515183568, 0.010847220197319984, -0.0034389349166303873, -0.006188240367919207, -0.013336463831365108, -0.007305496372282505, -0.004049099516123533, -0.0035622199065983295, -0.004577983170747757, 0.01238250732421875, 0.012719457969069481, 0.000904018699657172, -0.0031886373180896044, 0.0031456775031983852, -0.006809466052800417, 0.003575494745746255, -0.011893367394804955, 0.008759512566030025, -0.0019887841772288084, -0.00424320250749588, -0.006450411397963762, 0.0032330972608178854, 0.010608290322124958, 0.006476845592260361, -0.0037351471837610006, -0.003810486290603876, -0.010316234081983566, -0.0025768002960830927, -0.004498109221458435, -0.004242906346917152, -0.011222640983760357, 0.0029300989117473364, -0.0030944847967475653, 0.0037868632934987545, 0.003915934823453426, 0.004353186581283808, -0.010576322674751282, 0.008423889987170696, -0.0033686363603919744, -0.0011066915467381477, 0.005716931540518999, 0.0026947990991175175, -0.0035280506126582623, 0.009220915846526623, -0.0030117137357592583, -0.0047997948713600636, -0.011837503872811794, -0.0032990495674312115, 0.0071526807732880116, 0.005996578838676214, 0.0011424629483371973, 0.0032515828497707844, -0.012248210608959198, 0.0013060735072940588, -0.012984032742679119, -0.013615807518362999, -0.003261523088440299, 0.004159296862781048, -0.0116938017308712, 0.007971265353262424, -0.0102615375071764, 0.012611381709575653, -0.0039294264279305935, -0.003118617460131645, -0.0031232472974807024, -0.004988306667655706, 0.002719768090173602, 0.010811272077262402, -0.0027281572110950947, -0.0034690408501774073, -0.0030701388604938984, 0.009996487759053707], [-0.007549845147877932, 0.00790487602353096, -0.003143428824841976, 0.005591109395027161, -0.002472203690558672, 0.0008337101899087429, 0.004311300348490477, 0.006229214835911989, 0.0067739603109657764, 0.0002022620610659942, 0.010830140672624111, 0.0029761637561023235, -0.006618086248636246, -0.002175320638343692, -0.005317931994795799, -0.0007782257744111121, 0.003171255113556981, 0.006735626142472029, 0.004911060910671949, 0.001283645280636847, -0.007263897452503443, -0.002920866012573242, -0.010506058111786842, 0.005257749930024147, -0.004705747589468956, 0.003698264015838504, -0.003159431042149663, -0.007550498005002737, -0.0058098891749978065, 0.00950824748724699, -0.0030870663467794657, 0.003874523565173149, -0.0020153713412582874, 0.004420037847012281, 0.004959686193615198, 0.004079057835042477, -0.002766779623925686, 0.00820055603981018, -0.0070148250088095665, -0.010819054208695889, -0.0019082031212747097, 0.0061209495179355145, -0.005916149355471134, 0.004056800622493029, -0.004795296583324671, 0.003298237919807434, -0.0027968082576990128, -0.003520551137626171, 0.005479511804878712, 0.008545801043510437, -0.0028482298366725445, 0.005373142659664154, -0.007946253754198551, 0.0002232333063147962, -0.004492126405239105, -0.0022535324096679688, -7.341522723436356e-05, 0.007719266228377819, -0.006340487860143185, -0.0044021764770150185, -0.008783009834587574, -0.000474016647785902, -0.006644413806498051, -0.004699739161878824, -0.0034019527956843376, 0.0062736221589148045, 0.0027055134996771812, 0.005033533088862896, -5.5841872381279245e-05, 0.00032790767727419734, -0.003330618143081665, 0.006556897424161434, -0.0029327969532459974, 0.003175735240802169, -0.0005173825193196535, -0.001986696384847164, -0.0038051912561059, 0.004422537516802549, 0.0037614477332681417, 0.0029738976154476404, -0.0043753692880272865, -5.8055825320479926e-06, -0.004776542074978352, -0.006365879904478788, -0.0019070800626650453, -0.0030250237323343754, -0.010091694071888924, 0.004539927467703819, -0.0036132056266069412, 0.006322438362985849, 0.005475351586937904, 0.004277660511434078, -0.003800456877797842, 0.0033605301287025213, -0.004729003179818392, -0.006914221215993166, 0.006225878838449717, 0.006621649954468012, -0.0035184381995350122, 0.008346783928573132, -0.007105228025466204, -0.0050096288323402405, -0.002912704600021243, -0.007577758282423019, 0.0024637808091938496, 0.003779803169891238, 0.01384937483817339, 0.0027964776381850243, -0.006633785553276539, 0.0008335013408213854, -0.007439866662025452, -0.008295387029647827, -0.004571158904582262, 0.0028227169532328844, -0.004029946867376566, 0.004082485567778349, -0.004988080821931362, 0.002822207985445857, -0.006022862158715725, -0.007906786166131496, -0.0025575885083526373, -0.004470262210816145, 0.005190031137317419, 0.0026644289027899504, -0.005578791256994009, -0.002744940808042884, -0.001806685235351324, 0.005193676333874464], [-0.007436598185449839, 0.012860998511314392, -0.011570272035896778, 0.013683518394827843, -0.0025822033639997244, 0.015528185293078423, 0.010666954331099987, 0.010387865826487541, 0.006155810318887234, 0.016259727999567986, 0.0018828794127330184, 0.010871362872421741, -0.01182586420327425, -0.013980189338326454, -0.004985612351447344, -0.004533252213150263, 0.011254960671067238, 0.009882661513984203, 0.0015401060227304697, 0.011936992406845093, -0.008251291699707508, -0.015230044722557068, -0.009228887036442757, 0.012958507984876633, -0.0174883920699358, 0.012896229512989521, -0.01612703502178192, -0.012548262253403664, -0.01261924672871828, 0.001084208837710321, -0.015217181295156479, 0.012426923960447311, -0.011158306151628494, 0.005135243758559227, 0.007669259328395128, 0.011223151348531246, -0.014319931156933308, 0.008383138105273247, -0.009171499870717525, -0.002130035310983658, -0.014336797408759594, 0.0073592509143054485, -0.00938916765153408, 0.010933557525277138, -0.013651407323777676, 0.010006150230765343, -0.01177799329161644, -0.010540702380239964, 0.012972701340913773, 0.004205535165965557, -0.012215896509587765, 0.00623103603720665, -0.008623212575912476, 0.006681943312287331, -0.012642370536923409, -0.008023535832762718, -0.013465375639498234, 0.009095483459532261, -0.009224946610629559, -0.007270725443959236, -0.0008448729058727622, -0.016200393438339233, -0.013435986824333668, -0.012162711471319199, -0.010781500488519669, 0.012407238595187664, 0.005567232612520456, 0.010079681873321533, -0.017153840512037277, 0.016495760530233383, -0.010343448258936405, 0.014324122108519077, -0.0003116190782748163, 0.01188128162175417, -0.014194073155522346, -0.00496106268838048, -0.016447383910417557, 0.014858406968414783, 0.004544672090560198, 0.00633880402892828, -0.0120821138843894, -0.016282299533486366, -0.009145206771790981, -0.014618465676903725, -0.015173153020441532, -0.01631973125040531, -0.006936123128980398, 0.000779070018325001, -0.006292697507888079, 0.016004696488380432, 0.015153137035667896, 0.017151836305856705, -0.01310767699033022, 0.010544991120696068, -0.00908797699958086, -0.010270120576024055, 0.010368864983320236, 0.011578545905649662, -0.01163432840257883, 0.008046857081353664, -0.010845662094652653, -0.015553491190075874, -0.009117930196225643, -0.004953560885041952, 0.0012185224331915379, 0.01793624833226204, 0.007376137189567089, 0.007736001629382372, -0.0008473038324154913, 0.0160601157695055, -0.012248467653989792, -0.012699072249233723, -0.006121195387095213, 0.014730342663824558, -0.012216128408908844, 0.018374646082520485, -0.01037028431892395, 0.005437252577394247, -0.008126516826450825, -0.000959798984695226, -0.014771679416298866, -0.020089443773031235, 0.011457141488790512, 0.008376617915928364, -0.0010805929778143764, -0.01037026196718216, -0.015548789873719215, 0.013796292245388031], [0.007588367909193039, -0.005406782031059265, 0.011755413375794888, -0.007977311499416828, 0.005721219349652529, -0.007801989559084177, -0.008472319692373276, -0.008469249121844769, -0.0049768234603106976, -0.021070806309580803, -0.0028768572956323624, -0.00473162392154336, 0.012189626693725586, 0.016045378521084785, 0.0048757013864815235, 0.021449971944093704, -0.01108569372445345, -0.004676416050642729, -0.011699630878865719, -0.012676692567765713, 0.01208797749131918, 0.009061877615749836, 0.009593194350600243, -0.009063011966645718, 0.01550927571952343, -0.017394857481122017, 0.008041953667998314, 0.029212886467576027, 0.005504753906279802, -0.008521451614797115, 0.03356354683637619, -0.012814898043870926, 0.010533658787608147, -0.007067430764436722, -0.023115605115890503, -0.015475989319384098, 0.010127466171979904, -0.009667571634054184, 0.007889301516115665, 0.0001172666743514128, 0.004761593881994486, -0.011614405550062656, 0.013958352617919445, -0.010906621813774109, 0.009558109566569328, -0.012338226661086082, 0.004313357174396515, 0.010815997608006, -0.011078010313212872, -0.005657171364873648, 0.014335932210087776, -0.004070015624165535, 0.009859166108071804, -0.023064078763127327, 0.01595352031290531, 0.015597901307046413, 0.013689937070012093, -0.00827687419950962, 0.01171430665999651, 0.019968217238783836, 0.006195731461048126, 0.019288459792733192, 0.018604716286063194, 0.005476157646626234, 0.010317346081137657, -0.010264734737575054, -0.011722445487976074, -0.007733141537755728, 0.018818436190485954, -0.011596511118113995, 0.006969642359763384, -0.01070854440331459, 0.005823906976729631, -0.016916794702410698, 0.010768796317279339, 0.009231211617588997, 0.012267601676285267, -0.018589027225971222, -0.006070293020457029, -0.015632886439561844, 0.006786154117435217, 0.006670506205409765, 0.009692077524960041, 0.01708509400486946, 0.012172611430287361, 0.01819031871855259, 0.01563354581594467, -0.026896877214312553, 0.01706801727414131, -0.010752100497484207, -0.009022668935358524, -0.014540031552314758, 0.010748358443379402, -0.008129872381687164, 0.009442329406738281, 0.013439904898405075, -0.007123489398509264, -0.00499739171937108, 0.011862839572131634, -0.006445038598030806, 0.010665538720786572, 0.00985800102353096, 0.013475010171532631, 0.010855666361749172, -0.050245922058820724, -0.010891970247030258, -0.00668084854260087, -0.01367060374468565, 0.004806231707334518, -0.011649034917354584, 0.007837347686290741, 0.005553870461881161, 0.010040453635156155, -0.021892188116908073, 0.01492509339004755, -0.00855401810258627, 0.005652166903018951, -0.017440292984247208, 0.008616001345217228, 0.00943657848984003, 0.01023283414542675, 0.012812122702598572, -0.011533254757523537, -0.008708673529326916, 0.004875407554209232, 0.012004823423922062, 0.019496319815516472, -0.013644348829984665], [-0.0013000824255868793, 0.00957613904029131, -0.0016482374630868435, 0.006883918307721615, -0.004969412926584482, 0.0017006215639412403, 0.00636046938598156, 0.011089155450463295, 0.012119770981371403, 0.0019280643900856376, 0.004525288939476013, 0.00971061922609806, -0.0016097301850095391, -0.010915267281234264, -0.011749892495572567, -0.0042693219147622585, 0.007787295151501894, 0.004294040612876415, 0.007917027920484543, 0.0012966480571776628, -0.00897746067494154, -0.002693955088034272, -0.004137234762310982, 0.009621784090995789, -0.0033731020521372557, 0.002616053679957986, -0.0027740863151848316, -7.006728083069902e-06, -0.0028663703706115484, 0.009720712900161743, -0.012472524307668209, 0.011412116698920727, -0.00765985855832696, 0.0074844080954790115, 0.002091833157464862, 1.4417103557207156e-05, -0.002433517249301076, 0.0022264067083597183, -0.008285746909677982, -0.005529654677957296, -0.011004180647432804, 0.0023059111554175615, -0.003864275524392724, 0.007780677638947964, -0.0006555313593707979, 0.002138233045116067, -0.002008331473916769, -0.011943455785512924, 0.004459482617676258, 0.010449635796248913, -0.001497351098805666, 0.0075356136076152325, -0.003908366430550814, 0.0032372905407100916, -0.0013688626931980252, -0.006400109734386206, -0.009130235761404037, 0.00039262985228560865, -0.005694009363651276, -0.015323872677981853, -0.0016230199253186584, -0.0024019326083362103, -0.00658474862575531, -0.011975637637078762, -0.009363035671412945, 0.01014154963195324, 0.0002889746392611414, 0.011699244379997253, -0.012493443675339222, 0.005037768743932247, -0.0019338326528668404, 0.0030472688376903534, -0.007548664230853319, 0.0003004308673553169, -0.005707435309886932, -0.012517682276666164, -0.005116876680403948, 0.009243070147931576, 0.0029666805639863014, 0.0019197170622646809, -0.013278327882289886, -0.0012810290791094303, -0.011584770865738392, -0.0005252507398836315, -0.007054770831018686, -0.005632144398987293, -0.004900983069092035, 0.00933615118265152, -0.011440688744187355, 0.009685601107776165, 0.012636194936931133, 0.0011302883503958583, -0.0017104640137404203, 0.006146043073385954, -0.0004716895637102425, -0.0024268075358122587, 0.006839103996753693, 0.002233510371297598, -0.0010080506326630712, 0.0010983143001794815, -0.009982944466173649, -0.0014697168953716755, -0.00317414291203022, -0.0014385234098881483, 0.002720506861805916, 0.0012424258748069406, 0.009435772895812988, 0.011662018485367298, -0.0016585171688348055, 0.00022509621339850128, -0.0003734729252755642, -0.011794506572186947, -0.012482487596571445, 0.005838112439960241, -0.011947214603424072, 0.012228244915604591, -0.010276799090206623, 0.0002484170254319906, -0.00880486611276865, -0.0091460095718503, -0.010814623907208443, -0.014659710228443146, 0.003770730458199978, 0.003938987851142883, -0.00483574066311121, -0.005263563711196184, -0.009753134101629257, 0.011648379266262054], [0.016789635643363, -0.004824385512620211, 0.01976684108376503, -0.004647053778171539, 0.005155204329639673, -0.004023014567792416, -0.017427580431103706, -0.02347978949546814, -0.0268067829310894, -0.005021174903959036, -0.014745070599019527, -0.0233775582164526, 0.021721966564655304, 0.03302416577935219, 0.03034687042236328, 0.02075611613690853, -0.03441070765256882, -0.02078963816165924, -0.00735056959092617, -0.024192295968532562, 0.004846474621444941, 0.028069408610463142, 0.004354757722467184, -0.006841186434030533, 0.025669945403933525, -0.021432247012853622, 0.02938307449221611, 0.018436066806316376, 0.004460311494767666, -0.02386387437582016, 0.025733863934874535, -0.027841631323099136, 0.005692409351468086, -0.00619898084551096, -0.020843224599957466, -0.005273016635328531, 0.005527456756681204, -0.020716650411486626, 0.022473372519016266, 0.012509994208812714, 0.028794508427381516, -0.016710540279746056, 0.023922789841890335, -0.0035573248751461506, 0.026629352942109108, -0.019806940108537674, 0.0030464092269539833, 0.005556374788284302, -0.02350873313844204, -0.027730006724596024, 0.004181021824479103, -0.003799769561737776, 0.004610979929566383, -0.024980559945106506, 0.022716891020536423, 0.019934624433517456, 0.005424486938863993, -0.027354571968317032, 0.024856682866811752, 0.018494410440325737, 0.002654655836522579, 0.0057150390930473804, 0.018085505813360214, 0.004750717896968126, 0.02621603198349476, -0.011734656058251858, -0.022158488631248474, -0.02395588345825672, 0.005271195434033871, -0.028482848778367043, 0.024182269349694252, -0.0059895385056734085, 0.0036029790062457323, -0.02760951779782772, 0.005669198464602232, 0.02513081394135952, 0.006467111874371767, -0.027385732159018517, -0.022787688300013542, -0.023714197799563408, 0.022694462910294533, 0.010249614715576172, 0.005054851062595844, 0.015435420908033848, 0.02502233162522316, 0.018005134537816048, 0.014645032584667206, -0.004744356498122215, 0.008707940578460693, -0.004900969564914703, -0.005184022709727287, -0.027064533904194832, 0.006730761379003525, -0.03027026541531086, 0.004149961285293102, 0.004423124250024557, -0.02608661912381649, -0.023909922689199448, 0.011038616299629211, -0.010538611561059952, 0.0044031161814928055, 0.005318394396454096, 0.0056831445544958115, 0.02620275504887104, -0.022127745673060417, -0.005443013273179531, -0.03007473424077034, -0.0074666510336101055, 0.0040583740919828415, -0.007783555891364813, 0.0248845424503088, 0.006853050552308559, 0.027126582339406013, -0.026550769805908203, 0.0050156996585428715, -0.013587326742708683, 0.005193926393985748, -0.02483236789703369, 0.004274681676179171, 0.022289780899882317, 0.006709244567900896, 0.0060824984684586525, -0.022221244871616364, -0.02613832801580429, 0.022040944546461105, 0.02572566457092762, 0.02765999548137188, -0.004918547347187996], [-0.03261241689324379, 0.025900516659021378, -0.01590247079730034, 0.02586992084980011, -0.02331240102648735, 0.030723489820957184, 0.034570954740047455, 0.024461649358272552, 0.029963191598653793, 0.023412417620420456, 0.005266324616968632, 0.02441837638616562, -0.022814052179455757, -0.03280605003237724, -0.00960729829967022, -0.02335083670914173, 0.040087927132844925, 0.024502240121364594, 0.0074619026854634285, 0.033283624798059464, -0.004356835037469864, -0.028351737186312675, -0.012336233630776405, 0.03863665834069252, -0.02468997798860073, 0.004814854357391596, -0.03288448601961136, -0.006995550822466612, -0.03107679821550846, 0.027349526062607765, -0.02768130786716938, 0.030142107978463173, -0.03287011384963989, 0.03734542801976204, 0.006056980695575476, 0.030098112300038338, -0.031332336366176605, 0.020200060680508614, -0.023994093760848045, -0.01299810130149126, -0.030259836465120316, 0.028929516673088074, -0.018573539331555367, 0.0324687734246254, -0.031261879950761795, 0.02189447544515133, -0.0063864788971841335, -0.03688973933458328, 0.026097293943166733, 0.0343855619430542, -0.02636733278632164, 0.027994586154818535, -0.012164679355919361, 0.005244643427431583, -0.025184987112879753, -0.024198193103075027, -0.0266876183450222, 0.00468799564987421, -0.023794962093234062, -0.003313575405627489, -0.024416673928499222, -0.024617405608296394, -0.028449246659874916, -0.008465204387903214, -0.02691410481929779, 0.028564123436808586, 0.023905253037810326, 0.02612936869263649, -0.030074026435613632, 0.02923770435154438, -0.023001138120889664, 0.027948245406150818, -0.02460578642785549, 0.029538171365857124, -0.02728359028697014, -0.022996757179498672, -0.028303010389208794, 0.02189202792942524, 0.004821863025426865, 0.023378312587738037, -0.02505365200340748, -0.03196556493639946, -0.012861774303019047, -0.0015081267338246107, -0.025259435176849365, -0.024640752002596855, -0.00755833787843585, 0.014455233700573444, -0.02776814065873623, 0.027738817036151886, 0.009272927418351173, 0.005605926271528006, -0.02671685814857483, 0.004372056573629379, -0.008568939752876759, -0.02187221124768257, 0.0293988399207592, 0.024942677468061447, -0.03484230116009712, 0.012604774907231331, -0.02496355026960373, -0.006729284301400185, -0.0052494630217552185, -0.004077525343745947, 0.021651163697242737, 0.026308301836252213, 0.031708937138319016, 0.005819616373628378, -0.004123276099562645, 0.03137684613466263, -0.0065880632027983665, -0.0047990488819777966, -0.0045603979378938675, 0.0065812645480036736, -0.004986937623471022, 0.013597064651548862, -0.02731494978070259, 0.0052414038218557835, -0.008457343094050884, -0.022447220981121063, -0.005333714187145233, -0.004423066508024931, 0.021596956998109818, 0.028913412243127823, -0.0246882326900959, -0.026347707957029343, -0.03027467429637909, 0.02880251035094261], [0.039639391005039215, -0.043946970254182816, 0.004423832055181265, -0.029770763590931892, 0.022766415029764175, -0.041333310306072235, -0.0053520239889621735, -0.030849939212203026, -0.03339129313826561, -0.025258749723434448, -0.013501271605491638, -0.027509847655892372, 0.02217426709830761, 0.03677663579583168, 0.013053563423454762, 0.0013426903169602156, -0.0034436851274222136, -0.03639490157365799, -0.04162650927901268, -0.04976530373096466, 0.030782068148255348, 0.03191601485013962, 0.004545802250504494, -0.03388255834579468, 0.023180123418569565, -0.00839746743440628, 0.03646351397037506, 0.022968800738453865, 0.004347699694335461, -0.036322642117738724, 0.024433689191937447, -0.04062183201313019, 0.03649367019534111, -0.014550403691828251, -0.008144951425492764, -0.005537315737456083, 0.012537956237792969, -0.02833813615143299, 0.03134680911898613, 0.009614534676074982, 0.042635560035705566, -0.006128900684416294, 0.01839534007012844, -0.040821805596351624, 0.04493220895528793, -0.019546521827578545, 0.04135388135910034, 0.049070172011852264, -0.016146576032042503, -0.03240903839468956, 0.030739106237888336, -0.04188087210059166, 0.010578148998320103, -0.02150902710855007, 0.031916458159685135, 0.005310035310685635, 0.028116175904870033, -0.03383629396557808, 0.029922766610980034, 0.015133574604988098, 0.034712500870227814, 0.027509396895766258, 0.02993202582001686, 0.02793116308748722, 0.030212683603167534, -0.03619363531470299, -0.026016851887106895, -0.009443377144634724, 0.03621343523263931, -0.04216385632753372, 0.031325194984674454, -0.035054098814725876, 0.01528867892920971, -0.02628316916525364, 0.007259112782776356, 0.025727583095431328, 0.028725869953632355, -0.03560897707939148, -0.025610003620386124, -0.02629273757338524, 0.025769827887415886, 0.033642709255218506, 0.0398193784058094, 0.013287609443068504, 0.029475020244717598, 0.009176922962069511, 0.008091063238680363, -0.013313570991158485, 0.024822833016514778, -0.02070515789091587, -0.004813581705093384, -0.010752859525382519, 0.010176650248467922, -0.039126016199588776, 0.026610780507326126, 0.025514092296361923, -0.004866329487413168, -0.02999422885477543, 0.041937194764614105, -0.008521048352122307, 0.03643396496772766, 0.027664383873343468, 0.029921723529696465, 0.048710599541664124, -0.01871001161634922, -0.015197589062154293, -0.03989705443382263, -0.03761092200875282, 0.027522167190909386, -0.04809543862938881, 0.036593224853277206, 0.02776498720049858, 0.01466323435306549, -0.026634305715560913, 0.03378993272781372, -0.005426995921880007, 0.03331872075796127, -0.005187136121094227, 0.005477145314216614, 0.023620622232556343, 0.030042381957173347, 0.027222316712141037, -0.023260951042175293, -0.047295644879341125, 0.005762647371739149, 0.016657771542668343, 0.004447081126272678, -0.03368058800697327], [-0.022471794858574867, 0.018557418137788773, -0.0044177561067044735, 0.010242431424558163, -0.015734707936644554, 0.009289279580116272, 0.004345238674432039, 0.01986633613705635, 0.004917278420180082, 0.01791209541261196, 0.014938512817025185, 0.0190860815346241, -0.014359944500029087, -0.008637792430818081, -0.024301469326019287, -0.016436610370874405, 0.004263995680958033, 0.01999525912106037, 0.0045073432847857475, 0.004680405370891094, -0.006142039317637682, -0.022370921447873116, -0.017010100185871124, 0.004360264167189598, -0.00557141937315464, 0.00441874610260129, -0.004898382350802422, -0.02401321567595005, -0.021011706441640854, 0.020567353814840317, -0.020954638719558716, 0.024097803980112076, -0.005275459960103035, 0.027171151712536812, 0.015512402169406414, 0.018906228244304657, -0.024141114205121994, 0.01581992395222187, -0.017856046557426453, -0.013833316043019295, -0.02042512595653534, 0.01861659064888954, -0.01690743677318096, 0.0042401934042572975, -0.024946901947259903, 0.014440392144024372, -0.021373016759753227, -0.0046890126541256905, 0.018410177901387215, 0.004693970549851656, -0.0069790976122021675, 0.004026531707495451, -0.00957841519266367, 0.01463230699300766, -0.022660959511995316, -0.020938415080308914, -0.01889687217772007, 0.020072361454367638, -0.018853262066841125, -0.017069272696971893, -0.0030828826129436493, -0.018261874094605446, -0.013947607949376106, -0.019963525235652924, -0.018487831577658653, 0.021382417529821396, 0.016211260110139847, 0.019253859296441078, -0.021764904260635376, 0.023621486499905586, -0.004451062995940447, 0.021454906091094017, -0.018335938453674316, 0.00567702017724514, -0.021970633417367935, -0.0050994581542909145, -0.02071356773376465, 0.004820484202355146, 0.0188161451369524, 0.012028556317090988, -0.01720661111176014, -0.022031515836715698, -0.004645520821213722, -0.015041598118841648, -0.023201949894428253, -0.00475327717140317, -0.006389319896697998, 0.012409612536430359, -0.018658146262168884, 0.00649109436199069, 0.004950719885528088, 0.02017095498740673, -0.021880704909563065, 0.026314543560147285, -0.021050143986940384, -0.004301645327359438, 0.020198818296194077, 0.006708952132612467, -0.025445090606808662, 0.009701152332127094, -0.004556765779852867, -0.010364164598286152, -0.022271592170000076, -0.02378121390938759, 0.019511252641677856, 0.002714423928409815, 0.02320072054862976, 0.020804673433303833, -0.017980728298425674, 0.022533901035785675, -0.008366922847926617, -0.01951976679265499, -0.01398822944611311, 0.004950754810124636, -0.022348590195178986, 0.0192786306142807, -0.02128061093389988, 0.020866014063358307, -0.021225031465291977, -0.014829259365797043, -0.02415948174893856, -0.01969868317246437, 0.004833665210753679, 0.0217987522482872, -0.018461160361766815, -0.020662041381001472, -0.021351931616663933, 0.004468710161745548], [0.009382735006511211, -0.013919898308813572, 0.004527830518782139, -0.016353987157344818, 0.004507183097302914, -0.011601247824728489, -0.001643499475903809, -0.01200133841484785, -0.015550653450191021, -0.0042656040750443935, -0.01675962097942829, -0.004338688682764769, 0.011940688826143742, 0.004304971545934677, 0.004528123885393143, 0.009432465769350529, -0.016342846676707268, -0.01329080294817686, -0.0038476483896374702, -0.004421190358698368, 0.0029001296497881413, 0.01781667396426201, 0.014218523167073727, -0.013412726111710072, 0.009973887354135513, -0.00533690582960844, 0.018362175673246384, 0.01755516417324543, 0.016866829246282578, -0.012830707244575024, 0.006087884306907654, -0.003372513921931386, 0.01294691301882267, -0.004421913530677557, -0.0157444067299366, -0.01371191255748272, 0.016684899106621742, -0.003392015816643834, 0.012624198570847511, 0.011930742301046848, 0.013283532112836838, -0.004885223228484392, 0.008597645908594131, -0.0046065677888691425, 0.0043558222241699696, -0.0019259870750829577, 0.01420204620808363, 0.010251849889755249, -0.013797488994896412, -0.0034934263676404953, 0.003625942161306739, -0.0025797784328460693, 0.012404073029756546, -0.012537107802927494, 0.004136782139539719, 0.014615369960665703, 0.011681156232953072, -0.0040156058967113495, 0.005199671722948551, 0.01588550955057144, 0.003139310982078314, 0.005286616738885641, 0.005408852826803923, 0.012697623111307621, 0.015366904437541962, -0.005141253117471933, -0.0005737430765293539, -0.0042483191937208176, 0.014054960571229458, -0.004232627339661121, 0.0045648240484297276, -0.014001707546412945, 0.004214507527649403, -0.021803557872772217, 0.004297921899706125, 0.01355801522731781, 0.01230174582451582, -0.013196439482271671, -0.012705964967608452, -0.014098430052399635, 0.004866671282798052, 0.014418978244066238, 0.004163588862866163, 0.005969642661511898, 0.007203108165413141, 0.016239522024989128, 0.010619894601404667, -0.011353842914104462, 0.0036505265161395073, -0.004278459586203098, -0.004280083812773228, -0.005089177284389734, 0.0036607589572668076, -0.01868341863155365, 0.00359467719681561, 0.004164109472185373, -0.01161982398480177, -0.014379346743226051, 0.01578286848962307, -0.011629999615252018, 0.014161882922053337, 0.01481661107391119, 0.013206093572080135, 0.0035622844006866217, -0.012051913887262344, -0.010099371895194054, -0.004234200809150934, -0.015459878370165825, 0.003578171832486987, -0.01331045851111412, 0.0038810200057923794, 0.015353571623563766, 0.017498740926384926, -0.014600920490920544, 0.01672818884253502, -0.018263455480337143, 0.016521774232387543, -0.005309321917593479, 0.0041135381907224655, 0.0033333904575556517, 0.016464728862047195, 0.005006745457649231, -0.003088107332587242, -0.01572038047015667, 0.014648856595158577, 0.013124334625899792, 0.005982022266834974, -0.004435769747942686], [0.007341798394918442, -0.0033972468227148056, 6.378733087331057e-05, -0.010263925418257713, 0.004293140489608049, -0.0018623278010636568, -0.005578329786658287, -0.007605896331369877, -0.005409508477896452, -0.005159683991223574, -0.00410980312153697, -0.0054381838999688625, 0.008477074094116688, 0.0031796626280993223, 0.006491107866168022, 0.0009348311577923596, -0.005767855327576399, -0.009417678229510784, -0.008986499160528183, -0.003945993259549141, 0.011003091931343079, 0.005247099325060844, 0.011406349018216133, -0.008209041319787502, 0.007412374950945377, -0.003311926731839776, 0.0072022248059511185, 0.008748193271458149, 0.007138446439057589, -0.003145484020933509, 0.0048263887874782085, -0.005076756235212088, 0.008557823486626148, -0.009492340497672558, -0.0048631601966917515, -0.007409641053527594, 0.0016259511467069387, -0.008962573483586311, 0.008426415733993053, 0.010755007155239582, 0.0026896309573203325, -0.007716371212154627, 0.007842562161386013, -0.008162036538124084, 0.005577555857598782, -0.0032373061403632164, 0.009566797874867916, 0.005622534081339836, -0.006713708862662315, -0.009875853545963764, 0.003972743637859821, -0.008469145745038986, 0.010197384282946587, -0.005583812948316336, 0.007919126190245152, 0.0038678129203617573, 0.0026401688810437918, -0.011433095671236515, 0.006241932976990938, 0.003173318924382329, 0.003689503064379096, 0.002602469874545932, 0.003288307460024953, 0.010231518186628819, 0.01017195824533701, -0.007333359681069851, -0.008702055551111698, -0.00634195189923048, 0.0008830239530652761, -0.0032701115123927593, 0.007270542439073324, -0.00865982472896576, 0.010817904025316238, -0.00370913278311491, 0.0022551214788109064, 0.0020899740047752857, 0.0023035649210214615, -0.0045216199941933155, -0.009761443361639977, -0.003322228090837598, 0.006308161653578281, 0.0024455650709569454, 0.0072030313313007355, 0.0054382807575166225, 0.006846757140010595, 0.004929628223180771, 0.01009154412895441, -0.00803435780107975, 0.005753415636718273, -0.011203122325241566, -0.0062468042597174644, -0.0038606049492955208, 0.008640027604997158, -0.009026809595525265, 0.009131654165685177, 0.011771665886044502, -0.008184988982975483, -0.004212992265820503, 0.0027279595378786325, -0.008008921518921852, 0.002821815200150013, 0.010020680725574493, 0.004464443307369947, 0.009676259011030197, -0.00043529929826036096, -0.002843121998012066, -0.0012387713650241494, -0.003532183123752475, 0.010208435356616974, -0.003174270037561655, 0.007549311965703964, 0.010741379112005234, 0.005678754299879074, -0.006309594959020615, 0.009468571282923222, -0.004264458082616329, 0.008738559670746326, -0.007762657944113016, 0.009654215537011623, 0.007081194780766964, 0.006561359856277704, 0.004480591043829918, -0.0016173115000128746, -0.00710828835144639, 0.008167666383087635, 0.006546561606228352, 0.0052094971761107445, -0.005771685391664505], [-0.006046778056770563, 0.006520163733512163, -0.003853535745292902, 0.008998066186904907, -0.0032180550042539835, 0.001797942561097443, 0.0029747658409178257, 0.006138715427368879, 0.0021724391262978315, 0.0013864641077816486, 0.011024735867977142, 0.0061765387654304504, -0.007651998195797205, -0.0036204487551003695, -0.0024043070152401924, -0.001856768736615777, 0.0035628348123282194, 0.008212197571992874, 0.004951129201799631, 0.0035867346450686455, -0.0031703056301921606, -0.003935241140425205, -0.010899168439209461, 0.0029500427190214396, -0.002829597797244787, 0.003069890895858407, -0.0033737868070602417, -0.003210383700206876, -0.006634504068642855, 0.009318431839346886, -0.004187298938632011, 0.006126216147094965, -0.003420073539018631, 0.005821472965180874, 0.004837118089199066, 0.004457762464880943, -0.002963652601465583, 0.010287410579621792, -0.0033692363649606705, -0.010942243039608002, -4.229605838190764e-05, 0.0038954506162554026, -0.006564704235643148, 0.005823166109621525, -0.0038614284712821245, 0.002290179952979088, -0.0028662020340561867, -0.0016829009400680661, 0.0022673998028039932, 0.006244864780455828, -0.003070285776630044, 0.004236673470586538, -0.0030463077127933502, 0.012925106100738049, -0.0037697895895689726, -0.0048347231931984425, -0.003924540709704161, 0.008217386901378632, -0.003104087198153138, -0.005848415195941925, -0.008699013851583004, -0.0006117946468293667, -0.004004437010735273, -0.003685360075905919, -0.006858108565211296, 0.007673095911741257, 0.005156995262950659, 0.003217890625819564, -0.006832714658230543, 0.0010534145403653383, -0.004301038570702076, 0.004166186787188053, -0.007423826027661562, 0.005684987176209688, -0.0007965101394802332, -0.001437006052583456, -0.0014769505942240357, 0.000717935967259109, 0.004454136826097965, 0.004443334881216288, -0.006878567393869162, -0.01291034184396267, -0.002454179571941495, -0.004303477238863707, -0.008206595666706562, -0.002508926670998335, -0.0007214421639218926, 0.009821901097893715, -0.0009976354194805026, 0.003404025686904788, 0.004193473141640425, 0.0035954099148511887, -0.00764483492821455, 0.006226814817637205, -0.003323409240692854, -0.005395857151597738, 0.007417777553200722, 0.009117307141423225, -0.002704567974433303, 0.008439870551228523, -0.007996930740773678, -0.003662863979116082, -0.003941948059946299, -0.0029520895332098007, 0.0004046731337439269, 0.0008277537999674678, 0.0009408140904270113, 0.0018001847201958299, -0.008208482526242733, 0.0031722052954137325, -0.009342862293124199, -0.009378429502248764, -0.014713961631059647, 0.0028435043059289455, -0.005038501229137182, 0.0024074765387922525, -0.003628940088674426, 0.006653566844761372, -0.006455366034060717, -0.0037914644926786423, -0.0014450353337451816, -0.0017271633259952068, 0.0039016951341181993, 0.0034918549936264753, -0.0074010733515024185, -0.0051217651925981045, -0.005490781273692846, 0.003840384539216757], [-0.0005074731889180839, 0.001096365274861455, -0.0009973020059987903, 0.0016535037430003285, -0.005239113233983517, 0.005889317486435175, 0.004955925513058901, 0.00016890314873307943, 0.00944017618894577, 0.0007563266553916037, 0.0034751426428556442, 0.0009148569079115987, -0.003253961680456996, -0.006300441920757294, -0.006665907334536314, -0.014747735112905502, 0.009426731616258621, 0.002140115713700652, 0.0007737409905530512, 0.0012310525635257363, -0.003513049567118287, -0.012595421634614468, -0.006862784270197153, 0.011427043005824089, -0.013726387172937393, 0.010779469273984432, -0.011471280828118324, -0.010241193696856499, -0.01114799827337265, 0.003369285259395838, -0.00032162206480279565, 0.0016839673044160008, -0.000686587009113282, 0.0028086986858397722, 0.015658007934689522, 0.010020988062024117, -0.01205421146005392, 0.005072602536529303, -0.004728497005999088, -0.0052085877396166325, -0.010273932479321957, 0.0030331965535879135, -0.0019035935401916504, 0.006607857998460531, -0.01285882294178009, 0.002504938980564475, -0.0005830050213262439, -0.010133640840649605, 0.012140260078012943, 0.0003034388064406812, -0.002033425960689783, 0.0016815531998872757, -0.0007075131870806217, 0.00841496605426073, -0.010085017420351505, -0.006374690681695938, -0.014964476227760315, 0.00013652659254148602, -0.0023355279117822647, -0.001248798449523747, -0.003714255290105939, -0.0018306365236639977, -0.004271087236702442, -0.0025185018312186003, -0.0020655058324337006, 0.0008197198621928692, 0.0011930539039894938, 0.012778648175299168, -0.005895594600588083, 0.01158074475824833, -0.0003885245241690427, 0.0033770736772567034, -0.008683537133038044, 0.009330005384981632, -0.01181311346590519, -0.01013079285621643, -0.003355285618454218, 0.002331096213310957, 0.0028043484780937433, 0.001745218993164599, -0.0027555422857403755, -0.012455799616873264, -0.005130106117576361, -0.0019579764921218157, -2.6438974600750953e-05, -0.0014533507637679577, -0.010985706001520157, 0.00991760566830635, -0.009212776087224483, 0.0016465464141219854, 0.012270106002688408, 0.011654856614768505, -0.0007253177464008331, 0.010708686895668507, -0.0009621864301152527, -0.004108472261577845, 0.002395323244854808, 0.001514346688054502, -0.002962092636153102, 0.007001071237027645, -0.0037725719157606363, -0.002412233967334032, -0.0016933531733229756, -0.00186210370156914, 0.013626047410070896, 0.011023598723113537, 0.001433951547369361, 0.00626315688714385, -0.009610524401068687, 0.01133745163679123, -0.002061190316453576, -0.008676048368215561, -0.0015131798572838306, 0.000907736481167376, -0.0026321287732571363, 0.012218603864312172, -0.0060577658005058765, 0.00159072142560035, -0.0006528619560413063, -0.009220882318913937, -0.004541188012808561, -0.017223866656422615, 0.0013769831275567412, 0.001811146386899054, -0.0010467288084328175, -0.000921849103178829, -0.010189246386289597, 0.0030677770264446735], [0.0025999373756349087, -0.00358000909909606, 0.03151146322488785, -0.00238948967307806, 0.050204064697027206, -0.00990479625761509, -0.004810614511370659, -0.0016682891873642802, -0.02886888198554516, -0.03608246147632599, -0.0016624025302007794, -0.0028437788132578135, 0.03285493701696396, 0.004006282892078161, 0.004593973513692617, 0.026319118216633797, -0.002715944778174162, -0.0048310412093997, -0.0017685245256870985, -0.005452739540487528, 0.006131196394562721, 0.0036122584715485573, 0.02255006693303585, -0.0043026660569012165, 0.027230598032474518, -0.04349300637841225, 0.021699698641896248, 0.031283363699913025, 0.007156693376600742, -0.003265636507421732, 0.004823983646929264, -0.005763016175478697, 0.0069880918599665165, -0.003776966594159603, -0.005557735916227102, -0.005041018128395081, 0.0030120322480797768, -0.002945316955447197, 0.0039703319780528545, 0.008528333157300949, 0.003659778507426381, -0.0035491089802235365, 0.02114415355026722, -0.004094341769814491, 0.005602603312581778, -0.04524925351142883, 0.007180840242654085, 0.004796274937689304, -0.0013657573144882917, -0.0034123340155929327, 0.002687315223738551, -0.003902674186974764, 0.004222159739583731, -0.0419137217104435, 0.020101089030504227, 0.026095179840922356, 0.008525005541741848, -0.0014848054852336645, 0.013433636166155338, 0.005833259783685207, 0.0034838903229683638, 0.036660488694906235, 0.032487064599990845, 0.0014402990927919745, 0.004127565771341324, -0.0029049343429505825, -0.00658959848806262, -0.0062250904738903046, 0.012900358997285366, -0.004967121873050928, 0.0029788606334477663, -0.003543675411492586, 0.00273626996204257, -0.005828825756907463, 0.0017152284272015095, 0.043521616607904434, 0.002252146601676941, -0.0047851367853581905, -0.004365646746009588, -0.02892858348786831, 0.0374157689511776, 0.0016920308116823435, 0.004838963039219379, 0.02632143907248974, 0.002132569206878543, 0.006413131952285767, 0.033642444759607315, -0.017472952604293823, 0.004760633688420057, -0.004210968967527151, -0.005964931566268206, -0.006127850618213415, 0.00631445087492466, -0.004017006140202284, 0.006676522083580494, 0.0047124032862484455, -0.002758151153102517, -0.0026885366532951593, 0.009905092418193817, -0.011799563653767109, 0.003082004375755787, 0.007866187952458858, 0.005868789739906788, 0.0027994161937385798, -0.005134133156388998, -0.0282402653247118, -0.0033351422753185034, -0.004116285126656294, 0.001195459277369082, -0.0043356516398489475, 0.0036279635969549417, 0.028401164337992668, 0.0006711511523462832, -0.006555596366524696, 0.005127742420881987, -0.004286614246666431, 0.001560378004796803, -0.0018545694183558226, 0.003893662476912141, 0.021862192079424858, 0.004026413895189762, 0.03348295018076897, -0.048118218779563904, -0.002878045430406928, 0.0033748564310371876, 0.0022751076612621546, 0.030071737244725227, -0.004426300060003996], [-0.0109473317861557, 0.008672676980495453, -0.0029712538234889507, 0.00926132034510374, -0.0037378452252596617, 0.0015392835484817624, 0.0032451539300382137, 0.009784556925296783, 0.005015822127461433, 0.004031674470752478, 0.00655078561976552, 0.0031986816320568323, -0.011538135819137096, -0.008502151817083359, -0.0027612540870904922, -0.0009738985099829733, 0.004267869982868433, 0.006721571087837219, 0.006124168634414673, 0.0038008769042789936, -0.008106851018965244, -0.006623872090131044, -0.01115170493721962, 0.00835377722978592, -0.004109400790184736, 0.005080046597868204, -0.003251582384109497, -0.0034340564161539078, -0.005621263291686773, 0.009077396243810654, -0.004064398817718029, 0.006999935954809189, -0.008092165924608707, 0.008804580196738243, 0.00487521244212985, 0.006699391640722752, -0.0017643121536821127, 0.00514204753562808, -0.010972106829285622, -0.0019451178377494216, -0.002276715124025941, 0.009794116020202637, -0.003443238791078329, 0.00983577873557806, -0.0053191338665783405, 0.004136477597057819, -0.005085132550448179, -0.004530930891633034, 0.0027163741178810596, 0.011603388004004955, -0.006632200442254543, 0.006545891519635916, -0.003758009523153305, 0.0028891577385365963, -0.0032197560649365187, -0.002323365770280361, -0.005875220522284508, 0.009558760561048985, -0.008843124844133854, -0.0029732496477663517, -0.010245858691632748, -0.0036887796595692635, -0.002832104219123721, -0.011136668734252453, -0.010089907795190811, 0.004508099053055048, 0.01007786113768816, 0.008131268434226513, -0.001740321982651949, 0.0030216292943805456, -0.00953871663659811, 0.004579234402626753, -0.003859210992231965, 0.0011310330592095852, -0.0018033449305221438, -0.014069621451199055, -0.0067484090104699135, 0.0049858298152685165, 0.008276836946606636, 0.0077933962456882, -0.003573013236746192, -0.0017427039565518498, -0.003570422763004899, -6.060166560928337e-05, -0.003914852160960436, -0.0033939657732844353, -0.011251330375671387, 0.007353880442678928, -0.006567002274096012, 0.009349486790597439, 0.008073976263403893, 0.0030207550153136253, -0.00783393532037735, 0.0029041017405688763, -0.0034094841685146093, -0.008358976803719997, 0.009216994978487492, 0.0038759757298976183, -0.0029842399526387453, 0.006874783430248499, -0.005334774032235146, -0.004200857598334551, -0.003221974242478609, -0.007246694527566433, 0.014093971811234951, 0.0016417925944551826, 0.0001926766271935776, 0.0027889758348464966, -0.011689946055412292, 0.0005789182032458484, -0.008513140492141247, -0.008962620981037617, -0.014408297836780548, 0.0099592050537467, -0.003921134863048792, 0.0028281775303184986, -0.005460280459374189, 0.004483443684875965, -0.008058801293373108, -0.009579046629369259, -0.0044059972278773785, -0.0014335578307509422, 0.0027723927050828934, 0.008335087448358536, -0.009166540578007698, -0.0034078278113156557, -0.007678788620978594, 0.008964389562606812], [-0.0095297172665596, 0.004872266203165054, -0.010995319113135338, 0.010956254787743092, -0.012167955748736858, 0.012821408919990063, 0.004197608679533005, 0.001957290805876255, 0.012383321300148964, 0.0017801098292693496, 0.006310656666755676, 0.0019830106757581234, -0.0023242647293955088, -0.010158943012356758, -0.0015962546458467841, -0.011709336191415787, 0.01117265410721302, 0.002097527962177992, 0.0028487357776612043, 0.0047653308138251305, -0.008743112906813622, -0.004817416425794363, -0.0012676141923293471, 0.009925064630806446, -0.012601436115801334, 0.012058405205607414, -0.009414632804691792, -0.008232752792537212, -0.0019321254221722484, 0.0016638581873849034, -0.013512697070837021, 0.0008941513951867819, -0.01269438210874796, 0.0007146241841837764, 0.016161680221557617, 0.011172136291861534, -0.00288626691326499, 0.0008865405106917024, -0.008884294889867306, -0.006781310774385929, -0.002794478554278612, 0.007785443682223558, -0.002857175190001726, 0.011488440446555614, -0.005330574233084917, 0.0021224708762019873, -0.0037253014743328094, -0.011499852873384953, 0.005234739743173122, 0.0007887287065386772, -0.002382423961535096, 0.0019846372306346893, -0.01046112272888422, 0.005319769959896803, -0.01262479368597269, -0.013741687871515751, -0.011626433581113815, 0.002496998989954591, -0.010484385304152966, -0.01564323529601097, -0.0021920627914369106, -0.010025414638221264, -0.005271643865853548, -0.0005396386841312051, -0.0019387835636734962, 0.002278778236359358, 0.002412140602245927, 0.010290325619280338, -0.012944592162966728, 0.001944890944287181, -0.008225434459745884, 0.012813428416848183, -0.008728682063519955, 0.011812321841716766, -0.006323094479739666, -0.004775444511324167, -0.014066050760447979, 0.012598041445016861, 0.0020823045633733273, 0.010719646699726582, -0.0027703416999429464, -0.008491136133670807, -0.012103382498025894, -0.01560180727392435, -0.006861273664981127, -0.0002772551088128239, -0.0012605563970282674, 0.00655792374163866, -0.011359824799001217, 0.0109668904915452, 0.004853527061641216, 0.0056289019994437695, -0.013477281667292118, 0.01077998336404562, -0.001316084060817957, -0.0010709504131227732, 0.005195079371333122, 0.009872623719274998, -0.001532238908112049, 0.0069691333919763565, -0.0029344921931624413, -0.00466953357681632, -0.012731550261378288, -0.003408553544431925, 0.0037178455386310816, 0.000611326948273927, 0.007705928757786751, 0.0004791867104358971, -0.0009902049787342548, 0.0020921435207128525, -0.002406924497336149, -0.011605273000895977, -0.012912760488688946, 0.012337365187704563, -0.002781506162136793, 0.012377296574413776, -0.0023781079798936844, 0.008250336162745953, -0.0017330781556665897, -0.0055297198705375195, -0.0028039265889674425, -0.00953623466193676, 0.005502022802829742, 0.008763276971876621, -0.008758359588682652, -0.01001928560435772, -0.011441865935921669, 0.01139496173709631], [0.020234357565641403, -0.016530461609363556, 0.01405009999871254, -0.015636678785085678, 0.013856220059096813, -0.00593353109434247, -0.02125665731728077, -0.01483543124049902, -0.02029521018266678, -0.013306433334946632, -0.012705533765256405, -0.015934405848383904, 0.015037125907838345, 0.004632642958313227, 0.01800578646361828, 0.014996114186942577, -0.019493568688631058, -0.016103675588965416, -0.004590469412505627, -0.018009185791015625, 0.016970379278063774, 0.01847822219133377, 0.012946095317602158, -0.021083645522594452, 0.004976112861186266, -0.007695851847529411, 0.022241851314902306, 0.006395726464688778, 0.021444395184516907, -0.01726553961634636, 0.01912969909608364, -0.016938341781497, 0.01947934366762638, -0.01344990823417902, -0.013496389612555504, -0.019442588090896606, 0.004417055752128363, -0.004195084795355797, 0.015926849097013474, 0.011524342000484467, 0.018580444157123566, -0.017309442162513733, 0.004610734526067972, -0.007141885347664356, 0.005427235271781683, -0.014362692832946777, 0.014558704569935799, 0.022639598697423935, -0.01739284209907055, -0.018504230305552483, 0.017389971762895584, -0.0039032602217048407, 0.019523248076438904, -0.008030860684812069, 0.016418712213635445, 0.019860340282320976, 0.01665927655994892, -0.01982603222131729, 0.016071457415819168, 0.017094995826482773, 0.003926131874322891, 0.01321510411798954, 0.01192899327725172, 0.018711527809500694, 0.004164241254329681, -0.016578657552599907, -0.018151532858610153, -0.004860106855630875, 0.010089890100061893, -0.014189671725034714, 0.011867540888488293, -0.017646165564656258, 0.015185296535491943, -0.01990344002842903, 0.0054090386256575584, 0.005085899028927088, 0.00822943914681673, -0.019792379811406136, -0.004861181601881981, -0.014557700604200363, 0.006144564598798752, 0.014773571863770485, 0.020256584510207176, 0.0030215675942599773, 0.021139416843652725, 0.016901372000575066, 0.005651907529681921, -0.011111038736999035, 0.01963401585817337, -0.015612663701176643, -0.019289419054985046, -0.01772071048617363, 0.017855552956461906, -0.02244407683610916, 0.017049942165613174, 0.006665716413408518, -0.016504904255270958, -0.016331784427165985, 0.02187291905283928, -0.010955888777971268, 0.005876282230019569, 0.018195094540715218, 0.015257506631314754, 0.019246399402618408, -0.01895708590745926, -0.015378789976239204, -0.017150307074189186, -0.004450544714927673, 0.016898317262530327, -0.012830305844545364, 0.015894239768385887, 0.017601333558559418, 0.01900157518684864, -0.020825717598199844, 0.004607047885656357, -0.017604803666472435, 0.00489080511033535, -0.01682760752737522, 0.018430279567837715, 0.01735464669764042, 0.021719248965382576, 0.005242177285254002, -0.00465371971949935, -0.019163263961672783, 0.003903445787727833, 0.015823710709810257, 0.018096787855029106, -0.01893872581422329], [0.007907530292868614, -0.008924235589802265, 0.0014191308291628957, -0.010202057659626007, 0.00535579863935709, -0.003874367568641901, -0.007563815917819738, -0.007036659866571426, -0.00416110223159194, -0.005653973203152418, -0.010135115124285221, -0.0035247025080025196, 0.00991060584783554, 0.010036087594926357, 0.01118076965212822, 0.0017223571194335818, -0.005140021909028292, -0.011088557541370392, -0.00703277625143528, -0.003358614630997181, 0.01069958508014679, 0.0038192630745470524, 0.011611303314566612, -0.0033388864248991013, 0.004116451367735863, -0.00751451775431633, 0.007690064143389463, 0.00948336161673069, 0.006536371074616909, -0.007095992565155029, 0.008430476300418377, -0.006765569094568491, 0.007304680999368429, -0.011378714814782143, -0.010041535831987858, -0.009125643409788609, 0.0028820422012358904, -0.009347696788609028, 0.011579293757677078, 0.010226652026176453, 0.0035554629284888506, -0.008699166588485241, 0.004775129724293947, -0.010208679363131523, 0.003171679098159075, -0.004471303429454565, 0.006563819479197264, 0.004908056929707527, -0.006578127853572369, -0.009766028262674809, 0.010885328985750675, -0.007268568035215139, 0.011069713160395622, -0.007492270786315203, 0.010177645832300186, 0.0006248707068152726, 0.005082658492028713, -0.012406685389578342, 0.008643945679068565, 0.009028146043419838, 0.0028154097963124514, 0.0042536151595413685, 0.009555544704198837, 0.0035768605303019285, 0.003663579700514674, -0.008284937590360641, -0.006860589142888784, -0.007033619098365307, 0.005692098289728165, -0.006853186525404453, 0.007332039996981621, -0.0038527946453541517, 0.01251306664198637, -0.005771628115326166, 0.003177790902554989, 0.005734309088438749, 0.003803290892392397, -0.008174861781299114, -0.00663099205121398, -0.0033985436893999577, 0.011964336968958378, 0.008955634199082851, 0.00668985303491354, 0.004631228744983673, 0.00948513112962246, 0.01020251028239727, 0.005943522322922945, -0.010789352469146252, 0.011638273485004902, -0.008420293219387531, -0.003871014341711998, -0.0034417035058140755, 0.007431420497596264, -0.0034831115044653416, 0.008571644313633442, 0.009206043556332588, -0.0030967078637331724, -0.008718371391296387, 0.010627089068293571, -0.009828348644077778, 0.00910217221826315, 0.011291720904409885, 0.011225750669836998, 0.009720860980451107, -0.005643932148814201, -0.008112211711704731, -0.0030919634737074375, -0.01108041312545538, 0.008365307003259659, -0.003196119796484709, 0.006819135043770075, 0.00870203971862793, 0.004105840809643269, -0.00412488728761673, 0.003825591178610921, -0.006002477835863829, 0.004775122739374638, -0.010421833023428917, 0.0062759676948189735, 0.0028568939305841923, 0.01005768682807684, 0.007278560195118189, -0.004444468300789595, -0.009168592281639576, 0.005067323800176382, 0.008257861249148846, 0.003850766224786639, -0.010372343473136425], [-0.002633045194670558, 0.0011474118800833821, -0.011183667927980423, 0.0013648336753249168, -0.0009766635484993458, 0.0007966702687554061, 0.0020373223815113306, 0.00896710529923439, 0.0041825296357274055, 0.012290754355490208, 0.0027545366901904345, 0.007767046336084604, -0.007430998142808676, -0.005936266388744116, -0.005700003821402788, -0.006918175611644983, 0.003425017697736621, 0.000585098285228014, 0.003977662418037653, 0.0023260759189724922, -0.002114818664267659, -0.006540574599057436, -0.001334854052402079, 0.007306030951440334, -0.012966466136276722, 0.006015916354954243, -0.000609237642493099, -0.007195367943495512, -0.0018265001708641648, 0.002338547958061099, -0.012493430636823177, 0.003953368403017521, -0.0024417652748525143, 0.0070594726130366325, 0.0154222147539258, 0.01092478260397911, -0.011884471401572227, 0.0010949026327580214, -0.0070776487700641155, -0.00699049886316061, -0.00429190881550312, 0.00451310258358717, -0.003846683306619525, 0.00034502704511396587, -0.0008158432319760323, 0.0037808306515216827, -0.0049941884353756905, -0.011475817300379276, 0.005713900551199913, 0.0068608904257416725, -0.001882942859083414, 0.008430109359323978, -0.0017251229146495461, 0.011434960179030895, -0.0018716350896283984, -0.0012858196860179305, -0.013026351109147072, 0.007479586638510227, -0.0021017177496105433, -3.640466457000002e-05, -0.006356889382004738, -0.015119319781661034, -0.006198263727128506, -0.010288776829838753, -0.010208898223936558, 0.0012204089434817433, 0.001597099588252604, 0.0024463722947984934, -0.003146860748529434, 0.0022575240582227707, -0.002241778653115034, 0.0046547348611056805, -0.00857938826084137, 0.009739706292748451, -0.00616947328671813, -0.0008110917988233268, -0.012281550094485283, 0.0048362696543335915, 0.0010896980529651046, 0.006629256531596184, -0.011517279781401157, -0.010802390053868294, -0.011740771122276783, -0.015574502758681774, -0.013169444166123867, -0.0011892399052157998, -0.0017714082496240735, 0.00979951024055481, -0.0035151676274836063, 0.0038549138698726892, 0.0041930172592401505, 0.0014939989196136594, -0.0033421977423131466, 0.004430876579135656, -0.0010976967168971896, -0.002412608824670315, 0.007196533028036356, 0.0016645920695737004, -0.0006953938864171505, 0.006884446367621422, -0.0037215999327600002, -0.00010346758062951267, -0.012794364243745804, -0.004816500004380941, 0.001055611646734178, 0.005049276631325483, 0.008381767198443413, 0.0008188563515432179, -0.007950101979076862, 0.008402560837566853, -0.008202609606087208, -0.011616715230047703, -0.001785077853128314, 0.005722612142562866, -0.00901979859918356, 0.006732713431119919, -0.005923931021243334, 0.0046791210770606995, -0.0018825900042429566, -0.007064079400151968, -0.010114296339452267, -0.008467023260891438, 0.013028285466134548, 0.0037619268987327814, -0.010008045472204685, -0.010188983753323555, -0.004227464087307453, 0.002502031624317169], [-0.0024790724273771048, 0.003034721128642559, -0.010097398422658443, 0.006149927154183388, -0.0021398579701781273, 0.0010512613225728273, 0.002029459225013852, 0.003427409566938877, 0.0022703225258737803, 0.012174547649919987, 0.009307368658483028, 0.002372545888647437, -0.005451921373605728, -0.0024163026828318834, -0.0030004330910742283, -0.014984704554080963, 0.006394346244633198, 0.0029153411742299795, 0.00340276793576777, 0.013821221888065338, -0.006216797046363354, -0.0033188911620527506, -0.005747945047914982, 0.0003810558991972357, -0.003915875218808651, 0.0023600913118571043, -0.0026812832802534103, -0.003603579942137003, -0.0018325746059417725, 0.006426484789699316, -0.0005172831588424742, 0.0008958819089457393, -0.00022628402803093195, 0.002443077275529504, 0.003338702954351902, 0.002506207674741745, -0.00595968309789896, 0.0029413511510938406, -0.0039918143302202225, -0.007070330437272787, -0.009439527057111263, 0.0028436160646378994, -0.0007415941217914224, 0.0006213726592250168, -0.012520663440227509, 0.0004730242071673274, -0.003180550178512931, -0.012143629603087902, 0.0031485939398407936, 0.0019753961823880672, -0.007952932268381119, 0.0031010969541966915, -0.0014930967008695006, 0.013100918382406235, -0.0032632132060825825, -0.0032684148754924536, -0.0034787326585501432, 0.002614447381347418, -0.0007052618893794715, -0.003275413066148758, -0.007183480076491833, -0.006655339617282152, -0.01364552229642868, -0.002806637203320861, -0.0021191202104091644, 0.002636004937812686, 0.000607914524152875, 0.0023346340749412775, -0.0007652617059648037, 0.012114636600017548, -0.0013766782358288765, 0.00206741807051003, -0.00285250972956419, 0.0015984080964699388, -0.013023250736296177, -0.011403609998524189, -0.0009421947761438787, 0.0112325893715024, 0.0032942157704383135, 0.0028245786670595407, -0.00045778986532241106, -0.012896865606307983, -0.003595008049160242, -0.009772988967597485, -0.00884723849594593, -0.004125506151467562, -0.01024502795189619, 0.010288260877132416, -0.012315486557781696, 0.0020246533676981926, 0.0007863997598178685, 0.011356116272509098, -0.00312067661434412, 0.0006693760515190661, -0.00385236251167953, -0.008291466161608696, 0.004898502491414547, 0.0059140524826943874, -0.00031033801496960223, 0.006586217787116766, -0.0029154864605516195, -0.0018764600390568376, -0.003112290520220995, -0.004418645519763231, 0.011326935142278671, 0.007859843783080578, 0.007055311929434538, 0.0007967791752889752, -0.005106923170387745, 0.00335677363909781, -0.0056707169860601425, -0.003759053535759449, -0.006100481376051903, 0.0033301115036010742, -0.001998597988858819, 0.008550112135708332, -0.0014627313939854503, 0.00013966005644761026, -0.0030040109995752573, -0.0044080950319767, -0.006069338880479336, -0.01153743825852871, 0.004806299228221178, 0.001756844692863524, -0.003318477887660265, -0.001776290126144886, -0.008769973181188107, 0.0033233945723623037], [0.020154030993580818, -0.004018572624772787, 0.00751529773697257, -0.01637614332139492, 0.014860464259982109, -0.005698970519006252, -0.020362723618745804, -0.016764599829912186, -0.004523398354649544, -0.01714799366891384, -0.01445510983467102, -0.01023182738572359, 0.003053836990147829, 0.004490971565246582, 0.004562004469335079, 0.01632375828921795, -0.01616666093468666, -0.0037365087773650885, -0.007681611925363541, -0.007778826169669628, 0.003781339153647423, 0.016528205946087837, 0.006445152685046196, -0.004098379518836737, 0.007886139675974846, -0.007593320216983557, 0.004590210504829884, 0.007912922650575638, 0.00435241824015975, -0.01799163781106472, 0.005145424511283636, -0.016834521666169167, 0.004581143148243427, -0.02198735810816288, -0.018037084490060806, -0.004113409668207169, 0.02007320336997509, -0.003541895654052496, 0.0039005076978355646, 0.015329794026911259, 0.018068673089146614, -0.01689745858311653, 0.020187975838780403, -0.019122112542390823, 0.004504153970628977, -0.004645122215151787, 0.018214816227555275, 0.0047269174829125404, -0.016278104856610298, -0.003993833903223276, 0.0029894281178712845, -0.003459394909441471, 0.018965551629662514, -0.0035114805214107037, 0.009392079897224903, 0.01969221793115139, 0.00471425661817193, -0.018287701532244682, 0.012276188470423222, 0.014688125811517239, 0.001507669105194509, 0.014134692959487438, 0.004920627921819687, 0.004124647472053766, 0.0179804228246212, -0.00416324520483613, -0.015085975639522076, -0.01613348163664341, 0.0193021297454834, -0.004401358310133219, 0.0045846025459468365, -0.004784200340509415, 0.0033519170247018337, -0.018872369080781937, 0.01834981143474579, 0.004628089722245932, 0.014055733568966389, -0.020232290029525757, -0.019252505153417587, -0.0031793254893273115, 0.017856666818261147, 0.017534267157316208, 0.019495785236358643, 0.015495214611291885, 0.009743056260049343, 0.004496298730373383, 0.02262645773589611, -0.0038646755274385214, 0.003794278483837843, -0.004628237336874008, -0.019835207611322403, -0.005425885785371065, 0.008687127381563187, -0.004489170853048563, 0.016997238621115685, 0.015526960603892803, -0.01716374233365059, -0.0027880696579813957, 0.021286645904183388, -0.012244939804077148, 0.0035552664194256067, 0.015224164351820946, 0.01844390481710434, 0.0035679899156093597, -0.014941959641873837, -0.01545297633856535, -0.020081408321857452, -0.004293003119528294, 0.014642559923231602, -0.017148027196526527, 0.01724456623196602, 0.014482625760138035, 0.01878739707171917, -0.005189559888094664, 0.0020455054473131895, -0.018042318522930145, 0.017730973660945892, -0.016714071854948997, 0.0199983362108469, 0.003999511245638132, 0.020969627425074577, 0.018884802237153053, -0.01629418320953846, -0.019013818353414536, 0.016059454530477524, 0.016329605132341385, 0.011713997460901737, -0.020359380170702934], [0.0036197721492499113, -0.01525793969631195, 0.003697013948112726, -0.004068480804562569, 0.0035801096819341183, -0.012629634700715542, -0.0060733528807759285, -0.015590479597449303, -0.004454038571566343, -0.010684200562536716, -0.009392589330673218, -0.01622968167066574, 0.004243294708430767, 0.01407638005912304, 0.007395175285637379, 0.0047391681000590324, -0.013188283890485764, -0.004671668168157339, -0.012308301404118538, -0.01383927185088396, 0.007889023050665855, 0.0034450856037437916, 0.013564403168857098, -0.004044902510941029, 0.010952942073345184, -0.00423927279189229, 0.012919869273900986, 0.013075423426926136, 0.013554460369050503, -0.016591623425483704, 0.005574134178459644, -0.015948375687003136, 0.015053476206958294, -0.01588291861116886, -0.005205507855862379, -0.015082457102835178, 0.003988401032984257, -0.012090698815882206, 0.013496680185198784, 0.010681619867682457, 0.006659645587205887, -0.013278518803417683, 0.01204337552189827, -0.016669567674398422, 0.0114936837926507, -0.014732305891811848, 0.0035240694414824247, 0.0039248340763151646, -0.012618090957403183, -0.01867927424609661, 0.01687128096818924, -0.015055165626108646, 0.01679450087249279, -0.00415783328935504, 0.013113078661262989, 0.00342731480486691, 0.014195703901350498, -0.015936842188239098, 0.01360534131526947, 0.009361019358038902, 0.015202824026346207, 0.0049827927723526955, 0.011768894270062447, 0.016271740198135376, 0.016434364020824432, -0.013610712252557278, -0.011227281764149666, -0.012259655632078648, 0.006184697151184082, -0.0040215859189629555, 0.012516981922090054, -0.012820473872125149, 0.005806215573102236, -0.013650208711624146, 0.011882388032972813, 0.004207117483019829, 0.013621318154036999, -0.012360685504972935, -0.004141508135944605, -0.0039734127931296825, 0.004479400347918272, 0.01312522403895855, 0.0041802809573709965, 0.01023078989237547, 0.009910126216709614, 0.014106346294283867, 0.011566069908440113, -0.010306461714208126, 0.013827408663928509, -0.01733814924955368, -0.004451140761375427, -0.011682388372719288, 0.01345168799161911, -0.004154525231570005, 0.01725882850587368, 0.013287276029586792, -0.011380043812096119, -0.014733283780515194, 0.017554352059960365, -0.007959946990013123, 0.0036910439375787973, 0.012293150648474693, 0.007954184897243977, 0.014981715939939022, -0.009716108441352844, -0.010718137957155704, -0.012283354997634888, -0.004179221577942371, 0.0036409529857337475, -0.013051792979240417, 0.005166820250451565, 0.004415273666381836, 0.013062768615782261, -0.01577267237007618, 0.01596357300877571, -0.004295747727155685, 0.004157368093729019, -0.015860775485634804, 0.01553344912827015, 0.003579480107873678, 0.014957759529352188, 0.013649778440594673, -0.008223437704145908, -0.01118407677859068, 0.015813512727618217, 0.01394866593182087, 0.011474302969872952, -0.010769439861178398], [-0.0025094845332205296, 0.004470255225896835, -0.018689114600419998, 0.003644040087237954, -0.004977281205356121, 0.01468576118350029, 0.0024427722673863173, 0.00395293440669775, 0.0031328978948295116, 0.01270302478224039, 0.005666730925440788, 0.0011168061755597591, -0.013123181648552418, -0.0024057168047875166, -0.005844232626259327, -0.013336884789168835, 0.0021589971147477627, 0.002745356410741806, 0.003591991728171706, 0.006043116096407175, -0.0028266331646591425, -0.004294263198971748, -0.001314244233071804, 0.001385480398312211, -0.021686473861336708, 0.0031787215266376734, -0.0039060909766703844, -0.005733209196478128, -0.00343384244479239, 0.0025483390782028437, -0.013160403817892075, 0.0027917989064007998, -0.004095118027180433, 0.0035928168799728155, 0.015085309743881226, 0.0045891073532402515, -0.001363812480121851, 0.0029114249628037214, -0.009970237500965595, -0.018027089536190033, -0.0035599989350885153, 0.0036184859927743673, -0.021964414045214653, 0.0012629837729036808, -0.0026613769587129354, 0.016445964574813843, -0.003469056449830532, -0.00257282005622983, 0.004247331991791725, 0.0032775248400866985, -0.003242654027417302, 0.0031935616862028837, -0.004131688736379147, 0.004256779793649912, -0.004397840704768896, -0.02261430397629738, -0.005999865010380745, 0.0020095219369977713, -0.0036400125827640295, -0.02644995227456093, -0.0011704732896760106, -0.017047367990016937, -0.006155658978968859, -0.004680759739130735, -0.002666856860741973, 0.001224747858941555, 0.0021381776314228773, 0.001328169135376811, -0.005486415699124336, 0.0025294555816799402, -0.004686925560235977, 0.006158807314932346, -0.003230844158679247, 0.004576984327286482, -0.001578861614689231, -0.009891156107187271, -0.005526385735720396, 0.004039944615215063, 0.007859067060053349, 0.0037396729458123446, -0.005106641445308924, -0.005861359182745218, -0.0015523997135460377, -0.007137021515518427, -0.0021837493404746056, -0.005491812713444233, -0.015832610428333282, 0.01533581130206585, -0.003911659121513367, 0.0039158291183412075, 0.002836338011547923, 0.0038052774034440517, -0.01508388202637434, 0.0031142786610871553, -0.01095670461654663, -0.004001924302428961, 0.002679977100342512, 0.0012192450230941176, -0.00604561110958457, 0.012536449357867241, -0.0034639770165085793, -0.005100141745060682, -0.005066141951829195, -0.0025791574735194445, 0.027620533481240273, 0.027966417372226715, 0.00446650106459856, 0.0029243913013488054, -0.0033287403639405966, 0.0026773521676659584, -0.003663477022200823, -0.012038545683026314, -0.004165935795754194, 0.017590990290045738, -0.00427128653973341, 0.004291216842830181, -0.004718456882983446, 0.0034123791847378016, -0.0034533897414803505, -0.001252900343388319, -0.0024692255537956953, -0.004894675221294165, 0.005431865341961384, 0.004006055649369955, -0.0023798253387212753, -0.0020238584838807583, -0.013442001305520535, 0.0031967845279723406], [-0.016032375395298004, 0.003972221631556749, -0.0016889683902263641, 0.012654609978199005, -0.003832521615549922, 0.016208620741963387, 0.015836089849472046, 0.016383245587348938, 0.01091716531664133, 0.011125773191452026, 0.012918733060359955, 0.008066529408097267, -0.01564871519804001, -0.011140160262584686, -0.017397411167621613, -0.008740382269024849, 0.011486885137856007, 0.01353740319609642, 0.0038136187940835953, 0.018816910684108734, -0.014200192876160145, -0.00401191134005785, -0.018552184104919434, 0.005407413002103567, -0.004240050446242094, 0.012165241874754429, -0.0037249973975121975, -0.001323251286521554, -0.016701363027095795, 0.017962446436285973, -0.004576230421662331, 0.01597738452255726, -0.015678787603974342, 0.01372737716883421, 0.006538735702633858, 0.015136065892875195, -0.015198463574051857, 0.018096433952450752, -0.01613817922770977, -0.012317568995058537, -0.011971671134233475, 0.004197232890874147, -0.01057259738445282, 0.016856325790286064, -0.003943795338273048, 0.013671893626451492, -0.008361711166799068, -0.017523454502224922, 0.003877792740240693, 0.02272387035191059, -0.016032354906201363, 0.01510704681277275, -0.01868312433362007, 0.011276368983089924, -0.013372828252613544, -0.013614404015243053, -0.01656966097652912, 0.01991261914372444, -0.0045556421391665936, -0.007991017773747444, -0.016811545938253403, -0.005717198830097914, -0.017101144418120384, -0.007317396812140942, -0.018406474962830544, 0.01631878688931465, 0.014172496274113655, 0.01823408529162407, -0.013217486441135406, 0.003711659461259842, -0.01694687269628048, 0.00684937322512269, -0.0033970456570386887, 0.013192735612392426, -0.01463967002928257, -0.009463385678827763, -0.01547492016106844, 0.013367182575166225, 0.014761190861463547, 0.015203495509922504, -0.017314162105321884, -0.0037655020132660866, -0.004869891330599785, -0.009788751602172852, -0.01772974245250225, -0.017380977049469948, -0.011644990183413029, 0.007680316921323538, -0.011428648605942726, 0.006934011820703745, 0.017828870564699173, 0.010956762358546257, -0.013961266726255417, 0.020726192742586136, -0.018109863623976707, -0.0149897001683712, 0.006705617532134056, 0.005380680318921804, -0.010035569779574871, 0.010291174985468388, -0.017379211261868477, -0.011036069132387638, -0.017567230388522148, -0.0036141586024314165, 0.011865697801113129, 0.014914215542376041, 0.005115310195833445, 0.018919438123703003, -0.01352535281330347, 0.0036191539838910103, -0.01462722010910511, -0.004175446927547455, -0.004612344782799482, 0.01810639724135399, -0.01669549010694027, 0.013926525600254536, -0.004359631333500147, 0.016842113807797432, -0.01751020923256874, -0.011403047479689121, -0.01884770207107067, -0.004899105988442898, 0.011241169646382332, 0.018417466431856155, -0.013532442972064018, -0.014279652386903763, -0.012067696079611778, 0.00482369028031826], [0.003195542609319091, -0.006337408907711506, 0.01230510976165533, -0.005510618910193443, 0.007865739986300468, -0.0034321739803999662, -0.0031640962697565556, -0.003606434678658843, -0.013571127317845821, -0.0010801538592204452, -0.006503329612314701, -0.0064702765084803104, 0.003847182961180806, 0.0018384704599156976, 0.012509608641266823, 0.003180429572239518, -0.0035084530245512724, -0.006181443575769663, -0.0033270518761128187, -0.002063284395262599, 0.0039031761698424816, 0.0007646026788279414, 0.004813273902982473, -6.86025305185467e-05, 0.0026064389385282993, -0.0032203863374888897, 0.0001314569090027362, 0.001332603394985199, 0.0012094248086214066, -0.005605712532997131, 0.003500515129417181, -0.002039956161752343, 0.0010879458859562874, -0.0026203887537121773, -0.0016092575388029218, -0.0007925100508145988, 0.0018480397993698716, -0.0029937953222543, 0.0051644411869347095, 0.009203591383993626, 0.004453195724636316, -0.0028845658525824547, 0.0041145943105220795, -0.0009255264885723591, 0.0018944671610370278, -0.003429402131587267, 0.0031260151881724596, 0.0007528927526436746, -0.00011942684795940295, -0.0033866800367832184, 0.0026926128193736076, -0.0025359310675412416, 0.004344550427049398, -0.01293022371828556, 0.0027868011966347694, 0.0007825136417523026, 0.013516519218683243, -0.004299886524677277, 0.0035247541964054108, 0.0013455149019137025, 0.005923689343035221, 0.0020422805100679398, 0.003313671564683318, 0.0033365986309945583, 0.0025800825096666813, -0.003338352544233203, -0.003924477379769087, -0.0043907747603952885, 0.008230426348745823, -0.0019068897236138582, 0.0027969314251095057, -0.0022813291288912296, 0.002911538351327181, -0.013221892528235912, 0.012916218489408493, 0.009088349528610706, 0.0027392941992729902, -0.013233642093837261, -0.002954097930341959, -0.003032529726624489, 0.0006535770953632891, 0.005990125704556704, 0.0012588959652930498, 0.0002941428974736482, 0.0017480598762631416, 0.0018724130932241678, 0.011354235000908375, -0.009659595787525177, 0.0031401447486132383, -0.004044508095830679, -0.001978192012757063, -0.010169753804802895, 0.0018804093124344945, -0.001985338516533375, 0.00365068344399333, 0.004275960382074118, -0.002302750013768673, -0.003468096721917391, 0.008688876405358315, -0.007165055256336927, 0.004281253553926945, 0.0048070745542645454, 0.0016392028192058206, 0.002431785687804222, -0.013598919846117496, -0.0031680180691182613, -0.002690168796107173, -0.003372826846316457, 0.0030832947231829166, -0.012088761664927006, 0.0035396376624703407, 0.0029573319479823112, 0.014405099675059319, -0.003329140366986394, 0.004581758752465248, -0.0015711747109889984, 0.0029232290107756853, -0.0035731021780520678, 0.004803767427802086, 0.0025870460085570812, 0.003957874141633511, 0.00862166564911604, -0.0025653690099716187, -0.0024027139879763126, 0.0029247261118143797, 0.0019392487592995167, 0.010375156998634338, -0.002729192841798067], [0.0053688581101596355, -0.0028075645677745342, 0.013054309412837029, -0.0034002051688730717, 0.0012935602571815252, -0.00026008012355305254, -0.0008588110795244575, -0.0038761503528803587, -0.0024259621277451515, -0.0025233589112758636, -0.009213550016283989, -0.006389347370713949, 0.0033281848300248384, 0.0016858208691701293, 0.0005404420080594718, 0.002924001542851329, -0.001551823690533638, -0.0032198969274759293, -0.0029965732246637344, -0.0008851239690557122, 0.007773862220346928, 0.0010269297054037452, 0.006869141478091478, -0.00257659493945539, 0.0026516253128647804, -0.002726580249145627, 0.0050253719091415405, 0.00031599364592693746, 0.00491396663710475, -0.007657153997570276, 0.003608151338994503, -0.0007202667184174061, 0.0015857730759307742, -0.003271013032644987, -0.0032966546714305878, -0.0005360216018743813, 0.0033841002732515335, -0.002871824661269784, 0.004791488405317068, 0.008951457217335701, 0.003493117867037654, -0.00633276579901576, 0.004018453415483236, -0.004335266072303057, 0.002188241807743907, -0.0029052658937871456, 0.0020202049054205418, 0.00048242483171634376, -0.0030696727335453033, -0.004425357561558485, 0.006679674610495567, -0.0021464438177645206, 0.005552567075937986, -0.012230266816914082, 0.003256020601838827, 0.0015304993139579892, 0.0009215013706125319, -0.005986263044178486, 0.002427560044452548, 0.0037774296943098307, 0.002461726311594248, 0.0008874121122062206, 0.0031746593303978443, 0.005548151675611734, 0.0027832952328026295, -0.0033262132201343775, -0.002339877188205719, -0.002924184547737241, 0.001856816466897726, -0.009610607288777828, 0.0024748193100094795, -0.003240057500079274, 0.0029449004214257, -0.003540916135534644, 0.0032578089740127325, 0.003725177375599742, 0.00091420894023031, -0.0032985855359584093, -0.00519432732835412, -0.004926129709929228, 0.0022724694572389126, 0.012920401990413666, 0.002496059751138091, 0.0006243297248147428, 0.014921962283551693, 0.006460025906562805, 0.0001820103352656588, -0.010722269304096699, 0.005460444372147322, -0.0024179955944418907, -0.0012636451283469796, -0.015653574839234352, 0.0028263942804187536, -0.0007001896155998111, 0.003549661487340927, 0.008755230344831944, -0.0033303978852927685, -0.0033944856841117144, 0.00012015175161650404, -0.007080627605319023, 0.0026863657403737307, 0.0034084829967468977, 0.0017041272949427366, 0.004977244883775711, -0.01359967328608036, -0.003119885455816984, -0.013691103085875511, -0.0010759830474853516, 0.0036516233813017607, -0.0033060035202652216, 0.006990429479628801, 0.00541569571942091, 0.014132017269730568, -0.0031576042529195547, 0.004808962810784578, -0.0025880199391394854, 0.002419323194772005, -0.004024048801511526, 0.0020441487431526184, 0.006406708620488644, 0.0025317331310361624, 0.0036028954200446606, -0.0028114004526287317, -0.0020116495434194803, 0.00536084221675992, 0.001957498025149107, 0.0022229072637856007, -0.003775113495066762], [0.011298225261271, -0.01174865197390318, 0.004956264514476061, -0.013548346236348152, 0.0028804566245526075, -0.003498290665447712, -0.010055881924927235, -0.003844569670036435, -0.010627071373164654, -0.003453201847150922, -0.012528181076049805, -0.0034267555456608534, 0.003822180675342679, 0.003865699516609311, 0.009107047691941261, 0.0075063337571918964, -0.009760926477611065, -0.0034086520317941904, -0.009836269542574883, -0.0038924829568713903, 0.006260750349611044, 0.01247947197407484, 0.011836661025881767, -0.012183809652924538, 0.012346644885838032, -0.008927660994231701, 0.003969547804445028, 0.007349577732384205, 0.0028413617983460426, -0.0035273805260658264, 0.011705195531249046, -0.010871266946196556, 0.010427040979266167, -0.014971167780458927, -0.010940168052911758, -0.010841455310583115, 0.004112941212952137, -0.01030006818473339, 0.011487888172268867, 0.00922327022999525, 0.00688127800822258, -0.011011778376996517, 0.011965662240982056, -0.012826413847506046, 0.008847080171108246, -0.0037385348696261644, 0.01116748433560133, 0.0036805341951549053, -0.008911986835300922, -0.010348895564675331, 0.013788190670311451, -0.010292853228747845, 0.003957596607506275, -0.002983314683660865, 0.010819019749760628, 0.012098044157028198, 0.0031621980015188456, -0.004101377911865711, 0.002632643561810255, 0.004469792824238539, 0.0030019753612577915, 0.005439006257802248, 0.0036963094025850296, 0.010070041753351688, 0.012010346166789532, -0.002717717085033655, -0.0037517885211855173, -0.01233298983424902, 0.0031925204675644636, -0.0034315132070332766, 0.0032603226136416197, -0.004120245110243559, 0.01128121092915535, -0.010035116225481033, 0.008752554655075073, 0.004588929936289787, 0.006550142075866461, -0.010752914473414421, -0.0041636512614786625, -0.011971044354140759, 0.006785477977246046, 0.003967524506151676, 0.008756718598306179, 0.0039331940934062, 0.004384253174066544, 0.004813613835722208, 0.005249272100627422, -0.007720448542386293, 0.010236072354018688, -0.004126358311623335, -0.010226245038211346, -0.007339926436543465, 0.003294300055131316, -0.013486195355653763, 0.007210654206573963, 0.013239195570349693, -0.0112770926207304, -0.0140610933303833, 0.013446697033941746, -0.008589520119130611, 0.012713097967207432, 0.008834324777126312, 0.01100070122629404, 0.011081445030868053, -0.0073427180759608746, -0.0033222429919987917, -0.0034500823821872473, -0.008849862031638622, 0.010362738743424416, -0.005583344027400017, 0.010786869563162327, 0.011248067021369934, 0.006418053060770035, -0.010628573596477509, 0.00671665882691741, -0.003908677026629448, 0.011001568287611008, -0.01027671992778778, 0.010967976413667202, 0.010618533939123154, 0.01117855403572321, 0.004891155753284693, -0.006157978903502226, -0.010476645082235336, 0.012942925095558167, 0.0026589513290673494, 0.005565918982028961, -0.0037752478383481503], [-0.006303959526121616, 0.007200268562883139, -0.011635871604084969, 0.005957759916782379, -0.0024438505060970783, 0.003404338611289859, 0.005468976683914661, 0.006599508225917816, 0.0025247831363230944, 0.001172902761027217, 0.010627573356032372, 0.005831658840179443, -0.0056549864821136, -0.002159956842660904, -0.003196999430656433, -0.015467691235244274, 0.0007937269983813167, 0.004034867975860834, 0.006699233781546354, 0.001873912988230586, -0.008626623079180717, -0.001345912110991776, -0.007421168033033609, 0.0055414182133972645, -0.004970938432961702, 0.0053193774074316025, -0.002302697626873851, -0.00550516601651907, -0.004806084092706442, 0.006527749355882406, -0.0033516655676066875, 0.0030191142577677965, -0.004098137374967337, 0.005263688042759895, 0.002320968545973301, 0.006416951771825552, -0.001330038532614708, 0.006434537936002016, -0.00695878965780139, -0.007460727356374264, -0.0030501908622682095, 0.004545565694570541, -0.004179729614406824, 0.0030564789194613695, -0.0027051151264458895, 0.004850613884627819, -0.005790179129689932, -0.002984135877341032, 0.0046634366735816, 0.0027549711521714926, -0.005021835211664438, 0.005559643264859915, -0.0037709150929003954, 0.003250859910622239, -0.00479163508862257, -0.0010642226552590728, -0.0035989717580378056, 0.00681330868974328, -0.006234792992472649, -0.004642176441848278, -0.00265431497246027, -0.00047570563037879765, -0.005529738496989012, -0.0032388248946517706, -0.006664210930466652, 0.0035032511223107576, 0.0023706117644906044, 0.0030919103883206844, -0.0008188533247448504, 0.003194355871528387, -0.004728890955448151, 0.005593288689851761, -0.008935395628213882, 0.004166439641267061, -0.0013470412231981754, -0.0009493844700045884, -0.002158853691071272, 0.0018328529549762607, 0.007404229138046503, 0.0033754792530089617, -0.002919895341619849, -0.0029219661373645067, -0.004099944140762091, -0.002704065991565585, -0.0040411995723843575, -0.0023179419804364443, -0.01157450769096613, 0.004426318220794201, -0.00450802780687809, 0.005193684250116348, 0.005006232298910618, 0.002170184161514044, -0.0032475420739501715, 0.006079791113734245, -0.002793164923787117, -0.009779288433492184, 0.005473361350595951, 0.006960730068385601, -0.0022703909780830145, 0.007559626363217831, -0.00693195266649127, -0.004806474316865206, -0.006007988937199116, -0.007145369425415993, 0.0020775848533958197, 0.001968531869351864, 0.001038172165863216, 0.003400991205126047, -0.006380227394402027, 0.00044093080214224756, -0.007586549501866102, -0.005330247804522514, -0.0025017177686095238, 0.00562477158382535, -0.002528121927753091, 0.0016893213614821434, -0.0036536904517561197, 0.00359329697676003, -0.004983301740139723, -0.0026507575530558825, -0.002813172759488225, -0.003438278567045927, 3.7670848541893065e-05, 0.003979119472205639, -0.0029923394322395325, -0.0039595081470906734, -0.0031683992128819227, 0.002987905638292432], [-0.007138017099350691, 0.009740171954035759, -0.0031762581784278154, 0.012673603370785713, -0.024308474734425545, 0.010455557145178318, 0.009481845423579216, 0.007305442821234465, 0.010762466117739677, 0.0244687981903553, 0.008963285945355892, 0.010998839512467384, -0.01467143464833498, -0.013036798685789108, -0.0176133681088686, -0.024667581543326378, 0.0056274221278727055, 0.007081827148795128, 0.010286294855177402, 0.0169148501008749, -0.009908259846270084, -0.016045313328504562, -0.010514394380152225, 0.0066390628926455975, -0.0059056938625872135, 0.005993287544697523, -0.016897182911634445, -0.013480541296303272, -0.010351350530982018, 0.005857919808477163, -0.006830310449004173, 0.011160151101648808, -0.01617383025586605, 0.0041889529675245285, 0.023196199908852577, 0.011696070432662964, -0.02407003939151764, 0.009068304672837257, -0.006806081160902977, -0.0002832971222233027, -0.02045089192688465, 0.015020283870398998, -0.009864979423582554, 0.003417787840589881, -0.011386397294700146, 0.019520001485943794, -0.00733172008767724, -0.006896223407238722, 0.012668236158788204, 0.004047068301588297, -0.013257462531328201, 0.003944555763155222, -0.012466234154999256, 0.0071232798509299755, -0.01665528118610382, -0.0031862747855484486, -0.011911350302398205, 0.0042169950902462006, -0.009799124673008919, -0.003679311601445079, -0.0009808525210246444, -0.021316036581993103, -0.020760223269462585, -0.015849897637963295, -0.006189063191413879, 0.01025422289967537, 0.015819940716028214, 0.007581002544611692, -0.019763946533203125, 0.019402479752898216, -0.014242510311305523, 0.012553730979561806, -0.000428865198045969, 0.016521483659744263, -0.02705560065805912, -0.03186190128326416, -0.01659868285059929, 0.014736653305590153, 0.015762049704790115, 0.014312130399048328, -0.02086671255528927, -0.011314132250845432, -0.012350334785878658, -0.0423307865858078, -0.01084172073751688, -0.01734865829348564, -0.012257793918251991, 0.006099912337958813, -0.013351824134588242, 0.0030882367864251137, 0.01513692643493414, 0.022044189274311066, -0.009888502769172192, 0.009376613423228264, -0.006967493798583746, -0.01249235775321722, 0.007495739497244358, 0.003695499384775758, -0.007253109943121672, 0.0014320611953735352, -0.008661597967147827, -0.022401250898838043, -0.015130800195038319, -0.007043651305139065, 0.00901855994015932, 0.0207322146743536, 0.011723593808710575, 0.013733426108956337, -0.009519947692751884, 0.017132418230175972, -0.009343722835183144, -0.013416687026619911, -0.01590830273926258, 0.009460323490202427, -0.01720479689538479, 0.015921005979180336, -0.015150937251746655, 0.01742575876414776, -0.008449907414615154, -0.0060614473186433315, -0.005714832339435816, -0.022569721564650536, 0.020382048562169075, 0.006745941936969757, -0.010441452264785767, -0.006580733228474855, -0.02008138783276081, 0.014614867977797985], [0.006420677527785301, -0.008998939767479897, 0.03678521886467934, -0.0038097465876489878, 0.05856180191040039, -0.012316957116127014, -0.00772973382845521, -0.008104408159852028, -0.02212505415081978, -0.024085253477096558, -0.0001209444526466541, -0.004589776508510113, 0.005276125855743885, 0.007896940223872662, 0.005070122424513102, 0.09012588858604431, -0.008727713488042355, -0.008885054849088192, -0.0139310322701931, -0.013649708591401577, 0.007911249063909054, 0.008173935115337372, 0.005128632765263319, -0.011473828926682472, 0.02170615829527378, -0.01313490979373455, 0.011866221204400063, 0.028316430747509003, 0.016866333782672882, -0.0038683738093823195, 0.04135329648852348, -0.015379237942397594, 0.013300450518727303, -0.006884606555104256, -0.006180955097079277, -0.01716667413711548, 0.018796855583786964, -0.004258022643625736, 0.006460840348154306, 0.0013365827035158873, 0.007947314530611038, -0.009593547321856022, 0.00610626395791769, -0.007604009006172419, 0.00936319213360548, -0.011233977042138577, 0.011706174351274967, 0.008328684605658054, -0.011076838709414005, -0.005360578186810017, 0.01025165244936943, -0.010817330330610275, 0.00882070604711771, -0.05069761723279953, 0.015400433912873268, 0.028623254969716072, 0.016402417793869972, -0.005100517068058252, 0.00989725161343813, 0.04498458281159401, 0.005844298750162125, 0.011945294216275215, 0.006810886785387993, 0.008224472403526306, 0.009135743603110313, -0.012689917348325253, -0.018529564142227173, -0.011876820586621761, 0.012780937366187572, -0.021062027662992477, 0.013892343267798424, -0.01566324383020401, 0.003841700265184045, -0.00606686482205987, 0.009090837091207504, 0.019201179966330528, 0.017128126695752144, -0.00953566376119852, -0.0059885298833251, -0.006928632035851479, 0.015150828287005424, 0.009254302829504013, 0.0104935048148036, 0.09176869690418243, 0.014088944531977177, 0.013078972697257996, 0.012453877367079258, -0.012167293578386307, 0.0722375363111496, -0.008897678926587105, -0.005957107059657574, -0.008718442171812057, 0.022946124896407127, -0.009330607019364834, 0.004307922907173634, 0.007493434939533472, -0.010308973491191864, -0.004356850869953632, 0.00916875246912241, -0.0026527242735028267, 0.006826900877058506, 0.006710575893521309, 0.010978441685438156, 0.007543710060417652, -0.005139047279953957, -0.010543384589254856, -0.011710002087056637, -0.0055883051827549934, 0.010815476067364216, -0.008648302406072617, 0.00688967714086175, 0.008709155954420567, 0.05848943442106247, -0.009725821204483509, 0.015218963846564293, -0.004600455053150654, 0.005848108325153589, -0.009222887456417084, 0.005264603532850742, 0.008615982718765736, 0.008962536230683327, 0.026304876431822777, -0.02483264170587063, -0.004599225707352161, 0.0075296154245734215, 0.005908996798098087, 0.010749943554401398, -0.010592077858746052], [0.006394765805453062, -0.003563543548807502, 0.004568333271890879, -0.0033795994240790606, 0.005600617732852697, -0.004091182257980108, -0.007237304002046585, -0.0035426001995801926, -0.0039610969834029675, -0.004579946864396334, -0.013514438644051552, -0.0030287643894553185, 0.008662092499434948, 0.0033377984073013067, 0.007586635649204254, 0.006175290793180466, -0.004417932126671076, -0.0032531863544136286, -0.006942538544535637, -0.005163645371794701, 0.007818671874701977, 0.0062914444133639336, 0.01088313851505518, -0.007860482670366764, 0.010259689763188362, -0.008609282784163952, 0.008913050405681133, 0.014053737744688988, 0.0076652695424854755, -0.008995719254016876, 0.003930944483727217, -0.005677423905581236, 0.009778310544788837, -0.007720600813627243, -0.00705290399491787, -0.00598163390532136, 0.006717495154589415, -0.004308123141527176, 0.007217025384306908, 0.0062274993397295475, 0.0037288283929228783, -0.007878205738961697, 0.01626117341220379, -0.003395877778530121, 0.00728641776368022, -0.006301631685346365, 0.006255130283534527, 0.009290109388530254, -0.006742406170815229, -0.007641569245606661, 0.0058455453254282475, -0.0028229739982634783, 0.005986365024000406, -0.00276522827334702, 0.009925252757966518, 0.007748034782707691, 0.003346328856423497, -0.008629322052001953, 0.0056688361801207066, 0.011611239984631538, 0.009228039532899857, 0.00827915221452713, 0.008847180753946304, 0.006435619667172432, 0.007423846982419491, -0.00673401914536953, -0.008420108817517757, -0.010151974856853485, 0.0055029564537107944, -0.007820178754627705, 0.0072065843269228935, -0.0037650649901479483, 0.007038393523544073, -0.010543146170675755, 0.003634998807683587, 0.0037892742548137903, 0.007198350038379431, -0.004918550606817007, -0.0033001925330609083, -0.0034369684290140867, 0.006633020471781492, 0.0031055437866598368, 0.004048877861350775, 0.01388651691377163, 0.00481979688629508, 0.005155661143362522, 0.0049006761983036995, -0.0026993982028216124, 0.008378155529499054, -0.0036598104052245617, -0.005092560779303312, -0.007422492373734713, 0.005627311300486326, -0.00914066657423973, 0.00721037108451128, 0.009924410842359066, -0.0028886476065963507, -0.0095425546169281, 0.009324418380856514, -0.01097919326275587, 0.0033951811492443085, 0.005970645230263472, 0.007035638205707073, 0.005480618681758642, -0.00919798668473959, -0.012202625162899494, -0.0035778037272393703, -0.00681254081428051, 0.0031428199727088213, -0.0054327817633748055, 0.010816901922225952, 0.009410376660525799, 0.004228052217513323, -0.007225195411592722, 0.003777244593948126, -0.006449547130614519, 0.010624048300087452, -0.003299043281003833, 0.008908146992325783, 0.009375262074172497, 0.0031288096215575933, 0.009252199903130531, -0.0044223712757229805, -0.009183177724480629, 0.0033473516814410686, 0.005818171426653862, 0.009236423298716545, -0.009292978793382645], [0.007764225825667381, -0.00903369951993227, 0.0024965431075543165, -0.008907001465559006, 0.007142300251871347, -0.011166281066834927, -0.009451991878449917, -0.008342661894857883, -0.00415839534252882, -0.008036638610064983, -0.007539494428783655, -0.010204914025962353, 0.011465425603091717, 0.004034886136651039, 0.004112356808036566, 0.002450478496029973, -0.006937478203326464, -0.004071957431733608, -0.011275452561676502, -0.004152391571551561, 0.0036180738825351, 0.010720553807914257, 0.010616232641041279, -0.008880950510501862, 0.01081259548664093, -0.0062538436613976955, 0.00815502181649208, 0.011913706548511982, 0.010898489505052567, -0.009555586613714695, 0.008707383647561073, -0.00964606087654829, 0.008340466767549515, -0.01042392011731863, -0.010167845524847507, -0.003870573593303561, 0.007789472583681345, -0.0032737322617322206, 0.00366641185246408, 0.007935007102787495, 0.003040685784071684, -0.00409404281526804, 0.004864570684731007, -0.010232611559331417, 0.004041900392621756, -0.0045920987613499165, 0.0033195954747498035, 0.010516365990042686, -0.003948315978050232, -0.00468427175655961, 0.003473293036222458, -0.006193400360643864, 0.009909648448228836, -0.005136909428983927, 0.004374611657112837, 0.003882791381329298, 0.004504723474383354, -0.013315428048372269, 0.0100860595703125, 0.004261660389602184, 0.009640678763389587, 0.005220194812864065, 0.0044584330171346664, 0.00829155370593071, 0.009925221092998981, -0.0084290262311697, -0.008571900427341461, -0.00848663691431284, 0.0033036507666110992, -0.008617911487817764, 0.011809401214122772, -0.008537917397916317, 0.009654857218265533, -0.0035175641532987356, 0.007064357399940491, 0.008709642104804516, 0.008755226619541645, -0.007482245564460754, -0.009039364755153656, -0.007315433584153652, 0.0044842734932899475, 0.006413793656975031, 0.010742668993771076, 0.0047461362555623055, 0.00429439777508378, 0.007909458130598068, 0.0029231382068246603, -0.011448800563812256, 0.008425140753388405, -0.010240959003567696, -0.00868637952953577, -0.011347468942403793, 0.007359545677900314, -0.00376247800886631, 0.005391002632677555, 0.008798334747552872, -0.007484839763492346, -0.011260961182415485, 0.004258937202394009, -0.006726737599819899, 0.0032814466394484043, 0.009345955215394497, 0.011924892663955688, 0.010280238464474678, -0.010408210568130016, -0.00863504596054554, -0.00924186035990715, -0.0041070845909416676, 0.003375569824129343, -0.006157479248940945, 0.010312866419553757, 0.004979912657290697, 0.009661775082349777, -0.005975252017378807, 0.003961403388530016, -0.00338670052587986, 0.004113056696951389, -0.006787864491343498, 0.01193490345031023, 0.0082434406504035, 0.003561240155249834, 0.006427282467484474, -0.0039354776963591576, -0.007381304167211056, 0.008962886407971382, 0.003152537392452359, 0.005277111195027828, -0.008905992843210697], [-0.0210453849285841, 0.004736579954624176, -0.004510471597313881, 0.02130962535738945, -0.009880401194095612, 0.026061726734042168, 0.025792060419917107, 0.009770864620804787, 0.025604695081710815, 0.017241517081856728, 0.01580401323735714, 0.020268874242901802, -0.004867079202085733, -0.02329915761947632, -0.006421530619263649, -0.01502087153494358, 0.024014819413423538, 0.019080962985754013, 0.014828511513769627, 0.015531972981989384, -0.004185757599771023, -0.006135209929198027, -0.016742844134569168, 0.0064555807039141655, -0.00530387694016099, 0.006413253024220467, -0.01365163829177618, -0.024817893281579018, -0.024186251685023308, 0.02052191272377968, -0.0059311166405677795, 0.024218326434493065, -0.02366715855896473, 0.004692599177360535, 0.016062073409557343, 0.022986682131886482, -0.021656915545463562, 0.01576521247625351, -0.01748773455619812, -0.01461891457438469, -0.0047339084558188915, 0.018878772854804993, -0.016583720222115517, 0.022852417081594467, -0.014588034711778164, 0.017068523913621902, -0.020787479355931282, -0.004743196070194244, 0.021551692858338356, 0.022390296682715416, -0.0118306465446949, 0.02044401690363884, -0.018858609721064568, 0.0048560090363025665, -0.021984238177537918, -0.003067589597776532, -0.02094082161784172, 0.020207233726978302, -0.014451244845986366, -0.017568176612257957, -0.017929421737790108, -0.023750418797135353, -0.020112652331590652, -0.01831168681383133, -0.004601062275469303, 0.010368654504418373, 0.0045404895208776, 0.01993587054312229, -0.02365427277982235, 0.02060532011091709, -0.0201868936419487, 0.010568023659288883, -0.016806237399578094, 0.02327769622206688, -0.021766340360045433, -0.005125150550156832, -0.020242910832166672, 0.024150175973773003, 0.005219603888690472, 0.019524428993463516, -0.020680880174040794, -0.02239389903843403, -0.024940093979239464, -0.018441490828990936, -0.022117093205451965, -0.022219540551304817, -0.006575466133654118, 0.009574810042977333, -0.021355198696255684, 0.02353881485760212, 0.005486903712153435, 0.01642572693526745, -0.021869750693440437, 0.0248126033693552, -0.02138947881758213, -0.018186386674642563, 0.022124698385596275, 0.019755525514483452, -0.00451006181538105, 0.011264181695878506, -0.018398277461528778, -0.019216548651456833, -0.008127282373607159, -0.004034658893942833, 0.005412140395492315, 0.023162875324487686, 0.02322983555495739, 0.022905828431248665, -0.007105077616870403, 0.02283146046102047, -0.019169878214597702, -0.008404226042330265, -0.0031760050915181637, 0.02557489462196827, -0.01986749656498432, 0.023732241243124008, -0.02591240219771862, 0.023237494751811028, -0.02250286191701889, -0.01805715635418892, -0.01577729545533657, -0.02232302725315094, 0.017086297273635864, 0.0056982142850756645, -0.019390210509300232, -0.021550510078668594, -0.02239063009619713, 0.011640772223472595], [-0.01012952160090208, 0.003348683938384056, -0.0012254101457074285, 0.002322530373930931, -0.005983744282275438, 0.01302786823362112, 0.011124876327812672, 0.0008740848279558122, 0.013146361336112022, 0.002995735965669155, 0.008461062796413898, 0.009528843685984612, -0.0013466872042044997, -0.0014259943272918463, -0.0030166858341544867, -0.01377203967422247, 0.011148557998239994, 0.0029717159923166037, 0.0030278777703642845, 0.0028792954981327057, -0.0011652897810563445, -0.012794098816812038, -0.00331684947013855, 0.0019348232308402658, -0.013768196105957031, 0.0031481869518756866, -0.01179591752588749, -0.0004149329906795174, -0.0025732521899044514, 0.0039488025940954685, -0.006944798864424229, 0.0010873525170609355, -0.007781377527862787, 0.0022460203617811203, 0.0036489402409642935, 0.0067535387352108955, -0.0028661538381129503, 0.003165733302012086, -0.0018768326845020056, -0.010302227921783924, -0.0026829352136701345, 0.0028324746526777744, -0.004314761608839035, 0.0034398536663502455, -0.0004947373527102172, 0.0033445656299591064, -0.010228253901004791, -0.008895165286958218, 0.002111823298037052, 0.010461901314556599, -0.0020126039162278175, 0.0018348183948546648, -0.000414088717661798, 0.00699957087635994, -0.0021081757731735706, -0.012861874885857105, -0.003332693362608552, 0.0007654864457435906, -0.0025584218092262745, -0.00307558779604733, -0.0031968182884156704, -0.0028221707325428724, -0.012334171682596207, -0.011316943913698196, -0.010239082388579845, 0.010524993762373924, 0.002802597125992179, 0.0017702411860227585, -0.013412373140454292, 0.011589163914322853, -0.006188532803207636, 0.013427844271063805, -0.004711433779448271, 0.008581634610891342, -0.0060327667742967606, -0.003010410815477371, -0.0019789778161793947, 0.012874776497483253, 0.0015846122987568378, 0.0028561295475810766, -0.0035248552449047565, -0.012325501069426537, -0.0029370475094765425, -0.001054817228578031, -0.003421997418627143, -0.003001757198944688, -0.006371017079800367, 0.007487328257411718, -0.003186452202498913, 0.0023945714347064495, 0.002888950752094388, 0.0034778087865561247, -0.0010447663953527808, 0.006779239512979984, -0.002840728033334017, -0.005837683565914631, 0.002338142367079854, 0.0029990181792527437, -0.004615192301571369, 0.008880422450602055, -0.0025244918651878834, -0.003454609541222453, -0.0016529634594917297, -0.0025929217226803303, 0.004663906060159206, 0.0005973133374936879, 0.012521843425929546, 0.005676680244505405, -0.0032492573373019695, 0.008912738412618637, -0.002649025060236454, -0.0020685356575995684, -0.0009847682667896152, 0.01229090616106987, -0.012094896286725998, 0.001286679762415588, -0.0028999524656683207, 0.0073054395616054535, -0.00237000803463161, -0.00913509726524353, -0.010883216746151447, -0.0017446964047849178, 6.547891644004267e-06, 0.010137416422367096, -0.002323480322957039, -0.009071025997400284, -0.01130395196378231, 0.011758153326809406], [-0.01209402084350586, 0.006326278205960989, -0.01049837563186884, 0.011050659231841564, -0.010414800606667995, 0.004753687418997288, 0.008489761501550674, 0.004009478725492954, 0.01149003766477108, 0.007342009339481592, 0.005395554471760988, 0.01431182399392128, -0.006111779250204563, -0.006220271345227957, -0.013109001331031322, -0.010710157454013824, 0.01404129434376955, 0.01329595036804676, 0.004225967451930046, 0.01319298055022955, -0.010007714852690697, -0.004340405575931072, -0.0039451331831514835, 0.013923538848757744, -0.01079544611275196, 0.013598892837762833, -0.013426893390715122, -0.01517651230096817, -0.004189678933471441, 0.012475308030843735, -0.004768022336065769, 0.011638078838586807, -0.011986388824880123, 0.017136823385953903, 0.005444379057735205, 0.01260708924382925, -0.011322847567498684, 0.011585073545575142, -0.011576629243791103, -0.012079883366823196, -0.012595299631357193, 0.011242752894759178, -0.011315400712192059, 0.003752142423763871, -0.004105851519852877, 0.0043596322648227215, -0.011903427541255951, -0.015608911402523518, 0.0038604396395385265, 0.016478465870022774, -0.003901147749274969, 0.013007361441850662, -0.00405864929780364, 0.012070460245013237, -0.004403430037200451, -0.015398912131786346, -0.013209308497607708, 0.006696803495287895, -0.014138530008494854, -0.012406883761286736, -0.013612222857773304, -0.012164209969341755, -0.01265550497919321, -0.011688746511936188, -0.012467349879443645, 0.014669102616608143, 0.012571698054671288, 0.004358532838523388, -0.004599334672093391, 0.003829882713034749, -0.014485929161310196, 0.011088703759014606, -0.003285186132416129, 0.008360518142580986, -0.010121726430952549, -0.01205359771847725, -0.014927559532225132, 0.011669698171317577, 0.012462378479540348, 0.013860381208360195, -0.011918260715901852, -0.0131967319175601, -0.01560169830918312, -0.01649264618754387, -0.004904810804873705, -0.01301266998052597, -0.0052440776489675045, 0.0032380532938987017, -0.01418057456612587, 0.014810304157435894, 0.004636398516595364, 0.01138076838105917, -0.004401517566293478, 0.0047353049740195274, -0.004465656355023384, -0.012864353135228157, 0.004091258626431227, 0.012431947514414787, -0.01458347961306572, 0.00894672330468893, -0.0033985550981014967, -0.00467649893835187, -0.014006110839545727, -0.009301220998167992, 0.016066862270236015, 0.012244629673659801, 0.012995801866054535, 0.015285716392099857, -0.013769003562629223, 0.01008275244385004, -0.014550536870956421, -0.0063470336608588696, -0.004943885374814272, 0.004716419614851475, -0.014185482636094093, 0.01448584534227848, -0.014630467630922794, 0.013819822110235691, -0.007924545556306839, -0.012795710004866123, -0.013746527023613453, -0.014282471500337124, 0.009497903287410736, 0.003551910165697336, -0.011738492175936699, -0.004544990137219429, -0.0039466074667871, 0.012696282006800175], [-0.00643218494951725, 0.005628321785479784, -0.0017165935132652521, 0.005548641551285982, -0.006497667171061039, 0.009660651907324791, 0.004829884506762028, 0.006763060111552477, 0.0072092623449862, 0.005971179343760014, 0.0007925167446956038, 0.007082724943757057, -0.007110388483852148, -0.005814551841467619, -0.00671837804839015, -0.00573042593896389, 0.0046117426827549934, 0.005939297843724489, 0.007265791296958923, 0.007553481962531805, -0.005571797490119934, -0.0035502302926033735, -0.0034058105666190386, 0.0028938413597643375, -0.0026579536497592926, 0.004321043845266104, -0.0024595079012215137, -0.004870526492595673, -0.006695466116070747, 0.002665191888809204, -0.010509759187698364, 0.007892883382737637, -0.007111119106411934, 0.0022160278167575598, 0.0028754016384482384, 0.006416047923266888, -0.0055477130226790905, 0.0028506608214229345, -0.00530186528339982, -0.0004066902329213917, -0.005135047249495983, 0.004661865998059511, -0.00461035780608654, 0.005146337673068047, -0.005376988556236029, 0.003889107145369053, -0.002965930150821805, -0.004954132717102766, 0.006464638281613588, 0.007727045565843582, -0.0030804427806288004, 0.004688032902777195, -0.010656076483428478, 0.002893935889005661, -0.007686709053814411, -0.0033484476152807474, -0.005053594708442688, 0.003666188335046172, -0.005851566791534424, -0.004743941593915224, -0.005759362131357193, -0.011358917690813541, -0.007450990844517946, -0.0034744287841022015, -0.005752858240157366, 0.008978609926998615, 0.0032578662503510714, 0.007165797986090183, -0.007811450399458408, 0.005939831491559744, -0.003975911997258663, 0.010413017123937607, -0.004537378437817097, 0.0008317146566696465, -0.006180858239531517, -0.006110674701631069, -0.01340093370527029, 0.003306624013930559, 0.005612454377114773, 0.007570358458906412, -0.004488572012633085, -0.003681272966787219, -0.008408339694142342, -0.0056286826729774475, -0.010738268494606018, -0.003394779749214649, -0.006217697635293007, 0.02727631665766239, -0.004846622701734304, 0.010039516724646091, 0.0061654080636799335, 0.008483336307108402, -0.004393924027681351, 0.006023015361279249, -0.0063406433910131454, -0.003917370457202196, 0.005742168053984642, 0.002691566711291671, -0.01124319713562727, 0.004546970594674349, -0.00456266338005662, -0.004334513563662767, -0.004957922734320164, -0.005245103035122156, 0.00448319548740983, 0.00897345133125782, 0.0033588239457458258, 0.003312918357551098, -0.005671690683811903, 0.006307171657681465, -0.003252949332818389, -0.006603386253118515, -0.002346458612009883, 0.007236437872052193, -0.0035944245755672455, 0.004844706505537033, -0.006813152693212032, 0.007823760621249676, -0.006924952380359173, -0.0030252814758569, -0.005019800737500191, -0.007999406196177006, 0.004291593097150326, 0.00478743202984333, -0.004835820756852627, -0.004578110296279192, -0.007795832585543394, 0.007764299865812063], [0.003300662152469158, -0.01007660012692213, 0.0027555041015148163, -0.013366344384849072, 0.00631688442081213, -0.008566776290535927, -0.012276789173483849, -0.00818379782140255, -0.007862292230129242, -0.004034286364912987, -0.013945396058261395, -0.012394401244819164, 0.010345721617341042, 0.01052747294306755, 0.006803879514336586, 0.0067101726308465, -0.009483344852924347, -0.0034438318107277155, -0.011990162543952465, -0.009936589747667313, 0.010405665263533592, 0.0036761085502803326, 0.010578383691608906, -0.008990892209112644, 0.012454005889594555, -0.013327181339263916, 0.007452936377376318, 0.015132814645767212, 0.009506525471806526, -0.011014290153980255, 0.004397340584546328, -0.0051557570695877075, 0.010438987985253334, -0.0031673649791628122, -0.007942719385027885, -0.011072191409766674, 0.008714607916772366, -0.011462671682238579, 0.0032584001310169697, 0.003051172010600567, 0.007443168666213751, -0.012752346694469452, 0.009017659351229668, -0.013172044418752193, 0.005120419897139072, -0.010066365823149681, 0.010931835509836674, 0.0037337434478104115, -0.007681418675929308, -0.009725193493068218, 0.0039126635529100895, -0.009377392008900642, 0.009756476618349552, -0.006717482581734657, 0.00902709923684597, 0.009872445836663246, 0.009200272150337696, -0.012750338762998581, 0.012636089697480202, 0.0008650164818391204, 0.005370690952986479, 0.01023133285343647, 0.004205831792205572, 0.01165457721799612, 0.003323331708088517, -0.003519452176988125, -0.009650538675487041, -0.003997513558715582, 0.005949342157691717, -0.008785205893218517, 0.003832416143268347, -0.010913658887147903, 0.003233544994145632, -0.004149432759732008, 0.012100325897336006, 0.006941013969480991, 0.009403341449797153, -0.011744256131350994, -0.013433546759188175, -0.009113762527704239, 0.00496746925637126, 0.00809331052005291, 0.0034091866109520197, 0.0055339219979941845, 0.005148483440279961, 0.011114546097815037, 0.00949232466518879, -0.009099788963794708, 0.003949304111301899, -0.011456255801022053, -0.009171901270747185, -0.0040087890811264515, 0.01524243876338005, -0.010642086155712605, 0.01283564418554306, 0.0036831889301538467, -0.01352689228951931, -0.01057496014982462, 0.008262093178927898, -0.010171220637857914, 0.013975823298096657, 0.004202501382678747, 0.008621394634246826, 0.013118231669068336, -0.003743337234482169, -0.006923177279531956, -0.008035643957555294, -0.00385966245085001, 0.010377654805779457, -0.010182592086493969, 0.011187603697180748, 0.00991098489612341, 0.010597558692097664, -0.011222165077924728, 0.01121713686734438, -0.004462301731109619, 0.013514956459403038, -0.010247861966490746, 0.013618751429021358, 0.011862351559102535, 0.010870466940104961, 0.011417331174015999, -0.004501620307564735, -0.0127631314098835, 0.010645413771271706, 0.004987027496099472, 0.006158724427223206, -0.012669946998357773], [-0.006732525769621134, 0.005241654813289642, -0.0023206991609185934, 0.005120614543557167, -0.0010148055152967572, 0.0030240556225180626, 0.0054492768831551075, 0.004180515184998512, 0.007977058179676533, 0.0026799484621733427, 0.01151739340275526, 0.010182828642427921, -0.009822400286793709, -0.009385337121784687, -0.008147944696247578, -0.003527070628479123, 0.005511753726750612, 0.006864901166409254, 0.009385182522237301, 0.003785723587498069, -0.00782105140388012, -0.00395334605127573, -0.003553655231371522, 0.008954668417572975, -0.0039477357640862465, 0.003524055005982518, -0.0032075580675154924, -0.008047718554735184, -0.007166796363890171, 0.010188283398747444, -0.003987678326666355, 0.006881741341203451, -0.003473116084933281, 0.0075484891422092915, 0.0044024973176419735, 0.00565848033875227, -0.002997159957885742, 0.011047652922570705, -0.008796384558081627, -0.0027704995591193438, -0.0033891249913722277, 0.004167330916970968, -0.010213082656264305, 0.007077204529196024, -0.006034896243363619, 0.0032549994066357613, -0.00919389259070158, -0.007523018401116133, 0.008224152028560638, 0.0032979249954223633, -0.009779839776456356, 0.006088583264499903, -0.010832826606929302, 0.002647830406203866, -0.009812953881919384, -0.003507993882521987, -0.006333270575851202, 0.008930881507694721, -0.00885704718530178, -0.0043725185096263885, -0.002786932745948434, -0.008280856534838676, -0.007339880336076021, -0.010309540666639805, -0.0038187559694051743, 0.007560422644019127, 0.005549582652747631, 0.00409930432215333, -0.0015461724251508713, 0.0043503157794475555, -0.004170062020421028, 0.003454001620411873, -0.00801100954413414, 0.004916813690215349, -0.00378806353546679, -0.006858281325548887, -0.002300979569554329, 0.007000996731221676, 0.006800886709243059, 0.009244369342923164, -0.0038145899306982756, -0.0026857901830226183, -0.00889766775071621, -0.005914031062275171, -0.0038398755714297295, -0.008833091706037521, -0.0011462013935670257, 0.0121966153383255, -0.004933300893753767, 0.003753728698939085, 0.0037183824460953474, 0.007168831769376993, -0.003861065022647381, 0.008860092610120773, -0.007527826353907585, -0.00943838246166706, 0.005896911025047302, 0.0035650969948619604, -0.007020367309451103, 0.008546143770217896, -0.00589250260964036, -0.008847520686686039, -0.005533094517886639, -0.009151838719844818, 0.002792234066873789, 0.004361155442893505, 0.0018023994052782655, 0.006353562697768211, -0.010052058845758438, 0.0013821471948176622, -0.007432782556861639, -0.007448431104421616, -0.002739488845691085, 0.0038279681466519833, -0.01052016206085682, 0.008756543509662151, -0.009253629483282566, 0.0057554892264306545, -0.010138493962585926, -0.0032978332601487637, -0.004679645411670208, -0.003319505834951997, 0.0034505436196923256, 0.0029569282196462154, -0.0030455670785158873, -0.006870924960821867, -0.002633398864418268, 0.005696883890777826], [-0.012586223892867565, 0.003867079969495535, -0.0037140725180506706, 0.01216487493366003, -0.008617362938821316, 0.01049428153783083, 0.011312346905469894, 0.010936002247035503, 0.004275047220289707, 0.0038004983216524124, 0.014991422183811665, 0.0013306322507560253, -0.009831969626247883, -0.004191811662167311, -0.013727095909416676, -0.011544069275259972, 0.010477803647518158, 0.012404208071529865, 0.003141081891953945, 0.013196947053074837, -0.010612161830067635, -0.01256154291331768, -0.003824589541181922, 0.013884727843105793, -0.004753792658448219, 0.010768469423055649, -0.011160600930452347, -0.008019234985113144, -0.004041153006255627, 0.0032436498440802097, -0.005059711169451475, 0.0099403765052557, -0.0042277914471924305, 0.012641706503927708, 0.005302201025187969, 0.01200927048921585, -0.010021519847214222, 0.0033879566472023726, -0.010364915244281292, -0.007812991738319397, -0.003608587896451354, 0.00326825981028378, -0.016504356637597084, 0.003819528268650174, -0.005351303145289421, 0.0017419118667021394, -0.010930760763585567, -0.011333328671753407, 0.0100044384598732, 0.004379583057016134, -0.012194299139082432, 0.004640422761440277, -0.00424741767346859, 0.004173284396529198, -0.004474043380469084, -0.01187808346003294, -0.009209186770021915, 0.003703510155901313, -0.010918007232248783, -0.005445319693535566, -0.008468018844723701, -0.007172764744609594, -0.011815951205790043, -0.0016519826604053378, -0.011969639919698238, 0.003770725801587105, 0.0115498723462224, 0.010457086376845837, -0.004507251083850861, 0.013355378992855549, -0.003978056833148003, 0.004580041393637657, -0.010893556289374828, 0.01597484201192856, -0.004005900118499994, -0.006675762124359608, -0.004598303232342005, 0.0041612619534134865, 0.010154345072805882, 0.004176843911409378, -0.005941107403486967, -0.0009478957508690655, -0.014085046947002411, -0.013051561079919338, -0.001994901103898883, -0.013491544872522354, -0.010570731945335865, 0.0032269645016640425, -0.003945648670196533, 0.012964276596903801, 0.0041359770111739635, 0.012220395728945732, -0.004403343424201012, 0.013438446447253227, -0.01009394321590662, -0.012313623912632465, 0.01149219274520874, 0.003266961546614766, -0.013295636512339115, 0.011214323341846466, -0.011588308028876781, -0.012588021345436573, -0.0045572323724627495, -0.0027005840092897415, 0.015795813873410225, 0.0069654397666454315, 0.010518619790673256, 0.008868006989359856, -0.010245895013213158, 0.0017817904008552432, -0.013450990431010723, -0.0039969552308321, -0.004296373575925827, 0.011037721298635006, -0.011645381338894367, 0.010296575725078583, -0.012768772430717945, 0.012844432145357132, -0.003776616184040904, -0.010818145237863064, -0.011458858847618103, -0.010350402444601059, 0.004265820607542992, 0.0035102088004350662, -0.01011105440557003, -0.009763600304722786, -0.012533976696431637, 0.011255783960223198], [-0.009970581158995628, 0.010250362567603588, -0.0027519415598362684, 0.008096160367131233, -0.010140643455088139, 0.0065078577026724815, 0.009480929002165794, 0.008251793682575226, 0.010209714993834496, 0.005391834769397974, 0.0115533247590065, 0.007299128919839859, -0.011042418889701366, -0.009995224885642529, -0.009089091792702675, -0.0059379530139267445, 0.0046256775967776775, 0.010176250711083412, 0.008425019681453705, 0.008736252784729004, -0.008920911699533463, -0.005905553698539734, -0.01131658535450697, 0.0034131163265556097, -0.007580532226711512, 0.010599437169730663, -0.012040101923048496, -0.005049371626228094, -0.0036193919368088245, 0.008317080326378345, -0.003956185188144445, 0.008638990111649036, -0.010498061776161194, 0.009588533081114292, 0.003840103279799223, 0.0033539319410920143, -0.003673120867460966, 0.006861099973320961, -0.009609396569430828, -0.00793046411126852, -0.010834847576916218, 0.00505021121352911, -0.004979077726602554, 0.0037573904264718294, -0.009613728150725365, 0.0038867739494889975, -0.009923349134624004, -0.008226248435676098, 0.009360762313008308, 0.010459494777023792, -0.00321581750176847, 0.010751710273325443, -0.003738011233508587, 0.005502353888005018, -0.007709603291004896, -0.008463967591524124, -0.007713255472481251, 0.009815279394388199, -0.009595232084393501, -0.0048655313439667225, -0.009520886465907097, -0.009435631334781647, -0.006415889132767916, -0.003765648929402232, -0.008103875443339348, 0.010932514443993568, 0.004862663801759481, 0.012777408584952354, -0.008934573270380497, 0.010791261680424213, -0.010843641124665737, 0.00825708732008934, -0.009073386900126934, 0.007666773162782192, -0.006518200971186161, -0.008884635753929615, -0.008794547989964485, 0.010535502806305885, 0.009157581254839897, 0.008954018354415894, -0.010371492244303226, -0.008840596303343773, -0.011815691366791725, -0.00023043803230393678, -0.005120128858834505, -0.008197157643735409, -0.006998260505497456, 0.00994197092950344, -0.0066706519573926926, 0.005013620015233755, 0.0101764602586627, 0.007576989475637674, -0.004069396760314703, 0.011427558958530426, -0.012000289745628834, -0.00959061924368143, 0.005382874049246311, 0.012294459156692028, -0.006379755213856697, 0.007985844276845455, -0.003166613867506385, -0.006557415705174208, -0.0035803469363600016, -0.01198552642017603, 0.007456427905708551, 0.007389698643237352, 0.003323957324028015, 0.00798601470887661, -0.011154493317008018, 0.008869552053511143, -0.010310095734894276, -0.0035951442550867796, -0.0056388964876532555, 0.010331553407013416, -0.003774786600843072, 0.004910333082079887, -0.004088812042027712, 0.01144180353730917, -0.012128881178796291, -0.0071264575235545635, -0.008753740228712559, -0.008310409262776375, 0.0087474649772048, 0.003438870655372739, -0.008826537989079952, -0.008037928491830826, -0.00317941140383482, 0.003436172613874078], [0.008951983414590359, -0.008458693511784077, 0.00529751880094409, -0.004767334554344416, 0.0008011946338228881, -0.0019961425568908453, -0.004234836436808109, -0.007655531167984009, -0.0034985754173249006, -0.0025304958689957857, -0.009349847212433815, -0.0029165258165448904, 0.010008159093558788, 0.0036928674671798944, 0.003095880150794983, 0.0026814001612365246, -0.0020164302550256252, -0.00867449026554823, -0.003239980898797512, -0.0017979104304686189, 0.0046735405921936035, 0.005402689799666405, 0.009492139331996441, -0.0023342426866292953, 0.007655406836420298, -0.009379874914884567, 0.005723624024540186, 0.0063145821914076805, 0.0047707329504191875, -0.00876632984727621, 0.003916056361049414, -0.006190810352563858, 0.006127994041889906, -0.009113132022321224, -0.005133042577654123, -0.0037703749258071184, 0.001464832341298461, -0.006479828618466854, 0.00707041984423995, 0.009855273179709911, 0.005144286900758743, -0.00679262587800622, 0.004462131764739752, -0.005260218400508165, 0.006761882919818163, -0.006145601160824299, 0.004957129713147879, 0.007754710968583822, -0.0033306891564279795, -0.009283395484089851, 0.006342816166579723, -0.003838022705167532, 0.003404799150303006, -0.0027320857625454664, 0.0053674220107495785, 0.0025006416253745556, 0.0007528223795816302, -0.006070372182875872, 0.006044457200914621, 0.005247755907475948, 0.0077899787575006485, 0.00042295941966585815, 0.005575135350227356, 0.007412685547024012, 0.006028586998581886, -0.005961742717772722, -0.007760873530060053, -0.00829729251563549, 0.0030014507938176394, -0.0001543003600090742, 0.0034527969546616077, -0.0037969013210386038, 0.011041482910513878, -0.001405699527822435, 0.0025907671079039574, 0.0021605463698506355, 0.0036737762857228518, -0.0023853443562984467, -0.007789655588567257, -0.004232094157487154, 0.0076270741410553455, 0.002445340622216463, 0.005231948569417, 0.0019936973694711924, 0.00017315003788098693, 0.006162497214972973, 0.002849147655069828, -0.008400571532547474, 0.002910470589995384, -0.0032878913916647434, -0.004020850174129009, -0.0006232534069567919, 0.010373049415647984, -0.005670405924320221, 0.009052954614162445, 0.010509610176086426, -0.0031226244755089283, -0.009106277488172054, 0.006493147928267717, -0.007379836868494749, 0.003685686970129609, 0.009295438416302204, 0.003128995420411229, 0.006780948489904404, -0.0023868102580308914, -0.0011112933279946446, -0.00022206181893125176, -0.0071628401055932045, 0.0033234015572816133, -0.0032988074235618114, 0.006703218445181847, 0.0038530866149812937, 0.0027602980844676495, -0.004323769360780716, 0.0058853887021541595, -0.0035727701615542173, 0.0068532065488398075, -0.007858363911509514, 0.007414485793560743, 0.007455909624695778, 0.004145173355937004, 0.006085187662392855, -0.0032724919728934765, -0.003969924058765173, 0.009074202738702297, 0.005852930713444948, 0.0017412578454241157, -0.00809202529489994], [-0.008497723378241062, 0.011800190433859825, -0.002824497641995549, 0.0036842820700258017, -0.0036748929414898157, 0.012411021627485752, 0.0036862343549728394, 0.003842472331598401, 0.004209449049085379, 0.0036826161667704582, 0.012840168550610542, 0.011569014750421047, -0.0038258202839642763, -0.010074912570416927, -0.013912716880440712, -0.0038595802616328, 0.011214446276426315, 0.011300439946353436, 0.004126409534364939, 0.011257244274020195, -0.014701219275593758, -0.0048584905453026295, -0.011113815009593964, 0.008274695836007595, -0.011665399186313152, 0.003915758803486824, -0.005148285999894142, -0.008599583059549332, -0.003821234218776226, 0.00642431853339076, -0.009753333404660225, 0.011047035455703735, -0.008830618113279343, 0.016186503693461418, 0.010462446138262749, 0.011494520120322704, -0.003759244689717889, 0.010760737583041191, -0.0035299735609441996, -0.013494790531694889, -0.012265137396752834, 0.015289509668946266, -0.00511066522449255, 0.011565271764993668, -0.004015007987618446, 0.009135239757597446, -0.013529847376048565, -0.013869701884686947, 0.010147836059331894, 0.015544787049293518, -0.004148893523961306, 0.012369719333946705, -0.004338965751230717, 0.010044034570455551, -0.004180606454610825, -0.0134248873218894, -0.010157939977943897, 0.003875880967825651, -0.011084455996751785, -0.01273257378488779, -0.013308638706803322, -0.012488828040659428, -0.01162258256226778, -0.013276963494718075, -0.00409043999388814, 0.00638924865052104, 0.0035451101139187813, 0.01316650491207838, -0.008822793141007423, 0.008208239451050758, -0.012895753607153893, 0.006252727471292019, -0.01275938842445612, 0.01109421718865633, -0.008638203144073486, -0.010320832021534443, -0.004639296792447567, 0.004023055545985699, 0.013766678050160408, 0.013951708562672138, -0.014271165244281292, -0.004017953295260668, -0.013182149268686771, -0.007376255467534065, -0.004413544200360775, -0.0134546784684062, -0.009111312218010426, 0.006923314183950424, -0.013152970001101494, 0.009564866311848164, 0.014965323731303215, 0.004664309788495302, -0.012499526143074036, 0.013808670453727245, -0.013480744324624538, -0.01417318731546402, 0.014126256108283997, 0.013441497460007668, -0.016182053834199905, 0.010003834962844849, -0.012541751377284527, -0.012792153283953667, -0.009168493561446667, -0.014308508485555649, 0.01046357024461031, 0.01222643069922924, 0.00948844663798809, 0.011120833456516266, -0.011471015401184559, 0.0037211489398032427, -0.006238761357963085, -0.012609344907104969, -0.004257645457983017, 0.014320863410830498, -0.014475363306701183, 0.012906600721180439, -0.01619516685605049, 0.011418779380619526, -0.007168948650360107, -0.012492778711020947, -0.014572038315236568, -0.01146305538713932, 0.0032487150747328997, 0.0031568598933517933, -0.004653547890484333, -0.014064459130167961, -0.010142366401851177, 0.009625235572457314], [0.00089244544506073, -0.004207878839224577, 0.017284531146287918, -0.003698542481288314, 0.032445237040519714, -0.005131070967763662, -0.0024253942538052797, -0.005563251208513975, -0.004304582718759775, -0.021161282435059547, -0.013885026797652245, -0.003740638727322221, 0.003953759558498859, 0.0035254694521427155, 0.0043663643300533295, 0.005136498715728521, -0.002387098968029022, -0.0020993934012949467, -0.013739349320530891, -0.006906510330736637, 0.016307834535837173, 0.012876011431217194, 0.005470531992614269, -0.004213255364447832, 0.015186281874775887, -0.01973092555999756, 0.01091077271848917, 0.0016932025318965316, 0.006332149263471365, -0.0035622864961624146, 0.011213024146854877, -0.004190144594758749, 0.004388230387121439, -0.0032875053584575653, -0.005444243550300598, -0.015935592353343964, 0.032084036618471146, -0.011958515271544456, 0.011694725602865219, 0.018985740840435028, 0.021130863577127457, -0.010873931460082531, 0.014377917163074017, -0.002839702181518078, 0.004575274419039488, -0.015053831040859222, 0.004281423520296812, 0.001381795620545745, -0.004072720184922218, -0.0029814429581165314, 0.012301885522902012, -0.004709186963737011, 0.005586142186075449, -0.01423706952482462, 0.014306831173598766, 0.013721022754907608, 0.00562483724206686, -0.001271562883630395, 0.011189390905201435, 0.020071784034371376, 0.000730628555174917, 0.02284206822514534, 0.024724578484892845, 0.0038786272052675486, 0.011085452511906624, -0.007113641127943993, -0.021172208711504936, -0.004162870813161135, 0.023346861824393272, -0.022180601954460144, 0.012874281965196133, -0.005394819658249617, 0.0016443019267171621, -0.013107999227941036, 0.031347472220659256, 0.004941602703183889, 0.0056868791580200195, -0.004580407403409481, -0.01553436554968357, -0.0036365806590765715, 0.022566549479961395, 0.003845007624477148, 0.004640471190214157, 0.005818123929202557, 0.005469099152833223, 0.004264253657311201, 0.004343352280557156, -0.007449675351381302, 0.004341855179518461, -0.013746445998549461, -0.00473081273958087, -0.02495778352022171, 0.017445744946599007, -0.003813564544543624, 0.0013250181218609214, 0.014077001251280308, -0.01360428985208273, -0.0012408203911036253, 0.0178440622985363, -0.015081510879099369, 0.009149129502475262, 0.02273745834827423, 0.014952472411096096, 0.0048822262324392796, -0.00483445730060339, -0.006820754148066044, -0.0047208210453391075, -0.0012137264711782336, 0.0008901227847672999, -0.005667233373969793, 0.0012781912228092551, 0.014316053129732609, 0.00389290414750576, -0.006620205007493496, 0.011337010189890862, -0.010842214338481426, 0.0015692665474489331, -0.013479291461408138, 0.005555514246225357, 0.01475724671036005, 0.004065367393195629, 0.004969064146280289, -0.030250199139118195, -0.0022589287254959345, 0.004116510972380638, 0.001056186854839325, 0.004513558000326157, -0.0042454274371266365], [-0.00864511076360941, 0.009885008446872234, -0.0030617353040724993, 0.008225315250456333, -0.002405208768323064, 0.004514811560511589, 0.006720081437379122, 0.0033046803437173367, 0.0037637054920196533, 0.006165396887809038, 0.0017788331024348736, 0.003539032069966197, -0.007393031846731901, -0.0063199494034051895, -0.002129193628206849, -0.003475407138466835, 0.0016262070275843143, 0.008826511912047863, 0.007531975395977497, 0.002628740854561329, -0.007455055136233568, -0.0015415333909913898, -0.010907585732638836, 0.0027284228708595037, -0.0029269419610500336, 0.006829053163528442, -0.0033396119251847267, -0.004275005776435137, -0.0042981598526239395, 0.0035263278987258673, -0.004512517247349024, 0.0026361453346908092, -0.0022463370114564896, 0.002962434431537986, 0.0025063366629183292, 0.002880705986171961, -0.0013091739965602756, 0.009539959020912647, -0.009963449090719223, -0.008834208361804485, -0.002856660634279251, 0.007790356874465942, -0.007980691269040108, 0.0030690114945173264, -0.0033444466535001993, 0.0037676747888326645, -0.004968276247382164, -0.0040463414043188095, 0.0044049895368516445, 0.007341386750340462, -0.002986969193443656, 0.00802487414330244, -0.0032957892399281263, 0.0001592265471117571, -0.002962718950584531, -0.0006412690854631364, -0.002241922076791525, 0.0069005731493234634, -0.0031411179807037115, -0.004079206380993128, -0.010614764876663685, -0.0034494549036026, -0.0028637077193707228, -0.007679061032831669, -0.008923353627324104, 0.0057519711554050446, 0.004656174220144749, 0.0032880958169698715, -0.013064245693385601, 0.0006282633985392749, -0.009172583930194378, 0.003503629006445408, -0.005768744740635157, 0.0009214290766976774, -0.0013660037657245994, -0.0009173552971333265, -0.002415522001683712, 0.000989700434729457, 0.007433755323290825, 0.007978551089763641, -0.003573943395167589, -0.0007587602594867349, -0.002712318440899253, -0.0016640221001580358, -0.005582807585597038, -0.003845070255920291, -0.002462668577209115, 0.004193257074803114, -0.004017751198261976, 0.00662242854014039, 0.0034339181147515774, 0.002950491616502404, -0.005351783242076635, 0.0038993675261735916, -0.010613021440804005, -0.003662049537524581, 0.008206240832805634, 0.011480328626930714, -0.008344539441168308, 0.007847726345062256, -0.005569556262344122, -0.010563311167061329, -0.005418270360678434, -0.007664074189960957, 0.013856302946805954, 0.0008175725815817714, 0.01372720766812563, 0.007504190783947706, -0.008870691061019897, 0.00936221145093441, -0.0041686478070914745, -0.004193850327283144, -9.801493433769792e-05, 0.006656602956354618, -0.006693710573017597, 0.0029972095508128405, -0.0073102484457194805, 0.003999493550509214, -0.004582372959703207, -0.008176960982382298, -0.004499814938753843, -0.0038772691041231155, 0.0017498824745416641, 0.005003331694751978, -0.009267902933061123, -0.0060293348506093025, -0.002276745857670903, 0.006926596164703369], [0.003029974177479744, -0.011960532516241074, 0.00551673723384738, -0.01152043230831623, 0.0028106041718274355, -0.005731566809117794, -0.003288716310635209, -0.010085894726216793, -0.005738415289670229, -0.0034613683819770813, -0.009262008592486382, -0.003053305670619011, 0.009789065457880497, 0.00320807215757668, 0.0034434155095368624, 0.003776292549446225, -0.007951054722070694, -0.010198602452874184, -0.00943055097013712, -0.005374337546527386, 0.01137225516140461, 0.006112395320087671, 0.012627720832824707, -0.003323798067867756, 0.0039059105329215527, -0.009166066534817219, 0.0065015824511647224, 0.004918703809380531, 0.010257820598781109, -0.0033548343926668167, 0.007529021706432104, -0.0033680149354040623, 0.006254476495087147, -0.012590084224939346, -0.0034120017662644386, -0.009909124113619328, 0.004989463370293379, -0.0033734033349901438, 0.009579031728208065, 0.005808189511299133, 0.00862041488289833, -0.01127295196056366, 0.008568264544010162, -0.0033504136372357607, 0.008942333981394768, -0.007064617704600096, 0.0033894700463861227, 0.007180690765380859, -0.00683109275996685, -0.003520714584738016, 0.009170309640467167, -0.011318221688270569, 0.009737158194184303, -0.004270403645932674, 0.008755071088671684, 0.0034236756619066, 0.009074848145246506, -0.01399733405560255, 0.003165731206536293, 0.0057443659752607346, 0.011493324302136898, 0.006297209765762091, 0.004046204034239054, 0.011966061778366566, 0.010769517160952091, -0.008894664235413074, -0.008844167925417423, -0.007753356359899044, 0.005785166751593351, -0.00742809334769845, 0.008478783071041107, -0.007723416201770306, 0.013567077927291393, -0.0029953205958008766, 0.006928928662091494, 0.007746785879135132, 0.00917243491858244, -0.0073780277743935585, -0.008920501917600632, -0.007871697656810284, 0.007379892282187939, 0.00753311300650239, 0.008669487200677395, 0.0029850637074559927, 0.008990996517241001, 0.01029161736369133, 0.0027422476559877396, -0.005190791096538305, 0.00505876773968339, -0.0038204179145395756, -0.007984857074916363, -0.0054596178233623505, 0.004084589425474405, -0.003898954251781106, 0.01234524231404066, 0.011053724214434624, -0.007891851477324963, -0.004855004604905844, 0.007074594963341951, -0.009911215864121914, 0.010306477546691895, 0.009946806356310844, 0.012502199970185757, 0.010339238680899143, -0.001143088098615408, -0.0027881429996341467, -0.004882332403212786, -0.006603780668228865, 0.011753177270293236, -0.0025252681225538254, 0.013234890066087246, 0.010065624490380287, 0.0045665595680475235, -0.003709278302267194, 0.011793209239840508, -0.007327716797590256, 0.004005954135209322, -0.007487711496651173, 0.013048993423581123, 0.00288649694994092, 0.007275280077010393, 0.006938520353287458, -0.005942029412835836, -0.008785069920122623, 0.011322937905788422, 0.006989897228777409, 0.0024030611384660006, -0.009709610603749752], [-0.013382647186517715, 0.012680796906352043, -0.004647827707231045, 0.008288899436593056, -0.010399763472378254, 0.009992950595915318, 0.01634879969060421, 0.012981638312339783, 0.004181028343737125, 0.009587080217897892, 0.005738952662795782, 0.004617268685251474, -0.013743036426603794, -0.004052131436765194, -0.013510230928659439, -0.0036949587520211935, 0.014638436958193779, 0.013723471201956272, 0.014095251448452473, 0.014931464567780495, -0.014673757366836071, -0.011971764266490936, -0.01650150492787361, 0.012984870932996273, -0.00579623319208622, 0.012000685557723045, -0.01407310925424099, -0.008311081677675247, -0.015126025304198265, 0.015394211746752262, -0.007286516018211842, 0.009086856618523598, -0.01154779177159071, 0.003310508094727993, 0.007361953146755695, 0.013055804185569286, -0.010936656035482883, 0.013000326231122017, -0.011255240067839622, -0.011315233074128628, -0.006064930930733681, 0.01594606786966324, -0.004754652734845877, 0.0037288679741322994, -0.013890331611037254, 0.014735467731952667, -0.012570738792419434, -0.003943805117160082, 0.011962039396166801, 0.015972083434462547, -0.013187521137297153, 0.016070116311311722, -0.014140571467578411, 0.004108777269721031, -0.012613228522241116, -0.004631103482097387, -0.004560719709843397, 0.0170368030667305, -0.0116767892614007, -0.003814402036368847, -0.014024751260876656, -0.009001350030303001, -0.011588476598262787, -0.004215184133499861, -0.014827923849225044, 0.011238991282880306, 0.010082756169140339, 0.010288572870194912, -0.009966562502086163, 0.004212804604321718, -0.010961197316646576, 0.004218790214508772, -0.013059468939900398, 0.007502750959247351, -0.003805390791967511, -0.007606008555740118, -0.01115169283002615, 0.008051345124840736, 0.003897639224305749, 0.004834129940718412, -0.011082436889410019, -0.008332397788763046, -0.01428599376231432, -0.004655551165342331, -0.009019189514219761, -0.0037296556401997805, -0.0042273676954209805, 0.009831954725086689, -0.009800108149647713, 0.012788708321750164, 0.015245714224874973, 0.0046467650681734085, -0.004413539078086615, 0.013164092786610126, -0.0035493054892867804, -0.004047858063131571, 0.0032357778400182724, 0.01669291779398918, -0.018812265247106552, 0.00942126102745533, -0.01488477736711502, -0.012388862669467926, -0.005112299695611, -0.0043061645701527596, 0.004892937373369932, 0.006262289360165596, 0.004405368119478226, 0.01444501243531704, -0.0037401390727609396, 0.003586795413866639, -0.013645008206367493, -0.013605345040559769, -0.003404249669983983, 0.0044273571111261845, -0.014075867831707, 0.003948356490582228, -0.004502071999013424, 0.004175269510596991, -0.013805367983877659, -0.014052046462893486, -0.013922598212957382, -0.007682418916374445, 0.0039176736027002335, 0.011666825041174889, -0.0034026780631393194, -0.01287501584738493, -0.009420715272426605, 0.009897834621369839], [0.0034596913028508425, -0.005348977167159319, 0.002849015174433589, -0.003817601129412651, 0.004203170072287321, -0.007301394362002611, -0.013698837719857693, -0.010632316581904888, -0.006332032382488251, -0.003604927798733115, -0.01165678445249796, -0.011228522285819054, 0.003778741927817464, 0.004166754428297281, 0.009730244986712933, 0.00419981824234128, -0.003140597604215145, -0.0038389579858630896, -0.010849257931113243, -0.009146289899945259, 0.010636026039719582, 0.00955570861697197, 0.015875715762376785, -0.01456413883715868, 0.009719393216073513, -0.0042017060332000256, 0.015242797322571278, 0.004778048023581505, 0.010878882370889187, -0.012887457385659218, 0.011414862237870693, -0.010928142815828323, 0.0039123292081058025, -0.01520986296236515, -0.0041382452473044395, -0.0036310218274593353, 0.0035093745682388544, -0.013617738150060177, 0.014040632173418999, 0.010877585969865322, 0.008770966902375221, -0.011220633052289486, 0.0014803929952904582, -0.006970131769776344, 0.0041024466045200825, -0.010716039687395096, 0.0031872857362031937, 0.014257804490625858, -0.0036621142644435167, -0.005249091889709234, 0.014390680938959122, -0.010975844226777554, 0.012616902589797974, -0.00583609426394105, 0.011102906428277493, 0.010133481584489346, 0.00663504283875227, -0.0145137719810009, 0.01035614125430584, 0.008060554973781109, 0.013341912068426609, 0.004707633052021265, 0.004232347477227449, 0.012369821779429913, 0.007073977496474981, -0.003575328504666686, -0.010321381501853466, -0.011545625515282154, 0.008078191429376602, -0.011121408082544804, 0.0075685372576117516, -0.003771098330616951, 0.01276390254497528, -0.008864128030836582, 0.004887994844466448, 0.004521734081208706, 0.0045055728405714035, -0.011428927071392536, -0.011290380731225014, -0.0038428502157330513, 0.004463966470211744, 0.009247515350580215, 0.01054344605654478, 0.004609263967722654, 0.006630874238908291, 0.00369665096513927, 0.004016806837171316, -0.006594954524189234, 0.00883047841489315, -0.004657489247620106, -0.011150822974741459, -0.00894193910062313, 0.004213318694382906, -0.015025879256427288, 0.0032431380823254585, 0.011801172979176044, -0.011959794908761978, -0.015099828131496906, 0.005102467257529497, -0.008153129369020462, 0.012272072024643421, 0.009643524885177612, 0.009969108738005161, 0.01451690960675478, -0.006402079947292805, -0.008606087416410446, -0.0034129004925489426, -0.009362190961837769, 0.013770487159490585, -0.006620282307267189, 0.003663059789687395, 0.0038930659648030996, 0.00629354128614068, -0.012103444896638393, 0.010493897832930088, -0.0055931382812559605, 0.003805907443165779, -0.010692108422517776, 0.012935287319123745, 0.012272942811250687, 0.01244532410055399, 0.004481050185859203, -0.007815234363079071, -0.010888154618442059, 0.008785083889961243, 0.010549617931246758, 0.003174036042764783, -0.011058754287660122], [0.012592887505888939, -0.004085007589310408, 0.00402589188888669, -0.015887456014752388, 0.004253998398780823, -0.010426304303109646, -0.01121694128960371, -0.01149851456284523, -0.013799709267914295, -0.012014816515147686, -0.011865764856338501, -0.012794522568583488, 0.01212493795901537, 0.00849922001361847, 0.010909989476203918, 0.005377602763473988, -0.010200655087828636, -0.010893022641539574, -0.014181749895215034, -0.009244438260793686, 0.014173701405525208, 0.009507044218480587, 0.0039191958494484425, -0.007811861112713814, 0.004399711731821299, -0.012676142156124115, 0.01609111577272415, 0.011892737820744514, 0.0038969244342297316, -0.012785420753061771, 0.011014199815690517, -0.0037739279214292765, 0.004161258228123188, -0.015909837558865547, -0.008334712125360966, -0.0041321502067148685, 0.008181894198060036, -0.01353271771222353, 0.013388522900640965, 0.005986727774143219, 0.011584627442061901, -0.010874321684241295, 0.013357248157262802, -0.0121306162327528, 0.003827356733381748, -0.011619620956480503, 0.003147197887301445, 0.00841682031750679, -0.010585293173789978, -0.014882400631904602, 0.01568104699254036, -0.012775776907801628, 0.012388138100504875, -0.003660494927316904, 0.014421737752854824, 0.010341167449951172, 0.004270761273801327, -0.014720042236149311, 0.01186789944767952, 0.0077815307304263115, 0.01206632237881422, 0.004307872615754604, 0.008535495027899742, 0.011701354756951332, 0.003472571261227131, -0.0113746402785182, -0.011968296952545643, -0.014374254271388054, 0.010680842213332653, -0.011572095565497875, 0.009938722476363182, -0.009393535554409027, 0.01240649726241827, -0.0140916146337986, 0.008532660081982613, 0.004051293712109327, 0.008766582235693932, -0.013455796055495739, -0.012037730775773525, -0.004369829315692186, 0.008180717937648296, 0.013630413450300694, 0.011403444223105907, 0.006534256972372532, 0.011127602308988571, 0.012466274201869965, 0.005534316413104534, -0.003038805676624179, 0.014438311569392681, -0.015274123288691044, -0.011163911782205105, -0.007638049311935902, 0.01569085195660591, -0.012903616763651371, 0.014331385493278503, 0.015608429908752441, -0.005037157330662012, -0.014526786282658577, 0.008184932172298431, -0.009559099562466145, 0.0088872779160738, 0.013921711593866348, 0.007975864224135876, 0.013413870707154274, -0.003779694205150008, -0.01147681288421154, -0.01055715512484312, -0.010758181102573872, 0.005127845797687769, -0.00376151199452579, 0.004475585650652647, 0.0031635654158890247, 0.011592702940106392, -0.004351869225502014, 0.015433582477271557, -0.01097578089684248, 0.0130575867369771, -0.0036983266472816467, 0.011175945401191711, 0.011951601132750511, 0.010762707330286503, 0.011699588038027287, -0.010624880902469158, -0.004017864353954792, 0.011574873700737953, 0.004398528020828962, 0.009842369705438614, -0.010218042880296707], [-0.010108782909810543, 0.0006811547791585326, -0.01033764611929655, 0.001443291432224214, -0.01018177904188633, 0.003049324732273817, 0.005633506923913956, 0.0040460433810949326, 0.00022895018628332764, 0.006761304102838039, 0.007012513000518084, 0.0004889800329692662, -0.00022775723482482135, -0.010811842978000641, -0.011345887556672096, -0.012447213754057884, 0.004888388328254223, 0.002038888866081834, 0.01267153862863779, 0.00045760138891637325, -0.0018141986802220345, -0.009981604292988777, -0.00539441267028451, 0.00042332769953645766, -0.009928322397172451, 0.0007896627648733556, -0.0028702705167233944, -0.013765448704361916, -0.0017901946557685733, 0.0008707747329026461, -0.0011623342288658023, 0.01228051632642746, -0.00010124370601261035, 0.004726942162960768, 0.009462208487093449, 0.0020324906799942255, -0.01164717972278595, 0.0011481629917398095, -0.010015278123319149, -0.008413093164563179, -0.00020804911036975682, 0.0026941222604364157, -0.003535295370966196, 0.011571751907467842, -0.0015999885508790612, 0.002874366706237197, -0.0018539922311902046, -0.011778434738516808, 0.011971546337008476, 0.0020637884736061096, -0.009982459247112274, 0.003488460322842002, -0.0087933000177145, 0.001266815816052258, -0.010883734561502934, -0.012659541331231594, -0.0011676173890009522, 0.011267662048339844, -0.00160343071911484, -0.0021726975683122873, -0.006588000804185867, -0.002415535505861044, -0.01358394231647253, -0.002551456680521369, -0.0015911489026620984, 0.0014061143156141043, 0.00969908107072115, 0.0006614678422920406, -0.0013071164721623063, 0.004345333203673363, -9.388515536556952e-06, 0.006394639145582914, -0.0013339872239157557, 0.012468351982533932, -0.012293814681470394, -0.008121883496642113, -0.014516979455947876, 0.002949799643829465, 0.0002725345257204026, 0.0076353782787919044, -0.002531672827899456, -0.012277258560061455, -0.00645308755338192, -0.0024809304159134626, -0.0025510655250400305, -0.010231832973659039, -0.006853442173451185, 0.007661788258701563, -0.011531904339790344, 0.011192223988473415, 0.0018723466200754046, 0.01434981357306242, -0.005428100936114788, 0.0022967078257352114, -0.002291005104780197, -0.0030329895671457052, 0.0025640418753027916, 9.64914434007369e-05, -0.004737700801342726, 0.007244001142680645, -0.009973622858524323, -0.0025625962298363447, -0.010229583829641342, -0.0022702713031321764, 0.0009147464879788458, 0.012420443817973137, 0.01299241092056036, 0.0019370809895917773, -0.0009498507715761662, 0.01107652299106121, -0.0028484438080340624, -0.011882741004228592, -0.0064979600720107555, 0.0008748230757191777, -0.012096544727683067, 0.0013858963502570987, -0.005724939052015543, 0.011403392069041729, -0.00031105056405067444, -0.004070410970598459, -0.005207391455769539, -0.014582233503460884, 0.004083309322595596, 0.009894657880067825, -0.01005163136869669, -0.010186715051531792, -0.00523364869877696, 0.01195914763957262], [0.0032990449108183384, -0.0038201450370252132, 0.0028110872954130173, -0.0066457209177315235, 0.003299673553556204, -0.010171754285693169, -0.009705441072583199, -0.003629140555858612, -0.010260896757245064, -0.009801981970667839, -0.011763416230678558, -0.01233599428087473, 0.00382092478685081, 0.004182084929198027, 0.012215291149914265, 0.004266384989023209, -0.0033573254477232695, -0.011998619884252548, -0.008966476656496525, -0.007787652313709259, 0.003862569108605385, 0.007812834344804287, 0.003933205269277096, -0.0036618919111788273, 0.0043579996563494205, -0.008273080922663212, 0.0038463231176137924, 0.012781474739313126, 0.0036163621116429567, -0.01001094002276659, 0.007388431113213301, -0.010152800008654594, 0.007810198701918125, -0.013484055176377296, -0.012589432299137115, -0.0090227285400033, 0.006412719842046499, -0.011584999039769173, 0.009555282071232796, 0.012064285576343536, 0.003608832834288478, -0.005753993988037109, 0.012403006665408611, -0.0037704119458794594, 0.012398971244692802, -0.009020458906888962, 0.0035030688159167767, 0.012906042858958244, -0.010261565446853638, -0.011207493022084236, 0.0036056379321962595, -0.0031165399122983217, 0.009922683238983154, -0.003915229346603155, 0.008182019926607609, 0.01013005431741476, 0.01046846155077219, -0.01399785466492176, 0.0123771782964468, 0.00637595821171999, 0.004293887875974178, 0.007944387383759022, 0.008931425400078297, 0.013272364623844624, 0.010602710768580437, -0.011005150154232979, -0.0038153890054672956, -0.011368578299880028, 0.007455784361809492, -0.006746270693838596, 0.01132981013506651, -0.0073676034808158875, 0.011886305175721645, -0.00993047934025526, 0.0038036624900996685, 0.008819476701319218, 0.004684348125010729, -0.00929606705904007, -0.0038500651717185974, -0.010325771756470203, 0.013320861384272575, 0.0034690680913627148, 0.009085175581276417, 0.004966225475072861, 0.0040564523078501225, 0.009787945076823235, 0.009740231558680534, -0.007325726095587015, 0.0058863237500190735, -0.003835428273305297, -0.009554892778396606, -0.005823523737490177, 0.004579869564622641, -0.00510399928316474, 0.013475745916366577, 0.007188920862972736, -0.008816002868115902, -0.013444437645375729, 0.007358237635344267, -0.008465581573545933, 0.004227594472467899, 0.006279128137975931, 0.008098158985376358, 0.010651501826941967, -0.00464844424277544, -0.005821679253131151, -0.004746065009385347, -0.012074333615601063, 0.011611090041697025, -0.004037003498524427, 0.0038185107987374067, 0.01109249610453844, 0.00862004142254591, -0.008027207106351852, 0.01269605290144682, -0.009364516474306583, 0.004748483654111624, -0.011680484749376774, 0.004042190033942461, 0.011566963978111744, 0.003407988930121064, 0.010708638466894627, -0.003725578309968114, -0.011849932372570038, 0.010054478421807289, 0.003628841135650873, 0.004918954335153103, -0.01227183360606432], [0.008234904147684574, -0.004339421633630991, 0.003993384074419737, -0.013741647824645042, 0.008122138679027557, -0.0038674648385494947, -0.013481980189681053, -0.011550938710570335, -0.0038509743753820658, -0.0037986626848578453, -0.01564890705049038, -0.013452148996293545, 0.007567922119051218, 0.015353545546531677, 0.004104042425751686, 0.003657102817669511, -0.005635316949337721, -0.011113659478724003, -0.003855200484395027, -0.008292043581604958, 0.006513421889394522, 0.012285261414945126, 0.003592760767787695, -0.004619563464075327, 0.013939914293587208, -0.00400987034663558, 0.0039696660824120045, 0.012241959571838379, 0.0036838187370449305, -0.013829684816300869, 0.008936663158237934, -0.01065595168620348, 0.01015816442668438, -0.015593031421303749, -0.004984284285455942, -0.011175920255482197, 0.0037971194833517075, -0.010392244905233383, 0.004603880923241377, 0.009386220015585423, 0.00948935467749834, -0.003964087925851345, 0.014169248752295971, -0.003560971701517701, 0.005015004426240921, -0.007367616984993219, 0.0032540911342948675, 0.003755986923351884, -0.003041645744815469, -0.0035706853959709406, 0.014546389691531658, -0.0031592000741511583, 0.004277256783097982, -0.003693350125104189, 0.0039035340305417776, 0.01171670388430357, 0.003732709912583232, -0.0037068254314363003, 0.00986879225820303, 0.004170350730419159, 0.008798555471003056, 0.0038944261614233255, 0.007905814796686172, 0.012323298491537571, 0.007585474755614996, -0.010042639449238777, -0.009569522924721241, -0.004037308972328901, 0.004128425847738981, -0.008434227667748928, 0.004265679977834225, -0.009789594449102879, 0.010435276664793491, -0.00454057939350605, 0.007253059186041355, 0.0037983476649969816, 0.004539660643786192, -0.003748542396351695, -0.004064298700541258, -0.007881900295615196, 0.012762080878019333, 0.004138221964240074, 0.004564016126096249, 0.004317507613450289, 0.006394142750650644, 0.010657568462193012, 0.012098729610443115, -0.011703676544129848, 0.001140005886554718, -0.004119330085813999, -0.004182659089565277, -0.007017295807600021, 0.012802796438336372, -0.003545223968103528, 0.011770311743021011, 0.004365749191492796, -0.015399105846881866, -0.012608250603079796, 0.013636362738907337, -0.010544330812990665, 0.014047550037503242, 0.0035643195733428, 0.008354234509170055, 0.004035733640193939, -0.007340287324041128, -0.007813897915184498, -0.004530004691332579, -0.004897076636552811, 0.013543774373829365, -0.00341384788043797, 0.011217019520699978, 0.010613732039928436, 0.00959420669823885, -0.012416760437190533, 0.011798972263932228, -0.009329673834145069, 0.010044514201581478, -0.01227653305977583, 0.003961547743529081, 0.003149301977828145, 0.0035765005741268396, 0.0081785311922431, -0.0060183703899383545, -0.0070165288634598255, 0.003408841323107481, 0.01381920836865902, 0.0034894782584160566, -0.01105188112705946], [0.014248175546526909, -0.0035480190999805927, 0.009163789451122284, -0.004328723531216383, 0.003885386511683464, -0.0039987931959331036, -0.011415760964155197, -0.011775404214859009, -0.00964230764657259, -0.007878521457314491, -0.004571846686303616, -0.010671625845134258, 0.013319254852831364, 0.003988901153206825, 0.009559350088238716, 0.004582657013088465, -0.010034848004579544, -0.013134134002029896, -0.003723178058862686, -0.006548132747411728, 0.011047418229281902, 0.01009030919522047, 0.012357208877801895, -0.003041525837033987, 0.008520719595253468, -0.01213961560279131, 0.003820782992988825, 0.004711310379207134, 0.01096166018396616, -0.004957686178386211, 0.0007024884107522666, -0.00794657040387392, 0.007156925275921822, -0.009276353754103184, -0.005246014799922705, -0.011253039352595806, 0.009360822848975658, -0.011591649614274502, 0.0034310431219637394, 0.010287255048751831, 0.0036553461104631424, -0.004037069156765938, 0.012766845524311066, -0.01112501509487629, 0.009675879031419754, -0.007968303747475147, 0.003971325699239969, 0.003944786731153727, -0.007392557803541422, -0.008482404984533787, 0.003635082859545946, -0.014057665131986141, 0.004018215462565422, -0.0075113787315785885, 0.01121419295668602, 0.01019136793911457, 0.005944122560322285, -0.0041865454986691475, 0.00996315386146307, 0.008057355880737305, 0.0027139110025018454, 0.002395438263192773, 0.007906575687229633, 0.0037486350629478693, 0.012137784622609615, -0.003733317367732525, -0.003513790899887681, -0.00882966723293066, 0.004920864477753639, -0.003553682006895542, 0.010362772271037102, -0.004049109295010567, 0.003306290600448847, -0.010457797907292843, 0.007686523720622063, 0.006490123923867941, 0.0038778665475547314, -0.00657213618978858, -0.004151696339249611, -0.010672182776033878, 0.004360710270702839, 0.003515243297442794, 0.00827695894986391, 0.004386230371892452, 0.003933001775294542, 0.0037232032045722008, 0.005268585868179798, -0.010162608698010445, 0.008333751931786537, -0.010890055447816849, -0.007397042121738195, -0.006363024935126305, 0.0040505388751626015, -0.0033112317323684692, 0.0031859399750828743, 0.0113110626116395, -0.010652363300323486, -0.005790086928755045, 0.009695556946098804, -0.008747896179556847, 0.003966456279158592, 0.004431779030710459, 0.009347253479063511, 0.010600317269563675, -0.005249524489045143, -0.005669146776199341, -0.004230909515172243, -0.003466700902208686, 0.012765471823513508, -0.0076051815412938595, 0.004459407180547714, 0.0010192712070420384, 0.005470598582178354, -0.009079736657440662, 0.003697396954521537, -0.010351138189435005, 0.0036370453890413046, -0.0037932994309812784, 0.012899101711809635, 0.007281397469341755, 0.012128462083637714, 0.007292439695447683, -0.006892274599522352, -0.0032533558551222086, 0.0034102583304047585, 0.010411696508526802, 0.006450067739933729, -0.008203213103115559], [-0.0071664792485535145, 0.009467272087931633, -0.01030641794204712, 0.006805509328842163, -0.00871239136904478, 0.009381341747939587, 0.0066082957200706005, 0.007880771532654762, 0.007516172248870134, 0.004400402773171663, 0.0007013091817498207, 0.008477626368403435, -0.006495992187410593, -0.006845671683549881, -0.0037836087867617607, -0.008913351222872734, 0.005671195685863495, 0.007720397785305977, 0.007623936980962753, 0.00893208384513855, -0.005894503556191921, -0.009548432193696499, -0.0034620678052306175, 0.006509545724838972, -0.003545219311490655, 0.0033132382668554783, -0.005649784114211798, -0.010072979144752026, -0.0089403185993433, 0.005187503062188625, -0.008256671018898487, 0.007269980385899544, -0.010294352658092976, 0.0029267682693898678, 0.006336395163089037, 0.008689133450388908, -0.01300110388547182, 0.006267445161938667, -0.005337492097169161, -0.001342762727290392, -0.007540842983871698, 0.01048006396740675, -0.0027921870350837708, 0.005322853568941355, -0.007597487885504961, 0.0054413927718997, -0.006166792940348387, -0.007953747175633907, 0.006954834330826998, 0.007523112930357456, -0.005082535091787577, 0.007697825785726309, -0.008150001056492329, 0.002450850559398532, -0.0074968901462852955, -0.00415852852165699, -0.005827218294143677, 0.006885136477649212, -0.0064642527140676975, -0.004276843275874853, -0.0050848014652729034, -0.012126857414841652, -0.005389127414673567, -0.006118401885032654, -0.0038762681651860476, 0.006723648402839899, 0.003938358277082443, 0.0063804336823523045, -0.009591445326805115, 0.003668146673589945, -0.010204336605966091, 0.009429552592337132, -0.0022194799967110157, 0.0033540031872689724, -0.01283965166658163, -0.01222492940723896, -0.011803981848061085, 0.004359707701951265, 0.007361582480370998, 0.005657711997628212, -0.007095094304531813, -0.007964867167174816, -0.008201761171221733, -0.009725285694003105, -0.01026300061494112, -0.00964766088873148, -0.00961232278496027, 0.03387947753071785, -0.010645715519785881, 0.007534374017268419, 0.008149421773850918, 0.010807269252836704, -0.009550417773425579, 0.007113902363926172, -0.0036128531210124493, -0.006100625731050968, 0.005150543060153723, 0.007941551506519318, -0.009263497777283192, 0.006328340154141188, -0.005436930805444717, -0.0050816466100513935, -0.006185570731759071, -0.008998380042612553, 0.015025981701910496, 0.009529653936624527, 0.008436784148216248, 0.00727473758161068, -0.003034641034901142, 0.0074671534821391106, -0.007871764712035656, -0.003945971839129925, -0.0104287751019001, 0.009588913060724735, -0.009498771280050278, 0.00579743692651391, -0.0078514963388443, 0.004559881053864956, -0.009282301180064678, -0.0064764441922307014, -0.006762155331671238, -0.005030677653849125, 0.008376916870474815, 0.007418572902679443, -0.0060642980970442295, -0.004862782545387745, -0.009256615303456783, 0.007452934980392456], [-0.007052844390273094, 0.00861562229692936, -0.012108730152249336, 0.008238580077886581, -0.013072840869426727, 0.0033110156655311584, 0.002997768810018897, 0.0038399286568164825, 0.005963640287518501, 0.0022692799102514982, 0.006389723625034094, 0.010671081952750683, -0.011592450551688671, -0.005856547970324755, -0.001101702218875289, -0.014871552586555481, 0.0018393949139863253, 0.007184512913227081, 0.007927656173706055, 0.003303036792203784, -0.0039828126318752766, -0.0022947269026190042, -0.01049008872359991, 0.006051349453628063, -0.002053018193691969, 0.003766682930290699, -0.008101454004645348, -0.003242658684030175, -0.004783486481755972, 0.011022956110537052, -0.0027886873576790094, 0.0009809377370402217, -0.0036085767205804586, 0.002900173421949148, 0.0010795330163091421, 0.005414903163909912, -0.013020976446568966, 0.009423963725566864, -0.01107632927596569, -0.010354292578995228, -0.002633308060467243, 0.005724916234612465, -0.0024008990731090307, 0.0046902731992304325, -0.002286384114995599, 0.004026519134640694, -0.00674335565418005, -0.006409767549484968, 0.004593431483954191, 0.0051986100152134895, -0.004859558306634426, 0.008724130690097809, -0.008674675598740578, 0.00316080404445529, -0.003471406176686287, -0.003245338797569275, -0.0007930726860649884, 0.009063953533768654, -0.005582299083471298, -0.0031059749890118837, -0.012275945395231247, -0.0013315598480403423, -0.002566582290455699, -0.007966972887516022, -0.011227836832404137, 0.004044600762426853, 0.008467426523566246, 0.004068711306899786, -0.0001316094712819904, 0.0031784726306796074, -0.005464405752718449, 0.0032567856833338737, -0.0033552462700754404, 0.0131992744281888, -0.0026601990684866905, -0.012673679739236832, -0.002307664602994919, 0.0008682541665621102, 0.003464744659140706, 0.0033553934190422297, -0.0067046326585114, -0.0035455343313515186, -0.0028857188299298286, -0.0028791469521820545, -0.003595554269850254, -0.005672607570886612, -0.0004679816192947328, 0.00456773629412055, -0.0040741958655416965, 0.0073915040120482445, 0.005881492048501968, 0.00028195028426125646, -0.0040673729963600636, 0.003320664633065462, -0.01156596839427948, -0.003636633977293968, 0.007400477770715952, 0.008784339763224125, -0.006718134973198175, 0.008887647651135921, -0.008261211216449738, -0.007494764402508736, -0.003004445694386959, -0.0090132225304842, 0.0022032519336789846, 0.002938017947599292, 0.0035295963753014803, 0.004879057873040438, -0.0099375294521451, 0.004130617715418339, -0.008217721246182919, -0.005339331459254026, -0.0012104290071874857, 0.0032009512651711702, -0.007919997908174992, 0.0019920028280466795, -0.005663062911480665, 0.0035286613274365664, -0.003169962903484702, -0.009665489196777344, -0.0036344334948807955, -0.0005231238319538534, 0.004141069483011961, 0.0031173096504062414, -0.006710665766149759, -0.006312069948762655, -0.007435604464262724, 0.008276781067252159], [-0.008309298194944859, 0.01120203547179699, -0.0010238568065688014, 0.012067829258739948, -0.0026284242048859596, 0.0021758354268968105, 0.009050754830241203, 0.006201400887221098, 0.005270848050713539, 0.006748127285391092, 0.009551852010190487, 0.0031406281050294638, -0.008134511299431324, -0.0063165887258946896, -0.003514684271067381, -0.003868812695145607, 0.0025161607190966606, 0.009763166308403015, 0.010603119619190693, 0.0020713580306619406, -0.00992694590240717, -0.004004430025815964, -0.012875060550868511, 0.007160769309848547, -0.003948593512177467, 0.006991191767156124, -0.00982414186000824, -0.003615310415625572, -0.005133860744535923, 0.0113401273265481, -0.003992265556007624, 0.006955632474273443, -0.0030697989277541637, 0.0028598729986697435, 0.005581266712397337, 0.009111219085752964, -0.00515587255358696, 0.011584159918129444, -0.011187960393726826, -0.009444231167435646, -0.001955167157575488, 0.009599683806300163, -0.008150346577167511, 0.008979754522442818, -0.009104263968765736, 0.005300645250827074, -0.00815767515450716, -0.005222679115831852, 0.00753275491297245, 0.0031395505648106337, -0.008232119493186474, 0.0029197786934673786, -0.009741593152284622, 0.0019663763232529163, -0.0042204237543046474, -0.005381160415709019, -0.002287772251293063, 0.0035536931827664375, -0.006934880744665861, -0.004636943805962801, -0.0036274888552725315, -0.0017639297293499112, -0.007116715423762798, -0.007844782434403896, -0.01133004017174244, 0.010178006254136562, 0.007501404732465744, 0.007109446916729212, -0.0007579675293527544, 0.004911758471280336, -0.006499152630567551, 0.002888281363993883, -0.012314757332205772, 0.005239364691078663, -0.004748638719320297, -0.00032730516977608204, -0.0026686310302466154, 0.0031702802516520023, 0.008473740890622139, 0.008125117048621178, -0.003699394641444087, -0.007525592111051083, -0.005689139477908611, -0.002061367267742753, -0.0016830004751682281, -0.005597030743956566, -0.0029305710922926664, 0.006986652035266161, -0.006245682016015053, 0.0074258828535676, 0.010121081955730915, 0.0034268139861524105, -0.007344597484916449, 0.003271940164268017, -0.007038193289190531, -0.008689336478710175, 0.011729011312127113, 0.011828790418803692, -0.00868164747953415, 0.007596964947879314, -0.008725494146347046, -0.010573666542768478, -0.008244771510362625, -0.006725039333105087, 0.0014705877983942628, 0.0001977674983208999, 0.0030976657290011644, 0.0034917560406029224, -0.01112315896898508, 0.00041827253880910575, -0.00449195085093379, -0.008127260953187943, -0.0024108667857944965, 0.005516527220606804, -0.007950223051011562, 0.0036649613175541162, -0.003437174018472433, 0.007260447833687067, -0.0034323763102293015, -0.003099912079051137, -0.002925924491137266, -0.0026128876488655806, 0.0014338911278173327, 0.006694461219012737, -0.011033876799046993, -0.007403493393212557, -0.0008316311868838966, 0.003300833748653531], [-0.012258480302989483, 0.01192450150847435, -0.0023490283638238907, 0.012103023007512093, -0.0012829405022785068, 0.0032221393194049597, 0.003308626124635339, 0.0037435777485370636, 0.006894465070217848, 0.0013793280813843012, 0.009972385130822659, 0.011826746165752411, -0.012373046949505806, -0.008680857717990875, -0.0106615936383605, -0.0049097491428256035, 0.003007106017321348, 0.010019104927778244, 0.010468808002769947, 0.00984658021479845, -0.011112332344055176, -0.010789166204631329, -0.012519066222012043, 0.003644479438662529, -0.004243376664817333, 0.010071516036987305, -0.007284019608050585, -0.011301876045763493, -0.0034176723565906286, 0.0032901561353355646, -0.007131487131118774, 0.003525081556290388, -0.007555004674941301, 0.003148382529616356, 0.006039058789610863, 0.011404660530388355, -0.0037142066285014153, 0.01205222588032484, -0.00357117154635489, -0.010013521648943424, -0.00783843919634819, 0.01329804677516222, -0.011878298595547676, 0.009507778100669384, -0.0035628904588520527, 0.009248721413314342, -0.01174578070640564, -0.011294444091618061, 0.006510266102850437, 0.013090803287923336, -0.003451766911894083, 0.010074152611196041, -0.0039178719744086266, 0.006176943425089121, -0.012297824956476688, -0.00379111897200346, -0.009054146707057953, 0.003745337948203087, -0.011643249541521072, -0.00940773356705904, -0.011834196746349335, -0.004894984886050224, -0.008515436202287674, -0.0083338413387537, -0.011217252351343632, 0.0037002398166805506, 0.00844616163522005, 0.0041233268566429615, -0.004069703631103039, 0.0028102686628699303, -0.012324459850788116, 0.011847030371427536, -0.01273108460009098, 0.00941753014922142, -0.006427905522286892, -0.007316350471228361, -0.009688001126050949, 0.003938402980566025, 0.004000752232968807, 0.011252308264374733, -0.004639440216124058, -0.0051514096558094025, -0.0035785131622105837, -0.0037741006817668676, -0.0036899608094245195, -0.0009277930366806686, -0.0033955106046050787, 0.0029269070364534855, -0.002961564576253295, 0.012394461780786514, 0.011902255937457085, 0.006444531958550215, -0.005768359173089266, 0.0032542955595999956, -0.0032705548219382763, -0.005176990758627653, 0.009840987622737885, 0.003662114730104804, -0.011472120881080627, 0.008487427607178688, -0.003163504647091031, -0.009102081879973412, -0.004296110011637211, -0.0035403494257479906, 0.007531036622822285, 0.008039372973144054, 0.005626541096717119, 0.009771118871867657, -0.012034480459988117, 0.0026003727689385414, -0.003638313151896, -0.010275478474795818, -0.011841983534395695, 0.010911677032709122, -0.009290792979300022, 0.003695135237649083, -0.011189146898686886, 0.009954423643648624, -0.0123106949031353, -0.007631991989910603, -0.009063898585736752, -0.007506950292736292, 0.003955043852329254, 0.01129176001995802, -0.003466584486886859, -0.008591631427407265, -0.006805914454162121, 0.00922666396945715], [0.004374270793050528, -0.006846630945801735, 0.013236836530268192, -0.004422646015882492, 0.013760659843683243, -0.015124434605240822, -0.0038453172892332077, -0.006885240785777569, -0.007729315664619207, -0.004441319033503532, -0.007055106107145548, -0.006181668024510145, 0.0033964505419135094, 0.004890514072030783, 0.008386148139834404, 0.017224203795194626, -0.007949486374855042, -0.006131571717560291, -0.009369706735014915, -0.013754588551819324, 0.008736769668757915, 0.008293510414659977, 0.0076608662493526936, -0.006851158570498228, 0.005806126166135073, -0.006493160501122475, 0.008809056133031845, 0.0063521042466163635, 0.013804519549012184, -0.006115317344665527, 0.010430258698761463, -0.008631308563053608, 0.007980636321008205, -0.008375756442546844, -0.01276005432009697, -0.008209215477108955, 0.020300626754760742, -0.004816942382603884, 0.004046082030981779, 0.016566259786486626, 0.010809708386659622, -0.00788802094757557, 0.0061659240163862705, -0.005352024920284748, 0.004274857230484486, -0.009192944504320621, 0.006997944321483374, 0.006196017377078533, -0.004455583170056343, -0.004197240341454744, 0.00571556156501174, -0.0059923529624938965, 0.008478035219013691, -0.02269699238240719, 0.01241359207779169, 0.009189246222376823, 0.019771551713347435, -0.007801085710525513, 0.007519190665334463, 0.011348248459398746, 0.004586851689964533, 0.014984987676143646, 0.01173391193151474, 0.0030737346969544888, 0.006038998253643513, -0.008429376408457756, -0.0029247605707496405, -0.0058954437263309956, 0.011929073370993137, -0.008986018598079681, 0.008277589455246925, -0.015313993208110332, 0.003495782148092985, -0.019541651010513306, 0.00956375990062952, 0.021374698728322983, 0.012048785574734211, -0.013016989454627037, -0.005501047242432833, -0.006653504446148872, 0.005505351349711418, 0.008058005012571812, 0.012239601463079453, 0.014958232641220093, 0.013866066932678223, 0.01209081057459116, 0.017978118732571602, -0.0241784006357193, 0.007345427758991718, -0.006095808930695057, -0.008299802429974079, -0.017746450379490852, 0.009814168326556683, -0.004979582969099283, 0.007560776546597481, 0.0058576385490596294, -0.004255169536918402, -0.00505609018728137, 0.009084728546440601, -0.009308400563895702, 0.00592179037630558, 0.009705602191388607, 0.01555962860584259, 0.008786892518401146, -0.01192986685782671, -0.010225068777799606, -0.00819473061710596, -0.0070304060354828835, 0.004769330844283104, -0.011792017146945, 0.0034317155368626118, 0.0052633872255682945, 0.005341263022273779, -0.006682822480797768, 0.010519487783312798, -0.007269434165209532, 0.004870247561484575, -0.00898660533130169, 0.009370259940624237, 0.0016207423759624362, 0.003927524667233229, 0.009030330926179886, -0.016160061582922935, -0.005608015228062868, 0.005384576506912708, 0.004450818989425898, 0.02040574699640274, -0.007092308718711138], [-0.02491742931306362, 0.009037455543875694, -0.028077520430088043, 0.020565642043948174, -0.053978413343429565, 0.006698357407003641, 0.0242500901222229, 0.030568154528737068, 0.006227689795196056, 0.041603364050388336, 0.010651499964296818, 0.013937875628471375, -0.024626700207591057, -0.02627175860106945, -0.041557058691978455, -0.006210571154952049, 0.03824237734079361, 0.024920061230659485, 0.0055646998807787895, 0.04851779714226723, -0.004634547512978315, -0.006467364262789488, -0.005677844863384962, 0.036684077233076096, -0.025445401668548584, 0.005241289269179106, -0.015323101542890072, -0.007059197872877121, -0.03623700514435768, 0.006726942956447601, -0.003999793902039528, 0.03922659531235695, -0.005852610804140568, 0.010941616259515285, 0.03434333950281143, 0.03732337802648544, -0.008148289285600185, 0.023190440610051155, -0.0038127200677990913, -0.004541864152997732, -0.04136053845286369, 0.007115507032722235, -0.006024490110576153, 0.029763774946331978, -0.04014504700899124, 0.036081794649362564, -0.031400687992572784, -0.004986339248716831, 0.036327313631772995, 0.005199231673032045, -0.02166770212352276, 0.008156077936291695, -0.03247201442718506, 0.0064853886142373085, -0.005746852140873671, -0.022356819361448288, -0.006706103216856718, 0.005041894968599081, -0.004714739974588156, -0.02781880460679531, -0.01895119622349739, -0.03144140541553497, -0.008042316883802414, -0.024844110012054443, -0.024120574817061424, 0.030331293120980263, 0.03209897503256798, 0.030010826885700226, -0.05048719793558121, 0.04129000008106232, -0.032497093081474304, 0.03781113028526306, -0.017369624227285385, 0.020416608080267906, -0.05046622082591057, -0.04627346992492676, -0.0512261763215065, 0.0068842326290905476, 0.01602783054113388, 0.023053383454680443, -0.04137800261378288, -0.03808382898569107, -0.0413513146340847, -0.03545648232102394, -0.007552638184279203, -0.005840539000928402, -0.03305133804678917, 0.014530893415212631, -0.027260886505246162, 0.006730365101248026, 0.005909963045269251, 0.01018424704670906, -0.006471219472587109, 0.03557262197136879, -0.02796712890267372, -0.004500584676861763, 0.02336250990629196, 0.02282875031232834, -0.005506529472768307, 0.008802357129752636, -0.029567047953605652, -0.02033352479338646, -0.03931810334324837, -0.00825408287346363, 0.007050614338368177, 0.03795720264315605, 0.04687162861227989, 0.03809026628732681, -0.018625695258378983, 0.048956479877233505, -0.028626196086406708, -0.004416489042341709, -0.005188416689634323, 0.029429880902171135, -0.02899436093866825, 0.03411687910556793, -0.006035064812749624, 0.0338626429438591, -0.034638624638319016, -0.02053789794445038, -0.04113682731986046, -0.02202817238867283, 0.04182397201657295, 0.020205847918987274, -0.00591261126101017, -0.022688772529363632, -0.0019147080602124333, 0.029726454988121986], [-0.0029319380410015583, 0.003481827909126878, -0.014601515606045723, 0.003140935441479087, -0.01767917349934578, 0.021552667021751404, 0.0027227976825088263, 0.01720835641026497, 0.0024344264529645443, 0.0128737548366189, 0.008221692405641079, 0.009703831747174263, -0.002967192092910409, -0.0008694648277014494, -0.01270248368382454, -0.017152516171336174, 0.01766805723309517, 0.014536176808178425, 0.018201658502221107, 0.01326191145926714, -0.01310740876942873, -0.018684906885027885, -0.0008802119409665465, 0.017544323578476906, -0.016270475462079048, 0.010360372252762318, -0.013260207138955593, -0.0020104111172258854, -0.014702359214425087, 0.014597945846617222, -0.0052867466583848, 0.01702592708170414, -0.0183260478079319, 0.01465324591845274, 0.01750246249139309, 0.011049791239202023, -0.01608601212501526, 0.010009401477873325, -0.010034386068582535, -0.0029471691232174635, -0.018540477380156517, 0.01779226027429104, -0.0063800816424191, 0.011497600935399532, -0.014319352805614471, 0.01197294145822525, -0.013345759361982346, -0.0012980566825717688, 0.018447713926434517, 0.010213306173682213, -0.0013208223972469568, 0.01528325118124485, -0.011268808506429195, 0.016941923648118973, -0.0019345171749591827, -0.02375754714012146, -0.020891498774290085, 0.001958216307684779, -0.01290901843458414, -0.03268303722143173, -0.011613324284553528, -0.015803376212716103, -0.012091867625713348, -0.0015585289802402258, -0.006817217450588942, 0.0072252508252859116, 0.0022073499858379364, 0.012466532178223133, -0.019864244386553764, 0.01303171832114458, -0.018465040251612663, 0.013176982291042805, -0.01316765509545803, 0.011441961862146854, -0.01593814045190811, -0.020975489169359207, -0.021029135212302208, 0.020244626328349113, 0.012798978947103024, 0.016901539638638496, -0.013630993664264679, -0.01868162490427494, -0.019510924816131592, -0.010514696128666401, -0.014141860418021679, -0.013154765591025352, -0.01761707104742527, 0.007782829459756613, -0.011991805396974087, 0.016428649425506592, 0.0036787299904972315, 0.015086733736097813, -0.00044654039083980024, 0.016962304711341858, -0.01291651837527752, -0.0016724878223612905, 0.0023140786215662956, 0.01413548830896616, -0.015900516882538795, 0.004918927792459726, -0.0032878736965358257, -0.021146683022379875, -0.013099804520606995, -0.0009702430106699467, 0.01673259772360325, 0.013703268952667713, 0.01332808192819357, 0.01304786466062069, -0.009596151299774647, 0.015109121799468994, -0.016231393441557884, -0.003965370822697878, -0.027494337409734726, 0.020659780129790306, -0.01260506734251976, 0.013892513699829578, -0.0120394853875041, 0.017763692885637283, -0.017013434320688248, -0.0008251474937424064, -0.017545431852340698, -0.01610657013952732, 0.016153475269675255, 0.004003961104899645, -0.014417058788239956, -0.0023224817123264074, -0.010772349312901497, 0.011950880289077759], [0.009786021895706654, -0.011613256298005581, 0.015191023238003254, -0.00891159288585186, 0.011096512898802757, -0.013285985216498375, -0.011313001625239849, -0.012136239558458328, -0.014152003452181816, -0.013487979769706726, -0.000478845409816131, -0.001993889221921563, 0.009747237898409367, 0.013462845236063004, 0.014535375870764256, 0.020465387031435966, -0.011503838002681732, -0.008465138264000416, -0.012711531482636929, -0.01379172783344984, 0.010082585737109184, 0.015103902667760849, 0.0008718388271518052, -0.012533629313111305, 0.013534999452531338, -0.01058622170239687, 0.012482120655477047, 0.002565823495388031, 0.012467067688703537, -0.00950484350323677, 0.014501378871500492, -0.012981235049664974, 0.01217157207429409, -0.011172418482601643, -0.017254814505577087, -0.012199785560369492, 0.013541819527745247, -0.0012950767995789647, 0.009785201400518417, 0.0010195327922701836, 0.008279627189040184, -0.010297027416527271, 0.008915584534406662, -0.012100180611014366, 0.012196929194033146, -0.014257838018238544, 0.007271286100149155, 0.01242472231388092, -0.012563575990498066, -0.010483900085091591, 0.01165098138153553, -0.009075183421373367, 0.012546950951218605, -0.015490556135773659, 0.012836766429245472, 0.013811896555125713, 0.014776572585105896, -0.011840395629405975, 0.00984681025147438, 0.01115715317428112, 0.008580830879509449, 0.01772203855216503, 0.01376147847622633, 0.013308439403772354, 0.011463765986263752, -0.01153559610247612, -0.01259376760572195, -0.012338174507021904, 0.014436980709433556, -0.016358064487576485, 0.013716686517000198, -0.013160697184503078, 0.008882715366780758, -0.007868350483477116, 0.011309084482491016, 0.01791979745030403, 0.016012923792004585, -0.013360066339373589, -0.011521607637405396, -0.012403572909533978, 0.012256269343197346, 0.013522720895707607, 0.010407859459519386, 0.027623482048511505, 0.014967087656259537, 0.014327069744467735, 0.013249681331217289, -0.017233923077583313, 0.0156951192766428, -0.012805772013962269, -0.015171507373452187, -0.015856072306632996, 0.013858298771083355, -0.008969477377831936, 0.009744606912136078, 0.009597172029316425, -0.011479628272354603, -0.0015300512313842773, 0.011468867771327496, -0.0031660315580666065, 0.009637095965445042, 0.015498974360525608, 0.013603072613477707, 0.0103757968172431, -0.01973535120487213, -0.016367392614483833, -0.011481846682727337, -0.013305344618856907, 0.009911120869219303, -0.013341395184397697, 0.009044768288731575, 0.012353594414889812, 0.011603545397520065, -0.013679999858140945, 0.010950682684779167, -0.015200534835457802, 0.014249184168875217, -0.013705560006201267, 0.011337249539792538, 0.01033408846706152, 0.011791514232754707, 0.01753341406583786, -0.01799820363521576, -0.009793448261916637, 0.009790622629225254, 0.010550931096076965, 0.00986618921160698, -0.010745694860816002], [0.016616113483905792, -0.00922848004847765, 0.0034387868363410234, -0.01549074798822403, 0.006717527285218239, -0.014341892674565315, -0.01699613407254219, -0.004788082558661699, -0.004140160977840424, -0.01124539878219366, -0.011135004460811615, -0.014919387176632881, 0.0045515927486121655, 0.004176704678684473, 0.013586166314780712, 0.006259879097342491, -0.0036038216203451157, -0.015517717227339745, -0.016537196934223175, -0.013748223893344402, 0.013745526783168316, 0.014024898409843445, 0.01466117613017559, -0.006129427347332239, 0.004957213066518307, -0.011473331600427628, 0.01706450805068016, 0.005341164767742157, 0.015820132568478584, -0.0068223620764911175, 0.010961097665131092, -0.015310034155845642, 0.004421785939484835, -0.0033624388743191957, -0.010196336545050144, -0.014823535457253456, 0.010753740556538105, -0.01238290872424841, 0.015279979445040226, 0.012182955630123615, 0.012894779443740845, -0.014222687110304832, 0.01422709971666336, -0.01681717112660408, 0.016835762187838554, -0.011731939390301704, 0.005494908429682255, 0.00449382746592164, -0.004307203460484743, -0.00369633873924613, 0.015386169776320457, -0.01686106249690056, 0.01405074167996645, -0.00787129532545805, 0.016558032482862473, 0.004258479457348585, 0.010056636296212673, -0.016577595844864845, 0.01276618055999279, 0.008366497233510017, 0.012681716121733189, 0.010844537056982517, 0.004932376090437174, 0.01642303355038166, 0.014319458976387978, -0.01541229709982872, -0.015038913115859032, -0.016513310372829437, 0.012726476415991783, -0.004304198548197746, 0.01456269808113575, -0.016921494156122208, 0.003272393485531211, -0.01198682188987732, 0.008639858104288578, 0.003958205226808786, 0.011242949403822422, -0.013151004910469055, -0.014777373522520065, -0.012404640205204487, 0.004667876288294792, 0.004901586566120386, 0.013867957517504692, 0.008010840974748135, 0.017050135880708694, 0.013005114160478115, 0.012461867183446884, -0.00972357951104641, 0.012837467715144157, -0.013697237707674503, -0.010545006953179836, -0.0064317635260522366, 0.00421669939532876, -0.016779515892267227, 0.01656254194676876, 0.014967855997383595, -0.01640341989696026, -0.018033111467957497, 0.003974272403866053, -0.009086410515010357, 0.015487040393054485, 0.00724677462130785, 0.012305705808103085, 0.006216647103428841, -0.004412674345076084, -0.004498083610087633, -0.01141830999404192, -0.00951067078858614, 0.015509591437876225, -0.012155679054558277, 0.013240360654890537, 0.00396126601845026, 0.01098254881799221, -0.0066879731602966785, 0.005567981395870447, -0.006265977397561073, 0.017425572499632835, -0.012000867165625095, 0.018688566982746124, 0.011637290939688683, 0.017532622441649437, 0.004589647985994816, -0.011338278651237488, -0.012050151824951172, 0.015236764214932919, 0.00921555794775486, 0.0030614270363003016, -0.0072174640372395515], [-0.011374367401003838, 0.011937952600419521, -0.009943081997334957, 0.003774479730054736, -0.0043159970082342625, 0.012276113033294678, 0.0076032779179513454, 0.010903466492891312, 0.012837429530918598, 0.00821711216121912, 0.014837652444839478, 0.012099494226276875, -0.0038872717414051294, -0.011551248840987682, -0.014884445816278458, -0.009680639952421188, 0.0062397136352956295, 0.005393697880208492, 0.012073061428964138, 0.013734742999076843, -0.003622084390372038, -0.009279903955757618, -0.012310757301747799, 0.0038242589216679335, -0.011913717724382877, 0.004053417127579451, -0.003913600463420153, -0.01929408125579357, -0.013448343612253666, 0.003637143177911639, -0.012398985214531422, 0.0039638918824493885, -0.008491807617247105, 0.00416053831577301, 0.004810402635484934, 0.012623257003724575, -0.012354345992207527, 0.011937301605939865, -0.003504183143377304, -0.006271124817430973, -0.013030203990638256, 0.012508057057857513, -0.01617206446826458, 0.010737448930740356, -0.012870398350059986, 0.011389083229005337, -0.003252148861065507, -0.013032674789428711, 0.010334701277315617, 0.005404649302363396, -0.010975655168294907, 0.011509107425808907, -0.0037822993472218513, 0.0041474103927612305, -0.005318151321262121, -0.013844670727849007, -0.010065172798931599, 0.01261980552226305, -0.011495432816445827, -0.005501271225512028, -0.012057574465870857, -0.01193895936012268, -0.013257072307169437, -0.008294874802231789, -0.013376499526202679, 0.012009179219603539, 0.010175294242799282, 0.004103358369320631, -0.004139152821153402, 0.01094551756978035, -0.010442732833325863, 0.01203307043761015, -0.011664091609418392, 0.004732449073344469, -0.011910554021596909, -0.010607585310935974, -0.0043136910535395145, 0.009451879188418388, 0.004591863136738539, 0.003830413334071636, -0.011396500281989574, -0.006506799720227718, -0.013511640951037407, -0.006492274347692728, -0.009894754737615585, -0.01229132991284132, -0.00726892938837409, 0.0069808377884328365, -0.011807350441813469, 0.006387785542756319, 0.012081528082489967, 0.012719185091555119, -0.010667744092643261, 0.012174030765891075, -0.0035496470518410206, -0.004272444639354944, 0.003733412828296423, 0.007044085767120123, -0.0052474369294941425, 0.01100557018071413, -0.012535413727164268, -0.01378128957003355, -0.010791056789457798, -0.008075696416199207, 0.01201109029352665, 0.01002576109021902, 0.011610935442149639, 0.003933850675821304, -0.010744921863079071, 0.009144900366663933, -0.003647061064839363, -0.013081853277981281, -0.006751254200935364, 0.0136408731341362, -0.01346409972757101, 0.013231292366981506, -0.01486940123140812, 0.013759167864918709, -0.01080391462892294, -0.002956779906526208, -0.003594451118260622, -0.009188881143927574, 0.012115919962525368, 0.011725897900760174, -0.010039007291197777, -0.01049073226749897, -0.011711902916431427, 0.008732291869819164], [-0.013134792447090149, 0.016862349584698677, -0.017890358343720436, 0.016868755221366882, -0.009468094445765018, 0.020745588466525078, 0.018821198493242264, 0.016597256064414978, 0.010260489769279957, 0.02772461622953415, 0.0006103893974795938, 0.00928017869591713, -0.01546668354421854, -0.021293750032782555, -0.024124732241034508, -0.009038903750479221, 0.018054628744721413, 0.012458400800824165, 0.01877615414559841, 0.021346168592572212, -0.013707148842513561, -0.02300724945962429, -0.014266223646700382, 0.01740434393286705, -0.023088572546839714, 0.013150829821825027, -0.02104458212852478, -0.016344841569662094, -0.013733543455600739, 0.007426577620208263, -0.024052422493696213, 0.015117146074771881, -0.02077803947031498, 0.017896221950650215, 0.012712519615888596, 0.016405412927269936, -0.02814212255179882, 0.014486444182693958, -0.01122098509222269, -0.008030062541365623, -0.02555587887763977, 0.01420170720666647, -0.0021989508531987667, 0.01157985720783472, -0.02393677644431591, 0.020219530910253525, -0.013780218549072742, -0.012902925722301006, 0.022948363795876503, 0.013476178981363773, -0.008236180990934372, 0.014643136411905289, -0.012747395783662796, 0.007823488675057888, -0.010726234875619411, -0.019751720130443573, -0.02334473468363285, 0.01573967933654785, -0.015355592593550682, -0.008871786296367645, -0.00901636853814125, -0.02465069852769375, -0.013741129077970982, -0.017133934423327446, -0.01750003732740879, 0.01417489629238844, 0.017826687544584274, 0.016538457944989204, -0.027907272800803185, 0.017171533778309822, -0.018940139561891556, 0.01943490467965603, -0.011775579303503036, 0.0074686151929199696, -0.02740732580423355, -0.00773845799267292, -0.014412996359169483, 0.019086629152297974, 0.023342125117778778, 0.01504598930478096, -0.021536286920309067, -0.024066654965281487, -0.0134295504540205, -0.010507331229746342, -0.021994849666953087, -0.018566792830824852, -0.015655875205993652, 0.006614405661821365, -0.018521813675761223, 0.015524656511843204, 0.022010881453752518, 0.02620338648557663, -0.02264917455613613, 0.013138546608388424, -0.009098152630031109, -0.01726805604994297, 0.015700679272413254, 0.013892059214413166, -0.011028962209820747, 0.002921219915151596, -0.016103722155094147, -0.023583687841892242, -0.017358435317873955, -0.01731034368276596, 0.03330725058913231, 0.013694670051336288, 0.021821849048137665, 0.014688756316900253, -0.011573728173971176, 0.026074150577187538, -0.017390213906764984, -0.017084477469325066, -0.032078325748443604, 0.00428287498652935, -0.013711206614971161, 0.008404322899878025, -0.019208814948797226, 0.020720448344945908, -0.015301169827580452, -0.011232991702854633, -0.02028694376349449, -0.024809544906020164, 0.025807596743106842, 0.011911249719560146, -0.015385445207357407, -0.01679348014295101, -0.024817802011966705, 0.012823463417589664], [0.012426959350705147, -0.014066296629607677, 0.018356014043092728, -0.008435924537479877, 0.011889731511473656, -0.013250811956822872, -0.009070442989468575, -0.009727660566568375, -0.013856487348675728, -0.012652990408241749, -0.007929484359920025, -0.00620661024004221, 0.007273510098457336, 0.010359431616961956, 0.011978316120803356, 0.00963357463479042, -0.008970160037279129, -0.006323918700218201, -0.009919540025293827, -0.013106783851981163, 0.009544693864881992, 0.010586080141365528, 0.012418115511536598, -0.009104205295443535, 0.01045003067702055, -0.002794950734823942, 0.007802978623658419, 0.0029414803721010685, 0.01203248929232359, -0.007890064269304276, 0.012175865471363068, -0.011729036457836628, 0.00921870581805706, -0.004823643248528242, -0.014569927006959915, -0.010686411522328854, 0.00664129201322794, -0.005645011551678181, 0.00793423131108284, 0.006276585627347231, 0.010040370747447014, -0.010828324593603611, 0.0004342345637269318, -0.013203192502260208, 0.010115759447216988, -0.00841972604393959, 0.008003992028534412, 0.009256631135940552, -0.012879770249128342, -0.010234478861093521, 0.008841974660754204, -0.011616090312600136, 0.00649538217112422, -0.013400429859757423, 0.01018866989761591, 0.011411504819989204, 0.013958786614239216, -0.00936118233948946, 0.009142279624938965, 0.007700749672949314, 0.006983324885368347, 0.010745066218078136, 0.013211298733949661, 0.010483669117093086, 0.00925922766327858, -0.011029738932847977, -0.01067750807851553, -0.006936405785381794, 0.017950108274817467, -0.013765261508524418, 0.008824029937386513, -0.008944494649767876, 0.004250117111951113, -0.009287277236580849, 0.010674305260181427, 0.00713500427082181, 0.009662178345024586, -0.012835457921028137, -0.007893973030149937, -0.009251127019524574, 0.013319898396730423, 0.01149290706962347, 0.010610162280499935, 0.013184876181185246, 0.015214366838335991, 0.0058162398636341095, 0.018182890489697456, -0.0016080646310001612, 0.009449893608689308, -0.0061883265152573586, -0.015442130155861378, -0.010190322063863277, 0.010742423124611378, -0.009517427533864975, 0.008180825971066952, 0.010486210696399212, -0.008952196687459946, -0.011541402898728848, 0.00973608810454607, -0.0023637129925191402, 0.00843212939798832, 0.013370241038501263, 0.009124659933149815, 0.0053178309462964535, -0.017148884013295174, -0.014526301994919777, -0.00880810059607029, -0.010011080652475357, 0.00847231037914753, -0.010607125237584114, 0.006443840451538563, 0.010276706889271736, 0.019201112911105156, -0.011401154100894928, 0.010195963084697723, -0.008487885817885399, 0.007842686027288437, -0.013615879230201244, 0.0069373189471662045, 0.008770848624408245, 0.010071320459246635, 0.008787558414041996, -0.012306001037359238, -0.008856119588017464, 0.008159053511917591, 0.007535781245678663, 0.012583051808178425, -0.010868288576602936], [0.006409910973161459, -0.006093312986195087, 0.0017611582297831774, -0.008605508133769035, 0.0027446516323834658, -0.0025906567461788654, -0.005732482764869928, -0.00861738994717598, -0.003133872989565134, -0.0031030774116516113, -0.003072078339755535, -0.007552271708846092, 0.01066396851092577, 0.0028700067196041346, 0.003410510253161192, 0.0024605318903923035, -0.004994177259504795, -0.006086027715355158, -0.0033829291351139545, -0.002680801786482334, 0.007398238871246576, 0.0044617424719035625, 0.008719907142221928, -0.007163123227655888, 0.008198343217372894, -0.005384902469813824, 0.002977535827085376, 0.0037726357113569975, 0.008852862752974033, -0.008106604218482971, 0.003304397687315941, -0.004970631096512079, 0.002844389295205474, -0.007555585820227861, -0.00265608006156981, -0.008355262689292431, 0.0012146226363256574, -0.0031264685094356537, 0.00814626645296812, 0.006414312869310379, 0.003401315538212657, -0.007554385811090469, 0.006327179726213217, -0.008760723285377026, 0.008463894948363304, -0.00890437699854374, 0.008119194768369198, 0.002916686236858368, -0.003917689435184002, -0.010148919187486172, 0.006267170887440443, -0.005028531886637211, 0.0036167758516967297, -0.003592760767787695, 0.0032340704929083586, 0.0036329079885035753, 0.0057497648522257805, -0.0034341146238148212, 0.003107848111540079, 0.0046555097214877605, 0.008129788562655449, 0.0036296325270086527, 0.003051110077649355, 0.006977779790759087, 0.0067163389176130295, -0.008165111765265465, -0.00619270745664835, -0.008442902937531471, 0.003465997986495495, -0.005199484992772341, 0.008104369975626469, -0.006741100922226906, 0.009409097023308277, -0.001349720754660666, 0.00346910348162055, 0.002835186431184411, 0.007077998016029596, -0.005910464096814394, -0.004599830601364374, -0.003196593141183257, 0.009294391609728336, 0.002131846034899354, 0.00266229803673923, 0.006064615212380886, 0.0036428726743906736, 0.005436771549284458, 0.00011036596697522327, -0.004675987176597118, 0.003368779318407178, -0.006836954969912767, -0.0040323734283447266, -0.006939211394637823, 0.005891057662665844, -0.0044024111703038216, 0.009886316023766994, 0.0077216443605721, -0.005611903965473175, -0.009699142538011074, 0.0028693454805761576, -0.007951591163873672, 0.002910819137468934, 0.010154609568417072, 0.003550479421392083, 0.008256794884800911, -0.001781683531589806, -0.0036806808784604073, -0.001317358110100031, -0.0038127335719764233, 0.00874167587608099, -0.0026143610011786222, 0.007371259853243828, 0.008808465674519539, 0.0028720663394778967, -0.0077699883840978146, 0.003214192343875766, -0.008029591292142868, 0.008774849586188793, -0.0031031430698931217, 0.00923130102455616, 0.005848611705005169, 0.00676553463563323, 0.004676289390772581, -0.0018150460673496127, -0.007483223453164101, 0.008970590308308601, 0.002946859924122691, 0.002971085486933589, -0.005434942897409201], [0.005990061443299055, -0.0036811688914895058, 0.0025034756399691105, -0.010227249003946781, 0.003501653205603361, -0.007681761868298054, -0.0030518965795636177, -0.010250017046928406, -0.011036482639610767, -0.007680447772145271, -0.00650115218013525, -0.00804141815751791, 0.01015141885727644, 0.003471124917268753, 0.008770798332989216, 0.0045200977474451065, -0.0076405382715165615, -0.01100478507578373, -0.00381958088837564, -0.010426831431686878, 0.009836641140282154, 0.00889440719038248, 0.013952166773378849, -0.012378673069179058, 0.003962153103202581, -0.010106009431183338, 0.010247769765555859, 0.010759667493402958, 0.01044937688857317, -0.012400425039231777, 0.0037483121268451214, -0.004462349694222212, 0.00889761745929718, -0.013849723152816296, -0.0033992731478065252, -0.007605870254337788, 0.003601254429668188, -0.012495893985033035, 0.007561785168945789, 0.005958941299468279, 0.003231000853702426, -0.012630335986614227, 0.009591322392225266, -0.008338403888046741, 0.008429878391325474, -0.007885645143687725, 0.013344471342861652, 0.011504835449159145, -0.008717059157788754, -0.003532883943989873, 0.008411422371864319, -0.010473291389644146, 0.009930884465575218, -0.002684802981093526, 0.008372699841856956, 0.005198662169277668, 0.007281412370502949, -0.009998642839491367, 0.01044122688472271, 0.00913195125758648, 0.012178778648376465, 0.008441125974059105, 0.0036605605855584145, 0.010056654922664165, 0.00334756076335907, -0.009842022322118282, -0.010777352377772331, -0.0035546901635825634, 0.006308594718575478, -0.008717868477106094, 0.012359309941530228, -0.0035402937792241573, 0.011614448390901089, -0.0031816267874091864, 0.004857491701841354, 0.0031559267081320286, 0.009795046411454678, -0.003965195268392563, -0.008981275372207165, -0.007524588610976934, 0.011939845979213715, 0.005955326836556196, 0.00980831403285265, 0.007232113741338253, 0.004737485200166702, 0.004147636704146862, 0.002798669505864382, -0.008721576072275639, 0.004809553734958172, -0.011982248164713383, -0.004201291594654322, -0.003915400244295597, 0.009118043817579746, -0.012319143861532211, 0.013134689070284367, 0.003980010282248259, -0.011601168662309647, -0.01348231453448534, 0.013834998942911625, -0.010594676248729229, 0.011561344377696514, 0.009122868999838829, 0.009324617683887482, 0.01631951704621315, -0.0032241111621260643, -0.0050163958221673965, -0.003958968445658684, -0.010172116570174694, 0.003225001972168684, -0.004253348335623741, 0.0038564291317015886, 0.004534922074526548, 0.00430593965575099, -0.008738763630390167, 0.010790213011205196, -0.009899267926812172, 0.008882217109203339, -0.003707507625222206, 0.011696720495820045, 0.0030197836458683014, 0.0031721347477287054, 0.003476370358839631, -0.0037564849480986595, -0.010409817099571228, 0.0050945524126291275, 0.0029133979696780443, 0.005538205150514841, -0.0036222820635885], [0.01788029633462429, -0.014181002043187618, 0.006886930204927921, -0.016951248049736023, 0.01010389719158411, -0.017808299511671066, -0.014933687634766102, -0.013796127401292324, -0.015170017257332802, -0.004178322851657867, -0.012746786698698997, -0.0148743512108922, 0.01418366190046072, 0.015663472935557365, 0.01407836563885212, 0.007529737427830696, -0.0036533004604279995, -0.012433595024049282, -0.004330012481659651, -0.017765283584594727, 0.015190293081104755, 0.0149792255833745, 0.004911992698907852, -0.0038747861981391907, 0.0046341014094650745, -0.012357293628156185, 0.01423422060906887, 0.015952879562973976, 0.017270924523472786, -0.01772698201239109, 0.015588514506816864, -0.015422447584569454, 0.016946254298090935, -0.01982763595879078, -0.014090902172029018, -0.017458481714129448, 0.01674051396548748, -0.003499190555885434, 0.015412026084959507, 0.012088841758668423, 0.015900688245892525, -0.019107351079583168, 0.010712550953030586, -0.004328221548348665, 0.018767552450299263, -0.004594800993800163, 0.014171700924634933, 0.019627662375569344, -0.01216927357017994, -0.017663616687059402, 0.009017040021717548, -0.014430657029151917, 0.017095575109124184, -0.004139217548072338, 0.013160906732082367, 0.011590900830924511, 0.01335996575653553, -0.01948951929807663, 0.003849051194265485, 0.008332766592502594, 0.016125483438372612, 0.015090531669557095, 0.004667267203330994, 0.013110857456922531, 0.0046903458423912525, -0.017521603032946587, -0.01626173034310341, -0.016118088737130165, 0.015302805230021477, -0.014430584385991096, 0.015913480892777443, -0.013137011788785458, 0.015044677071273327, -0.007198312785476446, 0.011537366546690464, 0.013062268495559692, 0.01700681447982788, -0.0043714321218431, -0.013060463592410088, -0.003914587665349245, 0.01873260736465454, 0.013216440565884113, 0.017625344917178154, 0.008596591651439667, 0.016400407999753952, 0.005244161933660507, 0.004700368735939264, -0.010250319726765156, 0.008799860253930092, -0.016574788838624954, -0.004492201842367649, -0.01245805248618126, 0.019086217507719994, -0.01666727475821972, 0.017207356169819832, 0.01555673684924841, -0.015007092617452145, -0.015373541973531246, 0.018307099118828773, -0.009044506587088108, 0.007954906672239304, 0.0064955283887684345, 0.013214313425123692, 0.011874453164637089, -0.009372222237288952, -0.012187138199806213, -0.014776733703911304, -0.015763431787490845, 0.015905015170574188, -0.014175180345773697, 0.00724639929831028, 0.004209758248180151, 0.010779009200632572, -0.005321275908499956, 0.015500439330935478, -0.014103751629590988, 0.015396066009998322, -0.015182547271251678, 0.020032528787851334, 0.012422168627381325, 0.019095532596111298, 0.006095822434872389, -0.014225708320736885, -0.013701117597520351, 0.015544157475233078, 0.0138911884278059, 0.013401770032942295, -0.004697704687714577], [0.009711693972349167, -0.007971604354679585, 0.002363483188673854, -0.008411656133830547, 0.004187079146504402, -0.0026140273548662663, -0.000850182434078306, -0.011276532895863056, -0.01278676651418209, -0.005557754077017307, -0.0034181890077888966, -0.007127877790480852, 0.0063841999508440495, 0.009321367368102074, 0.007751744706183672, 0.0026140171103179455, -0.005624350626021624, -0.002615000121295452, -0.0020400648936629295, -0.003000113181769848, 0.002901275409385562, 0.002857617801055312, 0.0032560680992901325, -0.006075675133615732, 0.013289637863636017, -0.009207136929035187, 0.0008500090916641057, 0.0024920315481722355, 0.007539188489317894, -0.006238271947950125, 0.01347426325082779, -0.0013477490283548832, 0.009983861818909645, -0.000958684307988733, -0.00813561026006937, -0.0007305816980078816, 0.0071007804945111275, -0.006674523465335369, 0.009941061958670616, 0.006715224590152502, 0.00048284829244948924, -0.010822420008480549, 0.003810570575296879, -0.006109161302447319, 0.00667776633054018, -0.003721962682902813, 3.0307461202028207e-05, 0.008233727887272835, -0.003259900724515319, -0.010323930531740189, 0.00463048554956913, -0.0023176982067525387, 0.01187970396131277, -0.005997474305331707, 0.001373322564177215, 0.0024928662460297346, 0.0013850830728188157, -0.0022786373738199472, 0.009985382668673992, 0.015283852815628052, 0.0025627072900533676, 0.0027102979365736246, 0.007803537417203188, 0.011296499520540237, 0.002647026674821973, -0.002963038394227624, -0.005793206859380007, -0.0036352670285850763, 0.013027993030846119, -0.009330726228654385, 0.012195350602269173, -0.0023547129239887, 0.004132166039198637, -0.012484739534556866, 0.0006853334489278495, 0.002305921632796526, 0.013873578049242496, -0.0007866936502978206, -0.011367623694241047, -0.010915110819041729, 0.004510943312197924, 0.006072790827602148, 0.002619893988594413, 0.010781469754874706, 0.004866930190473795, 0.009256835095584393, 0.009344035759568214, -0.010549673810601234, 0.0035498940851539373, -0.0014560044510290027, -0.01269691251218319, -0.014273099601268768, 0.007003186736255884, -0.0035937209613621235, 0.009829115122556686, 0.008792690932750702, -0.008925974369049072, -0.007930292747914791, 0.006653166376054287, -0.007088187616318464, 0.0026176786050200462, 0.013932038098573685, 0.008782644756138325, 0.0027439475525170565, -0.013193601742386818, -0.012118364684283733, -0.00325082428753376, -0.00928807258605957, 0.01001728791743517, -0.0005749900592491031, 0.011255793273448944, 0.011555233970284462, 0.012989341281354427, -0.012330268509685993, 0.00242046476341784, -0.012786385603249073, 0.007538167294114828, -0.01186777837574482, 0.0036552702076733112, 0.009269727393984795, 0.0028001267928630114, 0.0018092666286975145, -0.004023979417979717, -0.01018455345183611, 0.010237510316073895, 0.0033985511399805546, 0.0032864362001419067, -0.0009874055394902825], [0.017717968672513962, -0.02188943326473236, 0.03585346043109894, -0.013736060820519924, 0.010250567458570004, -0.022598208859562874, -0.0061993831768631935, -0.02428925223648548, -0.02252025529742241, -0.035773251205682755, -0.0038561734836548567, -0.01392503920942545, 0.01631489023566246, 0.013038582168519497, 0.02916552685201168, 0.034256670624017715, -0.027362791821360588, -0.005026922561228275, -0.00579382199794054, -0.006663091946393251, 0.021128429099917412, 0.01896626129746437, 0.019254006445407867, -0.0051413243636488914, 0.006496408022940159, -0.02099001035094261, 0.017505738884210587, 0.006724272854626179, 0.005612005013972521, -0.0037286479491740465, 0.0075926450081169605, -0.02685960941016674, 0.030156217515468597, -0.003803326515480876, -0.0297549981623888, -0.027116773650050163, 0.038956452161073685, -0.0184469036757946, 0.013896460644900799, 0.008960931561887264, 0.005203121341764927, -0.0295411329716444, 0.01711766980588436, -0.023380128666758537, 0.031515538692474365, -0.030039731413125992, 0.021505316719412804, 0.024186767637729645, -0.020263206213712692, -0.026602869853377342, 0.014146486297249794, -0.019274841994047165, 0.015580063685774803, -0.018868958577513695, 0.026661094278097153, 0.006487739738076925, 0.03996865823864937, -0.023153703659772873, 0.02187441661953926, 0.02551577426493168, 0.003528621746227145, 0.026724714785814285, 0.0064079659059643745, 0.019091514870524406, 0.016684969887137413, -0.020667364820837975, -0.023226648569107056, -0.01961265318095684, 0.03667941316962242, -0.027228249236941338, 0.027529194951057434, -0.008630114607512951, 0.003347549354657531, -0.020517582073807716, 0.03830506280064583, 0.007270772475749254, 0.009202934801578522, -0.030932437628507614, -0.00808639358729124, -0.016389725729823112, 0.03222960606217384, 0.02358677051961422, 0.03041055239737034, 0.031192345544695854, 0.042412735521793365, 0.025597475469112396, 0.011163510382175446, -0.004241373389959335, 0.018999308347702026, -0.007129994686692953, -0.02976771630346775, -0.04415178671479225, 0.027322232723236084, -0.004267777781933546, 0.020819460973143578, 0.017631998285651207, -0.014139623381197453, -0.004069813992828131, 0.006001909729093313, -0.009663421660661697, 0.02120617777109146, 0.008314100094139576, 0.03227939456701279, 0.01852262392640114, -0.011362534016370773, -0.007421895861625671, -0.03608333691954613, -0.03072929009795189, 0.015055662952363491, -0.035797398537397385, 0.004417308606207371, 0.015063942410051823, 0.004824808798730373, -0.005180498119443655, 0.00801404844969511, -0.02276451140642166, 0.033899933099746704, -0.005028737708926201, 0.026556629687547684, 0.016208095476031303, 0.028160981833934784, 0.008379651233553886, -0.026916716247797012, -0.020941156893968582, 0.01586681231856346, 0.0037725786678493023, 0.0360073558986187, -0.023050475865602493], [-0.004610405303537846, 0.011255241930484772, -0.11454734951257706, 0.0009666379191912711, -0.007938038557767868, 0.009838194586336613, 0.005849259439855814, 0.011105123907327652, 0.002343385713174939, 0.007749165408313274, 0.014119717292487621, 0.00299416808411479, -0.010813205502927303, -0.0013298768317326903, -0.013120767660439014, -0.007571335416287184, 0.0021864110603928566, 0.004023832269012928, 0.005886576138436794, 0.006690971553325653, -0.0020462404936552048, -0.002125808736309409, -0.0019619374070316553, 0.005248439498245716, -0.001740980544127524, 0.0052475943230092525, -0.004895286168903112, -0.0068327803164720535, -0.005498784594237804, 0.008299514651298523, -0.057727959007024765, 0.012871014885604382, -0.002841224428266287, 0.0016286412719637156, 0.061430614441633224, 0.0058486973866820335, -0.0069006034173071384, 0.0016305828467011452, -0.0029634940437972546, -0.005612790118902922, -0.009319678880274296, 0.00558154983446002, -0.001742322463542223, 0.003608549479395151, -0.002808542689308524, 0.027356013655662537, -0.003796153236180544, -0.005035188980400562, 0.013042120262980461, 0.00456410925835371, -0.005875361617654562, 0.0050486302934587, -0.005761703941971064, 0.10868390649557114, -0.0026054491754621267, -0.02281913533806801, -0.01287431363016367, 0.003918995149433613, -0.0022759640123695135, -0.0429467037320137, -0.0036198748275637627, -0.007298487704247236, -0.01636294089257717, -0.00453152833506465, -0.0018233421724289656, 0.004234365187585354, 0.004341693129390478, 0.004192331340163946, -0.030176417902112007, 0.009618327021598816, -0.007019873708486557, 0.007567724213004112, -0.0026281927712261677, 0.0064215813763439655, -0.006790340878069401, -0.006297612562775612, -0.010717741213738918, 0.013202820904552937, 0.012599747627973557, 0.00431683287024498, -0.006768183782696724, -0.011961194686591625, -0.01089357491582632, -0.03943263366818428, -0.005086732096970081, -0.0077101425267755985, -0.036536335945129395, 0.018293483182787895, -0.05516618490219116, 0.035541776567697525, 0.006685314700007439, 0.011286159045994282, -0.006303856149315834, 0.0018114377744495869, -0.004275968763977289, -0.001854521338827908, 0.008642539381980896, 0.004184310790151358, -0.008459417149424553, 0.010674833320081234, -0.004952616523951292, -0.015095420181751251, -0.004937764257192612, -0.003718799911439419, 0.00831594504415989, 0.0790586993098259, 0.014127317816019058, 0.00533631956204772, -0.003916393965482712, 0.0031237551011145115, -0.00413138372823596, -0.004372952505946159, -0.02487240545451641, 0.0070677585899829865, -0.004893155302852392, 0.004254050552845001, -0.0029212795197963715, 0.0057978639379143715, -0.004793368745595217, -0.008352143689990044, -0.004377553705126047, -0.012439621612429619, 0.006799381226301193, 0.009441809728741646, -0.001855144277215004, -0.003781636944040656, -0.005723558831959963, 0.0022756890393793583], [-0.00373273016884923, 0.003992781043052673, -0.0004264196031726897, 0.011601503007113934, -0.003638229798525572, 0.01024933997541666, 0.014531735330820084, 0.004167374223470688, 0.0014737965539097786, 0.004013491328805685, 0.004603750538080931, 0.002467280486598611, -0.00393154751509428, -0.0042932964861392975, -0.008311210200190544, -0.004139130003750324, 0.008284864947199821, 0.003594151232391596, 0.004784699063748121, 0.008250742219388485, -0.014923247508704662, -0.006541979033499956, -0.003135413397103548, 0.013721097260713577, -0.004420129582285881, 0.0038047863636165857, -0.0037840052973479033, -0.0031224593985825777, -0.01607607677578926, 0.0035350308753550053, -0.010216486640274525, 0.01095547340810299, -0.011605330742895603, 0.005868446547538042, 0.007926727645099163, 0.0036502606235444546, -0.005468002054840326, 0.015327679924666882, -0.013027369044721127, -0.005289995577186346, -0.005368547514081001, 0.0046445573680102825, -0.003927473444491625, 0.006768207065761089, -0.00969597790390253, 0.007703600917011499, -0.01050698384642601, -0.003806371707469225, 0.010415878146886826, 0.004120113328099251, -0.004317162092775106, 0.01450813002884388, -0.014694676734507084, 0.003290696069598198, -0.004045694600790739, -0.0039790417067706585, -0.01218437310308218, 0.019446376711130142, -0.010394155979156494, -0.0015938254073262215, -0.015409019775688648, -0.014237454161047935, -0.009978623129427433, -0.011188537813723087, -0.0036378551740199327, 0.0036017452366650105, 0.011051708832383156, 0.0037410855293273926, -0.006647303234785795, 0.006443789228796959, -0.006921472493559122, 0.004240554757416248, -0.003576470073312521, 0.0032063648104667664, -0.005530543625354767, -0.00823813583701849, -0.00502473209053278, 0.00864633172750473, 0.00877862237393856, 0.00987312477082014, -0.010839472524821758, -0.007057599723339081, -0.014137005433440208, -0.005504318047314882, -0.006024838425219059, -0.006647502537816763, -0.00763328792527318, 0.0058634295128285885, -0.0036159828305244446, 0.003959714900702238, 0.013115092180669308, 0.012282928451895714, -0.004765269346535206, 0.004102143459022045, -0.0036863673012703657, -0.010984390042722225, 0.01193379145115614, 0.01728634536266327, -0.015953555703163147, 0.005974467843770981, -0.011485428549349308, -0.01345001719892025, -0.005714811850339174, -0.0033984624315053225, 0.0032183679286390543, 0.008092883042991161, 0.010882404632866383, 0.013277405872941017, -0.003471753327175975, 0.003916782792657614, -0.01495312713086605, -0.009329239837825298, -0.0014074636856094003, 0.009634844958782196, -0.005709684919565916, 0.006182657089084387, -0.017042679712176323, 0.009296223521232605, -0.019212685525417328, -0.011472920887172222, -0.01045380812138319, -0.007179590407758951, 0.006906616501510143, 0.0033769668079912663, -0.003369485028088093, -0.010583150200545788, -0.005485199857503176, 0.008835450746119022], [0.0033487651962786913, -0.016400059685111046, 0.008826036006212234, -0.013852441683411598, 0.013848586939275265, -0.015201177448034286, -0.019942037761211395, -0.013454470783472061, -0.01039711944758892, -0.006198646500706673, -0.003912744577974081, -0.007009159307926893, 0.013591236434876919, 0.008037577383220196, 0.015437248162925243, 0.004558800254017115, -0.01709631457924843, -0.016575099900364876, -0.017436517402529716, -0.004425716120749712, 0.015011249110102654, 0.010626306757330894, 0.008655071258544922, -0.0035153906792402267, 0.004160361364483833, -0.015410843305289745, 0.015354560688138008, 0.006768784020096064, 0.01769975572824478, -0.014900848269462585, 0.010601566173136234, -0.013001088984310627, 0.014713626354932785, -0.007634944282472134, -0.007848468609154224, -0.01366283930838108, 0.005256849806755781, -0.012745740823447704, 0.01199843268841505, 0.004386179149150848, 0.009692469611763954, -0.01673155650496483, 0.010353618301451206, -0.016340503469109535, 0.0157635435461998, -0.01608101651072502, 0.017343418672680855, 0.008342497982084751, -0.01242572907358408, -0.0043615251779556274, 0.014418253675103188, -0.005345551762729883, 0.01894037239253521, -0.013514790683984756, 0.009762272238731384, 0.008218006230890751, 0.01533999852836132, -0.003828497137874365, 0.0037332014180719852, 0.00544144120067358, 0.01685614138841629, 0.01318806130439043, 0.013875882141292095, 0.014871286228299141, 0.015777358785271645, -0.004375395365059376, -0.010719685815274715, -0.016456851735711098, 0.004173661582171917, -0.011525578796863556, 0.0039945729076862335, -0.013457708992064, 0.013714444823563099, -0.006341001950204372, 0.004886092152446508, 0.011719970032572746, 0.018509531393647194, -0.013461210764944553, -0.003909173421561718, -0.01300839800387621, 0.005996711552143097, 0.011823615059256554, 0.014089579693973064, 0.004736348520964384, 0.009311751462519169, 0.01447285246104002, 0.00474050035700202, -0.010565215721726418, 0.005454372614622116, -0.010482851415872574, -0.007829025387763977, -0.01661817356944084, 0.014719805680215359, -0.014483627863228321, 0.003702245419844985, 0.014000038616359234, -0.01222055684775114, -0.0036182384938001633, 0.022375475615262985, -0.009108266793191433, 0.014239814132452011, 0.012210140936076641, 0.004669509828090668, 0.017990989610552788, -0.0033522583544254303, -0.007762731518596411, -0.0040830629877746105, -0.014670473523437977, 0.013489000499248505, -0.005441808607429266, 0.0035492517054080963, 0.009485000744462013, 0.005728529766201973, -0.014091958291828632, 0.011545242741703987, -0.00782732293009758, 0.0177328921854496, -0.015603278763592243, 0.023821039125323296, 0.013302423991262913, 0.01653650775551796, 0.0044244155287742615, -0.01287863589823246, -0.014481719583272934, 0.013952851295471191, 0.013954689726233482, 0.007929662242531776, -0.010964425280690193], [0.004727355670183897, -0.007476022467017174, 0.01268165372312069, -0.003931696526706219, 0.013168513774871826, -0.001926953555084765, -0.0022268856409937143, -0.007335017900913954, -0.005569809582084417, -0.0015668796841055155, -0.011672408320009708, -0.0031593660824000835, 0.007974261417984962, 0.005560210905969143, 0.000711699714884162, 0.0009753422345966101, -0.0008228850783780217, -0.004361957777291536, -0.002275967737659812, -0.0009078605216927826, 0.004782522097229958, 0.002029633382335305, 0.005528678186237812, -0.003218164434656501, 0.004206158220767975, -0.005645499099045992, 0.0027972611133009195, 0.004607127048075199, 0.0035497345961630344, -0.0029572411440312862, 0.004462219309061766, -0.003233157331123948, 0.0005524905864149332, -0.0029662619344890118, -0.0031954289879649878, -0.002706762868911028, 0.007523569744080305, -0.003039771690964699, 0.003796432865783572, 0.0027166137006133795, 0.0002401543315500021, -0.002692868933081627, 0.009718747809529305, -0.005139987915754318, 0.004957036580890417, -0.0058790394105017185, 0.0060560754500329494, 0.0012205269886180758, -0.0035167874302715063, -0.002541041700169444, 0.007299038115888834, -0.0040083397179841995, 0.003168743336573243, -0.0017695914721116424, 0.0035884531680494547, 0.0026971674524247646, 0.007803173735737801, -0.0045750024728477, 0.0028482775669544935, 0.00299762818031013, 0.006981065031141043, 0.0011542157735675573, 0.002071608090773225, 0.003269221866503358, 0.0033278048504143953, -0.0060699922032654285, -0.004636417143046856, -0.004050388932228088, 0.0015479366993531585, -0.0027859185356646776, 0.003227650187909603, -0.003567808074876666, 0.010144302621483803, -0.0022419821470975876, 0.0023783897049725056, 0.0031761734280735254, 0.0028197939973324537, -0.002111787674948573, -0.004698506556451321, -0.0037105490919202566, 0.002405658597126603, 0.012015454471111298, 0.0002815051411744207, 0.0023084802087396383, 0.003506379434838891, 0.0035467513371258974, 0.0015302820829674602, -0.006180199328809977, 0.0031863334588706493, -0.007005275227129459, -0.006942779757082462, -0.0004453306901268661, 0.0031238538213074207, -0.0017833373276516795, 0.005672058090567589, 0.007857445627450943, -0.0028436416760087013, -0.006216796580702066, 0.002215134911239147, -0.009440883994102478, 0.00299176387488842, 0.003077712142840028, 0.0027738423086702824, 0.007307138759642839, -0.0032444815151393414, -0.002594564575701952, -0.01350073330104351, -0.003519154153764248, 0.0063855755142867565, -0.0013800895540043712, 0.00806281715631485, 0.0031467294320464134, 0.0033364284317940474, -0.005442060064524412, 0.007431746460497379, -0.003931249491870403, 0.0015500454464927316, -0.0014946951996535063, 0.0031138111371546984, 0.0021129411179572344, 0.0021263230592012405, 0.0011998796835541725, -0.0024797595106065273, -0.0032657624687999487, 0.007652450352907181, 0.0026585101149976254, 0.001471096882596612, -0.0018731362652033567], [-0.007754125632345676, 0.003959822002798319, -0.0017921506660059094, 0.01899593509733677, -0.0038517958018928766, 0.00695099076256156, 0.006219836417585611, 0.017642956227064133, 0.010803917422890663, 0.0034413374960422516, 0.011038337834179401, 0.01882588304579258, -0.016376011073589325, -0.0038887697737663984, -0.013267378322780132, -0.0017606050241738558, 0.0021065231412649155, 0.018149731680750847, 0.005054404027760029, 0.0044193509966135025, -0.00406806543469429, -0.016703864559531212, -0.0037297862581908703, 0.003993680700659752, -0.011182268150150776, 0.016106393188238144, -0.019748851656913757, -0.0049176872707903385, -0.0038173480425029993, 0.003547790925949812, -0.004698346834629774, 0.003906263038516045, -0.015323314815759659, 0.0031827318016439676, 0.007346813101321459, 0.0016959022032096982, -0.007735974155366421, 0.01886112056672573, -0.017666058614850044, -0.010460564866662025, -0.003268577391281724, 0.017264284193515778, -0.004859232343733311, 0.0044159842655062675, -0.006538936868309975, 0.0006456397823058069, -0.014621504582464695, -0.0037328351754695177, 0.013619691133499146, 0.003435622900724411, -0.0035123310517519712, 0.0035468179266899824, -0.0040440731681883335, 0.007276677060872316, -0.003008410334587097, -0.004402250982820988, -0.008493535220623016, 0.0035665228497236967, -0.01646975800395012, -0.0054212273098528385, -0.01791968382894993, -0.001085332129150629, -0.004238254856318235, -0.0011969796614721417, -0.0033959331922233105, 0.018694687634706497, 0.0065047661773860455, 0.003899572417140007, -0.003251756774261594, 0.009285656735301018, -0.003718719817698002, 0.004248620942234993, -0.00796440988779068, 0.007314056158065796, -0.007384957280009985, -0.0036443371791392565, -0.003566210623830557, 0.0017572484211996198, 0.015812940895557404, 0.003781032282859087, -0.0033554588444530964, -0.004032996017485857, -0.015236127190291882, -0.0010610816534608603, -0.003794822609052062, -0.015192524529993534, -0.016372742131352425, 0.006798608228564262, -0.004118795972317457, 0.004023442044854164, 0.01596248149871826, 0.007251503877341747, -0.0174819678068161, 0.0034037779550999403, -0.0033988759387284517, -0.0039329505525529385, 0.017410611733794212, 0.0035203376319259405, -0.01974666304886341, 0.009068514220416546, -0.003469727234914899, -0.013915689662098885, -0.0006736452342011034, -0.003402070142328739, 0.003008290659636259, 0.0071364473551511765, 0.003399804700165987, 0.0035319977905601263, -0.007461732253432274, 0.0031978609040379524, -0.017763355746865273, -0.003940236289054155, -0.0043512796983122826, 0.004311686381697655, -0.004320002626627684, 0.015115135349333286, -0.008071188814938068, 0.00825816486030817, -0.0009861495345830917, -0.010294013656675816, -0.00487039890140295, -0.0049332608468830585, 0.009320217184722424, 0.007175492588430643, -0.01797039620578289, -0.01776856556534767, -0.002917367499321699, 0.015397760085761547], [-0.005803840234875679, 0.005488668568432331, -0.00661066360771656, 0.003227497451007366, -0.011479929089546204, 0.003029522253200412, 0.0017528628231957555, 0.009166647680103779, 0.0025695222429931164, 0.0013872222043573856, 0.0029175837989896536, 0.007529934868216515, -0.0052545322105288506, -0.005600763950496912, -0.0032452342566102743, -0.0157712921500206, 0.01145197544246912, 0.004779701121151447, 0.007661125157028437, 0.0019778527785092592, -0.009771696291863918, -0.0038207205943763256, -0.008823350071907043, 0.004584776237607002, -0.0028210252057760954, 0.0011119067203253508, -0.002724739722907543, -0.00301034701988101, -0.0024644527584314346, 0.0071135410107672215, -0.0005387788987718523, 0.00015462447481695563, -0.0020468116272240877, 0.010167085565626621, 0.0010245984885841608, 0.0033311296720057726, -0.012721294537186623, 0.010974274016916752, -0.008054994978010654, -0.00890014786273241, -0.0007663112482987344, 0.007594804745167494, -0.006020891945809126, 0.0054107350297272205, -0.001982341753318906, 0.0022223107516765594, -0.003944701515138149, -0.002714788308367133, 0.0032978057861328125, 0.00820218212902546, -0.009107673540711403, 0.004671529401093721, -0.00694132037460804, 0.0006317676743492484, -0.00612496817484498, -0.00016301772848237306, -0.0018276203190907836, 0.0073690698482096195, -0.00689886836335063, -0.0003103335911873728, -0.009582274593412876, -0.0008317621541209519, -0.0019526253454387188, -0.004118329379707575, -0.004215453751385212, 0.002772438572719693, 0.003941978327929974, 0.0034306226298213005, -0.0023577422834932804, 0.008242089301347733, -0.004579178057610989, 0.003644318087026477, -0.0031461617909371853, 0.01325839664787054, -0.002329963492229581, -0.0036285019014030695, -0.0006701592938043177, 0.0025346509646624327, 0.004532702267169952, 0.003823145991191268, -0.002038289327174425, -0.0014662923058494925, -0.000790114572737366, -0.0038694918621331453, -0.0018848227337002754, -0.004441011697053909, -0.0017769046826288104, 0.006991941016167402, -0.0010447149397805333, 0.0031221990939229727, 0.0025119404308497906, 0.0038138360250741243, -0.009025839157402515, 0.0026844805106520653, -0.008740383200347424, -0.01207824144512415, 0.008074328303337097, 0.009242463856935501, -0.0053823720663785934, 0.008773637935519218, -0.00455431966111064, -0.004192870110273361, -0.002990707056596875, -0.0087409233674407, 0.0014556364621967077, 0.0033050337806344032, 0.008072005584836006, 0.0038935469929128885, -0.007695910520851612, 0.01304122805595398, -0.0033507312182337046, -0.007433478254824877, -0.014157897792756557, 0.0014550179475918412, -0.007752596866339445, 0.0019541450310498476, -0.0025488378014415503, 0.003823075210675597, -0.007196881342679262, -0.005019431468099356, -0.0034007702488452196, -0.0009104895871132612, 0.0035345342475920916, 0.002270987257361412, -0.009053252637386322, -0.006077977363020182, -0.01247272826731205, 0.004796008113771677], [0.006686479784548283, -0.013468893244862556, 0.0029955750796943903, -0.009575802832841873, 0.007837887853384018, -0.008058983832597733, -0.013003469444811344, -0.009985947981476784, -0.011377774178981781, -0.009321257472038269, -0.012013325467705727, -0.010081560350954533, 0.010041634552180767, 0.0036230620462447405, 0.012278540059924126, 0.005172545090317726, -0.004506396129727364, -0.009287391789257526, -0.00995703786611557, -0.01028981152921915, 0.0034691919572651386, 0.009669527411460876, 0.013906550593674183, -0.012647855095565319, 0.012039403431117535, -0.010553422383964062, 0.01091822050511837, 0.005376200191676617, 0.006916577462106943, -0.011338477954268456, 0.010881421156227589, -0.009544779546558857, 0.003906330093741417, -0.011314831674098969, -0.010341670364141464, -0.011798810213804245, 0.004108518362045288, -0.011959146708250046, 0.005342280026525259, 0.01114861574023962, 0.007755238562822342, -0.00918756052851677, 0.015085983090102673, -0.008906424976885319, 0.014507606625556946, -0.003771127900108695, 0.009748742915689945, 0.011694665998220444, -0.0035787345841526985, -0.013933268375694752, 0.00447876937687397, -0.003285241313278675, 0.01172576379030943, -0.005778646096587181, 0.011403830721974373, 0.004438350442796946, 0.009540709666907787, -0.011331613175570965, 0.010306553915143013, 0.011088047176599503, 0.011648415587842464, 0.008435677736997604, 0.0077969832345843315, 0.005783595144748688, 0.011322008445858955, -0.0035849446430802345, -0.010112784802913666, -0.013332923874258995, 0.010531685315072536, -0.012958088889718056, 0.013233247213065624, -0.009327813982963562, 0.012294184416532516, -0.00691186310723424, 0.009811865165829659, 0.004486473742872477, 0.0076432256028056145, -0.0038373342249542475, -0.010415373370051384, -0.003573966445401311, 0.010322706773877144, 0.006432221736758947, 0.008361419662833214, 0.0039075640961527824, 0.011271973140537739, 0.004781374242156744, 0.007539248559623957, -0.009053255431354046, 0.010762795805931091, -0.0053026918321847916, -0.0126515943557024, -0.011307784356176853, 0.012992555275559425, -0.01123227272182703, 0.0032286501955240965, 0.008398457430303097, -0.012159926816821098, -0.012805941514670849, 0.011309517547488213, -0.009331164881587029, 0.009795790538191795, 0.009629513137042522, 0.009721549227833748, 0.007187941111624241, -0.004047693684697151, -0.004010580480098724, -0.0069019063375890255, -0.0036780210211873055, 0.012236223556101322, -0.00939040444791317, 0.007245682179927826, 0.011935517191886902, 0.0077789900824427605, -0.009391327388584614, 0.009560082107782364, -0.007925392128527164, 0.009341476485133171, -0.005257223267108202, 0.0034255990758538246, 0.009364422410726547, 0.003312314860522747, 0.009143724106252193, -0.010012771934270859, -0.01002438273280859, 0.012182044796645641, 0.009195668622851372, 0.007944226264953613, -0.008248448371887207], [-0.0006062431493774056, 0.004067355766892433, -0.012459198012948036, 0.005580290220677853, -0.000276265200227499, 0.013286292552947998, 0.000404813647037372, 0.0017776231979951262, 0.0016706181922927499, 0.0033684014342725277, 0.001326186116784811, 0.003757947124540806, -0.004244414158165455, -0.012234771624207497, -0.0032602869905531406, -0.014994613826274872, 0.002798157511278987, 0.002811774145811796, 0.0027273681480437517, 0.003366094781085849, -0.0035107701551169157, -0.012763380073010921, -0.007105224300175905, 0.0020216363482177258, -0.0034110795240849257, 0.0013385980855673552, -0.0015370015753433108, -0.002511020051315427, -0.0012959036976099014, 0.0035951726604253054, -0.0010561358649283648, 0.010240879841148853, -0.003398558124899864, 0.009871228598058224, 0.014842499978840351, 0.002691584639251232, -0.0021447523031383753, 0.006361951120197773, -0.002804335206747055, -0.0036371885798871517, -0.011739274486899376, 0.0007317940471693873, -0.003806951455771923, 0.0025700663682073355, -0.003422310808673501, 0.0025449718814343214, -0.0010180645622313023, -0.006771324668079615, 0.0029844099190086126, 0.0022875608410686255, -0.0008795747999101877, 0.00038813590072095394, -0.0022512711584568024, 0.002761807758361101, -0.0001803462509997189, -0.0028163467068225145, -0.007851660251617432, 0.003639816539362073, -0.0009347489103674889, -0.002151821507140994, -0.006223057862371206, -0.011928238905966282, -0.0008387424750253558, -0.005318678915500641, -0.002559073269367218, 0.0014320861082524061, 0.0027174248825758696, 0.003381220391020179, -0.012875152751803398, 0.008678276091814041, -0.0023813799489289522, 0.0011377454502508044, -0.0033895496744662523, 0.0017449121223762631, -0.00872865505516529, -0.012489560060203075, -0.0021048474591225386, 0.012667939998209476, 0.001915012951940298, 0.011187389492988586, -0.0014552242355421185, -0.0022119637578725815, -0.010532498359680176, -0.003812804352492094, -0.011650757864117622, -0.0035606487654149532, -0.003600521245971322, 0.00914258323609829, -0.0009339256212115288, 0.0025450154207646847, 0.003021856304258108, 0.005071970634162426, -0.002161442069336772, 0.0007133406470529735, -0.005227761343121529, -0.008641747757792473, 0.010198842734098434, 0.002763010561466217, -0.00210447795689106, 0.008722233586013317, -0.0022859300952404737, -0.0021917633712291718, -0.013201410882174969, -0.0034161957446485758, 0.003460073610767722, 0.000814681057818234, 0.0038288331124931574, 0.0025007755029946566, -0.0025667340960353613, 0.008369640447199345, -0.002344446489587426, -0.002474585548043251, -0.0011256178840994835, 0.0026207994669675827, -0.0032286527566611767, 0.0015439933631569147, -0.003349898150190711, 0.0015702055534347892, -0.0002346992987440899, -0.003817563410848379, -0.0010551339946687222, -0.014899784699082375, 0.0033456063829362392, 0.001943673356436193, -0.005427655763924122, -0.0034594282042235136, -0.0015902217710390687, 0.0031736611854285], [-0.007108871825039387, 0.0020506437867879868, -0.0004070727445650846, 0.001490283408202231, -0.0029373581055551767, 0.00237468839623034, 0.00701887859031558, 0.0032378635369241238, 0.013365067541599274, 0.0013522173976525664, 0.011644883081316948, 0.0006627380498684943, -0.002572151832282543, -0.012329619377851486, -0.003284471109509468, -0.0019491530256345868, 0.0015855699311941862, 0.0040420666337013245, 0.011821608059108257, 0.0019561906810849905, -0.010645002126693726, -0.0038788113743066788, -0.005977395456284285, 0.011138742789626122, -0.013594107702374458, 0.003305329941213131, -0.0010964504908770323, -0.003295847214758396, -0.0028045938815921545, 0.009674125351011753, -0.014007936231791973, 0.011900229379534721, -0.013086512684822083, 0.00800749845802784, 0.016645614057779312, 0.0030615460127592087, -0.0025582900270819664, 0.00545282568782568, -0.0022707588504999876, -0.0061359708197414875, -0.0011164303869009018, 0.004887191578745842, -0.0033282802905887365, 0.011837749741971493, -0.0013722091680392623, 0.004606558009982109, -0.00228246976621449, -0.011024774983525276, 0.003985784947872162, 0.002948189852759242, -0.010672876611351967, 0.0034178488422185183, -0.011895724572241306, 0.003076403634622693, -0.01219198014587164, -0.0032832061406224966, -0.014309950172901154, 0.0028419937007129192, -0.010302101261913776, -0.0019779233261942863, -0.007703425828367472, -0.016734838485717773, -3.779584585572593e-05, -0.011738189496099949, -0.010615743696689606, 0.002554456703364849, 0.0034957488533109426, 0.0033357443753629923, -0.013313035480678082, 0.005817499477416277, -0.013020230457186699, 0.0029552248306572437, -0.002551077166572213, 0.003405654802918434, -0.00010201249097008258, -0.004077746998518705, -0.01368732936680317, 0.01262451522052288, 0.00381750101223588, 0.0020269565284252167, -0.0015109156956896186, -0.012357917614281178, -0.0012322384864091873, -0.0004844383511226624, -0.014859003014862537, -0.005898027680814266, -0.011297938413918018, 0.0060804192908108234, -0.000439931609435007, 0.004206805489957333, 0.0007240314735099673, 0.000279495696304366, -0.0021919808350503445, 0.007867983542382717, -0.0012738974764943123, -0.002768835285678506, 0.0026807570829987526, 0.0006863570306450129, -0.0015133970882743597, 0.009152802638709545, -0.00689284410327673, -0.002598932245746255, -0.013092451728880405, -0.004749313462525606, 0.0033221179619431496, 0.007090323138982058, 0.012826880440115929, 0.0026100468821823597, -0.009276896715164185, 0.0014774579321965575, -0.001451355405151844, -0.002710645319893956, -0.012417162768542767, 0.012860255315899849, -0.0020400758367031813, 0.003729303600266576, -0.0026955832727253437, 0.004983504302799702, -0.0004795044369529933, -0.008991969749331474, -0.008984090760350227, -0.015225857496261597, 0.01371027622371912, 0.002562543610110879, -0.0022945727687329054, -0.01015107985585928, -0.002268347190693021, 0.012043558061122894], [-0.014689641073346138, 0.007552248891443014, -0.005367265082895756, 0.003609165083616972, -0.02968968264758587, 0.019810112193226814, 0.018204430118203163, 0.006169592496007681, 0.006388529669493437, 0.024501310661435127, 0.002035123063251376, 0.00991226825863123, -0.01156873069703579, -0.013592619448900223, -0.017635077238082886, -0.02514531835913658, 0.018294695764780045, 0.003873000852763653, 0.017311785370111465, 0.027820410206913948, -0.0037196516059339046, -0.01511296909302473, -0.012770218774676323, 0.02135048620402813, -0.015088358893990517, 0.01961546763777733, -0.00465841218829155, -0.029969677329063416, -0.021427210420370102, 0.013411195948719978, -0.01956997998058796, 0.0068562226369977, -0.01751265488564968, 0.016377056017518044, 0.01216922514140606, 0.007406257558614016, -0.024249250069260597, 0.011541612446308136, -0.011049763299524784, -0.0172545425593853, -0.02122650109231472, 0.004910136107355356, -0.006214389111846685, 0.00413409061729908, -0.02065289579331875, 0.019198251888155937, -0.016189299523830414, -0.019336003810167313, 0.017211468890309334, 0.014466959051787853, -0.010420914739370346, 0.013676146976649761, -0.014217563904821873, 0.025590715929865837, -0.02063618414103985, -0.022884825244545937, -0.023409642279148102, 0.01566065102815628, -0.015542780980467796, -0.003984866198152304, -0.010892469435930252, -0.012798191979527473, -0.020959043875336647, -0.01056468766182661, -0.012897366657853127, 0.013207816518843174, 0.017314886674284935, 0.01439711358398199, -0.007487548049539328, 0.022842586040496826, -0.01658541150391102, 0.0224002655595541, -0.012315603904426098, 0.005228313151746988, -0.02783561497926712, -0.012224843725562096, -0.020595921203494072, 0.011135829612612724, 0.015732120722532272, 0.012287534773349762, -0.02053714543581009, -0.017794491723179817, -0.019029920920729637, -0.025345228612422943, -0.027777252718806267, -0.009064821526408195, -0.015438714064657688, 0.01975991390645504, -0.020325282588601112, 0.00535512575879693, 0.015264186076819897, 0.027010971680283546, -0.01700083538889885, 0.007764223497360945, -0.005011424422264099, -0.005358195398002863, 0.00944686122238636, 0.01502135768532753, -0.018388543277978897, 0.014205672778189182, -0.01753164641559124, -0.005222000647336245, -0.005592266097664833, -0.013596215285360813, 0.024749144911766052, 0.014796012081205845, 0.024392765015363693, 0.021488644182682037, -0.008287572301924229, 0.025889040902256966, -0.01690770871937275, -0.007233054377138615, -0.011996041052043438, 0.02016918733716011, -0.013604800216853619, 0.01534469984471798, -0.006446625106036663, 0.02022077515721321, -0.017273593693971634, -0.010917755775153637, -0.006243675947189331, -0.020741978660225868, 0.02586945705115795, 0.016813555732369423, -0.010045495815575123, -0.010483426973223686, -0.005117463413625956, 0.014258249662816525], [0.002669211942702532, -0.003906604368239641, 0.03622754290699959, -0.0011538338148966432, 0.06032024696469307, -0.015046034939587116, -0.005360452923923731, -0.001796758035197854, -0.01484122034162283, -0.035016242414712906, -0.0297160055488348, -0.004055814351886511, 0.0035530184395611286, 0.007988092489540577, 0.027822257950901985, 0.03627917170524597, -0.004855397157371044, -0.002714132657274604, -0.013559955172240734, -0.005999923218041658, 0.001901526004076004, 0.004560270346701145, 0.01173948310315609, -0.0029983411077409983, 0.0015033158706501126, -0.03353218361735344, 0.010929105803370476, 0.007098586764186621, 0.0049574170261621475, -0.0007917811162769794, 0.004980372730642557, -0.0018700609216466546, 0.006158224307000637, -0.0036381667014211416, -0.016434665769338608, -0.013316687196493149, 0.005829760804772377, -0.0030011283233761787, 0.0006248943391256034, 0.010309485718607903, 0.02722150832414627, -0.005828873720020056, 0.02766519971191883, -0.003089054487645626, 0.002671959577128291, -0.019026607275009155, 0.005303945392370224, 0.001316416310146451, -0.015100929886102676, -0.0025389876682311296, 0.003469659248366952, -0.002022363245487213, 0.004377049393951893, -0.04773721098899841, 0.01094977930188179, 0.005392913706600666, 0.01859128847718239, -0.012010089121758938, 0.0027802379336208105, 0.04739389196038246, 0.0029792129062116146, 0.018258437514305115, 0.0189763642847538, 0.0031760286074131727, 0.007448763586580753, -0.0019616568461060524, -0.01878497749567032, -0.005574300419539213, 0.031204018741846085, -0.0069443462416529655, 0.004115313291549683, -0.01287657767534256, 0.0002768065023701638, -0.01514593604952097, 0.006030077114701271, 0.06288503855466843, 0.016040878370404243, -0.006718148943036795, -0.019510377198457718, -0.013533366844058037, 0.013009516522288322, 0.01754138246178627, 0.013037780299782753, 0.008388790301978588, 0.02008139155805111, 0.005459593143314123, 0.0052722543478012085, -0.022048551589250565, 0.026455942541360855, -0.014861546456813812, -0.005338185466825962, -0.007185920607298613, 0.016222301870584488, -0.00136863486841321, 0.001304522855207324, 0.0012651390861719847, -0.002750052371993661, -0.002579750958830118, 0.011403498239815235, -0.022933602333068848, 0.014124452136456966, 0.017153829336166382, 0.004050761926919222, 0.003101653652265668, -0.006812793668359518, -0.006371445022523403, -0.0019475339213386178, -0.0031524146907031536, 0.010068759322166443, -0.007891643792390823, 0.002152614528313279, 0.010389300063252449, 0.02364644967019558, -0.005734561011195183, 0.008383121341466904, -0.004974496550858021, 0.015576914884150028, -0.008758433163166046, 0.001673983526416123, 0.007981795817613602, 0.0052053919062018394, 0.00586102157831192, -0.03904780372977257, -0.002692969748750329, 0.010524016804993153, 0.0007300268625840545, 0.03303150087594986, -0.0024484386667609215], [0.004595258738845587, -0.002945980057120323, 0.0023902489338070154, -0.0023937057703733444, 0.002653231145814061, -0.003452168544754386, -0.002144455909729004, -0.0041733975522220135, -0.0009053859976120293, -0.01229017972946167, -0.0036359946243464947, -0.002569040050730109, 0.007782331667840481, 0.008354871533811092, 0.000712547276634723, 0.0022075439337641, -0.0030590619426220655, -0.0055269841104745865, -0.001982962479814887, -0.0007205494912341237, 0.0031090565025806427, 0.002545425668358803, 0.0032471884042024612, -0.0025600783992558718, 0.002542876871302724, -0.004730548709630966, 0.0021879826672375202, 5.276403317111544e-05, 0.0011898018419742584, -0.004496662877500057, 0.011673740111291409, -0.01311310101300478, 0.011314591392874718, -0.002013771329075098, -0.0009461247827857733, -0.0022784338798373938, 0.006317785009741783, -0.0026914679910987616, 0.004770519211888313, 0.010035495273768902, 0.0026098748203366995, -0.002916564466431737, 0.0022893513087183237, -0.0031013605184853077, 0.00236312672495842, -0.0029467460699379444, 0.002307988703250885, 0.001999088330194354, -0.008487771265208721, -0.0020221376325935125, 0.0024589940439909697, -0.0026081204414367676, 0.004132991656661034, -0.012649361044168472, 0.0032116337679326534, 0.012556340545415878, 0.0021235898602753878, -0.0026826011016964912, 0.0022069960832595825, 0.0027227343525737524, 0.006857044994831085, 0.0032895603217184544, 0.0014431586023420095, 0.0026515040080994368, 0.003067601239308715, -0.001577266724780202, -0.002391707617789507, -0.002742995275184512, 0.0024241951759904623, -0.003264493541792035, 0.0032527369912713766, -0.001868617720901966, 0.0067133777774870396, -0.003309809835627675, 0.013014942407608032, 0.013687292113900185, 0.0015125777572393417, -6.85766208334826e-05, -0.003989129792898893, -0.0030212842393666506, 0.00198767869733274, 0.002024836838245392, 0.0017848453717306256, 0.004242053721100092, 0.006014660932123661, 0.003240937367081642, 0.00698707764968276, -0.005708132870495319, 0.00022059147886466235, -0.004572724923491478, -0.0034758232068270445, -0.0014429313596338034, 0.0021768801379948854, -0.00014205020852386951, 0.007016436662524939, 0.00385644705966115, -0.0050325836054980755, -0.004232592880725861, 0.0017742777708917856, -0.0070976149290800095, 0.002078588120639324, 0.005364269018173218, 0.0028690083418041468, 0.0034638000652194023, -0.01371071022003889, -0.0019924230873584747, -0.0027449994813650846, -0.0007859730976633728, 0.005206635221838951, -0.0053630489856004715, 0.0049540819600224495, 0.0031665638089179993, 0.002129459986463189, -0.00280140177346766, 0.00475642504170537, -0.003395580453798175, 0.0005883025005459785, -0.00104375125374645, 0.001335941138677299, 0.0030171440448611975, 0.0028023705817759037, 0.0042653013952076435, -0.01279701292514801, -0.0018827775493264198, 0.004921555519104004, 0.0030124150216579437, 0.01178926881402731, -0.002985141472890973], [0.009202685207128525, -0.008147134445607662, 0.0030894663650542498, -0.003476656274870038, 0.0008499547839164734, -0.001650867983698845, -0.0029330954421311617, -0.008077622391283512, -0.0032250918447971344, -0.0019092907896265388, -0.011070393025875092, -0.010600709356367588, 0.008653511293232441, 0.009654992260038853, 0.006971503607928753, 0.0038344087079167366, -0.006823854986578226, -0.009831979870796204, -0.007770150899887085, -0.006571964360773563, 0.010527519509196281, 0.004769573919475079, 0.003940244670957327, -0.006402852013707161, 0.0041144778952002525, -0.005875417031347752, 0.009652833454310894, 0.0045420946553349495, 0.008255815133452415, -0.009207497350871563, 0.007663728669285774, -0.00415585795417428, 0.00704986834898591, -0.011113041080534458, -0.00301951402798295, -0.003311886452138424, 0.00492286728695035, -0.008526268415153027, 0.008815332315862179, 0.01227189227938652, 0.0028278673999011517, -0.006958173122256994, 0.008974505588412285, -0.00829229038208723, 0.008053644560277462, -0.003335583256557584, 0.009081777185201645, 0.00826871208846569, -0.004264731891453266, -0.007296764757484198, 0.01052298117429018, -0.00719039561226964, 0.007657221052795649, -0.0011767755495384336, 0.006625527516007423, 0.003656393149867654, 0.004774665459990501, -0.003485834924504161, 0.007320099510252476, 0.004429893102496862, 0.008840658701956272, 0.003689492354169488, 0.003940383438020945, 0.003655549604445696, 0.003649232443422079, -0.009983626194298267, -0.0061377002857625484, -0.003610340179875493, 0.001027380581945181, -0.0033649480901658535, 0.008659579791128635, -0.003115942934527993, 0.010808652266860008, -0.0026193864177912474, 0.005048571620136499, 0.0014359430642798543, 0.0039389175362885, -0.0032341277692466974, -0.00980131234973669, -0.010030152276158333, 0.00966443121433258, 0.0025535065215080976, 0.002854423364624381, 0.0022195233032107353, 0.0028122344519943, 0.0035072038881480694, 0.002554497215896845, -0.009837286546826363, 0.003240735037252307, -0.0034267259761691093, -0.005358405411243439, -0.004814807325601578, 0.011457212269306183, -0.003946380689740181, 0.008727779611945152, 0.009746027179062366, -0.010842567309737206, -0.00974414125084877, 0.00919217150658369, -0.009524528868496418, 0.00761506287381053, 0.010157938115298748, 0.0032469332218170166, 0.008404649794101715, -0.0018228758126497269, -0.0038530307356268167, -0.003938908688724041, -0.007295204326510429, 0.009474650956690311, -0.0003256806230638176, 0.011527777649462223, 0.010730322450399399, 0.006342041306197643, -0.003979734610766172, 0.006545803509652615, -0.0035311211831867695, 0.00930789764970541, -0.008001010864973068, 0.00601424602791667, 0.009547571651637554, 0.007642771117389202, 0.005645113531500101, -0.006385451648384333, -0.008510524407029152, 0.009333846159279346, 0.0030594279523938894, 0.0032790247350931168, -0.006705191917717457]], "sigmanet.nn.8.bias": [-0.007037492003291845, 0.014305093325674534, -0.037132762372493744, 0.039355628192424774, 0.01318979263305664, 0.004144716542214155, 0.015229607932269573, 0.024297837167978287, -0.027230694890022278, -0.07558712363243103, 0.04152737185359001, 0.1130407303571701, 0.05184008181095123, 0.09095876663923264, 0.011518021114170551, -0.014912696555256844, -0.06312380731105804, -0.004623659420758486, 0.03740379586815834, -0.07027837634086609, 0.005618499591946602, 0.011745712719857693, -0.011254631914198399, -0.005456267390400171, -0.0004471020947676152, 0.00492650642991066, -0.07294881343841553, 0.05781155824661255, 0.03828974813222885, 0.0076400176621973515, 0.03446663171052933, 0.0031833909451961517, -0.006364751607179642, 0.010825646109879017, 0.0025381306186318398, -0.12755979597568512, 0.0004464135563466698, 0.021865559741854668, -0.005441139452159405, -0.00026211352087557316, 0.04668029025197029, -0.051315877586603165, 0.05817500501871109, -0.02302522584795952, 0.02903374843299389, 0.03682708740234375, 0.027978602796792984, 0.007436457090079784, -0.011362980119884014, 0.00685602193698287, -0.005923982243984938, 0.052881017327308655, 0.08683059364557266, -0.0536128506064415, -0.0757598951458931, 0.013742855750024319, 0.07044776529073715, 0.029689913615584373, -0.002325834007933736, -0.002507277764379978, 0.011540056206285954, -0.03846132755279541, 0.027613304555416107, 0.009097427129745483, 0.046389129012823105, -0.06390994787216187, -0.07714933156967163, -0.029369952157139778, 0.03329479694366455, 0.0018068947829306126, 0.0002917866222560406, 0.019188744947314262, 0.030794259160757065, 0.0360950268805027, -0.0035931041929870844, 0.07876268029212952, -0.05185084789991379, -0.062237657606601715, -0.04536188393831253, 0.013158909045159817, -0.050108589231967926, -0.01959063857793808, 0.015801096335053444, 0.004805114585906267, -0.0786595568060875, -0.05644289031624794, 0.01722044311463833, -0.03220811113715172, -0.04038482904434204, -0.025884242728352547, -0.09934835880994797, 0.016817888244986534, 0.003217087360098958, -0.00810264702886343, 0.06304097920656204, 0.006228120531886816, 0.01660838909447193, -0.04559151828289032, 0.006462325341999531, -0.04704584553837776, 0.0006500071031041443, -0.052157673984766006, -0.010197087191045284, -0.04276340454816818, -0.0005264194332994521, -0.04239177331328392, 0.027944739907979965, -0.053164154291152954, 0.08702497184276581, -0.05941103398799896, 0.0452674962580204, 0.005108991637825966, -0.036805592477321625, -0.06426090002059937, 0.043636124581098557, -0.07095102965831757, -0.026211155578494072, 0.049793656915426254, 0.014723706990480423, 0.024335727095603943, 0.00918161403387785, 0.005514274351298809, -0.017673688009381294, 0.04929100722074509, 0.008586441166698933, 0.02034154161810875, 0.014267842285335064, -0.05810890719294548], "sigmanet.nn.8.parametrizations.weight.original": [[0.007560227066278458, 0.00010994893091265112, 0.0029664805624634027, 0.0008338286424987018, -0.0002778306370601058, 0.0033064321614801884, 0.005088395904749632, 0.004187737125903368, -0.003993395250290632, -0.0003796290257014334, -0.0025501628406345844, 0.0031275025103241205, -0.00203711842186749, 0.0018586743390187621, 0.007181880529969931, 0.0006626363028772175, 0.003463453147560358, 0.0008892792975530028, -0.0005872123292647302, -0.0021716305054724216, -0.00039570985245518386, -0.002009432064369321, -0.00023175722162704915, -0.0008185081533156335, -0.002193812746554613, 0.0030613455455750227, 0.00036035594530403614, 0.0025994526222348213, -0.0034270777832716703, 0.003379180794581771, 0.00026304885977879167, 0.002068078611046076, -0.0018405752489343286, -0.004730090033262968, -0.0016547638224437833, 0.004369775298982859, -0.0032404926605522633, 0.0009710026206448674, -0.0015494581311941147, -0.0023122052662074566, -0.005516914185136557, 0.0004813420819118619, -0.0017045193817466497, 0.007072394713759422, -0.0019025038927793503, 0.0005474323406815529, 0.0042877341620624065, 0.0016692979261279106, -0.0037182436790317297, 0.0003355819790158421, -0.0031678860541433096, 0.0010660199914127588, -0.0017374721355736256, 0.00010078329796670005, -0.00034857579157687724, 0.0003439103893470019, -0.0002063527936115861, 0.0030834220815449953, -0.0012745048152282834, 0.003030744381248951, 0.0003169452247675508, 0.002066027605906129, -0.0012344339629635215, -0.0012475510593503714, 0.001333507476374507, 0.0018236949108541012, -0.004214855842292309, -0.003265910316258669, 0.0017856229096651077, 0.0020582370925694704, -0.0034343565348535776, -0.006107880733907223, -0.0012720244703814387, 0.0005273494753055274, -0.0007301641162484884, 0.0033961096778512, -0.0016418063314631581, -0.005277398973703384, 0.002365232678130269, 0.004933419171720743, 0.005272501148283482, 0.006678072270005941, -0.0019138314528390765, 0.0012550627579912543, 0.0007825901848264039, 0.0003934219421353191, -0.004997550509870052, 0.001811569556593895, -0.0022665567230433226, 0.005146834533661604, -0.0010824007913470268, 0.0049513354897499084, -0.0017262413166463375, -0.002838734770193696, -0.006325331516563892, 0.002247172174975276, -0.0007992413593456149, -4.683899533119984e-05, 0.0028035675641149282, 0.0023388515692204237, 0.003891540924087167, 0.0006219964125193655, -0.005128936376422644, 0.00257631647400558, -0.005398114211857319, 0.002058896701782942, -0.0007788222283124924, 0.005458354949951172, -0.0013403671327978373, 8.315500599564984e-05, -0.001407461822964251, -0.0006617407198064029, -0.0005291423876769841, -0.000711296743247658, -0.005657969508320093, 0.0015058707213029265, -0.004441796336323023, 0.005070949904620647, -0.007554199080914259, 0.0010916817700490355, -0.0012350926408544183, 0.0003901391173712909, 0.001815718598663807, 0.0030404888093471527, -0.0007970807491801679, 0.0019989400170743465, -0.003969536162912846, -0.0001968085707630962], [0.015314259566366673, 0.01655244454741478, 0.006558106746524572, 0.0033006893936544657, -0.004788590595126152, 0.00843078177422285, 0.015559530816972256, 0.010649009607732296, -0.014703509397804737, -0.012964794412255287, -0.01314182672649622, 0.011644402518868446, -0.0034679316449910402, 0.013680193573236465, 0.012872005812823772, 0.012336612679064274, 0.0038457538466900587, 0.0031511762645095587, -0.003493686206638813, -0.01537456177175045, -0.014934216625988483, -0.015852071344852448, -0.008433684706687927, -0.0036309489514678717, -0.00800538994371891, 0.00623504351824522, 0.01582934334874153, 0.017829209566116333, -0.013356414623558521, 0.011575101874768734, 0.01270216703414917, 0.006162151228636503, -0.016253847628831863, -0.015458472073078156, -0.014078480191528797, 0.013396068476140499, -0.0037408536300063133, 0.008747028186917305, -0.020550521090626717, -0.0031935744918882847, -0.013793540187180042, 0.00936941523104906, -0.010524976998567581, 0.01703476347029209, -0.01281761471182108, 0.015376151539385319, 0.002812073566019535, 0.018113313242793083, -0.009323043748736382, 0.014719993807375431, -0.005262277089059353, 0.02259964868426323, -0.00779692642390728, 0.007222654763609171, -0.012685216963291168, 0.0035081375390291214, -0.016637995839118958, 0.010783964768052101, -0.0008291145204566419, 0.020844709128141403, 0.02010713703930378, 0.003525214036926627, -0.0040412116795778275, -0.015200243331491947, 0.005192059092223644, 0.004025832749903202, -0.013247580267488956, -0.006823171861469746, 0.0031880359165370464, 0.004405461251735687, -0.021722381934523582, -0.020198840647935867, -0.010166107676923275, 0.016327019780874252, -0.006183677352964878, 0.011847643181681633, -0.0033493952360004187, -0.01488096546381712, 0.00434002885594964, 0.002424389822408557, 0.005089607089757919, 0.011524260975420475, -0.003007936989888549, 0.014596476219594479, 0.009581382386386395, 0.017541388049721718, -0.016560552641749382, 0.013116142712533474, -0.012249533087015152, 0.018607044592499733, -0.01705789752304554, 0.003813148243352771, -0.00919484905898571, -0.0038006959948688745, -0.014472870156168938, 0.015170725993812084, -0.0030809431336820126, -0.004744498524814844, 0.00598360737785697, 0.017713960260152817, 0.013102327473461628, 0.0033297319896519184, -0.008389507420361042, 0.00372452475130558, -0.0034609620925039053, 0.0032669820357114077, -0.01154970284551382, 0.011783041059970856, -0.006936820223927498, 0.00835082121193409, -0.019260181114077568, -0.0032958616502583027, -0.011981558054685593, -0.010288315825164318, -0.006176922935992479, 0.005483068525791168, -0.011659659445285797, 0.012479396536946297, -0.014246299862861633, 0.006622228771448135, -0.004202466923743486, 0.015002754516899586, 0.013943841680884361, 0.01946338452398777, -0.009559687227010727, 0.01064552366733551, -0.015526301227509975, -0.015990708023309708], [-0.0006215000757947564, -0.0008840212249197066, -0.0025501593481749296, -0.0006096042925491929, 0.0002590929507277906, -0.003611173713579774, -0.00239496654830873, -0.0008595908293500543, 0.0016408140072599053, 0.0017393449088558555, 0.0026296640280634165, -0.0008698898018337786, 0.0012901176232844591, -0.0007463854271918535, -0.00023170515487436205, -0.00376400095410645, -0.0010918492916971445, -0.0020159375853836536, 3.3110314689110965e-05, 0.0022910074330866337, 0.0028374693356454372, 7.485420064767823e-05, 0.004369167145341635, 4.967297718394548e-05, 0.0004354502016212791, -0.0022488923277705908, -0.0007619360694661736, -0.0004592432815115899, 0.0012479190481826663, -0.0029049476142972708, -0.0016612724866718054, -8.665785571793094e-05, 0.003429816570132971, 0.0014561873394995928, 0.0029994731303304434, -0.0017197952838614583, 0.0013826239155605435, -0.0009826362365856767, 0.004855149891227484, 0.0006883459282107651, 0.0002548301126807928, -0.0009383807191625237, 0.00010099136125063524, -0.00012171970593044534, 0.00046870546066202223, -0.00031004956690594554, -0.003505106782540679, -0.00014708384696859866, 0.00392703153192997, -0.0008027921430766582, 0.004086953587830067, -0.0008387644193135202, 0.0006138556054793298, -0.0012227152474224567, 0.00010289721831213683, -0.001500721788033843, 0.003682226873934269, -0.004368948750197887, 0.0008949241018854082, -0.0020114523358643055, -0.0005017869989387691, -0.002918664366006851, 0.0024388565216213465, 0.0008012049947865307, -3.072280014748685e-05, -0.0019121437799185514, 0.005911277141422033, 0.002656747354194522, -0.004714359994977713, -0.0010790512897074223, 5.21018446306698e-05, 0.0029165016021579504, 0.004712497349828482, -0.0011599404970183969, 0.0005615391419269145, -0.0032241009175777435, 0.0023855208419263363, 0.0006433649105019867, -0.00047614419599995017, -0.0024926229380071163, -0.0055430918000638485, -0.000513639475684613, 0.0010986446868628263, -0.005067821126431227, -0.0016033127903938293, -0.0009311165194958448, 0.002827042480930686, -0.0012667367700487375, 0.0021953091491013765, -0.0019475588342174888, 0.0032123152632266283, -0.0019672526977956295, 0.00048267064266838133, 0.003506534267216921, 0.0010239614639431238, -0.0025979799684137106, 0.0019213403575122356, 0.00044841921771876514, -0.0011058178497478366, -0.0022065804805606604, -0.003944218624383211, -0.0024480177089571953, 0.003792043076828122, -0.002633016323670745, 0.0037983052898198366, -0.0025177118368446827, 0.0011676725698634982, -0.0006940635503269732, 0.0005876191426068544, -0.003354401094838977, 0.0037576043978333473, 0.003348148660734296, 0.004174100700765848, 0.001245857565663755, 0.003765197703614831, -0.00029212047229520977, 0.005159466527402401, -0.003477671882137656, 0.005318752955645323, -0.000980675918981433, 0.0006272676400840282, -0.0011013576295226812, -0.0024303726386278868, -0.00722186965867877, 0.004848402924835682, -0.0014091330813243985, 0.00047523839748464525, 0.002330632647499442], [0.00315726175904274, 0.0012014497769996524, 0.00676271878182888, 0.0014186467742547393, -0.002707947976887226, 0.003025316633284092, 0.0012163311475887895, 0.0010466246167197824, -0.0028067859821021557, -0.003458270337432623, -0.0007206667214632034, 0.001557840732857585, -0.0026918265502899885, 0.003625123295933008, 0.0006537123117595911, 0.0009041312732733786, 0.003591657616198063, 0.0018861104035750031, -0.00314516993239522, -0.0021509930957108736, -0.001979277702048421, -0.00024203790235333145, -6.9222132879076526e-06, -0.0008751710993237793, -0.0042025381699204445, 0.001923958072438836, 0.002295561134815216, 0.003150780452415347, -0.0013381587341427803, 0.0013352372916415334, 0.0006643606466241181, 0.0022225910797715187, -0.003163422690704465, -0.0005921259289607406, -0.003157945815473795, 0.0016342538874596357, -0.0014927535085007548, 0.005687119904905558, -0.0024942040909081697, -0.00044292505481280386, -0.0005316922906786203, 0.00032470462610945106, -0.00010702296276576817, 0.0024781350512057543, -0.0006237991037778556, 0.0019573329482227564, 0.000966354738920927, 0.0025572869926691055, -0.0009513814002275467, 0.0005670711398124695, -0.0008136517135426402, 0.0014220186276361346, -0.00012550597602967173, 0.0006229225546121597, -0.001798736397176981, 0.0006965116481296718, -0.0012389098992571235, 0.0008177137933671474, -0.0031820028088986874, 0.00031222248799167573, 0.00048780840006656945, 0.00253986194729805, -0.0025772727094590664, -0.001121785375289619, 0.00042663284693844616, 0.00041323364712297916, -0.00010223161370959133, -0.00163061183411628, 0.00201292778365314, 0.004809289239346981, -0.0006804796284995973, -0.004428692162036896, -9.21629907679744e-05, 0.006137097254395485, -0.004074014723300934, 0.001677588326856494, -0.00013477986794896424, -0.005260970909148455, 0.0007446806412190199, 0.0006339633837342262, 0.0009263146203011274, 0.0004508181009441614, -0.0014140111161395907, 0.0016177971847355366, 0.0020686453208327293, 0.0031239648815244436, -0.0029858823399990797, 0.004096202086657286, -0.00047025142703205347, 0.00044651463394984603, -0.0004570074670482427, 0.0012049536453559995, -0.0031609786674380302, -0.0011899997480213642, -0.004301793873310089, 0.001050188671797514, -0.005104132927954197, -0.0004087048873770982, 0.00330871413461864, 0.0012050509685650468, 0.0033063157461583614, 0.0026518183294683695, -0.0030526036862283945, 0.0029997515957802534, -0.002316622994840145, 0.001841069315560162, -0.0015982668846845627, 0.0012696677586063743, -0.0009043486206792295, 0.0004219113034196198, -0.002394185634329915, -0.0016784220933914185, -0.003249567002058029, -0.006644340232014656, -0.00019539121421985328, 0.0017022055108100176, -0.0012052584206685424, 0.002926202490925789, -0.002762416610494256, 0.0015817687381058931, -0.001371180173009634, 0.0034034771379083395, 0.00012483105820138007, 0.0025031010154634714, -0.0010063073132187128, 0.0024908778723329306, -0.004491802304983139, -0.002410071436315775], [-0.019746439531445503, -0.0036418531090021133, -0.017690584063529968, -0.02053983137011528, 0.0034943618811666965, -0.008770685642957687, -0.02265920303761959, -0.0143276397138834, 0.0031012455001473427, 0.013708780519664288, 0.014058706350624561, -0.019651681184768677, 0.026768924668431282, -0.019180195406079292, -0.011911624111235142, -0.018164202570915222, -0.010739700868725777, -0.0029588614124804735, 0.02696816995739937, 0.020265966653823853, 0.018523938953876495, 0.023218438029289246, 0.0030723277013748884, 0.002622472820803523, 0.012630634941160679, -0.00806454848498106, -0.02020958997309208, -0.023454589769244194, 0.016662688925862312, -0.019235361367464066, -0.014800295233726501, -0.019767699763178825, 0.004493651911616325, 0.0037748205941170454, 0.015690473839640617, -0.016986887902021408, 0.002098892815411091, -0.01059283409267664, 0.028588134795427322, 0.02253548800945282, 0.015328492969274521, -0.021724514663219452, 0.0026549631729722023, -0.021530335769057274, 0.026414183899760246, -0.008672818541526794, -0.009953413158655167, -0.028405074030160904, 0.004483326803892851, -0.016847390681505203, 0.0043854559771716595, -0.030361881479620934, 0.007680296897888184, -0.006788346450775862, 0.015450150705873966, -0.0106772156432271, 0.013603176921606064, -0.018009986728429794, 0.012307921424508095, -0.027423342689871788, -0.029071420431137085, -0.015313184820115566, 0.013273630291223526, 0.016096001490950584, -0.025296736508607864, -0.029267800971865654, 0.0026233841199427843, 0.002111702458932996, -0.00770900072529912, -0.003438622457906604, 0.0238717682659626, 0.024237018078565598, 0.020245108753442764, -0.004051345866173506, 0.004912979435175657, -0.015499362722039223, 0.003204396925866604, 0.00415711710229516, -0.003508347552269697, -0.0105133056640625, -0.012940317392349243, -0.01606559380888939, 0.0031461655162274837, -0.02265944331884384, -0.01061360165476799, -0.022837815806269646, 0.024539515376091003, -0.01674247346818447, 0.014541247859597206, -0.027264324948191643, 0.020528381690382957, -0.0029111048206686974, 0.020072555169463158, 0.012591762468218803, 0.019676173105835915, -0.02799145318567753, 0.003129456425085664, 0.01710842363536358, -0.006693354807794094, -0.022951947525143623, -0.01798325963318348, -0.02458127588033676, 0.003982551861554384, -0.007268591318279505, 0.012101197615265846, -0.01987544447183609, 0.0030397132504731417, -0.0027743245009332895, 0.009485302492976189, -0.01437964104115963, 0.031200606375932693, 0.0030730024445801973, 0.002860063686966896, 0.0038732506800442934, 0.010758984833955765, -0.0027252843137830496, 0.002161506563425064, -0.01836223527789116, 0.004515545442700386, -0.013351714238524437, 0.016857696697115898, -0.01844043843448162, -0.0036507747136056423, -0.02458103559911251, 0.0033268819097429514, -0.01390507910400629, 0.026183241978287697, 0.029585719108581543], [0.002394497860223055, 0.0003197518235538155, 0.0010054913582280278, 0.006896790117025375, -0.0018404240254312754, 0.005289352498948574, 0.000254235026659444, 0.0014834861503913999, -0.0005395755870267749, -0.0027626424562186003, -0.005516510922461748, 0.0012071520322933793, -0.0026047336868941784, 0.003258318640291691, 0.000570712611079216, 0.005325997713953257, 0.0010384508641436696, 0.001135576399974525, -0.0014440173981711268, -0.0009805138688534498, -0.00012866020551882684, -0.0013861635234206915, -0.006694982759654522, -0.001027798280119896, -0.0024899602867662907, 0.0011991910869255662, 0.004389765672385693, 0.0040056430734694, -0.006354399025440216, 0.0021854261867702007, 0.0034614065662026405, 0.002168679842725396, -0.0013919147895649076, -0.0018514756811782718, -0.00041653032531030476, 0.0005520469276234508, -0.0025154585018754005, 0.0005853762850165367, -0.00095892115496099, -0.004609648138284683, -0.001877273665741086, 0.0013307821936905384, -0.0007154121994972229, 0.002685044426470995, -0.002534084487706423, 0.0003396066604182124, 5.140213033882901e-05, 0.001470710732974112, -0.0041961669921875, 0.001501825056038797, -0.00032242151792161167, 0.0007075369940139353, -0.000416644848883152, 0.0046548438258469105, -0.00048521673306822777, 0.0028340579010546207, -0.0015590304974466562, 0.0038022275548428297, -0.001326364348642528, 0.00011417122004786506, 0.0001448458933737129, 0.0019137585768476129, -0.002435535192489624, -0.0005123571027070284, 0.007061868440359831, 0.007341152988374233, -0.0010822807671502233, -0.004223394673317671, 0.0020259968005120754, 0.00517276581376791, -0.004328660201281309, -0.0007834643474780023, -0.0020571628119796515, 0.0011081879492849112, -0.003066785866394639, 0.0012598386965692043, -0.0018863664008677006, -0.004067101050168276, 0.006746629718691111, 0.004428968299180269, 0.0037011282984167337, 0.0008895164937712252, -0.0011767640244215727, 0.0013072629226371646, 0.0004444501828402281, 0.00444237282499671, -0.0019294347148388624, 0.00041213512304238975, -0.0013983220560476184, 0.000341895007295534, -0.0043031927198171616, 0.002379033016040921, -0.0006490207160823047, -0.005271898116916418, -8.648443326819688e-05, 0.005072350148111582, -0.0005964057054370642, -0.0002784983371384442, 0.0016819130396470428, 0.0005347453407011926, 0.002866676077246666, 0.0037086117081344128, -0.00031628349097445607, 0.004527010023593903, -0.0012886354234069586, 0.0039136032573878765, -0.0028385964687913656, 0.002027984941378236, -0.0009181101340800524, 0.0017707364168018103, -0.0026063607074320316, -0.004154541529715061, -0.001586821163073182, -0.0011318507604300976, -0.0004908970440737903, 0.00045464388676919043, -0.0007581040845252573, 0.0019516291795298457, -0.001462007057853043, 0.002908757422119379, -0.0018066033953800797, 0.0018722255481407046, 0.0004027212271466851, 0.0007756307604722679, -0.002830886049196124, 0.0048545366153120995, -0.0038861853536218405, -0.005685517098754644], [0.0004789305094163865, 0.006586513482034206, 0.0005997940897941589, 0.003850545035675168, -0.0051877787336707115, 0.0005511923227459192, 0.0010094939498230815, 0.005318204406648874, -0.006374814547598362, -0.005763838533312082, -0.00129719078540802, 0.007026374340057373, -0.004295499064028263, 0.0010171737521886826, 0.0007955000037327409, 0.007940487004816532, 0.004009761847555637, 0.0016560049261897802, -0.0040654027834534645, -0.0021754689514636993, -0.006558163091540337, -0.0005329757113941014, -0.0013088291743770242, -0.0005239326856099069, -0.005720175802707672, 0.0027270501013845205, 0.00509689562022686, 0.007153810001909733, -0.0017130667110905051, 0.0008956084493547678, 0.00557850394397974, 0.0006529391976073384, -0.002497051376849413, -0.006920715793967247, -0.0007552476017735898, 0.006420491728931665, -0.0010718529811128974, 0.002294868230819702, -0.0028473001439124346, -0.0004096896736882627, -0.0063000889495015144, 0.0011255333665758371, -0.004987054970115423, 0.007492434699088335, -0.000454928376711905, 0.0002913139178417623, 0.002043799962848425, 0.004165211692452431, -0.0016080487985163927, 0.00375174917280674, -0.0031311793718487024, 0.0021070472430437803, -0.0036230231635272503, 0.002878829138353467, -0.004062867257744074, 0.0013995293993502855, -0.003890770487487316, 0.00387391890399158, -0.0030455035157501698, 0.005586537532508373, 0.005317871458828449, 0.0021552564576268196, -0.0062235076911747456, -0.004996220115572214, 0.002008781535550952, 0.001553322421386838, -0.006640217732638121, -0.00578977819532156, 0.006911248434334993, 0.007177490275353193, -0.0036942095030099154, -0.00798669271171093, -0.003035044763237238, 0.003215232864022255, -0.003654762636870146, 0.003339193295687437, -0.0030600600875914097, -0.007701686583459377, 0.0033272725995630026, 0.003523188875988126, 0.006715673953294754, 0.005866178311407566, -0.0065210191532969475, 0.0005532014765776694, 2.2613896817347268e-06, 0.00540637644007802, -0.006651944946497679, 0.0018137736478820443, -0.006435302086174488, 0.005409747827798128, -0.007452476304024458, 0.0046136341989040375, -0.0007890157867223024, -0.007428837940096855, -0.0010825629578903317, 0.0007322279852814972, -0.0017543360590934753, -0.002761491574347019, 0.008790137246251106, 0.00039745072717778385, 0.0021675811149179935, 0.0028092176653444767, -0.002005208982154727, 0.0017766975797712803, -0.003913259599357843, 0.000874298915732652, -0.00845030602067709, 0.00034780814894475043, -0.0008087289752438664, 0.007977415807545185, -0.007950770668685436, -0.0018256849143654108, -0.007209722883999348, -0.0023606051690876484, -0.0022490897681564093, 0.0024607733357697725, -0.003910543862730265, 0.005136799532920122, -0.004673105664551258, 0.006578932050615549, -0.0034828893840312958, 0.00883342232555151, 0.00540590938180685, 0.0002364650135859847, -0.003564466256648302, 0.0066509428434073925, -0.0003235136391595006, -0.0018316330388188362], [0.0036109040956944227, 0.0041577937081456184, 0.00033543806057423353, 0.00043055907008238137, -0.0025146373081952333, 0.003612946020439267, 0.003403661074116826, 0.0007971003069542348, -0.00033976638223975897, -0.006283630151301622, -0.00025539714260958135, 0.0020158046390861273, -0.003236908931285143, 0.0005813819589093328, 0.0002552503428887576, 0.00433595385402441, 0.00016044224321376532, 0.0016004448989406228, -0.002722440753132105, -0.0014478262746706605, -0.00027573888655751944, -0.0017133615911006927, -0.0011173695093020797, -0.004538606386631727, -0.0007451364654116333, 0.0015643619699403644, 0.001621454255655408, 0.0050780330784618855, -0.0001844794169301167, 0.0012079287553206086, 0.0031931186094880104, 0.0037555089220404625, -0.0036542038433253765, -0.0020560070406645536, -0.0013908804394304752, 0.0030787845607846975, -0.000446929014287889, 0.0007546601118519902, -0.0019676811061799526, -0.0037910398095846176, -0.00011889245070051402, 0.0004439519252628088, -0.0003039660514332354, 0.0007524818647652864, -0.0023386701941490173, 0.000480311136925593, 0.0028143732342869043, 0.002275083214044571, -0.0020626576151698828, 0.0031686474103480577, -0.00031517024035565555, 0.0018945710035040975, -0.0010855068685486913, 0.0021203826181590557, -0.00019997110939584672, 0.0006677478086203337, -0.0008489446481689811, 0.002146455692127347, -0.0016869930550456047, 0.00033179056481458247, 0.002620489103719592, 0.003429860109463334, -0.0015061115846037865, -0.0012998112943023443, 0.0007031051791273057, 0.0009790700860321522, -0.0038626366294920444, -0.0008242107578553259, 0.0009603300131857395, 0.003121197922155261, -0.0034662336111068726, -0.0023524838034063578, -0.0001173207929241471, 0.001605637138709426, -0.001056209090165794, 0.003390158526599407, -0.0010037588654085994, -0.001928204670548439, 0.0006089523667469621, 0.0025969459675252438, 0.006425661500543356, 0.003330185543745756, -0.000980985932983458, 0.002869355259463191, 0.0007117529166862369, 0.0011591905495151877, -0.0014913842314854264, 0.0025191456079483032, -0.0006919002044014633, 0.00210654828697443, -0.0025690896436572075, 0.002724303165450692, -0.0012005992466583848, -0.004732008092105389, -0.0016467178938910365, 0.0009436471154913306, -0.0012281325180083513, -0.0013559310464188457, 0.0011254503624513745, 0.0043918676674366, 0.0002992215158883482, 0.0031589213758707047, -0.0038769631646573544, 0.0009762212866917253, -0.0017252382822334766, 0.007313782814890146, -0.0011916280491277575, 0.0013387310318648815, -0.00045995519030839205, 0.0004542067472357303, -0.0018845339072868228, -0.0024277763441205025, -0.003120835404843092, -0.002223132411018014, -0.0028646416030824184, 0.001636739238165319, -0.0003304412239231169, 0.006606020033359528, -0.000771150051150471, 0.0014916828367859125, -0.001293197856284678, 0.005498857703059912, 7.875625306041911e-05, 0.0016285633901134133, -9.382311691297218e-05, 0.0001584897399879992, -0.0027259408961981535, -9.335512004327029e-05], [-0.0005331045249477029, -0.003957206383347511, -0.001433259341865778, -0.003644487587735057, 0.0062532685697078705, -0.0005562767619267106, -0.00034009426599368453, -0.0034390015061944723, 0.003447848604992032, 0.00569070503115654, 0.004516925197094679, -0.0054659475572407246, 0.003134492551907897, -0.000776040309574455, -0.00204647658392787, -0.005599169060587883, -0.0011289945105090737, -8.523174619767815e-05, 0.0022332021035254, 0.005116727668792009, 0.0048059821128845215, 0.002371671376749873, 0.008352000266313553, 0.004832275211811066, 0.0017321958439424634, -0.003735868725925684, -0.0036649347748607397, -0.005639229901134968, 0.0032753106206655502, -0.0034015376586467028, -0.0050349668599665165, -0.0005081683048047125, 0.0003972513077314943, 0.006309160031378269, 0.0005587165360338986, -0.004749394487589598, 0.0031584540847688913, -0.0038346839137375355, 0.006218956783413887, 0.002318598795682192, 0.002186794765293598, -0.00042100014979951084, 0.0016893921419978142, -0.0034593583550304174, 8.880440873326734e-05, -0.0010525668039917946, -0.0025061839260160923, -0.005030600819736719, 0.0034500290639698505, -0.0002715204027481377, 0.0011581436265259981, -0.0013946230756118894, 0.005199046339839697, -0.0022976379841566086, 0.001019163872115314, -0.003599388524889946, 0.0015417849645018578, -0.008350382559001446, 0.005052562337368727, -9.950573439709842e-05, -0.0017421123338863254, -0.0018993847770616412, 0.0027953898534178734, 0.0016343430615961552, -0.001092675025574863, -0.0005548461340367794, 0.0013733026571571827, 0.0011023503029718995, -0.0019767298363149166, -0.001991020981222391, 0.00217505288310349, 0.0020671470556408167, 0.006436473224312067, -0.0015671891160309315, 0.0033714380115270615, -0.001781162223778665, 0.001147942733950913, 0.001847757725045085, -0.008831591345369816, -0.005805840715765953, -0.006451949942857027, -0.0004935256438329816, 0.00010608411685097963, -0.007395853754132986, -0.00047238607658073306, -0.0021612532436847687, 0.0059155612252652645, -0.0015654412563890219, 0.004416921176016331, -0.005041508935391903, 0.0009761489927768707, -0.0037249927408993244, 0.003608710365369916, 0.004321451298892498, 0.0020275244023650885, -0.0005373790627345443, 0.006738802418112755, 0.00489160418510437, -0.005487189628183842, -0.005204438231885433, -0.00023918936494737864, -0.00114014046266675, 0.005746971815824509, -0.00013745954493060708, 0.0036610118113458157, -0.007104911375790834, 0.005284400191158056, -0.0011531640775501728, 0.0028839544393122196, -0.003885573474690318, 0.0029200685676187277, 0.0016110329888761044, 0.002347585279494524, 0.0057289800606667995, 0.0021587118972092867, -0.0037778448313474655, 0.004020479042083025, -0.00041665625758469105, 0.0010996876517310739, -0.003890861989930272, 0.007188299670815468, -0.0015393831999972463, -0.0032966069411486387, -0.004796502646058798, 7.727529009571299e-05, -0.0003038508293684572, 0.00557514326646924, 0.0022004730999469757], [-0.00021355536591727287, -0.0009125281358137727, -0.001300597912631929, -0.001314325723797083, 0.0017324367072433233, -0.0021269614808261395, -0.003986831288784742, -0.0019383092876523733, 0.002905649831518531, 0.0012344795977696776, 0.0006248445133678615, -0.0018400391563773155, 0.0018247648840770125, -0.0021178550086915493, -0.0008368565468117595, -0.006659307051450014, -0.004221660550683737, -0.0007157768122851849, 0.0007312108064070344, 0.0019613527692854404, 0.0016834523994475603, 0.002080066129565239, 0.0002487766614649445, 0.0003719578089658171, 0.005595599301159382, -0.0017836777260527015, -0.0018614712171256542, -0.006245911121368408, 0.0031505117658525705, -0.001342901960015297, -0.0034902850165963173, -0.003492617281153798, 0.0018011474749073386, 0.00115231575910002, 0.005855560302734375, -0.0010255752131342888, 0.0023305451031774282, -0.0007923193043097854, 0.0021023505832999945, 0.00321781262755394, 0.0008405386470258236, -0.000490177480969578, 0.005875599570572376, -0.001940439222380519, 0.002314889570698142, -0.003428027266636491, -0.0008044075220823288, -0.0018288556020706892, 0.0009727535652928054, -0.0025519258342683315, 0.0035970648750662804, -0.004330838099122047, 0.0003503735351841897, -0.004560904577374458, 0.005136178806424141, -0.0010936667677015066, 0.00025338144041597843, -0.004550890065729618, 9.917739225784317e-05, -0.001164608751423657, -0.0036894497461616993, -4.845145303988829e-05, 0.0023491668980568647, 0.0011679210001602769, -0.0008420562953688204, -0.005186246708035469, 5.940489063505083e-05, 0.004915707744657993, -0.0024382160045206547, -0.00029971334151923656, 0.0035212356597185135, 0.0062787351198494434, 0.0020297481678426266, -0.004001469351351261, 0.0003452730306889862, -0.0012540268944576383, 0.0011523265857249498, 0.0028845160268247128, -0.002843577181920409, -0.0027112027164548635, -0.004222594667226076, -0.0004346504283603281, 0.005539329722523689, -0.0009841772262006998, -0.0033515524119138718, -0.00306870904751122, 0.0007736699189990759, -0.006887438241392374, 0.0016530907014384866, -0.00424437178298831, 0.005243041552603245, -0.00014104938600212336, 0.0002834321348927915, 0.001994782593101263, 0.0026175212115049362, -0.0006460032891482115, 0.003503914223983884, 0.003084221389144659, -0.0007007100502960384, -0.001201920909807086, -0.0019637453369796276, -0.003531424794346094, 7.424277282552794e-05, -0.00035237419069744647, 0.003970554564148188, -0.006671145558357239, 2.5245755750802346e-05, -0.001745670917443931, 0.005518181715160608, -0.006087043322622776, 0.0038216328248381615, 0.003957132808864117, 0.0018196876626461744, 0.002023394452407956, 0.0012570684775710106, -0.00042979727732017636, 0.0010492089204490185, -0.005947542376816273, 0.0027930745854973793, -0.005394924432039261, 0.0008910716278478503, -0.00828860979527235, -0.001314409775659442, -0.0009700569207780063, 0.004357907921075821, -0.00024363739066757262, 0.0034664305858314037, 0.005884589161723852], [0.0054192314855754375, 0.02300252951681614, 0.006015119608491659, 0.016265148296952248, -0.0044341618195176125, 0.005152611993253231, 0.008902814239263535, 0.0028780291322618723, -0.007396589498966932, -0.0254011619836092, -0.0021672872826457024, 0.005232282914221287, -0.02870660275220871, 0.01846035197377205, 0.0042183478362858295, 0.005653525236994028, 0.009022695012390614, 0.004709500819444656, -0.023145463317632675, -0.025463154539465904, -0.005202521104365587, -0.02063584513962269, -0.025368571281433105, -0.01628449186682701, -0.023221302777528763, 0.00900169275701046, 0.02496023289859295, 0.01886487938463688, -0.01589900255203247, 0.013204210437834263, 0.018586402758955956, 0.02495633438229561, -0.024195926263928413, -0.021026702597737312, -0.01502284687012434, 0.010809414088726044, -0.008323459886014462, 0.014989634975790977, -0.0053888848051428795, -0.02224002406001091, -0.008990398608148098, 0.01598566211760044, -0.00472582271322608, 0.0034102534409612417, -0.003375342348590493, 0.026836760342121124, 0.021039962768554688, 0.02811034582555294, -0.016177646815776825, 0.020845523104071617, -0.00435163639485836, 0.00601917551830411, -0.005411786027252674, 0.010244425386190414, -0.0017380034551024437, 0.005651387851685286, -0.009771153330802917, 0.00529063306748867, -0.01616526022553444, 0.024488111957907677, 0.027411626651883125, 0.006445828825235367, -0.011194583028554916, -0.02131761983036995, 0.025056609883904457, 0.005923603195697069, -0.014609484933316708, -0.014569249004125595, 0.002163270954042673, 0.025128165259957314, -0.021768227219581604, -0.029248617589473724, -0.004933539777994156, 0.023296693339943886, -0.0077400594018399715, 0.013067861087620258, -0.03188854828476906, -0.022096678614616394, 0.005669435020536184, 0.01070760004222393, 0.02079608291387558, 0.02064075879752636, -0.00958687998354435, 0.022002235054969788, 0.02010316401720047, 0.022908886894583702, -0.00893610529601574, 0.020919181406497955, -0.014019525609910488, 0.005185398738831282, -0.00469507509842515, 0.016107603907585144, -0.019800184294581413, -0.005735529121011496, -0.014107773080468178, 0.028484484180808067, -0.017502477392554283, -0.016528144478797913, 0.01831873506307602, 0.007353391498327255, 0.022785648703575134, 0.0028225912246853113, -0.0074944575317204, 0.004089471884071827, -0.009954220615327358, 0.0298753771930933, -0.010215443558990955, 0.021512404084205627, -0.023569447919726372, 0.019916675984859467, -0.022913048043847084, -0.022505197674036026, -0.006888141855597496, -0.013862410560250282, -0.0015434359665960073, 0.003319256938993931, -0.008053112775087357, 0.004985148552805185, -0.014991228468716145, 0.016247354447841644, -0.018757972866296768, 0.015065272338688374, 0.012493317015469074, 0.005884895566850901, -0.009701796807348728, 0.019029051065444946, -0.022541094571352005, -0.026575788855552673], [-0.018307309597730637, -0.012184157967567444, -0.00608578696846962, -0.012982813641428947, 0.010573768988251686, -0.02032647840678692, -0.016049347817897797, -0.012343435548245907, 0.01458634715527296, 0.014453031122684479, 0.012496872805058956, -0.012082728557288647, 0.018547456711530685, -0.008352205157279968, -0.027350137010216713, -0.010735183954238892, -0.017029782757163048, -0.010568342171609402, 0.006917019374668598, 0.013363012112677097, 0.010659503750503063, 0.01098260935395956, 0.009775868616998196, 0.006938799284398556, 0.00987346563488245, -0.023232396692037582, -0.012877793051302433, -0.014181388542056084, 0.006463257595896721, -0.007825476117432117, -0.014388158917427063, -0.008871283382177353, 0.009067881852388382, 0.005612984765321016, 0.005059739109128714, -0.012013199739158154, 0.006586740259081125, -0.013536048121750355, 0.013420435599982738, 0.004163452889770269, 0.006305198650807142, -0.011491203680634499, 0.013323036953806877, -0.011895705945789814, 0.013740154914557934, -0.011448832228779793, -0.016252556815743446, -0.010019673965871334, 0.057131554931402206, -0.00799880176782608, 0.00932688545435667, -0.009526361711323261, 0.010231430642306805, -0.010248958133161068, 0.020087216049432755, -0.01398896798491478, 0.010855303145945072, -0.00872864481061697, 0.016785135492682457, -0.006677246652543545, -0.011338209733366966, -0.009850175119936466, 0.01772020012140274, 0.006746695842593908, -0.006084383465349674, -0.011193178594112396, 0.009929855354130268, 0.00633879192173481, -0.011247104033827782, -0.009313400834798813, 0.008613786660134792, 0.019990528002381325, 0.01080363430082798, -0.008229714818298817, 0.02825840562582016, -0.014459599740803242, 0.009331047534942627, 0.008007061667740345, -0.012380198575556278, -0.019016506150364876, -0.030114680528640747, -0.012313436716794968, 0.011016260832548141, -0.005993721541017294, -0.006195047404617071, -0.016790779307484627, 0.01563456654548645, -0.009550060145556927, 0.006759089417755604, -0.013355300761759281, 0.009742699563503265, -0.008677182719111443, 0.012238208204507828, 0.00668367138132453, 0.005962647497653961, -0.010347830131649971, 0.010009072721004486, 0.008836626075208187, -0.07812558859586716, -0.005557307507842779, -0.011525928974151611, -0.012954900041222572, 0.10451619327068329, -0.00788809359073639, 0.015318762511014938, -0.016308186575770378, 0.02239183709025383, -0.01081865094602108, 0.05833863466978073, -0.008713066577911377, 0.009286466985940933, 0.01424077432602644, 0.011771383695304394, 0.011360088363289833, 0.005791605915874243, -0.010433418676257133, 0.014538559131324291, -0.016317065805196762, 0.005019805859774351, -0.0069298166781663895, 0.010938798077404499, -0.014208601787686348, -0.004322455730289221, -0.012010137550532818, 0.0034278694074600935, -0.009007844142615795, 0.007256573531776667, 0.009179845452308655], [0.002247276483103633, 0.008995689451694489, 0.006328507326543331, 0.0029155376832932234, -0.0037440555170178413, 0.00648190313950181, 0.0016141844680532813, 0.0033728410489857197, -0.0020278291776776314, -0.0004982450045645237, -0.006507835816591978, 0.007854011841118336, -0.0014145653694868088, 0.0007685382734052837, 0.006434887647628784, 0.006156523711979389, 0.005948544479906559, 0.007939381524920464, -0.005058575421571732, -0.0036260311026126146, -0.0012139072641730309, -0.0018122497713193297, -0.007486181333661079, -0.001951261074282229, -0.005665710661560297, 0.0029612795915454626, 0.005436818581074476, 0.009462404996156693, -0.0024447026662528515, 0.0016308043850585818, 0.0021160186734050512, 0.000906607077922672, -0.002240230794996023, -0.0028388097416609526, -0.0003686131676658988, 0.005380486138164997, -0.001992064993828535, 0.001570133725181222, -0.0018436753889545798, -0.005484763998538256, -6.644439417868853e-05, 0.004079521633684635, -0.001048165955580771, 0.007502559572458267, -0.0015419510891661048, 0.0034901853650808334, 0.00048349497956223786, 0.003860075492411852, -0.0007487784023396671, 0.008152483031153679, -0.0008515504305250943, 0.004457887727767229, -0.003895791247487068, 0.0015904473839327693, -0.0037082030903548002, 0.0005515226512216032, -0.005660807713866234, 0.005026726517826319, -0.0004340740561019629, 0.006918482948094606, 0.001223614439368248, 0.0035778461024165154, -0.001925540855154395, -0.008373270742595196, 0.0022826099302619696, 0.009143111295998096, -0.008080914616584778, -0.0016718849074095488, 0.0012850118800997734, 0.0013813734985888004, -0.005062047857791185, -0.0035212140064686537, -0.0014211285160854459, 0.001279146526940167, -0.00029254989931359887, 0.0024600622709840536, -0.00039221160113811493, -0.0035441897343844175, 0.0076017826795578, 0.002785980235785246, 0.0014955975348129869, 0.004102039150893688, -0.0023518516682088375, 0.007792335003614426, 0.0066044023260474205, 0.004071560688316822, -0.0012135790893808007, 0.000911655486561358, -0.000560926680918783, 0.0035434390883892775, -0.005255183670669794, 0.0014480100944638252, -0.0012517068535089493, -0.006876223720610142, -0.007924675941467285, 0.0038458749186247587, -0.003577324328944087, -0.0005926077719777822, 0.00010825445497175679, 0.007722028065472841, 0.007917960174381733, 0.0014182679587975144, -0.0005596274277195334, 0.0053419675678014755, -0.005351947154849768, 0.009537292644381523, -0.007530455477535725, 0.0011337155010551214, -0.001518772915005684, 0.0014587468467652798, -0.009995131753385067, -0.001688459306024015, -0.00727543979883194, -0.004878439009189606, -0.005291018169373274, 0.002349139889702201, -0.003027269383892417, 0.0029800517950206995, -0.0024578687734901905, 0.00015062167949508876, -0.0014166508335620165, 0.00975821353495121, 0.0009874266106635332, 0.005109194200485945, -0.004047352820634842, 0.0016664343420416117, -0.007777707185596228, -0.0017821169458329678], [-0.01735774241387844, -0.011313576251268387, -0.004877340979874134, -0.010704776272177696, 0.0065820487216115, -0.008062082342803478, -0.01857309229671955, -0.010553719475865364, 0.019111881032586098, 0.019826823845505714, 0.015381037257611752, -0.010094581171870232, 0.013868564739823341, -0.009141173213720322, -0.028839780017733574, -0.01225043460726738, -0.020290855318307877, -0.01396909262984991, 0.00942462682723999, 0.010000871494412422, 0.004444296471774578, 0.010170943103730679, 0.006303682457655668, 0.014291178435087204, 0.006228962913155556, -0.027245961129665375, -0.013899845071136951, -0.005295560695230961, 0.008999569341540337, -0.004006573930382729, -0.00534901162609458, -0.016985202208161354, 0.01811332069337368, 0.00855268258601427, 0.006941779982298613, -0.010224143974483013, 0.013089200481772423, -0.012327860109508038, 0.0072937095537781715, 0.007722002454102039, 0.006599279120564461, -0.014688408933579922, 0.010933532379567623, -0.012106530368328094, 0.010315867140889168, -0.007371334824711084, -0.012822062708437443, -0.007954283617436886, 0.068731889128685, -0.009575673379004002, 0.010529333725571632, -0.01074952445924282, 0.01283328514546156, -0.01714642532169819, 0.013140779919922352, -0.014374877326190472, 0.01686100661754608, -0.009752609767019749, 0.044546615332365036, -0.010974831879138947, -0.004431198351085186, -0.014850951731204987, 0.012834292836487293, 0.01979159377515316, -0.011588837951421738, -0.009965449571609497, 0.009269891306757927, 0.02551286667585373, -0.01855713129043579, -0.024482781067490578, 0.009071667678654194, 0.004950320813804865, 0.018588483333587646, -0.017555294558405876, 0.010076972655951977, -0.009270052425563335, 0.005493795033544302, 0.018056640401482582, -0.023498792201280594, -0.01668153889477253, -0.030291805043816566, -0.01131159346550703, 0.011720944195985794, -0.012464363127946854, -0.02929462492465973, -0.009956670925021172, 0.007361093536019325, -0.01756913959980011, 0.010624242015182972, -0.007835639640688896, 0.004750831052660942, -0.00691676652058959, 0.010136988945305347, 0.00824151560664177, 0.01893511787056923, -0.010905097238719463, 0.005339666735380888, 0.00924744550138712, -0.05650410056114197, -0.010105453431606293, -0.011211483739316463, -0.009243852458894253, 0.06751417368650436, -0.006706423591822386, 0.08375491946935654, -0.01179154496639967, 0.008598597720265388, -0.012980692088603973, 0.03443068265914917, -0.014233243651688099, 0.0049876561388373375, 0.010974102653563023, 0.01013035885989666, 0.011045440100133419, 0.007580944802612066, -0.013421698473393917, 0.008380883373320103, -0.012200770899653435, 0.01117860246449709, -0.00515149999409914, 0.01945853978395462, -0.005745388101786375, -0.018742840737104416, -0.009108236990869045, 0.0183237437158823, -0.010219376534223557, 0.010044865310192108, 0.00911251176148653], [0.0014577419497072697, 0.00189673388376832, 0.001589308027178049, 0.005249806214123964, -0.0011745180236175656, 0.00435450067743659, 0.003792080795392394, 0.004321272484958172, -0.0047474997118115425, -0.0023880708031356335, -0.00129815808031708, 0.0024745394475758076, -5.501972191268578e-05, 0.0036222529597580433, 0.001504083862528205, 0.0005402413662523031, 0.0012427687179297209, 0.0012891074875369668, -0.0017751917475834489, -0.001498067518696189, -0.006440651603043079, -0.0007952020387165248, -0.0001735903788357973, -0.00030093701207078993, -0.002385384403169155, 0.0027490141801536083, 0.005911269690841436, 0.0019552945159375668, -0.004193182103335857, 0.00010864799696719274, 0.0018418411491438746, 0.0003076252469327301, -0.006165474187582731, -0.0016734470846131444, -0.0032494585029780865, 0.0013220114633440971, -0.004317129496484995, 0.0038744958583265543, -0.0002802751841954887, -0.0017817707266658545, -0.004334874916821718, 0.001335838227532804, -1.5109906598809175e-05, 0.005886126775294542, -0.006486549507826567, 0.0008035554201342165, 0.003424061695113778, 0.0042220475152134895, -0.0066154953092336655, 0.0016569342697039247, -0.00268977927044034, 0.0019720164127647877, -0.0053474088199436665, 0.0013678892282769084, -0.005772183649241924, 0.00011799603089457378, -0.0012766984291374683, 0.0006050060619600117, -0.004858678672462702, 0.0002884651767089963, 0.0010085183894261718, 0.00042993249371647835, -0.002299792133271694, -0.0014206771738827229, 0.0003634959284681827, 0.0009169770055450499, -0.004989472217857838, -0.002818471286445856, 0.0024504486937075853, 5.287212843541056e-05, -0.0005171547527424991, -5.0375099817756563e-05, -0.001856946968473494, 0.00158396374899894, -0.0014940720284357667, 0.00045913620851933956, -0.001277188421227038, -0.0008140449644997716, 0.0008499540854245424, 0.002722238888964057, 0.006558950524777174, 0.002893065568059683, -0.001854842295870185, 0.0016427129739895463, 0.004083030391484499, 0.0071147349663078785, -0.0037078317254781723, 0.001101888483390212, -0.0023267294745892286, 0.0009511419339105487, -7.848826498957351e-05, 0.0016468189423903823, -0.005469596479088068, -0.0001405894145136699, -0.0007290579378604889, 0.0017726541263982654, -0.0018725675763562322, -0.00042256590677425265, 0.0029137192759662867, 0.004055481404066086, 0.0030562742613255978, 0.003384668380022049, -0.00048790453001856804, 0.004059681668877602, -0.0005524003063328564, 0.0017314116703346372, -0.0022794282995164394, 0.004877578932791948, -0.0012492306996136904, 0.0030101004522293806, -0.0025649704039096832, -0.0022324195597320795, -0.002950334455817938, -0.0031114842277020216, -0.00019298045663163066, 0.001771233743056655, -0.0009950997773557901, 0.0014827733393758535, -0.002708273008465767, 0.0042123813182115555, -0.004980867728590965, 0.0028482803609222174, 0.0024311149027198553, 7.292516238521785e-05, -0.004878222942352295, 0.005759809631854296, -3.791005383391166e-06, -0.0023240139707922935], [-0.010266424156725407, -0.014624976553022861, -0.008335700258612633, -0.002931395312771201, 0.011722682975232601, -0.00044644763693213463, -0.006124102510511875, -0.005041320808231831, 0.007345062680542469, 0.006495725363492966, 0.00295892427675426, -0.0021466296166181564, 0.003191296011209488, -0.009236529469490051, -0.00517834909260273, -0.005365236662328243, -0.0018731803866103292, -0.005981967318803072, 0.014243347570300102, 0.0028556569013744593, 0.00935063511133194, 0.0027813848573714495, 0.006428776774555445, 0.013683222234249115, 0.002467767335474491, -0.0007179212989285588, -0.008140883408486843, -0.012933861464262009, 0.0027756409253925085, -0.007105579134076834, -0.0044433483853936195, -0.0024643447250127792, 0.013194719329476357, 0.012078041210770607, 0.0022483530919998884, -0.004979450721293688, 0.006704775616526604, -0.0018633442232385278, 0.0037587308324873447, 0.012337415479123592, 0.003333212109282613, -0.003275832626968622, 0.0012104784836992621, -0.009402706287801266, 0.0031513464637100697, -0.013249276205897331, -0.0057857525534927845, -0.014829945750534534, 0.007961228489875793, -0.006733451038599014, 0.005921871401369572, -0.003208702662959695, 0.0055040414445102215, -0.00045235673314891756, 0.004009499680250883, -0.0007366944919340312, 0.011363969184458256, -0.004827399738132954, 0.002399766119197011, -0.0032530841417610645, -0.0030759163200855255, -0.008320772089064121, 0.0009969213278964162, 0.003195706056430936, -0.0031204018741846085, -0.022166943177580833, 0.005996862426400185, 0.004342157393693924, -0.004769606981426477, -0.004226474091410637, 0.0029413029551506042, 0.0031414933037012815, 0.0027383286505937576, -0.010930193588137627, 0.001915461616590619, -0.0032682749442756176, 0.0028103706426918507, 0.00836259126663208, -0.005756046157330275, -0.001975404564291239, -0.00493684271350503, -0.005409910809248686, 0.008485164493322372, -0.007179120555520058, -9.500665328232571e-05, -0.009738423861563206, 0.01248572114855051, -0.0022580118384212255, 0.002994123613461852, -0.013426740653812885, 0.0034404215402901173, -0.008397163823246956, 0.008594860322773457, 0.002362937433645129, 0.006961269304156303, -0.01656748540699482, 0.0092305364087224, 0.005422451067715883, -0.007457043044269085, -0.00319887837395072, -0.0026185528840869665, -0.01122679840773344, 0.007021292578428984, -0.0044777048751711845, 0.005207337439060211, -0.009373953565955162, 0.0023378722835332155, -0.0064547741785645485, 0.005881892051547766, -0.0007700574933551252, 0.015086755156517029, 0.006326865404844284, 0.001753128133714199, 0.011332978494465351, 0.0010763454483821988, -0.00642916327342391, 0.006486298516392708, -0.004341282416135073, 0.0027185489889234304, -0.0023650152143090963, 0.006865226197987795, -0.009481514804065228, -0.0035239991266280413, -0.005965728312730789, 0.00525688799098134, -0.00024825806031003594, 0.0028516429010778666, 0.006838330999016762], [-0.006661619059741497, -0.0005656580324284732, -0.006772793363779783, -0.004603182431310415, 0.006480546668171883, -0.0008125185267999768, -0.0015339319361373782, -0.00196724571287632, 0.007110673934221268, 0.004790136124938726, 0.004360476974397898, -0.005838301498442888, 0.0009064555051736534, -0.0015705311670899391, -0.003043143777176738, -0.0008709325338713825, -0.005606595426797867, -0.000567479757592082, 0.0008984948508441448, 0.004393697716295719, 0.007450340781360865, 0.007149883545935154, 0.005390385631471872, 0.0022827235516160727, 0.005206624045968056, -0.006607836578041315, -0.004726850893348455, -0.0011246848152950406, 0.005125187803059816, -0.0014967925380915403, -0.00017525067960377783, -0.00534960487857461, 0.001345536787994206, 0.0014104580041021109, 0.0029192278161644936, -0.007287744432687759, 0.0005578525015152991, -0.0014612912200391293, 0.008002026006579399, 0.006964842788875103, 0.004618856590241194, -0.006750041618943214, 0.005863568279892206, -0.001657517859712243, 0.008085587061941624, -0.001915237051434815, -0.008222502656280994, -0.0025610546581447124, 0.0014238719595596194, -0.0038212579675018787, 0.0016414908459410071, -0.0005081436247564852, 0.0016198208322748542, -0.0006624616216868162, 0.004312364384531975, -0.0002453363558743149, 0.001586302649229765, -0.0013531126314774156, 0.0038876603357493877, -0.001667903270572424, -0.0008357473998330534, -0.0035164328292012215, 0.0015929787186905742, 0.002972173737362027, -0.001425654161721468, -0.000345799169735983, 0.0018701149383559823, 0.003926777746528387, -0.005905349273234606, -0.006945721339434385, 0.0013867912348359823, 0.007116492837667465, 0.0014557038666680455, -0.007302990183234215, 0.0027128439396619797, -0.0037769570481032133, 0.004925556015223265, 0.0013084850506857038, -0.0077772899530828, -0.006969169247895479, -0.004939878359436989, -0.003432922065258026, 0.0007307564956136048, -0.0036348565481603146, -0.005407088436186314, -0.001385597395710647, 0.006376911886036396, -0.004135622642934322, 0.007570961490273476, -0.004170399624854326, 0.00030130401137284935, -0.003201270941644907, 0.006309139542281628, 0.007344326004385948, 0.004940547980368137, -0.0007797348080202937, 0.003008166328072548, 0.005487905815243721, -0.008528809063136578, -0.006521696224808693, -0.0020596696995198727, -0.0012290559243410826, 0.0030512947123497725, -0.005104903597384691, 0.004755984526127577, -0.004138949327170849, 0.004381976090371609, -0.004847621079534292, 0.001957731321454048, -0.0016014919383451343, 0.0014149104245007038, 0.006985384970903397, 0.004099752753973007, 0.0019260693807154894, 0.0007132177706807852, -0.0027198444586247206, 0.004066154360771179, -0.0017480079550296068, 0.0034317420795559883, -0.0060723815113306046, 0.0014679122250527143, -0.0010371298994868994, -0.002910531824454665, -0.002157564740628004, 0.0019017645390704274, -0.0013675199588760734, 0.0005470314063131809, 0.0085940882563591], [0.0005924726719968021, 0.0001778288569767028, 0.005483325105160475, 0.0029516336508095264, -0.0032895226031541824, 0.0017212370876222849, 0.0010777181014418602, 0.000457649992313236, -0.0023992538917809725, -0.0028218436054885387, -0.0018813080387189984, 0.0008756433962844312, -0.0016379677690565586, 0.002566827926784754, 0.00022122240625321865, 0.001999428728595376, 0.0013558854116126895, 0.0035529688466340303, -0.0010871341219171882, -0.00012378933024592698, -0.001990769524127245, -0.0017906069988384843, -0.0030591620597988367, -0.005313639063388109, -0.0012279832735657692, 0.0005507703172042966, 0.0037803056184202433, 0.005543201696127653, -0.001601925352588296, 0.00012539743329398334, 0.004171185195446014, 0.0012477482669055462, -0.0007426469237543643, -0.004342485684901476, -0.0021374127827584743, 0.0028329554479569197, -0.0011051709298044443, 0.004111865069717169, -0.0004327107162680477, -0.005532677751034498, -2.4399900212301873e-05, 0.0011941604316234589, -0.0009001393336802721, 0.002330344170331955, -0.001599024049937725, 0.003145406488329172, 0.0006455501425080001, 0.0014184641186147928, -0.002245308132842183, 0.0012117208680137992, -0.0032370025292038918, 0.0034941467456519604, -0.002282453700900078, 0.00024283601669594646, -0.0005148991476744413, 0.003960940986871719, -0.000444597884779796, 0.0002461438125465065, -0.004303502384573221, 0.0038182747084647417, 0.001069586374796927, 0.004751137457787991, -0.0021006385795772076, -0.00014215809642337263, 0.002814810024574399, 0.0005142650916241109, -0.00515779759734869, -0.0008660966414026916, 0.005997925065457821, 0.0021112426184117794, -0.0012377423699945211, -0.0024496419355273247, -0.004533982835710049, 0.0003271567984484136, -0.0017759447218850255, 0.003789493814110756, -0.0015136515721678734, -0.0014548077015206218, 0.006341424770653248, 0.0037764902226626873, 0.0016643122071400285, 0.0009144432260654867, -0.0002887739392463118, 0.0007815582794137299, 0.0010396471479907632, 0.004767863545566797, -0.0018856729147955775, 0.0032567023299634457, -0.0011190032819285989, 0.0003880502481479198, -0.0005558815319091082, 0.0013313315575942397, -0.001007598708383739, -0.00277106836438179, -0.000842893379740417, 0.001592316199094057, -0.0007350012310780585, -0.0005834201001562178, 0.0032626057509332895, 0.006050436291843653, 0.0014576488174498081, 3.779588587349281e-05, -0.001355208340100944, 0.001365829724818468, -0.0045327902771532536, 0.004239656031131744, -0.003102916292846203, 0.00032539627864025533, -0.001185714383609593, 0.0023911341559141874, -0.0003257743373978883, -0.0025607256684452295, -1.1059001735702623e-05, -0.003017572918906808, -0.0005131502985022962, 0.0009733831393532455, -0.0043767779134213924, 0.0022692177444696426, -0.003828628221526742, 0.004453722387552261, -0.000616289849858731, 0.0015233749290928245, 0.0022268241737037897, 0.00019864083151333034, -0.005395606625825167, 0.001906306017190218, -0.00012826864258386195, -0.003594197565689683], [0.03844341263175011, 0.04892482981085777, 0.034398410469293594, 0.03183266893029213, -0.038875922560691833, 0.03324594348669052, 0.0473957359790802, 0.032215699553489685, -0.004652641713619232, -0.020030004903674126, -0.03252655640244484, 0.004246857948601246, -0.013953134417533875, 0.038905080407857895, 0.0298529751598835, 0.02043915167450905, 0.03754480555653572, 0.02955406717956066, -0.04407274350523949, -0.04525582864880562, -0.009319262579083443, -0.043630264699459076, -0.013582412153482437, -0.0349886529147625, -0.023936394602060318, 0.026245979592204094, 0.043917637318372726, 0.006055322475731373, -0.03456204757094383, 0.039753954857587814, 0.02146865427494049, 0.043664202094078064, -0.004597481340169907, -0.038270872086286545, -0.03550291806459427, 0.038728050887584686, -0.0056855082511901855, 0.02758350409567356, -0.053548891097307205, -0.034477077424526215, -0.033008817583322525, 0.041868291795253754, -0.007013710215687752, 0.015017107129096985, -0.009252170100808144, 0.044242169708013535, 0.030027197673916817, 0.005573710426688194, -0.006811756175011396, 0.038757581263780594, -0.03155595809221268, 0.010839915834367275, -0.02677580527961254, 0.03019597753882408, -0.029863037168979645, 0.03614556044340134, -0.03889034688472748, 0.03332815691828728, -0.025372633710503578, 0.05012909695506096, 0.04668907821178436, 0.04509201645851135, -0.03730941191315651, -0.040643252432346344, 0.04522056132555008, 0.04976310208439827, -0.04112168401479721, -0.03396126627922058, 0.02781258150935173, 0.027312103658914566, -0.05508970469236374, -0.0060678464360535145, -0.040499038994312286, 0.03936658054590225, -0.0068642860278487206, 0.029576461762189865, -0.03648843988776207, -0.05547608435153961, 0.005091206636279821, 0.037940967828035355, 0.015754129737615585, 0.03737209737300873, -0.04352317005395889, 0.043254319578409195, 0.03443938493728638, 0.04339485242962837, -0.04458315670490265, 0.03797641769051552, -0.02859066054224968, 0.048217810690402985, -0.03452010452747345, 0.038023948669433594, -0.03799546882510185, -0.03356598690152168, -0.043494824320077896, 0.046807531267404556, -0.03400281071662903, -0.040723834186792374, 0.017666971310973167, 0.036144599318504333, 0.03151294216513634, 0.04320993646979332, -0.014154026284813881, 0.03390483558177948, -0.02072569541633129, 0.04415952414274216, -0.03257177025079727, 0.010993745177984238, -0.02214393950998783, 0.012922126799821854, -0.053480103611946106, -0.013362264260649681, -0.04026216268539429, -0.018729744479060173, -0.0327889546751976, 0.02459215186536312, -0.029077237471938133, 0.03401385620236397, -0.004582400433719158, 0.02975589781999588, -0.03280690684914589, 0.03654616326093674, 0.022490564733743668, 0.03250759467482567, -0.005266744643449783, 0.04306214675307274, -0.05124074965715408, -0.055048804730176926], [0.04387383162975311, 0.036214739084243774, 0.045682769268751144, 0.0076308962889015675, -0.004783069249242544, 0.04620331898331642, 0.04368605092167854, 0.03611135482788086, -0.04380066692829132, -0.03437911719083786, -0.008503287099301815, 0.005814224947243929, -0.04169898480176926, 0.041203007102012634, 0.046892862766981125, 0.04553813487291336, 0.04218323528766632, 0.04515552148222923, -0.039675891399383545, -0.005013756453990936, -0.03662136197090149, -0.03748764470219612, -0.004491517785936594, -0.032027341425418854, -0.04079640656709671, 0.03886718302965164, 0.03706837072968483, 0.01469425018876791, -0.05027797818183899, 0.03554430603981018, 0.035881660878658295, 0.03709923103451729, -0.04355696588754654, -0.044971320778131485, -0.04559736326336861, 0.004566818010061979, -0.044606562703847885, 0.04040098935365677, -0.010194329544901848, -0.0460495799779892, -0.04992111772298813, 0.038531940430402756, -0.008350304327905178, 0.04502439498901367, -0.00560794910416007, 0.04026046767830849, 0.046582262963056564, 0.03708026185631752, -0.028221307322382927, 0.038418419659137726, -0.04333854839205742, 0.03179095685482025, -0.04287311062216759, 0.04936229810118675, -0.03758961334824562, 0.05026141181588173, -0.03609659522771835, 0.008214165456593037, -0.0033944479655474424, 0.00278736581094563, 0.00476857041940093, 0.03939800336956978, -0.036659352481365204, -0.004346220288425684, 0.027615154162049294, 0.0019922503270208836, -0.0349513441324234, -0.04250376671552658, 0.03981955721974373, 0.0473223440349102, -0.01803475245833397, -0.007252050563693047, -0.04975942522287369, 0.0076187774538993835, -0.044366978108882904, 0.04448530822992325, -0.04717649891972542, -0.00665812473744154, 0.002102548023685813, 0.025729317218065262, 0.008097287267446518, 0.03763546422123909, -0.006494507193565369, 0.037978485226631165, 0.043939437717199326, 0.03932676464319229, -0.0027154479175806046, 0.04478771612048149, -0.009692363440990448, 0.007528025656938553, -0.04795887693762779, 0.04904375597834587, -0.042856115847826004, -0.03947581350803375, -0.012523584067821503, 0.0017927526496350765, -0.005649773869663477, -0.04606417566537857, 0.011164898984134197, 0.05508840084075928, 0.004453723784536123, 0.00799450185149908, -0.02704888954758644, 0.04875322803854942, -0.020886743441224098, 0.039021436125040054, -0.045646704733371735, 0.03919362276792526, -0.0333329476416111, 0.004060888662934303, -0.028373293578624725, -0.010096345096826553, -0.04203208535909653, -0.032401345670223236, -0.04653598368167877, 0.04385685175657272, -0.046306148171424866, 0.0501900278031826, -0.04170837998390198, 0.04189138859510422, -0.03893376886844635, 0.005811944603919983, 0.00460801413282752, 0.04626963287591934, -0.00413154624402523, 0.042583588510751724, -0.005036541726440191, -0.007456695195287466], [0.0019429837120696902, 5.2161947678541765e-05, 0.002939199795946479, 0.004232038278132677, -0.003069436876103282, 0.002332874573767185, 0.00018311550957150757, 0.002335033379495144, -0.0004842554044444114, -0.0005868629668839276, -0.0019279631087556481, 0.0026769249234348536, -0.0008815567125566304, 0.003097600769251585, 0.00184915354475379, 7.735141116427258e-05, 0.002646539593115449, 9.773953934200108e-05, -0.00603825505822897, -0.0008776909671723843, -0.0005433242185972631, -0.0003151775454171002, -0.002018457744270563, -0.0007679834961891174, -0.0013420683098956943, 0.0005415978375822306, 0.0004430541303008795, 0.0031387971248477697, -0.0006691996823064983, 0.00132376526016742, 0.0015921503072604537, 0.00153928657528013, -0.004050172865390778, -0.00046581687638536096, -0.0005487041198648512, 0.00017379997007083148, -7.060843199724331e-05, 0.006098137237131596, -0.00137020752299577, -0.0041991048492491245, -5.5752847401890904e-05, 5.599285213975236e-05, -0.00015990404062904418, 0.002985768485814333, -0.0010160289239138365, 0.0016673537902534008, 0.00016542641969863325, 0.0006139841862022877, -0.0006523575866594911, 0.0009126481600105762, -0.001629514736123383, 0.0011593777453526855, -0.0018610581755638123, 0.0011371441651135683, -1.926296863530297e-05, 0.001293126493692398, -0.0011505193542689085, 0.00506877526640892, -0.0008826517150737345, 0.0009251310839317739, 0.0006334876525215805, 0.0033229172695428133, -0.0012546508805826306, -0.007005056831985712, 0.0012635564198717475, 0.002518503926694393, -0.0006862357258796692, -0.0005485703586600721, 0.0021122354082763195, 0.0016212689224630594, -0.0016112341545522213, -0.002135290764272213, -0.0025944088120013475, 0.0030763642862439156, -0.0008872583275660872, 0.002003691392019391, -0.00243380363099277, -0.0036979157011955976, 0.00047715415712445974, 0.0001495989563409239, 0.0015412161592394114, 0.002271102974191308, -0.004397778306156397, 0.00033634217106737196, 0.0013045587111264467, 0.0009621251956559718, -0.00029925635317340493, 0.002035138662904501, -0.0026341478805989027, 0.0001256432879017666, -0.0008421856909990311, 0.0007131223101168871, -0.00013540516374632716, -0.002100250218063593, -0.00367415021173656, 0.0005902668344788253, -0.0007389404345303774, -0.0014726192457601428, 0.004648217931389809, 0.0012296836357563734, 0.0034261958207935095, 0.00431038998067379, -0.0027536670677363873, 0.0009331969195045531, -0.003858159063383937, 0.004937867633998394, -0.0024761331733316183, 9.125187352765352e-05, -0.000706534250639379, 0.0016821261961013079, -0.0001850525732152164, -0.0016236456576734781, -0.003475755453109741, -0.0008944008150137961, -0.0011225083144381642, 0.0010024007642641664, -0.0017189624486491084, 0.0020575374364852905, -0.0002513660001568496, 0.0022352547384798527, -0.0013673556968569756, 0.002197413006797433, 0.0057621612213552, 0.0007394876447506249, -0.0004040283674839884, 0.0028099759947508574, -0.0005217446014285088, -0.0023925660643726587], [0.0016716287937015295, 0.004664926324039698, 0.008014331571757793, 0.0013906294479966164, -0.0027089593932032585, 0.003271329915151, 0.007583189755678177, 0.0019798167049884796, -0.0024418483953922987, -0.0021565891802310944, -0.0017483774572610855, 0.0008890961180441082, -0.0022895841393619776, 0.006505285855382681, 0.0016218718374148011, 0.0020776926539838314, 0.0017415641341358423, 0.0017708593513816595, -0.004201431293040514, -0.002509795594960451, -0.001895099994726479, -0.004871984478086233, -0.001825008075684309, -0.0021307715214788914, -0.0002074560325127095, 0.00690855598077178, 0.0015171803534030914, 0.0006473392131738365, -0.001155772595666349, 0.0029760547913610935, 0.008178931660950184, 0.0012466991320252419, -0.002655897755175829, -0.0009534527198411524, -0.0015897053526714444, 0.00011919713870156556, -0.005473660305142403, 0.0009451627265661955, -0.0034743330907076597, -0.002939361846074462, -0.00014138004917185754, 0.0022082370705902576, -0.007280940655618906, 0.0023607511539012194, -0.002163045573979616, 0.0014366768300533295, 0.0003598483745008707, 0.003917885012924671, -0.002638054545968771, 0.008187782019376755, -0.0020205359905958176, 0.005903283599764109, -0.0009964891942217946, 0.002033294178545475, -0.0033976780250668526, 0.004419213160872459, -0.0019433037377893925, 0.002991544548422098, -0.004955432843416929, 0.0037405069451779127, 0.002481589326635003, 0.0005362136289477348, -0.005146690644323826, -0.0011187008349224925, 0.00490917032584548, 0.003059685928747058, -0.00023155879171099514, -0.00198840769007802, 0.007883122190833092, 0.008275728672742844, -0.005611103493720293, -0.00152567308396101, -0.0008598542190156877, 0.00657398859038949, -0.004790262784808874, 0.00188211421482265, -0.0005273277638480067, -0.0014664287446066737, 0.002350677503272891, 0.002063045045360923, 0.00779708381742239, 0.0005862635443918407, -0.0011609664652496576, 0.002875898964703083, 0.0009772604098543525, 0.00025002440088428557, -0.002636632649227977, 0.001321265590377152, -0.001467219553887844, 0.005854482296854258, -0.0021060402505099773, 0.002042381791397929, -0.0022141700610518456, -0.0018495313124731183, -0.004083740059286356, 0.00615692837163806, -0.0019507191609591246, -0.0004913908196613193, 0.007689970079809427, 0.0013440761249512434, 0.0024057871196419, 0.004026647657155991, -0.00481225224211812, 6.895533442730084e-05, -0.0013328985078260303, 0.0005246512591838837, -0.0019924810621887445, 0.0033076275140047073, -0.0014223516918718815, 0.006805081851780415, -0.00630946597084403, -0.00905589573085308, -0.0019363200990483165, -0.004563317634165287, -0.0021054199896752834, 0.006884478498250246, -0.001166285015642643, 0.0019144093384966254, -0.0013343609170988202, 0.0017253379337489605, -0.0022092664148658514, 0.002718328731134534, 0.0016248819883912802, 0.003165219211950898, -0.000875528552569449, 0.0014143629232421517, -0.0027572722174227238, -0.0024409617763012648], [-0.002805442316457629, -0.005919652059674263, -0.0026851093862205744, -0.0015580863691866398, 0.0005887825973331928, -0.0013185462448745966, -0.0032141548581421375, -0.0019288790645077825, 0.0018529047956690192, 0.00033950290526263416, 0.005722664762288332, -0.0055131143890321255, 0.001601034658960998, -0.0022338905837386847, -0.002382097067311406, -0.0021808124147355556, -0.0005098208785057068, -0.00624289084225893, 0.007597852032631636, 0.004032067023217678, 0.002284571062773466, 0.0018625876400619745, 0.001914684777148068, 0.006183055229485035, 0.0015975130954757333, -0.005346616730093956, -0.0038867176044732332, -0.0009680397342890501, 0.00014819174248259515, -0.0006955622811801732, -0.00456753745675087, -0.007530323229730129, 0.0003717444196809083, 0.003510747104883194, 0.0058119818568229675, -0.00707992585375905, 0.0037077264860272408, -0.0018876654794439673, 0.0031902953051030636, 0.0005074175423942506, 0.0009962395997717977, -0.0028514706064015627, 0.0023515571374446154, -0.004637151025235653, 0.0008370510186068714, -0.00028454448329284787, -2.6999359761248343e-05, -0.0023700816091150045, 0.0012531032552942634, -0.007733196951448917, 0.004194207023829222, -0.002299569547176361, 0.004271668381989002, -0.0030110799707472324, 0.003597832517698407, -0.0015217768959701061, 0.002685616724193096, -0.00045417004730552435, 0.004850727040320635, -0.0013801921159029007, -0.001192434341646731, -0.003798536956310272, 0.0016507593682035804, 0.0007841787883080542, -0.0044387285597622395, -0.0012055720435455441, 0.003488658694550395, 0.005449887830764055, -0.00216142600402236, -0.008664160966873169, 0.0022184676490724087, 0.0005037354421801865, 0.0005731364944949746, -0.0016884107608348131, 0.0039397962391376495, -0.0008601117879152298, 0.0014147009933367372, 0.002202326199039817, -0.0022248458117246628, -0.00012156411685282364, -0.0019667181186378, -0.003086806507781148, 0.0028312767390161753, -0.003329660976305604, -0.0034770856145769358, -0.006192115601152182, 0.004452389664947987, -0.0006465282058343291, 0.003685919800773263, -0.0012966018402948976, 0.00770497927442193, -0.0017833822639659047, 0.001682096510194242, 0.007011289242655039, 0.0031351272482424974, -0.0012059299042448401, 0.0026587629690766335, 0.001826665480621159, -0.007756698876619339, -0.002714592032134533, -0.002428775653243065, -0.00026025774423033, 0.000458723894553259, -0.0008721377234905958, 0.003918415401130915, -0.005158050451427698, 0.003407583339139819, -0.002131159184500575, 0.0006267546559683979, -0.0015701920492574573, 0.0023123447317630053, 0.0012607487151399255, 0.003471936332061887, 0.008390354923903942, 0.0024459226988255978, -0.006848293822258711, 0.0033957096748054028, -0.0018137794686481357, 0.0007470868295058608, -0.0011964349541813135, 0.0027480304706841707, -0.00825948640704155, -0.0008950394694693387, -0.0020574317313730717, 0.003139257663860917, -0.0004290706419851631, 0.0034155622124671936, 0.000657479977235198], [-0.0007926893886178732, -0.0024095496628433466, -0.0007506297552026808, -0.0018823114223778248, 0.0032655505929142237, -9.933298133546486e-05, -0.0026706387288868427, -0.0015109740197658539, 0.0035763855557888746, 0.0002341048384550959, 0.0009900836739689112, -0.002134190173819661, 0.0012820619158446789, -0.0013821061002090573, -0.003484263550490141, -0.003381493268534541, -0.0022415227722376585, -0.0050833560526371, 0.007982390001416206, 0.0032769297249615192, 0.004116501193493605, 0.0029403124935925007, 0.00251371250487864, 0.004366913344711065, 0.005960938520729542, -0.001953480765223503, -0.001925271120853722, -0.0035032974556088448, 0.0005068529862910509, -0.0014819123316556215, -0.00189635728020221, -0.0030190807301551104, 0.006353963166475296, 0.0011986716417595744, 0.000921310915146023, -0.003230745904147625, 0.0029471844900399446, -0.0022398503497242928, 0.0017364631639793515, 0.0025994672905653715, 0.0029736526776105165, -6.965958891669288e-05, 0.0009595592855475843, -9.235649486072361e-05, 0.0008582596201449633, -0.0024481257423758507, -0.003041533986106515, -0.006635348778218031, 0.005357541609555483, -0.002639217535033822, 0.00038169504841789603, -0.0003395149833522737, 0.002928664907813072, -0.00022999376233201474, 0.004485015291720629, -6.0853662944282405e-06, 0.001098849344998598, -0.003236211370676756, 0.003999236971139908, -0.002007818780839443, -0.004897186066955328, -0.0034044403582811356, 0.0021957908757030964, 0.0003701013047248125, -0.0012862012954428792, -0.0059753903187811375, 0.0004728010972030461, 0.00041193896322511137, -0.002398157026618719, -0.002129581058397889, 0.003121760440990329, 0.0005936025991104543, 0.004082439932972193, -0.0016877944581210613, 0.0015593129210174084, -0.0009451195364817977, 0.0005870854947715998, 0.00290401722304523, -0.004776482004672289, -0.0003774898068513721, -0.004565700888633728, -0.005163862835615873, 0.003100309520959854, -0.00017113947251345962, -0.0024915807880461216, -0.0028428302612155676, 0.0025370819494128227, -0.004565970040857792, 0.0008607606287114322, -0.0005362662486732006, 0.005581596400588751, -0.0026661911979317665, 0.0005001737154088914, 0.006349505856633186, 0.006623135879635811, -0.004743392113596201, 0.004032728727906942, 0.002362225903198123, -0.0016951542347669601, -0.00024271337315440178, -0.00339059391990304, -0.0014367689145728946, 0.00017697007569950074, -0.002633571159094572, 0.00392299797385931, -0.0012228077976033092, 0.004981551319360733, -0.003175435122102499, 0.0004136841162107885, -0.004252325277775526, 0.002923852764070034, 0.00083681516116485, 0.0033617750741541386, 0.0023490749299526215, 0.002450993051752448, -0.0030584107153117657, 0.0019694759976118803, -0.0007397387525998056, 0.0009936263086274266, -0.002284687478095293, 0.0016838419251143932, -0.0015085941413417459, -0.0023961588740348816, -0.005557715427130461, 0.0014900227542966604, -0.006171399261802435, 0.002123410115018487, 0.000253331963904202], [0.0005519589176401496, 0.00014566250320058316, 0.00013515526370611042, 0.0044620647095143795, -0.003492749063298106, 0.0006019051070325077, 0.0009944842895492911, 0.002781811635941267, -0.004113706760108471, -0.0017135634552687407, -0.003750043688341975, 6.22901352471672e-05, -0.00044541156967170537, 0.0007341152522712946, 0.000921109167393297, 0.0023959230165928602, 0.002920276951044798, 0.002328756032511592, -0.0028894508723169565, -0.0006404767627827823, -0.0008355033933185041, -0.0019380365265533328, -0.0053130267187952995, -0.005614290479570627, -0.0005104864249005914, 0.0007944635581225157, 0.0017555290833115578, 0.001872355816885829, -0.0057783001102507114, 0.0010329661890864372, 0.001680400688201189, 0.0024012248031795025, -0.0006978394230827689, -0.000900939863640815, -0.0015575771685689688, 0.002301474567502737, -0.002421532291918993, 0.0021674830932170153, -0.006335737649351358, -0.0022141109220683575, -0.0024994639679789543, 0.000575440761167556, -0.0033129348885267973, 0.0027822679840028286, -0.0007841359474696219, 0.0017691593384370208, 0.0032726849894970655, 0.00027191732078790665, -0.004273814614862204, 0.003142836270853877, -0.0012016677064821124, 0.002618047408759594, -0.0033054572995752096, 0.0011600572615861893, -0.0008264315547421575, 0.002578253159299493, -0.005138929467648268, 0.0013223971473053098, -0.0006459993892349303, 3.600904528866522e-05, 7.29449384380132e-05, 0.0013707942562177777, -0.001247440348379314, -0.0009077307186089456, 0.0017958258977159858, 0.0021018730476498604, -0.004786266945302486, -0.0010948393028229475, 0.002675400348380208, 0.0005779305938631296, -0.006429994944483042, -0.006034753751009703, -0.002594751538708806, 0.007083273958414793, -0.0025291095953434706, 0.003287291619926691, -9.594239963917062e-05, -0.001294009736739099, 0.005629073362797499, 0.0001038013506331481, 0.001715281279757619, 0.002662449609488249, -0.0024874473456293344, 0.0009029206703417003, 0.0003578848554752767, 0.00029399775667116046, -0.00031318533001467586, 0.0023569054901599884, -0.0006455619004555047, 0.000983014120720327, -0.0011210759403184056, 0.003946675918996334, -0.002033343305811286, -0.0016454375581815839, -0.0005509055336005986, 0.0006818653200753033, -0.003202347783371806, -0.00029325735522434115, 0.0005004365812055767, 0.0026751477271318436, 0.0033731486182659864, 0.001904307515360415, -0.002193310298025608, 0.002109839580953121, -0.0023289695382118225, 0.0014144523302093148, -0.0006055987905710936, 0.0009648808045312762, -0.0014060832327231765, 0.005772867240011692, -0.0013218991225585341, -0.0017027165740728378, -0.003111409256234765, -0.004110301379114389, -0.004679435398429632, 0.0023871518205851316, -0.0031067263334989548, 0.005258841905742884, -0.0006188725819811225, 0.0004492205916903913, -0.0009946853388100863, 0.006491039879620075, 0.005890600848942995, 0.005435049533843994, -0.002992404857650399, 0.001327934442088008, -0.005381944589316845, -2.6228433853248134e-05], [0.0014884322881698608, 0.005493236239999533, 0.0015488205244764686, 0.0033595648128539324, -0.007561503443866968, 0.001226250547915697, 0.0014442778192460537, 0.0016169630689546466, -0.006664269138127565, -0.001253396039828658, -0.002438449999317527, 0.001583215082064271, -0.0010970805305987597, 0.004450265783816576, 0.001173800672404468, 0.0016046235105022788, 0.0010433534625917673, 0.0015827743336558342, -0.0005917166126891971, -0.0069873821921646595, -0.00717988982796669, -0.00016461170162074268, -0.0005071166669949889, -0.007042148150503635, -0.006457630079239607, 0.003156582824885845, 0.0013791644014418125, 0.007926638238132, -0.007576292380690575, 0.003171223448589444, 0.0011407757410779595, 0.001378387794829905, -0.004771757870912552, -0.002214380307123065, -0.006576057523488998, 0.00036523499875329435, -0.004022846929728985, 0.0047154207713902, -0.007444821298122406, -0.007407911121845245, -0.000833334808703512, 0.0011957136448472738, -0.0018565768841654062, 0.00010467408719705418, -0.00045882374979555607, 3.219410064048134e-05, 0.0034661574754863977, 0.006348473951220512, -0.0012944501359015703, 0.003969562239944935, -0.0030560470186173916, 0.0008662273758091033, -0.0010749619686976075, 0.00342796859331429, -0.0023093067575246096, 0.006635082419961691, -0.002010560594499111, 0.0018880314892157912, -0.001008658204227686, 0.0017580563435330987, 0.0012053437530994415, 0.007621055003255606, -0.004433064721524715, -0.0009298176737502217, 0.0016120380023494363, 0.0016024252399802208, -0.0027227976825088263, -0.0011635433183982968, 0.003167458577081561, 0.007011213805526495, -0.007716408930718899, -0.007371801417320967, -0.002938896883279085, 0.0022943413350731134, -0.002431477652862668, 0.003667787415906787, -0.0018972140969708562, -0.004642545711249113, 0.004301173146814108, 0.004293664824217558, 0.0033138913568109274, 0.0019415565766394138, -0.0028705731965601444, 0.0004471214779186994, 0.003892079694196582, 0.007190455216914415, -0.001628343714401126, 0.004293676000088453, -0.0034054708667099476, 0.002244912786409259, -0.0007801569881848991, 0.004891023505479097, -0.0004139399388805032, -0.0050524016842246056, -0.0029526560101658106, 0.0022157318890094757, -0.0038851394783705473, -0.005638867150992155, 0.008129441179335117, 0.0038694259710609913, 0.0021188948303461075, 0.0012745426502078772, -0.0049696797505021095, 0.001226399908773601, -0.002314404584467411, 0.004220831207931042, -0.003590925829485059, 0.0006103345076553524, -0.004670508671551943, 0.001290091429837048, -0.001406863215379417, -0.007260928396135569, -0.0009410092607140541, -0.0020833960734307766, -0.0016588503494858742, 0.0024149541277438402, -0.006864761468023062, 0.0051478552632033825, -0.001639669411815703, 0.00041027070255950093, -0.006202594842761755, 0.005333741661161184, 0.00040843134047463536, 0.000998642761260271, -0.0007426312076859176, 0.0015335584757849574, -0.0019316078396514058, -0.00842557568103075], [0.0008353626471944153, 0.0007802901673130691, 0.0007023145444691181, 0.000964937440585345, -0.0005388089339248836, 0.002138103125616908, 0.0018931084778159857, 0.0006938870064914227, -0.0007631827611476183, -0.00014742337225470692, -0.0009835571981966496, 0.0005604251055046916, -0.0006018713465891778, 0.00017003143148031086, 0.0019313949160277843, 0.0008226600475609303, 0.0024985098280012608, 0.0003327935701236129, -0.0003898604481946677, -0.00044560121023096144, -0.0002522367867641151, -0.001318058930337429, -0.0024186039809137583, -0.0015650588320568204, -0.001268042135052383, 0.0005108769400976598, 0.00047380823525600135, 0.0005163769237697124, -0.0008878709631972015, 7.370769162662327e-05, 0.0003875070542562753, 9.353449422633275e-05, -0.002291695913299918, -0.0004040051717311144, -0.0008988750050775707, 0.0004005677474197, -0.0031435322016477585, 0.0010740015422925353, -0.0005448755691759288, -0.00044887998956255615, -0.0013378782896324992, 0.001123256515711546, -0.0027771114837378263, 0.00019570313452277333, -0.00026143892318941653, 0.0012000201968476176, 0.00015095513663254678, 1.5110286767594516e-05, -0.003996106795966625, 0.00027802892145700753, -0.0017089906614273787, 0.0006954488926567137, -0.0032554855570197105, 0.001546023297123611, -0.0004900753847323358, 0.0023537029046565294, -0.00079276820179075, 0.0006675219628959894, -4.452189023140818e-05, 0.00032948795706033707, 0.00013810060045216233, 0.0003262810059823096, -0.0005502208950929344, -0.0007277379627339542, 0.0005844939150847495, 0.000574038247577846, -0.001058721449226141, -0.001930289319716394, 0.0005143503076396883, 0.002945556305348873, -0.0010471063433215022, -0.002339267870411277, -0.0005922821001149714, 0.001980131259188056, -0.0014877371722832322, 0.0005163470632396638, -0.0006408855551853776, -4.496950714383274e-05, 0.0004749910731334239, 0.00028701589326374233, 0.00012992067786399275, 0.002429228974506259, -0.0002793876046780497, 0.00016420622705481946, 0.000500181398820132, 0.00013889775436837226, -0.00028808435308746994, 0.003254401031881571, -0.003972625359892845, 0.0008347840630449355, -0.002929719863459468, 0.0037547519896179438, -8.464110578643158e-05, -0.0014656250132247806, -0.0005133681697770953, 0.00020899350056424737, -0.0012713497271761298, -0.00020015292102470994, 0.003896239446476102, 7.111333979992196e-05, 0.0010534593602642417, 0.0021328029688447714, -0.0015966250794008374, 0.003996017388999462, -0.001434323494322598, 0.0014644308248534799, -5.030206011724658e-05, 0.00031559483613818884, -0.0012369903270155191, 0.00012698245700448751, -0.00030502176377922297, -4.409687244333327e-05, -0.0013715403620153666, -0.0006631597643718123, -0.00018382341659162194, 0.00266100256703794, -0.0013399564195424318, 0.0010876216692849994, -0.0009906803024932742, 0.0002572675875853747, -8.84580222191289e-05, 0.00019004108617082238, 0.00011938931857002899, 0.0005217997822910547, -0.001420399989001453, 0.0017362991347908974, -0.0029699578881263733, -0.0023226281628012657], [0.0019687730818986893, 0.006859270855784416, 0.002914451528340578, 0.0030266453977674246, -0.0009700309601612389, 0.0056915185414254665, 0.004626983776688576, 0.0007994206389412284, -0.0033980505540966988, -0.0013559669023379683, -0.0027059055864810944, 0.005020960234105587, -0.00036206457298249006, 0.0010379304876551032, 0.0020267728250473738, 0.004671619739383459, 0.0003961586917284876, 0.004265126772224903, -0.0012704767286777496, -0.0033654100261628628, -0.002819133223965764, -0.0020212181843817234, -0.000245582836214453, -0.00644281879067421, -0.001425315742380917, 0.0012198203476145864, 0.0002890401519834995, 0.006391945760697126, -0.00025397518766112626, 0.003759824438020587, 0.0026401286013424397, 0.0012204619124531746, -0.0020768202375620604, -0.001529327710159123, -0.0005313102155923843, 0.001866706064902246, -0.0010235749650746584, 0.0010531465522944927, -0.0006378811085596681, -0.0018288647988811135, -0.0008380169747397304, 0.0007632815977558494, -0.003120707580819726, 0.004500541836023331, -0.001689649885520339, 0.005214354023337364, 0.004126376938074827, 0.0019818528089672327, -0.004629440139979124, 0.0017240997403860092, -0.0005793478921987116, 0.001617451780475676, -0.0014100412372499704, 0.0009507370414212346, -0.0006790859042666852, 0.0017660687444731593, -0.0025849738158285618, 9.415777458343655e-05, -0.0015263393288478255, 0.0005018629017286003, 0.0018932566745206714, 0.0009992222767323256, -0.0032364102080464363, -0.0022802604362368584, 0.0019286023452877998, 0.002225711243227124, -0.002249073702841997, -0.0005210878443904221, 0.0018371755722910166, 0.003594202222302556, -8.495220390614122e-05, -0.000957492389716208, -0.0031845064368098974, 0.0011699451133608818, -0.0023786788806319237, 0.0024892285000532866, -0.0033218483440577984, -0.00174628384411335, 0.005673388950526714, 0.0014920489629730582, 0.0023361279163509607, 0.001609714818187058, -0.0005036598886363208, 0.0036634718999266624, 0.0013361686142161489, 0.004244664218276739, -0.0025659629609435797, 0.0063344514928758144, -0.0016336990520358086, 0.001966875744983554, -0.003947256598621607, 0.002190658124163747, -0.00028216768987476826, -0.0014379805652424693, -0.0004974259645678103, 0.0021318714134395123, -0.0008050119504332542, -0.00017956361989490688, 0.006140952929854393, 0.001166289090178907, 0.003499348647892475, 0.004477888345718384, -0.000643651932477951, 0.0026694005355238914, -0.004922937136143446, 0.003429459873586893, -0.0025700305122882128, 0.0010149459121748805, -0.00239759823307395, 0.0014029265148565173, -0.0014585971366614103, -0.0025146305561065674, -0.005660056136548519, -0.0029186138417571783, -0.0003413223603274673, 0.0010155417257919908, -0.0008265156648121774, 0.006013450678437948, -0.0012379654217511415, 0.0004268106713425368, -0.0013106184778735042, 0.0008422036189585924, 0.0012107049115002155, 0.002605271292850375, -0.00314790615811944, 0.001554680522531271, -0.0028377315029501915, -0.0015991076361387968], [-0.011143247596919537, -0.06320547312498093, -0.06560567021369934, -0.06535819172859192, 0.058370813727378845, -0.06813930720090866, -0.07224790006875992, -0.06177200749516487, 0.06242140009999275, 0.07155518233776093, 0.006363209802657366, -0.06757606565952301, 0.04488334432244301, -0.01857186108827591, -0.04657736048102379, -0.008540313690900803, -0.07591313868761063, -0.04609314724802971, 0.0667535737156868, 0.06326982378959656, 0.05803462862968445, 0.05949537456035614, 0.06993414461612701, 0.008653438650071621, 0.013123804703354836, -0.06366999447345734, -0.06538309901952744, -0.06957532465457916, 0.07098552584648132, -0.06397230923175812, -0.05210938677191734, -0.02843298390507698, 0.06815651059150696, 0.06618183106184006, 0.06956284493207932, -0.07552751898765564, 0.06865765154361725, -0.06256277114152908, 0.06076592952013016, 0.009860064834356308, 0.025997571647167206, -0.06289048492908478, 0.0657486543059349, -0.06891142576932907, 0.07143296301364899, -0.067805215716362, -0.018602723255753517, -0.06492526829242706, 0.0470261424779892, -0.06652594357728958, 0.06871280819177628, -0.053083017468452454, 0.06726813316345215, -0.07688333839178085, 0.06347109377384186, -0.07901538163423538, 0.04929516464471817, -0.06088659539818764, 0.06673562526702881, -0.0072914790362119675, -0.057385705411434174, -0.06576951593160629, 0.06460175663232803, 0.06744351983070374, -0.05822562426328659, -0.01968270353972912, 0.00732398359104991, 0.06965117156505585, -0.06887299567461014, -0.006997290998697281, 0.05600355193018913, 0.008311414159834385, 0.07321289926767349, -0.06104527786374092, 0.012558265589177608, -0.008304683491587639, 0.0709097608923912, 0.008450616151094437, -0.042387425899505615, -0.07809267938137054, -0.030346663668751717, -0.0056855035945773125, 0.07774467766284943, -0.06515593081712723, -0.06800247728824615, -0.06741748005151749, 0.06246677786111832, -0.06730432063341141, 0.06807872653007507, -0.06297106295824051, 0.07163624465465546, -0.0711030587553978, 0.06716158241033554, 0.0629594475030899, 0.06718002259731293, -0.006799145136028528, 0.013574649579823017, 0.07016361504793167, -0.04036758095026016, -0.07190673798322678, -0.0641581192612648, -0.06315215677022934, 0.055123116821050644, -0.07416464388370514, 0.016390563920140266, -0.06677138060331345, 0.008731133304536343, -0.07152572274208069, 0.04846088960766792, -0.07966671139001846, 0.02816259115934372, 0.012574504129588604, 0.07203182578086853, 0.0061747003346681595, 0.04918687418103218, -0.07376022636890411, 0.06219077110290527, -0.06683725863695145, 0.06258860230445862, -0.004841011017560959, 0.06023918092250824, -0.0638061910867691, -0.0061912513338029385, -0.015586881898343563, 0.05934267118573189, -0.07657791674137115, 0.06851190328598022, 0.018108919262886047], [0.0059892600402235985, 0.004498416557908058, 0.004450932145118713, 0.0030233783181756735, -0.04069242626428604, 0.0043158214539289474, 0.05648859217762947, 0.04333039000630379, -0.04690435528755188, -0.017746884375810623, -0.004611790180206299, 0.05151527374982834, -0.006264915224164724, 0.05189123749732971, 0.004961691331118345, 0.007997243665158749, 0.05216767266392708, 0.0430542528629303, -0.05330907180905342, -0.05006810277700424, -0.04271513968706131, -0.010399592109024525, -0.044262442737817764, -0.05100785568356514, -0.03764959052205086, 0.005792900919914246, 0.004549735225737095, 0.004929399583488703, -0.0038234612438827753, 0.05120959132909775, 0.025454483926296234, 0.051881343126297, -0.005873576737940311, -0.0047600711695849895, -0.05031454563140869, 0.004543608985841274, -0.004439954180270433, 0.002139252843335271, -0.010140393860638142, -0.04959092289209366, -0.0050375559367239475, 0.005432789213955402, -0.043487343937158585, 0.006532695610076189, -0.056012120097875595, 0.004409327171742916, 0.0060179694555699825, 0.040063634514808655, -0.03005148656666279, 0.051446545869112015, -0.04872452840209007, 0.04935020953416824, -0.005069445353001356, 0.051020245999097824, -0.015430186875164509, 0.05417230725288391, -0.05111158639192581, 0.02753777988255024, -0.04326920211315155, 0.004743833094835281, 0.009123209863901138, 0.051904939115047455, -0.04414546489715576, -0.004582513123750687, 0.004972757771611214, 0.04984021186828613, -0.04825970530509949, -0.05012239143252373, 0.010182641446590424, 0.04420285299420357, -0.004868150223046541, -0.05337582156062126, -0.005535803735256195, 0.004235635977238417, -0.04903858155012131, 0.027213390916585922, -0.013218257576227188, -0.06261049956083298, 0.0572315938770771, 0.054230984300374985, 0.02245175838470459, 0.028914056718349457, -0.057308170944452286, 0.05077653005719185, 0.0025214441120624542, 0.05228948965668678, -0.050952810794115067, 0.04321693629026413, -0.045386966317892075, 0.004694483242928982, -0.006054919678717852, 0.005128233227878809, -0.048944924026727676, -0.044362250715494156, -0.05486053228378296, 0.005378433503210545, -0.014904594048857689, -0.0036213439889252186, 0.025986773893237114, 0.006353471428155899, 0.004574519582092762, 0.0495004877448082, -0.03132818266749382, 0.004316366743296385, -0.03760432451963425, 0.04188527911901474, -0.04615410417318344, 0.004306268412619829, -0.0041199433617293835, 0.011993460357189178, -0.04599913954734802, -0.012810799293220043, -0.010992600582540035, -0.011780394241213799, -0.05480584129691124, 0.04546244069933891, -0.04378530755639076, 0.024652613326907158, -0.003569824155420065, 0.04362201318144798, -0.045560434460639954, 0.03894614428281784, 0.03755752742290497, 0.004097883589565754, -0.0366353876888752, 0.0571199432015419, -0.05786523595452309, -0.04892493039369583], [0.0033785628620535135, 0.0006306267459876835, 0.003457796759903431, 0.00032524793641641736, -0.0025354623794555664, 0.006254395004361868, 0.004320329986512661, 0.004889440257102251, -0.0022888898383826017, -0.0019840337336063385, -0.0006960736936889589, 0.00020155773381702602, -0.0001203319407068193, 0.004025692585855722, 0.00018473269301466644, 0.001689665368758142, 0.003584836842492223, 0.004098391626030207, -0.0022038586903363466, -0.0022726072929799557, -0.001150616561062634, -0.0001903497613966465, -0.0006892402307130396, -0.0035066755954176188, -0.004754933062940836, 0.003447901224717498, 4.3198702769586816e-05, 0.006450929678976536, -0.002015497302636504, 0.00032828663825057447, 0.0016531409928575158, 0.0006981980986893177, -0.005970022641122341, -0.003106831107288599, -0.0005578995915129781, 0.00392905855551362, -0.004012774676084518, 0.0012200662167742848, -0.0058057247661054134, -0.001742678927257657, -0.006582734640687704, 0.00036692709545604885, -0.003725397866219282, 0.005724491085857153, -0.00021423962607514113, 0.0035312206018716097, 0.006184427998960018, 0.0010880723129957914, -0.0026227040216326714, 0.00232533342204988, -0.0017939696554094553, 0.0072242640890181065, -0.0018335561035200953, 0.00034904759377241135, -0.0043807607144117355, 0.0005800675135105848, -0.0016777949640527368, 0.0022439032327383757, -0.0026700918097049, 0.00031435905839316547, 0.0008941498817875981, 0.0032616418320685625, -0.000996522605419159, -0.004730630200356245, 0.001937912660650909, 0.0013441420160233974, -0.0017401560908183455, -0.0006189874839037657, 0.0011645150370895863, 0.0017952474299818277, -0.001080733141861856, -0.001390646561048925, -0.002121666679158807, 0.0009485126938670874, -0.003953354898840189, 0.0005602831952273846, -0.0032800184562802315, -0.007329896092414856, 0.008040765300393105, 0.0009913507383316755, 0.006249948404729366, 0.006639640778303146, -0.004797653295099735, 0.0014802755322307348, 0.0011158800916746259, 0.0009853022638708353, -0.004140137694776058, 0.002800095360726118, -0.0005147919873706996, 0.006568765267729759, -0.0003856318071484566, 0.0024242934305220842, -0.005181222688406706, -0.004442489705979824, -0.0015106074279174209, 0.004617439117282629, -0.0022028107196092606, -0.004071714822202921, 0.0013691583881154656, 0.0035776353906840086, 0.0009731192840263247, 0.0006949962698854506, -0.005083822179585695, 0.004156738519668579, -0.0037991534918546677, 0.0029354202561080456, -0.00716171832755208, 0.005468661431223154, -0.0028727054595947266, 0.0032895042095333338, -0.003977690823376179, -0.0013615937205031514, -0.0026584051083773375, -0.006911719683557749, -0.0019837927538901567, 0.001196269877254963, -0.003153484780341387, 0.003287623869255185, -0.0023603816516697407, 0.0019107329426333308, -0.005190778058022261, 0.0020009703002870083, 0.0006386972963809967, 0.0011039425153285265, -0.004386568441987038, 0.0009674272150732577, -0.003308533225208521, -0.006951176095753908], [0.0004558415384963155, 0.0005773704033344984, 0.0020395470783114433, 0.00042837962973862886, -0.007267248351126909, 0.002684785984456539, 0.0024916788097471, 0.0029556623194366693, -0.004316785838454962, -0.0010622050613164902, -0.003829417284578085, 0.002326159505173564, -0.000620524282567203, 0.0050997924990952015, 0.005728958640247583, 0.0015115251298993826, 0.0032494058832526207, 0.006382584571838379, -0.00022364901087712497, -0.0022933222353458405, -0.005263474304229021, -0.0021644197404384613, -0.0006015527760609984, -0.002841297537088394, -0.0018951561069115996, 0.0048582968302071095, 0.0022940572816878557, 0.0017064455896615982, -0.006007786374539137, 0.0024291991721838713, 0.0012202030047774315, 0.0033318286295980215, -0.0037835286930203438, -0.001245749182999134, -0.00018165720393881202, 0.004592325072735548, -0.005687059368938208, 0.0047015296295285225, -0.006053841207176447, -0.004979888908565044, -0.0021121364552527666, 0.000974703929387033, -0.005770660936832428, 0.001310359570197761, -0.0034261727705597878, 0.0031273807398974895, 0.00312424311414361, 0.0010070274583995342, -0.002331642434000969, 0.0008910864708013833, -0.0006177922477945685, 0.0024655445013195276, -0.0023575706873089075, 0.0033051453065127134, -0.0029295664280653, 0.0017893831245601177, -0.006080237217247486, 6.016602856107056e-05, -0.0036777066998183727, 0.0032685159239917994, 0.0008405597764067352, 0.000730109924916178, -0.0032472459133714437, -0.0027564067859202623, 0.002768484642729163, 0.002606419613584876, -0.0010697274701669812, -0.004201436415314674, 0.004672816954553127, 0.002882006810978055, -0.005536829121410847, -0.0016202242113649845, -0.004281585104763508, 0.0015770922182127833, -0.004103359766304493, 0.0029600798152387142, -0.00138380890712142, -0.0021405299194157124, 0.0007345871417783201, 0.0009172092541120946, 0.004726559855043888, 0.0007388917147181928, -0.002010072348639369, 0.0015037062112241983, 0.0016541214426979423, 0.0028904543723911047, -0.0035212128423154354, 0.0026709006633609533, -0.00184782559517771, 0.000761339149903506, -0.0006861544097773731, 0.0003460423613432795, -0.0023372794967144728, -0.00023760103795211762, -0.0012826882302761078, 0.0017873947508633137, -0.0013267892645671964, -0.004471890162676573, 0.001719229039736092, 0.002867624629288912, 0.0021899191197007895, 0.003244581865146756, -0.005293311085551977, 0.006045999936759472, -0.00019689783221110702, 0.0005898657254874706, -0.00043019503937102854, 0.0014901370741426945, -0.0027276340406388044, 0.00029332214035093784, -0.0014770000707358122, -0.001621951232664287, -0.001229881658218801, -0.006917363498359919, -0.00357524654828012, 0.0018082200549542904, -0.00027619703905656934, 0.005192902404814959, -0.004210720770061016, 0.0021185444202274084, -0.0011293659918010235, 0.0018084022449329495, 0.0014252394903451204, 0.0011102469870820642, -0.0015510169323533773, 0.004648325964808464, -0.0029817023314535618, -0.0022902872879058123], [-0.003245359053835273, -0.002422934165224433, -0.00024255044991150498, -0.0028750551864504814, 0.0009262559469789267, -0.005342178978025913, -0.006189372390508652, -0.0010263536823913455, 0.00011748044198611751, 0.006357012316584587, 0.002330813556909561, -0.002760640811175108, 0.00198035198263824, -0.006419598124921322, -5.635457455355208e-06, -0.0015472086379304528, -0.0027261481154710054, -0.0008929205941967666, 0.000188366073416546, 0.007278217934072018, 0.0018803556449711323, 0.0017066227737814188, 0.00036687919055111706, 0.008156251162290573, 0.0060299295000731945, -0.0012792422203347087, -0.007514045108109713, -0.001468207803554833, 0.004799140617251396, -0.0003744511923287064, -0.005729663651436567, -0.00036153930705040693, 0.0013464002404361963, 0.0003782997955568135, 0.0027035996317863464, -0.0065639931708574295, 0.000785420706961304, -0.0001808898086892441, 0.0003574135771486908, 0.002132191089913249, 0.002269255230203271, -0.0031182446982711554, 0.004100661724805832, -0.007116415537893772, 0.006884393747895956, -0.007032985333353281, -0.003915971145033836, -0.0015760689275339246, 0.0019677879754453897, -0.0008864463306963444, 0.005214253440499306, -0.00659613823518157, 0.005920010153204203, -0.0035119326785206795, 0.0010575621854513884, -0.0020845497492700815, 0.005570822861045599, -0.0002589565119706094, 0.006176630966365337, -0.004084162879735231, -0.001621802570298314, -0.0012682829983532429, 0.0002529277990106493, 0.0035544494166970253, -0.0026025886181741953, -0.0020027325954288244, 0.0012376515660434961, 0.002265745308250189, -0.004803408868610859, -0.0007241459679789841, 0.001025656471028924, 0.00717912707477808, 0.0031005414202809334, -0.0019467909587547183, 8.411336602875963e-05, -0.0037634545005857944, 0.0013743983581662178, 0.005426586605608463, -0.004904518835246563, -0.0005835582851432264, -0.004629482980817556, -0.0049553909339010715, 0.002553618745878339, -0.007235032506287098, -0.0036523123271763325, -0.007526942528784275, 0.0032993911299854517, -0.00016152998432517052, 0.003251271788030863, -0.0056088147684931755, 0.0004522605740930885, -0.0008056715596467257, 0.0019713130313903093, 0.0006182909128256142, 0.006645237095654011, -0.0022165141999721527, 0.004380885977298021, 0.0010347720235586166, -0.006231232546269894, -0.003435795195400715, -0.0023936473298817873, -0.0014367969706654549, 0.00016185504500754178, -0.0015818990068510175, 0.001208763336762786, -0.0028922634664922953, 0.0025252618361264467, -0.001901281881146133, 0.005698277149349451, -0.003366100834682584, 0.002268974669277668, 0.003974064253270626, 0.002532194834202528, 0.0017356923781335354, 0.004758076276630163, -0.0021186203230172396, 0.001188525464385748, -0.0015589571557939053, 0.0014911683974787593, -0.001170758274383843, 0.0034026242792606354, -0.002856430597603321, -0.008111918345093727, -0.004277470055967569, 0.005960106384009123, -0.0001367100776406005, 0.0014995436649769545, 0.0012095560086891055], [0.0014716599835082889, 0.0009568013483658433, 0.00146865111310035, 0.001007495098747313, -0.004303051624447107, 0.00010831120744114742, 0.0011049744207412004, 0.0064095500856637955, -0.005671030841767788, -0.0043311528861522675, -0.005492417607456446, 0.0008094549993984401, -0.004319986794143915, 0.004634469281882048, 0.002137025585398078, 0.006070462521165609, 0.002665633335709572, 0.00037994785816408694, -0.004385186824947596, -3.285728962509893e-05, -0.0008240602910518646, -0.0025015894789248705, -0.007377919275313616, -0.0006656941841356456, -0.0018776616780087352, 0.003433327190577984, 0.0019728734623640776, 0.007477118633687496, -0.00045728267286904156, 0.00025433680275455117, 0.0018433568766340613, 9.169227996608242e-05, -0.002962155034765601, -0.004806625656783581, -0.0012977180304005742, 0.00027129470254294574, -0.003045007586479187, 0.00045988531201146543, -0.0019727167673408985, -0.0026757442392408848, -0.004141693934798241, 0.004955762065947056, -0.0009044182952493429, 0.004164194688200951, -0.0039488221518695354, 0.0015102686593309045, 0.0057399398647248745, 0.0033493232913315296, -0.0049670678563416, 0.0057187373749911785, -0.0013504792004823685, 0.003806013846769929, -0.0033166760113090277, 0.0024898312985897064, -0.0009850335773080587, 0.004716330673545599, -0.004379982128739357, 0.006136706098914146, -0.0003203830565325916, 0.0019528375705704093, 0.0028392262756824493, 0.001769192167557776, -0.004129762761294842, -0.0008169797947630286, 0.001420830492861569, 0.00019256766245234758, -0.001068844343535602, -0.0001379452005494386, 0.00019012345001101494, 0.0004596184298861772, -0.002671034075319767, -0.004266729578375816, -0.002222495386376977, 0.002086611231788993, -0.0011626961641013622, 0.0020376108586788177, -0.0013985146069899201, -0.0032443960662931204, 2.0512994524324313e-05, 0.0032836461905390024, 0.0038203815929591656, 0.0007497685728594661, -0.0011587257031351328, 0.001641835318878293, 0.001823931816034019, 0.0015736420173197985, -0.006665321066975594, 0.000699374359101057, -0.0066832201555371284, 0.00233262381516397, -0.007083573844283819, 0.0005654016858898103, -0.00463205436244607, -0.005388312507420778, -0.0030432469211518764, 0.0001748131326166913, -0.001512604532763362, -0.0030915120150893927, 0.00135569937992841, 0.004327763337641954, 0.005678344052284956, 0.0011423906544223428, -0.0015908580971881747, 0.005537302698940039, -0.003298856085166335, 0.0034770085476338863, -0.004868758842349052, 0.0005864351405762136, -0.004011391196399927, 0.0031561963260173798, -0.0005608601495623589, -0.0074604582041502, -1.1894618182850536e-05, -0.006929890252649784, -0.001108731608837843, 0.0033316004555672407, -0.001444751862436533, 0.0019869953393936157, -0.0009246537229046226, 0.0002774723689071834, -0.0011902040569111705, 0.0015164111973717809, 0.0030234188307076693, 4.4946515117771924e-05, -0.004524960182607174, 8.705276559339836e-05, -0.0023104450665414333, -0.000817089166957885], [-0.05115552246570587, -0.04101401939988136, -0.004551632329821587, -0.004920140374451876, 0.029338441789150238, -0.05259765312075615, -0.05994522571563721, -0.046813033521175385, 0.04853053018450737, 0.004589218646287918, 0.048823513090610504, -0.0584157295525074, 0.0047336420975625515, -0.004434030968695879, -0.04983988776803017, -0.0047232285141944885, -0.05574517324566841, -0.0454888679087162, 0.057732295244932175, 0.0556439608335495, 0.05022425949573517, 0.005030833650380373, 0.04673979431390762, 0.005267780739814043, 0.014326079748570919, -0.042565327137708664, -0.005204760003834963, -0.019779738038778305, 0.0038389915134757757, -0.0052252565510571, -0.03325864300131798, -0.004587637260556221, 0.011079492047429085, 0.053549788892269135, 0.05133282393217087, -0.055292148143053055, 0.0466155931353569, -0.0363260954618454, 0.05627426877617836, 0.005677471868693829, 0.04724079370498657, -0.005883623845875263, 0.00486581027507782, -0.013576961122453213, 0.058513347059488297, -0.05526748672127724, -0.047317299991846085, -0.05889759212732315, 0.005453061778098345, -0.05426853522658348, 0.009162344969809055, -0.05406346172094345, 0.04397735744714737, -0.053413018584251404, 0.04974339157342911, -0.054179754108190536, 0.051811136305332184, -0.04355478286743164, 0.012316575273871422, -0.040018416941165924, -0.009775064885616302, -0.026684902608394623, 0.04895401373505592, 0.00656504463404417, -0.05285894125699997, -0.05219307169318199, 0.05054206773638725, 0.05358007550239563, -0.04411676898598671, -0.004977845586836338, 0.05533687770366669, 0.005476981867104769, 0.005542852450162172, -0.05092480778694153, 0.007338083814829588, -0.003748633898794651, 0.05100807547569275, 0.021955514326691628, -0.03390461578965187, -0.0578305646777153, -0.027351120486855507, -0.05382359400391579, 0.05791788175702095, -0.005814638454467058, -0.054643284529447556, -0.05475454777479172, 0.05461220443248749, -0.051712825894355774, 0.04287007451057434, -0.004679413046687841, 0.03345362842082977, -0.0520932599902153, 0.005891692824661732, 0.008071418851613998, 0.05606744810938835, -0.05430390685796738, 0.04651060700416565, 0.004383126273751259, -0.02888297662138939, -0.0037819738499820232, -0.046917762607336044, -0.004804160911589861, 0.016071831807494164, -0.05762184411287308, 0.011580867692828178, -0.012051975354552269, 0.04628128558397293, -0.05889406055212021, 0.03986867517232895, -0.012629724107682705, 0.005415191408246756, 0.03537532687187195, 0.05801038071513176, 0.03264910727739334, 0.04898097366094589, -0.04478601738810539, 0.01809201017022133, -0.04972194507718086, 0.048648402094841, -0.04446512460708618, 0.04670635610818863, -0.003962426446378231, -0.032788753509521484, -0.05170911177992821, 0.03620806336402893, -0.06049749627709389, 0.01107645221054554, 0.027138670906424522], [0.0036231069825589657, 0.008195148780941963, 0.007042905315756798, 0.007366844452917576, -0.006317871622741222, 0.008526070043444633, 0.0036208590026944876, 0.006407985929399729, -0.007203941699117422, -0.008438355289399624, -0.0041782790794968605, 0.009450121782720089, -0.009254873730242252, 0.003298653755337, 0.00860554724931717, 0.008657021448016167, 0.008230570703744888, 0.006662710104137659, -0.008945302106440067, -0.01061923149973154, -0.012219153344631195, -0.0036599484737962484, -0.009840392507612705, -0.006581046152859926, -0.01136023085564375, 0.012964503839612007, 0.009488880634307861, 0.011761120520532131, -0.004039760213345289, 0.010396004654467106, 0.006774038542062044, 0.006787019316107035, -0.008337773382663727, -0.00842179637402296, -0.007829027250409126, 0.007481914479285479, -0.005183330737054348, 0.006743697915226221, -0.007245615590363741, -0.006429604254662991, -0.00843011774122715, 0.003913894295692444, -0.009897303767502308, 0.008515904657542706, -0.0038443829398602247, 0.007147335913032293, 0.004227714147418737, 0.003670987207442522, -0.014559552073478699, 0.008302497677505016, -0.004104210063815117, 0.00806563813239336, -0.009557953104376793, 0.011480524204671383, -0.011375725269317627, 0.010782936587929726, -0.006394298747181892, 0.0035826449748128653, -0.013122542761266232, 0.010108769871294498, 0.006170491222292185, 0.006593127269297838, -0.0067025176249444485, -0.007420808542519808, 0.0039492445066571236, 0.010502132587134838, -0.012058829888701439, -0.010900034569203854, 0.015207797288894653, 0.004639263264834881, -0.00566245848312974, -0.007389286532998085, -0.00432100985199213, 0.007517403457313776, -0.021734414622187614, 0.011876304633915424, -0.00390787236392498, -0.0073004127480089664, 0.008133359253406525, 0.011098344810307026, 0.00855757761746645, 0.0038938652724027634, -0.0036490142811089754, 0.00668007368221879, 0.003889398416504264, 0.006984284147620201, -0.0034437496215105057, 0.003769773058593273, -0.020118072628974915, 0.0073838732205331326, -0.004118978977203369, 0.012511776760220528, -0.0054321205243468285, -0.008178310468792915, -0.007280523888766766, 0.0034084750805050135, -0.008284022100269794, -0.0034441305324435234, 0.019468041136860847, 0.006603198125958443, 0.0035872389562427998, 0.008468719199299812, -0.017256062477827072, 0.008381996303796768, -0.03887303173542023, 0.004330698866397142, -0.00938107818365097, 0.007871881127357483, -0.03249049559235573, 0.009611343964934349, -0.009984849020838737, -0.007718950044363737, -0.009154966101050377, -0.006560915615409613, -0.010337368585169315, 0.0056741731241345406, -0.0036326050758361816, 0.010083576664328575, -0.003923609387129545, 0.003564106533303857, -0.004138150252401829, 0.0037476737052202225, 0.007198230363428593, 0.009997307322919369, -0.008937421254813671, 0.009847667068243027, -0.011571238748729229, -0.005882043391466141], [0.004256943240761757, 0.007899606600403786, 0.0022020849864929914, 0.004423058591783047, -0.007930323481559753, 0.000526920601259917, 0.0006898077554069459, 0.003591077169403434, -0.0025536457542330027, -0.0034355241805315018, -0.0027600829489529133, 0.0012846969766542315, -0.0018160069594159722, 0.0022091041319072247, 0.005415670108050108, 0.005121969617903233, 0.002154504880309105, 0.0015387914609164, -0.0035094046033918858, -0.0021512166131287813, -0.002354084048420191, -0.007012972142547369, -0.0011348810512572527, -0.000563759938813746, -0.0004586252907756716, 0.002324178582057357, 0.0018697695340961218, 0.003732061479240656, -0.002161582699045539, 0.005475446581840515, 0.0027007239405065775, 0.001997007057070732, -0.0014123088913038373, -0.004664393607527018, -0.0009344810387119651, 0.004041086416691542, -0.0015061463927850127, 0.0022516825702041388, -0.003146523144096136, -0.0021989468950778246, -0.006583822891116142, 0.0015651015564799309, -0.0029129593167454004, 0.0018360710237175226, -0.0024993810802698135, 0.004074081778526306, 0.000893407326657325, 0.0010110854636877775, -0.0018919456051662564, 0.0054137567058205605, -0.005003401543945074, 0.0010869092075154185, -0.0030154541600495577, 0.0025794582907110453, -0.003055419074371457, 0.0005898918025195599, -0.0035653028171509504, 0.002799586160108447, -0.0001328819926129654, 0.008273297920823097, 0.0020297584123909473, 0.003831754205748439, -0.004438574425876141, -0.004238251596689224, 0.00516383396461606, 0.0009201278444379568, -0.001886029145680368, -0.001338411122560501, 0.0012458793353289366, 0.0017624456668272614, -0.0007526614936068654, -0.006326569244265556, -0.00121525046415627, 0.002266205847263336, -0.00046050106175243855, 0.003543125232681632, -0.0023465065751224756, -0.0008960061240941286, 0.00360028981231153, 0.0013763720635324717, 0.006704803556203842, 0.0065653338097035885, -0.001140258857049048, 0.004863807465881109, 0.0019295172533020377, 0.0020844547543674707, -0.003925152122974396, 0.0024569006636738777, -0.005408958066254854, 0.0028073478024452925, -0.001726569957099855, 0.0006227088160812855, -0.007356471382081509, -0.0023334622383117676, -0.006864949595183134, 0.0027345505077391863, -0.007381520699709654, -0.000724346493370831, 0.008500528521835804, 0.004545191302895546, 0.0032824391964823008, 0.0026323103811591864, -0.003062586532905698, 0.0007630288600921631, -0.004370462615042925, 0.0023202034644782543, -0.0024951861705631018, 0.003378269961103797, -0.0038844719529151917, 0.0022846488282084465, -0.009880918078124523, -0.0028081489726901054, -0.008219747804105282, -0.0010708100162446499, -0.0022586609702557325, 0.00044143572449684143, -0.003254062496125698, 0.0011133993975818157, -0.0014812939334660769, 0.0024642404168844223, -0.0002651188406161964, 0.0038717470597475767, 0.0016904862131923437, 0.0020485359709709883, -0.006184490397572517, 0.00023912559845484793, -0.008395999670028687, -0.003892666893079877], [-0.0029781286139041185, -0.004988619592040777, -0.0017525680596008897, -0.006433186121284962, 0.007006722502410412, -0.0015465900069102645, -0.0018974688136950135, -0.0023321860935539007, 0.001256061834283173, 0.002155509078875184, 0.001690329983830452, -0.007957142777740955, 0.001255139708518982, -0.0020731850527226925, -0.002108779503032565, -0.001045388518832624, -0.0015420070849359035, -0.004074555821716785, 0.003223532810807228, 0.010013689287006855, 0.002632872899994254, 0.0063354563899338245, 0.0017623675521463156, 0.00528390659019351, 0.0010811365209519863, -0.0011425045086070895, -0.0013934612507000566, -0.0013885301304981112, 0.001638788147829473, -0.004868349991738796, -0.004526491276919842, -0.0021404949948191643, 0.0070382095873355865, 0.0017022744286805391, 0.0016565724508836865, -0.0018508657813072205, 0.006541916634887457, -0.00450383685529232, 0.0023051027674227953, 0.005034414120018482, 0.0028256361838430166, -0.005544350948184729, 0.0010606065625324845, -0.0039991457015275955, 0.0020168982446193695, -0.002055822405964136, -0.0010802001925185323, -0.004273774102330208, 0.005771431140601635, -0.005121016409248114, 0.002360753947868943, -0.008655238896608353, 0.0015338687226176262, -0.003760694293305278, 0.0012865790631622076, -0.0022780338767915964, 0.005336981266736984, -0.003902596887201071, 0.004513413179665804, -0.001560343662276864, -0.0017756412271410227, -0.0023631774820387363, 0.004449260421097279, 0.005379705224186182, -0.006060989573597908, -0.0007670719642192125, 0.004567786585539579, 0.002964341314509511, -0.007459654938429594, -0.0032366039231419563, 0.0016331374645233154, 0.002522914670407772, 0.0025499663315713406, -0.004861331544816494, 0.00577502278611064, -0.005246980581432581, 0.006595789920538664, 0.0015496884007006884, -0.005189042072743177, -0.006727137137204409, -0.0052042738534510136, -0.002544023096561432, 0.0026702501345425844, -0.0062450235709548, -0.007142552174627781, -0.003716582665219903, 0.0027562917675822973, -0.00845621433109045, 0.008492967113852501, -0.002531585516408086, 0.002662742044776678, -0.00202701473608613, 0.0012036801781505346, 0.007846113294363022, 0.003057996742427349, -0.0028802156448364258, 0.006122530438005924, 0.0017001595115289092, -0.005914982408285141, -0.006522690411657095, -0.00560880359262228, -0.005211153067648411, 0.0016323872841894627, -0.0066798678599298, 0.010445509105920792, -0.005679819267243147, 0.004849390592426062, -0.007113792467862368, 0.004521794617176056, -0.0017340014455839992, 0.0016049534315243363, 0.0055723367258906364, 0.007387710735201836, 0.009494539350271225, 0.001367991673760116, -0.0016565208788961172, 0.003932837396860123, -0.0065175569616258144, 0.00774942385032773, -0.005486896261572838, 0.008183574303984642, -0.0069086491130292416, -0.009010703302919865, -0.004639938473701477, 0.00288571254350245, -0.0028809222858399153, 0.007794959004968405, 0.0023364033550024033], [-0.009072311222553253, -0.0028367231134325266, -0.006768578663468361, -0.0070730820298194885, 0.0038499091751873493, -0.0011149386409670115, -0.004114069044589996, -0.0026860327925533056, 0.0067829652689397335, 0.0026233161333948374, 0.0021912395022809505, -0.00039507143083028495, 0.009885762818157673, -0.006279774941504002, -0.003550924127921462, -0.0018516943091526628, -0.0002886284200940281, -0.0027037591207772493, 0.005881141871213913, 0.0018911539809778333, 0.003815549658611417, 0.008942744694650173, 0.0028331174980849028, 0.0031185743864625692, 0.0015841542044654489, -0.0016536819748580456, -0.0035331305116415024, -0.01158034335821867, 0.0026422885712236166, -0.002776068402454257, -0.007865674793720245, -0.0020294426940381527, 0.010677804239094257, 0.008770137093961239, 0.0025670581962913275, -0.0019658696837723255, 0.006357155740261078, -0.001160418032668531, 0.004268207121640444, 0.00974964164197445, 0.006872777361422777, -0.0028793930541723967, 0.0020787606481462717, -0.009519068524241447, 0.004105048719793558, -0.013325297273695469, -0.0032102870754897594, -0.014231852255761623, 0.006567499600350857, -0.005301349330693483, 0.00032312452094629407, -0.003319094656035304, 0.0014707237714901567, -0.007366306614130735, 0.0017766017699614167, -0.007464937400072813, 0.008840860798954964, -0.008895540609955788, 0.001938380184583366, -0.0031874023843556643, -0.0029923124238848686, -0.008809385821223259, 0.001124815666116774, 0.0053281476721167564, -0.003110523335635662, -0.0035502430982887745, 0.0036869433242827654, 0.0016875334549695253, -0.00317422510124743, -0.0026582193095237017, 0.018048180267214775, 0.006272234953939915, 0.005998396780341864, -0.0036158321890980005, 0.0009328628075309098, -0.0018940181471407413, 0.008923674933612347, 0.0033646770752966404, -0.01991868205368519, -0.00328633701428771, -0.010297365486621857, -0.0010444328654557467, 0.0071650235913693905, -0.009763041511178017, -0.004269858356565237, -0.011999614536762238, 0.003328446764498949, -0.0013957880437374115, 0.00230798521079123, -0.013659725897014141, 0.0024602864868938923, -0.00561970891430974, 0.002215284388512373, 0.0030973299872130156, 0.0038023910019546747, -0.01609819382429123, 0.0026143821887671947, 0.0019199048401787877, -0.008143052458763123, -0.007786905858665705, -0.004889549221843481, -0.0028640874661505222, 0.007539025042206049, -0.00016938956105150282, 0.0064007313922047615, -0.0024224163498729467, 0.001608114573173225, -0.004380394704639912, 0.006109976209700108, -0.0004662844876293093, 0.01769915595650673, 0.0019052221905440092, 0.002307172864675522, 0.003098392626270652, 0.00028934195870533586, -0.006935114972293377, 0.004997150506824255, -0.005761425942182541, 0.010251742787659168, -0.0021616825833916664, 0.0026068890001624823, -0.003121880115941167, -0.006983041763305664, -0.005250152666121721, 0.004220469854772091, -0.007807140238583088, 0.008892705664038658, 0.01928645558655262], [-0.018262498080730438, -0.020599104464054108, -0.013347729109227657, -0.015511290170252323, 0.01729733869433403, -0.0061166719533503056, -0.013637848198413849, -0.010668696835637093, 0.013579159043729305, 0.010579525493085384, 0.0024644709192216396, -0.012807606719434261, 0.003098658984526992, -0.016032569110393524, -0.0025327031034976244, -0.015913264825940132, -0.003398868255317211, -0.012211369350552559, 0.02171418070793152, 0.011200515553355217, 0.01719115488231182, 0.016991708427667618, 0.0030007981695234776, 0.02023080363869667, 0.009578157216310501, -0.005633483175188303, -0.012435050681233406, -0.019741935655474663, 0.0038671677466481924, -0.008219582028687, -0.005203272681683302, -0.01552281342446804, 0.0032525581773370504, 0.018263470381498337, 0.011753818951547146, -0.013824248686432838, 0.003941863309592009, -0.004568873438984156, 0.004349486902356148, 0.018208971247076988, 0.012104524299502373, -0.018203066661953926, 0.009190275333821774, -0.0163467675447464, 0.004840032663196325, -0.020706195384263992, -0.009981413371860981, -0.025092730298638344, 0.009297123178839684, -0.015645161271095276, 0.0023088317830115557, -0.02664674073457718, 0.005403269547969103, -0.0019344522152096033, 0.0027709556743502617, -0.006655439734458923, 0.019122513011097908, -0.017154211178421974, 0.0035864373203366995, -0.02182876504957676, -0.024640491232275963, -0.0037952465936541557, 0.00922977365553379, 0.0028569691348820925, -0.00590183399617672, -0.02238151803612709, 0.015029004774987698, 0.001098973792977631, -0.009462186135351658, -0.0032629549968987703, 0.019097400829195976, 0.021877843886613846, 0.0027480083517730236, -0.01770819164812565, 0.0029618465341627598, -0.0032609181944280863, 0.0028775855898857117, 0.01427986565977335, -0.023363642394542694, -0.0018660820787772536, -0.011759063228964806, -0.010277937166392803, 0.015917332842946053, -0.017147637903690338, -0.005660602822899818, -0.021203411743044853, 0.018973998725414276, -0.011521084234118462, 0.015391943044960499, -0.021374335512518883, 0.01891518011689186, -0.014701548963785172, 0.004842552822083235, 0.0029134624637663364, 0.016454488039016724, -0.00833209604024887, 0.016268977895379066, 0.011909425258636475, -0.011045729741454124, -0.018846647813916206, -0.01514378935098648, -0.016171732917428017, 0.010040721856057644, -0.006046260707080364, 0.008840112015604973, -0.015774065628647804, 0.010738976299762726, -0.010968927294015884, 0.004125147592276335, -0.008668390102684498, 0.022326255217194557, 0.006112231872975826, 0.012117472477257252, 0.014292815700173378, 0.0038158621173352003, -0.00615172041580081, 0.0026491174940019846, -0.016053246334195137, 0.002932744100689888, -0.009659321047365665, 0.0026859601493924856, -0.01699226349592209, -0.003426977666094899, -0.020615937188267708, 0.011061265133321285, -0.007259295787662268, 0.00315525708720088, 0.018423454836010933], [0.003582071280106902, 0.002365058520808816, 0.002272453624755144, 0.002168812556192279, -0.006145761348307133, 0.000580399704631418, 0.0009112401749007404, 0.0014977053506299853, -0.0001944990799529478, -0.004663212690502405, -0.0015752159524708986, 0.00013938077609054744, -0.0008831920567899942, 0.0011837861966341734, 0.001352309831418097, 0.002484723925590515, 0.000904310611076653, 0.003297168295830488, -0.0010008973767980933, -0.002026975154876709, -0.0005201159510761499, -0.00045302874059416354, -0.0028713587671518326, -0.0005681668408215046, -0.001082675764337182, 0.004531397018581629, 0.00030007684836164117, 0.0012448672205209732, -0.0030751207377761602, 0.0006571970880031586, 0.003000514814630151, 0.006476529873907566, -0.0006794703658670187, -0.0004554451734293252, -0.0014274845598265529, 0.005215120036154985, -6.313222547760233e-05, 0.0021291912999004126, -0.0012147871311753988, -0.0027197913732379675, -0.0029248229693621397, 0.005821846425533295, -0.001602238044142723, 0.0024670930579304695, -0.0022473675198853016, 0.00028123208903707564, 0.0027855397202074528, 0.006257184781134129, -0.0017807260155677795, 0.00548521289601922, -0.002396360971033573, 0.0023045865818858147, -0.0028484149370342493, 0.0036091471556574106, -0.003918986301869154, 0.0020058494992554188, -0.0007718060514889657, 0.0053124078549444675, -0.0017944202991202474, 0.0017730406252667308, 0.0008541708812117577, 0.002096407813951373, -0.002633707830682397, -0.0014818866038694978, 0.0009450914803892374, 0.00018730001465883106, -0.000792349805124104, -0.0031916415318846703, 0.0034052354749292135, 0.004095064476132393, -0.003193451790139079, -0.0006344230496324599, -0.004356814548373222, 0.0018881596624851227, -0.00026999099645763636, 0.0046764034777879715, -0.0008335759630426764, -0.000502509530633688, 0.0016893640859052539, 0.002968612127006054, 0.0005435796338133514, 0.0020864715334028006, -0.0004815072170458734, 0.0014792479341849685, 0.001533296424895525, 0.0020106411539018154, -5.0145143177360296e-05, 0.00012111487740185112, -0.0038102876860648394, 0.0010290475329384208, -0.0033428010065108538, 0.000517779728397727, -0.0038169673644006252, -0.006092967465519905, -0.0037335779052227736, 0.0008410185691900551, -0.0001294215180678293, -0.0006307070725597441, 0.0027004850562661886, 0.00160164141561836, 0.0005391170270740986, 0.00011564441228983924, -0.0018299914663657546, 0.004681684076786041, -0.0011396099580451846, 0.002201428636908531, -0.0010984111577272415, 0.002449382096529007, -0.0010835144203156233, 0.0002012985642068088, -0.0004521346709225327, -0.0021403031423687935, -0.004195790272206068, -0.000587970542255789, -0.0010720655554905534, 0.00041062026866711676, -0.00041898968629539013, 0.005891452077776194, -0.00039588293293491006, 0.0003308440209366381, -0.002122062025591731, 0.0039040171541273594, 0.0006071394309401512, 0.002142006065696478, -0.0016020536422729492, 0.00036655316944234073, -0.0018300425726920366, -0.0002830025623552501], [-0.01517548505216837, -0.01729230023920536, -0.0031456705182790756, -0.014714374206960201, 0.015711689367890358, -0.003812514478340745, -0.014212623238563538, -0.00991522241383791, 0.010622041299939156, 0.01023512240499258, 0.0018674718448892236, -0.011652540415525436, 0.01954427920281887, -0.012927434407174587, -0.002713406691327691, -0.0027768819127231836, -0.001794909592717886, -0.002834836719557643, 0.019523190334439278, 0.011859527789056301, 0.015201441012322903, 0.015049914829432964, 0.008784851990640163, 0.015427183359861374, 0.007912274450063705, -0.0017468987498432398, -0.010950676165521145, -0.01764783076941967, 0.003145699854940176, -0.011701306328177452, -0.013114681467413902, -0.013723187148571014, 0.01599322073161602, 0.014009994454681873, 0.011785712093114853, -0.0027931726071983576, 0.0017100597033277154, -0.0042376345954835415, 0.0238909013569355, 0.016639621928334236, 0.013369962573051453, -0.01678249053657055, 0.002798201981931925, -0.014276704750955105, 0.019422048702836037, -0.016066214069724083, -0.0031986497342586517, -0.013359391130506992, 0.00847399141639471, -0.012610864825546741, 0.001968356780707836, -0.023599110543727875, 0.006067462265491486, -0.0023655486293137074, 0.011075608432292938, -0.0039258659817278385, 0.014375673606991768, -0.004140603821724653, 0.0024153944104909897, -0.019163209944963455, -0.021720023825764656, -0.016051223501563072, 0.0060720317997038364, 0.0028230505995452404, -0.003401386085897684, -0.02465200610458851, 0.002437642775475979, 0.001709566218778491, -0.00591164268553257, -0.010006305761635303, 0.02119988016784191, 0.02045462094247341, 0.011113795451819897, -0.002953658811748028, 0.006115914788097143, -0.009761041030287743, 0.013245648704469204, 0.010351091623306274, -0.02337193302810192, -0.002202100120484829, -0.015883993357419968, -0.008428207598626614, 0.011210842058062553, -0.003504269290715456, -0.004464440047740936, -0.011527991853654385, 0.016394691541790962, -0.011135686188936234, 0.010948347859084606, -0.018362611532211304, 0.0156067730858922, -0.012669114395976067, 0.01324431225657463, 0.00905583892017603, 0.013429000973701477, -0.01936757192015648, 0.01088722888380289, 0.011370488442480564, -0.005898080300539732, -0.015156938694417477, -0.005795381031930447, -0.011148008517920971, 0.007984294556081295, -0.0005926234880462289, 0.0080897631123662, -0.012101898901164532, 0.0026012426242232323, -0.009626432321965694, 0.005491491872817278, -0.006709475535899401, 0.022233448922634125, 0.007026036735624075, 0.01030709594488144, 0.00326689425855875, 0.0018136363942176104, -0.0022521743085235357, 0.0027636107988655567, -0.010892019607126713, 0.01245200913399458, -0.0025564697571098804, 0.011145083233714104, -0.016314664855599403, -0.012351660057902336, -0.006592447403818369, 0.00816094595938921, -0.002232619561254978, 0.003344498109072447, 0.02252425067126751], [-0.005889411084353924, -0.006072999909520149, -0.06166442856192589, -0.00564672751352191, 0.04566808417439461, -0.06287699192762375, -0.05954495817422867, -0.0053625344298779964, 0.06004609540104866, 0.005828917492181063, 0.06546255946159363, -0.01818511076271534, 0.0029643308371305466, -0.004990245681256056, -0.06662051379680634, -0.007696179673075676, -0.005457841791212559, -0.06656842678785324, 0.01853278838098049, 0.005890578031539917, 0.012401264160871506, 0.007745398674160242, 0.0056170010939240456, 0.06804723292589188, 0.06598687916994095, -0.06587113440036774, -0.05272920802235603, -0.05681842193007469, 0.07098094373941422, -0.0046173445880413055, -0.0453202985227108, -0.007917780429124832, 0.02245977893471718, 0.005239652004092932, 0.06017337739467621, -0.026700299233198166, 0.06892099231481552, -0.06111586466431618, 0.011827241629362106, 0.06071697548031807, 0.00915753934532404, -0.011375973001122475, 0.06294877082109451, -0.011038397438824177, 0.06042172387242317, -0.017425866797566414, -0.005689211655408144, -0.006434581242501736, 0.04263245686888695, -0.0569099485874176, 0.049365896731615067, -0.005558174569159746, 0.06804327666759491, -0.07155989110469818, 0.02049466408789158, -0.07088353484869003, 0.051105014979839325, -0.05609220266342163, 0.07239063829183578, -0.008002116344869137, -0.013616400770843029, -0.0055117495357990265, 0.04926125332713127, 0.018644098192453384, -0.005288071930408478, -0.007129216101020575, 0.012549321167171001, 0.060646116733551025, -0.009524790570139885, -0.0752464160323143, 0.004748035687953234, 0.0077675036154687405, 0.06679805368185043, -0.04840197414159775, 0.07765887677669525, -0.03855286166071892, 0.0055487132631242275, 0.0030068864580243826, -0.006145365070551634, -0.06439800560474396, -0.013902610167860985, -0.05215896666049957, 0.0055156853049993515, -0.01999090239405632, -0.06306416541337967, -0.00880720280110836, 0.004160882905125618, -0.0059646195732057095, 0.005930821876972914, -0.005933369975537062, 0.0054044160060584545, -0.007821548730134964, 0.005010094493627548, 0.05530528724193573, 0.006850551813840866, -0.0026731479447335005, 0.008470982313156128, 0.0571480393409729, -0.03312360867857933, -0.005311211105436087, -0.06536043435335159, -0.005432309582829475, 0.04209252819418907, -0.009244265966117382, 0.049275174736976624, -0.02202313020825386, 0.06362877786159515, -0.05302337557077408, 0.044890183955430984, -0.00350549235008657, 0.004630218725651503, 0.017140179872512817, 0.06141281872987747, 0.05464647337794304, 0.005603408440947533, -0.07741907238960266, 0.06461886316537857, -0.005846509709954262, 0.05631722882390022, -0.029399249702692032, 0.05405544117093086, -0.006720285397022963, -0.06551279127597809, -0.007470700889825821, 0.007327661383897066, -0.03999416157603264, 0.0034418529830873013, 0.005811935756355524], [0.04749184101819992, 0.03982611745595932, 0.04585698992013931, 0.02333785779774189, -0.04899358004331589, 0.04860129579901695, 0.026597006246447563, 0.0448395274579525, -0.04683684557676315, -0.05476294457912445, -0.045301403850317, 0.054308582097291946, -0.011980567127466202, 0.04947314411401749, 0.0453086793422699, 0.05009260028600693, 0.05681933835148811, 0.044127169996500015, -0.05510959401726723, -0.057848960161209106, -0.04761207476258278, -0.05078117176890373, -0.040998972952365875, -0.04760555550456047, -0.03641251474618912, 0.03851781785488129, 0.05531035363674164, 0.05401667580008507, -0.008048729971051216, 0.05103868618607521, 0.020337728783488274, 0.051398392766714096, -0.054533571004867554, -0.0075353286229074, -0.049893271178007126, 0.05417656525969505, -0.04593251273036003, 0.039157796651124954, -0.05634703114628792, -0.04723169282078743, -0.0454661026597023, 0.0490863174200058, -0.04207557812333107, 0.05174517631530762, -0.05541052669286728, 0.005507489200681448, 0.044867146760225296, 0.05706394463777542, -0.014929956756532192, 0.04249432310461998, -0.04899732023477554, 0.039082109928131104, -0.027274981141090393, 0.04786794260144234, -0.050374601036310196, 0.004822836257517338, -0.05196268483996391, 0.04207739606499672, -0.007179656531661749, 0.05427510291337967, 0.05334167182445526, 0.05616764724254608, -0.04816439002752304, -0.04932853952050209, 0.05277066305279732, 0.056252531707286835, -0.049866851419210434, -0.05062045529484749, 0.04331335425376892, 0.04300793632864952, -0.05839487165212631, -0.04964601248502731, -0.006627370603382587, 0.049352016299963, -0.05031890049576759, 0.04256643354892731, -0.006441202946007252, -0.06890086829662323, 0.03331831842660904, 0.0573258176445961, 0.022754274308681488, 0.05439247563481331, -0.005028623156249523, 0.005610207561403513, 0.051069844514131546, 0.054853908717632294, -0.05457291379570961, 0.04977063834667206, -0.008524194359779358, 0.05714421346783638, -0.01152531523257494, 0.021905960515141487, -0.050904687494039536, -0.046434029936790466, -0.05939970910549164, 0.05241696164011955, -0.041852012276649475, -0.05220567062497139, 0.012217680923640728, 0.04861113056540489, 0.043923672288656235, 0.05470966920256615, -0.031262557953596115, 0.05413467437028885, -0.03821829706430435, 0.006094040814787149, -0.048359889537096024, 0.05500376224517822, -0.03819477558135986, 0.03471873328089714, -0.05383630096912384, -0.04659483581781387, -0.057899538427591324, -0.03289962559938431, -0.03398541733622551, 0.04394948482513428, -0.007318173535168171, 0.006785941310226917, -0.044115521013736725, 0.0055611818097531796, -0.015911296010017395, 0.047860752791166306, 0.034763678908348083, 0.05196208506822586, -0.03690756484866142, 0.059965331107378006, -0.059431351721286774, -0.05676645040512085], [-0.005897243972867727, -0.007616330869495869, -0.004456960596144199, -0.0025159602519124746, 0.00255083991214633, -0.003418276086449623, -0.007148995064198971, -0.0017049027374014258, 0.0018231880385428667, 0.007470634765923023, 0.0016603019321337342, -0.0013323387829586864, 0.009390946477651596, -0.0016321606235578656, -0.007751045282930136, -0.00013200163084547967, -0.007733984384685755, -0.0006600545602850616, 0.00823375303298235, 0.0005486452719196677, 0.004985915496945381, 0.004394941963255405, 0.001140317297540605, 0.00669886777177453, 0.001261665835045278, -0.0009672950254753232, -0.0021822326816618443, -0.006932491902261972, 0.001679290202446282, -0.0002238852612208575, -0.0057782819494605064, -0.0016350230434909463, 0.006999695207923651, 0.0065549141727387905, 0.0074916258454322815, -0.007989531382918358, 0.0022525335662066936, -0.005362989380955696, 0.01304134726524353, 0.002956774551421404, 0.0019131049048155546, -0.0024872724898159504, 0.007155894301831722, -0.0010557761415839195, 0.007686689030379057, -0.006671724375337362, -0.0015554449055343866, -0.002827068092301488, 0.007039251271635294, -0.0023865383118391037, 0.0019746501930058002, -0.016064750030636787, 0.004894029349088669, -0.002727906219661236, 0.006766806822270155, -0.004776132293045521, 0.004390307702124119, -0.00230752257630229, 0.0014208047650754452, -0.011702991090714931, -0.014206274412572384, -0.003624230157583952, 0.0003007478080689907, 0.0005207614740356803, -0.010158256627619267, -0.016403445973992348, 0.004307820461690426, 0.0010175443021580577, -0.0025893887504935265, -0.002063944935798645, 0.00510201882570982, 0.006905198562890291, 0.0014653571415692568, -0.005563369020819664, 0.0008032076293602586, -0.002261848421767354, 0.004718960262835026, 0.005977637134492397, -0.0120954355224967, -0.0011333500733599067, -0.009370620362460613, -0.00794927030801773, 0.0008912443299777806, -0.004418531432747841, -0.001955614658072591, -0.0022091814316809177, 0.00857551395893097, -0.0009626587852835655, 0.004169081803411245, -0.0024855893570929766, 0.006541852373629808, -0.008280402980744839, 0.003120100125670433, 0.003156140446662903, 0.003507035318762064, -0.004698995500802994, 0.004350381437689066, 0.001895163906738162, -0.00885072723031044, -0.0077324723824858665, -0.0019186539575457573, -0.004122254904359579, 0.007541781757026911, -0.004545501433312893, 0.006211425177752972, -0.0038695838302373886, 0.003707950236275792, -0.004408149514347315, 0.0056767757050693035, -0.007298459764569998, 0.013889377005398273, 0.0035946639254689217, 0.0016160181257873774, 0.003188937669619918, 0.005121870432049036, -0.00624506501480937, 0.0021641862113028765, -0.0022995537146925926, 0.006968568079173565, -0.0010906434617936611, 0.00011764952796511352, -0.008832136169075966, -0.004409658722579479, -0.009522237814962864, 0.0023770283441990614, -0.00594113115221262, 0.005149856675416231, 0.009663552977144718], [-0.007760756649076939, -0.05159151926636696, -0.04521247744560242, -0.009206190705299377, 0.006941846571862698, -0.004874270875006914, -0.006465568207204342, -0.004757641348987818, 0.0435657761991024, 0.05007851868867874, 0.017260396853089333, -0.04971325397491455, 0.0516807846724987, -0.04762420803308487, -0.04250175505876541, -0.04337702691555023, -0.050137560814619064, -0.04033460468053818, 0.00573263643309474, 0.050108544528484344, 0.04482553154230118, 0.048269275575876236, 0.04113614931702614, 0.03353390097618103, 0.035184308886528015, -0.039397601038217545, -0.051492683589458466, -0.05018697306513786, 0.019107814878225327, -0.04836583882570267, -0.03543466329574585, -0.051014967262744904, 0.05199846625328064, 0.048578329384326935, 0.04899192601442337, -0.00459202378988266, 0.04347694292664528, -0.03937323018908501, 0.04216074198484421, 0.004518477711826563, 0.044557906687259674, -0.034810613840818405, 0.04222675785422325, -0.045299071818590164, 0.05353438854217529, -0.04912012070417404, -0.004969627596437931, -0.03912746161222458, 0.02068878337740898, -0.04738953337073326, 0.0449397899210453, -0.01387464627623558, 0.04006415978074074, -0.04868143051862717, 0.04613790288567543, -0.02256159856915474, 0.004341745283454657, -0.03946162387728691, 0.03703828901052475, -0.04989170283079147, -0.05001741647720337, -0.052145253866910934, 0.0430537685751915, 0.03890712931752205, -0.04769311472773552, -0.051157474517822266, 0.046409185975790024, 0.046295393258333206, -0.005910465959459543, -0.030364129692316055, 0.052625976502895355, 0.008172793313860893, 0.04967257380485535, -0.04733217880129814, 0.00884934887290001, -0.03912433609366417, 0.006373490672558546, 0.004964915104210377, -0.05936967954039574, -0.05366085097193718, -0.02533923089504242, -0.005579368211328983, 0.05455067381262779, -0.006948165595531464, -0.04764866828918457, -0.005505112465471029, 0.05113617703318596, -0.04387911409139633, 0.005768389441072941, -0.05080251023173332, 0.04962270334362984, -0.04985697939991951, 0.04427000880241394, 0.04378494620323181, 0.02742999605834484, -0.048258110880851746, 0.00671372702345252, 0.026774417608976364, -0.026486819609999657, -0.048110730946063995, -0.012198969721794128, -0.051170408725738525, 0.031474918127059937, -0.04844069108366966, 0.03633110225200653, -0.04862220585346222, 0.045141518115997314, -0.05403584614396095, 0.035952504724264145, -0.04585595428943634, 0.05081918463110924, 0.043851807713508606, 0.05294635891914368, 0.011463383212685585, 0.04792184755206108, -0.005120866000652313, 0.03971376270055771, -0.04562223702669144, 0.04254976660013199, -0.03995847329497337, 0.04195364564657211, -0.03513083606958389, -0.004764052107930183, -0.04835407808423042, 0.03245489299297333, -0.051454562693834305, 0.010195414535701275, 0.05232697352766991], [0.0005011916509829462, 0.0019190300954505801, 0.0030376138165593147, 0.006241352763026953, -0.0012313325423747301, 0.00020259554730728269, 0.0002347129484405741, 0.0062144044786691666, -0.006247767712920904, -0.0021765343844890594, -0.002531512640416622, 0.006277540698647499, -0.004818345885723829, 8.062131382757798e-05, 0.001537575968541205, 0.0011027067666873336, 0.0002445247082505375, 0.003342105308547616, -0.0008175330003723502, -0.004298537969589233, -0.0007692133076488972, -0.0021314951591193676, -0.001110960845835507, -0.006195465102791786, -0.0023074238561093807, 0.0015412189532071352, 0.002038839040324092, 0.001994134858250618, -0.0043980772607028484, 0.0033386428840458393, 0.0032888140995055437, 0.0009592452552169561, -6.08245209150482e-05, -0.00013565314293373376, -0.0008791467407718301, 0.000872871489264071, -0.0023268077056854963, 0.0002419481606921181, -0.00039128612843342125, -0.0020544149447232485, -0.0011853938922286034, 0.003489172086119652, -0.0018338370136916637, 0.0017143907025456429, -0.0017056086799129844, 0.0029139367397874594, 0.003333561820909381, 0.000884934444911778, -0.0004503916425164789, 0.003685500007122755, -0.0055742221884429455, 0.003147533629089594, -0.000843013112898916, 0.0029293065890669823, -0.0028388372156769037, 0.005918633658438921, -0.0005046683363616467, 0.0060186139307916164, -0.00025565887335687876, 2.34592444030568e-05, 0.0021844881121069193, 0.0017674891278147697, -0.0006786324665881693, -0.000583951361477375, 0.006153172813355923, 0.0012694980250671506, -0.004808187019079924, -0.004882904700934887, 0.0013583124382421374, 0.00016112210869323462, -0.0001642032730160281, -0.0023993642535060644, -0.0017695869319140911, 0.0031921020708978176, -0.0015747383004054427, 0.005202485714107752, -0.0029112794436514378, -0.0015778043307363987, 0.006947866175323725, 0.0030342310201376677, 0.006217187270522118, 0.00022432686819229275, -0.0016148594440892339, 0.0005718359025195241, 0.0014117221580818295, 0.0016743862070143223, -0.001930621569044888, 0.003464884590357542, -0.0007263814914040267, 0.0006329410243779421, -0.0008860722882673144, 0.002686737570911646, -0.0023526146542280912, -0.0002043580898316577, -0.0021493148524314165, 0.002675742609426379, -3.4126082027796656e-05, -0.001650367397814989, 0.005728581454604864, 0.002725103637203574, 0.004270458593964577, 0.0009401501156389713, -0.0010613250778988004, 0.0003941933100577444, -0.0010558506473898888, 0.001894404529593885, -0.007098063360899687, 8.518407412339002e-05, -0.0032254857942461967, 0.0011446673888713121, -0.00026074674678966403, -0.0035789506509900093, -0.0009993191342800856, -0.003310183761641383, -0.003259874414652586, 0.001769882277585566, -0.0014209682121872902, 0.006015594583004713, -0.006381035316735506, 0.006321708206087351, -0.0005255460855551064, 0.001155955484136939, 0.000614817370660603, 0.002513719955459237, -0.0020240838639438152, 0.0005075767985545099, -0.0024671442806720734, -0.0010831318795681], [0.006660213228315115, 0.0003381578717380762, 0.0018135486170649529, 0.0029831125866621733, -0.006655942182987928, 0.0036472207866609097, 0.003346775658428669, 0.0010728780180215836, -0.000153867804328911, -0.0010608695447444916, -0.005449991673231125, 0.000289871939457953, -0.0017694010166451335, 0.002909891540184617, 0.0025504787918180227, 0.0014092368073761463, 0.000825085153337568, 0.0015268143033608794, -0.007063976489007473, -1.782643812475726e-05, -0.00052272790344432, -0.0004599986132234335, -0.00021053872478660196, -0.00013729622878599912, -0.001849980792030692, 0.00040072857518680394, 0.003982987254858017, 0.005514040123671293, -0.003695783670991659, 0.004352387506514788, 0.0030902123544365168, 0.005297413561493158, -0.000266820628894493, -0.003404953284189105, -0.0022059727925807238, 0.001855829730629921, -0.005386692006140947, 0.0023586417082697153, -0.001765358611010015, -0.0006400443962775171, -0.002368699759244919, 0.0008337904582731426, -0.0033530578948557377, 0.002068375702947378, -3.627561454777606e-05, 0.0015754136256873608, 0.0028790165670216084, 0.0006744152633473277, -0.001955815125256777, 0.0027423566207289696, -0.003741032676771283, 0.004164850804954767, -0.0035060797818005085, 0.0003127252566628158, -0.0011713966960087419, 0.00019734651141334325, -0.0015226621180772781, 0.0012585018994286656, -0.003630769206210971, 0.0014830995351076126, 0.004779800307005644, 0.001981575507670641, -0.0006940641324035823, -0.0007948001730255783, 0.0011818697676062584, 0.0034975775051862, -0.0013464950025081635, -0.00021742100943811238, 0.004408143926411867, 0.002180864103138447, -0.0021092891693115234, -0.0013868656242266297, -0.0007380420574918389, 0.0006033917306922376, -0.0020438048522919416, 0.003203848609700799, -0.001173900905996561, -0.0004925347748212516, 0.00018457129772286862, 0.005127313546836376, 0.0022502481006085873, 0.001464033150114119, -0.002568059368059039, 0.0015840765554457903, 0.0003552875423338264, 8.008009899640456e-05, -0.0020582592114806175, 0.0002310912823304534, -0.004324477631598711, 0.0015746423741802573, -0.0007657239330001175, 0.0020106849260628223, -0.001362100476399064, -8.956754754763097e-05, -0.0025173400063067675, 0.0026020000223070383, -0.004119908902794123, -0.003160575870424509, 0.0015385975129902363, 0.004522526636719704, 0.005388861987739801, 0.003729911521077156, -0.0028299728874117136, 0.0022209591697901487, -0.0012688232818618417, 0.0016403798945248127, -0.004932402167469263, 0.001012743916362524, -0.005591097287833691, 0.0007497922051697969, -0.0035923109389841557, -0.000672460300847888, -0.0024557639844715595, -0.005271591246128082, -0.00020239836885593832, 0.003698954824358225, -0.0037536765448749065, 0.0011415233602747321, -0.0019983670208603144, 0.002778866561129689, -0.002031372394412756, 0.0034530817065387964, 5.978572880849242e-05, 0.0035458137281239033, -0.002761433832347393, 0.0009528064401820302, -0.001963461749255657, -0.0017314034048467875], [-0.00032028634450398386, -0.0005112552898935974, -0.0013975522015243769, -0.003959812223911285, 0.002979952609166503, -0.0007829689420759678, -0.005983430426567793, -0.00145542505197227, 0.00216276990249753, 0.0015214014565572143, 0.0009852992370724678, -0.00038109486922621727, 0.000877280137501657, -0.0050247469916939735, -0.0016986217815428972, -0.004318282939493656, -0.0030599320307374, -0.0010038206819444895, 0.0052877371199429035, 0.001406216761097312, 1.491258262831252e-05, 0.0006201954674907029, 0.0035795418079942465, 0.003898284398019314, 0.001142854685895145, -0.0014251737156882882, -7.760287189739756e-06, -0.0018341802060604095, 0.0016259255353361368, -0.0007979232468642294, -0.002574190031737089, -0.00274644629098475, 0.0016332654049620032, 0.002580409636721015, 0.0047263228334486485, -0.002351630013436079, 0.0011496269144117832, -0.0020085612777620554, 0.0016648119781166315, 0.0002855722850654274, 0.0014030805323272943, -0.0012069756630808115, 0.001276239170692861, -0.002044721506536007, 0.0018549645319581032, -0.00042805197881534696, -0.00045187794603407383, -0.0005309867556206882, 0.002188989892601967, -0.002258844440802932, 0.0017781982896849513, -0.0005393699393607676, 0.0010068533010780811, -9.811309428187087e-05, 0.0025326653849333525, -0.00230080122128129, 0.002014421159401536, -0.00039774179458618164, 0.0023010200820863247, -0.0005874065682291985, -0.007159323897212744, -7.410628313664347e-05, 0.0021038828417658806, 0.001064050942659378, -0.002428612671792507, -0.006707331165671349, 0.006858646869659424, 0.00307827303186059, -0.00427827937528491, -0.002170521765947342, 0.0010324701434001327, 0.0010470544220879674, 0.00042279320769011974, -0.0007032584981061518, 0.0011445531854406, -0.00047058818745426834, 0.002313197823241353, 0.0002448571322020143, -0.0008071449701674283, -0.003240173449739814, -0.0054966965690255165, -0.005781276151537895, 0.0013912218855693936, -0.0010253061773255467, -0.0018687841948121786, -0.0019363254541531205, 0.0007672404171898961, -0.002600288949906826, 0.0021670577116310596, -0.002674942370504141, 0.0036108565982431173, -0.0013665761798620224, 0.001603181124664843, 0.0018089759396389127, 0.0007541662780568004, -0.00046652648597955704, 0.0033302803058177233, 0.0004335318226367235, -0.0040941121987998486, -0.005937202367931604, -0.00023375824093818665, -4.560899833450094e-05, 0.004941643215715885, -0.0015366574516519904, 0.0024160011671483517, -0.000928182271309197, 0.0003453663084656, -0.0019180185627192259, 0.002794141648337245, -0.0005663527408614755, 0.0035522065591067076, 3.216295226593502e-05, 0.0013900111662223935, 0.0013606788124889135, 0.001195235992781818, -0.0014753089053556323, 0.0057175955735147, -0.00020924197451677173, 0.0010422405321151018, -0.0011592122027650476, 0.0017531437333673239, -0.0038311711978167295, -0.002260938985273242, -0.002140577882528305, 0.0007132847094908357, -0.0035502216778695583, 0.0014776581665500998, 0.0013219756074249744], [0.01335365790873766, 0.016495753079652786, 0.01031253021210432, 0.0030399009119719267, -0.013588882982730865, 0.001344837830401957, 0.0028065936639904976, 0.002475110348314047, -0.0029164745938032866, -0.0027872684877365828, -0.007374398875981569, 0.009324687533080578, -0.016728565096855164, 0.004955468233674765, 0.00739557109773159, 0.0026741744950413704, 0.003337371628731489, 0.009477147832512856, -0.00320582278072834, -0.0027645346708595753, -0.011761698871850967, -0.013910504058003426, -0.002708363113924861, -0.004942669533193111, -0.006736524403095245, 0.0020949721802026033, 0.011437327601015568, 0.0031295015942305326, -0.0026940591633319855, 0.00989485438913107, 0.008812597021460533, 0.002550014527514577, -0.014659271575510502, -0.0041458685882389545, -0.009076845832169056, 0.0027237029280513525, -0.0021566571667790413, 0.001937052351422608, -0.018982863053679466, -0.014008494094014168, -0.010481967590749264, 0.015192595310509205, -0.0020732784178107977, 0.003120759269222617, -0.014615274034440517, 0.007581254467368126, 0.002515583299100399, 0.0030994731932878494, -0.0016757780686020851, 0.0027257208712399006, -0.0017626865301281214, 0.020609332248568535, -0.0021003149449825287, 0.0017047267174348235, -0.006620056461542845, 0.003664798103272915, -0.011886756867170334, 0.003062340198084712, -0.004377481993287802, 0.017709188163280487, 0.003201557556167245, 0.014386001974344254, -0.0021217658650130033, -0.009379655122756958, 0.004240391310304403, 0.01490732654929161, -0.0027094583492726088, -0.0011143937008455396, 0.008155656978487968, 0.002700819866731763, -0.019521957263350487, -0.01566971279680729, -0.011922396719455719, 0.010668355971574783, -0.005721873138099909, 0.005652545019984245, -0.011883421801030636, -0.010126352310180664, 0.0034430394880473614, 0.0022251231130212545, 0.007490919902920723, 0.002264866605401039, -0.011704441159963608, 0.009801759384572506, 0.005952794104814529, 0.004976693540811539, -0.0030126951169222593, 0.002675354015082121, -0.007743073161691427, 0.015590262599289417, -0.0053448909893631935, 0.00960853137075901, -0.012393352575600147, -0.007061581593006849, -0.0024260657373815775, 0.003129443386569619, -0.0028851127717643976, -0.0024775811471045017, 0.008352209813892841, 0.004327886737883091, 0.008691652677953243, 0.01482856273651123, -0.003970090299844742, 0.0015054602408781648, -0.0012937327846884727, 0.0029331285040825605, -0.0025385082699358463, 0.01013190671801567, -0.001875655259937048, 0.007263127714395523, -0.0036626863293349743, -0.00772746792063117, -0.007761452812701464, -0.011240383610129356, -0.0015389254549518228, 0.001836493844166398, -0.011433402076363564, 0.011619248427450657, -0.014443643391132355, 0.007161962334066629, -0.010490178130567074, 0.0034557636827230453, 0.00808456726372242, 0.017607329413294792, -0.0038233324885368347, 0.003551109228283167, -0.0031339102424681187, -0.003119455184787512], [-0.00754429679363966, -0.017754482105374336, -0.010225831530988216, -0.010415744967758656, 0.015172137878835201, -0.0007832497358322144, -0.0023813769221305847, -0.007865503430366516, 0.010528315789997578, 0.009115967899560928, 0.0054003349505364895, -0.009235289879143238, 0.009170633740723133, -0.008610052056610584, -0.003906758967787027, -0.0070310598239302635, -0.0014084473950788379, -0.009238077327609062, 0.018053483217954636, 0.010331084951758385, 0.011380322277545929, 0.013340616598725319, 0.008937989361584187, 0.011268235743045807, 0.004936239682137966, -0.0013807442737743258, -0.010339818894863129, -0.01208436768501997, 0.009397328831255436, -0.0023768488317728043, -0.00844962615519762, -0.005431198514997959, 0.012376920320093632, 0.011854544281959534, 0.006111289374530315, -0.005116939544677734, 0.000413346424465999, -0.002240311587229371, 0.003179649356752634, 0.011014510877430439, 0.01072701159864664, -0.012556582689285278, 0.0018698787316679955, -0.01311766542494297, 0.015788381919264793, -0.014234732836484909, -0.0075524416752159595, -0.018328336998820305, 0.0067052338272333145, -0.002816126449033618, 0.0006673600291833282, -0.01878831349313259, 0.0012334790080785751, -0.0044416808523237705, 0.005375164560973644, -0.001760975574143231, 0.012675482779741287, -0.010031498968601227, 0.0044677965342998505, -0.01776885986328125, -0.015235311351716518, -0.006334015633910894, 0.007018904201686382, 0.00639888271689415, -0.017073525115847588, -0.00634334422647953, 0.012315579690039158, 0.004461226519197226, -0.0027462560683488846, -0.0059431674890220165, 0.004881320521235466, 0.015994347631931305, 0.009830784052610397, -0.01234153751283884, 0.006107110995799303, -0.009051324799656868, 0.011700303293764591, 0.01098685897886753, -0.0212161373347044, -0.0029549237806349993, -0.0016073699807748199, -0.008417665027081966, 0.010406487621366978, -0.012512089684605598, -0.0038291215896606445, -0.0071681784465909, 0.01579761877655983, -0.002701218007132411, 0.010332096368074417, -0.013477197848260403, 0.01303860079497099, -0.009390583261847496, 0.002841133391484618, 0.00743406405672431, 0.006804177537560463, -0.004080326296389103, 0.011534123681485653, 0.0074504949152469635, -0.004804656840860844, -0.010861344635486603, -0.00892536249011755, -0.012377486564218998, 0.008304761722683907, -0.0036389343440532684, 0.002570174168795347, -0.01261129043996334, 0.005727389827370644, -0.010184445418417454, 0.007696162443608046, -0.00629182904958725, 0.0034195613116025925, 0.00487516401335597, 0.00505000539124012, 0.010397559031844139, 0.0007756226696074009, -0.0008075467776507139, 0.008778226561844349, -0.007085764780640602, 0.012030528858304024, -0.00366971711628139, 0.00796215608716011, -0.013631578534841537, -0.00553883844986558, -0.015061583369970322, 0.00749027356505394, -0.005231076385825872, 0.01273599173873663, 0.01760277710855007], [-0.015746966004371643, -0.012965746223926544, -0.010883337818086147, -0.01703599840402603, 0.0113833611831069, -0.0028249097522348166, -0.012496654875576496, -0.011317147873342037, 0.003240027232095599, 0.0026865298859775066, 0.013368918560445309, -0.006249549333006144, 0.005483560264110565, -0.013208212330937386, -0.009823243133723736, -0.013972019776701927, -0.002374019008129835, -0.012994329445064068, 0.004475862253457308, 0.00774727575480938, 0.0026523119304329157, 0.012984092347323895, 0.012886427342891693, 0.02322816103696823, 0.011192161589860916, -0.005312259308993816, -0.009719309397041798, -0.01439671404659748, 0.010088072158396244, -0.00043337748502381146, -0.005449947901070118, -0.014368752017617226, 0.01816656067967415, 0.014084726572036743, 0.015295379795134068, -0.015276572667062283, 0.0014251600950956345, -0.004051228519529104, 0.004470208194106817, 0.018739666789770126, 0.010815353132784367, -0.012947812676429749, 0.006810495629906654, -0.014630147255957127, 0.017751405015587807, -0.0042913807556033134, -0.01244206354022026, -0.003016239497810602, 0.0075166234746575356, -0.00280252518132329, 0.006625198759138584, -0.014802771620452404, 0.004485413432121277, -0.001240476849488914, 0.006143305916339159, -0.0018432223005220294, 0.00290725682862103, -0.015972668305039406, 0.009066008031368256, -0.0007963002426549792, -0.0009339395328424871, -0.01355745829641819, 0.007277339696884155, 0.011695831082761288, -0.013309928588569164, -0.004281405825167894, 0.009373531676828861, 0.001862590666860342, -0.007165492512285709, -0.012261763215065002, 0.003759281476959586, 0.014434345997869968, 0.012106598354876041, -0.002943528350442648, 0.005922114942222834, -0.015104716643691063, 0.016600998118519783, 0.0032650099601596594, -0.0033602493349462748, -0.0012916210107505322, -0.021570470184087753, -0.004935275763273239, 0.015301386825740337, -0.010126382112503052, -0.005800648592412472, -0.013394096866250038, 0.01151055097579956, -0.015201175585389137, 0.015809178352355957, -0.012651436030864716, 0.016747325658798218, -0.003523496212437749, 0.014773109927773476, 0.0024950799997895956, 0.0009413564694114029, -0.014522555284202099, 0.014485240913927555, 0.01355642732232809, -0.003104153787717223, -0.021436849609017372, -0.002783750416710973, -0.009525159373879433, 0.008099361322820187, -0.0017858161590993404, 0.010124975815415382, -0.010817242786288261, 0.009493793360888958, -0.0036665271036326885, 0.011565319262444973, -0.0020042958203703165, 0.0007872252026572824, 0.012447209097445011, 0.003184874542057514, 0.010669142007827759, 0.006055064033716917, -0.0023175289388746023, 0.014210958033800125, -0.018387386575341225, 0.0028389766812324524, -0.01170355174690485, 0.0025769739877432585, -0.00953638181090355, -0.0036365780979394913, -0.02334153838455677, 0.013590478338301182, -0.0022035834845155478, 0.01090824231505394, 0.003633942222222686], [-0.0034445642959326506, -0.0028149057179689407, -0.004021839704364538, -0.003396843560039997, 0.004929380025714636, -0.002949333284050226, -0.0024893947411328554, -0.001195961027406156, 0.0012718718498945236, 0.0011464916169643402, 0.002825644798576832, -0.003341845003888011, 0.0037218474317342043, -0.001102678943425417, -0.022646978497505188, -0.002749277511611581, -0.0020645710173994303, -0.0027315812185406685, 0.004799577873200178, 0.004581470973789692, 0.0026188569609075785, 0.0012733207549899817, 0.0023397752083837986, 0.00987273920327425, 0.02174678072333336, -0.0024532070383429527, -0.004950726870447397, -0.0035577891394495964, 0.0036462724674493074, -0.0010393154807388783, -0.014790745452046394, -0.0025850774254649878, 0.007222214248031378, 0.0075657181441783905, 0.003060567192733288, -0.0035687412600964308, 0.010254843160510063, -0.018624119460582733, 0.00739876925945282, 0.0013467528624460101, 0.017799286171793938, -0.006433598697185516, 0.021347487345337868, -0.003725002985447645, 0.0029675872065126896, -0.006423641927540302, -0.0034658850636333227, -0.0031786339823156595, 0.005369413644075394, -0.0012271285522729158, 0.00246805464848876, -0.005553601775318384, 0.017132248729467392, -0.0027208018582314253, 0.0009257531492039561, -0.002104413928464055, 0.0013332166709005833, -0.004501942079514265, 0.010957884602248669, -0.00447304081171751, -0.002300507389008999, -0.002759002847597003, 0.001957017695531249, 0.004285149741917849, -0.004016242455691099, -0.00730975391343236, 0.002231433056294918, 0.0022178329527378082, -0.0008319359621964395, -0.003475583391264081, 0.0030940896831452847, 0.0028208845760673285, 0.005241606384515762, -0.003173683537170291, 0.005498943384736776, -0.003557128133252263, 0.004355329088866711, 0.0027365651912987232, -0.0013880770420655608, -0.0020677733700722456, -0.013134753331542015, -0.0009651202708482742, 0.004865772556513548, -0.002682282356545329, -0.004969159606844187, -0.002540585584938526, 0.006298501510173082, -0.006922348402440548, 0.0034224805422127247, -0.0012511140666902065, 0.0035059507936239243, -0.002687490778043866, 0.004590911325067282, 0.005876312498003244, 0.001012252178043127, -0.003731547622010112, 0.0035861178766936064, 0.0024933461099863052, -0.008459913544356823, -0.0062905652448534966, -0.0026944575365632772, -0.0033365371637046337, 0.008013125509023666, -0.0018372576450929046, 0.008551165461540222, -0.0024141042958945036, 0.005514708813279867, -0.003231618320569396, 0.006248805206269026, -0.0025409122463315725, 0.004137533716857433, 0.005597902927547693, 0.0009869111236184835, 0.029050927609205246, 0.00310046155937016, -0.008592878468334675, 0.0030117551796138287, -0.002195143373683095, 0.0030459535773843527, -0.0034522544592618942, 0.00566811952739954, -0.0014089960604906082, -0.024061186239123344, -0.004230529069900513, 0.0006565229850821197, -0.002957763150334358, 0.003766576759517193, 0.004430989734828472], [-0.0030935669783502817, -0.004870855715125799, -0.005804238375276327, -0.004157095681875944, 0.0019086550455540419, -0.0020097545348107815, -0.004250517580658197, -0.002721525030210614, 0.0037997865583747625, 0.00042011245386675, 0.0008604609756730497, -0.0016610269667580724, 0.005485260393470526, -0.0015849597984924912, -0.0006959358579479158, -0.0031006254721432924, -0.0032865216489881277, -0.0015099563170224428, 0.005337115842849016, 0.0016071329591795802, 0.0019364617764949799, 0.0044152261689305305, 0.0023993977811187506, 0.005144882947206497, 0.0008715303847566247, -0.00029381466447375715, -0.0014502521371468902, -0.0033910959027707577, 0.0017170403152704239, -0.004071867559105158, -0.001598489936441183, -0.005167147144675255, 0.0024340434465557337, 0.0027436804957687855, 0.0023671945091336966, -0.0013652658089995384, 0.0009031555382534862, -0.003556502517312765, 0.003749629482626915, 0.004685386084020138, 0.001216113450936973, -0.00440968619659543, 0.0016248594038188457, -0.0037195899058133364, 0.004629821050912142, -0.0031797669362276793, -0.0008111518691293895, -0.005570338107645512, 0.003815717063844204, -0.004001804627478123, 4.524065661826171e-05, -0.0029844699893146753, 0.0006062379106879234, -0.0010285829193890095, 0.00035287829814478755, -0.00023124877770897, 0.004937243647873402, -0.0037204923573881388, 0.0019164264667779207, -0.005654868669807911, -0.005946955643594265, -0.005968539044260979, 0.0020785299129784107, 0.0014722731430083513, -0.0024942404124885798, -0.006477077025920153, 0.002090048510581255, 0.0003621153882704675, -0.0018737100763246417, -0.0019902316853404045, 0.002077464945614338, 0.0005189692601561546, 0.0067060040310025215, -0.0007814600830897689, 0.0014829073334112763, -0.003580910386517644, 0.00014448445290327072, 0.0043436153791844845, -0.003236995777115226, -0.001241995138116181, -0.0019401549361646175, -0.0012092965189367533, 0.0032121632248163223, -0.00706091383472085, -0.0027056129183620214, -0.006914638914167881, 0.002668468514457345, -0.0015000546118244529, 0.0018769922899082303, -0.0030819277744740248, 0.0018762473482638597, -0.0035186235327273607, 0.00229685683734715, 0.006641104351729155, 0.0006210055435076356, -0.006232717540115118, 0.006802782882004976, 0.0013330935034900904, -0.006568812299519777, -0.0012626321986317635, -0.0023611607030034065, -0.0031935141887515783, 0.005256918724626303, -0.005576979368925095, 0.0018948245560750365, -0.004488741979002953, 0.00017071775801014155, -0.0023540582042187452, 0.008120785467326641, -0.0016582596581429243, 0.0019872961565852165, 0.006527971476316452, 0.003812652314081788, 0.0018351682228967547, 0.0020219662692397833, -0.0063445004634559155, 0.00013611445319838822, -0.0003162772918585688, 0.007149002980440855, -0.002835773630067706, 0.004107312764972448, -0.002017558552324772, -6.779091927455738e-05, -0.004717720206826925, 0.0020116171799600124, -0.002445659600198269, 0.0033151069656014442, 0.0033783174585551023], [-0.00015952477406244725, -0.0001491130533395335, -0.0012858178233727813, -0.0014950267504900694, 0.0007381158065982163, -0.0029953843913972378, -0.0011007001157850027, -0.001248515211045742, 0.003002418437972665, 0.002250261139124632, 0.005322551354765892, -0.0013525806134566665, 0.0004009775584563613, -0.0009581121266819537, -0.002733496716246009, -0.003807289991527796, -0.0025771677028387785, -0.005326750222593546, 0.00013364425103645772, 0.0038230624049901962, 0.0007579452358186245, 0.003319540759548545, 0.0056373062543570995, 0.0010823886841535568, 0.0006861913134343922, -0.000715354981366545, -0.0012848705518990755, -0.00037148670526221395, 0.00441034184768796, -0.0004867117968387902, -0.0022807144559919834, -0.006613981910049915, 0.00043832900701090693, 0.0008555200765840709, 3.0896881071384996e-05, -0.001397337531670928, 0.00037014600820839405, -0.002189852064475417, 0.00014687798102386296, 0.0015594195574522018, 0.002494314219802618, -0.006779499351978302, 0.0005255187279544771, -0.0011491406476125121, 0.004644170869141817, -0.0017840586369857192, -0.002746573882177472, -0.000370673747966066, 0.004086265340447426, -0.0007204299909062684, 0.0031258424278348684, -0.00026150449411943555, 0.00041959373629651964, -0.0003629117854870856, 0.003127379110082984, -0.002793779829517007, 0.0002390536101302132, -0.00158637051936239, 0.004725393373519182, -0.002427996601909399, -0.002714721253141761, -0.0012747676810249686, 0.0008670602110214531, 0.0013986555859446526, -0.0036891947966068983, -0.0029192164074629545, 0.0008706950466148555, 0.0027869027107954025, -0.0005670298705808818, -0.0019641034305095673, 0.0010950352298095822, 0.0023266852367669344, 0.001457985956221819, -0.004008125513792038, 0.001465794863179326, -0.0014442942338064313, 0.002380065154284239, 0.0011720090406015515, -0.0003960900066886097, -0.0004201820120215416, -0.005627581384032965, -0.0021229006815701723, 0.00023782183416187763, -0.0009671017760410905, -0.0007613695925101638, -0.0011333045549690723, 0.0026718988083302975, -0.005112508777529001, 0.0001387043739669025, -0.0010883199283853173, 0.0035252452362328768, -0.0013051977148279548, 0.0027762758545577526, 0.0003337858943268657, 0.0011083503486588597, -0.0006299178930930793, 0.0009852745570242405, 0.0009300952660851181, -0.0014901123940944672, -0.00785909965634346, -0.003278296673670411, -0.00010666478920029476, 0.002439302857965231, -0.0014347383985295892, 0.0013428099919110537, -0.0027920743450522423, 0.0018329040613025427, -0.0014987089671194553, 0.0030765836127102375, -0.00011697137233568355, 0.0041301376186311245, 0.0001597076770849526, 0.0016047516837716103, 0.0014421868836507201, 0.0007957815541885793, -0.001266660401597619, 0.002422172576189041, -0.00111959979403764, 0.00041362750926055014, -0.002409775275737047, 0.0006962378392927349, -0.00534014729782939, -0.0005509942420758307, -0.001133591402322054, 0.005901981145143509, -0.002043910324573517, 0.002167337341234088, 0.0029174762312322855], [-6.0319820477161556e-05, -0.005924139637500048, -0.004017878323793411, -0.0016430937685072422, 0.00023678563593421131, -0.0014111314667388797, -0.0011981773423030972, -0.0006186073878780007, 0.0011610735673457384, 2.8180278604850173e-05, 0.0005215875571593642, -0.0003545299987308681, 0.005358388647437096, -0.0023726599756628275, -0.0008894851198419929, -3.4844550100388005e-05, -0.0018249393906444311, -0.005897071212530136, 0.001259505283087492, 0.0009134085266850889, 0.00038043258246034384, 0.0014723030617460608, 0.002669129753485322, 0.006057235412299633, 0.0004946957342326641, -0.005718147847801447, -0.0034489829558879137, -0.008405311033129692, 0.0003874159010592848, -0.001019468647427857, -0.004097207449376583, -0.0037597387563437223, 0.0006773585919290781, 0.0013514895690605044, 0.0018032754305750132, -0.0005241011967882514, 0.002202819101512432, -0.000794810417573899, 0.0003067494253627956, 0.005863742902874947, 0.00012301464448682964, -0.007581736892461777, 0.004266581032425165, -0.00146865367423743, 0.0039567602798342705, -0.0011405334807932377, -0.0014525465667247772, -0.0028731103520840406, 0.0017116856761276722, -0.0013404461788013577, 0.0032398721668869257, -0.005897073075175285, 0.0038379745092242956, -0.00047981026000343263, 3.0314862669911236e-05, -0.006927046924829483, 0.0019444921053946018, -0.0006326258298940957, 0.006437114905565977, -0.001878777053207159, -0.0013383059995248914, -0.0016907724784687161, 0.0033085844479501247, 0.0006110599497333169, -0.0009716631029732525, -0.001843739184550941, 0.0010820361785590649, 0.0013680730480700731, -0.005084211006760597, -0.006568655837327242, 5.2725888963323087e-05, 0.0006322830449789762, 0.0010880279587581754, -0.0016881346236914396, 0.0016977492487058043, -0.0005227154470048845, 0.006260151509195566, 0.001534048467874527, -0.0009796161903068423, -0.004282435867935419, -0.005957818124443293, -0.0020232307724654675, 0.003231012262403965, -0.0017474215710535645, -0.002647767774760723, -0.004365854896605015, 0.0013294717064127326, -0.0044314442202448845, 0.001954943174496293, -0.0021576660219579935, 0.0017422146629542112, -0.0005100355483591557, 0.00012230603897478431, 0.0003147626994177699, 0.0010128617286682129, -0.00266021559946239, 0.0018216921016573906, 0.0006689291330985725, -0.006186340004205704, -0.0018323470139876008, -0.002219400368630886, -0.00043662686948664486, 0.003640382317826152, -0.0019889359828084707, 0.006485470104962587, -0.0001858855102909729, 0.0014158239355310798, -5.772586064267671e-06, 0.005104235839098692, -0.0008500801050104201, 0.0008327158866450191, 7.1563886194780935e-06, 0.002172501292079687, 0.001317444839514792, 0.0016207220032811165, -0.0006566449883393943, 0.0008589063072577119, -0.0008852042374201119, 0.005937635898590088, -0.0005063677090220153, 0.0007092904415912926, -0.00013507007679436356, -0.00857660360634327, -0.0010098314378410578, 0.0011873391922563314, -0.001146505819633603, 8.172460184141528e-06, 0.0021811702754348516], [-0.0013449321268126369, -0.002971639856696129, -0.0032158487010747194, -0.004287232179194689, 0.0051770941354334354, -0.0009501203894615173, -0.0012835244415327907, -0.004359991289675236, 0.003428828902542591, 0.004557453561574221, 0.002062657382339239, -0.0030023669824004173, 0.006626284681260586, -0.0012301327660679817, -0.007125149015337229, -0.003015340305864811, -0.003214664990082383, -0.006571238860487938, 0.003049143822863698, 0.005854748655110598, 0.0025419178418815136, 0.004487369675189257, 0.014949273318052292, 0.001469666138291359, 0.021945763379335403, -0.01319185458123684, -0.0023834474850445986, -0.0037630482111126184, 0.008062695153057575, -0.0031134190503507853, -0.005221282131969929, -0.002866947092115879, 0.002901660045608878, 0.0012788765598088503, 0.0057291304692626, -0.004359596408903599, 0.004861726891249418, -0.016691815108060837, 0.004115039948374033, 0.0012922317255288363, 0.004276213701814413, -0.0033666116651147604, 0.003856046125292778, -0.008529243059456348, 0.0013587255962193012, -0.0038391556590795517, -0.004339580424129963, -0.0015064182225614786, 0.006247790064662695, -0.0024537125136703253, 0.002231992082670331, -0.0029961199034005404, 0.0154811330139637, -0.0027886242605745792, 0.0010000517359003425, -0.002798920962959528, 0.0013466045493260026, -0.0013608926674351096, 0.025745956227183342, -0.0060859499499201775, -0.004892451222985983, -0.003028684528544545, 0.0031094129662960768, 0.004766182042658329, -0.0012919463915750384, -0.001551318448036909, 0.0012577767483890057, 0.0028100491035729647, -0.001006777980364859, -0.001316132373176515, 0.003760943654924631, 0.004474538378417492, 0.0013725991593673825, -0.003203856060281396, 0.007187345996499062, -0.029678339138627052, 0.001448876690119505, 0.002748536877334118, -0.0016347620403394103, -0.003058940637856722, -0.00796598382294178, -0.002673653420060873, 0.0037918630987405777, -0.0030774737242609262, -0.004494290333241224, -0.0014602363808080554, 0.004841076675802469, -0.0032885847613215446, 0.03366798534989357, -0.0039059326518326998, 0.002971433801576495, -0.006266928277909756, 0.002974217291921377, 0.002700949087738991, 0.004026194103062153, -0.004400070756673813, 0.0036924006417393684, 0.0034330401103943586, -0.010290052741765976, -0.0036990265361964703, -0.0026490557938814163, -0.005604095291346312, 0.008269337937235832, -0.003971841651946306, 0.013041641563177109, -0.001281370990909636, 0.005022232420742512, -0.0034264461137354374, 0.011722485534846783, -0.0023935185745358467, 0.0027831566985696554, 0.003680123947560787, 0.0023558412212878466, 0.02856590785086155, 0.002921579172834754, -0.018264003098011017, 0.004087537061423063, -0.0014294666470959783, 0.0018105682684108615, -0.0090874582529068, 0.0027215180452913046, -0.005219716578722, -0.021886810660362244, -0.005175105761736631, 0.027841413393616676, -0.002499381545931101, 0.005033564753830433, 0.002952114911749959], [-0.0042686681263148785, -0.0019167945720255375, -0.005172207020223141, -0.010484534315764904, 0.001312850508838892, -0.004084778483957052, -0.004651603288948536, -0.003704136935994029, 0.004197052214294672, 0.00174748117569834, 0.004547327756881714, -0.0045573110692203045, 0.0067021348513662815, -0.0020673363469541073, -0.00790241826325655, -0.007359951268881559, -0.005575689487159252, -0.0022669765166938305, 0.004648254718631506, 0.0040963198989629745, 0.005576814524829388, 0.005886446684598923, 0.0034947756212204695, 0.005512970499694347, 0.004948997870087624, -0.0023429011926054955, -0.005084116943180561, -0.0010351802920922637, 0.0021229239646345377, -0.0021468393970280886, -0.009479896165430546, -0.005338783375918865, 0.00374626531265676, 0.0023308664094656706, 0.005173362325876951, -0.003674107138067484, 0.003596649970859289, -0.0035370378755033016, 0.005453977733850479, 0.002898458857089281, 0.0052234698086977005, -0.004011467099189758, 0.004671964794397354, -0.0036480603739619255, 0.005733594764024019, -0.006844963412731886, -0.003130116034299135, -0.0009049384971149266, 0.005813791882246733, -0.005864009261131287, 0.003520471742376685, -0.003948023542761803, 0.004604860208928585, -0.003223742125555873, 0.0020406758412718773, -0.003709101816639304, 0.0038036515470594168, -0.005405471194535494, 0.013119417242705822, -0.0015265191905200481, -0.004083662293851376, -0.00884303916245699, 0.005961744114756584, 0.0017545406008139253, -0.003299947129562497, -0.004258010536432266, 0.0012517967261373997, 0.004594716709107161, -0.013812708668410778, -0.0073537095449864864, 0.0024517506826668978, 0.0014897150686010718, 0.0028698300011456013, -0.00563437957316637, 0.006028066389262676, -0.008880812674760818, 0.002245109062641859, 0.0016818521544337273, -0.0022869817912578583, -0.004897239152342081, -0.0070709711872041225, -0.003914325963705778, 0.006202844902873039, -0.003503872314468026, -0.004643819760531187, -0.004270635079592466, 0.0019135470502078533, -0.008229757659137249, 0.010431095026433468, -0.0014900248497724533, 0.00583776505663991, -0.005166986491531134, 0.003373463172465563, 0.005103488452732563, 0.0010489575797691941, -0.007684369571506977, 0.005328723229467869, 0.005271191708743572, -0.01008651964366436, -0.005511557683348656, -0.005940774921327829, -0.0030810812022536993, 0.00883876346051693, -0.0013224640861153603, 0.01021378580480814, -0.006454746704548597, 0.005212589167058468, -0.005390228237956762, 0.006666830275207758, -0.007887952029705048, 0.0007553325267508626, 0.005266526713967323, 0.0029796715825796127, 0.004264152608811855, 0.007123121060431004, -0.009803712368011475, 0.004240389447659254, -0.009981527924537659, 0.005981264170259237, -0.00422776211053133, 0.0033838534727692604, -0.005923805758357048, -0.006866919808089733, -0.006873735226690769, 0.011513191275298595, -0.0019764050375670195, 0.0012028948403894901, 0.0016559730283915997], [0.02685682103037834, 0.03204704448580742, 0.024899210780858994, 0.02299165353178978, -0.026237446814775467, 0.018469229340553284, 0.028298771008849144, 0.01355323102325201, -0.023264441639184952, -0.02440459653735161, -0.020897625014185905, 0.027795780450105667, -0.029465408995747566, 0.016803426668047905, 0.018407823517918587, 0.012619506567716599, 0.019366411492228508, 0.017887642607092857, -0.02874455600976944, -0.02679256536066532, -0.026424812152981758, -0.024944577366113663, -0.018203504383563995, -0.022458482533693314, -0.006277165841311216, 0.015410933643579483, 0.008246634155511856, 0.030654598027467728, -0.023898035287857056, 0.004337541293352842, 0.021042708307504654, 0.015029086731374264, -0.029920175671577454, -0.014434699900448322, -0.025956831872463226, 0.020564427599310875, -0.015660637989640236, 0.015342283062636852, -0.015494772233068943, -0.024372518062591553, -0.02287929132580757, 0.026367707177996635, -0.003252180991694331, 0.006571939215064049, -0.0037321806885302067, 0.029129507020115852, 0.02197825349867344, 0.0327407605946064, -0.012449033558368683, 0.025867847725749016, -0.011561507359147072, 0.00440229382365942, -0.003070866921916604, 0.017705317586660385, -0.00447398005053401, 0.0198568943887949, -0.023751849308609962, 0.021527033299207687, -0.0036165742203593254, 0.007451619952917099, 0.030180079862475395, 0.030352871865034103, -0.02084214612841606, -0.0076688723638653755, 0.029825884848833084, 0.033393509685993195, -0.024126937612891197, -0.017497465014457703, 0.01647605001926422, 0.0035394681617617607, -0.02276013232767582, -0.025435015559196472, -0.024271314963698387, 0.023826036602258682, -0.009141865186393261, 0.004437670111656189, -0.01785302720963955, -0.032021891325712204, 0.038284748792648315, 0.0226476788520813, 0.02032303437590599, 0.02116936817765236, -0.02833927422761917, 0.027002085000276566, 0.01936432719230652, 0.028854388743638992, -0.005241642240434885, 0.024428516626358032, -0.004075167700648308, 0.03204769268631935, -0.009479114785790443, 0.027521468698978424, -0.005318594630807638, -0.018919866532087326, -0.02872406132519245, 0.03150279074907303, -0.02117455191910267, -0.027217725291848183, 0.014064313843846321, 0.026275280863046646, 0.004561531823128462, 0.004075729753822088, -0.008240506052970886, 0.017680291086435318, -0.011973600834608078, 0.025414884090423584, -0.018612243235111237, 0.028354182839393616, -0.006219802424311638, 0.02210012823343277, -0.007020211778581142, -0.005736430175602436, -0.022505169734358788, -0.003735792823135853, -0.020212002098560333, 0.014403644017875195, -0.0030185841023921967, 0.023501185700297356, -0.025035126134753227, 0.018922969698905945, -0.020291142165660858, 0.018366241827607155, 0.018376009538769722, 0.027288736775517464, -0.005083578638732433, 0.006376904901117086, -0.03224262222647667, -0.03507855907082558], [-0.006356541533023119, -0.0004704522143583745, -0.0013108045095577836, -0.001134516205638647, 0.0035587684251368046, -0.00010526883852435276, -0.003988218028098345, -0.0011509632458910346, 0.003566548926755786, 0.0012181197525933385, 0.0028037948068231344, -0.0031059132888913155, 0.0005633544642478228, -0.001510604633949697, -0.003065420314669609, -0.0044036367908120155, -0.005506215151399374, -0.004823182709515095, 0.001669893623329699, 0.003905685618519783, 0.004751427099108696, 0.0033482243306934834, 0.0008525799494236708, 0.0010216416558250785, 0.0046532670967280865, -0.00015986448852345347, -0.0024580112658441067, -0.003898320719599724, 9.879490971798077e-05, -0.00531777273863554, -0.0009806990856304765, -0.004909012001007795, 0.002275878796353936, 0.00674691516906023, 0.00029051568708382547, -0.0018099573208019137, 0.001438273349776864, -0.001312825595960021, 0.0029164922889322042, 0.005906066857278347, 0.003915930166840553, -0.004926198627799749, 0.0006237054476514459, -0.003855715040117502, 0.00014078794629313052, -0.0006917850114405155, -0.00044765713391825557, -0.0027881532441824675, 0.0029847242403775454, -0.0030512602534145117, 0.0055258506909012794, -0.0035398025065660477, 0.0004016847815364599, -0.0037387413904070854, 0.005006212275475264, -0.0008651919197291136, 0.0003156031889375299, -0.004829716868698597, 0.00023464699916075915, -0.00028941669734194875, -0.0012835673987865448, -0.0017569278134033084, 0.0020307074300944805, 0.006634874269366264, -0.006356521043926477, -0.0012727531138807535, 0.006082099862396717, 0.002450187923386693, -0.003349167527630925, -0.0020508302841335535, 0.0020861129742115736, 0.0028107278048992157, 0.0014496741350740194, -0.006790171377360821, 0.002060303697362542, -0.00023984203289728612, 0.0017212143866345286, 0.001746275112964213, -0.0012368876487016678, -0.0038270032964646816, -0.002998000243678689, -0.0011245611822232604, 0.0024914469104260206, -0.0014362811343744397, -0.0005546706961467862, -0.0006846582982689142, 0.000415562855778262, -0.0037071560509502888, 0.0030046484898775816, -0.001815344556234777, 0.005145535338670015, -0.004640565719455481, 0.0014413289027288556, 0.00251522334292531, 4.0908253140514717e-05, -0.001326965051703155, 0.005006612744182348, 0.0014094864018261433, -0.005633178632706404, -0.003690797369927168, -0.0013865816872566938, -0.0017221122980117798, 0.003638011869043112, -4.013525176560506e-05, 0.0012873642845079303, -0.0030042335856705904, 0.004791976884007454, -0.00041746333590708673, 0.00381839950568974, -0.0012750012101605535, 0.000488870486151427, 0.00032854516757652164, 0.005985225085169077, 2.5289476980105974e-05, 7.896465831436217e-05, -0.0005206810892559588, 0.004459078889340162, -0.00344187393784523, 0.003668965073302388, -0.0028782831504940987, 0.00023409533605445176, -7.667396130273119e-05, -0.001829680404625833, -0.0022532381117343903, 0.0004928833805024624, -0.0052437433041632175, 0.002291784156113863, 0.002442837692797184], [-0.006944694090634584, -0.0037362694274634123, -0.005493693053722382, -0.006102610379457474, 0.012227056547999382, -0.006624561734497547, -0.0018731513991951942, -0.006389885675162077, 0.00847888458520174, 0.002012593438848853, 0.002166576450690627, -0.0031451976392418146, 0.013618999160826206, -0.007163173984736204, -0.00018419670232106, -0.006634842604398727, -0.0018352654296904802, -0.003543705912306905, 0.01352028176188469, 0.004969392437487841, 0.0026185866445302963, 0.011689122766256332, 0.001185238012112677, 0.009919198229908943, 0.002235218184068799, -0.005590850953012705, -0.004004193469882011, -0.013321159407496452, 0.005976475775241852, -0.004857680760324001, -0.0042121754959225655, -0.007570656016469002, 0.011623963713645935, 0.01017385721206665, 0.005436182953417301, -0.004158068913966417, 0.0007293894304893911, -0.001832087873481214, 0.014597298577427864, 0.012363722547888756, 0.005748796742409468, -0.012309259735047817, 0.0007833716226741672, -0.0054594604298472404, 0.012931558303534985, -0.012237751856446266, -0.0014179102145135403, -0.014421454630792141, 0.00569146079942584, -0.0069243451580405235, 0.0025825013872236013, -0.018273985013365746, 0.0015756116481497884, -0.004266816657036543, 0.0016520100180059671, -0.003772075055167079, 0.012132281437516212, -0.010991226881742477, 0.0017743526259437203, -0.014629166573286057, -0.010851663537323475, -0.011160686612129211, 0.00029681174783036113, 0.005286057945340872, -0.016433490440249443, -0.020853931084275246, 0.00591115141287446, 0.002902603941038251, -0.0012093643890693784, -0.0013174960622563958, 0.0040548332035541534, 0.003084508003666997, 0.006307213567197323, -0.011288847774267197, 5.394782419898547e-05, -0.003970602061599493, 0.002485969802364707, 0.001592740067280829, -0.01779642514884472, -0.007506372407078743, -0.007912975735962391, -0.00012749021698255092, 0.002511415397748351, -0.009026755578815937, -0.006917526014149189, -0.01043159980326891, 0.01300892885774374, -0.005855021066963673, 0.003377269022166729, -0.012946895323693752, 0.002900083316490054, -0.005227233283221722, 0.006600221153348684, 0.0018811156041920185, 0.00661877915263176, -0.016244087368249893, 0.004020999651402235, 0.002900214632973075, -0.008412127383053303, -0.009073465131223202, -0.008790254592895508, -0.0114796357229352, 0.006519935559481382, -0.003248065710067749, 0.007232569623738527, -0.005981277674436569, 0.004059500526636839, -0.004128743428736925, 0.006041805725544691, -0.002002641325816512, 0.016117775812745094, 0.003370329737663269, 0.0002614578988868743, 0.009721346199512482, 0.0019782292656600475, -0.0007862215861678123, 0.005457071587443352, -0.0025473935529589653, 0.0118493577465415, -0.006909294053912163, 0.004457853268831968, -0.010594027116894722, -0.0030642542988061905, -0.013533646240830421, 0.0016049876576289535, -0.0005808198475278914, 0.012503703124821186, 0.016039008274674416], [-0.006551562342792749, -0.007258730940520763, -0.006833292078226805, -0.0042373365722596645, 0.0017057642107829452, -0.0016368408687412739, -0.001176478574052453, -0.0009044937905855477, 0.005067053716629744, 0.00529830064624548, 0.0011061961995437741, -0.001079251291230321, 0.0029430470895022154, -0.002654657931998372, -0.004374537151306868, -0.0005062443669885397, -0.0007994857151061296, -0.0020662143360823393, 0.002170286839827895, 3.21496045216918e-05, 0.004051737952977419, 0.001607812475413084, 0.0016480627236887813, 0.0008788542472757399, 0.0026562463026493788, -0.0032173767685890198, -0.0013523714151233435, -0.0017585696186870337, 0.002053548116236925, -0.0012477056588977575, -0.00110424286685884, -0.0002468819438945502, 0.005734918173402548, 0.00204545259475708, 0.0009527640650048852, -0.002284409711137414, 0.0013019032776355743, -0.0013391518732532859, 0.007555290590971708, 0.001989708747714758, 0.0007699024281464517, -0.0022600062657147646, 0.0017590756760910153, -0.0012336343061178923, 0.003167029470205307, -0.0002845604612957686, -0.0006577952299267054, -0.006540184840559959, 0.003070324193686247, -0.003157971194013953, 0.0006422556471079588, -0.00754760205745697, 0.0016203904524445534, -0.0025286583695560694, 0.0005204704939387739, -0.004188766237348318, 0.001006023958325386, -0.0019524366362020373, 0.0027669782284647226, -0.00014121708227321506, -0.002320357132703066, -0.0009361181873828173, 0.004084862768650055, 0.002336831297725439, -0.0010958380298689008, -0.001951840240508318, 0.0032795530278235674, 0.00011604271276155487, -0.0077754780650138855, -0.0038307690992951393, 0.0028843486215919256, 0.0024828470777720213, 0.00011774170707212761, -0.003755156882107258, 0.005572302732616663, -0.002807443495839834, 0.004906028043478727, 0.0017676182324066758, -0.0012140586040914059, -0.0008839984657242894, -0.007146952208131552, -0.0031848514918237925, 0.00442183343693614, -0.0007741121225990355, -0.0008279893081635237, -0.0031777455005794764, 0.0029116717632859945, -0.0001993400219362229, 0.0011617268901318312, -0.00014189165085554123, 0.003959497436881065, -0.0010040045017376542, 0.0026976927183568478, 0.0005039903335273266, 0.0020648243371397257, -0.0031601630616933107, 0.002400738885626197, 0.0018550282111391425, -0.002377715427428484, -0.000932761118747294, -0.001688721589744091, -0.0015336497453972697, 0.005100329872220755, -0.0014329127734526992, 0.0002984839666169137, -0.00205676956102252, 0.0016281843418255448, -0.0012000289279967546, 0.005259234458208084, -0.0035726167261600494, 0.0012231746222823858, 0.0031459485180675983, 0.0009746732539497316, 0.0011206867638975382, 0.0011165592586621642, -0.001101502450183034, 0.003000997006893158, -0.004746613558381796, 0.004020879045128822, -9.200364002026618e-05, 0.006164315156638622, -0.0037454916164278984, -0.00021220877533778548, -0.0012592526618391275, 0.00024616968585178256, -1.1422845091146883e-05, 0.006131445057690144, 0.0025410796515643597], [0.0015645240200683475, 0.0018834990914911032, 0.0047892313450574875, 0.0010913168080151081, -0.0003539810422807932, 0.001286934595555067, 0.0002777020854409784, 0.0016735276440158486, -0.0019357423298060894, -0.000518401968292892, -0.0014325311640277505, 0.002760771894827485, -0.00013522859080694616, 0.003929899539798498, 0.001546324579976499, 0.0008980138809420168, 0.0001884505763882771, 0.0011339958291500807, -0.0013034067815169692, -0.0020224021282047033, -0.0004343813634477556, -0.002812999999150634, -0.0019433950074017048, -0.0037392787635326385, -0.0019377475837245584, 0.0012882229639217257, 0.002006473019719124, 0.001408508513122797, -0.0012236809125170112, 0.0016713773366063833, 0.0017601681174710393, 0.00299358693882823, -0.001147905015386641, -0.004202348180115223, -0.0010745350737124681, 0.0004466107930056751, -0.0006484491168521345, 0.0004958580830134451, -0.0031074974685907364, -0.00033721578074619174, -0.0011205605696886778, 0.0022282577119767666, -0.004985821899026632, 0.0015532581601291895, -0.0006107759545557201, 0.00039813033072277904, 0.002834696089848876, 0.00015740349772386253, -0.0017282511107623577, 0.004161754623055458, -0.002305978676304221, 0.0002374698524363339, -0.002253596903756261, 0.0012675415491685271, -0.0018518035067245364, 0.001225832267664373, -0.0034361076541244984, 0.001130704302340746, -0.0014774954179301858, 3.586198727134615e-05, 0.00045648892410099506, 0.0023485212586820126, -0.005189263261854649, -0.00013577323989011347, 0.0006346445297822356, 0.004321268759667873, -0.002632464049383998, -0.001937657012604177, 0.0025774179957807064, 0.00012045283801853657, -0.005308344028890133, -0.0020429857540875673, -0.0027114690747112036, 0.002914335811510682, -0.001518620760180056, 0.0006966349319554865, -0.0021288401912897825, -0.001993937883526087, 0.0001136200808105059, 0.0006376610836014152, 0.001412318553775549, 0.00045509019400924444, -0.0004735048860311508, 0.001031813328154385, 0.0029540425166487694, 0.0009552774135954678, -0.0027462991420179605, 0.00457544531673193, -0.0006686318083666265, 0.0004087724955752492, -0.0008571413345634937, 0.001173575990833342, -0.00018032031948678195, -0.0006660187500528991, -0.002181864809244871, 0.0024845078587532043, -0.0035046562552452087, -0.0005880128592252731, 0.0032698994036763906, 0.0031449785456061363, 0.00197108113206923, 0.002800729125738144, -0.0008082037093117833, 0.00014495206414721906, -0.0003745967405848205, 0.0010115383192896843, -0.001283887424506247, 0.0004816793370991945, -0.001954800682142377, 0.0026587308384478092, -0.00031031554681248963, -0.003613986074924469, -0.0018763093976303935, -0.003999605309218168, -0.0004983521648682654, 0.0012855578679591417, -0.0030404769349843264, 0.00014542473945766687, -0.0015974786365404725, 0.0010458063334226608, -0.0013271053321659565, 0.0012748214649036527, 0.001114586484618485, 0.0010053260484710336, -0.0019718771800398827, 0.00021310894226189703, -0.0013869254617020488, -0.006630335468798876], [-0.0009617076138965786, -0.006107474211603403, -0.004403217695653439, -0.00461940560489893, 0.001883239601738751, -0.0033016796223819256, -0.0035582820419222116, -0.0016622296534478664, 0.0038994986098259687, 3.16494915750809e-05, 0.0016720121493563056, -0.001994047313928604, 0.0015668458072468638, -0.003042846918106079, -0.003037185175344348, -0.0013578322250396013, -0.0012664719251915812, -0.0011196285486221313, 0.0021451746579259634, 0.001183812040835619, 0.0005078232497908175, 0.005916301626712084, 0.0020243944600224495, 0.0019798434805125, 0.002333281794562936, -0.002586314920336008, -5.486296504386701e-05, -0.0016041346825659275, 0.0019493370782583952, -0.005551779642701149, -0.003096475498750806, -0.005473786033689976, 0.0004286576877348125, 0.0009243448148481548, 0.0016041117487475276, -0.003177945502102375, 0.0036393161863088608, -0.004442134406417608, 0.001151633681729436, 0.0004682349681388587, 0.0021104691550135612, -0.004270695149898529, 0.003595916088670492, -0.0013643120182678103, 0.0011176192201673985, -0.006334787700325251, -0.0008600778528489172, -0.006253652740269899, 0.0007066233665682375, -0.004775135777890682, 0.0020280221942812204, -0.0009814476361498237, 0.002058635465800762, -0.0009325382416136563, 0.0012675480684265494, -0.0011956105008721352, 0.003538432065397501, -0.0015010967617854476, 0.004900439642369747, -0.0034237157087773085, -0.00611813785508275, -0.00451409537345171, 0.0031300210393965244, 0.001496294280514121, -0.0020104374270886183, -0.0003674096951726824, 0.0008209961815737188, 0.0024037212133407593, -0.0010143000399693847, -0.004900914151221514, 0.0005367679987102747, 0.00715259974822402, 0.003964515402913094, -0.0023246780037879944, 0.0024607342202216387, -0.0025468419771641493, 0.003211809089407325, 0.0002697879681363702, -0.0001636053348192945, -0.0035750458482652903, -0.0016635684296488762, -0.0008523184806108475, 0.00013788002252113074, -0.0005126608302816749, -0.002254704711958766, -0.0016094996826723218, 0.004851969890296459, -0.005069257691502571, 0.005787629634141922, -0.0061119794845581055, 0.00311078317463398, -0.0033458129037171602, 0.0012941508321091533, 0.0002454608620610088, 0.0009746713330969214, -0.00827464647591114, 0.005172624718397856, 0.0017484574345871806, -0.0014361328212544322, -0.0026697185821831226, -0.0016033131396397948, -0.002404375933110714, 0.003113498678430915, -0.003102246904745698, 0.0003559371689334512, -0.001242246711626649, 0.0051176706328988075, -0.006807075347751379, 0.00011429166625021026, -0.004641400650143623, 0.001749444636516273, 0.0019592861644923687, 0.0054660639725625515, 0.005224235355854034, 0.0008522028801962733, -0.0004637516976799816, 0.00025520881172269583, -0.003088456578552723, 0.0014456008793786168, -0.0021848175674676895, 0.0025724279694259167, -0.003970718011260033, -0.0007148011354729533, -0.00657192338258028, 6.423165359592531e-06, -0.0005074550863355398, 0.0015115556307137012, 0.0012111242394894361], [0.007821393199265003, 0.003727746894583106, 0.00021402700804173946, 0.00018294381152372807, -0.00341736595146358, 0.003302603494375944, 0.0021064123138785362, 0.005604848265647888, -0.002865123562514782, -0.0047401185147464275, -0.0003901036980096251, 0.0016171016031876206, -0.0027102683670818806, 0.0010845368960872293, 0.0037003373727202415, 0.007279735989868641, 0.005107424687594175, 0.004448160994797945, -0.0017699036980047822, -0.002554310252889991, -0.0013383998302742839, -0.002641208004206419, -0.002146862680092454, -0.009217903949320316, -0.005456204060465097, 0.005570948123931885, 0.004003467969596386, 0.0019546779803931713, -0.006412344053387642, 0.004236645996570587, 0.002151085063815117, 0.001091049169190228, -0.004514921456575394, -0.004982390441000462, -0.0016076081665232778, 0.0020555739756673574, -0.0029667869675904512, 0.0011015227064490318, -0.0016894828295335174, -0.0029407674446702003, -0.002145593985915184, 0.001996914856135845, -0.0056033991277217865, 0.001215795986354351, -0.003364112926647067, 0.0020980907138437033, 0.001672077807597816, 0.002152666449546814, -0.0018440836574882269, 0.0020887553691864014, -0.004260880406945944, 0.005213296972215176, -0.002527677221223712, 0.00199111457914114, -0.0013965604593977332, 0.004481447394937277, -0.002418198622763157, 0.0025282844435423613, -0.006863323040306568, 3.3263941077166237e-06, 0.0011379002826288342, 0.004374505020678043, -0.004632982891052961, -0.002291231183335185, 0.0011812360025942326, 0.0064419908449053764, -0.004169094376266003, -0.002549524651840329, 0.0054856217466294765, 0.0009627076797187328, -0.003728143870830536, -0.00071099674096331, -0.0047009349800646305, 0.001837530522607267, -0.005135363433510065, 0.002987885382026434, -0.0024041146971285343, -0.004393076058477163, 0.004184177611023188, 0.0008126870379783213, 0.0053970725275576115, 0.0025571994483470917, -0.004013861063867807, 0.00208667223341763, 0.00010823210322996601, 0.005550559144467115, -0.00736442394554615, 0.00468161515891552, -0.004052991978824139, 0.0044737509451806545, -0.008129196241497993, 0.0028962346259504557, -0.0064458297565579414, -0.0005896922084502876, -0.004855576436966658, 0.002783446805551648, -0.007163226138800383, -0.0007340411539189517, 0.006006160750985146, 0.0034379789140075445, 0.001224116887897253, 0.0018804750870913267, -0.005409647710621357, 0.0013322992017492652, -0.005894105415791273, 0.0010516704060137272, -0.0016838262090459466, 0.005002808757126331, -0.006178084295243025, 0.003955809399485588, -0.0010989285074174404, -0.004749835003167391, -0.004681563936173916, -0.0036743944510817528, -0.0011596734402701259, 0.003942759707570076, -0.0020179625134915113, 0.003841397352516651, -0.0010414794087409973, 0.0012884902535006404, -0.007949727587401867, 0.0014516930095851421, 0.0012293006293475628, 0.00300165475346148, -0.006076481193304062, 0.002088315552100539, -0.001613618340343237, -0.0035316443536430597], [0.013611475005745888, 0.0029606453608721495, 0.008218401111662388, 0.012078503146767616, -0.0008331846329383552, 0.0015750472666695714, 0.0006496658315882087, 0.00244935997761786, -0.010101101361215115, -0.007601281628012657, -0.009272663854062557, 0.0020482437685132027, -0.013548760674893856, 0.0080118328332901, 0.008419498801231384, 0.008232753723859787, 0.002296962309628725, 0.002455915790051222, -0.0008294138824567199, -0.0026127523742616177, -0.002522613387554884, -0.002657003700733185, -0.010409713722765446, -0.0034091516863554716, -0.00963006541132927, 0.001768754213117063, 0.0037464802153408527, 0.00291642127558589, -0.007954424247145653, 0.003059732960537076, 0.004467940889298916, 0.009828216396272182, -0.009159381501376629, -0.009926692582666874, -0.0076618557795882225, 0.0024493394885212183, -0.0004175456997472793, 0.001947983168065548, -0.000871268508490175, -0.003518235171213746, -0.011652660556137562, 0.009251893498003483, -0.001962651265785098, 0.007892610505223274, -0.007277192547917366, 0.009188595227897167, 0.011269438080489635, 0.003516250289976597, -0.008609036915004253, 0.002458730712532997, -0.006786551792174578, 0.002512608887627721, -0.002661114791408181, 0.0017059483798220754, -0.0030586542561650276, 0.0040397923439741135, -0.0007687894394621253, 0.010871652513742447, -0.009211194701492786, 0.00107704964466393, 0.004405381623655558, 0.002785008167847991, -0.0012826969614252448, -0.0028512105345726013, 0.009020576253533363, 0.0027917136903852224, -0.005720066372305155, -0.0018158318707719445, 0.002286837436258793, 0.008609047159552574, -0.002407713793218136, -0.0008715449366718531, -0.010225174017250538, 0.003362719900906086, -0.005605350248515606, 0.006681129336357117, -0.0032287666108459234, -0.003993349615484476, 0.007995781488716602, 0.00220916117541492, 0.009881260804831982, 0.001439497573301196, -0.003265044651925564, 0.006714298855513334, 0.003824986284598708, 0.0007463712245225906, -0.0011479990789666772, 0.00970358308404684, -0.010805251076817513, 0.003014271380379796, -0.0028800673317164183, 0.0027484409511089325, -0.009295131079852581, -0.0023735042195767164, -0.002205782802775502, 0.0024500777944922447, -0.005305303260684013, -0.0023748839739710093, 0.00797248538583517, 0.016218820586800575, 0.011229238472878933, 0.003207105677574873, -0.007842938415706158, 0.0016464681830257177, -0.00783981941640377, 0.0025137984193861485, -0.0025044160429388285, 0.0006662301020696759, -0.00196435977704823, 0.009450118988752365, -0.003143379231914878, -0.0067598833702504635, -0.005332724656909704, -0.01347734872251749, -0.005807093810290098, 0.0002974399540107697, -0.011181223206222057, 0.011849436908960342, -0.014386155642569065, 0.0020587113685905933, -0.0037914756685495377, 0.003107596654444933, 0.003922802861779928, 0.02008604258298874, -0.010795019567012787, 0.0007094417815096676, -0.0006259449874050915, -0.0022548665292561054], [-0.00038148980820551515, -0.0002303331857547164, -0.001306495163589716, -0.0023547098971903324, 0.004129101522266865, -0.0007024097139947116, -3.0192615668056533e-05, -0.0005510993651114404, 0.001275687594898045, 0.0034135067835450172, 0.001970670185983181, -0.00043883585021831095, 0.0018286092672497034, -3.973313141614199e-05, -0.0006137831951491535, -0.0011064372956752777, -0.00123056850861758, -0.00045480518019758165, 0.0008337388862855732, 0.0007806875510141253, 1.5077666830620728e-05, 0.001521944534033537, 0.00047865777742117643, 0.00143674504943192, 0.0009904212784022093, -0.0023820186033844948, -0.00016272807260975242, -0.00048333071754314005, 0.001695109880529344, -0.0029697304125875235, -0.0004430665576364845, -0.0003018490970134735, 0.003581527154892683, 0.003151301294565201, 0.0015912821982055902, -0.0032497544307261705, 0.0022122012451291084, -0.0020679214503616095, 0.0011857664212584496, 0.0008823753450997174, 0.00044097291538491845, -0.0046314457431435585, 0.0016176126664504409, -0.0018704850226640701, 0.0023382697254419327, -0.001975442050024867, -0.00034715054789558053, -0.0011490007163956761, 0.0024465168826282024, -0.004803830292075872, 0.001872593886218965, -0.0003863052115775645, 0.000837608240544796, -0.0032968418672680855, 0.000723077857401222, -0.0018702074885368347, 0.0013284845044836402, -0.0022428531665354967, 0.0013244196306914091, -0.000975406204815954, -0.001572497421875596, -0.004671748261898756, 0.001149515388533473, 0.0006000595749355853, -0.0053932745940983295, -0.005036335904151201, 0.0026353050488978624, 0.000252875208389014, -0.0021276609040796757, -0.00017676735296845436, 0.003317316062748432, 0.002795018022879958, 0.0018105864292010665, -0.0008705746149644256, 0.002029988681897521, -0.0025803069584071636, 0.0020031495951116085, 0.0030982813332229853, -0.0024887986946851015, -0.0005960815469734371, -0.004025473725050688, -0.00036022980930283666, 0.0006638761260546744, -0.0005844360566698015, -0.0008051925105974078, -0.0005347781116142869, 1.7754724467522465e-05, -0.0002720234915614128, 3.9970531361177564e-05, -0.004703775979578495, 0.00162295822519809, -0.0009701760718598962, 0.0007172662881202996, 0.0007695237291045487, 0.002843121998012066, -0.0013207612792029977, 6.450005457736552e-06, 0.0006583171780221164, -0.003721939167007804, -0.0027086236514151096, -0.0022674959618598223, -0.0006494598346762359, 0.0015129836974665523, -0.0003129192627966404, 0.0012577699963003397, -0.0014014436164870858, 0.0009854348609223962, -0.0009445769828744233, 0.0007753316313028336, -0.0007344236364588141, 4.8459292884217575e-05, 0.0009768364252522588, 0.0016283345175907016, 0.0006186633836477995, 0.0015041352016851306, -0.0006861401489004493, 0.003661860479041934, -0.0007746015326119959, 0.0023554377257823944, -0.00014940652181394398, 0.002884028945118189, -0.002261820947751403, -0.004840113688260317, -1.943883216881659e-05, 0.00020559754921123385, -0.0002919658727478236, 0.0022731535136699677, 0.0007849234389141202], [0.024316003546118736, 0.003338706213980913, 0.019264981150627136, 0.004267242271453142, -0.017602970823645592, 0.012548926286399364, 0.019765805453062057, 0.022653453052043915, -0.004229979123920202, -0.015082082711160183, -0.002965344814583659, 0.003775437828153372, -0.0033878167159855366, 0.003130730241537094, 0.002915825229138136, 0.021124787628650665, 0.003149992087855935, 0.020147176459431648, -0.005980739835649729, -0.010896616615355015, -0.020480889827013016, -0.021331988275051117, -0.0031218628864735365, -0.0036550990771502256, -0.016370289027690887, 0.011813684366643429, 0.01579373888671398, 0.004704815801233053, -0.020754452794790268, 0.014898517169058323, 0.020076142624020576, 0.02370253950357437, -0.02535899169743061, -0.0033888292964547873, -0.0027253134176135063, 0.02227870188653469, -0.00697664450854063, 0.002612304873764515, -0.020435748621821404, -0.025434287264943123, -0.021605269983410835, 0.02274518646299839, -0.0027714979369193316, 0.003146633505821228, -0.023275991901755333, 0.003456238191574812, 0.0034257140941917896, 0.004280613269656897, -0.00952131487429142, 0.018097195774316788, -0.001986386952921748, 0.0056778620928525925, -0.011030489578843117, 0.009488904848694801, -0.01600402221083641, 0.004579058848321438, -0.017136169597506523, 0.020443864166736603, -0.004602537490427494, 0.004538039676845074, 0.003235850716009736, 0.0051315585151314735, -0.017440974712371826, -0.013531132601201534, 0.003348300699144602, 0.002953319577500224, -0.015271956101059914, -0.009975489228963852, 0.008667804300785065, 0.003214112715795636, -0.005936236120760441, -0.01935426890850067, -0.021856337785720825, 0.01939327083528042, -0.0014194766990840435, 0.02122466266155243, -0.024950671941041946, -0.018447568640112877, 0.025586800649762154, 0.015375306829810143, 0.020100273191928864, 0.015887221321463585, -0.018570659682154655, 0.019303135573863983, 0.015020264312624931, 0.02294926531612873, -0.019665060564875603, 0.0030188097152858973, -0.019891446456313133, 0.0030345218256115913, -0.027958037331700325, 0.02596007101237774, -0.002885795198380947, -0.0029908770229667425, -0.0029814091976732016, 0.020880185067653656, -0.003043713513761759, -0.022934766486287117, 0.012854939326643944, 0.030223634093999863, 0.0187457874417305, 0.004760367795825005, -0.008619832806289196, 0.006427602376788855, -0.015074383467435837, 0.0031699335668236017, -0.019698217511177063, 0.01217222772538662, -0.0015459851128980517, 0.020787371322512627, -0.003266904503107071, -0.020930206403136253, -0.013639024458825588, -0.00582426693290472, -0.011508332565426826, 0.012076244689524174, -0.004375452175736427, 0.021797170862555504, -0.026245174929499626, 0.0198214128613472, -0.017590345814824104, 0.0032329352106899023, 0.017933262512087822, 0.004046172369271517, -0.01609031669795513, 0.014027303084731102, -0.004792004358023405, -0.0023359721526503563], [0.0005003378028050065, 0.0016793799586594105, 0.00045682283234782517, 0.0005941449198871851, -0.0010807419894263148, 0.005392193328589201, 0.0031463142950087786, 0.003993305843323469, -1.6229785614996217e-05, -0.004282794427126646, -0.002851339988410473, 0.0015945362392812967, -0.0023321399930864573, 0.00021371632465161383, 0.005273803602904081, 0.0015623616054654121, 0.0013654496287927032, 0.0011026288848370314, -0.0015546126523986459, -0.0018386922311037779, -0.000243199392571114, -0.007989758625626564, -0.0020927181467413902, -0.0017708196537569165, -0.001316449255682528, 0.003329394618049264, 0.0008673378033563495, 0.003762731794267893, -0.002763353521004319, 0.0012705125845968723, 0.0007253558724187315, 0.0013696710811927915, -0.00161948730237782, -0.003653507912531495, -0.0018493114039301872, 0.004166560713201761, -0.0040799216367304325, 0.0005287888343445957, -0.0003720814420375973, -0.0027068881317973137, -0.0040905168280005455, 0.0012356257066130638, -0.002208445221185684, 0.0030982347670942545, -0.0010081629734486341, 0.001738026738166809, 0.00635126605629921, 0.0018405766459181905, -2.5248255042242818e-05, 0.005865439772605896, -0.003976160194724798, 0.00034451979445293546, -0.0004290298093110323, 0.002260819310322404, -0.00010682227730285376, 0.0018374688224866986, -0.003541446290910244, 0.0022716959938406944, -0.0035877544432878494, 0.0012899760622531176, 0.0022016006987541914, 0.0012787721352651715, -0.0015478635905310512, -0.0039122928865253925, 0.004249390680342913, 0.00031116491300053895, -0.0012213019654154778, -0.00370547897182405, 0.005603112280368805, 0.0037486650981009007, -0.0011741922935470939, -0.0018234328599646688, -0.002117519499734044, 0.0004835257423110306, -0.0010550005827099085, 0.0014700110768899322, -0.0031755471136420965, -0.0005267016822472215, 0.0030054475646466017, 0.003243484999984503, 0.0015417300164699554, 0.0010271024657413363, -0.002959605772048235, 0.0050685228779911995, 0.0025951263960450888, 0.00017025208217091858, -0.0050395638681948185, 0.0006180829950608313, -0.000703469617292285, 5.097224857308902e-05, -0.006523082964122295, 0.005419544875621796, -0.0013433980057016015, -0.0032170098274946213, -4.879324842477217e-05, 0.00510539161041379, -7.990197627805173e-05, -0.003285749116912484, 0.003540616948157549, 0.002457440597936511, 0.0034865727648139, 0.0001487435365561396, -2.207927536801435e-05, 0.004101173020899296, -0.0016719967825338244, 0.0006112687988206744, -0.003919239155948162, 0.0012941744644194841, -0.001209089532494545, 0.001383930561132729, -0.00010335045953979716, -0.0037456185091286898, -0.0018534469418227673, -0.0070699709467589855, -0.0030470327474176884, 0.005371533799916506, -0.0017153120134025812, 4.012028512079269e-06, -0.0007662164280191064, 0.0014006112469360232, -0.004711474291980267, 0.0027676818426698446, 0.002597610466182232, 0.006528402678668499, -0.00046450484660454094, 0.00012776673247572035, -0.002589933108538389, -0.0006018290296196938], [0.0008105399319902062, 0.0019410955719649792, 0.006675601005554199, 0.0019371218513697386, -0.00035851181019097567, 0.003770113456994295, 0.0023873758036643267, 0.00014068438031245023, -0.004653075709939003, -0.004248612094670534, -0.002686223713681102, 0.000496288004796952, -0.00465094530954957, 0.0023390946444123983, 0.0029253705870360136, 0.004225686192512512, 0.0007925055106170475, 0.0032217816915363073, -0.005429481156170368, -0.00383476703427732, -0.00043913820991292596, -0.002829889301210642, -0.0006356574594974518, -0.00015477139095310122, -0.00195204874034971, 0.0019083492225036025, 0.0019730778876692057, 0.0015520760789513588, -0.006626046262681484, 0.002773763844743371, 0.0037077818997204304, 0.0041097672656178474, -0.0040221246890723705, -0.005408016499131918, -0.00086589326383546, 0.004673786927014589, -0.0006350281182676554, 0.001140714273788035, -0.001035675872117281, -0.000606477027758956, -0.00129995821043849, 0.008140363730490208, -0.0024555891286581755, 0.002656926866620779, -0.005237184464931488, 0.0018777267541736364, 0.0058657703921198845, 0.00800418108701706, -0.00432502431795001, 0.003183384658768773, -0.0038291311357170343, 0.0021634134463965893, -0.0005545716267079115, 0.00321797002106905, -0.0007171389297582209, 0.006503933109343052, -0.003147782990708947, 0.0021828345488756895, -0.003541601588949561, 0.004762216936796904, 0.0037685073912143707, 0.0058526936918497086, -0.005669979844242334, -0.004140166100114584, 0.0013296555262058973, 0.0006583721260540187, -0.005914350505918264, -7.035723683657125e-05, 0.0011714653810486197, 0.0023093787021934986, -0.00039245354128070176, -0.0010579024674370885, -0.0012160674668848515, 0.006608963944017887, -0.005665920674800873, 0.0012795731890946627, -0.00551270879805088, -0.0009500843589194119, 0.0020778230391442776, 0.0026777524035423994, 0.0016783453756943345, 0.0003397349501028657, -0.0012913297396153212, 0.0007763749454170465, 0.0020954860374331474, 0.004030887968838215, -0.0035217797849327326, 0.000819014385342598, -0.0022177607752382755, 0.0011489727767184377, -0.00710548460483551, 0.0014154959935694933, -0.00045469930046238005, -0.006170520093291998, -0.001774945529177785, 0.007298970595002174, -0.0007214095094241202, -0.0015051637310534716, 0.0008445695857517421, 0.006547104101628065, 0.005014063324779272, 0.0015004957094788551, -0.004922124091535807, 0.005275376606732607, -0.005754773039370775, 0.00662996107712388, -0.004053199663758278, 0.0033643951173871756, -0.000982443685643375, 0.0013709765626117587, -0.0035386569797992706, -0.0034322235733270645, -0.0008814248139970005, -0.00019714568043127656, -0.0041463677771389484, 0.001930383499711752, -0.00239386479370296, 0.0035055731423199177, -6.518678128486499e-05, 0.004881693981587887, -0.0002476955996826291, 0.0019794623367488384, 0.00011893975897692144, 0.005755429156124592, -0.002110558096319437, 0.0025707250460982323, -6.0955891967751086e-05, -0.0014452505856752396], [0.0048654405400156975, 0.01782049797475338, 0.004679171834141016, 0.03880896046757698, -0.00437359232455492, 0.03352348133921623, 0.049325861036777496, 0.035687800496816635, -0.03747643157839775, -0.04376772791147232, -0.03436591476202011, 0.04435098171234131, -0.04743967577815056, 0.04263371229171753, 0.0041841850616037846, 0.004860998131334782, 0.04265027493238449, 0.004249440971761942, -0.04733407124876976, -0.04174192622303963, -0.0418812558054924, -0.011994404718279839, -0.037190716713666916, -0.042286988347768784, -0.027474723756313324, 0.03063815087080002, 0.04291126877069473, 0.04429643601179123, -0.040674448013305664, 0.03888067230582237, 0.004706667270511389, 0.03801320120692253, -0.04583875462412834, -0.044808220118284225, -0.004655908793210983, 0.04564468935132027, -0.03319006413221359, 0.031583838164806366, -0.04380468651652336, -0.02247631549835205, -0.03883761912584305, 0.004430943168699741, -0.0322103388607502, 0.045215994119644165, -0.047741204500198364, 0.04850264638662338, 0.03580838814377785, 0.047030236572027206, -0.01535073108971119, 0.0056087905541062355, -0.03670073300600052, 0.04106714576482773, -0.031135857105255127, 0.005966437514871359, -0.037133727222681046, 0.006548019126057625, -0.04227045923471451, 0.03700112923979759, -0.030771806836128235, 0.007245441898703575, 0.042371660470962524, 0.0043549793772399426, -0.005122880917042494, -0.04235347360372543, 0.04230175167322159, 0.002470622071996331, -0.038812972605228424, -0.006236881483346224, 0.005049677100032568, 0.00629276130348444, -0.040481086820364, -0.046758875250816345, -0.00527465995401144, 0.04049565643072128, -0.027856342494487762, 0.03347943350672722, -0.042467255145311356, -0.05334901809692383, 0.049841899424791336, 0.005590575747191906, 0.019487794488668442, 0.04012401029467583, -0.0494132824242115, 0.045736782252788544, 0.04017544910311699, 0.004245623480528593, -0.04048378765583038, 0.04025944694876671, -0.00490932073444128, 0.007231219671666622, -0.04432816803455353, 0.04451117292046547, -0.02117004804313183, -0.03633972257375717, -0.011785241775214672, 0.04020586609840393, -0.03590714558959007, -0.006650768220424652, 0.012667546980082989, 0.04388214275240898, 0.03428012505173683, 0.043960027396678925, -0.0077026598155498505, 0.003852215828374028, -0.0036084160674363375, 0.043782662600278854, -0.03765019774436951, 0.042110878974199295, -0.02748231031000614, 0.041114259511232376, -0.025695713236927986, -0.0050643314607441425, -0.045585524290800095, -0.00422672787681222, -0.04317450523376465, 0.03163837641477585, -0.005582475569099188, 0.03959256783127785, -0.04169534146785736, 0.032047197222709656, -0.029592439532279968, 0.019145725294947624, 0.03087652660906315, 0.04511548951268196, -0.028769074007868767, 0.04598025605082512, -0.048753853887319565, -0.007574253249913454], [0.03725481778383255, 0.04430966079235077, 0.009565390646457672, 0.004531756043434143, -0.00417688162997365, 0.036737509071826935, 0.04545880854129791, 0.004281145986169577, -0.0348382331430912, -0.03973039239645004, -0.03629819676280022, 0.042764730751514435, -0.027159450575709343, 0.004197257570922375, 0.035407282412052155, 0.039746012538671494, 0.04151696339249611, 0.0040311808697879314, -0.012229225598275661, -0.043309178203344345, -0.038834042847156525, -0.04097190871834755, -0.03141350671648979, -0.0044197156094014645, -0.0017046364955604076, 0.029648704454302788, 0.043629515916109085, 0.005482284817844629, -0.004544974770396948, 0.038132667541503906, 0.02747487649321556, 0.040668096393346786, -0.005120815709233284, -0.004259802401065826, -0.03846899792551994, 0.006801767740398645, -0.010643408633768559, 0.02947818860411644, -0.045639682561159134, -0.0039771543815732, -0.0023619611747562885, 0.03941553086042404, -0.03214579075574875, 0.004203679505735636, -0.017741277813911438, 0.040581922978162766, 0.00447885924950242, 0.00617680000141263, -0.021422993391752243, 0.03308369219303131, -0.03507739305496216, 0.008108062669634819, -0.019795741885900497, 0.036568984389305115, -0.03858981281518936, 0.04012354835867882, -0.03823421895503998, 0.0040259272791445255, -0.029180090874433517, 0.0432913601398468, 0.044631946831941605, 0.04545651003718376, -0.03691034018993378, -0.039796411991119385, 0.04233858361840248, 0.004435681272298098, -0.039731454104185104, -0.011053432710468769, 0.03246801346540451, 0.031125880777835846, -0.04915681481361389, -0.00684299785643816, -0.04311589524149895, 0.03908194974064827, -0.006921526975929737, 0.002079576952382922, -0.0391705147922039, -0.05228429660201073, 0.004883433226495981, 0.005022738594561815, 0.019184524193406105, 0.04061151668429375, -0.04459432139992714, 0.04297071322798729, 0.03687701001763344, 0.04270103573799133, -0.005761681590229273, 0.037035319954156876, -0.005615769885480404, 0.04465261474251747, -0.0051930868066847324, 0.039107609540224075, -0.03803928568959236, -0.0041738892905414104, -0.04520510509610176, 0.04315756633877754, -0.035412125289440155, -0.041445694863796234, 0.020548401400446892, 0.028234099969267845, 0.03265589103102684, 0.043691378086805344, -0.0029266064520925283, 0.0394732840359211, -0.004130305256694555, 0.034353356808423996, -0.03533431515097618, 0.03552598878741264, -0.0033216674346476793, 0.0374484620988369, -0.045404937118291855, -0.006936314515769482, -0.014050319790840149, -0.021006524562835693, -0.0369555689394474, 0.030590757727622986, -0.003715601284056902, 0.03820903226733208, -0.008766306564211845, 0.032139651477336884, -0.03333765268325806, 0.004619317129254341, 0.026928823441267014, 0.005482579115778208, -0.026432422921061516, 0.04406771808862686, -0.04652665928006172, -0.04859710484743118], [0.0327729694545269, 0.03820885717868805, 0.03197915107011795, 0.03160439804196358, -0.032582443207502365, 0.02927636168897152, 0.03751864656805992, 0.030099086463451385, -0.005227354820817709, -0.010640125721693039, -0.029947319999337196, 0.03610123321413994, -0.039491161704063416, 0.008042041212320328, 0.026684580370783806, 0.018348703160881996, 0.0049441843293607235, 0.029056239873170853, -0.016229376196861267, -0.0358969122171402, -0.03186837211251259, -0.036201588809490204, -0.02827952802181244, -0.0044185323640704155, -0.022943418473005295, 0.0045250956900417805, 0.035817503929138184, 0.0357014499604702, -0.03043954260647297, 0.035047467797994614, 0.011193035170435905, 0.03374163806438446, -0.038235101848840714, -0.005465640686452389, -0.013925136998295784, 0.03364542871713638, -0.02480335719883442, 0.025661475956439972, -0.03884345665574074, -0.03183045610785484, -0.029716452583670616, 0.004252288956195116, -0.02743653580546379, 0.036640286445617676, -0.03823435306549072, 0.03540028631687164, 0.013351361267268658, 0.04011690616607666, -0.016870738938450813, 0.006779166404157877, -0.004789344500750303, 0.039660777896642685, -0.009032152593135834, 0.02763742208480835, -0.0328652486205101, 0.033069197088479996, -0.014641426503658295, 0.027932049706578255, -0.02517637051641941, 0.009590291418135166, 0.03748100996017456, 0.03825314715504646, -0.030553193762898445, -0.00521457614377141, 0.033098455518484116, 0.03794316202402115, -0.03218454495072365, -0.029437530785799026, 0.02144186943769455, 0.02607733942568302, -0.037179410457611084, -0.03847538307309151, -0.013839712366461754, 0.033638086169958115, -0.0208168663084507, 0.029438432306051254, -0.035381633788347244, -0.04437647759914398, 0.005887911189347506, 0.034716080874204636, 0.014411859214305878, 0.03433474898338318, -0.03907681629061699, 0.03724043816328049, 0.03242655098438263, 0.006747066043317318, -0.03696916252374649, 0.03232493996620178, -0.004655259661376476, 0.03835611045360565, -0.036733921617269516, 0.03613349050283432, -0.026899877935647964, -0.029069354757666588, -0.03730722516775131, 0.03610600158572197, -0.03147958964109421, -0.03463397175073624, 0.009072057902812958, 0.0338888056576252, 0.028792351484298706, 0.03579522669315338, -0.013378246687352657, 0.03053167089819908, -0.023359160870313644, 0.03757423534989357, -0.026826662942767143, 0.0374649353325367, -0.022798171266913414, 0.03095228597521782, -0.0232844315469265, -0.029641013592481613, -0.005045448895543814, -0.021498609334230423, -0.03137696161866188, 0.023702703416347504, -0.027741679921746254, 0.015416608192026615, -0.032166313380002975, 0.027401670813560486, -0.027607541531324387, 0.032316654920578, 0.024465877562761307, 0.03770147264003754, -0.023521047085523605, 0.03703907132148743, -0.010231349617242813, -0.03988277167081833], [0.0033572290558367968, 0.02328992262482643, 0.01673424243927002, 0.0048522003926336765, -0.017868712544441223, 0.0024179616011679173, 0.022284192964434624, 0.0038445142563432455, -0.005118775647133589, -0.016361160203814507, -0.004527801647782326, 0.01858316734433174, -0.025620106607675552, 0.01949523203074932, 0.016834493726491928, 0.01578439213335514, 0.01436780858784914, 0.015574720688164234, -0.0036014607176184654, -0.003321064403280616, -0.018026795238256454, -0.0036321422085165977, -0.0035244650207459927, -0.003797811223194003, -0.005737224128097296, 0.012451753951609135, 0.0032155271619558334, 0.01846355013549328, -0.007820308208465576, 0.016904471442103386, 0.016635674983263016, 0.018942568451166153, -0.003420252352952957, -0.0200373362749815, -0.017375051975250244, 0.017563151195645332, -0.012284251861274242, 0.013316522352397442, -0.008198665454983711, -0.019201872870326042, -0.017929086461663246, 0.0040351878851652145, -0.0029642696026712656, 0.022067634388804436, -0.023311583325266838, 0.003459964646026492, 0.0008101522107608616, 0.01791648007929325, -0.004893862642347813, 0.016221296042203903, -0.0023193175438791513, 0.0035880429204553366, -0.012650787830352783, 0.011485479772090912, -0.01917697861790657, 0.010445168241858482, -0.013895833864808083, 0.011449507437646389, -0.012708134949207306, 0.022572431713342667, 0.005108456593006849, 0.016257112845778465, -0.015486865304410458, -0.00344257615506649, 0.021419765427708626, 0.0047290511429309845, -0.018943555653095245, -0.009358192794024944, 0.017187796533107758, 0.014801970683038235, -0.0035298571456223726, -0.02487851493060589, -0.008906449191272259, 0.0033726978581398726, -0.002229388803243637, 0.016236966475844383, -0.020005011931061745, -0.003623052267357707, 0.029475955292582512, 0.0028288245666772127, 0.02296360768377781, 0.0030342109967023134, -0.02091003954410553, 0.019033776596188545, 0.017499882727861404, 0.022597111761569977, -0.023173049092292786, 0.018163053318858147, -0.016124732792377472, 0.0033701076172292233, -0.013386276550590992, 0.02031853049993515, -0.003035423345863819, -0.002940051257610321, -0.01957244612276554, 0.007118951994925737, -0.014626315794885159, -0.021368784829974174, 0.012012229301035404, 0.02147764153778553, 0.004298236686736345, 0.02025473117828369, -0.0035292040556669235, 0.0024166807997971773, -0.016229262575507164, 0.0197733324021101, -0.0032030618749558926, 0.02028207667171955, -0.01716974563896656, 0.006990799214690924, -0.02418254315853119, -0.013735567219555378, -0.01587587594985962, -0.016204968094825745, -0.014909486286342144, 0.012389917857944965, -0.015096544288098812, 0.003459481755271554, -0.005573916714638472, 0.013595118187367916, -0.0032026718836277723, 0.003482751315459609, 0.006237294990569353, 0.022606758400797844, -0.006385812535881996, 0.008674336597323418, -0.022872406989336014, -0.02719789929687977], [-0.039095260202884674, -0.007234725169837475, -0.0037098343018442392, -0.03531678393483162, 0.04083770141005516, -0.03739016875624657, -0.004339020233601332, -0.03525112569332123, 0.03571417182683945, 0.043238282203674316, 0.03644828870892525, -0.04742475226521492, 0.04748377948999405, -0.04039819538593292, -0.03450894355773926, -0.0043854136019945145, -0.0435546338558197, -0.03288494795560837, 0.043997976928949356, 0.0468515045940876, 0.03829467296600342, 0.004068524111062288, 0.004163134843111038, 0.03705914318561554, 0.025685103610157967, -0.003331407904624939, -0.008649945259094238, -0.04369605332612991, 0.03578714653849602, -0.041616424918174744, -0.029781771823763847, -0.044108450412750244, 0.004317335318773985, 0.03917856886982918, 0.040803782641887665, -0.004358790814876556, 0.0033794944174587727, -0.03068566508591175, 0.00593292573466897, 0.005961987189948559, 0.004180517978966236, -0.04026392847299576, 0.03185201436281204, -0.016528429463505745, 0.047742810100317, -0.04430706053972244, -0.03521382436156273, -0.0041074189357459545, 0.023909792304039, -0.003941319417208433, 0.017149537801742554, -0.049291983246803284, 0.03154913708567619, -0.03667740896344185, 0.04195608198642731, -0.009856064803898335, 0.007043731864541769, -0.033511266112327576, 0.029575912281870842, -0.04701857641339302, -0.01931810937821865, -0.046443741768598557, 0.0073608821257948875, 0.04008723795413971, -0.005665358155965805, -0.00597291300073266, 0.039467040449380875, 0.03965910151600838, -0.011162236332893372, -0.0042734695598483086, 0.011609029956161976, 0.04885859414935112, 0.04304959997534752, -0.010791512206196785, 0.0023835720494389534, -0.03206588327884674, 0.03829777240753174, 0.05791955441236496, -0.0045667667873203754, -0.04279342666268349, -0.025512192398309708, -0.003909473307430744, 0.0475112646818161, -0.0039842394180595875, -0.0028783692978322506, -0.043048612773418427, 0.045991599559783936, -0.03965289145708084, 0.030942227691411972, -0.04718853533267975, 0.003906365483999252, -0.005079826805740595, 0.01288552489131689, 0.03572576120495796, 0.0037736252415925264, -0.04038858413696289, 0.0055076563730835915, 0.02093810960650444, -0.021372737362980843, -0.038106322288513184, -0.00492263725027442, -0.04509132355451584, 0.0030656408052891493, -0.03420048579573631, 0.022871486842632294, -0.004095614422112703, 0.009487704373896122, -0.047677211463451385, 0.031202038750052452, -0.039297327399253845, 0.005129962228238583, 0.03450987488031387, 0.043571021407842636, 0.014306619763374329, 0.038594357669353485, -0.032026663422584534, 0.03371104970574379, -0.004234537482261658, 0.03710866719484329, -0.03159380704164505, 0.0039004411082714796, -0.03693019598722458, -0.026153093203902245, -0.006468833424150944, 0.025987772271037102, -0.0038657288532704115, 0.050962358713150024, 0.007752022240310907], [0.00017753963766153902, 0.0013488001422956586, 0.00044492827146314085, 0.0002470787730999291, -0.0004032550205010921, 0.00037685048300772905, 0.0014827458653599024, 0.0026812897995114326, -0.00011693762644426897, -0.00021887502225581557, -0.0010290215723216534, 0.000318058708216995, -0.00048787397099658847, 0.00019466622325126082, 0.00043786552851088345, 0.0018312641186639667, 0.0034480455797165632, 0.0013965601101517677, -0.0005324099911376834, -0.000801683054305613, -0.002356890356168151, -0.0029130049515515566, -0.000982131576165557, -0.0012199090560898185, -0.0014619153225794435, 0.002666822634637356, 0.000906167144421488, 0.00018015764362644404, -0.0026709269732236862, 0.00013388352817855775, 0.00097376893972978, 0.0009285251726396382, -0.003268770407885313, -0.002822117879986763, -5.629585189126374e-07, 0.0004995818017050624, -0.00223345379345119, 0.0036649759858846664, -0.0028700882103294134, -0.005222658161073923, -0.00014965275477152318, 0.0015132453991100192, -0.0006150195258669555, 0.00023746100487187505, -0.0013054064474999905, 0.0003361501730978489, 0.00610037287697196, 0.0034106795210391283, -0.003090177197009325, 0.00185968482401222, -0.00027017720276489854, 0.0017895267810672522, -0.0018890510546043515, 0.002265521790832281, -0.0020748672541230917, 0.0017738197930157185, -0.0016988193383440375, 0.0005474362405948341, -0.0019044246291741729, 0.002638670150190592, 0.00047137675574049354, 0.0016908423276618123, -0.0022527039982378483, -0.001500731217674911, 0.0020557912066578865, 0.004127573687583208, -0.0013169849989935756, -0.0022365273907780647, 0.0017342311330139637, 0.0035672374069690704, -0.0015118373557925224, -0.00041299909935332835, -0.002215700689703226, 6.889143696753308e-05, -0.003655438544228673, 0.0025749807246029377, -0.0011492336634546518, -0.003337238682433963, 4.008803080068901e-05, 0.0028140682261437178, 0.0003558564349077642, 0.00038587793824262917, -9.1211695689708e-05, 0.0013344248291105032, 0.005538719240576029, 0.000839254236780107, -0.0004513621679507196, 0.0006578607717528939, -0.0006453946116380394, 0.0003070853417739272, -0.00037609119317494333, 0.0012666699476540089, -0.0011525301961228251, -0.0010857285233214498, -0.0023379954509437084, 1.4110887605056632e-05, -0.003140527755022049, -0.002765088574960828, 0.0025580369401723146, 0.0017137493705376983, 6.0145946918055415e-05, 0.00139913079328835, -0.0018644133815541863, 0.0016127764247357845, -0.0016717476537451148, 0.0023920396342873573, -0.0025777968112379313, 0.0011847451096400619, -0.0018766301218420267, 0.0023839380592107773, -0.001016872120089829, -0.0013153532054275274, -0.0004876676539424807, -0.0006758736562915146, -0.0008675275603309274, 0.002842661226168275, -0.002702929312363267, 0.001996099716052413, -0.0019615294877439737, 0.0008430533926002681, -0.00021826133888680488, 0.004663793370127678, 0.004348373506218195, 0.005183254834264517, -0.0013871232513338327, 0.00015936927229631692, -0.0021768659353256226, -0.0015449242200702429], [-0.0027520873118191957, -0.00040265070856548846, -0.007496710401028395, -0.0033933655358850956, 0.007864151149988174, -7.79389010858722e-05, -0.001541267498396337, -0.0021858024410903454, 0.007513190153986216, 0.0009496818529441953, 0.001605550292879343, -0.0015090161468833685, 0.00847290363162756, -0.006071367766708136, -0.006061932072043419, -0.004225993528962135, -0.0034651351161301136, -0.001707008108496666, 0.008355612866580486, 0.002692732959985733, 0.0015361367259174585, 0.0013872924027964473, 0.0033642144408077, 0.004483938682824373, 6.817480607423931e-05, -0.0028761865105479956, -0.003384890267625451, -0.0020716555882245302, 0.003332897089421749, -0.0051110717467963696, -0.00034232751931995153, -0.004003624897450209, 0.001774507574737072, 0.001405810471624136, 0.00020380763453431427, -0.0027913707308471203, 0.0007739585707895458, -0.002244215691462159, 0.004109120927751064, 0.004214986227452755, 0.006505702156573534, -0.0010378295555710793, 0.005718582775443792, -0.0026861305814236403, 0.007556825876235962, -0.0017826035618782043, -0.002033658092841506, -0.003184477798640728, 0.0016702614957466722, -0.0026330361142754555, 0.0001900790521176532, -0.002471592277288437, 0.0012036528205499053, -0.001450604759156704, 0.0008303534705191851, -0.0024976730346679688, 0.003935076761990786, -0.008577307686209679, 0.0005313657457008958, -0.004802489187568426, -0.002294965088367462, -0.005017163697630167, 0.0025142941158264875, 0.000840374210383743, -0.002420102246105671, -0.005183197092264891, 0.0071521480567753315, 0.0001722371089272201, -0.003844453487545252, -0.0007643323624506593, 0.007689760997891426, 0.0022539393976330757, 0.0016172690084204078, -0.0026096610818058252, 0.0002579967549536377, -0.0008716659503988922, 0.004191105253994465, 0.002147797029465437, -0.0032100044190883636, -0.0012914312537759542, -0.008707299828529358, -0.0010038920445367694, 0.006905895657837391, -0.0013584197731688619, -0.00046147804823704064, -0.0012787000741809607, 0.006552059669047594, -0.007075123023241758, 0.0014339444460347295, -0.0019758467096835375, 0.006899361498653889, -0.0071497526951134205, 0.0011028042063117027, 0.0013357540592551231, 0.005303334444761276, -0.005428002681583166, 0.0026711157988756895, 0.001721686334349215, -0.0018324207048863173, -0.0010951925069093704, -0.007652107626199722, -0.0003748656017705798, 0.0025406002532690763, -0.004948820918798447, 0.004939930979162455, -0.004167606588453054, 0.0011729688849300146, -0.002175662899389863, 0.0014902632683515549, -0.0008561978465877473, 0.007331612519919872, 0.00248164520598948, 0.007431396283209324, 0.0021692218724638224, 0.004461722914129496, -0.00042537078843452036, 0.00016507346299476922, -0.008183533325791359, 0.0007337940623983741, -0.0031469985842704773, 0.0013907874235883355, -0.009395159780979156, -0.001951801241375506, -0.004183223936706781, 0.0035540047101676464, -0.0010310887591913342, 0.0005489279865287244, 0.008604414761066437], [0.004837668035179377, 0.011532747186720371, 0.010428366251289845, 0.004260682035237551, -0.005643278826028109, 0.007285892032086849, 0.0064619542099535465, 0.005562932230532169, -0.003599567571654916, -0.009448639117181301, -0.008324472233653069, 0.009891646914184093, -0.0035375284496694803, 0.002832846948876977, 0.00627028988674283, 0.008892841637134552, 0.01272753719240427, 0.01227500569075346, -0.007556484080851078, -0.0034256093204021454, -0.009052998386323452, -0.009532195515930653, -0.02012765407562256, -0.0024369237944483757, -0.06015082821249962, 0.02866019681096077, 0.0032571323681622744, 0.0063195014372467995, -0.0035585283767431974, 0.004694529343396425, 0.03727557137608528, 0.009298751130700111, -0.006512920372188091, -0.0031326112803071737, -0.006020842120051384, 0.0066368659026920795, -0.005283052567392588, 0.017996108159422874, -0.007026227656751871, -0.0026474378537386656, -0.005427469499409199, 0.003988585900515318, -0.006777490489184856, 0.006888832896947861, -0.007459892891347408, 0.010531359352171421, 0.004121533129364252, 0.00712209939956665, -0.03921867907047272, 0.005946782883256674, -0.005311616230756044, 0.0034881390165537596, -0.00884384848177433, 0.012233451008796692, -0.006277813576161861, 0.009996416047215462, -0.005086495075374842, 0.012443712912499905, -0.04285457357764244, 0.006016633473336697, 0.011721130460500717, 0.003871204564347863, -0.006258979439735413, -0.007726702373474836, 0.007271370384842157, 0.006540520116686821, -0.003629053710028529, -0.00373632088303566, 0.06646611541509628, 0.010341599583625793, -0.0030776113271713257, -0.005710092838853598, -0.006741540972143412, 0.003173957811668515, -0.06669554114341736, 0.04967348277568817, -0.003428956028074026, -0.006966445595026016, 0.00720163295045495, 0.009667721576988697, 0.021873801946640015, 0.01033296063542366, -0.006601282395422459, 0.007208647672086954, 0.010970665141940117, 0.005365333519876003, -0.0031461319886147976, 0.011188278906047344, -0.07025064527988434, 0.009062634781002998, -0.008693643845617771, 0.003127896459773183, -0.006531979888677597, -0.008970660157501698, -0.009123353287577629, 0.006341971922665834, -0.006856838706880808, -0.006108962930738926, 0.03856181725859642, 0.010528278537094593, 0.0037677264772355556, 0.005376921501010656, -0.03952930495142937, 0.006190019194036722, -0.04640328884124756, 0.005534601863473654, -0.013415084220468998, 0.006015769671648741, -0.03887152671813965, 0.005532607436180115, -0.008903373964130878, -0.007612523622810841, -0.0059939115308225155, -0.02086191065609455, -0.010905537754297256, 0.006417532917112112, -0.0062207384034991264, 0.004200030583888292, -0.007323458790779114, 0.0061825960874557495, -0.010010160505771637, 0.003985331393778324, 0.002323963912203908, 0.0043709068559110165, -0.07311347872018814, 0.0034306698944419622, -0.008351205848157406, -0.01033974252641201], [-0.0012567494995892048, -0.006577781401574612, -0.0002526280586607754, -0.0032356143929064274, 0.00047329807421192527, -0.002211477141827345, -0.0003497683210298419, -0.0035438593477010727, 0.0043559931218624115, 0.0058065783232450485, 0.0003633526212070137, -0.0019087671535089612, 0.006063162814825773, -0.0011285333894193172, -0.0011493217898532748, -0.00200102711096406, -0.0008645061170682311, -0.0005723498179577291, 0.0028403382748365402, 0.004115735180675983, 0.0006031551747582853, 0.007653485517948866, 0.0019027417292818427, 9.096095891436562e-05, 0.0008948665927164257, -0.004691319540143013, -0.0018744848202914, -0.000989845604635775, 0.006168431602418423, -0.004182847682386637, -0.006310520693659782, -0.004362806677818298, 0.0015979395247995853, 0.0018110289238393307, 0.004793956410139799, -0.0037618360947817564, 0.00046665771515108645, -0.0026114480569958687, 0.0019641851540654898, 0.0012622145004570484, 0.0006670862785540521, -0.003926073666661978, 0.0016358928987756371, -0.003521776059642434, 0.002333926036953926, -0.00033364741830155253, -0.0038248866330832243, -0.0015771898906677961, 0.0004982656100764871, -0.0008476339280605316, 0.002550485311076045, -0.001078616245649755, 0.0018649679841473699, -0.0018807995365932584, 8.735376468393952e-05, -0.0014883927069604397, 0.0017977202078327537, -0.0030811531469225883, 0.007159802597016096, -0.0022232283372431993, -0.001675596460700035, -0.0027338846120983362, 0.00014993669174145907, 0.000678233162034303, -0.0016088280826807022, -0.002400550525635481, 0.003144114511087537, 0.00025640317471697927, -0.005144825670868158, -0.007260460872203112, 0.0030959504656493664, 6.675608165096492e-05, 0.0036406165454536676, -0.003824740881100297, 0.0006726436549797654, -0.0031902885530143976, 0.0014641700545325875, 0.001168810180388391, -0.0022628025617450476, -0.0011905488790944219, -0.005078127607703209, -0.005007504485547543, 0.0005313204601407051, -0.004814348183572292, -0.004553847946226597, -0.0016588022699579597, 0.0040768710896372795, -0.0010384359629824758, 0.00013464302173815668, -0.005372372455894947, 0.002961792517453432, -0.0005674895946867764, 0.005321067292243242, 0.0003643035306595266, 0.0005558158736675978, -0.0003120410838164389, 0.00038854367448948324, 0.00032995405490510166, -0.007413588464260101, -0.0011259568855166435, -0.0012524984776973724, -0.0007767643546685576, 0.004639786668121815, -0.0015093424590304494, 0.0031814798712730408, -0.001967483200132847, 0.0009836183162406087, -0.0017386054387316108, 0.0044069234281778336, -0.00037337231333367527, 0.002117761177942157, 0.004543522838503122, 0.0019654615316540003, 0.0027424609288573265, 0.005945972632616758, -0.001720246858894825, 0.0010103293461725116, -0.002891463926061988, 0.0017266320064663887, -0.006468689534813166, 0.0031026608776301146, -0.0018390377517789602, -0.003184498520568013, -4.69043297925964e-05, 0.006918387487530708, -0.0005605419864878058, 0.005280394572764635, 0.0007087561534717679], [0.017835650593042374, 0.023310860618948936, 0.01642533391714096, 0.017805863171815872, -0.019085008651018143, 0.008447980508208275, 0.0027143945917487144, 0.013502671383321285, -0.0030330955050885677, -0.013970456086099148, -0.0026505396235734224, 0.0029257850255817175, -0.022734880447387695, 0.002898984821513295, 0.012989919632673264, 0.015367074869573116, 0.005034792702645063, 0.00955150369554758, -0.021623337641358376, -0.003004561411216855, -0.01773868501186371, -0.01924380101263523, -0.011428192257881165, -0.019450414925813675, -0.0006972861010581255, 0.0024306161794811487, 0.009011521004140377, 0.02101111225783825, -0.01596352830529213, 0.01048707403242588, 0.016091978177428246, 0.015124491415917873, -0.021883061155676842, -0.019388506188988686, -0.011105764657258987, 0.01547759585082531, -0.0021410565823316574, 0.0025020702742040157, -0.003385688876733184, -0.0038845574017614126, -0.0029705644119530916, 0.005902551580220461, -0.011428727768361568, 0.0029461709782481194, -0.008094319142401218, 0.008880828507244587, 0.01370583102107048, 0.024892417713999748, -0.0039448426105082035, 0.0028414095286279917, -0.0016282083233818412, 0.027977069839835167, -0.007682362105697393, 0.006847331300377846, -0.0031125929672271013, 0.008029568940401077, -0.012523735873401165, 0.015480006113648415, -0.011152343824505806, 0.003523417515680194, 0.0035300005692988634, 0.021407024934887886, -0.011642292141914368, -0.014752138406038284, 0.003961932845413685, 0.02850153297185898, -0.017467953264713287, -0.004856175743043423, 0.014408286660909653, 0.01351346354931593, -0.006290415767580271, -0.024433476850390434, -0.016233788803219795, 0.018939463421702385, -0.00413072295486927, 0.0033157686702907085, -0.018173467367887497, -0.02053256519138813, 0.02647983841598034, 0.008464531041681767, 0.016919231042265892, 0.014895947650074959, -0.002965581603348255, 0.01957024075090885, 0.003582548815757036, 0.009527360089123249, -0.0030732452869415283, 0.014812185429036617, -0.013417193666100502, 0.022124478593468666, -0.02041844092309475, 0.004784391261637211, -0.009340731427073479, -0.013699794188141823, -0.0031125994864851236, 0.024216381832957268, -0.01668066903948784, -0.0026272900868207216, 0.005121082533150911, 0.018998200073838234, 0.003095437539741397, 0.020565755665302277, -0.009180367924273014, 0.004082898609340191, -0.010931853204965591, 0.01788981631398201, -0.015046542510390282, 0.0026776392478495836, -0.0029214753303676844, 0.01266423985362053, -0.02497291751205921, -0.011578100733458996, -0.014864967204630375, -0.011208957061171532, -0.009039631113409996, 0.008373222313821316, -0.013379460200667381, 0.003104329342022538, -0.017834963276982307, 0.002005236456170678, -0.002806902164593339, 0.0033088240306824446, 0.005213101394474506, 0.022671367973089218, -0.00335058756172657, 0.012042980641126633, -0.021970992907881737, -0.006375579163432121], [-0.0012256547342985868, -0.0006615497404709458, -0.0017686117207631469, -0.00038034506724216044, 0.0016246228478848934, -0.0012674486497417092, -0.0001431967393727973, -0.0007982247625477612, 0.001926736207678914, 0.0061794365756213665, 0.00011869462468894199, -0.001497494988143444, 0.001252771937288344, -0.004558720160275698, -0.003093401901423931, -0.001156934886239469, -0.0001126413480960764, -0.0030373334884643555, 0.0008101119310595095, 0.0012685470283031464, 0.00210692104883492, 0.000879066064953804, 0.0016837718430906534, 0.004693111404776573, 0.0018942507449537516, -0.0027408115565776825, -8.712666749488562e-05, -0.004324033390730619, 0.0009276027558371425, -0.0037203319370746613, -9.696828055894002e-05, -0.0011394935427233577, 0.0027118234429508448, 0.00162740598898381, 0.0024886359460651875, -0.0012416313402354717, 0.001958632841706276, -0.0025954057928174734, 0.000284618727164343, 0.0007343600736930966, 0.0010064191883429885, -0.0025360018480569124, 0.0006810490158386528, -0.0033056754618883133, 0.0005039864918217063, -6.919890438439324e-05, -0.00014380125503521413, -0.000498564972076565, 0.000528789940290153, -0.0006897600251249969, 0.00022223079577088356, -0.0011381589574739337, 0.0015929577639326453, -0.002362373284995556, 0.0020566482562571764, -0.0029185819439589977, 0.003831086913123727, -0.0016467503737658262, 0.0001951314916368574, -0.005629503168165684, -0.0009494340629316866, -0.00013997431960888207, 0.0008465342689305544, 0.0008183724712580442, -0.00016784897889010608, -0.00038925654371269047, 0.0019091437570750713, 0.001014262204989791, -0.0033043238800019026, -0.0010462818900123239, 0.0012170333648100495, 0.0013664565049111843, 0.0022821067832410336, -0.00033560273004695773, 0.0004129935405217111, -0.002201733412221074, 0.006487081293016672, 0.0016345166368409991, -0.0009470565710216761, -0.002307318150997162, -0.002559105632826686, -0.001638755900785327, 0.0007720065186731517, -0.0011044517159461975, -0.0029067399445921183, -0.0014229102525860071, 0.00012408776092343032, -0.00046985867084003985, 0.004177127964794636, -0.0009083719342015684, 9.733670367495506e-07, -0.0017572060460224748, 0.0017855281475931406, 0.002210914855822921, 0.004474449437111616, -0.0028708651661872864, 0.001929901191033423, 0.0011724448995664716, -0.0021128433290868998, -0.0006804668228141963, -0.002406823681667447, -0.0012340053217485547, 0.0008751192362979054, -0.0013728757621720433, 0.0038906859699636698, -0.0017563269939273596, 0.001358608715236187, -0.0018492386443540454, 0.004123187158256769, -0.0006094740238040686, 0.002147433115169406, 0.0005172806559130549, 0.0006272518658079207, 0.000916899589356035, 0.0016243432182818651, -0.0013712452491745353, 0.005624300334602594, -0.0004272174264770001, 0.0020309092942625284, -0.001233274582773447, 0.0004932329757139087, -0.0026181049179285765, -0.0023550917394459248, -0.0031481029000133276, 0.002090386115014553, -0.0021390565671026707, 0.0003748078888747841, 0.0002433079353068024], [-0.0003585208032745868, -0.0015400816919282079, -3.802186984103173e-05, -0.005202657077461481, 0.00013178904191590846, -0.00026200665161013603, -0.0012955090496689081, -0.001156932907178998, 0.0015417333925142884, 0.0005745019298046827, 0.003213495947420597, -0.0005366934929043055, 0.0009489483200013638, -0.005320574156939983, -0.000462530879303813, -0.00573350116610527, -0.0010528713464736938, -8.534064545528963e-05, 0.004941904917359352, 0.004170539788901806, 0.0005168261122889817, 0.0015582190826535225, 0.001004764693789184, 0.00017596653196960688, 0.0008013344486244023, -0.00363943912088871, -0.0019924386870115995, -0.0013186894357204437, 0.0016460635233670473, -0.0009506117203272879, -0.00044204876758158207, -0.0017819915665313601, 0.00496456865221262, 0.0002678349264897406, 0.001990297343581915, -0.00018835753144230694, 0.0008050165488384664, -2.7779720767284743e-05, 0.002201428869739175, 0.003263708669692278, 7.793603435857221e-05, -0.001268224441446364, 0.0017442528624087572, -0.0012605056399479508, 0.0013201883994042873, -0.000330136128468439, -0.0028023822233080864, -0.0017545705195516348, 0.003826726693660021, -0.0014406656846404076, 0.00021432233916129917, -0.0015673846937716007, 0.002454811241477728, -0.002609315561130643, 1.1352277397236321e-05, -0.0007635580259375274, 0.001151767442934215, -0.0019471796695142984, 0.001954031642526388, -0.0005051327752880752, -0.004482089076191187, -0.0012014413950964808, 0.001571066677570343, 0.0025040197651833296, -0.006978059187531471, -0.008175909519195557, 0.0017030728049576283, 0.0008034213678911328, -0.0020058515947312117, -0.0015924186445772648, 0.00040316637023352087, 0.0002191860694438219, 0.0004948104033246636, -0.0033976209815591574, 0.0015216607134789228, -0.00258828466758132, 0.0003154237929265946, 0.0012847548350691795, -0.001691677258349955, -0.002512951847165823, -0.005333482287824154, -0.00280379899777472, 0.0024413466453552246, -0.0035220514982938766, -0.005571390967816114, -0.00019310018979012966, 0.0055399201810359955, -0.000956683827098459, 0.004075811244547367, -0.0018435865640640259, 0.000707572849933058, -0.001530179986730218, 0.0006040035514160991, 0.005018473137170076, 7.677140820305794e-05, -0.0025466077495366335, 0.0018942136084660888, 0.00019747210899367929, -0.0005219544400461018, -0.0015701327938586473, -0.005189552437514067, -0.00013746651529800147, 0.0039053931832313538, -6.978080637054518e-05, 0.00547928549349308, -7.290412759175524e-05, 0.00155365071259439, -0.002159505384042859, 0.001063924515619874, -0.0022306342143565416, 0.00030424355645664036, 0.002646226668730378, 0.0027355612255632877, 0.002152323955669999, 0.0006332305492833257, -0.001944232266396284, 0.0007828335510566831, -0.001545674866065383, 0.0002819290675688535, -0.0005795846809633076, 0.003021898912265897, -0.006951064337044954, -0.0012860317947342992, -0.0026839477941393852, 0.006479881703853607, -0.00282115675508976, 0.00045901350677013397, 0.00020248416694812477], [-0.0018894732929766178, -0.00022107655240688473, -0.0006357559468597174, -0.0012825626181438565, 0.0012274942127987742, -0.00039559329161420465, -2.91872402158333e-05, -0.0012015216052532196, 0.00043152677244506776, 0.0013040780322626233, 0.0001637180394027382, -0.00108382198959589, 0.007989497855305672, -0.003037668066099286, -0.00024214912264142185, -0.0012416967656463385, -0.00418190099298954, -0.00040577194886282086, 0.0005724801449105144, 0.0038843865040689707, 0.000710109481588006, 0.00014808510604780167, 0.0009067689534276724, 0.0014941336121410131, 0.006454864516854286, -0.0008770948625169694, -0.002210034057497978, -0.0018404111033305526, 0.004794848617166281, -0.002669870387762785, -0.005193884950131178, -0.0008563605370000005, 0.0016596431378275156, 0.002921123057603836, 0.00231516407802701, -0.0024560163728892803, 0.0004183868586551398, -0.0005650281673297286, 0.002614496974274516, 0.0027761273086071014, 0.0017365626990795135, -0.0063079469837248325, 0.0005942116840742528, -0.0025720838457345963, 0.0005851234309375286, -0.002072510775178671, -0.0018589157843962312, -0.007911882363259792, 0.0027585572097450495, -0.0010850384132936597, 0.0049766357988119125, -0.0016977760242298245, 0.0003567423264030367, -0.0024402993731200695, 0.0009753545746207237, -0.001360503607429564, 0.0030222211498767138, -0.0006570632103830576, 0.004394346848130226, -0.006065420340746641, -0.0020552093628793955, -0.0016978246858343482, 0.0013466100208461285, 0.0015764456475153565, -0.001891115796752274, -0.00021200843912083656, 0.0004448973631951958, 0.0005109098274260759, -0.0003950220998376608, -0.0010231068590655923, 0.00045232364209368825, 0.0007342227036133409, 0.0013136876514181495, -0.0009940961608663201, 0.0016853684792295098, -0.004410365130752325, 0.0017687707440927625, 0.0013105855323374271, -6.590607517864555e-05, -0.0007653372013010085, -0.00414386298507452, -0.0024873081129044294, 7.821917279215995e-06, -0.0010909878183156252, -0.0005377298220992088, -0.0018904067110270262, 9.758358601175132e-07, -0.0002680896723177284, 0.0035700402222573757, -0.002801052061840892, 0.00034472529659979045, -0.006574882660061121, 0.0025355874095112085, 0.0026932971086353064, 0.0026157163083553314, -0.001128884730860591, 0.0014137765392661095, 0.0012685060501098633, -0.0053888666443526745, -0.0012454511597752571, -0.00020116072846576571, -0.000155286121298559, 0.0045526400208473206, -0.00015431109932251275, 0.005961694288998842, -0.0008962489082477987, 0.006300345994532108, -0.004307666327804327, 0.003773641074076295, -0.0004908058326691389, 0.00032533169724047184, 0.0038536356296390295, 0.0025393038522452116, 0.0010313839884474874, 0.006339331157505512, -0.005287757609039545, 0.0026602530851960182, -0.00434193154796958, 0.0027077114209532738, -0.0011066014412790537, 0.0024764195550233126, -0.0022049802355468273, -0.0013738245470449328, -0.0019060522317886353, 0.0026488902512937784, -0.0015007054898887873, 0.006714578717947006, 8.762485231272876e-05], [0.0030701556243002415, 0.021922124549746513, 0.012163067236542702, 0.014146179892122746, -0.018041014671325684, 0.0025107397232204676, 0.014920142479240894, 0.010720813646912575, -0.0028361028525978327, -0.011624911800026894, -0.002365224761888385, 0.013131877407431602, -0.006274963263422251, 0.013737822882831097, 0.009266485460102558, 0.004372287075966597, 0.00511918542906642, 0.01243479736149311, -0.02289101481437683, -0.0029251985251903534, -0.004215680528432131, -0.01729668118059635, -0.009732820093631744, -0.017893822863698006, -0.005080771166831255, 0.0019070736598223448, 0.014768656343221664, 0.0030903115402907133, -0.012603573501110077, 0.012671678327023983, 0.0137326680123806, 0.002635011449456215, -0.017067981883883476, -0.015414551831781864, -0.014373494312167168, 0.012507159262895584, -0.0038136430084705353, 0.004183783661574125, -0.02574343793094158, -0.017123786732554436, -0.012207227759063244, 0.015352671034634113, -0.002726328559219837, 0.017426716163754463, -0.010865779593586922, 0.0030159438028931618, 0.002860646927729249, 0.02306501567363739, -0.007467909716069698, 0.013986230827867985, -0.001587351900525391, 0.0037645623087882996, -0.006427214480936527, 0.0019639008678495884, -0.01076759584248066, 0.00516834482550621, -0.017321428284049034, 0.0031923421192914248, -0.006381726823747158, 0.0129395741969347, 0.008585287258028984, 0.01864469051361084, -0.008147021755576134, -0.002980930032208562, 0.01416113693267107, 0.026934048160910606, -0.0026099367532879114, -0.00042887660674750805, 0.011518223211169243, 0.004481954500079155, -0.025688594207167625, -0.023396164178848267, -0.01407264918088913, 0.0032632136717438698, -0.004296497441828251, 0.009631196036934853, -0.015575642697513103, -0.0030327090062201023, 0.028303813189268112, 0.0023370147682726383, 0.008252468891441822, 0.009363660588860512, -0.0031579099595546722, 0.017054492607712746, 0.006928537040948868, 0.005079113412648439, -0.0029644365422427654, 0.002583820605650544, -0.007534836418926716, 0.021380528807640076, -0.013548110611736774, 0.014981936663389206, -0.014465644024312496, -0.009425113908946514, -0.0028516757301986217, 0.02379729598760605, -0.0029027676209807396, -0.013046365231275558, 0.009068937040865421, 0.014484566636383533, 0.01193128153681755, 0.016213715076446533, -0.0033115744590759277, 0.0006081894971430302, -0.006113016977906227, 0.014738194644451141, -0.0033680489286780357, 0.01270533911883831, -0.007658543065190315, 0.009040988981723785, -0.025353683158755302, -0.007497700862586498, -0.002740077907219529, -0.013025954365730286, -0.0060145971365273, 0.0020329521503299475, -0.002841817680746317, 0.01517083216458559, -0.018670784309506416, 0.009601510129868984, -0.011223487555980682, 0.01662903092801571, 0.011180726811289787, 0.019413910806179047, -0.00876744743436575, 0.002394688781350851, -0.018218044191598892, -0.02447924017906189], [0.00900968350470066, 0.0103047089651227, 0.003481009043753147, 0.014508640393614769, -0.002817478496581316, 0.01719745807349682, 0.009823148138821125, 0.007650215178728104, -0.007764974609017372, -0.01653498411178589, -0.006732856389135122, 0.011338056065142155, -0.007334576919674873, 0.012313216924667358, 0.00411832332611084, 0.01919359527528286, 0.007505062967538834, 0.008128617890179157, -0.003524277126416564, -0.013825524598360062, -0.0067742737010121346, -0.00677138427272439, -0.008149637840688229, -0.0034906070213764906, -0.005491293501108885, 0.007673338521271944, 0.011905329301953316, 0.003737634513527155, -0.008066616952419281, 0.010356367565691471, 0.06650495529174805, 0.017422202974557877, -0.008802272379398346, -0.016176216304302216, -0.021781006827950478, 0.006269460543990135, -0.006401980761438608, 0.006771063432097435, -0.005338786169886589, -0.00309204775840044, -0.006821813993155956, 0.006223075091838837, -0.011719082482159138, 0.019947536289691925, -0.0061156172305345535, 0.005429241806268692, 0.020041072741150856, 0.014259571209549904, -0.068893663585186, 0.0072684744372963905, -0.015443257987499237, 0.002912720665335655, -0.009564110077917576, 0.006738143041729927, -0.01096157357096672, 0.023035328835248947, -0.013359415344893932, 0.00544056436046958, -0.004828945267945528, 0.005795690696686506, 0.018262621015310287, 0.006427731364965439, -0.011149807833135128, -0.006252466235309839, 0.006495391950011253, 0.00693639786913991, -0.007855245843529701, -0.007703660987317562, 0.011235488578677177, 0.006253597792237997, -0.00584622984752059, -0.006199011579155922, -0.011045310646295547, 0.0055518983863294125, -0.1574016660451889, 0.009053941816091537, -0.009050923399627209, -0.013364963233470917, 0.0067187706008553505, 0.007493696641176939, 0.031340356916189194, 0.005599705036729574, -0.007693160325288773, 0.007654341869056225, 0.010748088359832764, 0.007896272465586662, -0.006225803401321173, 0.0075815883465111256, -0.0074149239808321, 0.0063012042082846165, -0.017586229369044304, 0.0038184458389878273, -0.0073467036709189415, -0.005879747215658426, -0.01083698496222496, 0.012768259271979332, -0.009956462308764458, -0.008143488317728043, 0.00770955067127943, 0.009134574793279171, 0.003373992396518588, 0.006820779759436846, -0.07082347571849823, 0.008725388906896114, -0.007244730368256569, 0.005909519735723734, -0.010200822725892067, 0.008283715695142746, -0.02766897715628147, 0.020979376509785652, -0.006287576165050268, -0.0083566689863801, -0.012702410109341145, -0.012090795673429966, -0.008912619203329086, 0.009970718063414097, -0.010877640917897224, 0.022537430748343468, -0.0031758402474224567, 0.006182323209941387, -0.0079343868419528, 0.006525563541799784, 0.003922480624169111, 0.011278139427304268, -0.00852793175727129, 0.01171181071549654, -0.015608880668878555, -0.006339604035019875], [0.0574972927570343, 0.008795441128313541, 0.06142226979136467, 0.06908688694238663, -0.006457231473177671, 0.07044436037540436, 0.05788332596421242, 0.06630616635084152, -0.004378870595246553, -0.0032410048879683018, -0.06920798867940903, 0.0069168563932180405, -0.012624353170394897, 0.05198981612920761, 0.07800675928592682, 0.0669572502374649, 0.004852375015616417, 0.06867662072181702, -0.0023534465581178665, -0.005107761360704899, -0.00398453650996089, -0.04511891305446625, -0.004726620856672525, -0.06760405004024506, -0.06060615926980972, 0.061414867639541626, 0.04825521260499954, 0.014380153268575668, -0.07297592610120773, 0.0020398306660354137, 0.04023878276348114, 0.055753935128450394, -0.0024944504257291555, -0.055475153028964996, -0.0047051929868757725, 0.0718335434794426, -0.06792917847633362, 0.06389275938272476, -0.002028018468990922, -0.056354820728302, -0.07327179610729218, 0.008368529379367828, -0.05087747052311897, 0.006025675218552351, -0.004797486122697592, 0.01173431146889925, 0.0057445247657597065, 0.006802404299378395, -0.015438900329172611, 0.055082373321056366, -0.06393813341856003, 0.006465928163379431, -0.06450755149126053, 0.006207989528775215, -0.05013691633939743, 0.005123915616422892, -0.002081009792163968, 0.009312060661613941, -0.03878051042556763, 0.004828811623156071, 0.006318235769867897, 0.002380067016929388, -0.04885173216462135, -0.058691661804914474, 0.013939865864813328, 0.02117537334561348, -0.0066746557131409645, -0.0047911908477544785, 0.05472669377923012, 0.07416300475597382, -0.0018868651241064072, -0.04558418691158295, -0.06658245623111725, 0.042392548173666, -0.03523089736700058, 0.06732796132564545, -0.0600924976170063, -0.00452067144215107, 0.004462745971977711, 0.007228766568005085, 0.014380470849573612, 0.004651189316064119, -0.05875570699572563, 0.0020399063359946012, 0.05962824076414108, 0.014793120324611664, -0.0038804817013442516, 0.007472355850040913, -0.06438271701335907, 0.00215933914296329, -0.05820908397436142, 0.012031856924295425, -0.05435621365904808, -0.053075678646564484, -0.0045426697470247746, 0.002164006931707263, -0.0637902170419693, -0.06152869760990143, 0.028350377455353737, 0.005909380037337542, 0.06347071379423141, 0.0224310290068388, -0.03176191449165344, 0.006817593239247799, -0.005703727714717388, 0.0025248578749597073, -0.06348301470279694, 0.046169158071279526, -0.04214543104171753, 0.09160663187503815, -0.002093733986839652, -0.04098309576511383, -0.006658335216343403, -0.032126832753419876, -0.05877869576215744, 0.004436416085809469, -0.054524511098861694, 0.004707602318376303, -0.05633663013577461, 0.06353787332773209, -0.04698849469423294, 0.05430510267615318, 0.004809843376278877, 0.04773198068141937, -0.028150450438261032, 0.00445921067148447, -0.0024749801959842443, -0.003915258217602968], [0.00023360803606919944, 0.0005051653715781868, 0.00508928531780839, 0.0013630485627800226, -0.0005753431469202042, 0.003094202373176813, 0.0018367624143138528, 0.0012979017337784171, -0.00643642945215106, -0.0010535076726227999, -0.0016410020180046558, 0.002799206180498004, -0.003298056311905384, 0.003635320346802473, 0.002594374120235443, 0.003023240715265274, 0.003444962203502655, 0.0021890844218432903, -0.007641305681318045, -0.002279269276186824, -0.000951479421928525, -0.0004135937779210508, -0.0018774016061797738, -0.0006042933673597872, -0.0022653532214462757, 0.0007043532677926123, 0.004327507223933935, 0.0031895211432129145, -0.0018198506440967321, 0.004885274451225996, 0.0020159510895609856, 0.00013450598635245115, -0.0027601737529039383, -0.0036572818644344807, -0.00083087885286659, 0.003068785648792982, -0.0014705969952046871, 0.0005842618993483484, -3.739434396266006e-05, -0.0025527821853756905, -0.004585237707942724, 0.001988929696381092, -0.0036505055613815784, 0.0007605792488902807, -0.0015114842681214213, 3.342611307743937e-05, 0.0007395878783427179, 0.0037766676396131516, -0.0018448218470439315, 0.0004017558821942657, -0.004795174580067396, 0.0029992321506142616, -0.002184477401897311, 0.0009892331436276436, -0.00012749870074912906, 0.004562458489090204, -0.004901522304862738, 6.993010902078822e-05, -0.0025070898700505495, 0.0007089555147103965, 0.0017456636996939778, 0.00538857514038682, -0.0021413310896605253, -0.0009348168969154358, 0.005068881902843714, 0.0010891968850046396, -0.0022703753784298897, -0.0007903919904492795, 0.0012986315414309502, 0.0007827660883776844, -0.002525485120713711, -0.0007802173495292664, -0.00033620616886764765, 0.0004563062102533877, -0.0008765142993070185, 3.4581749787321314e-05, -0.00048093442455865443, -0.0005899917450733483, 0.006289235316216946, 0.0004845975199714303, 0.001144536305218935, 0.0018515523988753557, -0.003490368602797389, 0.0025652286130934954, 0.0007088573765940964, 0.00026718841399997473, -0.0013882607454434037, 0.0006794441724196076, -0.0009180312044918537, 6.392720024450682e-06, -0.003654820378869772, 0.00366159132681787, -0.0009172213613055646, -0.0007365159690380096, -0.002515640575438738, 0.00023753350251354277, -0.0007601060206070542, -0.004051445052027702, 0.002220124239102006, 0.0005394417094066739, 0.003519931109622121, 0.003901004558429122, -0.0009755744831636548, 0.0024023507721722126, -0.0022374570835381746, 0.0003526771324686706, -0.004465308040380478, 0.000544109265320003, -0.0014914204366505146, 0.0013304132735356688, -0.0041519757360219955, -0.0017140797572210431, -0.0018081356538459659, -0.0024010094348341227, -0.00015350800822488964, 0.0016403435729444027, -0.001594568369910121, 0.0022197251673787832, -0.0007087055128067732, 0.003449284005910158, -0.0026751472614705563, 0.0028614173643290997, 0.003347445745021105, 0.0029326598159968853, -0.0014358604094013572, 0.006069901864975691, -0.0002289262629346922, -0.004480825271457434], [-0.006260252557694912, -0.0004152868059463799, -0.0020999957341700792, -0.001654678606428206, 0.0014653864782303572, -0.006129496730864048, -0.005361970514059067, -0.006368896923959255, 0.006227750796824694, 0.006667544133961201, 0.004988070577383041, -0.006647992413491011, 0.0005056469235569239, -0.00039771563024260104, -0.0005953243817202747, -0.0019354302203282714, -0.00036315611214376986, -0.0017403733218088746, 0.0011764976661652327, 0.0009316852083429694, 0.0008339224150404334, 0.004047618713229895, 0.0031531667336821556, 0.0009992248378694057, 0.005497712641954422, -0.0014884331030771136, -0.0079352967441082, -0.004016153514385223, 0.005726026836782694, -0.002120665041729808, -0.0012991979019716382, -0.004493447951972485, 0.0019470991101115942, 0.0004810262471437454, 0.005400535650551319, -0.0072242990136146545, 0.0017445770790800452, -0.0009024502942338586, 0.0019636033102869987, 0.0021835854277014732, 0.006639708764851093, -0.0019165386911481619, 0.0010521125514060259, -0.00029559340327978134, 0.00898184534162283, -0.00042579096043482423, -0.0045100427232682705, -0.002624050248414278, 0.0033769302535802126, -0.0036038814578205347, 0.00396024389192462, -0.006900562904775143, 0.004831118043512106, -0.006441002245992422, 0.00608007563278079, -0.0024065186735242605, 0.006180517375469208, -0.002666359068825841, 0.005767712369561195, -0.0028786305338144302, -0.0004278724663890898, -0.0025007904041558504, 0.006238480098545551, 0.00114496483001858, -0.00024690089048817754, -0.008936291560530663, 0.0018892638618126512, 0.0017718946328386664, -0.002541331574320793, -0.006127133034169674, 0.00022228168381843716, 0.001921816379763186, 0.0005365008837543428, -5.156932820682414e-05, 0.004039388615638018, -0.0053056832402944565, 0.00820086058229208, 0.00554945832118392, -0.001602445961907506, -0.0046401736326515675, -0.007115837186574936, -0.006970706861466169, 0.005929641891270876, -0.008229643106460571, -0.0038282268214970827, -0.005363079719245434, 0.00183321931399405, -0.0030021145939826965, 0.0008937529637478292, -0.0013272339710965753, 0.008286891505122185, -0.003548800013959408, 0.003993161488324404, 0.005835200194269419, 0.0019111580913886428, -0.002160646952688694, 0.0034182914532721043, 0.0002574134850874543, -0.0069280327297747135, -0.001203901250846684, -0.0004881675122305751, -0.0010463402140885592, 0.0004339488223195076, -0.0036404517013579607, 0.008385850116610527, -0.004660618957132101, 0.002123055746778846, -0.007139535620808601, 0.0012753152986988425, -0.0021981794852763414, 0.0017475348431617022, 0.006585207302123308, 0.0073797740042209625, 0.0011245347559452057, 0.0014398208586499095, -0.0012262077070772648, 0.0031145415268838406, -0.004683363251388073, 0.0005259387544356287, -0.006547629367560148, 0.0017104235012084246, -0.0007499554194509983, -0.0022327678743749857, -0.005107181146740913, 0.0054337638430297375, -0.002317206235602498, 0.0038233643863350153, 0.0022242628037929535], [-0.010653946548700333, -0.011936875060200691, -0.00971519760787487, -0.0032424298115074635, 0.013300437480211258, -0.001711713382974267, -0.002574613783508539, -0.006016589235514402, 0.0027726651169359684, 0.008635557256639004, 0.005877218674868345, -0.004908070899546146, 0.01545701827853918, -0.00597961014136672, -0.0022212653420865536, -0.006579251494258642, -0.0008708625682629645, -0.008297398686408997, 0.013083340600132942, 0.007938213646411896, 0.003908821847289801, 0.012132588773965836, 0.0037572819273918867, 0.010212370194494724, 0.0027071754448115826, -0.0012234272435307503, -0.0023537848610430956, -0.012054924853146076, 0.008346842601895332, -0.006110350601375103, -0.003960179165005684, -0.009053528308868408, 0.010410499759018421, 0.010584673844277859, 0.008187362924218178, -0.006159922108054161, 0.001279184129089117, -0.0028331393841654062, 0.015134403482079506, 0.003262860933318734, 0.00955742783844471, -0.011298655532300472, 0.004840044770389795, -0.010916193947196007, 0.005453829653561115, -0.011463337577879429, -0.0023934512864798307, -0.015186730772256851, 0.007301210425794125, -0.002622823230922222, 0.0017309486865997314, -0.005550949834287167, 0.001595015055499971, -0.0017953563947230577, 0.0018584072822704911, -0.001910774502903223, 0.012365931645035744, -0.009652522392570972, 0.0013370511587709188, -0.013320154510438442, -0.011137236841022968, -0.011852028779685497, 0.00464533781632781, 0.008022894151508808, -0.010764122009277344, -0.0036547209601849318, 0.007264268584549427, 0.0017792638391256332, -0.003415199462324381, -0.007239018566906452, 0.016165314242243767, 0.012758984230458736, 0.004972994327545166, -0.01245613768696785, 0.006130225025117397, -0.005245393142104149, 0.002817529486492276, 0.006596786435693502, -0.016752976924180984, -0.0018196629825979471, -0.008472651243209839, -0.005457245744764805, 0.010860663838684559, -0.003147694282233715, -0.004017496947199106, -0.010304955765604973, 0.01273537427186966, -0.0022116792388260365, 0.002628376241773367, -0.003011024557054043, 0.004849024582654238, -0.004453315865248442, 0.009034368209540844, 0.0060240235179662704, 0.008266235701739788, -0.014446811750531197, 0.009571460075676441, 0.002332341391593218, -0.004555274732410908, -0.012658043764531612, -0.0074880546890199184, -0.010783004574477673, 0.004072131589055061, -0.0015682503581047058, 0.0017731209518387914, -0.0023254870902746916, 0.0063962326385080814, -0.0069441478699445724, 0.002182662719860673, -0.0014716280857101083, 0.01367179211229086, 0.002550911158323288, 0.0019535848405212164, 0.011659584008157253, 0.00011019846715498716, -0.005766325630247593, 0.007506796158850193, -0.007634020876139402, 0.012319039553403854, -0.009002555161714554, 0.004524719435721636, -0.010675657540559769, -0.008622567169368267, -0.010952851735055447, 0.002535321284085512, -0.0005652905092574656, 0.009903724305331707, 0.014686467126011848], [-0.0014779766788706183, -0.0031634385231882334, -0.0007068523555062711, -0.005944094620645046, 0.0010387478396296501, -0.002094312570989132, -0.0016328541096299887, -0.0013502083020284772, 0.000898806843906641, 0.0004570649180095643, 0.000737806607503444, -0.0006849433993920684, 0.002380908699706197, -0.0031843273900449276, -0.0025257766246795654, -0.004644643049687147, -0.0005227693472988904, -0.0007389424717985094, 0.003575587645173073, 0.003222269471734762, 0.0019311794312670827, 0.0014496416551992297, 0.0017873062752187252, 0.0018794637871906161, 0.002848349278792739, -0.0015692091546952724, -0.003264026716351509, -0.0008660877356305718, 0.0007975641638040543, -0.0008814890752546489, -0.0031502298079431057, -0.0018365338910371065, 0.0001401119225192815, 2.0584551748470403e-05, 0.0003863836464006454, -0.0035005034878849983, 0.001893075299449265, -0.0005506144370883703, 0.0005978833651170135, 0.005111220758408308, 0.0002441579126752913, -3.688197102746926e-05, 3.6747209378518164e-05, -0.0003066791396122426, 0.0014646623749285936, -0.0005210827803239226, -0.0008828092250041664, -0.002514529973268509, 0.0020710595417767763, -0.0007027530809864402, 0.0012097321450710297, -0.004420774057507515, 0.0014710768591612577, -0.0014236430870369077, 0.002940023085102439, -0.0007095178007148206, 0.0013020103797316551, -0.004367700777947903, 0.003093629376962781, -0.0009101530304178596, -0.002868060953915119, -0.0015597190940752625, 0.001666801399551332, 0.0007429889519698918, -0.0011794621823355556, -0.0014489853056147695, 0.001398783060722053, 0.0023986147716641426, -0.0002547347394283861, -0.0029574818909168243, 0.0011965049197897315, 0.00036682712379842997, 0.0008021432440727949, -0.000884873908944428, 0.002467031590640545, -0.001994973048567772, 0.0022506897803395987, 0.002392848487943411, -0.0050913444720208645, -0.0022623823024332523, -0.00040794338565319777, -0.003196448553353548, 0.0008403239189647138, -0.0014624539762735367, -0.0002382113307248801, -0.00025525837554596364, 0.006157489959150553, -0.002224902855232358, 0.001392722362652421, -0.0006271841702982783, 0.003613054985180497, -0.00014488348097074777, 0.003471455303952098, 0.002918483456596732, 8.962427818914875e-05, -0.0014407022390514612, 0.0031937395688146353, 0.0001490635477239266, -0.0006105965003371239, -0.005308689083904028, -0.00024410757760051638, -0.0005758157349191606, 0.0015873363008722663, -0.0009170721168629825, 0.0027351966127753258, -0.0030470900237560272, 0.0008729263208806515, -0.0006129079265519977, 0.0010027987882494926, -0.0020515506621450186, 0.0012573794228956103, 0.0020650592632591724, 0.0025790624786168337, 0.0023724306374788284, 0.0031520011834800243, -0.0014312342973425984, 0.0032608923502266407, -0.002963016973808408, 0.0017144159646704793, -0.0022872586268931627, 0.00013309372297953814, -0.0017395023023709655, -0.001902411924675107, -0.0010078017367050052, 0.0014420280931517482, -0.00221153162419796, 0.0016097505576908588, 0.0021278003696352243], [0.0077563924714922905, 0.003374301828444004, 0.005481995176523924, 0.0018888546619564295, -0.0033556842245161533, 0.002528678858652711, 0.004187708254903555, 0.003008499974384904, -0.010023473761975765, -0.004520394839346409, -0.006432451773434877, 0.005866233725100756, -0.004347088281065226, 0.0029771612025797367, 0.008787490427494049, 0.0016138560604304075, 0.002786781173199415, 0.003344045951962471, -0.003701672190800309, -0.0029938819352537394, -0.003456822829321027, -0.004369332455098629, -0.0039734444580972195, -0.004135748837143183, -0.044756196439266205, 0.0033650577533990145, 0.0031713666394352913, 0.0034266284201294184, -0.005035432521253824, 0.006249073427170515, 0.008133112452924252, 0.0034292966593056917, -0.007180691231042147, -0.005064306780695915, -0.003450803691521287, 0.003048972925171256, -0.00687131192535162, 0.014231996610760689, -0.007142217829823494, -0.0032666013576090336, -0.005082760006189346, 0.0016558235511183739, -0.0035017943009734154, 0.013497529551386833, -0.0015952660469338298, 0.0017187673365697265, 0.026287153363227844, 0.00604974152520299, -0.01656106673181057, 0.007710821460932493, -0.002939502475783229, 0.0033236448653042316, -0.007892581634223461, 0.0038708378560841084, -0.0018412759527564049, 0.005390950944274664, -0.007826677523553371, 0.003492948831990361, -0.0011556182289496064, 0.004418044816702604, 0.0016897161258384585, 0.00457701226696372, -0.0013234646758064628, -0.006588309071958065, 0.0033444706350564957, 0.008626851253211498, -0.0032457367051392794, -0.00443994952365756, 0.040622178465127945, 0.003224561456590891, -0.0015073764370754361, -0.004252056125551462, -0.004221625626087189, 0.0029450408183038235, -0.03156283125281334, 0.05308549106121063, -0.003993810620158911, -0.005604760721325874, 0.004221160430461168, 0.00870660413056612, 0.0062690796330571175, 0.0012793643400073051, -0.005319459363818169, 0.004463935270905495, 0.008608651347458363, 0.0015433498192578554, -0.003284105798229575, 0.004926707129925489, -0.001558755524456501, 0.0038305448833853006, -0.003789908718317747, 0.0033412075135856867, -0.006532048806548119, -0.0029772608540952206, -0.0038677274715155363, 0.0015621113125234842, -0.0019124143291264772, -0.0030920631252229214, 0.011924365535378456, 0.014363867230713367, 0.0053590391762554646, 0.004176086280494928, -0.014933296479284763, 0.0012411016505211592, -0.020585564896464348, 0.004724600818008184, -0.0034142567310482264, 0.005969598423689604, -0.02103508450090885, 0.003520115278661251, -0.005637011490762234, -0.003675211453810334, -0.003385561052709818, -0.04710850492119789, -0.0013322709128260612, 0.035594742745161057, -0.003541956190019846, 0.006000102497637272, -0.004050424788147211, 0.0340338759124279, -0.0031183420214802027, 0.0016078584594652057, 0.001928461017087102, 0.007602261379361153, -0.003683593589812517, 0.003721850458532572, -0.004324016161262989, -0.006783709395676851], [0.009574172087013721, 0.012652207165956497, 0.005926104262471199, 0.009601744823157787, -0.012002665549516678, 0.0001654162915656343, 0.0021093422546982765, 0.0039052527863532305, -0.009038632735610008, -0.005182845983654261, -0.005353803280740976, 0.005006170365959406, -0.009842830710113049, 0.005439979489892721, 0.0025194596964865923, 0.0066439188085496426, 0.0004035523743368685, 0.008208613842725754, -0.01310072559863329, -0.006377056706696749, -0.007955458015203476, -0.008557509630918503, -0.004652255214750767, -0.006660778541117907, -0.0017240744782611728, 0.0006895001861266792, 0.004967916756868362, 0.010274868458509445, -0.006297574378550053, 0.004973967093974352, 0.004056115169078112, 0.005198798142373562, -0.004100895021110773, -0.00929449312388897, -0.00336189242079854, 0.002270880388095975, -0.0021137194707989693, 0.0014604975003749132, -0.012247318401932716, -0.009639379568397999, -0.005503926891833544, 0.011353780515491962, -0.0024757154751569033, 0.007570848800241947, -0.012365254573523998, 0.00924297422170639, 0.0040245018899440765, 0.012082246132194996, -0.007432826329022646, 0.009745128452777863, -0.0008924425928853452, 0.016184363514184952, -0.002738785231485963, 0.0005948791513219476, -0.00506715290248394, 0.004927545320242643, -0.004212686326354742, 0.009386064484715462, -0.001567352213896811, 0.003351119812577963, 0.011984862387180328, 0.008415726944804192, -0.002259779255837202, -0.008169376291334629, 0.011192594654858112, 0.004620601888746023, -0.0030682191718369722, -0.0013813822297379375, 0.0031148940324783325, 0.0031026462092995644, -0.013840202242136002, -0.00662139430642128, -0.006560984067618847, 0.01079107541590929, -0.0029827451799064875, 0.007794316858053207, -0.0074494993314146996, -0.0007954007014632225, 0.012427404522895813, 0.0012929650256410241, 0.004021844360977411, 0.002165738958865404, -0.006891890428960323, 0.008474236354231834, 0.001311584608629346, 0.009951207786798477, -0.0055487374775111675, 0.004540015943348408, -0.0062809595838189125, 0.011419618502259254, -0.009091849438846111, 0.005860281642526388, -0.003936366178095341, -0.002882543718442321, -0.006589975208044052, 0.011876323260366917, -0.007659895345568657, -0.005103808827698231, 0.009081817232072353, 0.0058447010815143585, 0.006997903808951378, 0.0092365313321352, -0.007519241888076067, 0.0007419430767185986, -0.0019721975550055504, 0.010350986383855343, -0.005397805944085121, 0.0021355494391173124, -0.004114991519600153, 0.0018625424709171057, -0.0159679614007473, -0.0010238280519843102, -0.0026522986590862274, -0.0033712878357619047, -4.1576360672479495e-05, 0.001681399648077786, -0.006055459380149841, 0.0025570006109774113, -0.008997760713100433, 0.005293600261211395, -0.005249245557934046, 0.004498472902923822, 0.006372764706611633, 0.003546514082700014, -0.0035295619163662195, 0.0010135435732081532, -0.009425469674170017, -0.012312185019254684], [-0.06600770354270935, -0.005072663072496653, -0.06541550159454346, -0.06147244945168495, 0.06165973097085953, -0.066526398062706, -0.005527588538825512, -0.06135456636548042, 0.005351432599127293, 0.07547898590564728, 0.00956537202000618, -0.07002857327461243, 0.005396551452577114, -0.06882993131875992, -0.004842519294470549, -0.06656672060489655, -0.07691793143749237, -0.004499563481658697, 0.019395260140299797, 0.06685540080070496, 0.06113699823617935, 0.0049772015772759914, 0.06573459506034851, 0.006417534779757261, 0.005666947457939386, -0.006536714732646942, -0.005992478225380182, -0.005265980027616024, 0.005166989751160145, -0.06914744526147842, -0.046017009764909744, -0.06322929263114929, 0.004347797017544508, 0.005166661459952593, 0.007852933369576931, -0.0055822646245360374, 0.06424681097269058, -0.060361724346876144, 0.00507355434820056, 0.005539430305361748, 0.005642314441502094, -0.0630071833729744, 0.06083456799387932, -0.06138678267598152, 0.005420367699116468, -0.0700850635766983, -0.0638107880949974, -0.005099250469356775, 0.04322252422571182, -0.005165520589798689, 0.06710582971572876, -0.004383765626698732, 0.05486584082245827, -0.07294163107872009, 0.06620226055383682, -0.07221599668264389, 0.03204174339771271, -0.005113935098052025, 0.06117779016494751, -0.06111830100417137, -0.051163848489522934, -0.0051419418305158615, 0.06207510083913803, 0.06668227910995483, -0.06287728250026703, -0.0030439156107604504, 0.06362417340278625, 0.07146356254816055, -0.00664631137624383, -0.06579466909170151, 0.008999153040349483, 0.06848295778036118, 0.0745391845703125, -0.007940123789012432, 0.048191286623477936, -0.006438496522605419, 0.07044776529073715, 0.030195502564311028, -0.02437235414981842, -0.02872060239315033, -0.014625567942857742, -0.06847410649061203, 0.0671209916472435, -0.06619307398796082, -0.02275479957461357, -0.012940600514411926, 0.005357907619327307, -0.06725335121154785, 0.014985576272010803, -0.06474396586418152, 0.07008829712867737, -0.07038144767284393, 0.005183430388569832, 0.024992916733026505, 0.03933260589838028, -0.017435448244214058, 0.060318417847156525, 0.07068764418363571, -0.034260302782058716, -0.007839330472052097, -0.00529546057805419, -0.06408122181892395, 0.013979055918753147, -0.07681642472743988, 0.05114595592021942, -0.07101110368967056, 0.06371309608221054, -0.006950017064809799, 0.0058255563490092754, -0.0762273445725441, 0.005018160678446293, 0.06944876909255981, 0.007397517096251249, 0.04624902829527855, 0.07921374589204788, -0.06345143169164658, 0.05942650884389877, -0.005520303267985582, 0.023300936445593834, -0.04695409908890724, 0.06121264770627022, -0.06835347414016724, -0.05219584330916405, -0.004673249088227749, 0.0067217075265944, -0.00995340570807457, 0.005660154391080141, 0.002693347865715623], [0.004275376908481121, 0.012880582362413406, 0.0047456310130655766, 0.004632749129086733, -0.043937794864177704, 0.04548195004463196, 0.005844441242516041, 0.027972187846899033, -0.00679382961243391, -0.05165212228894234, -0.042381223291158676, 0.053776029497385025, -0.01757986843585968, 0.004076610319316387, 0.004367868881672621, 0.048822805285453796, 0.00440381933003664, 0.04190751165151596, -0.022553207352757454, -0.05018509179353714, -0.03199640288949013, -0.04947588965296745, -0.0047879526391625404, -0.04826491326093674, -0.0043912166729569435, 0.03821301460266113, 0.017488626763224602, 0.004415828734636307, -0.04750864580273628, 0.049360305070877075, 0.018595270812511444, 0.05272446945309639, -0.052505623549222946, -0.04809680953621864, -0.04951108247041702, 0.05315190926194191, -0.04329277202486992, 0.03372136875987053, -0.004534476436674595, -0.004243249539285898, -0.027385517954826355, 0.046643711626529694, -0.03663364052772522, 0.05263732746243477, -0.011630266904830933, 0.00820115301758051, 0.04337212070822716, 0.023588279262185097, -0.009158632718026638, 0.006675872020423412, -0.04572625458240509, 0.04729830473661423, -0.04122109338641167, 0.0024833790957927704, -0.024222824722528458, 0.05195983871817589, -0.00426511699333787, 0.04067055508494377, -0.03984656557440758, 0.04873406141996384, 0.05000341683626175, 0.02311217412352562, -0.04592949524521828, -0.0490419901907444, 0.014506175182759762, 0.04643775150179863, -0.035251397639513016, -0.04685911908745766, 0.013526852242648602, 0.042034462094306946, -0.045391909778118134, -0.004704974591732025, -0.004668406676501036, 0.004846388939768076, -0.026522211730480194, 0.04053979739546776, -0.04860235005617142, -0.061112359166145325, 0.05323900282382965, 0.0559929795563221, 0.014965733513236046, 0.04688926786184311, -0.005553042516112328, 0.051751211285591125, 0.014394581317901611, 0.05271734297275543, -0.04840987175703049, 0.030472878366708755, -0.04053070396184921, 0.04978855699300766, -0.03038874827325344, 0.05103622004389763, -0.04886065423488617, -0.042899876832962036, -0.05321234464645386, 0.04728906229138374, -0.043763063848018646, -0.05035552754998207, 0.02345631830394268, 0.011549037881195545, 0.04321776703000069, 0.05122842267155647, -0.02376490645110607, 0.04998018965125084, -0.035325951874256134, 0.04018406569957733, -0.004372694063931704, 0.05725907161831856, -0.003956140018999577, 0.005672423169016838, -0.04558326303958893, -0.04815620183944702, -0.004648339934647083, -0.031992606818675995, -0.050289276987314224, 0.011968505568802357, -0.04018847644329071, 0.012940078042447567, -0.045013461261987686, 0.006890605669468641, -0.045862436294555664, 0.04742266610264778, 0.03569871932268143, 0.05010150372982025, -0.03655742108821869, 0.004225458949804306, -0.004520290996879339, -0.04613596200942993], [0.0001612928172107786, 0.003249796573072672, 0.00011175595864187926, 0.003782705869525671, -0.004999145399779081, 0.003197808749973774, 0.0024015188682824373, 0.005385467782616615, -0.003295852104201913, -0.0007343993638642132, -0.0019421788165345788, 0.0017794864252209663, -0.0034746997989714146, 0.0001095738698495552, 0.003381493967026472, 0.00718335434794426, 0.0019341085571795702, 0.005077496636658907, -0.0016003643395379186, -0.007698018103837967, -0.0023222879972308874, -0.002088503446429968, -0.0011033504270017147, -0.007518883794546127, -0.0017819767817854881, 0.0033648356329649687, 0.001373828505165875, 0.00010703162115532905, -0.0044763172045350075, 0.005474802106618881, 0.0009299448574893177, 0.001518990728072822, -0.0003800968697760254, -0.004326097201555967, -0.0029775244183838367, 0.0031132104340940714, -0.003221608465537429, 0.0029125926084816456, -0.002724576974287629, -0.007358345668762922, -0.00202649156562984, 0.0021567672956734896, -0.0014205854386091232, 0.0018469669157639146, -0.002859432715922594, 0.008009095676243305, 0.006239015143364668, 0.005986256059259176, -0.0036852604243904352, 0.0052889566868543625, -0.002325281035155058, 0.002103638369590044, -0.0013030917616561055, 0.005613247398287058, -0.0016924769151955843, 0.001589207793585956, -0.00046198852942325175, 0.00194140849635005, -0.0031954364385455847, 0.004976277705281973, 0.00392730301246047, 0.0024918923154473305, -0.0013270321069285274, -0.003324727760627866, 0.0030809699092060328, 0.006710580084472895, -0.005864908918738365, -0.001113258651457727, 0.003948598634451628, 0.005479740910232067, -0.001034335931763053, -0.0009419119451195002, -0.0025886218063533306, 0.0030958843417465687, -0.0012099043233320117, 0.002412585075944662, -0.0025241647381335497, -0.0006429447093978524, 0.001602901960723102, 0.0021608229726552963, 0.004467099905014038, 0.004985116422176361, -0.00033744334359653294, 0.00184071552939713, 0.0005627512000501156, 0.00045373136526905, -0.00020282673358451575, 0.001922503230161965, -0.0010718058329075575, 0.0009091631509363651, -0.0021633319556713104, 0.0006844866438768804, -0.0004450502747204155, -0.004799566697329283, -0.002112899674102664, 0.0020095426589250565, -0.005435984116047621, -0.0017339461483061314, 0.004731262102723122, 0.00011301856284262612, 0.0005376602639444172, 0.003692922880873084, -0.004532231483608484, 0.0004160607932135463, -0.002328024012967944, 0.001361390110105276, -0.003172981319949031, 0.0027332210447639227, -0.006094576790928841, 0.00013411539839580655, -0.0024666101671755314, -3.343160278745927e-05, -0.006230311933904886, -0.003992045298218727, -0.0012049621436744928, 0.0033888614270836115, -0.005663156509399414, 0.0030165768694132566, -0.0018194015137851238, 0.000403088255552575, -0.0025959531776607037, 0.007305175065994263, 0.0015947239007800817, 0.002933267503976822, -0.004572371952235699, 0.0034987907856702805, -0.0016820745076984167, -0.0018569868989288807], [-0.009032828733325005, -0.0199922826141119, -0.013179711997509003, -0.012870042584836483, 0.01633613556623459, -0.002154609654098749, -0.012303668074309826, -0.009411311708390713, 0.012963863089680672, 0.01274355873465538, 0.008250805549323559, -0.011543594300746918, 0.010210168547928333, -0.012023651972413063, -0.0073047904297709465, -0.01247162651270628, -0.0022854104172438383, -0.010319801978766918, 0.019690005108714104, 0.008462019264698029, 0.01476546935737133, 0.016183339059352875, 0.009642905555665493, 0.015477865934371948, 0.008232763037085533, -0.0031277635134756565, -0.004413309507071972, -0.0033481901045888662, 0.012360936030745506, -0.011760249733924866, -0.0014501983532682061, -0.0102674700319767, 0.017076507210731506, 0.014148568734526634, 0.012950888834893703, -0.004416727460920811, 0.0027378888335078955, -0.006662208121269941, 0.004054235760122538, 0.016700154170393944, 0.0029016865883022547, -0.016641870141029358, 0.004977148491889238, -0.014609512872993946, 0.016976255923509598, -0.018651293590664864, -0.010439109988510609, -0.005494281649589539, 0.007670150604099035, -0.012170151807367802, 0.00027353924815542996, -0.003768355818465352, 0.003835753770545125, -0.0005415744963102043, 0.01032310351729393, -0.0023155936505645514, 0.013010093942284584, -0.015708543360233307, 0.005957296118140221, -0.022138044238090515, -0.021916918456554413, -0.0160134918987751, 0.006438388954848051, 0.012368162162601948, -0.01861499436199665, -0.02649500034749508, 0.011717370711266994, 0.0016139353392645717, -0.0076392656192183495, -0.010114101693034172, 0.022726843133568764, 0.020226197317242622, 0.0029969126917421818, -0.015156357549130917, 0.006027518771588802, -0.009033025242388248, 0.0165141262114048, 0.011754168197512627, -0.007068840321153402, -0.0043732826597988605, -0.013469386845827103, -0.0087730186060071, 0.014511889778077602, -0.016636064276099205, -0.008733007125556469, -0.005182107910513878, 0.01652970351278782, -0.003137243678793311, 0.00996481068432331, -0.016714049503207207, 0.005630962550640106, -0.012152988463640213, 0.014631829224526882, 0.008438069373369217, 0.013697144575417042, -0.020429261028766632, 0.010638982057571411, 0.0053804730996489525, -0.006042714696377516, -0.013810733333230019, -0.012381063774228096, -0.01623755507171154, 0.010006289929151535, -0.00037852046079933643, 0.007747786585241556, -0.013056973926723003, 0.011576232500374317, -0.011090814135968685, 0.004210860468447208, -0.003442278830334544, 0.02118731290102005, 0.003058450995013118, 0.010115145705640316, 0.012053932063281536, 0.0048124599270522594, -0.0021732388995587826, 0.007386471144855022, -0.0042451913468539715, 0.01540992222726345, -0.0032361866906285286, 0.0060406518168747425, -0.007338244933634996, -0.0035727384965866804, -0.01904287561774254, 0.00811869278550148, -0.0032731653191149235, 0.017416680231690407, 0.02085345797240734], [-0.01770058088004589, -0.01891997456550598, -0.0028973938897252083, -0.01622174307703972, 0.015537437982857227, -0.0005950561026111245, -0.01664913073182106, -0.0128719387575984, 0.013877292163670063, 0.002537947613745928, 0.011167795397341251, -0.002465298632159829, 0.022221259772777557, -0.014197795651853085, -0.007385984994471073, -0.002684304490685463, -0.0020986758172512054, -0.012444251216948032, 0.003331353422254324, 0.0028554711025208235, 0.01580454781651497, 0.018845008686184883, 0.01052052341401577, 0.017032504081726074, 0.002746447455137968, -0.004361777100712061, -0.002554152859374881, -0.020085738971829414, 0.0076426975429058075, -0.011346513405442238, -0.005411134101450443, -0.018147408962249756, 0.020593633875250816, 0.0030296980403363705, 0.013908620923757553, -0.0040266551077365875, 0.0030524027533829212, -0.0022229738533496857, 0.0035054676700383425, 0.01990874856710434, 0.007796232122927904, -0.006658527534455061, 0.00023971928749233484, -0.020024513825774193, 0.021649930626153946, -0.003053032560274005, -0.01030519139021635, -0.004896422382444143, 0.007580974604934454, -0.0028140507638454437, 0.0014865086413919926, -0.008429563604295254, 0.002693361137062311, -0.001837140996940434, 0.01029171608388424, -0.002125173108652234, 0.01634204015135765, -0.016599886119365692, 0.006674062926322222, -0.0034823983442038298, -0.021936465054750443, -0.02210194803774357, 0.0022570756264030933, 0.013099391013383865, -0.003219527192413807, -0.0011475771898403764, 0.01400079671293497, 0.0014454240445047617, -0.0106853898614645, -0.0028711161576211452, 0.0030906733591109514, 0.01752825640141964, 0.016900546848773956, -0.017078038305044174, 0.00037746067391708493, -0.0035765881184488535, 0.015328074805438519, 0.012550157494843006, -0.02229452133178711, -0.0004760286246892065, -0.011921259574592113, -0.002653873758390546, 0.002998666139319539, -0.002989581087604165, -0.006196512375026941, -0.0031462041661143303, 0.011291303671896458, -0.015699341893196106, 0.007269903551787138, -0.01781393028795719, 0.021027732640504837, -0.0029162259306758642, 0.0067399838007986546, 0.010375510901212692, 0.011910230852663517, -0.003246941138058901, 0.016638118773698807, 0.0024203124921768904, -0.005857119802385569, -0.003400428220629692, -0.014258142560720444, -0.018161099404096603, 0.008041413500905037, -0.00170366489328444, 0.010059441439807415, -0.008178435266017914, 0.008126288652420044, -0.00949624553322792, 0.0035652851220220327, -0.01106929685920477, 0.0031316031236201525, 0.008075995370745659, 0.002792433835566044, 0.012836884707212448, 0.007603678852319717, -0.0018961745081469417, 0.012817869894206524, -0.0021058814600110054, 0.01866805925965309, -0.013279919512569904, 0.012849349528551102, -0.003150008851662278, -0.01205364614725113, -0.024039283394813538, 0.011131965555250645, -0.0019689558539539576, 0.006209535989910364, 0.018202029168605804], [0.007284404244273901, 0.005345331039279699, 0.07617189735174179, 0.07180677354335785, -0.06322517991065979, 0.040819454938173294, 0.00849566888064146, 0.07254987955093384, -0.07520397752523422, -0.014393792487680912, -0.07157108187675476, 0.00872508343309164, -0.07424522191286087, 0.07665342092514038, 0.07618802785873413, 0.07754287868738174, 0.08202400803565979, 0.0716690942645073, -0.00579693540930748, -0.005081011448055506, -0.06498993188142776, -0.06575116515159607, -0.07541264593601227, -0.005674909334629774, -0.005497169215232134, 0.06939175724983215, 0.07086233794689178, 0.07860617339611053, -0.08429532498121262, 0.07133077830076218, 0.050506412982940674, 0.005000003147870302, -0.07667621970176697, -0.07906292378902435, -0.007971838116645813, 0.08882531523704529, -0.07959571480751038, 0.06876067072153091, -0.06234995275735855, -0.040590424090623856, -0.07253620028495789, 0.06730269640684128, -0.024925921112298965, 0.01772380992770195, -0.008197824470698833, 0.005030709784477949, 0.07272915542125702, 0.0058247968554496765, -0.04865661635994911, 0.005562205333262682, -0.0782502219080925, 0.00283644231967628, -0.07442424446344376, 0.08901187032461166, -0.05937084183096886, 0.03559364378452301, -0.06994161009788513, 0.06428702920675278, -0.007911443710327148, 0.06396254152059555, 0.004399622790515423, 0.014025754295289516, -0.06771643459796906, -0.005480988882482052, 0.012494489550590515, 0.018230106681585312, -0.06620544195175171, -0.07829727232456207, 0.07099173963069916, 0.05301165580749512, -0.0026692736428231, -0.0443875789642334, -0.006743661127984524, 0.06681204587221146, -0.0059312558732926846, 0.008016042411327362, -0.005555619951337576, -0.06888731569051743, 0.010074783116579056, 0.0871577039361, 0.029835108667612076, 0.07093395292758942, -0.005428440403193235, 0.06973510980606079, 0.07785157859325409, 0.07474565505981445, -0.06593950092792511, 0.005299713928252459, -0.07181846350431442, 0.012554313987493515, -0.007406453136354685, 0.011189185082912445, -0.07290001213550568, -0.07043348997831345, -0.06033816933631897, 0.002948247129097581, -0.06920920312404633, -0.008570387028157711, 0.007356658112257719, 0.007839715108275414, 0.07533019036054611, 0.012209114618599415, -0.05127376690506935, 0.09264345467090607, -0.015999631956219673, 0.006233526859432459, -0.031085966154932976, 0.007011706009507179, -0.019149035215377808, 0.09699737280607224, -0.010610268451273441, -0.08192387223243713, -0.08137481659650803, -0.010278387926518917, -0.09417727589607239, 0.013626573607325554, -0.04497808963060379, 0.08134613931179047, -0.005157900974154472, 0.06406672298908234, -0.07134554535150528, 0.07840708643198013, 0.0636041909456253, 0.005738783627748489, -0.06203398481011391, 0.08729244768619537, -0.075562484562397, -0.016422845423221588], [-0.004042654763907194, -0.002923127729445696, -0.0015741634415462613, -0.007086354307830334, 0.0064312852919101715, -0.004839469213038683, -0.0024222510401159525, -0.0010545763652771711, 0.0008471315959468484, 0.001253022812306881, 0.0015204091323539615, -0.0009804156143218279, 0.0040369476191699505, -0.0030702059157192707, -0.0010472802678123116, -0.0018421397544443607, -0.00476369122043252, -0.002821819158270955, 0.003374313935637474, 0.005062140990048647, 0.00026938464725390077, 0.0023957141675055027, 0.0011276068398728967, 0.002196547342464328, 0.0004115323827136308, -0.004218454007059336, -0.0017300054896622896, -0.002332473173737526, 0.00277949427254498, -0.0016497406177222729, -0.0017943757120519876, -0.0028094074223190546, 0.0019995523616671562, 0.003093387233093381, 0.0014680884778499603, -0.001433870755136013, 0.00553750479593873, -0.0018327514408156276, 0.0058468300849199295, 0.0013435162836685777, 0.006537678185850382, -4.8637983127264306e-05, 0.0005829451838508248, -0.004311384167522192, 0.002438221126794815, -0.0028064423240721226, -0.0007931575528346002, -0.0033350305166095495, 0.002782314782962203, -0.006932365708053112, 0.002817027736455202, -0.005232137627899647, 0.00028760923305526376, -0.0010690115159377456, 0.00028025495703332126, -0.0023786190431565046, 0.0008369270944967866, -0.005294026341289282, 0.005293435882776976, -0.001999243628233671, -0.007938280701637268, -0.0018990288954228163, 0.003755156882107258, 0.0032015289179980755, -0.005951460916548967, -0.0019107168773189187, 0.001282819313928485, 0.0065107266418635845, -0.005338903982192278, -0.004160172306001186, 0.0069289137609303, 0.0016441126354038715, 0.005177587270736694, -0.0017759723123162985, 0.0005876873037777841, -0.0007729835342615843, 0.002131580375134945, 0.0002572555385995656, -0.003649839898571372, -0.00047205985174514353, -0.0071422322653234005, -0.002285188529640436, 0.0024266489781439304, -0.0002163342578569427, -0.0009516861755400896, -0.006776086054742336, 0.002515259897336364, -0.0003248561406508088, 0.0063462029211223125, -0.00040653839823789895, 0.0009843917796388268, -0.0033663795329630375, 0.0035175601951777935, 0.0034892286639660597, 0.0015053855022415519, -0.00039430768811143935, 0.00105340126901865, 0.0010532167507335544, -0.0030659600161015987, -0.006226986180990934, -0.0040334598161280155, -0.0023617660626769066, 0.0010697870748117566, -0.002779042348265648, 0.004352258052676916, -0.005266453139483929, 0.0013730271020904183, -0.0032864296808838844, 0.004926142282783985, -0.004443409852683544, 0.002342822728678584, 0.002113078022375703, 0.001587407081387937, 0.001973025966435671, 0.0052482811734080315, -0.0013610371388494968, 0.0025311633944511414, -0.0015266983537003398, 0.0021463993471115828, -0.005667273420840502, 0.0012891505612060428, -0.002421571407467127, -0.0030841545667499304, -0.0013906125677749515, 0.0018328891601413488, -0.006560466717928648, 0.001839334494434297, 0.0026163430884480476], [-0.0020718243904411793, -0.0018619593465700746, -0.00022826180793344975, -0.0027223459910601377, 0.00012169246474513784, -0.0013553405879065394, -0.0003067721554543823, -0.00017384372767992318, 0.0019888358656316996, 0.0050615607760846615, 0.00157287553884089, -0.0003899195580743253, 0.0027312561869621277, -0.00042292606667615473, -0.005143123213201761, -0.0008865990093909204, -0.00044786467333324254, -0.001972290687263012, 0.0011078754905611277, 0.0034483757335692644, 0.00018157252634409815, 0.0004024163936264813, 0.0035834219306707382, 0.0009594609728083014, 0.0036384279374033213, -0.0016657651867717505, -0.003099084598943591, -0.00018079442088492215, 0.0038303262554109097, -0.003898713504895568, -0.00039765529800206423, -0.0003789951151702553, 0.0010191372130066156, 0.0001743467728374526, 0.0010793516412377357, -0.0011512363562360406, 0.0011194765102118254, -0.001255027367733419, 0.000566417642403394, 0.0024677219334989786, 0.0024933733511716127, -0.0013448252575471997, 0.0026676661800593138, -0.0004677971883211285, 0.0006304421694949269, -0.0011083497665822506, -0.0016973984893411398, -0.004599886946380138, 0.0015302556566894054, -0.003001610515639186, 1.1730264304787852e-05, -0.0014682719483971596, 0.0032553805503994226, -0.00046875144471414387, 0.0012328019365668297, -0.0036784044932574034, 0.004076524171978235, -0.0009068894432857633, 0.0021184373181313276, -0.0027007400058209896, -0.0011099883122369647, -0.006042228080332279, 4.432869900483638e-05, 0.006761952769011259, -0.005009835120290518, -0.00023050855088513345, 0.0015030803624540567, 0.0003628054109867662, -0.0033705332316458225, -0.00021536201529670507, 0.0008742579375393689, 0.000965348444879055, 0.0028031645342707634, -0.004179629031568766, 0.004301632754504681, -0.0003742014814633876, 0.0012264472898095846, 1.5391273109344183e-06, -0.0003877275448758155, -0.005701079498976469, -0.0035582734271883965, -0.0026764492504298687, 0.00048134432290680707, -0.0035614047665148973, -0.0021370267495512962, -3.915534034604207e-05, 0.0021868995390832424, -0.004198754671961069, 0.0029246006160974503, -0.0009621249628253281, 0.0016200548270717263, -0.003821219550445676, 0.006605418864637613, 0.001444890396669507, 0.002008650451898575, -0.004102250561118126, 0.0013973657041788101, 0.0023389209527522326, -0.000629675283562392, -0.0019051041454076767, -0.002556951018050313, -0.0021346095018088818, 0.0011419822694733739, -0.0007475322345271707, 0.005638448521494865, -0.0019653283525258303, 0.0017528412863612175, -0.00311336200684309, 0.0024575102142989635, -0.002536542946472764, 0.004707929212599993, 0.001966325333341956, 0.0003682638343889266, 0.00020653828687500209, 0.001113411970436573, -0.0030448618344962597, 0.001262972829863429, -0.00639049056917429, 0.0010276418179273605, -0.0033962849993258715, 0.0021885596215724945, -0.0013739276910200715, -0.0054967827163636684, -0.00018932009697891772, 0.0014852427411824465, -0.0008868490112945437, 0.0037947436794638634, 0.006225227378308773], [-0.005145213566720486, -0.0006621518405154347, -0.004208142403513193, -0.00020826469699386507, 0.0015282040694728494, -0.0033470680937170982, -0.0016142800450325012, -0.0003897548303939402, 0.0007812921539880335, 0.003510022070258856, 0.0018038551788777113, -0.0035153990611433983, 0.0009434815146960318, -0.0021955084521323442, -0.0028923959471285343, -0.001815172960050404, -0.004336599260568619, -0.004435953684151173, 0.0007637912058271468, 0.0018737432546913624, 0.0041000088676810265, 0.0009050118969753385, 0.000653559691272676, 0.006709740497171879, 0.0018177187303081155, -0.006178724113851786, -0.0007970703882165253, -0.001379211200401187, 0.0010695726377889514, -0.001425780588760972, -0.0008393707103095949, -0.0029199158307164907, 0.00034169096034020185, 0.005893513094633818, 0.0024415140505880117, -0.0010543352691456676, 0.0021973969414830208, -0.0046201166696846485, 0.006612184923142195, 0.00024663208751007915, 0.005048348102718592, -0.0006685153930447996, 0.005566143896430731, -0.0014124303124845028, 0.00011226916831219569, -0.0013459505280479789, -0.0007123072282411158, -0.0026092445477843285, 0.0018871271749958396, -0.004301881417632103, 0.0019067911198362708, -0.000884959299582988, 0.0005224261549301445, -0.003341109026223421, 0.0007104924879968166, -0.0012424462474882603, 0.0028452128171920776, -0.0010957695776596665, 4.600625470629893e-05, -0.002021624008193612, -0.0003105966898147017, -0.002459757961332798, 0.002577969105914235, 0.003271606517955661, -0.0012415749952197075, -0.0013912117574363947, 0.0012075058184564114, 0.002235714579001069, -0.001005557831376791, -0.002287706360220909, 0.0033176157157868147, 0.003920692950487137, 0.0019969847053289413, -0.004402702674269676, 0.0023335698060691357, -0.003494678530842066, 0.0021741946693509817, 0.001512642134912312, -0.0009872434893622994, -0.003080816473811865, -0.006712161470204592, -0.00602444214746356, 0.001963486894965172, -0.004337337799370289, -0.003411885816603899, -0.0023369858972728252, 7.82133502070792e-05, -0.0004193082859274, 0.0013883076608181, -0.0013525256654247642, 0.002552601508796215, -0.0006261450471356511, 0.001682138885371387, 0.002587811788544059, 0.003500930732116103, -0.00019683766004163772, 0.0002637505531311035, 0.00046886244672350585, -0.0015058788703754544, -0.0012562040938064456, -0.0009523779153823853, -0.0006903238827362657, 0.000500332796946168, -0.0002310665004188195, 0.005493312608450651, -0.001625714241527021, 0.0008248252561315894, -0.003005949780344963, 0.0016054000006988645, -0.0008481019176542759, 0.0019158179638907313, 0.005259730387479067, 0.006227619480341673, 0.0026609275955706835, 0.003885367652401328, -0.0012234660098329186, 0.0024030692875385284, -0.006582819391041994, 0.0018481401493772864, -0.0019753805827349424, 0.002088351408019662, -0.003559802658855915, -0.005025694612413645, -0.0016913055442273617, 0.0020100323017686605, -0.007048317696899176, 0.0006892607780173421, 0.0008674063137732446], [-0.0013807235518470407, -0.004088924266397953, -0.001354902284219861, -0.001891530118882656, 0.0006233768654055893, -0.00156028859782964, -0.0006210238789208233, -2.9051301680738106e-05, 0.00024006800958886743, 0.001659535919316113, 0.00120725657325238, -0.00023566452728118747, 0.0016363583272323012, -0.004632347263395786, -0.0013024883810430765, -0.0006327282753773034, -0.004739538766443729, -6.842991570010781e-05, 0.0001147876464528963, 0.0008568307966925204, 0.00014283607015386224, 0.0026678829453885555, 0.003248915309086442, 0.0022446834482252598, 0.004555918276309967, -0.004589125048369169, -0.002130743581801653, -0.004421149380505085, 8.70031799422577e-05, -0.003822008613497019, -0.004155528731644154, -0.00334930676035583, 0.0003805755404755473, 0.0011157700791954994, 0.003490553703159094, -0.0005680457106791437, 0.001877220463939011, -0.0008159367716871202, 0.0009592032292857766, 0.0043641310185194016, 0.0019455240108072758, -0.0005014829221181571, 0.004213136620819569, -0.004318444523960352, 0.0036429413594305515, -8.910565520636737e-05, -0.003959993831813335, -0.001407788833603263, 0.0012618894688785076, -0.0065987976267933846, 0.0016055272426456213, -0.0023506528232246637, 0.0034990860149264336, -0.0016556172631680965, 0.0003356903907842934, -0.006823665928095579, 0.0009184346999973059, -0.005686992313712835, 0.002509231911972165, -0.004246742930263281, -0.0009758445085026324, -0.002435270929709077, 0.002782181603834033, 0.0013226913288235664, -0.008456146344542503, -0.0005006776773370802, 0.00561788072809577, 0.0017252989346161485, -0.0021953906398266554, -0.004136720672249794, 0.0044278292916715145, 0.0024946285411715508, 0.004197837319225073, -0.003954081330448389, 0.0014737441670149565, -0.0031329786870628595, 0.0022536246106028557, 0.0009823183063417673, -0.0004104869731236249, -8.836095366859809e-05, -0.00013046420644968748, -0.001352181425318122, 0.00020190259965602309, -0.0040830085054039955, -0.0012897007400169969, -0.001714229816570878, 0.0010028486140072346, -0.0010675431694835424, 0.0028915395960211754, -0.0015199375338852406, 0.0028427811339497566, -0.0016345911426469684, 0.00032373599242419004, 0.0007137290667742491, 0.0007552364841103554, -0.002197411609813571, 8.819611684884876e-05, 0.0035673845559358597, -0.002937006065621972, -0.0006747416337020695, -0.00044564681593328714, -0.004595782607793808, 0.002142122248187661, -0.003952638246119022, 0.0036381161771714687, -0.0022285834420472383, 0.003452358301728964, -0.0008884348208084702, 0.0010574045591056347, -0.0014260454336181283, 0.00204174080863595, 0.003191222669556737, 0.0022101125214248896, 0.0016913509462028742, 0.0004400945035740733, -0.00036081441794522107, 0.0009633807931095362, -0.001239313744008541, 0.00029494709451682866, -0.00118538411334157, 0.0027358755469322205, -0.0009752036421559751, -0.0021846850868314505, -0.0003252373426221311, 0.002330152550712228, -0.00233919988386333, 0.004785958211869001, 0.005280289798974991], [0.003123657777905464, 0.00035190049675293267, 0.002322843996807933, 0.003204416250810027, -0.0008366525289602578, 0.0017628790810704231, 0.0036758643109351397, 0.004075594246387482, -0.0012406014138832688, -0.0009993802523240447, -0.00037662542308680713, 0.0025563810486346483, -0.0015339541714638472, 0.00326935900375247, 0.006176973693072796, 0.00046826244215480983, 9.882404265226796e-05, 0.0009121006005443633, -0.001732079079374671, -0.0012538102455437183, -0.0009798301616683602, -0.0014449291629716754, -0.0016066096723079681, -0.002341928891837597, -0.0048164078034460545, 0.0017348635010421276, 0.0006223403033800423, 0.00218208902515471, -0.0031002936884760857, 0.0005313035217113793, 0.003526288317516446, 0.0006993850111030042, -0.00054024753626436, -0.0014051225734874606, -0.0008606287301518023, 0.004107196815311909, -0.002751657972112298, 0.003938020672649145, -0.0017244659829884768, -0.0074503361247479916, -0.0010153264738619328, 0.006529992446303368, -0.003107490949332714, 0.00035734480479732156, -0.0022058384492993355, 1.4602088413084857e-05, 0.00293447426520288, 0.002126425039023161, -0.0002599069266580045, 0.0024099003057926893, -0.001475686440244317, 0.00521633867174387, -0.00156663719099015, 0.0020793878939002752, -0.005307876039296389, 0.003978590480983257, -0.0018814302748069167, 0.0019420841708779335, -0.0043674856424331665, 0.0031159173231571913, 0.0016201779944822192, 0.00019093489390797913, -0.0005372545565478504, -0.002061830833554268, 0.00011939014802919701, 0.0022197426296770573, -0.0030053264927119017, -0.001658779801800847, 0.0005351122235879302, 0.006036684382706881, -0.0007529336144216359, -0.0005848431610502303, -0.006913021206855774, 0.0005608951905742288, -0.0021292068995535374, 0.003311133710667491, -3.216213735868223e-05, -0.0017578286351636052, 0.001437871833331883, 0.002346154535189271, 0.0023178572300821543, 0.00023890841112006456, -0.0029828911647200584, 0.003854550188407302, 0.0054515996016561985, 0.000216389904380776, -0.0030576810240745544, 0.00277024507522583, -0.0025027275551110506, 0.002180089708417654, -0.0012486135819926858, 0.0006890399381518364, -0.0027976755518466234, -0.00015395587251987308, -0.0018017432885244489, 0.0012668700655922294, -0.0007662556017749012, -0.003457652637735009, 0.0004505943797994405, 0.0022567682899534702, 0.00075579434633255, 0.0004899636842310429, -0.003961167763918638, 0.001235885894857347, -0.0052652196027338505, 0.004277500789612532, -0.0004874934093095362, 0.0014593967935070395, -0.00724045280367136, 0.003464209847152233, -0.005933212116360664, -0.0012664985843002796, -0.002945404499769211, -0.0009297473588958383, -0.0004215552471578121, 0.0018996155122295022, -0.0004703902523033321, 0.00028838778962381184, -8.305528172058985e-05, 0.005197600927203894, -0.0012636743485927582, 0.004050638061016798, 0.0016636376967653632, 0.0001841260091168806, -0.004142126068472862, 5.925421282881871e-05, -0.001362684997729957, -0.0028720577247440815], [-0.0024763725232332945, -0.0001229742483701557, -0.002265526447445154, -0.0012467547785490751, 0.0006498904549516737, -0.001838406315073371, -0.003965361509472132, -0.004953726194798946, 0.00035880313953384757, 0.00329186930321157, 0.0026798949111253023, -0.0004151943139731884, 0.00506710447371006, -0.002491469494998455, -0.007051987107843161, -0.0036262371577322483, -0.00208502565510571, -0.00033095746766775846, 0.0026820574421435595, 0.0005343271768651903, 0.00031823499011807144, 0.0012019482674077153, 0.0026996962260454893, 0.00040026273927651346, 0.0031689440365880728, -0.004862023517489433, -0.0030407072044909, -0.001816515694372356, 0.001744230161421001, -0.0065259868279099464, -0.004529673606157303, -0.0028980199713259935, 0.0016680833650752902, 0.0002687939559109509, 0.0019097782205790281, -0.0026423174422234297, 0.0009483746252954006, -0.0011117244139313698, 0.0017715488793328404, 5.6300428695976734e-05, 0.001532723312266171, -0.004129559732973576, 0.004094344563782215, -0.002548391232267022, 0.003801740473136306, -0.008176257833838463, -0.0027956541161984205, -0.0008039368549361825, 0.0023301292676478624, -0.005413528997451067, 0.0010658687679097056, -0.002637701341882348, 0.0030357725918293, -0.001594285829924047, 0.005296304821968079, -0.0038182088173925877, 0.006394868716597557, -0.0018546782666817307, 0.0039121899753808975, -5.10813515575137e-05, -0.006170724518597126, -0.004150244407355785, 0.0007302811718545854, 0.0040267277508974075, -0.003941429313272238, -0.00662105530500412, 0.001178445527330041, 0.001276627299375832, -0.0012418603291735053, -0.00031238223891705275, 0.00029978022212162614, 0.0008092275238595903, 0.003097459441050887, -0.004627521615475416, 0.003248129040002823, -0.003032194683328271, 0.0005124316085129976, 0.0015954093541949987, -0.003568060463294387, -0.0011189094511792064, -0.00550044747069478, -0.004989234264940023, 0.0013956626644358039, -0.003981254994869232, -0.0030392769258469343, -0.0008475327049382031, 0.00020037629292346537, -0.002952120965346694, 0.0026078277733176947, -0.003129031043499708, 0.006183441262692213, -0.005828243680298328, 0.005977627821266651, 0.0025827845092862844, 0.000826684117782861, -0.005983416922390461, 0.0008191671222448349, 0.0020896955393254757, -0.0007748093921691179, -0.006592382211238146, -0.0027664743829518557, -0.00029273092513903975, 0.004247498698532581, -0.001248507178388536, 0.00232889037579298, -0.004000600427389145, 0.0013591175666078925, -0.0028146696276962757, 0.001492899376899004, -0.0007341334130614996, 0.0029210844077169895, 0.001480722683481872, 0.0011158182751387358, 0.0023168420884758234, 0.002339028986170888, -0.0016109688440337777, 0.0005956509849056602, -0.0032243740279227495, 0.0012273920001462102, -0.00204119342379272, 0.001537579228170216, -0.0018901923904195428, -0.007168343290686607, -0.0015284179244190454, 0.001376088592223823, -0.0015593008138239384, 1.3960061551188119e-05, 0.0010542361997067928], [0.00011962908320128918, 0.006056696176528931, 0.0020248626824468374, 0.0013822192559018731, -0.005984185729175806, 0.005013620480895042, 0.0014125144807621837, 0.0023401861544698477, -0.006954829208552837, -0.0020484018605202436, -0.0029194443486630917, 0.005474618636071682, -0.004422382917255163, 0.0014375156024470925, 0.007712991442531347, 0.0005189732182770967, 0.005862581543624401, 0.0012243202654644847, -0.0010222663404420018, -0.0054463716223835945, -0.0009144320501945913, -0.0012226487742736936, -0.0018644325900822878, -0.0013500108616426587, -0.0030791705939918756, 0.0049257115460932255, 0.00027587133808992803, 0.0012394065270200372, -0.001886924379505217, 0.00634724460542202, 0.006074800156056881, 0.0011655001435428858, -0.006878320127725601, -0.0017886367859318852, -0.00429925974458456, 0.0007123854593373835, -0.005696993786841631, 0.002626322442665696, -0.005977813154459, -0.0005021881661377847, -0.004722410812973976, 0.008665929548442364, -0.0012741689570248127, 0.006972975097596645, -0.002074283314868808, 0.0019056648015975952, 0.0013845359208062291, 0.0016925283707678318, -0.00667998194694519, 0.004903640132397413, -0.0053427559323608875, 0.003347095102071762, -0.0025633766781538725, 0.005261308513581753, -0.0003096455766353756, 0.0023861380759626627, -0.007784905377775431, 0.0012696974445134401, -0.00358550064265728, 0.007690679281949997, 0.0035305728670209646, 0.0007695222739130259, -0.002713920082896948, -0.006845124997198582, 0.004417406395077705, 0.002542264061048627, -0.0017759895417839289, -0.006032126490026712, 0.006631155032664537, 0.0014289788668975234, -0.0020950662437826395, -0.0012372644850984216, -0.0012640790082514286, 0.007197739090770483, -0.0038412190042436123, 0.003445407608523965, -0.001304065459407866, -0.0023570717312395573, 0.00103043916169554, 0.005542024504393339, 0.007139928638935089, 0.0009591542766429484, -0.0002696819428820163, 0.0016159892547875643, 0.00015997989976312965, 0.008032490499317646, -0.004173047374933958, 0.002779490314424038, -0.0006079630111344159, 0.004245665390044451, -0.002289860276505351, 0.0002784612588584423, -0.0012305070413276553, -0.004819990135729313, -0.0020542480051517487, 0.007123512681573629, -0.0048353420570492744, -0.005412232596427202, 0.003324053483083844, 0.0072301882319152355, 0.007151348516345024, 0.004935378674417734, -0.0018944025505334139, 0.0012636787723749876, -0.0017923861742019653, 0.0017926457803696394, -0.0066118184477090836, 0.000901895749848336, -0.0005112060462124646, 0.0007950878934934735, -0.003153593745082617, -0.0002341670769965276, -0.0052277096547186375, -0.0010573191102594137, -0.0003795127850025892, 0.004387319553643465, -0.005240598227828741, 0.0018224782543256879, -0.003729840274900198, 0.0029139153193682432, -0.005359156988561153, 0.005404299590736628, 0.007959357462823391, 0.0007546721026301384, -0.004475685302168131, 0.0014068542513996363, -0.0013130593579262495, -0.0027294200845062733], [-0.000997574650682509, -0.0014281762996688485, -0.005121142603456974, -0.003967180382460356, 8.390869334107265e-05, -0.001142664346843958, -0.0007321034208871424, -0.000690782384481281, 0.0018579778261482716, 0.0009580742917023599, 0.006328015588223934, -0.0029341191984713078, 0.0011882688850164413, -0.00080915039870888, -0.00731161842122674, -0.006686982233077288, -0.001431917422451079, -0.003003984922543168, 0.0005742788780480623, 0.006970578338950872, 0.00479055056348443, 0.0040859924629330635, 0.0009216007892973721, 0.0017202850431203842, 0.0001979400112759322, -0.006569893565028906, -0.001943248906172812, -0.0013777503045275807, 0.0014138680417090654, -0.0002947899920400232, -0.0015038872370496392, -0.00348702073097229, 0.0020962622947990894, 0.00157056690659374, 0.0053521511144936085, -0.005825407337397337, 0.002041658153757453, -0.0029611107893288136, 0.007913199253380299, 0.0006309521850198507, 0.0007036783499643207, -0.0038530384190380573, 0.005250755697488785, -0.00568024767562747, 0.003233520081266761, -0.00369669939391315, -0.0001990757300518453, -0.001739158178679645, 0.005727305542677641, -0.001006348174996674, 0.005286176223307848, -0.0031039007008075714, 0.002450217492878437, -0.0005217661964707077, 0.0013952056178823113, -0.0024854764342308044, 0.0018604375654831529, -0.00492013618350029, 0.001359697082079947, -0.003739273874089122, -0.00040239462396129966, -0.0017012745374813676, 0.0007004131330177188, 0.002148320199921727, -0.0015904639149084687, -0.0018403317080810666, 0.0019930796697735786, 0.0017244844930246472, -0.005673977546393871, -0.001805800129659474, 0.00016086715913843364, 0.0034630876034498215, 0.001955114072188735, -0.0012998541351407766, 0.005003337282687426, -0.0029006164986640215, 0.0010131476446986198, 0.001349026570096612, -0.002862360095605254, -0.0034312226343899965, -0.0009994467254728079, -0.000916481832973659, 0.005403259303420782, -0.002321182284504175, -0.003085354808717966, -0.0017416392220184207, 0.0023425268009305, -9.376585512654856e-05, 0.003555853618308902, -0.0019501675851643085, 0.00044897125917486846, -0.006112650036811829, 0.0013093645684421062, 0.0039430046454072, 0.005153583362698555, -0.0027233464643359184, 0.0011020306264981627, 0.0036342288367450237, -0.002922673709690571, -0.0040778350085020065, -0.0013729812344536185, -0.0008001098758541048, 0.0007892013527452946, -0.00048658496234565973, 0.006039510481059551, -0.003266138955950737, 0.004877996630966663, -0.005870084278285503, 0.006501088850200176, -0.006187700666487217, 0.005887189880013466, 0.00023103509738575667, 0.003141667228192091, 0.0005077399546280503, 0.0043632593005895615, -0.006177230272442102, 0.0018029442289844155, -0.0006911124801263213, 0.0015510973753407598, -0.00612560473382473, 0.001046981429681182, -0.008137525990605354, -0.006034119054675102, -0.00011898083903361112, 0.006310120224952698, -0.0014574199449270964, 0.0017757206223905087, 0.0009552356204949319], [-0.004112768452614546, -0.004753286484628916, -0.008495335467159748, -0.0029304034542292356, 0.0007820689934305847, -0.0012393955839797854, -0.002169005572795868, -0.0025178042706102133, 0.008347246795892715, 0.0007012463756836951, 0.00240670470520854, -0.00208067474886775, 0.002040804596617818, -0.0023621441796422005, -0.002309458563104272, -0.00693940045312047, -0.001075630309060216, -0.0019999316427856684, 0.00309307430870831, 0.002155338181182742, 0.0028086183592677116, 0.0027140211313962936, 0.0029427886474877596, 0.016192300245165825, 0.002320358296856284, -0.0017035910859704018, -0.0019336654804646969, -0.0011971915373578668, 0.0026210309006273746, -0.0023793401196599007, -0.008701089769601822, -0.0009309732704423368, 0.0028083953075110912, 0.009429948404431343, 0.0020474237389862537, -0.006191242951899767, 0.0013743829913437366, -0.00026414869353175163, 0.002297724597156048, 0.00454295938834548, 0.0028961526695638895, -0.003323810873553157, 0.0020623519085347652, -0.0026120119728147984, 0.0008936729282140732, -0.002325361827388406, -0.010762817226350307, -0.002961911028251052, 0.006307711824774742, -0.0026894528418779373, 0.0010142391547560692, -0.004877621307969093, 0.00701132882386446, -0.007065456360578537, 0.0004336301644798368, -0.007788241375237703, 0.0018341648392379284, -0.0030155435670167208, 0.007833106443285942, -0.0036966362968087196, -0.0010726911714300513, -0.002780408365651965, 0.0005318688345141709, 0.006043326109647751, -0.002217605710029602, -0.0028321112040430307, 0.0018365284195169806, 0.0010746275074779987, -0.004014245234429836, -0.0024387522134929895, 0.002514948369935155, 0.0022764436434954405, 0.0025659045204520226, -0.003039618721231818, 0.0037894786801189184, -0.002762208692729473, 0.012074415571987629, 0.0007010741392150521, -0.0025261538103222847, -0.00012390670599415898, -0.010541445575654507, -0.002360446145758033, 0.002498205052688718, -0.0010546151315793395, -0.0015223575755953789, -0.002812958788126707, 0.0023715479765087366, -0.005759598221629858, 0.002842014655470848, -0.002216193825006485, 0.00277808029204607, -0.002606844063848257, 0.0029756061267107725, 0.0016615422209724784, 0.0013075991300866008, -0.0020827921107411385, 0.013513695448637009, 0.005575215443968773, -0.003705966053530574, -0.003000999102368951, -0.009907140396535397, -0.0027808314189314842, 0.00351104442961514, -0.001215012394823134, 0.007591762579977512, -0.002890121890231967, 0.0059195649810135365, -0.0007980886148288846, 0.006646724883466959, -0.005113054532557726, 0.0027133768890053034, 0.009436561726033688, 0.00044545522541739047, 0.015521116554737091, 0.0014693333068862557, -0.006876697763800621, 0.004460312891751528, -0.013333957642316818, 0.003048219485208392, -0.0006515426211990416, 0.0025920753832906485, -0.0030838078819215298, -0.00405456405133009, -0.0038136669900268316, 0.008100228384137154, -0.00047381309559568763, 0.0017406491097062826, 0.003880862146615982], [-0.0033527251798659563, -3.648188794613816e-05, -0.0005030341562815011, -0.0038889695424586535, 0.003549715271219611, -3.4984186640940607e-05, -0.0001729108189465478, -0.004726896993815899, 0.0025446759536862373, 0.003301883116364479, 0.0037052668631076813, -0.00024871857021935284, 0.0015498290304094553, -0.003260713303461671, -0.001862807897850871, -0.005018295720219612, -0.0020367398392409086, -0.0011615570401772857, 0.003079920308664441, 3.104030838585459e-05, 0.001725823269225657, 0.006448511499911547, 0.000821435998659581, 0.007241136860102415, 0.00035296811256557703, -0.0018227770924568176, -0.004459200892597437, -0.0017313722055405378, 0.001438688370399177, -0.0015375477960333228, -0.005391271784901619, -0.002717083552852273, 0.0012311937753111124, 0.0057214912958443165, 0.0018090797821059823, -0.002093371469527483, 0.0011273891432210803, -0.0005846021813340485, 0.0029622165020555258, 0.007730711251497269, 0.0046755592338740826, -0.001483133528381586, 0.0027488924097269773, -0.002750862156972289, 0.0020163138397037983, -0.007998643442988396, -0.00021389892208389938, -0.0018395850202068686, 0.0002780383510980755, -0.0034410450607538223, 0.0005836199270561337, -0.000700816628523171, 0.0024331684689968824, -0.0034185016993433237, 0.0011190728982910514, -0.0014488128945231438, 0.004618356470018625, -0.0004982079262845218, 0.0018369059544056654, -0.004360253922641277, -0.001585951540619135, -0.0004205118166282773, 0.006583944894373417, 0.0020816605538129807, -0.000918524747248739, -0.0043499656021595, 0.002570301527157426, 0.0009078478906303644, -0.0032127052545547485, -0.005710648838430643, 0.000925999425817281, 0.0013104701647534966, 0.0015698494389653206, -0.0032527241855859756, 0.004041428677737713, -0.002078460296615958, 0.0014435573248192668, 5.55366714252159e-05, -0.008716248907148838, -0.00019340561993885785, -0.006162350997328758, -0.0014552688226103783, 0.0016603939002379775, -0.00145066122058779, -0.00043926184298470616, -0.0033295468892902136, 0.0020023025572299957, -7.240510603878647e-05, 0.0043764663860201836, -0.0036142964381724596, 0.003697630949318409, -0.0020759617909789085, 0.004783950746059418, 0.0011551582720130682, 0.0037947953678667545, -0.0007121317903511226, 0.00011501379776746035, 0.003509479807689786, -0.0025316872633993626, -0.0013267104513943195, -0.0025881147012114525, -0.0008790676365606487, 0.0007535989279858768, -0.0003849822678603232, 0.005556931719183922, -0.006074610166251659, 9.873057570075616e-05, -0.0017452198080718517, 0.0048354933969676495, -0.0019752036314457655, 0.0001603470736881718, 0.0038502737879753113, 0.0033444350119680166, 0.0013654489303007722, 0.0010710889473557472, -0.0031596142798662186, 0.006807818077504635, -0.003575968323275447, 0.005483000073581934, -0.0002360103535465896, 0.007046942133456469, -0.00207280064933002, -0.002334296004846692, -0.0036811809986829758, 0.002271652454510331, -0.0009552163537591696, 0.004235499072819948, 0.003401965368539095], [-0.017963813617825508, -0.0021076968405395746, -0.002740219933912158, -0.02029542811214924, 0.003127678297460079, -0.011246581561863422, -0.0036468433681875467, -0.020329415798187256, 0.005129303317517042, 0.0008719301549717784, 0.018691999837756157, -0.0024207138922065496, 0.0024646816309541464, -0.003732054028660059, -0.017221158370375633, -0.0027098890859633684, -0.001753040007315576, -0.020383084192872047, 0.004513076972216368, 0.0044832234270870686, 0.005521176848560572, 0.0026555443182587624, 0.020953930914402008, 0.026120200753211975, 0.0028720409609377384, -0.008069765754044056, -0.0007600334356538951, -0.003104357747361064, 0.017991358414292336, -0.004183731973171234, -0.002291271695867181, -0.002849028678610921, 0.0010208251187577844, 0.002053491771221161, 0.013304129242897034, -0.00473436014726758, 0.010900813154876232, -0.012887122109532356, 0.0009522205218672752, 0.019560914486646652, 0.021260937675833702, -0.006391008850187063, 0.013795487582683563, -0.016355864703655243, 0.003389431396499276, -0.0037351816426962614, -0.01571880839765072, -0.001238291384652257, 0.009360745549201965, -0.000974136171862483, 0.0016479057958349586, -0.003318988950923085, 0.0020285104401409626, -0.009318810887634754, 0.0006679990910924971, -0.0024604632053524256, 0.0029036435298621655, -0.019923411309719086, 0.0026583352591842413, -0.002213868545368314, -0.0034743158612400293, -0.0009077086579054594, 0.001319653121754527, 0.002888001035898924, -0.002891883719712496, -0.0011902677360922098, 0.00243915687315166, 0.0015603586798533797, -0.01668756641447544, -0.01729567162692547, 0.004032967612147331, 0.0011023373808711767, 0.0038596754893660545, -0.0009471529629081488, 0.0016306560719385743, -0.01816985197365284, 0.003366468008607626, 0.0021709243301302195, -0.0024216421879827976, -0.0016635095234960318, -0.02469191513955593, -0.002672586590051651, 0.0023708574008196592, -0.0031900834292173386, -0.0023574093356728554, -0.0020440660882741213, 0.002518046647310257, -0.002618292346596718, 0.015390616841614246, -0.0022942619398236275, 0.003362073330208659, -0.01954961195588112, 0.001804268453270197, 0.0025528855621814728, 0.0019273896468803287, -0.00428511667996645, 0.020941313356161118, 0.015050250105559826, -0.015247435308992863, -0.003476290265098214, -0.017409417778253555, -0.004680909216403961, 0.006887402385473251, -0.009544102475047112, 0.01294365618377924, -0.0004949416033923626, 0.018164006993174553, -0.002431197790428996, 0.014595484361052513, -0.02006012573838234, 0.0029931010212749243, 0.0007522767991758883, 0.0006688778521493077, 0.0011164164170622826, 0.0017344133229926229, -0.002229758072644472, 0.02304007112979889, -0.0029668461065739393, 0.003981002606451511, -0.01738773286342621, 0.012358713895082474, -0.002443983219563961, -0.022751912474632263, -0.011155295185744762, 0.0030037350952625275, -0.0020353621803224087, 0.0019217788940295577, 0.0009433036902919412], [-0.007354222238063812, -0.010874197818338871, -0.005766806658357382, -0.009677489288151264, 0.008655816316604614, -0.0006352781201712787, -0.0016338269924744964, -0.003948503639549017, 0.0031819979194551706, 0.0039827702566981316, 0.0018397788517177105, -0.004130465444177389, 0.011011386290192604, -0.005603387951850891, -0.00082121737068519, -0.0055152419954538345, -6.493941327789798e-05, -0.0037324957083910704, 0.011810315772891045, 0.0070418426766991615, 0.007165927905589342, 0.008336104452610016, 0.001797746168449521, 0.008262820541858673, 0.0005192793905735016, -0.0027978522703051567, -0.0022475868463516235, -0.010225554928183556, 0.002881519263610244, -0.0028217497747391462, -0.008297615684568882, -0.004769457038491964, 0.002448717365041375, 0.009505092166364193, 0.00348323374055326, -0.003494872245937586, 0.006368411239236593, -0.00044214370427653193, 0.013215761631727219, 0.006288983393460512, 0.0032216813415288925, -0.01149184349924326, 0.0001828622043831274, -0.0053391968831419945, 0.002909313654527068, -0.0033417462836951017, -0.0012514573754742742, -0.01320653036236763, 0.0020260626915842295, -0.002845090813934803, 0.00040149615961126983, -0.014877735637128353, 0.0017731275875121355, -0.005301558878272772, 0.0008598758140578866, -0.0060605513863265514, 0.009570811875164509, -0.010099072940647602, 0.005652895197272301, -0.012421883642673492, -0.009857317432761192, -0.009158624336123466, 0.0013315662508830428, 0.004114596638828516, -0.009886945597827435, -0.014416955411434174, 0.0036856653168797493, 0.0005704255891032517, -0.0007657892419956625, -0.0009629018022678792, 0.01154810655862093, 0.008642693050205708, 0.004743811208754778, -0.010200876742601395, 0.0019529771525412798, -0.0042380983941257, 0.0037282754201442003, 0.001303797122091055, -0.014650306664407253, -0.0062433574348688126, -0.0071599301882088184, -0.0029115870129317045, 0.004670346155762672, -0.006385973654687405, -0.0006332868942990899, -0.008437247015535831, 0.007917361333966255, -0.0023608331102877855, 0.004340565763413906, -0.008278340101242065, 0.0024049924686551094, -0.004302788060158491, 0.0023600165732204914, 0.0051233950071036816, 0.0050927503034472466, -0.01247093454003334, 0.00827237218618393, 0.004316962324082851, -0.0064436038956046104, -0.003431824967265129, -0.004372974392026663, -0.007754371967166662, 0.005714702885597944, -0.0035162228159606457, 0.006216974928975105, -0.005161511246114969, 0.0030371001921594143, -0.004914513323456049, 0.00040764748700894415, -0.0012738367076963186, 0.012850910425186157, 0.002104563172906637, 0.0012782649137079716, 0.007963834330439568, 0.001418356318026781, -0.0062057278119027615, 0.0024793462362140417, -0.00422626081854105, 0.010649068281054497, -0.0031720646657049656, 0.0064052436500787735, -0.006902294233441353, -0.004924595355987549, -0.0034797678235918283, 0.002346527297049761, -0.002058207057416439, 0.007153706159442663, 0.012082740664482117], [0.00298674451187253, 0.0009139707544818521, 0.0010219895048066974, 0.002841460518538952, -0.0027641220949590206, 0.0021742484532296658, 0.0022012153640389442, 0.0006052829558029771, -0.0004685549356509, -0.004460296127945185, -0.00015940061712171882, 0.000838017906062305, -0.0001528729626443237, 0.0024819353129714727, 0.0009083783370442688, 0.0016577179776504636, 0.001250709407031536, 0.00013138818030711263, -0.0017172981752082705, -0.001717860228382051, -0.0034033642150461674, -0.0015834985533729196, -0.0006605221424251795, -0.006950845010578632, -0.0017624516040086746, 0.0031556240282952785, 0.0025768873747438192, 0.004879471845924854, -0.0032638953998684883, 0.0018836639355868101, 0.000246591807808727, 0.0008059536921791732, -0.0013308387715369463, -0.0002868064329959452, -0.004923655651509762, 0.004955910611897707, -0.00044387957314029336, 0.000316393532557413, -0.0006558697787113488, -0.00010207019658992067, -0.005058137234300375, 0.00025967840338125825, -0.001073205377906561, 0.003542936174198985, -0.001536451862193644, 0.0001378912420477718, 0.0005656247958540916, 0.0011864244006574154, -0.00016228167805820704, 0.0005219187587499619, -0.0016668986063450575, 0.00028417777502909303, -0.0029474312905222178, 0.0003772074414882809, -0.0039998325519263744, 0.0028720316477119923, -0.0033044067677110434, 0.0011934854555875063, -0.001538001000881195, 0.0011269372189417481, 0.0017425778787583113, 0.0060318149626255035, -0.005006620194762945, -0.0031227983999997377, 0.0016452595591545105, 0.003002030774950981, -0.0023930163588374853, -0.0001526663254480809, 0.0015779478708282113, 0.0021679862402379513, -0.003606098471209407, -0.005983889568597078, -0.004792989697307348, 0.0013273984659463167, -0.002873484743759036, 0.0027663938235491514, -0.00394810363650322, -0.004076153505593538, 0.001148536684922874, 0.0045795259065926075, 0.004741376265883446, 0.0026131728664040565, -0.0003169916744809598, 0.001014248002320528, 0.0023807648103684187, 3.629802449722774e-05, -0.003472090233117342, 0.0014795177849009633, -0.002188069513067603, 0.00033210383844561875, -0.0024873632937669754, 0.0019119445933029056, -0.0007124812691472471, -0.001267970073968172, -0.00198733014985919, 0.0005142678273841739, -0.006959192454814911, -0.0038583457935601473, 0.005874268244951963, 0.0008028874872252345, 0.0003950927348341793, 0.0017054397612810135, -0.002855870872735977, 0.000720987212844193, -0.003765834029763937, 0.0005017513758502901, -0.0026274286210536957, 0.0029068919830024242, -0.0027333530597388744, 0.0039036720991134644, -0.002147296443581581, -0.0034779116977006197, -0.0008240593015216291, -0.0017840983346104622, -0.0004653724899981171, 0.00010645940346876159, -0.002162717282772064, 0.0032444566022604704, -3.431887671467848e-05, 0.00117415317799896, -0.0026506695430725813, 0.0044274707324802876, 0.0007158016669563949, 0.0017947726882994175, -0.002351275412365794, 0.0016304062446579337, -0.0009110278333537281, -0.001120302826166153], [-0.0012097335420548916, -0.0010909063275903463, -4.302670276956633e-05, -0.006208331789821386, 0.002887731185182929, -0.0037549093831330538, -0.003814693773165345, -0.0016911453567445278, 0.0016223749844357371, 0.0028520594350993633, 0.0034958438482135534, -0.0015101592289283872, 0.0032909384462982416, -0.005524049513041973, -0.0015251090517267585, -0.0016057746252045035, -0.0005656854482367635, -0.0006744576967321336, 0.0026120475959032774, 0.0006140870973467827, 0.001343120587989688, 0.002575561637058854, 0.00337254349142313, 0.0019211109029129148, 0.0016635882202535868, -0.00035267366911284626, -0.006178065203130245, -0.0019760443828999996, 0.003827793523669243, -0.0009612725698389113, -0.002669457346200943, -0.0019202028634026647, 0.0029285582713782787, 0.0018402509158477187, 5.971189239062369e-05, -0.002497892128303647, 0.0013426445657387376, -0.0016621971735730767, 0.0073338840156793594, 0.0019257140811532736, 0.001055192551575601, -0.002503784606233239, 0.0025336695834994316, -0.005344467703253031, 0.004648738540709019, -0.0020696416031569242, -0.00021803421259392053, -0.0003742149565368891, 0.0027183671481907368, -0.0041495431214571, 0.0008233694825321436, -0.005366746801882982, 0.0015195892192423344, -0.004301965702325106, 0.00043469498632475734, -0.0013930037384852767, 0.0006160156917758286, -0.001344843185506761, 0.0031817667186260223, -0.00037735517253167927, -0.0033043657895177603, -0.0015591897536069155, 0.001200128230266273, 0.0002058807440334931, -0.0026181198190897703, -0.0013032116694375873, 0.0015036360127851367, 0.0025813933461904526, -0.0009904492180794477, -0.002606204943731427, 0.0006688951980322599, 0.0014854960609227419, 0.0012689247960224748, -0.002520157489925623, 0.00259531126357615, -0.0009297209326177835, 0.0027160353492945433, 0.0010662528220564127, -0.004046447575092316, -0.0009668851271271706, -0.0013241344131529331, -0.0011802463559433818, 0.0003894967376254499, -0.0007686374592594802, -0.000609208014793694, -0.0033112098462879658, 0.0007280617719516158, -1.482803600083571e-05, 0.0007801895262673497, -0.0028840552549809217, 3.649733116617426e-05, -0.004464327357709408, 0.005056743044406176, 2.5960811399272643e-05, 0.004310010001063347, -0.008117228746414185, 0.0009262796374969184, 0.002272628014907241, -0.0029710959643125534, -0.002460428513586521, -0.0006469782092608511, -0.003477959195151925, 0.003077336121350527, -0.0009394431835971773, 0.003944383002817631, -0.003916722256690264, 0.0007817945443093777, -0.0009216614416800439, 0.006102860439568758, -0.0006765798316337168, 0.0010937359184026718, 0.003950555808842182, 0.0010034851729869843, 0.0005005674320273101, 0.0017016783822327852, -0.0004096067859791219, 0.005209628958255053, -0.005791309289634228, 0.003028537379577756, -0.0050052739679813385, 0.0023829820565879345, -0.0022442068438977003, -0.002516597742214799, -0.004228262230753899, 0.002083269413560629, -0.0013006879016757011, 0.001425612485036254, 0.0007115912158042192], [-0.0030353113543242216, -0.0012669474817812443, -0.0009287897846661508, -0.0007864368963055313, 0.0033304619137197733, -0.003785609733313322, -0.0006823149160481989, -0.003287456464022398, 0.001218186691403389, 0.0015637902542948723, 0.0023800076451152563, -0.0016894860891625285, 0.0006439737626351416, -0.0008146448526531458, -0.005205729976296425, -0.00033517065457999706, -0.0012074513360857964, -0.0029621736612170935, 0.003139785723760724, 0.00040930917020887136, 0.0037017161957919598, 0.00029043786344118416, 8.687653462402523e-05, 0.0006413827650249004, 0.0006050286465324461, -0.00046411401126533747, -0.002650856738910079, -0.00369706260971725, 0.0014312956482172012, -0.001880057854577899, -0.0005212992546148598, -0.00419161980971694, 0.00045342108933255076, 0.0002861717657651752, 0.0011916387593373656, -0.0019607744179666042, 0.0009135079453699291, -0.0005717147141695023, 0.0011704894714057446, 0.0020145184826105833, 0.0008261961629614234, -0.0015233951853588223, 0.0025423967745155096, -7.183969864854589e-05, 0.00026281794998794794, -0.00010287047189194709, -0.002576082246378064, -0.0007716144318692386, 0.001036792527884245, -0.0014696874422952533, 0.0003922550240531564, -0.005807218141853809, 0.0010515352478250861, -0.0014733700081706047, 0.00048675513244234025, -0.0007115406915545464, 0.0004578566877171397, -0.0020070753525942564, 0.0006003165035508573, -0.001866794191300869, -0.003438740037381649, -0.002202833304181695, 0.002089751185849309, 0.002560199936851859, -0.0014542893040925264, -0.006437022238969803, 0.0019358980935066938, 0.00025844137417152524, -0.0007918272749520838, -0.0005264514475129545, 0.0016687618335708976, 0.0002482447889633477, 0.0011954719666391611, -0.0006871391669847071, 0.002143111079931259, -0.0005143429152667522, 0.003791665891185403, 0.00010359257430536672, -0.0012314999476075172, -0.0002989085915032774, -0.0037554434966295958, -0.00036268317489884794, 0.004174442496150732, -0.0022230991162359715, -0.004755082540214062, -0.0036450878251343966, 0.001448984257876873, -0.0033686738461256027, 0.00017251349345315248, -0.0045386566780507565, 0.004790945909917355, -0.0002912619092967361, 0.0009443400194868445, 0.0013209367170929909, 0.0013513375306501985, -0.0010271851206198335, 0.0020899290684610605, 0.0007863700739108026, -0.0008066768059507012, -0.001691846176981926, -0.002962439088150859, -0.003607724094763398, 0.0009612587164156139, -0.004399043042212725, 0.0032185621093958616, -0.004359826445579529, 0.0007596633513458073, -0.0010698945261538029, 0.0026458390057086945, -0.0027525448240339756, 0.002923734253272414, 0.000837742118164897, 0.001097179832868278, 0.0006513643311336637, 0.0013737992849200964, -0.00527701061218977, 0.0015220051864162087, -0.0007527523557655513, 0.00436873733997345, -0.0021834319923073053, 0.0023063081316649914, -0.0033811379689723253, -0.00028026330983266234, -8.158671698765829e-05, 0.0006665743421763182, -0.006454593501985073, 0.0015359297394752502, 0.001965816132724285], [0.014828712679445744, 0.007389665115624666, 0.04586175084114075, 0.00546749122440815, -0.0022988058626651764, 0.002715837908908725, 0.004815377295017242, 0.005004992242902517, -0.008470702916383743, -0.004639004357159138, -0.07957911491394043, 0.008804181590676308, -0.002595559461042285, 0.0024868622422218323, 0.005101276095956564, 0.0297243669629097, 0.00431118905544281, 0.004983850289136171, -0.0048282817006111145, -0.0026627695187926292, -0.0048888190649449825, -0.0056152199395000935, -0.07995012402534485, -0.006478594150394201, -0.09651725739240646, 0.09108055382966995, 0.008875439874827862, 0.006222824100404978, -0.013944033533334732, 0.005315730348229408, 0.008188808336853981, 0.005420544184744358, -0.007464627269655466, -0.007049253210425377, -0.004755494184792042, 0.005647469777613878, -0.06678026914596558, 0.006079602986574173, -0.0038888915441930294, -0.013847350142896175, -0.006154459435492754, 0.005597835406661034, -0.08858180791139603, 0.0076293982565402985, -0.00591154582798481, 0.024711329489946365, 0.08594219386577606, 0.008255952969193459, -0.040773630142211914, 0.006878547370433807, -0.05817805230617523, 0.002666085259988904, -0.020132340490818024, 0.06705095618963242, -0.0049383495934307575, 0.014293499290943146, -0.0025165604893118143, 0.05068419873714447, -0.014619894325733185, 0.01497967541217804, 0.00376537605188787, 0.004940957762300968, -0.012270851992070675, -0.05313848704099655, 0.002388428198173642, 0.005300445947796106, -0.0027076243422925472, -0.05494663119316101, 0.07484947144985199, 0.08378571271896362, -0.0034785012248903513, -0.00979931466281414, -0.003011933993548155, 0.01370827853679657, -0.04243772104382515, 0.005843710154294968, -0.014919632114470005, -0.004692727699875832, 0.009056738577783108, 0.01491059921681881, 0.028049282729625702, 0.045022960752248764, -0.005911640822887421, 0.0049086203798651695, 0.005961484741419554, 0.0048534926027059555, -0.0024930043146014214, 0.016473237425088882, -0.0058861528523266315, 0.002580628264695406, -0.003014450194314122, 0.00690489262342453, -0.007568810600787401, -0.016315221786499023, -0.004673671443015337, 0.006884787231683731, -0.0313420370221138, -0.005847131833434105, 0.03207317739725113, 0.015570093877613544, 0.04257425665855408, 0.004623412620276213, -0.010790582746267319, 0.06411635875701904, -0.012959595769643784, 0.0072455741465091705, -0.014691369608044624, 0.004577751737087965, -0.04515151306986809, 0.009814368560910225, -0.005995203275233507, -0.07255381345748901, -0.04666098579764366, -0.0731869637966156, -0.006635716650635004, 0.08376576751470566, -0.062495701014995575, 0.010315597988665104, -0.020204972475767136, 0.08119776099920273, -0.004172447137534618, 0.00272444449365139, 0.08116224408149719, 0.0032680188305675983, -0.07705732434988022, 0.012980079278349876, -0.005705644376575947, -0.004668039735406637], [0.0014560280833393335, 0.005335583817213774, 0.0063219740986824036, 0.004770786501467228, -0.0005578898708336055, 0.0015987303340807557, 0.0070117502473294735, 0.0011233125114813447, -0.0013153874315321445, -0.0002585886977612972, -0.007173543330281973, 0.007287143729627132, -0.0027101924642920494, 0.003134940518066287, 0.003523036604747176, 0.006275320891290903, 0.0005276342271827161, 0.0006104412022978067, -0.0021236175671219826, -0.0008282735361717641, -0.0013571068411692977, -0.00011357633775332943, -0.003297672141343355, -0.0017263792688027024, -0.004685959778726101, 0.003942310344427824, 0.0020757357124239206, 0.0006501572206616402, -0.002606042427942157, 0.0017251871759071946, 0.003133981954306364, 0.007603767327964306, -0.006994336377829313, -0.003769594244658947, -0.002330009825527668, 0.0015183957293629646, -0.003270937828347087, 0.002768619917333126, -0.004441985860466957, -0.0022925809025764465, -0.0021699215285480022, 0.0015848090406507254, -0.0050491043366491795, 0.0037463626358658075, -0.0021220226772129536, 0.002335223602131009, 0.0009466993506066501, 0.0012785594444721937, -0.0003279611992184073, 0.006288629956543446, -0.0002719298645388335, 0.001543500809930265, -0.0028140631038695574, 3.469270814093761e-05, -0.0005620080628432333, 0.0024579379241913557, -0.002644139342010021, 0.0025283193681389093, -0.0014087180607020855, 0.0020967074669897556, 0.00830063782632351, 0.0038386567030102015, -0.0005524857551790774, -0.00046305538853630424, 0.0036931918002665043, 0.0008725341758690774, -0.0015537759754806757, -0.00023271582904271781, 0.0040793209336698055, 0.00777549808844924, -0.0002306066598976031, -0.0022750739008188248, -0.006616280414164066, 0.0018279337091371417, -0.005166729912161827, 0.007080975919961929, -0.006650492083281279, -0.0037781253922730684, 0.006278853863477707, 0.0008773882291279733, 0.004523651208728552, 0.0010465973755344748, -0.0010449078399688005, 0.002016279147937894, 0.001437010825611651, 0.0017275382997468114, -0.005130806937813759, 0.004020097199827433, -0.003855403745546937, 0.0054594106040894985, -0.002737898612394929, 0.0030168199446052313, -0.0018971076933667064, -0.002683245576918125, -0.0029077522922307253, 0.005047581624239683, -0.001447465387172997, -0.0008680714527145028, 0.006092580035328865, 0.0008718481985852122, 0.004573270678520203, 0.00024367973674088717, -0.0025579738430678844, 0.003547230502590537, -0.0018305940320715308, 0.007076430134475231, -0.0014502668054774404, 0.0027519077993929386, -0.004812229424715042, 0.002632904564961791, -0.006647217553108931, -0.0011917725205421448, -0.004022305365651846, -0.004712030291557312, -0.0022409548982977867, 0.0037795391399413347, -0.002396051771938801, 0.0024909921921789646, -0.002155875088647008, 0.0024028958287090063, -0.002352789044380188, 0.0021056956611573696, 0.00669844588264823, 0.00027466772007755935, -0.0013092090375721455, 0.0034319416154175997, -0.003945516888052225, -0.003016837639734149], [-0.0005208845250308514, -0.0007908580009825528, -0.0006284581031650305, -0.00118900160305202, 0.00105383584741503, -0.0011663021286949515, -0.001858141040429473, -0.0014659530716016889, 0.002059583319351077, 0.001870464999228716, 0.0008601523586548865, -0.0027820845134556293, 0.00011327964602969587, -0.0014236527495086193, -0.0009074852569028735, -0.0014524090802296996, -0.00027277771732769907, -0.0003865868493448943, 0.0006264306721277535, 2.0509947717073373e-05, 0.0008687168592587113, 0.0010506713297218084, 2.8497410312411375e-05, 0.00012663897359743714, 0.0020859527867287397, -0.00013750007201451808, -0.0028330790810287, -0.004780514165759087, 6.377767567755654e-05, -0.0006758695235475898, -0.00016868242528289557, -0.0019197540823370218, 0.0016548922285437584, 0.0006181375356391072, 0.00036712735891342163, -0.0009580545593053102, 0.0013834170531481504, -0.0008836708148010075, 0.001189901027828455, 1.4360394970935886e-06, 0.002853692974895239, -0.0021668931003659964, 0.0019918642938137054, -0.0024586552754044533, 0.0011483394773676991, -0.0002992932859342545, -0.001549182110466063, -0.0002494209911674261, 0.00019637787772808224, -0.0025746470782905817, 0.0013790057273581624, -0.0012477203272283077, 0.0010675094090402126, -0.0014114856021478772, 0.0003333165659569204, -0.0017248507356271148, 0.0017570845084264874, -0.0034923870116472244, 0.0004357210418675095, -0.0021154494024813175, -3.159541302011348e-05, -0.0003513736592140049, 0.00035037618363276124, 0.0006808480829931796, -0.006553607992827892, -0.001650297432206571, 0.001547197811305523, 0.002075435593724251, -0.0003704084374476224, -0.0009146533557213843, 0.001388317090459168, 0.002271183067932725, 0.0006947832880541682, -9.669865539763123e-05, 0.0008984400192275643, -0.0010567650897428393, 0.001497431192547083, 0.0006958665326237679, -0.0017885435372591019, -0.0003169216215610504, -0.0010182298719882965, -0.0034561201464384794, 0.00027532418607734144, -0.0018728465074673295, -0.0011337617179378867, -0.004436092916876078, 0.0008216942078433931, -0.000904381216969341, 0.0002276737504871562, -0.001869143103249371, 0.0014170585200190544, -0.001193332253023982, 0.000772638653870672, 0.0008834780310280621, 0.0003356839588377625, -0.0012325303396210074, 0.0013790552038699389, 0.00048097988474182785, -0.0006001529400236905, -0.0019890875555574894, -0.001452854136005044, -0.003044608049094677, 0.0006730282912030816, -0.0007711136131547391, 0.0007616549846716225, -0.0001843423378886655, 0.00018561723118182272, -0.0012540147872641683, 0.00261540524661541, -0.0023265043273568153, 0.0003348071768414229, 0.002858230145648122, 0.0017104169819504023, 0.0003780077677220106, 0.0002233018312836066, -0.0007990426965989172, 0.0004554360930342227, -0.0007280164863914251, 0.0012231235159561038, -0.0010374212870374322, 0.0026184015441685915, -0.0030638088937848806, -0.002384323626756668, -0.00036745032412, 2.6745019567897543e-05, -0.0011375963222235441, 0.0031041386537253857, 4.720034485217184e-05], [-0.0030681102070957422, -0.0012403203872963786, -0.005253584124147892, -0.0019204107811674476, 0.0011645167833194137, -0.0013605604181066155, -0.0018850009655579925, -0.0013982636155560613, 0.003023687982931733, 0.00015987356891855597, 0.004754630383104086, -0.0009952522814273834, 0.0008881045505404472, -0.0055574639700353146, -0.001960302935913205, -0.000619542202912271, -0.0042237211018800735, -0.003874940099194646, 0.00375374942086637, 0.0024331766180694103, 0.0007603004924021661, 0.002250649267807603, 0.004393809009343386, 0.003327538026496768, 0.006209422834217548, -0.0011677006259560585, -0.006583976559340954, -0.0016971087316051126, 0.004713845904916525, -0.005515196360647678, -0.0017474927008152008, -0.0017567214090377092, 0.00563125591725111, 3.624939199653454e-05, 0.004562429618090391, -0.0006113289855420589, 0.0007137968204915524, -0.0037519310135394335, 0.0006707130814902484, 0.004959121812134981, 0.003646699944511056, -0.0016438866732642055, 0.003539503086358309, -0.0017430242151021957, 0.0006810100167058408, -0.0036784205585718155, -0.004248111043125391, -0.0018542459001764655, 0.0001442711363779381, -0.0020230270456522703, 0.002760041505098343, -0.00607470003888011, 0.0011138570262119174, -0.0029925170820206404, 0.0016829677624627948, -0.002348293550312519, 0.0011407885467633605, -0.002313911449164152, 0.0001633413485251367, -0.002642800332978368, -0.001819731667637825, -0.00073224090738222, 0.00407400680705905, 0.0066841463558375835, -0.0029869014397263527, -0.004169864114373922, 0.0019539352506399155, 0.004365821368992329, -0.001417902996763587, -0.006308551877737045, 0.002105874242261052, 0.003574529429897666, 0.001697814674116671, -0.0008978657424449921, 0.002721225144341588, -0.007765080779790878, 0.0015641002682968974, 0.00030379064264707267, -0.0029546108562499285, -0.0029374482110142708, -0.0006759234238415956, -0.0011614843970164657, 0.006763683166354895, -0.005333131179213524, -0.0029003890231251717, -0.0009119437891058624, 0.0017307758098468184, -0.001897179987281561, 0.004436455201357603, -0.006136248353868723, 0.0015730899758636951, -0.004054272547364235, 0.004897221457213163, 0.0020792607683688402, 0.0008673801785334945, -0.0026732056867331266, 0.006277518346905708, 0.0013611174654215574, -0.0015657979529350996, -0.0036016935482621193, -0.003052562940865755, -0.0032437031622976065, 0.0027783531695604324, -0.0030580642633140087, 0.002183228498324752, -0.00061073835240677, 0.005240552127361298, -0.00010667784954421222, 0.000648453482426703, -0.0029754466377198696, 0.00026207725750282407, 0.00010232562635792419, 0.0032926162239164114, 0.0013266149908304214, 0.00039481878047809005, -0.0041420492343604565, 0.0023434977047145367, -0.0055111730471253395, 0.0015698595670983195, -0.005861721932888031, 0.005126896779984236, -0.007968779653310776, -0.0011913793860003352, -0.0020852491725236177, 0.0012465625768527389, -0.004211506340652704, 0.002674777526408434, 0.0012285324046388268], [0.007807976100593805, 0.0009290685993619263, 0.00017910335736814886, 0.0006995944422669709, -0.005371725186705589, 0.0052650002762675285, 0.0019910766277462244, 0.006185130216181278, -0.0043051280081272125, -6.791695341235027e-05, -0.005531322211027145, 0.0027829536702483892, -0.002432631328701973, 0.0019933206494897604, 0.005902247503399849, 0.005275421775877476, 0.0015447905752807856, 0.006228577345609665, -0.008644746616482735, -0.0028720709960907698, -0.00434584217146039, -0.0015487520722672343, -0.0003251688031014055, -0.0012057233834639192, -0.00022251397604122758, 0.0013251797063276172, 0.005995043553411961, 0.0006349625764414668, -0.0014474887866526842, 0.00677536753937602, 0.0018586720107123256, 0.0023711114190518856, -0.0010288843186572194, -0.0059140692465007305, -0.004091782029718161, 0.002349516376852989, -0.0013224808499217033, 0.0012185488594695926, -0.006555762141942978, -0.0016007270896807313, -0.0015628812834620476, 0.0007242327556014061, -0.006175451446324587, 0.0019636719953268766, -0.002739262068644166, 0.0019524218514561653, 0.006106947548687458, 0.0003466942871455103, -0.004182572476565838, 0.0025254657957702875, -3.7103825889062136e-05, 0.0014397022314369678, -0.00029994998476468027, 0.0006415346870198846, -4.2164549086010084e-05, 0.00181336619425565, -0.00024313991889357567, 0.0010606144787743688, -0.005687413737177849, 0.002675604308024049, 0.00399973476305604, 0.0004934066091664135, -0.002590144518762827, -0.0005249315872788429, 0.005536473821848631, 0.0014356534229591489, -0.0021895563695579767, -0.004553064238280058, 0.0040435343980789185, 0.0009529961971566081, -0.0009276376222260296, -0.003425808623433113, -0.0001339250593446195, 0.003008435247465968, -0.005585555452853441, 0.0001162983535323292, -0.0031207504216581583, -0.0003224707907065749, 0.00031545592355541885, 0.002401734935119748, 0.0021943587344139814, 0.0007738973363302648, -0.002708552638068795, 0.00038208626210689545, 0.002406809013336897, 0.0016375785926356912, -0.0021044770255684853, 0.0031232014298439026, -0.006049098912626505, 0.0016980512300506234, -0.0058515933342278, 0.0018157075392082334, -0.0004785042256116867, -0.004471642430871725, -0.002442773897200823, 0.0017957721138373017, -0.001103081158362329, -0.002616112818941474, 0.006341659929603338, 0.006844442803412676, 0.00023241683084052056, 0.0012685854453593493, -0.002285816241055727, 0.0003517016302794218, -0.005678453482687473, 0.007082837633788586, -3.480871600913815e-05, 0.005964404437690973, -0.0011492054909467697, 0.0029386496171355247, -0.0015080850571393967, -0.000465771765448153, -0.006006080191582441, -0.00750155933201313, -0.0033595862332731485, 0.0046587795950472355, -0.0032634118106216192, 0.004918055608868599, -0.0010018757311627269, 0.0005385408876463771, -0.0025635974016040564, 0.0024523031897842884, 0.0021228676196187735, 0.0020904194097965956, -0.001603790558874607, 0.005614935420453548, -0.0007419965695589781, -0.0013649646425619721], [-0.02191690169274807, -0.026241032406687737, -0.011582650244235992, -0.021014807745814323, 0.023117326200008392, -0.002491192426532507, -0.024298153817653656, -0.01741804927587509, 0.019357824698090553, 0.003545716404914856, 0.014982061460614204, -0.020335296168923378, 0.02881348878145218, -0.019741233438253403, -0.01398259587585926, -0.003777522826567292, -0.013321124017238617, -0.01563936471939087, 0.02487017586827278, 0.0032817660830914974, 0.020817676559090614, 0.0038974196650087833, 0.003496001474559307, 0.020362310111522675, 0.011789191514253616, -0.010179881006479263, -0.022556401789188385, -0.023714978247880936, 0.017263663932681084, -0.019811507314443588, -0.011086554266512394, -0.0031022147741168737, 0.022126909345388412, 0.02319072000682354, 0.017798716202378273, -0.01126085314899683, 0.009542614221572876, -0.011322529055178165, 0.028469402343034744, 0.02207770012319088, 0.018481245264410973, -0.02290070615708828, 0.013616245239973068, -0.025210827589035034, 0.004588135983794928, -0.025455333292484283, -0.015364615246653557, -0.018283866345882416, 0.00639942055568099, -0.0033845449797809124, 0.009409351274371147, -0.031748801469802856, 0.013201052322983742, -0.006235707085579634, 0.018768243491649628, -0.0027815268840640783, 0.019854214042425156, -0.020077230408787727, 0.00302812154404819, -0.027203788980841637, -0.028111254796385765, -0.023849794641137123, 0.01674807444214821, 0.0036067713517695665, -0.024554850533604622, -0.027617113664746284, 0.02060282789170742, 0.010941720567643642, -0.00803541112691164, -0.013070208951830864, 0.03107800893485546, 0.024854253977537155, 0.018145382404327393, -0.016114821657538414, 0.0009822228457778692, -0.01790599338710308, 0.0091800382360816, 0.007473314646631479, -0.032269831746816635, -0.014750517904758453, -0.008473925292491913, -0.0038318007718771696, 0.0030944938771426678, -0.003268824890255928, -0.016137490049004555, -0.004845681134611368, 0.023496929556131363, -0.0030847631860524416, 0.01466423086822033, -0.0033939271233975887, 0.020829979330301285, -0.022470159456133842, 0.021293694153428078, 0.003459518076851964, 0.022126950323581696, -0.02495582215487957, 0.005964912474155426, 0.01990746706724167, -0.005208594724535942, -0.01430793572217226, -0.017063474282622337, -0.021570034325122833, 0.009665981866419315, -0.011574744246900082, 0.0013515267055481672, -0.003320530988276005, 0.014553328044712543, -0.02178686112165451, 0.00760787446051836, -0.016297314316034317, 0.024576660245656967, 0.012985062785446644, 0.002965845400467515, 0.014574750326573849, 0.01292814128100872, -0.009231306612491608, 0.01605953834950924, -0.020987197756767273, 0.022204553708434105, -0.014848077669739723, 0.017443358898162842, -0.019355015829205513, -0.01716899685561657, -0.004113664850592613, 0.0033097558189183474, -0.0031420330051332712, 0.02362189069390297, 0.031163819134235382], [-0.008663006126880646, -0.019660936668515205, -0.006821457762271166, -0.01194347906857729, 0.018048789352178574, -0.0009842177387326956, -0.0026799633633345366, -0.009154578670859337, 0.0028639589436352253, 0.0033786490093916655, 0.004943592473864555, -0.011734996922314167, 0.003016104456037283, -0.003407433396205306, -0.0065857539884746075, -0.011034511029720306, -0.004195261746644974, -0.0027708003763109446, 0.019733387976884842, 0.013896792195737362, 0.016028238460421562, 0.017777808010578156, 0.007581953890621662, 0.017501814290881157, 0.00771157443523407, -0.0008121880819089711, -0.005072062835097313, -0.018260233104228973, 0.009764847345650196, -0.01208007987588644, -0.008007158525288105, -0.004197827074676752, 0.004777314141392708, 0.016302620992064476, 0.011705879122018814, -0.009819932281970978, 0.0010520423529669642, -0.004959121346473694, 0.02348601445555687, 0.015662631019949913, 0.0125129958614707, -0.010806628502905369, 0.006661821156740189, -0.0026954796630889177, 0.0179060660302639, -0.01762712001800537, -0.008455178700387478, -0.003789313370361924, 0.00909317098557949, -0.009093103930354118, 0.006859197746962309, -0.0255232322961092, 0.0018603522330522537, -0.0006379220867529511, 0.011002021841704845, -0.004379183053970337, 0.014349063858389854, -0.0032153213396668434, 0.0025196196511387825, -0.021108318120241165, -0.014341895468533039, -0.01776283234357834, 0.007982905022799969, 0.012145456857979298, -0.017480721697211266, -0.028222499415278435, 0.002393338130787015, 0.00021754995395895094, -0.009575867094099522, -0.0030111062806099653, 0.02458595484495163, 0.014928853139281273, 0.011823252774775028, -0.015660656616091728, 0.005410916171967983, -0.0028967494145035744, 0.015080226585268974, 0.017063239589333534, -0.02507556416094303, -0.003519534133374691, -0.017858710139989853, -0.0021688062697649, 0.016344929113984108, -0.017048824578523636, -0.0024856324307620525, -0.01710912585258484, 0.02021639049053192, -0.0025871943216770887, 0.012537547387182713, -0.017251288518309593, 0.01498962752521038, -0.015393045730888844, 0.014765806496143341, 0.007192229386419058, 0.01464848592877388, -0.02293131686747074, 0.0028899437747895718, 0.012412553653120995, -0.010371029376983643, -0.01032667513936758, -0.009950792416930199, -0.018468691036105156, 0.005992021411657333, -0.006258067674934864, 0.0036250404082238674, -0.010829179547727108, 0.00918065570294857, -0.0024570547975599766, 0.006599769927561283, -0.0048782965168356895, 0.024074336513876915, 0.009276746772229671, 0.0025043266359716654, 0.0033126098569482565, 0.0013057441683486104, -0.0012225649552419782, 0.012405426241457462, -0.01226973719894886, 0.0028403785545378923, -0.010353561490774155, 0.0028397096320986748, -0.010085162706673145, -0.012267956510186195, -0.018500640988349915, 0.0028267239686101675, -0.005663416814059019, 0.017792413011193275, 0.003487424226477742], [0.03458944708108902, 0.044085919857025146, 0.03240253031253815, 0.034262269735336304, -0.03628958389163017, 0.031868770718574524, 0.04280327633023262, 0.013380947522819042, -0.03413998335599899, -0.04011048004031181, -0.00794943142682314, 0.04330950975418091, -0.043150171637535095, 0.036827098578214645, 0.03049486316740513, 0.035745952278375626, 0.036859750747680664, 0.029112951830029488, -0.019182007759809494, -0.04261787235736847, -0.025464527308940887, -0.03872727230191231, -0.031960856169462204, -0.03517288342118263, -0.025548119097948074, 0.026958703994750977, 0.040291618555784225, 0.006499109324067831, -0.0324719212949276, 0.037536803632974625, 0.02381567284464836, 0.008227011188864708, -0.04033508896827698, -0.022486286237835884, -0.004798111040145159, 0.03639042004942894, -0.027484897524118423, 0.02563042752444744, -0.045471739023923874, -0.033867258578538895, -0.028100308030843735, 0.03882959857583046, -0.02878546342253685, 0.03939476236701012, -0.04002584517002106, 0.04047417268157005, 0.03295022249221802, 0.04602581262588501, -0.018031036481261253, 0.03628187254071236, -0.03151523694396019, 0.04732174053788185, -0.027861109003424644, 0.004031434655189514, -0.03705466166138649, 0.034950196743011475, -0.028134623542428017, 0.0043678488582372665, -0.02739083580672741, 0.0448048934340477, 0.04486418515443802, 0.04285478964447975, -0.018636981025338173, -0.034226857125759125, 0.04325869306921959, 0.04844408109784126, -0.03656088560819626, -0.004627035465091467, 0.0022426871582865715, 0.0063432734459638596, -0.049423232674598694, -0.036778487265110016, -0.01626327633857727, 0.0353754498064518, -0.026113586500287056, 0.028635174036026, -0.03580904006958008, -0.051651518791913986, 0.01410095114260912, 0.037937913089990616, 0.016208291053771973, 0.03729755058884621, -0.04266844317317009, 0.019753126427531242, 0.011199850589036942, 0.012058338150382042, -0.007176545914262533, 0.031252749264240265, -0.008691225200891495, 0.0431029386818409, -0.039087578654289246, 0.03900022432208061, -0.03442039713263512, -0.0276396032422781, -0.038563404232263565, 0.04573621228337288, -0.029964493587613106, -0.03799525648355484, 0.01559683121740818, 0.03788827732205391, 0.0324937179684639, 0.006950831040740013, -0.013793828897178173, 0.031064243987202644, -0.003712458536028862, 0.02065989188849926, -0.03147074207663536, 0.043979525566101074, -0.007306679151952267, 0.03189057856798172, -0.04808483272790909, -0.030825046822428703, -0.040480565279722214, -0.004486825782805681, -0.03248978406190872, 0.0039820680394768715, -0.030187176540493965, 0.01055834349244833, -0.022155074402689934, 0.029927968978881836, -0.007239990402013063, 0.00481416517868638, 0.009245671331882477, 0.04042983427643776, -0.025943133980035782, 0.04009249806404114, -0.046805765479803085, -0.0502937026321888], [0.0010024411603808403, 0.007359768263995647, 0.00028671196196228266, 8.295853149320465e-06, -0.0009644565870985389, 0.0019037645542994142, 0.0016639145324006677, 0.002336694160476327, -0.0005200315499678254, -0.00333762145601213, -0.001454015146009624, 0.001177652389742434, -0.0013091061264276505, 0.0030745631083846092, 0.002778979018330574, 2.3284459530259483e-05, 0.004365517757833004, 0.0030106708873063326, -0.00017355283489450812, -0.0006964683416299522, -0.00090817577438429, -0.000725576828699559, -0.0011746829841285944, -0.002152286935597658, -0.00017517409287393093, 0.001519756275229156, 0.002572501776739955, 0.00045346058323048055, -0.0014580708229914308, 0.0018601296469569206, 0.0030330007430166006, 0.0008300505578517914, -0.0016335127875208855, -0.006150782573968172, -0.0012608629185706377, 0.0030100378207862377, -0.0027840062975883484, 0.0009995173895731568, -0.0009104252676479518, -0.0010418383171781898, -0.0015684847021475434, 0.0009816805832087994, -0.0011161533184349537, 0.0009531503892503679, -0.008793006651103497, 0.00042223857599310577, 0.0004465815145522356, 0.0006903333123773336, -0.004309193696826696, 0.0040871454402804375, -0.0017486612778156996, 0.0012180163757875562, -0.003123404225334525, 0.0026267054490745068, -0.00032358267344534397, 0.0006399260018952191, -0.0014246070059016347, 0.00611476693302393, -0.003183548804372549, 0.0017912350594997406, 0.0022308346815407276, 0.0039557768031954765, -0.0042155832052230835, -0.0012755088973790407, 0.00481798080727458, 0.0010573312174528837, -0.0026084063574671745, -0.0021680984646081924, 0.0034216679632663727, 8.542021532775834e-05, -0.005476637743413448, -0.00035371139529161155, -0.0024723426904529333, 0.0024858873803168535, -0.0016388468211516738, 0.003149807220324874, -0.003443365916609764, -8.35246974020265e-05, 0.0028860627207905054, 0.003834416624158621, 0.001768751535564661, 0.0029718016739934683, -0.0017171178478747606, 0.0012419987469911575, 0.0009333179332315922, 0.0025240471586585045, -3.4682521800277755e-05, 0.00205803825519979, -0.000915485667064786, 0.0008972767973318696, -0.0010313992388546467, 0.0024503765162080526, -0.0005573313683271408, -0.0027833671774715185, -0.0005535547970794141, 0.0008657214348204434, -0.006777650211006403, -0.0034341420978307724, 0.0041878544725477695, 0.0011230928357690573, 0.0015982594341039658, 0.0014330415287986398, -0.0017077847151085734, 0.0010733421659097075, -0.0038880675565451384, 0.00024217124155256897, -0.0010723309824243188, 0.0015556032303720713, -0.004309495911002159, 0.005214691627770662, -0.0004303036257624626, -0.0039075943641364574, -0.004447718150913715, -0.007715550716966391, -0.00013583924737758934, 0.004898561164736748, -0.005341266747564077, 0.003575932467356324, -0.0007590436725877225, 0.0006064128829166293, -0.00672161066904664, 0.002291240496560931, 0.0050816466100513935, 0.0007029029075056314, -0.006366935558617115, 0.005464205984026194, -0.0019148692954331636, -0.0003683548129629344], [-0.0009879403514787555, -0.005203625187277794, -0.002749374369159341, -0.004534587264060974, 0.0008899266831576824, -0.001421029563061893, -0.005434940103441477, -0.0018777161603793502, 0.0007243602303788066, 0.0026890879962593317, 0.0035022092051804066, -0.0003424602618906647, 0.003528394503518939, -0.005696536041796207, -0.0012788526946678758, -0.0013464553048834205, -0.005385056138038635, -0.0039308154955506325, 0.00016380164015572518, 0.002501102164387703, 0.0005370022845454514, 0.0006020452128723264, 0.005136390216648579, 0.00048491492634639144, 0.0001381839974783361, -0.002144756494089961, -0.006083764601498842, -0.006297120824456215, 0.004729075822979212, -0.0005933464854024351, -0.0011302579659968615, -0.0054010068997740746, 0.005841843318194151, 0.0006055168923921883, 0.002363497158512473, -0.00045975111424922943, 0.0018977238796651363, -0.0027166411746293306, 0.0017077148659154773, 0.002104460261762142, 0.00101079186424613, -0.0008290992700494826, 0.006630350835621357, -0.0030086615588515997, 0.0014902368420735002, -0.0019917991012334824, -0.004788302816450596, -0.0025833414401859045, 0.0013637958327308297, -0.004435591399669647, 0.0006848357152193785, -0.0006866558105684817, 0.002377882366999984, -0.0018612545682117343, 6.0041024880774785e-06, -0.0032719180453568697, 0.003643891541287303, -0.004072660114616156, 0.002102836035192013, -0.0034533734433352947, -0.0009385799057781696, -0.00716041075065732, 0.002208598190918565, 0.003716324223205447, -0.002456139773130417, -0.007321751210838556, 0.002479768358170986, 0.0033476902171969414, -0.004447684623301029, -0.0005545917083509266, 0.00025014139828272164, 0.002922264626249671, 0.0033901596907526255, -0.0016928388504311442, 0.001279266900382936, -0.0001425866357749328, 0.0007985024712979794, 0.004371527582406998, -0.0020454544574022293, -0.0017352907452732325, -0.00151029450353235, -0.0040441411547362804, 0.0008430402376689017, -0.00040597098995931447, -0.0011712608393281698, -0.0007229369948618114, 0.00439034728333354, -0.003936127293854952, 0.0031984010711312294, -0.00013587420107796788, 0.006228835787624121, -0.0005799016216769814, 0.00239905109629035, 0.0007211695774458349, 0.0060009462758898735, -0.001471110968850553, 0.004141505341976881, 0.0004014334117528051, -0.0005957178655080497, -0.00670624477788806, -2.1535770429181866e-06, -0.0033175803255289793, 0.0032906648702919483, -0.002300152787938714, 0.0016290569910779595, -0.002668659668415785, 0.00027126946952193975, -0.0018268388230353594, 0.00266866572201252, -0.005993025377392769, 0.006669687572866678, 0.004992683418095112, 0.0044752126559615135, 0.0001931564329424873, 0.000531751720700413, -0.0009781104745343328, 0.0030761391390115023, -0.005387500859797001, 0.0031798970885574818, -0.0014307585079222918, 0.0016450699185952544, -0.0019582360982894897, -0.0008751364075578749, -0.0032029603607952595, 0.005087992176413536, -0.001967500662431121, 0.0001833340065786615, 0.0028557705227285624], [0.004599252715706825, 0.013564733788371086, 0.007209924049675465, 0.002911125309765339, -0.0030425414443016052, 0.006975054740905762, 0.0052671111188828945, 0.006597596220672131, -0.002827598014846444, -0.0074545880779623985, -0.003561838064342737, 0.002701461547985673, -0.013274941593408585, 0.002499169437214732, 0.0028002115432173014, 0.002410661894828081, 0.001881150994449854, 0.0024083470925688744, -0.013587490655481815, -0.0025935571175068617, -0.0026667972560971975, -0.011474821716547012, -0.002400374272838235, -0.012726451270282269, -0.0009572351118549705, 0.005997650325298309, 0.0021532948594540358, 0.0064551252871751785, -0.005245242267847061, 0.0019167063292115927, 0.005293090827763081, 0.005462202709168196, -0.010587637312710285, -0.009733065962791443, -0.006232856307178736, 0.0022549815475940704, -0.0014785404782742262, 0.00023377520847134292, -0.003249800531193614, -0.007295108400285244, -0.006748597137629986, 0.0032307764049619436, -0.0001902184885693714, 0.009184219874441624, -0.011423642747104168, 0.013153038918972015, 0.0020284648053348064, 0.01414570864289999, -0.004440455697476864, 0.004270265344530344, -0.0013438668102025986, 0.01790849305689335, -0.001273651490919292, 0.005628300365060568, -0.004008088726550341, 0.0004047691181767732, -0.004720876459032297, 0.010495230555534363, -0.00018492554954718798, 0.012075131759047508, 0.011953297071158886, 0.009853726252913475, -0.0019242580747231841, -0.007158815395087004, 0.01451914943754673, 0.017350828275084496, -0.006843701470643282, -0.006863073445856571, 0.000828963762614876, 0.001358357141725719, -0.014925583265721798, -0.0030325092375278473, -0.006689429748803377, 0.00431759562343359, -0.0021205178927630186, 0.0023631048388779163, -0.00995341595262289, -0.001991307595744729, 0.017537003383040428, 0.001794804004020989, 0.006273801904171705, 0.0007266861503012478, -0.008939224295318127, 0.009114431217312813, 0.0013789273798465729, 0.002846818184480071, -0.00285715120844543, 0.005026589147746563, -0.004042148590087891, 0.005945540498942137, -0.009622123092412949, 0.002707976847887039, -0.0047320532612502575, -0.003356579225510359, -0.007430346682667732, 0.0035621735733002424, -0.006827532779425383, -0.006260231602936983, 0.008222652599215508, 0.009098213165998459, 0.005723218899220228, 0.011632594279944897, -0.0023463841062039137, 0.0024492156226187944, -0.00600458774715662, 0.002010118681937456, -0.002038352657109499, 0.0049205562099814415, -0.0053935968317091465, 0.0015936875715851784, -0.014658213593065739, -0.004820446949452162, -0.0023608182091265917, -0.010066375136375427, -0.00019485113443806767, 0.004549021366983652, -0.006261755712330341, 0.006003384944051504, -0.012541532516479492, 0.0022125996183604, -0.007956424728035927, 0.00318232667632401, 0.010103178210556507, 0.013153321109712124, -0.0022996857296675444, 0.002425561426207423, -0.010201976634562016, -0.003154569072648883], [0.0022072000429034233, 0.002872722689062357, 0.0034730625338852406, 0.0009681873489171267, -0.007339685223996639, 0.00377396447584033, 0.0022540937643498182, 0.000792752078268677, -0.0007339724688790739, -0.0051989443600177765, -0.006427682936191559, 0.004988047759979963, -0.008391556330025196, 0.004451528657227755, 0.0017596646212041378, 0.0020665095653384924, 0.0003752854245249182, 0.0037404049653559923, -0.0010948284761980176, -0.0037347718607634306, -0.0003187278052791953, -0.0012605221709236503, -0.0012024013558402658, -0.0004716993134934455, -0.004920520819723606, 0.0024951864033937454, 0.005772680509835482, 0.0032380204647779465, -0.0015728934668004513, 0.0032747129444032907, 0.005451686214655638, 0.0039507667534053326, -0.0008628384093753994, -0.00035671109799295664, -0.0021343945991247892, 0.0014997593825682998, -0.003760692896321416, 0.0008086913730949163, -0.002715496579185128, -0.0006595877348445356, -0.0058603668585419655, 0.00820166990160942, -0.0008863856783136725, 0.0002811804006341845, -0.00036678920150734484, 0.0025669638998806477, 0.0030312733724713326, 0.0009354810463264585, -0.002650059061124921, 0.0047464519739151, -0.003977916203439236, 0.0008516961243003607, -0.0017406371189281344, 0.00038597360253334045, -0.0006259262445382774, 0.002424451522529125, -0.001991413766518235, 0.0001370850222883746, -0.004738686606287956, 0.0017862976528704166, 0.0020213834941387177, 0.0031357635743916035, -0.0036481712013483047, -0.002189072547480464, 0.005754913203418255, 0.001987671945244074, -0.006298091262578964, -0.004992614965885878, 0.008338293060660362, 4.550643643597141e-05, -0.0007647094316780567, -0.0013445299118757248, -0.0004842834023293108, 0.0028621393721550703, -0.0004319990111980587, 0.0003384948067832738, -0.0014124047011137009, -0.003880757838487625, 0.001733838813379407, 0.0017742698546499014, 0.0032972313929349184, 0.006186001468449831, -0.00034236127976328135, 0.003275440074503422, 0.00017080306133721024, 0.0040738838724792, -0.0009442321606911719, 0.004687092266976833, -0.00025888701202347875, 0.004377359990030527, -0.0028251793701201677, 0.0020077498629689217, -0.0010822807671502233, -0.00035131198819726706, -0.005841078702360392, 0.0022489577531814575, -0.002526101190596819, -0.006873585749417543, 0.003235521959140897, 0.0007030899869278073, 0.005934328772127628, 0.007433057762682438, -0.0016875184373930097, 0.001104670693166554, -0.005725701339542866, 0.006565865129232407, -0.0017310610273852944, 0.003467532340437174, -0.005818226840347052, 0.0008818397182039917, -0.001730490941554308, -0.00048240518663078547, -0.004152823239564896, -0.0018025207100436091, -0.0058489348739385605, 0.0004351243260316551, -0.0005622234893962741, 0.00023946113651618361, -0.002024261048063636, 0.00026916284696199, -0.00012409863120410591, 0.005490351002663374, 0.0023669784422963858, 0.0023134774528443813, -0.0009087945218198001, 0.004296178929507732, -0.002922424115240574, -0.002077752025797963], [-0.0012957487488165498, -0.0017036531353369355, -0.0006524097407236695, -0.0027331619057804346, 0.003911019768565893, -0.005275511182844639, -0.003603133372962475, -0.0019400417804718018, 0.0009820101549848914, 0.005464363377541304, 0.006944642402231693, -0.0010272171348333359, 0.005141634028404951, -0.0022019108291715384, -0.0031494973227381706, -0.00013977706839796156, -0.003979044500738382, -0.00012962364417035133, 0.005052019376307726, 0.0013633852358907461, 0.002381507307291031, 0.004714244976639748, 0.0024442023131996393, 0.002033307682722807, 0.0058991084806621075, -0.0037644917611032724, -0.001167658600024879, -0.00202771439217031, 0.004085753113031387, -0.001873508677817881, -0.0052359397523105145, -0.0008983718580566347, 0.0019164230907335877, 0.0022962524089962244, 0.0004661768034566194, -0.0021093920804560184, 0.0036066067405045033, -0.0031920569017529488, 0.0051565393805503845, 0.0043113697320222855, 0.003713888581842184, -0.0014679825399070978, 0.00022019889729563147, -0.005499587394297123, 0.0019316900288686156, -0.002402320969849825, -0.0036355634219944477, -0.004264038987457752, 0.003082181792706251, -0.007999635301530361, 0.0010073124431073666, -0.010099444538354874, 0.005960899870842695, -0.0024222542997449636, 0.00012263165262993425, -0.005259391851723194, 0.0014036737848073244, -0.0018105788622051477, 0.001276812399737537, -0.005658712238073349, -0.0023863506503403187, -0.0033349478617310524, 0.0038528135046362877, 0.007480191998183727, -0.004708205349743366, -0.0029774364084005356, 0.0018641062779352069, 0.0018000800628215075, -0.008503839373588562, -0.003024693578481674, 0.0026410873979330063, 0.0032998991664499044, 0.001301959273405373, -0.0030862907879054546, 0.00027147834771312773, -0.0001373905106447637, 0.001421862980350852, 0.003563797567039728, -0.004688018932938576, -0.0007112479070201516, -0.0073271458968520164, -0.0029672293458133936, 0.005405972246080637, -0.0011483188718557358, -0.004546216689050198, -0.0020781902130693197, 0.003767959540709853, -0.00182227767072618, 0.0018054594984278083, -0.005700576119124889, 0.0023286580108106136, -0.0019961080979555845, 0.00028084448422305286, 0.0012490230146795511, 0.00041444131056778133, -0.006821847520768642, 0.0002160203002858907, 0.0009345498401671648, -0.0094909043982625, -0.0005235235439613461, -0.001548759755678475, -0.0019148588180541992, 0.00690473010763526, -0.0024961470626294613, 0.005588113330304623, -0.00018205949163530022, 0.008205479942262173, -0.0016819917364045978, 0.0049529485404491425, -0.0072485958226025105, 0.0064016771502792835, 0.0027496786788105965, 0.00618973420932889, 0.005800300743430853, 0.0039407298900187016, -0.006927361711859703, 0.0019196155481040478, -0.0004962271195836365, 0.002996674505993724, -0.0011799053754657507, 0.003374077146872878, -0.0019891876727342606, -0.004121863748878241, -0.004079527221620083, 0.008677791804075241, -0.001934464555233717, 0.0007992694154381752, 0.003817720105871558], [-0.002300770254805684, -0.0012185341911390424, -0.0003184531524311751, -0.0038974820636212826, 0.004571042023599148, -0.0004590760509017855, -0.004649983253329992, -0.0029314691200852394, 0.002025916939601302, 0.0026895105838775635, 0.001957094529643655, -0.005103698465973139, 0.003253079019486904, -0.0015670917928218842, -0.002829520497471094, -9.544349450152367e-05, -0.0007159806555137038, -0.006275680381804705, 0.0015880088321864605, 3.018620191141963e-05, 0.0019412499386817217, 0.0005932224448770285, 0.002220006426796317, 0.00064212700817734, 0.0033714252058416605, -0.004497299902141094, -0.005998313892632723, -0.0036956246476620436, 0.00583503907546401, -9.992917330237105e-05, -0.0009789300383999944, -0.0033432822674512863, 0.006504444871097803, 0.004329404793679714, 5.3675674280384555e-05, -0.0009341167169623077, 0.004232026170939207, -0.0012500467710196972, 0.00017619808204472065, 0.0018874162342399359, 0.00220656325109303, -0.004255137871950865, 0.00099089031573385, -0.0010032770223915577, 0.001430080970749259, -0.004199991002678871, -0.004626839887350798, -0.007811409421265125, 0.00020721521286759526, -0.0022380384616553783, 0.0012532174587249756, -0.0036839807871729136, 0.001391658210195601, -0.0035707803908735514, 0.0016474771546199918, -0.002263283124193549, 0.004148032981902361, -0.004671410191804171, 0.0008500793483108282, -0.0022850099485367537, -0.0025412144605070353, -0.0016721197171136737, 0.00043166661635041237, 0.0049530803225934505, -0.0019839305896312, -0.000748784514144063, 0.0024609079118818045, 0.0015102580655366182, -0.0024590773973613977, -0.0012002290459349751, 0.007792260963469744, 0.0017150454223155975, 0.0004046544199809432, -0.001042532967403531, 0.0009517622529529035, -0.0005400751251727343, 0.0015935300616547465, 0.004261174704879522, -0.0009149581310339272, -0.006504737306386232, -0.0037856430280953646, -0.0009063509642146528, 0.0007599297678098083, -0.005192762240767479, -0.0016322857700288296, -0.000743101118132472, 0.0015681879594922066, -0.0026121982373297215, 0.005424013826996088, -0.001798828481696546, 0.0004374213167466223, -0.0014791759895160794, 0.005119237583130598, 0.004291644785553217, 0.005153105594217777, -0.0009988417150452733, 0.0016158168436959386, 0.0019423868507146835, -0.0016855117864906788, -0.0052433740347623825, -0.004453596659004688, -0.003995988052338362, 0.002023912500590086, -0.001024891622364521, 0.001932877697981894, -0.0024489634670317173, 0.0002568023046478629, -0.0008162898593582213, 0.005916460417211056, -0.0010397359728813171, 0.0007204251596704125, 0.003263375023379922, 0.0018885310273617506, 0.004640907980501652, 0.0008226326899603009, -0.0009122405317611992, 0.0028078011237084866, -0.0017413919558748603, 0.006469879765063524, -0.0007518408237956464, 0.0032848839182406664, -0.005748384166508913, -0.0016321510775014758, -0.00021098686556797475, 0.004008420743048191, -0.002166898688301444, 0.0017338399775326252, 0.006837761029601097], [0.06059109792113304, 0.016926104202866554, 0.005041032563894987, 0.07054919004440308, -0.002720473101362586, 0.06498318165540695, 0.005037347320467234, 0.05592211335897446, -0.06580819934606552, -0.059068016707897186, -0.06553740799427032, 0.013680705800652504, -0.03953048586845398, 0.05756764113903046, 0.005674382671713829, 0.06893754005432129, 0.06346970796585083, 0.027000682428479195, -0.003434767248108983, -0.0030002903658896685, -0.004661280661821365, -0.013391622342169285, -0.07285501807928085, -0.009966399520635605, -0.06016945466399193, 0.021009445190429688, 0.016218217089772224, 0.0036489381454885006, -0.005188773386180401, 0.006587390787899494, 0.009030786342918873, 0.007506292313337326, -0.002968420507386327, -0.006953436881303787, -0.06219084560871124, 0.04552137479186058, -0.053064316511154175, 0.06477970629930496, -0.005565157160162926, -0.060588035732507706, -0.06674014031887054, 0.011819499544799328, -0.06381037086248398, 0.01854332536458969, -0.01214640587568283, 0.0058910660445690155, 0.06341642886400223, 0.021358631551265717, -0.035457365214824677, 0.06146268919110298, -0.06175806745886803, 0.0068395561538636684, -0.06872951239347458, 0.011424921452999115, -0.052385538816452026, 0.07587824016809464, -0.003134801285341382, 0.005195776931941509, -0.06401655077934265, 0.003137455089017749, 0.006390322931110859, 0.004769191611558199, -0.012169808149337769, -0.06386660039424896, 0.004144609440118074, 0.0029597377870231867, -0.0027572435792535543, -0.05987439304590225, 0.007056810427457094, 0.015462618321180344, -0.00574700441211462, -0.006279780063778162, -0.0670439749956131, 0.011238550767302513, -0.04158877953886986, 0.07013139128684998, -0.005289680790156126, -0.009863784536719322, 0.005186918657273054, 0.005168470554053783, 0.009531120769679546, 0.05485725775361061, -0.014497489668428898, 0.016817089170217514, 0.05301821976900101, 0.004571125842630863, -0.005359333474189043, 0.02571558952331543, -0.06693073362112045, 0.019563782960176468, -0.013817399740219116, 0.027883583679795265, -0.05979357287287712, -0.058589547872543335, -0.016696054488420486, 0.0026769586838781834, -0.0634855106472969, -0.05826110020279884, 0.016117464751005173, 0.005463949870318174, 0.0051644230261445045, 0.01655033603310585, -0.01153212133795023, 0.07209520041942596, -0.04227219894528389, 0.05877622216939926, -0.0059517910704016685, 0.0061986916698515415, -0.040349725633859634, 0.005143158603459597, -0.01125661563128233, -0.07672052830457687, -0.005113653838634491, -0.05461908131837845, -0.013562965206801891, 0.06854890286922455, -0.0038680199068039656, 0.0744018405675888, -0.01347693894058466, 0.01546589843928814, -0.008607321418821812, 0.008396973833441734, 0.06072450429201126, 0.009512759745121002, -0.05606527999043465, 0.0641309842467308, -0.0057126181200146675, -0.0051108915358781815]], "sigmanet.nn.10.bias": [-0.009544546715915203, -0.006005182862281799, 0.057112231850624084, 0.1567496955394745, -0.14706116914749146, -0.025265034288167953, -0.11716475337743759, -0.11710453033447266, 0.021156664937734604, -0.033150773495435715, -0.012659101746976376, 0.05483579635620117, -0.038323890417814255, -0.07236140221357346, -0.05673019215464592, -0.006890564691275358, 0.027635768055915833, 0.1404588371515274, 0.1957767754793167, 0.14563173055648804, 0.15306824445724487, 0.16414088010787964, -0.05789119750261307, -0.03355513513088226, 0.005113806575536728, 0.009415701031684875, -0.022986533120274544, -0.1851726621389389, 0.041495341807603836, -0.10790733247995377, 0.006941683124750853, -0.05966704711318016, 0.08616388589143753, 0.08613260835409164, 0.162284716963768, -0.05336133763194084, -0.04510011523962021, 0.01107683777809143, -0.06001332402229309, -0.035995420068502426, 0.08539237827062607, 0.06877446919679642, -0.182136669754982, 0.20467409491539001, 0.07294893264770508, 0.015929723158478737, -0.09581676870584488, -0.09489333629608154, 0.19075000286102295, -0.07099249213933945, 0.02655453234910965, 0.033295270055532455, 0.023666726425290108, -0.03062245063483715, 0.01217728666961193, -0.13439756631851196, -0.018608417361974716, 0.08053257316350937, -0.010926932096481323, 0.0008013296173885465, -0.16737677156925201, -0.13649854063987732, -0.04402077943086624, 0.07453800737857819, -0.03249884024262428, 0.002900454681366682, 0.1577848196029663, 0.12199606746435165, -0.16249199211597443, -0.20509539544582367, -0.09186476469039917, 0.2390350103378296, -0.08146816492080688, 0.06466580927371979, -0.16951581835746765, -0.009271233342587948, 0.052537404000759125, -0.010622088797390461, -0.008435840718448162, 0.1451224386692047, -0.017738301306962967, -0.04984036087989807, 0.07942848652601242, -0.16220276057720184, -0.24192208051681519, 0.03930164501070976, -0.01669447124004364, 0.011714602820575237, 0.07658009231090546, 0.11767355352640152, -0.0026049951557070017, -0.024610919877886772, -0.15769898891448975, -0.005580092780292034, -0.1415751725435257, 0.04009441286325455, -0.04117520526051521, -0.17497511208057404, 0.07313937693834305, -0.08888857811689377, 0.114474818110466, 0.11554723978042603, -0.03248753026127815, 0.0268098097294569, 0.04483912140130997, -0.04312564805150032, -0.04069950431585312, -0.0734405443072319, -0.14966467022895813, 0.0005069097387604415, -0.09113048017024994, -0.06210770830512047, 0.0707220807671547, -0.0007718036067672074, -0.21437102556228638, 0.16903342306613922, -0.142486572265625, 0.021235216408967972, 0.18281720578670502, -0.05155710503458977, -0.04413730278611183, 0.12028966099023819, 0.13012255728244781, -0.08128201216459274, -0.1508118212223053, -0.0844617486000061, -0.00410490995272994, 0.04070800170302391], "sigmanet.nn.10.parametrizations.weight.original": [[0.0081822844222188, 0.07253928482532501, -0.06313443183898926, 0.05652599781751633, -0.07482339441776276, 0.013984658755362034, 0.05495457351207733, 0.07868081331253052, -0.039919786155223846, -0.04226595163345337, -0.04539655148983002, 0.0760180726647377, -0.03200628608465195, 0.04432959854602814, -0.07381006330251694, 0.06555590778589249, -0.07216576486825943, 0.059475239366292953, 0.06180262565612793, 0.06399478018283844, 0.00696662999689579, 0.07187320291996002, -0.07200270146131516, -0.07037689536809921, 0.059311047196388245, 0.07037007063627243, 0.039148807525634766, 0.008747837506234646, -0.05700301006436348, 0.05172942206263542, 0.07119601964950562, 0.07145147770643234, -0.0652056336402893, 0.07241730391979218, -0.06215771660208702, 0.054415248334407806, -0.01855226792395115, 0.06896455585956573, -0.0340271070599556, -0.06883887946605682, -0.06682075560092926, 0.006737139541655779, -0.010482961311936378, 0.057232871651649475, -0.0701877623796463, -0.014823046512901783, 0.007330569438636303, 0.06328294426202774, -0.030743837356567383, 0.05921052023768425, -0.04021479934453964, -0.043240275233983994, -0.07006770372390747, -0.012161721475422382, -0.034458957612514496, -0.07181502878665924, -0.06838594377040863, -0.014213898219168186, -0.04583063721656799, 0.0665414035320282, -0.07622821629047394, -0.016695339232683182, -0.03873571380972862, 0.011671085841953754, 0.009532553143799305, 0.07035720348358154, -0.02535310387611389, 0.05465498939156532, 0.07240623235702515, 0.029446881264448166, 0.06281354278326035, 0.06854228675365448, 0.06106877699494362, 0.06516773253679276, -0.06122246012091637, 0.006747092120349407, -0.06925682723522186, 0.05611204355955124, -0.06158241629600525, 0.06923296302556992, -0.006789944134652615, -0.061728958040475845, -0.018027624115347862, 0.0666554868221283, 0.022030485793948174, 0.06198103353381157, -0.07043664157390594, 0.01448110956698656, -0.0746140405535698, -0.02629144862294197, 0.05959349498152733, 0.01453592162579298, -0.04992159456014633, 0.032988060265779495, -0.06965120881795883, 0.06293842941522598, -0.07550844550132751, 0.012102575041353703, -0.06155412644147873, -0.07545605301856995, -0.06297564506530762, -0.07490316033363342, -0.06507211178541183, 0.006173193454742432, -0.061675556004047394, 0.05030032619833946, -0.05829878896474838, -0.03863029554486275, -0.029429828748106956, -0.0208254624158144, -0.07359011471271515, 0.034651800990104675, -0.00616829376667738, 0.059429045766592026, -0.015147506259381771, 0.06224190816283226, -0.06822080910205841, 0.0675692930817604, -0.07204227894544601, -0.07735155522823334, 0.07326547056436539, 0.055332884192466736, -0.041606802493333817, 0.06796404719352722, -0.009135056287050247, 0.020396945998072624, -0.04373876005411148, 0.06575912982225418], [-0.013521235436201096, -0.08707122504711151, 0.033066149801015854, -0.009057042188942432, 0.08194699138402939, -0.00999393593519926, -0.03773830085992813, -0.02405957505106926, 0.011971651576459408, 0.0742596685886383, 0.02157081849873066, -0.08608881384134293, 0.03307357057929039, -0.006762132979929447, 0.008097611367702484, -0.0407833606004715, 0.07575573772192001, -0.032660555094480515, -0.06377039104700089, -0.06845234334468842, -0.006134060211479664, -0.024200646206736565, 0.0067268614657223225, 0.015423114411532879, -0.014870567247271538, -0.07538535445928574, -0.027167122811079025, -0.018799399957060814, 0.05945899337530136, -0.0673641562461853, -0.01379409059882164, -0.015142048709094524, 0.07015638053417206, -0.006702449172735214, 0.06790288537740707, -0.015491857193410397, 0.026236094534397125, -0.009650095365941525, 0.08211857825517654, 0.07516155391931534, 0.07179606705904007, -0.025890659540891647, 0.06615597009658813, -0.0633307620882988, 0.07523290067911148, 0.08035635203123093, -0.07127078622579575, -0.04053165018558502, 0.019371548667550087, -0.08111250400543213, 0.037905216217041016, 0.07101898640394211, 0.00726475240662694, 0.05259742960333824, 0.022683674469590187, 0.08242207765579224, 0.06864172220230103, 0.060349591076374054, 0.0322435088455677, -0.03625798225402832, 0.04824220389127731, 0.021589141339063644, 0.01637900061905384, -0.012144699692726135, -0.07518041878938675, -0.007146717980504036, 0.009878421202301979, -0.08006813377141953, -0.013707075268030167, -0.07348936796188354, -0.067398302257061, -0.06463216990232468, -0.0654088482260704, -0.06986255943775177, 0.06569919735193253, -0.010470643639564514, 0.017487969249486923, -0.012296776287257671, 0.062116410583257675, -0.029065169394016266, 0.006901250686496496, 0.033563241362571716, 0.09589476883411407, -0.06425948441028595, -0.04820827767252922, -0.062113650143146515, 0.0762079507112503, -0.00604419969022274, 0.08169282227754593, 0.014052764512598515, -0.0386899933218956, -0.010848541744053364, 0.05166603997349739, -0.07225746661424637, 0.016108974814414978, -0.010815256275236607, 0.08169993758201599, -0.05901191011071205, 0.028646813705563545, 0.022159181535243988, 0.015689155086874962, 0.08126332610845566, 0.0519905649125576, -0.041026126593351364, 0.005846902262419462, -0.0162294153124094, 0.006103252526372671, 0.06698016077280045, 0.012190422974526882, 0.06619756668806076, 0.01831594854593277, -0.010542715899646282, 0.018869051709771156, -0.05711348354816437, 0.006858259439468384, -0.03572125360369682, 0.017020447179675102, -0.06650427728891373, 0.07755514234304428, 0.08183879405260086, -0.006939221173524857, -0.0697750672698021, 0.006201676093041897, -0.014997300691902637, 0.034418750554323196, -0.07490227371454239, 0.041277315467596054, -0.02741573005914688], [7.07069702912122e-05, 0.0001751299132592976, -0.0007938728667795658, 0.0006098795565776527, -0.00040377010009251535, 0.00024401485279668123, 0.0003905634512193501, 0.0005235576536506414, -0.00029647565679624677, -0.00012852939835283905, -0.0004773667606059462, 0.0008062243578024209, -5.866549145139288e-06, 0.001217624288983643, -1.7849264622782357e-05, 0.0013750754296779633, -0.00041437253821641207, 0.00022001027537044138, 0.0001587124861543998, 4.991426249034703e-05, 1.8159638784709387e-05, 5.051948392065242e-05, -7.498168270103633e-05, -0.00017156181274913251, 0.0013010494876652956, 0.0001837278832681477, 0.0017699649324640632, 0.00029308724333532155, -0.0003309070016257465, 0.00011306256055831909, 2.9925104172434658e-05, 0.0004502926312852651, -0.0006118601886555552, 0.00019902171334251761, -0.00022800435544922948, 0.0002951408678200096, -0.00015496941341552883, 0.0005921911797486246, -6.374113581841812e-05, -0.0004346972855273634, -1.0637419478598531e-07, 0.0005076598608866334, -0.0005880304961465299, 0.00044329496449790895, -2.8493024728959426e-05, -0.0004569265292957425, 0.0005168919451534748, 0.0009063630714081228, -0.0008792119915597141, 1.3830146599502768e-05, -0.0005268006934784353, -0.0008721210760995746, -0.0006020709406584501, -0.0001722750603221357, -0.00016887889069039375, -0.0003975252329837531, -0.0001527556887594983, -3.847011612378992e-05, -0.00011436970817157999, 2.6086494472110644e-05, -0.00036790978629142046, -0.00033246507518924773, -0.0004706054460257292, 0.00030771904857829213, 0.00022969648125581443, 0.00010061264765681699, -0.00037570291897282004, 0.00019930493726860732, 0.0013764580944553018, 0.0005384506657719612, 0.0005105385207571089, 0.00023373743169941008, 0.0006558051682077348, 0.00012191265705041587, -0.0004093838215339929, 0.00032713895780034363, -9.109131497098133e-05, 7.608529995195568e-05, -0.000382371450541541, 0.001372696366161108, -0.0016088722040876746, -0.0009774885838851333, -0.00044455743045546114, 0.00020363042131066322, 0.00017488027515355498, 0.00021441180433612317, -5.598793359240517e-05, 0.00023172213695943356, -0.000210397265618667, -0.0005767673719674349, 0.0004892349243164062, 0.00010363592446083203, -0.0004877487663179636, 0.00019151120795868337, -9.318073716713116e-05, 0.0008010866004042327, -0.0007158367079682648, 4.004895527032204e-05, -0.0002754043380264193, -0.00020507798762992024, -0.0003128179523628205, -0.00031070108525455, -0.00020412255253177136, 0.00013935311289969832, -0.0002707364910747856, 0.0005918936221860349, -0.0002652897092048079, -0.00017046686843968928, -0.00027669486007653177, -8.121412975015119e-05, -2.99989969789749e-05, 0.0008062809938564897, -5.673508712789044e-05, 0.00011835717305075377, -0.0006755629437975585, 0.0012579201720654964, -0.001023765536956489, 0.0012078974395990372, -0.0005145834293216467, -8.337102917721495e-05, 0.0012591010890901089, 0.0007479965570382774, -0.0009845466120168567, 0.000503232644405216, -0.000634413561783731, 0.00019172315660398453, -5.775113095296547e-05, 0.00021245966490823776], [-0.024450642988085747, -0.03766811266541481, 0.021063445135951042, -0.023639444261789322, 0.03304222971200943, -0.024976281449198723, -0.012147580273449421, -0.017461152747273445, 0.014469907619059086, 0.031859416514635086, 0.1027713418006897, -0.022235950455069542, 0.0801239162683487, -0.029039889574050903, 0.017647473141551018, -0.011867150664329529, 0.015414655208587646, -0.023973999544978142, -0.03725884109735489, -0.019342247396707535, -0.02152198739349842, -0.01660618931055069, 0.015485928393900394, 0.014721292071044445, -0.019923292100429535, -0.014090212993323803, -0.03923942148685455, -0.028207460418343544, 0.0288389865309, -0.033315956592559814, -0.013688352890312672, -0.014099900610744953, 0.013875897042453289, -0.014759938232600689, 0.025131935253739357, -0.06274747103452682, 0.020634882152080536, -0.011171177960932255, 0.022925006225705147, 0.017112797126173973, 0.02816874161362648, -0.016238898038864136, 0.022411152720451355, -0.03886173292994499, 0.03899271413683891, 0.036674514412879944, -0.013759510591626167, -0.0117024602368474, 0.01128991786390543, -0.03709135577082634, 0.03766472265124321, 0.03119221143424511, 0.021099861711263657, 0.01956387795507908, 0.017357666045427322, 0.013327944092452526, 0.019508181139826775, 0.02490302361547947, 0.01982361450791359, -0.022301895543932915, 0.03630131855607033, 0.030864130705595016, 0.029396314173936844, -0.009418110363185406, -0.024068113416433334, -0.02714313380420208, 0.019050665199756622, -0.020429963245987892, -0.02553982473909855, -0.01955936662852764, -0.03265799582004547, -0.03393082693219185, -0.03368324041366577, -0.03389783576130867, 0.040447961539030075, -0.017615104094147682, 0.0196370966732502, -0.023884665220975876, 0.0214245468378067, -0.019452068954706192, 0.021850934252142906, 0.018244916573166847, 0.03506762906908989, -0.025203047320246696, -0.04744415730237961, -0.03503987193107605, 0.028960511088371277, -0.017964418977499008, 0.03264337405562401, 0.00909410696476698, -0.023073865100741386, -0.013532676734030247, 0.041341397911310196, -0.03992030397057533, 0.017163079231977463, -0.014225254766643047, 0.028953569009900093, -0.042796988040208817, 0.021569428965449333, 0.028906002640724182, 0.01952003315091133, 0.02598498947918415, 0.025528261438012123, -0.010661502368748188, 0.024430474266409874, -0.015195563435554504, 0.022672731429338455, 0.036035291850566864, 0.015683196485042572, 0.03926524892449379, 0.011653201654553413, -0.012546678073704243, 0.010565961711108685, -0.024492546916007996, 0.024717608466744423, -0.03434564173221588, 0.026141101494431496, -0.0264572836458683, 0.02852531149983406, 0.035213652998209, -0.02453409507870674, -0.02227623574435711, 0.020676514133810997, -0.02799391746520996, 0.03016076423227787, -0.012983174063265324, 0.014220199547708035, -0.03624805808067322], [-7.699170964770019e-06, -1.6590033737884369e-06, 1.1260392966505606e-05, -1.8295297650183784e-06, 2.5667895897640847e-06, -2.360286089242436e-06, -2.238131855847314e-06, -1.4380941593117313e-06, 1.4592711750083254e-06, 1.5968706748026307e-06, 1.9478998183330987e-06, -6.5742351580411196e-06, 1.4125154734756507e-07, -4.073137347404554e-07, 6.420349563995842e-06, -1.1638769592536846e-07, 6.509706054202979e-07, -2.7139715257362695e-06, -7.905986763034889e-07, -1.6583830984018277e-06, -3.681767111629597e-06, -4.081663519173162e-06, 2.013558599855969e-07, 8.273827006632928e-06, -4.7532453208987135e-06, -2.867221382985008e-06, -2.977368012579973e-06, -2.2452186385635287e-06, 1.9869851541898242e-07, -9.631524022779558e-09, -6.840262471996539e-07, -4.4425544842852105e-07, 2.2740148324373877e-06, -2.8169966981295147e-07, 1.0167466371058254e-06, -2.2528097360918764e-06, 1.4378252899405197e-06, -2.706844725253177e-06, 3.5931627735408256e-06, 1.2932108575114398e-06, -5.505322633325704e-07, 1.5960840471507254e-07, 1.6089642258521053e-06, -1.2533513427115395e-07, 3.741628006537212e-06, 4.521414666669443e-06, -2.376694510530797e-06, -4.847424406762002e-06, 8.755603630561382e-06, -4.794129040419648e-07, 2.093197736030561e-06, 5.884476195205934e-07, 9.256394264411938e-07, -7.237066483867238e-07, 9.837202696871827e-07, 6.277501825024956e-07, 3.2853183711267775e-06, 6.080504590499913e-06, 3.2495870527782245e-07, 1.0163957142594882e-07, 4.3683090211743547e-07, 3.4243527124999673e-07, 7.852173666833551e-07, -9.043562386068515e-06, -2.1791679500893224e-06, -3.3583646654733457e-06, -4.282282191070408e-07, -2.113072014253703e-06, -3.2897833079914562e-06, -3.895976533385692e-06, -3.52485216126297e-07, -1.1036905789296725e-06, -4.756559519591974e-06, -2.428198285997496e-06, 1.0148321507585933e-06, -1.1492165867821313e-05, 7.3387623160670046e-06, -2.1535452106036246e-06, -2.2053579584735417e-07, -2.234881094409502e-06, -2.9013108360231854e-07, 4.882254529547936e-07, 4.352819360065041e-06, -1.900228085105482e-06, -6.699492018924502e-07, 3.1189736660053313e-07, 4.247372089594137e-06, -5.0161347644461785e-06, 1.8875450678024208e-06, 3.5637165183288744e-06, -2.1783169756872667e-07, -1.91495109902462e-06, 4.051434814300592e-07, -1.0250730611005565e-06, 2.2885431008035084e-06, -1.9891476767952554e-06, 1.1720500197043293e-06, -8.106536597551894e-07, 1.019089813780738e-05, 3.318493781989673e-06, 8.790906349531724e-07, 3.006613724210183e-06, 3.256548950503202e-07, -1.4097980738370097e-06, 2.119241798936855e-06, -2.78532866104797e-06, 2.7120702270622132e-06, 6.584878065041266e-07, 4.86234102936578e-06, 1.6122826309583616e-06, 2.679180852283025e-06, -3.4309593388570647e-07, 5.739268090110272e-06, 2.419448605905927e-07, 1.7999593183049e-05, -3.078409690715489e-06, 5.643452823278494e-06, -3.537534439601586e-06, 3.2200259738601744e-06, 7.421689133479958e-06, -2.812693082887563e-06, -6.6673551373241935e-06, 7.521804832322232e-07, -2.9007210287090857e-06, 7.875580649852054e-07, -2.905013843701454e-06, 4.3794852899736725e-06, -2.1339164959499612e-06], [0.03058268316090107, 0.019252203404903412, -0.01534333173185587, 0.006129737012088299, -0.04102742671966553, 0.02174709364771843, 0.006551079917699099, 0.03763563930988312, -0.022081056609749794, -0.011266504414379597, -0.055075980722904205, 0.012012515217065811, -0.05740073323249817, 0.030114075168967247, -0.020963571965694427, 0.012450069189071655, -0.0267594363540411, 0.011986971832811832, 0.011971321888267994, 0.03863508626818657, 0.016587914898991585, 0.049529965966939926, -0.01735197752714157, -0.022549491375684738, 0.01506037451326847, 0.021247075870633125, 0.036988515406847, 0.021904414519667625, -0.016078105196356773, 0.011372629553079605, 0.006905908230692148, 0.0067232693545520306, -0.026467211544513702, 0.012780563905835152, -0.029339797794818878, 0.01269694697111845, -0.00824335403740406, 0.012950639240443707, -0.03388170897960663, -0.018937813118100166, -0.025445373728871346, 0.0062810746021568775, -0.013493039645254612, 0.01876651681959629, -0.038789331912994385, -0.012989414855837822, 0.02680353820323944, 0.014345444738864899, -0.0066701197065413, 0.021543124690651894, -0.023062096908688545, -0.00871870294213295, -0.015906764194369316, -0.012732766568660736, -0.013386087492108345, -0.020134098827838898, -0.03512907400727272, -0.022564591839909554, -0.017791638150811195, 0.02133355662226677, -0.016728445887565613, -0.01295110397040844, -0.024500172585248947, 0.011734474450349808, 0.010075496509671211, 0.03421174734830856, -0.023955034092068672, 0.01841234788298607, 0.030688835307955742, 0.027993762865662575, 0.03571271896362305, 0.012057831510901451, 0.02700253203511238, 0.021677643060684204, -0.036269254982471466, 0.01237678062170744, -0.02549004927277565, 0.0681527629494667, -0.008517134003341198, 0.022909188643097878, -0.006424730643630028, -0.005599216092377901, -0.03799029067158699, 0.02995314635336399, 0.05884510278701782, 0.018216220661997795, -0.030859820544719696, 0.020540529862046242, -0.02007247880101204, -0.009933016262948513, 0.021290969103574753, 0.016521763056516647, -0.04073577746748924, 0.018340090289711952, -0.019650621339678764, 0.016559721902012825, -0.032924897968769073, 0.013357059098780155, -0.019624948501586914, -0.025391213595867157, -0.006495050620287657, -0.006700409110635519, -0.010506026446819305, 0.011911210604012012, -0.006526838056743145, 0.012812974862754345, -0.015648193657398224, -0.0224837064743042, -0.01382925920188427, -0.020560426637530327, -0.027713105082511902, 0.030698876827955246, -0.016039177775382996, 0.015523714013397694, -0.006304559763520956, 0.02015591412782669, -0.02871682681143284, 0.01689266972243786, -0.015204638242721558, -0.03265877813100815, 0.015809137374162674, 0.020160285755991936, -0.017859917134046555, 0.029960501939058304, -0.01579267717897892, 0.02742833085358143, -0.026362113654613495, 0.022506650537252426], [-2.3163045170804253e-06, 3.04756966329478e-08, 1.049938759933866e-06, -1.4798121810599696e-05, 4.585051556205144e-06, -1.3480146208166843e-06, -3.947887762478786e-06, 4.082372981883964e-07, 1.1969211300311144e-05, 1.1538136277522426e-05, 3.075241011174512e-06, -1.7544108459333074e-06, 2.9904115308454493e-06, -7.430294317600783e-06, 2.0747104372276226e-06, -8.060879736149218e-06, 6.2941116993897595e-06, -3.868069597956492e-06, -2.8935730824741768e-06, -8.180207373698067e-07, -1.3498879525286611e-06, -1.2143740605097264e-05, 8.02344914063724e-07, 1.213419636769686e-06, -1.929688778545824e-06, -7.463971996912733e-06, -2.9884786272305064e-06, -4.002505647804355e-06, 3.8804864743724465e-07, -1.964827106348821e-06, -5.518831130757462e-06, -4.316670128901023e-06, 2.431230541333207e-06, -1.074207716555975e-06, 1.4582385574613e-06, -1.799027927518182e-06, 3.4742110983643215e-06, -3.6360913782118587e-06, 1.4188860575359286e-07, 6.316140570561402e-07, 8.595148983658873e-07, -4.714190708909882e-06, 7.199512310762657e-07, 1.191286571611272e-07, 8.229947638938029e-07, 7.137492730180384e-07, 1.7120648010404693e-07, -5.2017853704455774e-06, 4.666740551328985e-06, -2.9133502721379045e-06, 9.60124680204899e-07, 4.1868565858749207e-07, 2.325105441514097e-07, 5.934282398811774e-07, 1.1206099770788569e-05, 1.662624868004059e-06, 1.0918593943642918e-05, 5.8779299649813765e-08, 8.982889994513243e-06, -4.164757683611242e-06, 1.0932918712569517e-06, 1.4508567574011977e-06, 8.932409400586039e-06, -3.2613647817925084e-06, -1.6151865338542848e-06, -1.0603724149405025e-05, 6.910176125529688e-06, -1.266596143523202e-07, -4.929549049847992e-06, -3.7131019325897796e-06, -4.393701601657085e-06, -1.559336624268326e-06, 3.225317470878508e-07, -1.7592195717952563e-06, 7.906560881565383e-07, -9.933612091117539e-06, 1.011721724353265e-05, -2.5674369226180715e-06, 6.267647677304922e-06, -3.8072200823080493e-06, 4.309133146307431e-06, 5.935396529821446e-06, 2.9711043225688627e-06, -1.3441382407108904e-06, -2.1748373910668306e-06, -3.7388754208222963e-06, 2.1170201307540992e-06, -3.521734697642387e-06, 1.95996608454152e-06, 5.135081210028147e-06, -7.981162184478308e-07, -9.959640919987578e-06, 1.790135399915016e-07, -1.309381445935287e-06, 3.4340773709118366e-06, -2.7173002763447585e-06, 3.104843017354142e-06, -3.659721414805972e-06, 3.201781737516285e-06, 4.193543190922355e-06, 1.4181485312292352e-05, 2.6691238872444956e-06, 6.856241725472501e-07, -1.9479598449834157e-06, 2.798237119350233e-06, -8.62727347339387e-07, 1.6500844139955007e-06, 1.2258252581887064e-06, 5.479730589286191e-07, 3.4552579109004e-06, 2.3374382180918474e-06, -1.9567196432035416e-06, 2.6848460947803687e-06, -1.4114181112745428e-06, 9.491531272942666e-06, -1.7765189568308415e-06, 4.700274075730704e-06, -3.681653879539226e-06, 4.311531483836006e-06, 6.957016921660397e-06, 4.1649923332442995e-07, -5.312622874953377e-07, 2.2882911707711173e-06, -5.733653779316228e-06, 3.225321279387572e-06, -2.1876062419323716e-06, 1.0862324415938929e-05, -9.060674983629724e-07], [-9.005711945064832e-07, -3.160531605317374e-07, 1.1483570006021182e-06, -6.719964403600898e-06, 1.7349558447676827e-06, -6.749843350917217e-07, -9.287089596909937e-06, -2.7062474146077875e-06, -1.9999390588054666e-06, 3.3141537869596505e-07, -2.057056747162278e-07, -2.1784123873658245e-06, 3.1888762919152214e-07, -1.5130659676287905e-06, 3.7969994082232006e-06, -1.1056402399844956e-05, 6.659688551735599e-07, -2.2862752757646376e-06, -2.304976078448817e-06, -2.1290554741426604e-06, -6.668863534287084e-06, -6.711006221848947e-07, 3.331972493469948e-06, -7.454834758391371e-07, -3.099105242654332e-06, -6.861154133730452e-07, -1.0995260026902542e-06, 3.5380688245822967e-07, 3.54540816260851e-07, -1.1263379064985202e-06, -2.7589442197495373e-06, -1.0690362614695914e-05, 4.870781822319259e-07, -5.285442625790893e-07, -9.078195262191002e-08, -3.876186383422464e-06, 3.733128437488631e-07, -7.66742778068874e-06, 5.271554073260631e-07, 1.9445672023721272e-06, 1.631368149901391e-06, -7.526276931457687e-06, 3.654901661320764e-07, -2.5900260425260058e-06, 2.9722584713454125e-06, 6.794249429731281e-07, -6.128774202807108e-06, -2.510507556507946e-06, -4.989413469047577e-07, -1.5144634062380646e-06, -2.0047492554908786e-08, 2.2270967292570276e-07, 1.2846382624331909e-08, -6.111936556862929e-08, -3.027061836746725e-07, 2.7116956857753394e-07, 6.096067863836652e-07, -3.1666141353525745e-07, -2.986658955705934e-07, 1.990661502304647e-07, 1.8870740632337402e-06, 1.9248295757279266e-06, 2.166579406548408e-06, -1.4700498468300793e-05, -3.170521722495323e-06, 3.3111888342318707e-07, 8.45967406348791e-06, -2.006671735443888e-07, -1.7545502259963541e-06, -2.967305817946908e-06, 2.524285491745104e-08, -4.560193360703124e-07, -6.482033541033161e-07, -1.7005293102556607e-06, 6.933204304004903e-07, -2.3466139964511967e-07, 4.021398126496933e-06, -6.890263648529071e-06, 4.599426574714016e-06, -1.39306575874798e-06, 4.389337846077979e-06, 1.424571019015275e-05, 1.483997152718075e-06, -8.15325734038197e-07, -4.195338988211006e-06, -9.496492339167162e-07, 1.7625048940317356e-06, -9.971553254217724e-07, 1.8435725905874278e-06, 8.310005796374753e-06, -3.6898859434586484e-07, -1.245205112354597e-06, 4.889258207185776e-07, -4.773822183778975e-06, 6.270385711104609e-06, -6.685136213491205e-07, 5.791057901660679e-06, -4.42531472799601e-06, 2.0319345139796496e-07, 1.7855726355264778e-06, 3.966683379985625e-06, 7.756952072668355e-06, 1.7896520603244426e-06, -6.51416144137329e-07, 6.665372893621679e-06, -3.9881856537249405e-06, 3.5348516576050315e-06, 3.7134282138140406e-06, 1.0656457561708521e-05, 1.278090508094465e-06, 2.170532070522313e-06, -8.698371857462917e-06, -1.689901409918093e-07, -1.88906949460943e-06, 8.75553382684302e-07, -1.2260788935236633e-05, 7.219366011668171e-07, -3.7322322441468714e-06, -9.121163202507887e-08, 4.389331479615066e-06, 4.895806569038541e-07, -5.294164111546706e-07, 4.264980361767812e-06, -1.474064106332662e-06, 4.002447894890793e-06, 2.0724867511034972e-07, 8.873174124346406e-07, -4.958541467203759e-06], [0.0604831837117672, 0.0739549994468689, -0.06357332319021225, 0.02537943609058857, -0.07278945297002792, 0.010309814475476742, 0.036323338747024536, 0.013888849876821041, -0.041043419390916824, -0.060481853783130646, -0.04046056419610977, 0.009339926764369011, -0.02439957484602928, 0.010233171284198761, -0.06858424842357635, 0.009449852630496025, -0.017800064757466316, 0.016046922653913498, 0.05610547959804535, 0.012387480586767197, 0.03751474991440773, 0.03882594406604767, -0.024175988510251045, -0.01252273004502058, 0.006441208068281412, 0.07046888768672943, 0.03849917650222778, 0.07007594406604767, -0.020449042320251465, 0.05998837202787399, 0.010245170444250107, 0.033741023391485214, -0.00941565353423357, 0.07041274756193161, -0.06178828328847885, 0.0519251711666584, -0.0077040852047502995, 0.012149517424404621, -0.07244779169559479, -0.020982863381505013, -0.06412151455879211, 0.011052602902054787, -0.0593898743391037, 0.05659542605280876, -0.03231213986873627, -0.019591206684708595, 0.03961770236492157, 0.01750035025179386, -0.05618451163172722, 0.01435493491590023, -0.03956272453069687, -0.06439067423343658, -0.04275992885231972, -0.06291110813617706, -0.006989083718508482, -0.03960149362683296, -0.03437599167227745, -0.0639345794916153, -0.03223520144820213, 0.013295943848788738, -0.012618881650269032, -0.039400629699230194, -0.01787572167813778, 0.047676511108875275, 0.02174329198896885, 0.069076307117939, -0.0062883151695132256, 0.01992635801434517, 0.06826230138540268, 0.010129369795322418, 0.054580699652433395, 0.06528998911380768, 0.03469641134142876, 0.035246215760707855, -0.014389635995030403, 0.03491714969277382, -0.055149320513010025, 0.05390326306223869, -0.05918959528207779, 0.011980045586824417, -0.0102792177349329, -0.009994174353778362, -0.08701880276203156, 0.06863176077604294, 0.05897014960646629, 0.012127602472901344, -0.011381277814507484, 0.015345667488873005, -0.01495372224599123, -0.005789533723145723, 0.0601484477519989, 0.04274139180779457, -0.05387018248438835, 0.014180473983287811, -0.056547414511442184, 0.02275177463889122, -0.016436973586678505, 0.05532136186957359, -0.007167842239141464, -0.04325433447957039, -0.06369934976100922, -0.008910839445888996, -0.029359642416238785, 0.016554003581404686, -0.06201415881514549, 0.07152646780014038, -0.03775449097156525, -0.0665266141295433, -0.04490717500448227, -0.040041256695985794, -0.0687076672911644, 0.016212861984968185, -0.03704424202442169, 0.056223224848508835, -0.016785582527518272, 0.04106410965323448, -0.07015188038349152, 0.0660027489066124, -0.07029316574335098, -0.030883444473147392, 0.008129197172820568, 0.060382600873708725, -0.07093886286020279, 0.0618094727396965, -0.07989133149385452, 0.06965679675340652, -0.030881067737936974, 0.06273619830608368], [-0.00037643377436324954, -0.0003980267501901835, 4.1336388676427305e-05, -1.5942725440254435e-05, 2.846784991561435e-05, -0.0003859286953229457, -0.00030047717154957354, -6.656566256424412e-05, 0.0005016541108489037, 0.00010814126289915293, 0.00019442502525635064, -0.0007251353235915303, 4.078895290149376e-05, -0.00020935307838954031, 9.79659816948697e-05, -3.290118183940649e-05, 0.00010631639452185482, -0.00021705571271013469, -5.416545900516212e-05, -0.000269467243924737, -0.0006383447325788438, -0.0005041392869316041, 7.035825547063723e-05, 0.000510479265358299, -0.00035892167943529785, -3.923395070160041e-06, -0.0005524344160221517, -2.617732752696611e-05, 4.345629713498056e-05, -0.00019759873975999653, -7.432010897900909e-05, -8.617901585239451e-06, 0.0006895653787069023, -3.0434077416430227e-05, 0.000197715635295026, -3.083797491854057e-05, 0.0003013147215824574, -0.0005907839513383806, 0.0005559332785196602, 9.7981119324686e-06, 0.0003177632170263678, -7.75660082581453e-05, 0.0005199146107770503, -0.00016801879974082112, 0.000392537796869874, 7.620554242748767e-05, -0.00038276586565189064, -0.0006725452840328217, 6.972560368012637e-05, -3.3096464903792366e-05, 0.0002926139277406037, 1.1380068826838396e-05, 3.1988893169909716e-05, 1.391826390317874e-05, 0.0006651749135926366, 0.0003744373098015785, 0.00040806218748912215, 0.00020599711569957435, 0.0003286886203568429, -0.0001075014442903921, 0.0005974675877951086, 0.00011196299601579085, 0.00015076244017109275, -0.00025053590070456266, -0.00024235440650954843, -0.00016228780441451818, 6.238947389647365e-05, -0.00016675528604537249, -0.0008041574619710445, -0.0003311921318527311, -0.00028551617288030684, -2.539999286454986e-06, -0.0007711860234849155, -0.0002645831846166402, 0.00018729908333625644, -0.00028041028417646885, 0.001255355542525649, -0.0005515791126526892, 0.00020792923169210553, -0.0002555220271460712, 0.00022208997688721865, 0.0001550829183543101, 0.0008444316918030381, -2.1644129446940497e-05, -4.1994611819973215e-05, -5.114628584124148e-05, 5.508853791980073e-05, -0.00032834438025020063, 5.769962808699347e-05, 7.852046110201627e-05, -9.684242104412988e-05, -0.0005314373993314803, 1.330609165961505e-06, -0.00041689162026159465, 2.4156153813237324e-05, -0.0007599855889566243, 5.040716860094108e-05, -4.131985406274907e-05, 0.0003545534855220467, 0.0008325651288032532, 5.666202923748642e-05, 4.441248529474251e-05, 0.0003666331176646054, -0.00013359847071114928, 3.8872851291671395e-05, -0.00032028634450398386, 2.2339932002068963e-06, 0.0003219067002646625, 7.560700760222971e-05, 0.00011631704546744004, 0.0003201120998710394, -0.00018665770767256618, 0.00035083608236163855, -3.1633740036340896e-06, 3.5788005334325135e-05, -0.00035098756779916584, 0.00015912126400507987, -0.00015822444402147084, 0.00038032280281186104, 8.836617780616507e-05, -3.725252827280201e-05, -1.8043616591967293e-06, 0.00023087058798409998, -0.0012769765453413129, 2.11699225474149e-05, -0.00012984131171833724, 6.284853589022532e-05, -7.022950012469664e-05], [-5.594914182438515e-05, -0.0006510214880108833, 0.0013969100546091795, -0.0002748291299212724, 0.00017451922758482397, -0.00033884006552398205, -0.0007291170186363161, -0.0010042438516393304, 0.0001484882814111188, 0.00032066908897832036, 0.0008891746983863413, -0.00024450497585348785, 0.000286469905404374, -0.002291982527822256, 0.00016451005649287254, -8.395027543883771e-05, 6.133181159384549e-05, -0.0003478623111732304, -0.00010318442218704149, -0.0004659026162698865, -0.00010460888006491587, -0.00035939455847255886, 0.000420320313423872, 9.705944103188813e-05, -0.0006507155485451221, -0.00040041035390459, -0.0005966114695183933, -0.00043906609062105417, 0.00017057577497325838, -4.1724968468770385e-05, -0.00017516840307507664, -0.000813256308902055, 0.0005411930615082383, -0.0002752730797510594, 0.0003449748910497874, -0.00025165241095237434, 0.0008823457756079733, -0.0003794116491917521, 7.410885882563889e-05, 0.0003655196342151612, 0.00012773138587363064, -0.00120446365326643, 0.00018409326730761677, -4.5122502342564985e-05, 0.0002526083553675562, 0.0008378050406463444, -0.00011861726670758799, -0.0005651523824781179, 0.0007671616622246802, -0.00032491033198311925, 0.00038296199636533856, 0.0009286312269978225, 0.0008067091694101691, 8.74483012012206e-05, 0.0009123820927925408, 0.0010272007202729583, 0.0006292638136073947, 9.13572876015678e-05, 3.612911677919328e-05, -0.0007474733283743262, 0.0003598559706006199, 0.0010368401417508721, 0.0004672408977057785, -0.004307826980948448, -0.00014005681441631168, -9.775681246537715e-05, 0.00039905367884784937, -7.615007052663714e-05, -0.001168789342045784, -0.00125015655066818, -0.0006042178720235825, -0.00021492266387213022, -0.00041041444637812674, -0.00044512463500723243, 3.0876632081344724e-05, -0.000281666376395151, 0.0009344349964521825, -0.0005495167570188642, 0.00022268472821451724, -0.0004529394500423223, 0.002232349244877696, 0.00019849326054099947, 0.0005119442939758301, -0.0003372934297658503, -7.020781049504876e-05, -0.0004336484707891941, 0.00044076485210098326, -0.0014421214582398534, 0.0020252836402505636, 1.4533574358210899e-05, -0.00035886329715140164, -0.00047168732271529734, 2.025058347498998e-05, -0.0006338501698337495, 0.0004719383723568171, -0.0004762654716614634, 0.0003601691569201648, -8.51673903525807e-05, 0.00033588457154110074, 0.0002392527967458591, 0.00013230346667114645, 0.0005174136022105813, 0.00010663961438694969, -0.0011486341245472431, 6.798327376600355e-05, -0.00036154434201307595, 0.0007255500531755388, 5.54786529392004e-05, 1.2185954801680055e-05, 0.00031671818578615785, 0.00046954164281487465, -2.891708936658688e-05, 2.9357457606238313e-05, -0.00013903989747632295, 0.00011765904491767287, -7.366293721133843e-05, 1.4124310837360099e-05, -0.0003586777311284095, 0.0004105037951376289, 0.00010130181181011721, -0.00033206166699528694, -0.0009094376000575721, 0.0003127344243694097, -8.361926120414864e-06, 0.0003919025475624949, -0.0007520542130805552, 0.0007709979545325041, -1.705749673419632e-05], [0.00012768799206241965, 0.00024336478963959962, -0.00024255618336610496, 0.00034987181425094604, -0.0001278684794669971, 9.43286795518361e-06, 0.00035930672311224043, 2.148459680029191e-05, -0.0001549308217363432, -1.2609002624230925e-05, -2.033134296652861e-05, 0.0005140344728715718, -6.382002993632341e-06, 6.409777415683493e-05, -6.527674031531205e-06, 5.802452506031841e-05, -8.127500041155145e-05, 0.00012132055417168885, 1.3136337656760588e-05, 1.1684282981150318e-05, 2.33018072322011e-05, 3.479109125237301e-07, -0.00032130401814356446, -2.715687151066959e-05, 0.00046895668492652476, 0.0001289132924284786, 1.804833664209582e-05, 0.0003930778766516596, -7.363792974501848e-05, 0.00023432170564774424, 0.00045853102346882224, 0.00025271603954024613, -0.0001127239884226583, 0.0001273923262488097, -0.0001541783130960539, 4.16421789850574e-05, -6.272846076171845e-05, 0.0003337455273140222, -9.812201460590586e-05, -8.161056030075997e-06, -6.438320997403935e-05, 0.0001573978370288387, -3.732622280949727e-05, 2.1411051420727745e-05, -0.00014428302529267967, -3.239931902498938e-05, 0.00011093285138485953, 0.0002653783594723791, -8.794884342933074e-05, 4.009481563116424e-05, -1.2806478480342776e-05, -5.571397559833713e-05, -0.00012969074305146933, -0.00013691723870579153, -0.00039792151073925197, -0.00015820330008864403, -2.9356595405261032e-05, -9.697789209894836e-05, -0.00040940489270724356, 5.875043279957026e-05, -3.7257701478665695e-05, -0.0006633677403442562, -1.763606269378215e-05, 0.00015125969366636127, 0.000212747065233998, 4.262102083885111e-05, -5.146059629623778e-05, 4.382374754641205e-06, 0.00040940489270724356, 1.6903668438317254e-05, 0.0001933547609951347, 3.726086288224906e-05, 0.0001471609139116481, 3.425928298383951e-05, -2.3927555957925506e-05, 5.7700799516169354e-05, -0.00029408177942968905, 0.00034171086736023426, -0.00010918917541857809, 2.941780439869035e-05, -0.0002958694822154939, -6.525777735078009e-06, -0.00011728092795237899, 2.7312848033034243e-05, 7.724516035523266e-05, 8.489281026413664e-05, -0.0005601498996838927, 2.3822229195502587e-05, -0.0002892299380619079, -9.0858040493913e-05, 7.768817886244506e-05, 0.00010388490773038939, -1.2066489944118075e-05, 0.00018410519987810403, -7.838191231712699e-05, 0.00010639644460752606, -4.3638559873215854e-05, 4.635781442630105e-05, -6.98378644301556e-05, -0.00015156393055804074, -0.00022720913693774492, -0.00016195059288293123, -1.8550730601418763e-05, 1.128398253058549e-06, -0.0007752868114039302, 0.0002609314688015729, -0.00013193459017202258, -6.636613397859037e-05, -3.210746945114806e-05, -4.3460579036036506e-05, -0.0003682271344587207, 0.00016922784561756998, -0.0003322351258248091, 3.275267226854339e-05, -9.468122880207375e-05, 0.0002844679693225771, -6.198161281645298e-05, 0.00016806824714876711, -0.00018772859766613692, -0.0002906668232753873, 0.0001967924035852775, 7.943002128740773e-05, -6.217774739525339e-07, 0.00023049887386150658, -0.00027795674395747483, 3.560244294931181e-05, -0.0003161186759825796, 3.957207354687853e-06], [-5.284820417728042e-06, -5.389764282881515e-06, 9.620330274628941e-06, 1.801608107143693e-08, 7.632652909705939e-07, -6.036232662154362e-06, -7.77481727709528e-06, -1.033078024192946e-05, 6.137053333077347e-06, 1.800135760277044e-05, 1.1832892596430611e-05, -5.566539130086312e-06, 5.6792869145283476e-06, -1.9581286778702633e-06, 3.786434490393731e-06, -1.663478724367451e-05, 1.8043281670543365e-05, -1.2513493857113644e-05, -2.5843116873147665e-06, -8.32400382932974e-06, -4.544131115835626e-06, -1.651991806284059e-05, 3.980982455686899e-06, 1.2845315723097883e-05, -7.163001214394171e-07, -1.763678119459655e-05, -7.005286306593916e-07, -1.2655817954509985e-05, 6.09922551575437e-07, -6.487611585725972e-07, -1.1084869584010448e-05, -1.2799559954146389e-05, 5.042347765993327e-06, -6.309213404165348e-06, 2.6292743768863147e-06, -2.6852826522372197e-06, 3.314529749331996e-06, -1.5773083816839062e-07, 8.841608178045135e-06, -1.1987638970367698e-07, 9.560108992445748e-06, -3.90069499189849e-06, 5.393133960751584e-06, 2.1539420913541107e-07, 6.911640753060055e-07, 1.0930358484984026e-06, -6.811766525061103e-06, -9.586556188878603e-07, 7.5371663115220144e-06, -8.8015767687466e-06, 5.208592483540997e-06, 2.4408550416410435e-06, -2.0005934686651017e-07, 4.36456093666493e-06, 3.0325159627864195e-07, 7.648350219824351e-06, 1.2287103345443029e-05, 7.569105946458876e-07, 8.062555934884585e-06, -7.65139304803597e-07, 4.977598109690007e-06, 1.2256809895916376e-06, 1.9862825411109952e-06, -3.228952039080468e-07, -1.9908884496544488e-06, -4.341583462519338e-06, 1.1247905149502913e-06, -9.699595466372557e-06, -1.1912131412827875e-05, -5.766617960034637e-06, -1.855877485468227e-06, -7.952415217005182e-06, -8.293447535834275e-06, -8.55506459629396e-06, 2.7994772153761005e-06, -6.9580532908730675e-06, 1.5375424027297413e-06, -6.091483442105528e-07, -4.6906709627592136e-09, -1.2502779327405733e-06, 9.134173524216749e-06, 2.1143346202734392e-06, 3.4130873700632947e-06, -1.7728614238876617e-06, -2.3524560219811974e-06, -6.409835350495996e-06, 1.4628745702793822e-05, -7.999894478416536e-06, 8.112894647638313e-06, -4.044886736664921e-08, -1.9088136014033807e-06, -8.437807537120534e-07, 3.7678364606108516e-06, -2.8364981972117675e-06, 8.924524763642694e-07, -8.057096238189843e-06, 9.876739568426274e-07, -5.072971362096723e-06, 1.4153795746096876e-05, 3.415866331124562e-06, 5.4030442697694525e-06, 3.2410318908659974e-06, 1.871589120128192e-05, -8.429977356172458e-07, 1.0809376362885814e-05, -9.84314192464808e-06, 1.4576092326024082e-05, 4.059601906192256e-06, 6.35621972833178e-06, 2.2032313609088305e-06, 1.5586356312269345e-06, -1.991649241972482e-06, 4.6794552872597706e-06, -2.90664820568054e-06, 1.2687428352364805e-05, -1.0167550499318168e-06, 1.8738994185696356e-05, -1.814407187339384e-05, 7.866245141485706e-06, 1.4572361578757409e-05, -6.595393188035814e-06, -3.959708919865079e-06, 1.328187408944359e-06, -4.2373167161713354e-06, 1.120632623496931e-05, -2.579075953690335e-06, -4.0075391893878987e-07, -2.418929170744377e-06], [-7.649136387044564e-05, -2.5688577807159163e-05, 1.6361078451154754e-05, -0.00012011641229037195, 0.00011393750901333988, -8.355699537787586e-05, -9.734163904795423e-05, -0.00030149336089380085, 2.019045041379286e-06, 5.755816891905852e-05, 0.00012779427925124764, -1.1245351743127685e-05, 1.5211277059279382e-05, -7.244106382131577e-05, 0.00018781845574267209, -0.00026358323520980775, 2.653563024068717e-05, -0.00012793386122211814, -0.0002736877358984202, -3.602115612011403e-05, -8.840072950988542e-06, -5.587403393292334e-06, 2.7705500542651862e-05, 0.000339750899001956, -2.1222138457233086e-05, -0.00023485517886001617, -8.121110113279428e-06, -9.657359623815864e-05, 0.0003152262943331152, -9.741665962792467e-06, -0.0004319243016652763, -6.866843614261597e-05, 0.00021255860337987542, -0.00022042302589397877, 4.694167728303e-05, -1.5648058251827024e-05, 0.00037317551323212683, -0.0004951572045683861, 0.00013440041220746934, 0.00018422777066007257, 4.1332299588248134e-05, -6.561163900187239e-05, 2.2821101083536632e-05, -0.0001979818771360442, 0.0003442508459556848, 4.404125502333045e-05, -2.057747587969061e-05, -0.00036029922193847597, 3.401262074476108e-05, -3.4679649161262205e-06, 0.0003425855829846114, 5.721290290239267e-05, 0.0001252126385224983, 1.7878410289995372e-05, 8.740199700696394e-05, 9.2174275778234e-05, 2.4990973543026485e-05, 9.897948075376917e-06, 0.00018715999613050371, -0.00011378635826986283, 2.3381733626592904e-05, 0.00021880623535253108, 0.0004526835691649467, -0.0001362390030408278, -4.96182001370471e-05, -0.0001949508732650429, 3.709677548613399e-05, -6.582892820006236e-05, -3.314698187750764e-05, -0.0008067133603617549, -0.00041758432053029537, -8.46981056383811e-05, -0.0003225419786758721, -1.544539009046275e-05, 0.00020436840713955462, -0.00013551863958127797, 0.0003318962990306318, -9.023038728628308e-05, 7.196946535259485e-05, -0.0005550338537432253, 3.938663940061815e-05, 0.00015919934958219528, 1.9206076103728265e-05, -2.76135415333556e-05, -0.00021003691654186696, -9.378071263199672e-05, 1.1852248462673742e-05, -9.066390339285135e-05, 7.429783727275208e-05, 9.532458352623507e-05, -7.266805914696306e-05, -7.888323125371244e-06, 0.0002833052712958306, -2.989193944813451e-06, 3.534026109264232e-05, -3.510090391500853e-05, 2.2784191969549283e-05, -1.9493365471134894e-05, 1.1955941772612277e-05, 0.00031969614792615175, 1.7310288967564702e-05, 0.0006028724601492286, 0.0005287216044962406, -9.723770926939324e-05, 5.0705184548860416e-05, -3.341859337524511e-05, 4.098288991372101e-05, 1.7608614143682644e-05, 0.00041569286258891225, 0.0001313879038207233, 0.00010398208542028442, -4.0741120756138116e-05, 0.00023644340399187058, -1.2094642443116754e-05, 0.0003271621244493872, -0.00010676503006834537, 0.00014846897101961076, -0.0001661222631810233, 0.00031646742718294263, 2.4551653041271493e-05, -0.00044766112114302814, -1.4024589290784206e-05, 8.039223030209541e-05, -2.8351629225653596e-05, 3.983557235187618e-06, -0.000651490583550185, 6.489482620963827e-05, -0.00015372750931419432], [-0.03841547667980194, -0.003154480131343007, 0.04665630683302879, -0.043811582028865814, 0.0003726307477336377, -0.0419839508831501, -0.04986365884542465, -0.0041979472152888775, 0.051774147897958755, 0.02170543558895588, 0.001594392117112875, -0.001592142041772604, 0.00021082934108562768, -0.007133868057280779, 0.010641499422490597, -0.03882819414138794, 0.024875398725271225, -0.05162201449275017, -0.00055074249394238, -0.006064893677830696, -0.05394330993294716, -0.018286071717739105, 0.03526926040649414, 0.03911871463060379, -0.01850821264088154, -0.02304854430258274, -0.020077286288142204, -0.04660683497786522, 0.0009408193873241544, -0.0011886019492521882, -0.030522417277097702, -0.03971559926867485, 0.026925750076770782, -0.034860409796237946, 0.0028886005748063326, -0.0013828021474182606, 0.003327280282974243, -0.03839493915438652, 0.0023115037474781275, 0.0162726528942585, 0.009193658828735352, -0.04493366926908493, 0.001715387450531125, -0.0012410037452355027, 0.0030918752308934927, 0.003114203689619899, -0.04899180680513382, -0.00947429146617651, 0.008897030726075172, -0.017344078049063683, 0.03343060985207558, 0.0042637488804757595, 0.012707608751952648, 0.0002368696586927399, 0.010213610716164112, 0.004196603782474995, 0.005015464033931494, 0.004260500892996788, 0.05457631126046181, -0.004399813711643219, 0.013197377324104309, 0.03239892050623894, 0.040514588356018066, -0.047159064561128616, -0.0011437534121796489, -0.036530956625938416, 0.04681787267327309, -0.0015473365783691406, -0.04058146849274635, -0.02059299312531948, -0.0010489410487934947, -0.003021998330950737, -0.00045902893180027604, -0.0013453935971483588, 0.00208876165561378, -0.01501492504030466, 0.0508992001414299, -0.00028858191217295825, 0.02477063611149788, -0.0008896021172404289, 0.0536552332341671, 0.04527437686920166, 0.020358489826321602, -0.009228024631738663, -0.0008785121026448905, -0.0013235800433903933, 0.01975920982658863, -0.05217475816607475, 0.012259780429303646, 0.051948800683021545, -0.0018413250800222158, -0.041749775409698486, 0.0002750153362285346, -0.000861806096509099, 0.0020001695957034826, -0.029539868235588074, 0.0013472514692693949, -0.001033043721690774, 0.04122833162546158, 0.036369454115629196, 0.046767815947532654, 0.030030783265829086, 0.03828217089176178, -0.012606821954250336, 0.024521417915821075, -0.004670280497521162, 0.012531931512057781, 0.006703833118081093, 0.0438150018453598, 0.005244647152721882, 0.04332716390490532, -0.0337071493268013, 0.04868476837873459, -0.0008701367187313735, 0.010410742834210396, -0.01431768387556076, 0.012563659809529781, -0.0340375192463398, 0.0007671782514080405, 0.007867364212870598, -0.049345679581165314, -0.002981006633490324, 0.013521082699298859, -0.004970501642674208, 0.00789724476635456, -0.02552019990980625, 0.054301850497722626, -6.271090387599543e-05], [0.010808822698891163, 0.029047735035419464, -0.004696211777627468, 0.043079573661088943, -0.009203283116221428, 0.008401787839829922, 0.010322706773877144, 0.014056767337024212, -0.015679791569709778, -0.07177405804395676, -0.02195538394153118, 0.013341066427528858, -0.016407163813710213, 0.008548799902200699, -0.008924969471991062, 0.022687489166855812, -0.005355580244213343, 0.03262966871261597, 0.015228684060275555, 0.04532910883426666, 0.005148948170244694, 0.07363035529851913, -0.013769090175628662, -0.0311508160084486, 0.010025577619671822, 0.004565337207168341, 0.04027142375707626, 0.00897245854139328, -0.06876704841852188, 0.008055410347878933, 0.011455618776381016, 0.011976179666817188, -0.00456318911164999, 0.007670911494642496, -0.010633271187543869, 0.03866856172680855, -0.08349268138408661, 0.009127677418291569, -0.08731456845998764, -0.0051506282761693, -0.009031268768012524, 0.007593581918627024, -0.0766742154955864, 0.07264085114002228, -0.009230660274624825, -0.005304841324687004, 0.01193846296519041, 0.012355538085103035, -0.013495972380042076, 0.06030653417110443, -0.08280667662620544, -0.0820709839463234, -0.008913407102227211, -0.013983780518174171, -0.010517268441617489, -0.009564856998622417, -0.010918337851762772, -0.054035913199186325, -0.02459687367081642, 0.03746240213513374, -0.010603956878185272, -0.008333032950758934, -0.024948617443442345, 0.012667277827858925, 0.08352699130773544, 0.009107895195484161, -0.009947041980922222, 0.010462643578648567, 0.008309874683618546, 0.04791272431612015, 0.03948263078927994, 0.09218081831932068, 0.008536653593182564, 0.08164237439632416, -0.05227101221680641, 0.010040621273219585, -0.022483108565211296, 0.0423375740647316, -0.059128545224666595, 0.038023240864276886, -0.031477730721235275, -0.007136302534490824, -0.10692571848630905, 0.03873347118496895, 0.03998325765132904, 0.07648210972547531, -0.07189834117889404, 0.008118625730276108, -0.01731698401272297, -0.0316622331738472, 0.009205727837979794, 0.009903723374009132, -0.06901814788579941, 0.09178031235933304, -0.03327641636133194, 0.009940402582287788, -0.08735010772943497, 0.06834583729505539, -0.04905803129076958, -0.01034035999327898, -0.06290577352046967, -0.004808490630239248, -0.04499359056353569, 0.004351282492280006, -0.023147379979491234, 0.009947745129466057, -0.010614301078021526, -0.07251524925231934, -0.027324745431542397, -0.06290921568870544, -0.030078770592808723, 0.00467925239354372, -0.010131198912858963, 0.012034095823764801, -0.008868600241839886, 0.0052569592371582985, -0.00826376210898161, 0.03697916492819786, -0.006539938505738974, -0.08713491261005402, 0.0060637337155640125, 0.07549188286066055, -0.03022858500480652, 0.020080989226698875, -0.07912081480026245, 0.020082704722881317, -0.011468203738331795, 0.0083975400775671], [-0.01195331197232008, -0.009385430254042149, 0.006498814094811678, -0.005379955284297466, 0.06097184494137764, -0.026928003877401352, -0.005897966679185629, -0.015308595262467861, 0.019593872129917145, 0.014942420646548271, 0.0208735391497612, -0.022353416308760643, 0.031255271285772324, -0.006420639809221029, 0.02392190881073475, -0.02618987113237381, 0.008086660876870155, -0.010807141661643982, -0.006430656183511019, -0.020532412454485893, -0.006004833150655031, -0.018126925453543663, 0.01122521422803402, 0.013656399212777615, -0.0055864290334284306, -0.006113839335739613, -0.042311545461416245, -0.015348483808338642, 0.013428336940705776, -0.021115360781550407, -0.013840097934007645, -0.02342127449810505, 0.005870136432349682, -0.011026933789253235, 0.040897149592638016, -0.06243537366390228, 0.010174334049224854, -0.0056787352077662945, 0.02962520718574524, 0.016921838745474815, 0.026195630431175232, -0.01222947333008051, 0.013927577063441277, -0.022931963205337524, 0.04115351662039757, 0.017878003418445587, -0.016548175364732742, -0.011226831935346127, 0.011922708712518215, -0.021299416199326515, 0.020278679206967354, 0.011940053664147854, 0.025803035125136375, 0.060016509145498276, 0.014541193842887878, 0.010337432846426964, 0.007199258077889681, 0.017377516254782677, 0.015666374936699867, -0.023331228643655777, 0.01982826367020607, 0.010745547711849213, 0.01354946754872799, -0.005315839778631926, -0.009335541166365147, -0.03565668314695358, 0.005862915888428688, -0.015650438144803047, -0.026019003242254257, -0.01653861254453659, -0.02253352664411068, -0.028362980112433434, -0.032106902450323105, -0.022694934159517288, 0.022642912343144417, -0.015165381133556366, 0.023929573595523834, -0.014643454924225807, 0.013445693999528885, -0.019843250513076782, 0.014154830016195774, 0.005496628116816282, 0.017057018354535103, -0.05759597569704056, -0.05824880674481392, -0.02818903885781765, 0.022537754848599434, -0.02514606900513172, 0.014158128760755062, 0.005227984860539436, -0.06195366010069847, -0.018611637875437737, 0.06078294292092323, -0.0281678494066, 0.007201724220067263, -0.014212989248335361, 0.024300746619701385, -0.011121154762804508, 0.01738804392516613, 0.013415397144854069, 0.013349838554859161, 0.00608192989602685, 0.01732533983886242, -0.010665942914783955, 0.0058665806427598, -0.00738255400210619, 0.011404830031096935, 0.016505755484104156, 0.01121685840189457, 0.008881393820047379, 0.018636738881468773, -0.029400913044810295, 0.013134625740349293, -0.010640369728207588, 0.006834076251834631, -0.006936897989362478, 0.0133745688945055, -0.015056667849421501, 0.0306593906134367, 0.012328973039984703, -0.007725881412625313, -0.01984284818172455, 0.00963518861681223, -0.027068063616752625, 0.01548855658620596, -0.0056084576062858105, 0.02190505899488926, -0.047908708453178406], [1.3833324601364438e-06, 8.29241344035836e-06, -9.562065315549262e-06, 1.0307536513209925e-06, -7.107864803401753e-07, 2.8467411539168097e-06, 1.597291998223227e-06, 2.1712166926590726e-06, -2.533066094656533e-07, -9.754950042406563e-06, -1.9590322608564747e-06, -1.41624838079224e-07, -3.459891502188839e-07, 8.418808761234686e-07, -1.6518017673661234e-06, -5.761588681707508e-07, -3.3335236366838217e-06, 3.778228006012796e-07, 2.2092450535637909e-07, -4.1671816575217235e-07, 1.34284789510275e-07, 1.991540102608269e-06, -2.8320644105406245e-06, -5.184763722354546e-06, 6.961849521758268e-06, 2.163562612622627e-06, 3.2040561563917436e-06, -5.121894446347142e-07, 1.292115143769479e-07, 1.0227021220998722e-06, 9.611487257643603e-06, 1.1254899163759546e-06, -7.388297035504365e-06, 1.111461870095809e-06, -6.573776545337751e-07, 2.841214381987811e-06, -2.2904387151356786e-06, 6.545739779539872e-06, -1.0348206842536456e-06, -3.0445751235674834e-06, 1.8750839103631733e-07, 1.6605185919615906e-06, 3.6121114987963665e-08, 6.781656338716857e-07, -1.0190383363806177e-06, -1.0816269195856876e-06, -6.021827516633493e-07, 2.4929070150392363e-06, 4.499229930843285e-07, 8.807581366454542e-07, -4.1270936890214216e-07, -1.1413333567134032e-07, -2.670864205356338e-06, -3.3472526865807595e-06, -1.3571177078119945e-05, -2.5982787974498933e-06, -2.5380134047736647e-06, -2.698074208495882e-09, -5.06767037222744e-06, 1.5340981462941272e-06, -2.6411864837427856e-06, -2.8520621526695322e-06, -1.0980202205246314e-06, 7.376563189609442e-06, -4.1868833022817853e-07, -1.0541327100099807e-07, 7.777527954999641e-09, 1.6876535937626613e-06, 5.691700607712846e-06, 6.522535841213539e-06, 2.0052284526173025e-06, 7.931304679686946e-08, 4.206312496535247e-06, 1.6226094885496423e-06, -4.1425570884712215e-07, 5.535264335776446e-07, -5.183399593988725e-07, 1.8420396941110084e-07, -2.0001641587441554e-06, 3.033098039395554e-07, -1.042809685714019e-06, -2.6720908863353543e-06, -4.0404845691455193e-08, 1.8638431811268674e-06, -1.5405728959194676e-07, 1.7317917127002147e-06, -2.2756105408916483e-06, 2.9869870559195988e-06, -8.150965186359826e-06, -5.764505317529256e-07, -3.109628892161709e-07, 6.087269866839051e-06, -2.5513588752801297e-07, 3.6961941987101454e-06, -5.735659669880988e-06, 5.463776233227691e-06, -5.981258937026723e-07, 1.0704725355026312e-06, -1.4759446003154153e-06, -4.685377462010365e-06, -9.91072283795802e-06, -2.1327912236301927e-06, -5.965940090391086e-06, 1.8335550748815876e-06, -2.4852092792571057e-06, 1.0351873243052978e-06, -5.474945282912813e-06, -1.392338049299724e-06, -7.009436558291782e-06, -5.557595841310103e-07, -2.4158833866749774e-07, 7.2393745540466625e-06, -3.3620826798141934e-06, 2.8338768061075825e-06, 7.126584478100995e-07, 3.4384813716314966e-06, -9.159169167105574e-06, -4.015432182313816e-07, -6.01015653955983e-06, -4.8004762902564835e-06, 1.0023860340879764e-05, 5.343071279639844e-06, -2.7621756544249365e-06, 3.450097210588865e-06, -2.431016127957264e-06, 2.1060263861727435e-06, -4.373329829832073e-06, -9.068136819223582e-08], [4.628066562872846e-06, 2.050079956461559e-06, -7.3262181103928015e-06, 1.6809134422146599e-06, -5.114428404340288e-06, 2.1862483663426246e-06, 2.361712176934816e-06, 2.8899548851768486e-06, -1.5013639313110616e-05, -2.080091917378013e-06, -1.4932288650015835e-06, -1.4701227257774008e-07, -1.357628434561775e-06, -5.768561095464975e-07, -5.8210869013919364e-08, 3.8623825275863055e-06, -5.50108052266296e-06, 4.709345830633538e-06, 1.375328906760842e-06, 2.685971821847488e-06, -2.2884739792061737e-07, 2.8424078664102126e-06, -4.642326530301943e-06, 2.5724449415065465e-07, 4.625783731171396e-06, 1.4364115941134514e-06, -1.476932141031284e-07, 1.0419825002827565e-06, -2.7491446417116094e-06, 3.471025138424011e-06, 6.241380106075667e-06, 5.305276772560319e-06, -5.015383521822514e-06, 5.4785728025308345e-06, -5.056063514530251e-07, -4.1407002271398596e-08, -3.759823528071138e-07, 1.020679718521933e-07, -7.225435751934128e-07, -1.1803959978351486e-06, -4.193913355265977e-06, 2.713861931624706e-06, 3.774932810785003e-09, 4.388583874970209e-06, -1.7923098312166985e-06, -2.421724275336601e-06, 1.8025932035925507e-07, 5.423589755082503e-06, 7.43686854320913e-08, 3.4036293072858825e-06, -3.842689238808816e-06, -7.756742093079083e-07, -4.009703843621537e-06, -4.6258045927061175e-07, -9.616853276384063e-06, -7.427088348777033e-07, -1.2908243434139877e-06, -8.772394153311325e-07, 4.57428825484385e-07, 1.4204206308932044e-06, 2.402592258476943e-07, -5.740164397138869e-06, -1.5720521560069756e-06, 7.50285016692942e-06, 1.302542727898981e-06, 6.471285018960771e-07, -1.2462855920603033e-06, 4.271595571481157e-06, 6.974357802391751e-06, 6.19059574091807e-06, 2.9255213576107053e-06, -3.6517042190098437e-07, 1.0484926633580471e-06, 6.440071160795924e-07, -4.384020485304063e-06, 5.876319733033597e-07, -3.6672684018412838e-06, 2.049832573902677e-06, -4.800689112016698e-06, 7.76078650233103e-06, 2.401077665581397e-07, -4.359604190540267e-06, 4.822508117285906e-07, 2.9099317089276155e-06, 8.467818588542286e-07, 1.0217961516900687e-06, -5.232742751104524e-06, 9.381894869875396e-07, -1.760867718303416e-07, -7.474547601304948e-06, 7.522838245677121e-07, -2.0520074883734196e-07, -2.410324213997228e-06, 4.228530542604858e-06, 2.428110406071937e-07, 1.6684086858731462e-06, -3.5627947454486275e-06, 1.5075012242959929e-06, -6.297823347267695e-06, -2.515037294870126e-06, -4.343150067143142e-06, -7.35947469365783e-06, 7.52434573314531e-07, 7.342521257669432e-06, -4.081789029442007e-06, 6.394314823410241e-06, -1.954626213773736e-06, 7.382689091173233e-07, -3.0873873129166896e-06, -2.377246119067422e-06, -1.0004493560700212e-05, 3.520825202940614e-06, -2.7291930564388167e-06, -4.523447927340385e-08, 4.994168648408959e-06, 4.01594343202305e-06, -6.0524102991621476e-06, 4.33363311458379e-06, -3.4315564789721975e-06, -2.609481271065306e-07, 2.017590759351151e-06, 3.018692780187848e-07, -1.1207687293790514e-06, -1.390663917355539e-09, 1.0777135912576341e-06, -4.048446271553985e-07, -3.852639565593563e-06, 8.673855518281925e-07], [1.7648584389462485e-06, 3.6291069136495935e-06, -8.383924978261348e-06, -7.209434897959e-07, -5.107348215460661e-07, 3.15156512442627e-06, 3.5002483400603523e-07, 9.647578735894058e-06, -4.6998417246868485e-07, -4.8304723350156564e-06, 2.1933561811238178e-07, 1.8667417407414177e-06, -4.091873506695265e-07, 7.585599632875528e-07, 3.898462352935894e-07, 5.090668764751172e-06, 1.9920115335025912e-07, 8.023066584428307e-06, 6.280910383793525e-06, 4.41554220742546e-07, 6.06853973295074e-07, 1.8677343405215652e-06, -2.0464933641051175e-06, -3.920100425602868e-06, 2.5071801701415097e-06, -8.344186994690972e-07, 6.610717719013337e-06, 7.755718797852751e-06, -1.1162654800500604e-07, -2.352252153059453e-07, -9.662177546942985e-08, 2.848516714948346e-06, -8.687520676176064e-07, 2.453448132655467e-06, -4.1890402258104587e-07, 3.832100901490776e-06, -4.459775126974819e-08, 2.5611973342165584e-06, -2.205714963565697e-06, -1.5544422637958633e-07, -6.185840902617201e-06, 2.0409613625815837e-06, -1.8973101134633907e-07, 5.57988096261397e-06, -4.099057377970894e-07, -3.406723863008665e-06, 6.813426352891838e-06, 8.127404953484074e-07, 9.926906159307691e-07, 3.182688601555128e-07, -2.4574496819695923e-06, -2.795711679937085e-06, -1.0029230907093734e-05, 4.824801180802751e-07, 4.30222780778422e-06, 2.6583009571368166e-07, -1.8593701724967104e-06, -3.3584046832402237e-06, -1.2372205446808948e-06, 5.808691412312328e-07, -4.306720882141235e-07, -7.529068625444779e-06, -7.614325454596838e-07, 6.9278407863748726e-06, 1.8870571238949196e-06, 2.4828154892020393e-06, -6.548335022671381e-06, 3.6180299503030255e-06, 4.5434006779032643e-07, 7.246702580232522e-07, 8.430040452367393e-07, 1.8156499663746217e-06, 4.871670284956053e-07, 1.952347020051093e-06, -3.7445993257279042e-06, 8.857351531332824e-06, -8.202909157262184e-06, 2.9853484306840983e-07, -7.638795068487525e-06, 6.717914857290452e-06, -8.824016504149768e-07, -7.772414392093197e-06, -2.4023047444643453e-06, 5.675827651430154e-06, 1.1400729817978572e-06, 1.6964602309599286e-06, -8.763755431573372e-06, 5.956387667538365e-06, -3.8392158785427455e-07, -6.433267571992474e-07, 3.9830098330639885e-07, 2.1689770619559567e-06, -3.878252755384892e-06, 2.5631427433836507e-06, 7.346031338784087e-07, 4.04313186663785e-06, -3.0408041311602574e-06, 3.65092000720324e-06, -2.99911221190996e-06, -9.456003340346797e-07, -3.296817794762319e-06, -9.88915235211607e-06, -6.4335376919189e-06, 1.6314738786604721e-06, -1.935974523803452e-06, 7.866978194215335e-06, -4.87424767925404e-06, -8.067904104791523e-07, -2.896717887779232e-06, -9.792453283807845e-07, -1.6920610335091624e-07, 8.52430446229846e-07, 3.4148186500715383e-07, 1.1647828159766505e-06, -3.2574964734521927e-06, 8.569439160055481e-06, -5.250164122116985e-06, -4.792014465238026e-07, -5.306211278366391e-06, -2.0900129129586276e-06, 2.164188344977447e-06, 1.94645122064685e-06, -1.090091245714575e-06, 2.297566425113473e-06, 4.2228668917232426e-07, 7.993308827280998e-06, -4.144538365835615e-07, 2.0324903289292706e-06], [-1.5445262135926896e-07, 1.9072610939474544e-06, -7.56862073103548e-06, 5.957843995929579e-07, -6.108295565354638e-06, 1.7097229374485323e-06, 7.066093075991375e-06, 1.74122965290735e-06, 1.9781460025569686e-08, -4.398652038162254e-07, -5.5613263612031005e-06, 5.995947276460356e-07, -2.257155074403272e-06, 2.0431322411695874e-07, -2.4316680082847597e-06, 8.396032740165538e-07, -7.149111752369208e-06, 1.0179137461818755e-06, 3.735404732196912e-07, 1.0889373243117006e-06, 2.2941014776733937e-06, -3.3812409583333647e-07, 4.627002425650062e-08, -6.3316974774352275e-06, 2.8388542432367103e-06, 2.3237946606968762e-06, 1.7807766425903537e-06, 1.3939875316282269e-06, -8.400035085287527e-07, 1.3887960221836693e-06, 1.9339129266882082e-06, 1.0445208317833021e-05, -3.3747380712156883e-06, 2.296263943435406e-07, -1.6050368003561744e-06, -4.329110083745036e-07, -1.9445772068138467e-06, 9.839577614911832e-06, -6.189181931404164e-06, -8.292509079410593e-08, 3.650399662546988e-07, 7.6152055044076405e-06, -6.122726290413993e-07, 1.0960216059174854e-06, -2.3623956622031983e-06, -2.8998483685427345e-06, 1.0217555427516345e-05, 3.3447231544414535e-06, -1.0874261533899698e-05, 2.1930900402367115e-06, 2.2589820503071678e-07, -1.6126633681778912e-06, -3.4299237086088397e-06, -1.9431490727583878e-07, -3.839646524284035e-06, -6.056630354578374e-06, -3.909992756234715e-07, -1.2262449899935746e-07, -1.1870451288586992e-07, 7.972693083502236e-07, -3.1786694876245747e-07, 3.547408766735316e-07, 2.5251813440263504e-07, -2.639110441293724e-08, 8.042391073104227e-07, 4.223737505526515e-06, -6.7599980866361875e-06, 5.107899596623611e-07, -1.9973692033659063e-08, 4.982471637049457e-06, 1.570835024722328e-06, 4.15551369314926e-07, 1.9748995327972807e-06, 1.9286112546978984e-06, -2.121138777511078e-06, -8.731134926165396e-08, 8.652473866277433e-07, 1.8046024479190237e-06, 7.256020353452186e-07, 2.9557729703810764e-06, -6.780841431464069e-06, -5.894659352634335e-06, -1.524850063105987e-06, 1.7032000414474169e-06, 1.2928475712215004e-07, 1.501272492987482e-07, -8.411392968810105e-07, 6.760561063856585e-06, -5.571795554715209e-06, -2.95889640256064e-06, 7.86144028097624e-07, 1.1836303315249097e-07, -1.5505310102525982e-06, 2.6935757091450796e-07, -2.574805193944485e-06, -5.514440317710978e-07, -2.6706479729909915e-06, 2.2279368749877904e-06, 1.597377718098869e-06, -6.578094371434418e-07, -6.390887961060798e-07, -2.5749724841261923e-07, -2.603529537736904e-06, 3.178221732014208e-06, -9.279000551032368e-06, 1.4182482743763103e-07, -3.7997767776687397e-06, -3.68197902389511e-06, -4.982181053492241e-06, -6.720056830999965e-07, -6.021220997354249e-07, 4.707957941718632e-06, -2.6445961793797323e-06, 1.0414253210910829e-06, -1.764161243045237e-05, -6.909826311130018e-07, -4.8422598410979845e-06, 3.0578723908547545e-06, 1.791034662801394e-07, -3.1435413916369725e-07, 8.196017006412148e-06, 4.126102339796489e-06, -1.8974149043060606e-06, 2.8984202344872756e-06, -6.32793353361194e-06, 8.482532393827569e-06, -9.997232837122283e-07, 5.461753289637272e-07], [5.1051365517196245e-06, 4.890344371233368e-06, -1.196664379676804e-05, -6.372719241198865e-08, -1.6229720358751365e-06, 7.258727805492526e-07, 3.6736523725267034e-06, 3.040835281353793e-06, -4.0302350612364535e-07, -7.86904274718836e-06, -1.5749583326396532e-06, 1.4543170436809305e-06, -1.0874831559704035e-06, 4.783645408679149e-07, -1.2697719284915365e-06, 5.7052201185570084e-08, -4.0368431086790224e-07, 3.826934062090004e-06, 2.094722276524408e-06, 4.453548626770498e-06, 3.5388375181355514e-06, 2.3868167318141786e-06, -1.1407598776713712e-06, -3.604586254368769e-06, 3.005154667334864e-06, 5.679440846506623e-07, 1.248799617314944e-05, 2.032440715993289e-05, -6.653463628936152e-07, -1.0386480653323815e-07, 3.5410373584454646e-06, 4.032810068110848e-07, 3.366530449966376e-07, 2.480571993146441e-06, -5.059765726400656e-07, 2.673566541488981e-06, -4.281765086489031e-06, 2.3132881779019954e-06, -3.0239709758461686e-06, -1.235292529599974e-06, -2.908848500737804e-06, 1.5446591987711145e-06, 1.393492681245334e-07, 5.006002538721077e-06, -1.8432415345159825e-06, 4.278284109204833e-07, 5.829149358760333e-07, 3.566336772564682e-06, -3.897368515026756e-06, 3.030059360753512e-06, -5.746597935285536e-07, -1.9168740550412622e-07, -5.734446403948823e-06, -4.08831601816928e-06, -2.57097326539224e-06, -1.328442493786497e-07, -4.888649982603965e-07, -2.219406269432511e-06, -2.8992808438488282e-06, 2.5174674647132633e-06, -2.0676316125900485e-06, -9.10156813915819e-06, -9.453255188418552e-06, 7.528913101850776e-06, 3.5601092349679675e-06, 3.4496840726205846e-06, 3.9945172147781705e-07, 2.417159748802078e-06, 1.923096988321049e-06, 3.824391569651198e-06, 5.242209226707928e-07, 4.0606516904517775e-07, 2.8123849915573373e-07, 5.23937842444866e-07, -2.418309748009051e-07, 1.4915204701537732e-05, -5.244927706371527e-06, 5.127866415932658e-07, -9.35553453018656e-06, 2.7468393000162905e-06, -1.1323992112011183e-05, -2.325430386918015e-06, -8.974915317594423e-07, 2.8981564810237614e-06, 9.090513799492328e-07, 9.149987363343826e-07, -1.4642860151070636e-06, -7.931915888548247e-07, -3.3267005505877023e-07, -4.045016339659924e-06, -1.2621974576632056e-07, 2.0754528122779448e-06, -3.203774099347356e-07, 2.9028756216575857e-06, -1.7862804497781326e-06, -1.2151116379754967e-07, -1.677916657172318e-06, 1.990034434129484e-06, -6.376374699357257e-07, -4.209840426483424e-06, -4.315823389333673e-06, -5.673016403306974e-06, 1.1763379603735302e-07, 3.3783639992179815e-06, 5.556684072871576e-07, 1.7810368717618985e-06, -1.762646490988118e-07, -8.815449632493255e-07, -8.38701453176327e-06, -5.384625183069147e-06, -5.171359134692466e-06, 1.3310396980159567e-06, -3.3026419714587973e-06, 2.2118078959465493e-06, -1.785462700354401e-05, 4.533053925115382e-06, -5.144964688952314e-06, 8.375622201128863e-06, -2.6079868575834553e-07, -1.0927378752967343e-06, 2.7955188670603093e-06, 1.067372636498476e-06, -3.693921371450415e-06, 1.2538394003058784e-06, -3.324223371237167e-06, 3.371441380295437e-06, -7.948401616886258e-06, 2.581577291493886e-06], [-0.023490561172366142, -0.006276645697653294, 0.006357803009450436, -0.03985099866986275, 0.0004955696640536189, -0.005559211131185293, -0.04137064889073372, -0.007159689906984568, 0.037788275629282, 0.0038385505322366953, 0.0005348289851099253, -0.0014092540368437767, 4.402152626425959e-06, -0.03364737331867218, 0.001946783042512834, -0.03063717670738697, 0.016202470287680626, -0.04502838850021362, -0.0011270727263763547, -0.0002104980667354539, -0.04713239520788193, -0.0027253534644842148, 0.021206045523285866, 0.029477138072252274, -0.03857608139514923, -0.0030675679445266724, -0.028659652918577194, -0.00835948996245861, 0.002723729470744729, -0.0016785761108621955, -0.01973038725554943, -0.033679038286209106, 0.014639599248766899, -0.02390817366540432, 0.0019393570255488157, -0.0004597222141455859, 0.002570623066276312, -0.022663723677396774, 0.0008821844821795821, 0.006779290270060301, 0.0010899055050686002, -0.024656565859913826, 0.0015904399333521724, -0.0011929393513128161, 0.001730029471218586, 0.004993680398911238, -0.007116972468793392, -0.03448744863271713, 0.04485910013318062, -0.004546037875115871, 0.02325928770005703, 0.0012199421180412173, 0.043861135840415955, 0.0007867403328418732, 0.03786585479974747, 0.021964795887470245, 3.4358650736976415e-05, 0.0012473691022023559, 0.0455436035990715, -0.0009017791016958654, 7.796042336849496e-05, 0.007713285740464926, 0.029662974178791046, -0.04463890567421913, -0.0009291755850426853, -0.027701448649168015, 0.03520798310637474, -0.004201503470540047, -0.013936215080320835, -0.0370626337826252, -0.001780236605554819, -0.001467021880671382, -0.003551042638719082, -0.0009467012132517993, 0.0025858450680971146, -0.042080242186784744, 0.02197621576488018, -0.0003237820928916335, 0.0203099362552166, -0.0025621186941862106, 0.006734061520546675, 0.04182465001940727, 0.0042109708301723, -0.004415008705109358, -0.00036910735070705414, -0.001992015866562724, 0.003027692437171936, -0.007097592111676931, 0.0003586905659176409, 0.0436355285346508, -0.0009383444557897747, -0.03087560646235943, 0.0011852397583425045, -0.004411492496728897, 1.4571285646525212e-05, -0.023741280660033226, 0.0018761975225061178, -0.000847415707539767, 0.03222863748669624, 0.023883357644081116, 0.04047957435250282, 0.01940595917403698, 0.033594630658626556, -0.03160468116402626, 0.01951613277196884, -0.004065847489982843, 0.03148796781897545, 0.0024376169312745333, 0.01776239275932312, 0.0015850155614316463, 0.03680030256509781, -0.03728461638092995, 0.04368668794631958, -0.0015779705718159676, 0.05138297379016876, -0.020705776289105415, 0.03311924636363983, -0.022654736414551735, 0.005024260375648737, 0.0017494254279881716, -0.03317616879940033, -0.0001289001666009426, 0.03142297640442848, -0.007144632749259472, 0.018143462017178535, -0.020513689145445824, 0.03895211219787598, -0.0006851864163763821], [0.014325788244605064, 0.015997229143977165, -0.027804972603917122, 0.012705091387033463, -0.07039050757884979, 0.02243773452937603, 0.0062695336528122425, 0.015099081210792065, -0.02933039329946041, -0.012108154594898224, -0.016135646030306816, 0.02681441232562065, -0.06577087193727493, 0.01330674160271883, -0.016992857679724693, 0.00602054875344038, -0.015913311392068863, 0.006379616912454367, 0.01387499738484621, 0.040079012513160706, 0.006232820451259613, 0.05913524329662323, -0.030835306271910667, -0.016357745975255966, 0.00590155366808176, 0.006403922103345394, 0.04025443270802498, 0.01702914759516716, -0.012851805426180363, 0.010238016955554485, 0.020235983654856682, 0.006903644651174545, -0.007081160321831703, 0.03291564807295799, -0.05468612164258957, 0.06821607798337936, -0.0458759181201458, 0.005931312683969736, -0.06338287889957428, -0.008612774312496185, -0.030740266665816307, 0.019390879198908806, -0.01233959011733532, 0.014342473819851875, -0.013185304589569569, -0.014814802445471287, 0.006586009170860052, 0.005963526200503111, -0.012431430630385876, 0.018516920506954193, -0.015517346560955048, -0.06280761957168579, -0.021134858950972557, -0.07405247539281845, -0.005690723191946745, -0.0307355634868145, -0.07228731364011765, -0.08396171033382416, -0.007433116901665926, 0.03243913874030113, -0.008508504368364811, -0.030582433566451073, -0.006938794162124395, 0.02425701729953289, 0.0693177729845047, 0.027404457330703735, -0.005890008993446827, 0.07412165403366089, 0.02999010868370533, 0.017225991934537888, 0.010152563452720642, 0.01775418594479561, 0.044123172760009766, 0.017528539523482323, -0.009307396598160267, 0.006048270035535097, -0.01163506880402565, 0.012186015956103802, -0.015929367393255234, 0.015250448137521744, -0.018525784835219383, -0.010096347890794277, -0.08005839586257935, 0.018984241411089897, 0.07515673339366913, 0.07683704793453217, -0.007053500507026911, 0.010488537140190601, -0.01794484443962574, -0.009602565318346024, 0.08254344016313553, 0.013763525523245335, -0.07245592027902603, 0.05027052387595177, -0.014316744171082973, 0.0312679298222065, -0.016059767454862595, 0.008561297319829464, -0.006313803605735302, -0.007060378324240446, -0.009297315031290054, -0.03420630842447281, -0.013364982791244984, 0.008996503427624702, -0.023163162171840668, 0.006752642337232828, -0.011102038435637951, -0.07135150581598282, -0.007821323350071907, -0.04094693809747696, -0.021058188751339912, 0.024993054568767548, -0.017396531999111176, 0.03799545764923096, -0.011900014244019985, 0.024670105427503586, -0.01250859908759594, 0.016693376004695892, -0.021198667585849762, -0.02229621447622776, 0.01409849151968956, 0.023639125749468803, -0.009577699936926365, 0.019078124314546585, -0.01659032329916954, 0.005790153983980417, -0.007081713993102312, 0.017227785661816597], [0.0004212397907394916, 8.12526632216759e-05, -0.00039205930079333484, 0.0009940695017576218, -0.0005577943520620465, 0.0012745736166834831, 0.00047629870823584497, 0.0004993437323719263, -0.00111382978502661, -0.00017895731434691697, -0.00055686105042696, 0.00023353748838417232, -0.00014001841191202402, 0.0005076283123344183, -2.9683693355764262e-05, 0.00020154504454694688, -0.0005429458105936646, 0.0008357205078937113, 2.48832020588452e-05, 0.00010719916463131085, 0.00031424604821950197, 0.00010801367898238823, -0.0001639792462810874, -0.0005800006329081953, 0.00037744874134659767, 0.0001268645137315616, 0.0010962546803057194, 6.975430733291432e-05, -0.00015544620691798627, 0.0002982456935569644, 0.0007253189687617123, 0.00017909990856423974, -0.00015815590450074524, 0.0002822293317876756, -6.751535693183541e-05, 0.0002636349818203598, -0.0007080265204422176, 0.0006916792481206357, -2.0349818441900425e-05, -0.0004468012193683535, -0.0003507789224386215, 0.00035775883588939905, -0.0001649373007239774, 0.0002564318128861487, -0.0014772888971492648, -0.00050221016863361, 0.00022106112737674266, 0.0008269661921076477, -0.00025601484230719507, 0.00018857121176552027, -0.00035381404450163245, -0.0008229822269640863, -0.0004191175976302475, -0.00018714825273491442, -0.0009913049871101975, -0.0002517825923860073, -0.0009961259784176946, -0.0001742492604535073, -0.0013053207658231258, 6.688058056170121e-05, -3.382009526831098e-05, -0.0001848109532147646, -0.00021675575408153236, 0.000464587559690699, 0.00028114806627854705, 0.00041857585893012583, -0.00023113025235943496, 0.0004542306996881962, 0.0004661966231651604, 0.0002282846107846126, 0.0009492870303802192, 0.0003382971917744726, 0.00022446336515713483, 0.0006894242251291871, -0.00015278685896191746, 2.398823880866985e-06, -0.00017459833179600537, 0.000717961578629911, -0.00029954672208987176, 8.029642231122125e-06, -0.0002004185225814581, -0.0003028222417924553, -7.601528341183439e-05, 0.0002092209761030972, 6.227989069884643e-05, 4.4761629396816716e-05, -0.00030369983869604766, 0.0007202756823971868, -0.0001756654673954472, -0.001785061787813902, 0.0002717966854106635, 0.00026555100339464843, -0.0001103325339499861, 0.0001351850078208372, -0.0002599400468170643, 0.0004801811883226037, -0.00036642543273046613, 0.0004444774822331965, -0.00037464857450686395, -0.00010053841833723709, -5.006923311157152e-05, -0.0006059120642021298, -5.459310341393575e-05, 0.0004135569033678621, -0.0003035672998521477, 0.0002009671734413132, -0.00019466702360659838, -3.515918433549814e-05, -8.668762347951997e-06, -3.4827877243515104e-05, -0.0006087806541472673, 0.0005093021900393069, -0.00021642370847985148, 0.0005467096343636513, -0.00023797573521733284, 0.0003212488372810185, -0.000949687382671982, 0.0001433455036021769, -0.00038003665395081043, -0.0001881059433799237, 3.0619614790339256e-06, 2.4609920728835277e-05, -8.146148502419237e-06, 0.0002585224574431777, -0.00012789964966941625, 4.917043770547025e-05, -0.0002789610007312149, 0.0001695338578429073], [0.07721348851919174, 0.07367651164531708, -0.06750229746103287, 0.05851113796234131, -0.07322897762060165, 0.07558248937129974, 0.06660161912441254, 0.08610882610082626, -0.06927188485860825, -0.0693477913737297, -0.022665461525321007, 0.07586827874183655, -0.02079545333981514, 0.07708194851875305, -0.08043132722377777, 0.07067151367664337, -0.06614726781845093, 0.03539533540606499, 0.05371766909956932, 0.06709285080432892, 0.02193080075085163, 0.06794524192810059, -0.08088666200637817, -0.07530544698238373, 0.07395291328430176, 0.07198761403560638, 0.04015909135341644, 0.07889081537723541, -0.053919341415166855, 0.06585992127656937, 0.016606314107775688, 0.05479031056165695, -0.044553834944963455, 0.07439680397510529, -0.06645770370960236, 0.03350263088941574, -0.05857608839869499, 0.07577379792928696, -0.07263209670782089, -0.07305533438920975, -0.06686025857925415, 0.07049036026000977, -0.058700185269117355, 0.06142295524477959, -0.012314485386013985, -0.07969983667135239, 0.07512331008911133, 0.022453133016824722, -0.0720093622803688, 0.08104380965232849, -0.08156275749206543, -0.05734236165881157, -0.014768769964575768, -0.04286181554198265, -0.05788327008485794, -0.07937993109226227, -0.0061639901250600815, -0.04046964272856712, -0.08858788013458252, 0.0714489296078682, -0.08471120893955231, -0.029631590470671654, -0.0579383559525013, 0.027883820235729218, 0.06098797544836998, 0.07380754500627518, -0.0325324609875679, 0.06931453943252563, 0.08240263909101486, 0.06335505098104477, 0.0674755871295929, 0.06923970580101013, 0.06856116652488708, 0.0649881437420845, -0.0613744743168354, 0.06310932338237762, -0.07689284533262253, 0.009749891236424446, -0.060623541474342346, 0.01667415164411068, -0.06752794981002808, -0.07374593615531921, -0.04664922505617142, 0.058033134788274765, 0.03375038877129555, 0.05391881987452507, -0.07365354895591736, 0.07703816145658493, -0.08104117959737778, -0.021307416260242462, 0.035579096525907516, 0.039993297308683395, -0.054255783557891846, 0.016566962003707886, -0.07445817440748215, 0.07050679624080658, -0.07309385389089584, 0.05256010591983795, -0.066800057888031, -0.0816020593047142, -0.06885255873203278, -0.0756743922829628, -0.014845939353108406, 0.07615146785974503, -0.0633845254778862, 0.0733707845211029, -0.05978301167488098, -0.017952756956219673, -0.006791197694838047, -0.056915342807769775, -0.07989624887704849, 0.06237558275461197, -0.0695391520857811, 0.007303751539438963, -0.00541428430005908, 0.019323080778121948, -0.06591570377349854, 0.013032401911914349, -0.07454364746809006, -0.03357730060815811, 0.08047055453062057, 0.06391096860170364, -0.0763840451836586, 0.07544548064470291, -0.08613964915275574, 0.0736546665430069, -0.0823172926902771, 0.05993303284049034], [0.005832219030708075, 0.07778562605381012, -0.005667892284691334, 0.023313524201512337, -0.04599180445075035, 0.00626422418281436, 0.005838644225150347, 0.01194083783775568, -0.011015853844583035, -0.026697469875216484, -0.02657783403992653, 0.08798793703317642, -0.04863465577363968, 0.042788490653038025, -0.013376055285334587, 0.02687820792198181, -0.01607096754014492, 0.015735086053609848, 0.045858703553676605, 0.04713821038603783, 0.03811128810048103, 0.06595269590616226, -0.015258935280144215, -0.011035026982426643, 0.011998657137155533, 0.01063679438084364, 0.04072212055325508, 0.01236761175096035, -0.018908118829131126, 0.021672595292329788, 0.028841737657785416, 0.03248359635472298, -0.01886613480746746, 0.022363783791661263, -0.012249702587723732, 0.050684861838817596, -0.04561041668057442, 0.021684614941477776, -0.06475712358951569, -0.03013794869184494, -0.030186565592885017, 0.00646137073636055, -0.06785114109516144, 0.05495651438832283, -0.04618754982948303, -0.02744271047413349, 0.0064210109412670135, 0.0058030434884130955, -0.014063702896237373, 0.008948889560997486, -0.022897988557815552, -0.01730450987815857, -0.02338925376534462, -0.06839530169963837, -0.005279894918203354, -0.006616990081965923, -0.08323812484741211, -0.0066713253036141396, -0.015273273922502995, 0.030514314770698547, -0.016433503478765488, -0.03274375945329666, -0.02279839478433132, 0.012339484877884388, 0.007598667871206999, 0.03330722823739052, -0.01157526858150959, 0.025898607447743416, 0.0170818530023098, 0.006396867334842682, 0.07269851863384247, 0.010868379846215248, 0.01582692563533783, 0.03291807323694229, -0.03531644865870476, 0.02600952237844467, -0.032768335193395615, 0.05950350686907768, -0.0051181744784116745, 0.025294184684753418, -0.013600029982626438, -0.008551723323762417, -0.012549018487334251, 0.008302743546664715, 0.012108555994927883, 0.040399543941020966, -0.02035662904381752, 0.020685311406850815, -0.03141343221068382, -0.005403787363320589, 0.06838681548833847, 0.006708966568112373, -0.010700177401304245, 0.021974701434373856, -0.016008302569389343, 0.013062366284430027, -0.013380389660596848, 0.04700450226664543, -0.010450116358697414, -0.011497012339532375, -0.01542444434016943, -0.034355998039245605, -0.03191889449954033, 0.016924776136875153, -0.0065929782576859, 0.016051188111305237, -0.009842295199632645, -0.07501044124364853, -0.007763155270367861, -0.07735025137662888, -0.006748342886567116, 0.030604343861341476, -0.005351677071303129, 0.07819417864084244, -0.013823190703988075, 0.015937143936753273, -0.006366971880197525, 0.06074877083301544, -0.009987803176045418, -0.009589619934558868, 0.015575398690998554, 0.00956568494439125, -0.03919960558414459, 0.007793494500219822, -0.01873653382062912, 0.012732024304568768, -0.015330993570387363, 0.09300121665000916], [-1.7706961443764158e-06, -4.122321115573868e-06, 4.4925300812792557e-07, -3.940572241845075e-07, 1.173220994132862e-06, -1.0882912704346381e-07, -8.077185157162603e-06, -2.5817969344643643e-06, 3.0339640488818986e-06, 4.902915861748625e-06, -2.198309800860443e-07, -1.5421022681039176e-06, 4.970042937202379e-07, -4.372806415631203e-06, -9.918553089960369e-09, -4.7034527597134e-06, 8.879414053808432e-06, -4.823749577553826e-07, -1.6582119997110567e-06, -1.1866294471474248e-06, 3.2355380596982286e-08, -2.8256495170353446e-06, 9.742566362547223e-07, -6.803730911997263e-07, -5.063642447566963e-07, -5.744467216572957e-06, 1.334601506641775e-06, -1.757798236212693e-05, 2.2002721866698494e-09, 1.0519892157390132e-07, -6.936651857358811e-07, -6.4627274696249515e-06, 5.174156740395119e-06, -3.959237801609561e-06, 1.26106954212446e-06, -9.712987321108812e-07, 6.243159873520199e-07, -2.091661826852942e-06, 7.052178716548951e-06, 4.247221113473643e-06, 5.276655429042876e-06, -3.312595254101325e-06, 1.4411577922146535e-06, -3.5709051644516876e-06, 9.664892104410683e-07, 2.3302810348013736e-07, -1.1592716191444197e-06, -1.3099561328999698e-06, 3.874882565924054e-07, -1.840769954242205e-07, 5.418719410954509e-06, 1.3178663493818021e-06, 2.2366792507000355e-07, 3.845889864351193e-07, 6.931124971742975e-06, -8.264395319201867e-07, 1.4221928950064466e-06, 4.567020823742496e-06, -8.061658007818551e-08, -7.365666760961176e-07, 2.242874415969709e-06, 6.922777174622752e-06, 7.690439360885648e-07, -4.336111032898771e-06, -3.9258017636711884e-07, -1.931648057507118e-06, -4.382142378744902e-06, -1.255647475773003e-06, -6.362988642649725e-06, 3.155223637918425e-08, -4.753699727189087e-07, -4.6598452740909124e-07, -2.4234225293184863e-06, -1.4001562931298395e-06, 1.168801077255921e-06, -2.875193786167074e-06, 1.1136913826703676e-06, -1.1834332553917193e-06, 2.3853122002037708e-06, -3.9069259401003364e-06, -5.972672738607798e-07, 3.375776259417762e-06, 1.9277088085800642e-06, -2.981689931402798e-06, 2.9238021781452517e-08, -7.873450869055887e-08, 2.008721139645786e-06, -8.106922564365959e-07, 5.492612672242103e-06, 9.5929153758334e-06, -2.133702537321369e-06, -2.5252743398596067e-06, 4.517257366387639e-06, -8.365591952497198e-07, 3.7381050788098946e-06, -4.199374416202772e-06, -6.136309025350783e-07, -2.450017291266704e-07, 6.414617928385269e-06, -3.152009071527573e-07, -6.53751968116012e-08, 4.6654315610794583e-07, 1.4512403367916704e-06, -1.4528690144288703e-06, 3.655596287899243e-07, -5.097193479741691e-06, 1.650467766012298e-06, 3.588929303077748e-06, -9.314995708109564e-08, 1.5444721839230624e-06, -4.499612202835124e-07, -2.0402974598709989e-07, 1.8792677565215854e-06, -3.2509127834146057e-08, 2.381590093136765e-06, -4.704840193880955e-06, 5.184243491385132e-06, -4.179368715995224e-06, 4.431163233675761e-06, 1.8197073359260685e-06, -4.737425115308724e-06, -3.3445022040723416e-07, 9.309979759564158e-06, -4.6211689550546e-06, 2.21175895376291e-07, -2.2420795176003594e-06, 9.558410738463863e-07, -2.563592147453164e-07], [0.0761856809258461, 0.007915720343589783, -0.016387535259127617, 0.067020945250988, -0.009342898614704609, 0.07614247500896454, 0.027724405750632286, 0.021713193506002426, -0.013326833955943584, -0.008276951499283314, -0.03540894761681557, 0.015321619808673859, -0.015114327892661095, 0.008631337434053421, -0.08282352983951569, 0.06446334719657898, -0.07475652545690536, 0.01894283853471279, 0.05819260701537132, 0.042978253215551376, 0.07008388638496399, 0.011837807483971119, -0.07602018862962723, -0.010242982767522335, 0.0736289992928505, 0.07450420409440994, 0.009602352045476437, 0.00945078581571579, -0.060423195362091064, 0.07028862088918686, 0.07555244863033295, 0.018473053351044655, -0.0717523843050003, 0.011440199799835682, -0.07311813533306122, 0.042385321110486984, -0.06454803794622421, 0.054470982402563095, -0.007042705547064543, -0.07583723962306976, -0.029973043128848076, 0.009314636699855328, -0.06791762262582779, 0.06653420627117157, -0.010458973236382008, -0.08091671764850616, 0.009266531094908714, 0.048115093261003494, -0.07654912024736404, 0.012406128458678722, -0.08345608413219452, -0.021964292973279953, -0.07633178681135178, -0.03456318378448486, -0.0506850928068161, -0.08120124787092209, -0.04793976619839668, -0.05531355366110802, -0.0872214064002037, 0.05847739055752754, -0.011484859511256218, -0.03927329555153847, -0.07690323889255524, 0.06204395368695259, 0.06832941621541977, 0.008212536573410034, -0.05976055562496185, 0.0748913362622261, 0.009287428110837936, 0.07212284952402115, 0.013101712800562382, 0.01065589115023613, 0.04592607915401459, 0.06739585101604462, -0.06668812036514282, 0.060618553310632706, -0.01863200031220913, 0.0435313880443573, -0.060924556106328964, 0.07653594762086868, -0.0664072036743164, -0.07386434823274612, -0.009243510663509369, 0.009353185072541237, 0.05005459114909172, 0.06090526655316353, -0.07213018834590912, 0.00874955952167511, -0.009093629196286201, -0.04609118402004242, 0.046881984919309616, 0.07591046392917633, -0.06213849037885666, 0.07056432217359543, -0.07518799602985382, 0.06510321795940399, -0.07840592414140701, 0.060973916202783585, -0.0665416419506073, -0.04379710555076599, -0.010194890201091766, -0.07990609109401703, -0.03227014094591141, 0.015528262592852116, -0.06601215898990631, 0.00900715310126543, -0.06806137412786484, -0.06302967667579651, -0.06976284086704254, -0.06711641699075699, -0.00863535888493061, 0.02800244651734829, -0.0682952031493187, 0.05379379540681839, -0.06175750121474266, 0.04086105898022652, -0.06485416740179062, 0.07108359038829803, -0.07834237813949585, -0.010701783932745457, 0.06272520124912262, 0.019982321187853813, -0.012440584599971771, 0.07557101547718048, -0.08518096804618835, 0.07182774692773819, -0.028511356562376022, 0.06883824616670609], [-1.0611592188070063e-05, -1.690532371867448e-06, 1.4030896636541001e-05, -4.409372422742308e-07, 2.1315677258826327e-06, -2.013093308050884e-06, -2.6410077680338873e-06, -1.788239933375735e-05, 1.7903312254929915e-05, 4.591120614350075e-06, 3.929414560843725e-06, -7.293313501577359e-06, 1.510184233666223e-06, -2.2587241801375058e-06, 2.641823812155053e-06, -4.497557256399887e-06, 2.2166834241943434e-05, -1.8056764020002447e-05, -2.8816971280321013e-06, -2.444681740598753e-06, -1.4903084775141906e-05, -2.1369423848227598e-06, 4.068975613336079e-06, 8.98216967470944e-06, -4.5286833483260125e-06, -3.645974402388674e-06, -2.236689397250302e-06, -7.348970484599704e-06, 7.653003194718622e-06, -7.638219358341303e-06, -1.44617051773821e-05, -2.3743202746118186e-06, 4.387149147078162e-06, -2.3038537619868293e-05, 6.846525479886623e-07, -9.21695573197212e-06, 9.778191270015668e-06, -2.369604999330477e-06, 9.934414038070827e-07, 3.3964650469897606e-07, 1.5999635252228472e-06, -1.1017961696779821e-05, 5.325664005795261e-06, -4.6991499402793124e-06, 4.2447223336239404e-07, 7.50571280150325e-06, -9.379247785545886e-06, -9.078631592274178e-06, 2.34384169743862e-05, -1.074390638677869e-05, 2.341324034205172e-06, -6.604282987154875e-08, 6.240863967832411e-06, 5.60249873160501e-07, 3.657965498859994e-05, 2.240122285002144e-06, 2.436883278278401e-06, 1.1415575499995612e-05, 2.3261623027792666e-06, -5.618900104309432e-06, 1.3766596566711087e-05, 3.5223911254433915e-06, 1.950948717421852e-05, -3.5009809380426304e-06, -9.857960321824066e-06, -2.4471895812894218e-05, 1.105330102291191e-05, -2.649936277521192e-06, -5.766144113295013e-06, -1.638151388760889e-06, -3.6602691579901148e-06, -3.5772534374700626e-06, -4.882554094365332e-06, -2.698353966934519e-07, 4.2531455619609915e-06, -3.9356549677904695e-05, 2.252039485028945e-05, -5.210147264733678e-06, 3.343888693052577e-06, -4.246889602654846e-06, 1.4108047253102995e-05, 5.754526682721917e-06, 2.7656972179102013e-06, -6.6943507590622175e-06, -2.325681407455704e-06, -1.3830227771904902e-06, 7.016854851826793e-06, -2.273417294418323e-06, 1.3298659723659512e-05, 1.5255713151418604e-05, -7.412108971038833e-06, -4.13954330724664e-06, 8.29336295282701e-06, -5.013012469134992e-06, 3.5784362353297183e-06, -1.4754241419723257e-05, 2.2343201635521837e-06, -8.216389687731862e-06, 2.2536773030878976e-05, 1.8509908841224387e-05, 1.1477696716610808e-05, 7.926299076643772e-06, 4.5807712467649253e-07, -1.5608844478265382e-05, 4.0541413000028115e-06, -6.432483587559545e-06, 2.0442206732695922e-05, 2.0111308458581334e-06, 6.7760593083221465e-06, 1.6411044271080755e-05, 7.858577191655058e-06, -5.558192697208142e-06, 1.259083546756301e-06, -1.9245042039983673e-06, 2.1264270344545366e-06, -1.3173968000046443e-05, 5.428119493444683e-06, -1.3794082406093366e-05, 8.871580092773002e-08, 1.094371100407443e-06, -5.937179139436921e-06, -3.942594503314467e-06, 3.0757471449760487e-06, -1.9812728169199545e-06, 1.1736283340724185e-06, -4.187154900137102e-06, 2.2205806089914404e-05, -4.296575752960052e-06], [0.06572812795639038, 0.029911722987890244, -0.008108807727694511, 0.05821598321199417, -0.015486135147511959, 0.06493798643350601, 0.060733452439308167, 0.06059977784752846, -0.005406622309237719, -0.06651362031698227, -0.02268735133111477, 0.01967070810496807, -0.017625316977500916, 0.069623202085495, -0.0063069709576666355, 0.06615450233221054, -0.07223136723041534, 0.03881864249706268, 0.06232338771224022, 0.06565556675195694, 0.005510240327566862, 0.06433837115764618, -0.0057947151362895966, -0.05616282671689987, 0.004892497323453426, 0.06554795801639557, 0.02022441290318966, 0.026186581701040268, -0.05878514051437378, 0.06687543541193008, 0.07137732952833176, 0.02240292727947235, -0.02901962772011757, 0.0573127381503582, -0.06721897423267365, 0.010694611817598343, -0.07426118850708008, 0.06338078528642654, -0.012396780773997307, -0.06868326663970947, -0.06816799938678741, 0.06148719787597656, -0.00905962847173214, 0.019946590065956116, -0.07273989915847778, -0.07409974932670593, 0.012714715674519539, 0.00852236058562994, -0.005275684874504805, 0.031773101538419724, -0.016153492033481598, -0.050092678517103195, -0.006418040953576565, -0.041201040148735046, -0.051615603268146515, -0.05828787386417389, -0.0645943433046341, -0.05383932217955589, -0.011318515986204147, 0.06971808522939682, -0.07858511060476303, -0.028186829760670662, -0.00493587227538228, 0.010776231065392494, 0.06991597265005112, 0.01954137161374092, -0.011530900374054909, 0.0208835918456316, 0.07208700478076935, 0.0668208971619606, 0.048674050718545914, 0.02533069998025894, 0.038838159292936325, 0.070389024913311, -0.06334543228149414, 0.028976764529943466, -0.013653934001922607, 0.045766815543174744, -0.055092137306928635, 0.07403405755758286, -0.011895266361534595, -0.007973688654601574, -0.013451721519231796, 0.07258590310811996, 0.00859629362821579, 0.06319829821586609, -0.051806963980197906, 0.02116689458489418, -0.02683507464826107, -0.004720231518149376, 0.040161121636629105, 0.01816961169242859, -0.05880677327513695, 0.07349531352519989, -0.06892891228199005, 0.06560985743999481, -0.036780599504709244, 0.05686439573764801, -0.008984213694930077, -0.01289833802729845, -0.0053611816838383675, -0.0715436339378357, -0.06192246451973915, 0.04711303114891052, -0.05878305062651634, 0.02713703364133835, -0.0629030093550682, -0.06430679559707642, -0.0129365473985672, -0.007782869040966034, -0.011560997925698757, 0.004930755589157343, -0.021635206416249275, 0.03665474057197571, -0.014921601861715317, 0.013253983110189438, -0.06967143714427948, 0.06636956334114075, -0.0726994127035141, -0.051743440330028534, 0.005680733360350132, 0.0680549219250679, -0.07087297737598419, 0.007210409268736839, -0.07407437264919281, 0.061897821724414825, -0.009892705827951431, 0.07135748118162155], [-0.006868524011224508, -0.021782714873552322, 0.052484944462776184, -0.05287652462720871, 0.015133612789213657, -0.0410853773355484, -0.054851360619068146, -0.008326321840286255, 0.05623002350330353, 0.033482711762189865, 0.00012420637358445674, -0.016909228637814522, 0.0012475806288421154, -0.019246302545070648, 0.03373973071575165, -0.04884442687034607, 0.040747128427028656, -0.060610491782426834, -0.0011817739577963948, -0.022267524152994156, -0.059828754514455795, -0.029787153005599976, 0.04848656430840492, 0.009746093302965164, -0.04789883643388748, -0.037530750036239624, -0.03585246205329895, -0.05951749533414841, 0.0005596928531304002, -0.0008819429203867912, -0.0063337828032672405, -0.05085776373744011, 0.012013348750770092, -0.045932017266750336, 0.0008943781140260398, -0.0024743361864238977, 0.021638639271259308, -0.018233858048915863, 0.02197650820016861, 0.02633764035999775, 0.02525251731276512, -0.051496535539627075, 0.0011575109092518687, -0.00048700044862926006, 0.001467490685172379, 0.021175583824515343, -0.01047784648835659, -0.055803317576646805, 0.06294240057468414, -0.03240819275379181, 0.046582117676734924, 0.0028287882450968027, 0.04676496982574463, 0.001237229211255908, 0.04974336177110672, 0.04762349650263786, 0.015434598550200462, 0.0023009376600384712, 0.061567869037389755, -0.01948951743543148, 0.034195009618997574, 0.04059311002492905, 0.053196731954813004, -0.05344080179929733, -0.008151121437549591, -0.04428460821509361, 0.054506272077560425, -0.007212709169834852, -0.008408813737332821, -0.05518202856183052, -0.0014499766984954476, -0.008026945404708385, -0.020916279405355453, -0.013638108968734741, 0.009233900345861912, -0.05357907712459564, 0.014582561329007149, -0.0042470586486160755, 0.01003856398165226, -0.023336118087172508, 0.060490138828754425, 0.053763020783662796, 0.01754116080701351, -0.023265885189175606, -0.00019199453527107835, -0.0012737468350678682, 0.032152220606803894, -0.05895472690463066, 0.028312360867857933, 0.054508816450834274, -0.0011489959433674812, -0.030019057914614677, 0.0024588441010564566, -0.002721301279962063, 0.02731476165354252, -0.04197640344500542, 0.023577526211738586, -0.0041297790594398975, 0.02861478552222252, 0.03845496103167534, 0.052694171667099, 0.04127790778875351, 0.008099494501948357, -0.05276428908109665, 0.040302444249391556, -0.04189032316207886, 0.04665495827794075, 0.004725221078842878, 0.05334613472223282, 0.0028779918793588877, 0.05307275056838989, -0.05205891281366348, 0.05363817140460014, -0.0043961647897958755, 0.05841892212629318, -0.043001603335142136, 0.04919637367129326, -0.043012991547584534, 0.005371781066060066, 0.005092734470963478, -0.05448826402425766, -0.0023531049955636263, 0.04939395189285278, -0.031702324748039246, 0.04332989454269409, -0.014716784469783306, 0.0638824999332428, -0.00045351419248618186], [3.2696525522624142e-06, 2.110504055963247e-06, -3.659196590888314e-05, 1.1073453606513795e-05, -2.0810775822610594e-06, 2.5128274501184933e-05, 1.418639385519782e-05, 8.831317973090336e-05, -4.141866156714968e-06, -3.48282337654382e-05, -1.2627409887500107e-05, 7.795362762408331e-05, -2.5995880150730954e-06, 0.0001139706073445268, -6.291217232501367e-06, 7.172367531893542e-06, -7.274932613654528e-06, 2.154614048777148e-05, 7.929149319352291e-07, 5.9036021411884576e-05, 3.4274285098945256e-07, 3.979492248618044e-06, -2.3050599338603206e-05, -4.811297912965529e-06, 1.1425928278185893e-05, 5.0005445473289e-07, 2.4360009774682112e-05, 1.8121749235433526e-05, -2.432493147352943e-06, 6.310006483545294e-06, 1.670775600359775e-05, 4.5664204662898555e-05, -8.27525946078822e-06, 3.6726530083797115e-07, -7.172744972194778e-06, 4.741192242363468e-06, -7.991881830093917e-06, 2.696291994652711e-05, -1.3408299309958238e-05, -1.4967038623581175e-05, -1.412814299328602e-06, 4.0120735320670065e-06, -9.470987606619019e-06, 7.307835858227918e-06, -6.09525113759446e-06, -5.154160135134589e-06, 0.0001004097648547031, 7.320719305425882e-05, -1.8745628040051088e-05, 1.9914145923394244e-06, -1.6984756712190574e-06, -4.7005782107589766e-05, -1.5681109289289452e-05, -1.8039840142591856e-05, -5.0458158511901274e-05, -7.522778469137847e-05, -6.132830458227545e-05, -8.095310590761073e-07, -9.684906217444222e-06, 6.121517799329013e-05, -2.1751113308710046e-05, -1.9591372620197944e-05, -5.767405127699021e-06, 3.001521690748632e-05, 6.506425052066334e-06, 1.6276064798148582e-06, -7.413039838866098e-06, 4.860890840063803e-06, 6.78778305882588e-05, 1.2461142432584893e-05, 4.952059498464223e-06, 4.5907499952591024e-06, 7.333444955293089e-06, 8.840462442094577e-07, -1.4980934793129563e-05, 1.1595994919844088e-06, -4.28953135269694e-05, 2.4878565909602912e-06, -9.745607712829951e-06, 6.540213234984549e-06, -3.9508449845016e-05, -2.7593419872573577e-05, -1.6739928469178267e-05, 3.823748556897044e-05, 4.315061232773587e-06, 1.29011377794086e-05, -3.358075628057122e-05, 3.914301032637013e-06, -3.467189526418224e-05, -1.3015060176257975e-05, 1.184606026072288e-05, 2.16328462556703e-05, -1.5423647710122168e-05, 6.540177309943829e-06, -1.0023800314229447e-05, 2.2195807105163112e-05, -7.8522759849875e-07, 3.0281194995041005e-05, -4.651731615012977e-06, -2.7837745619763155e-07, -3.0472110665868968e-05, -6.847931945230812e-05, -1.045512362907175e-06, 1.322409025306115e-05, -4.7364505007863045e-05, 5.446459908853285e-06, -7.220523548312485e-05, -3.1919953471515328e-06, -6.387344183167443e-05, -9.822351785260253e-06, -2.5165822080452926e-05, 6.581468187505379e-05, -1.971249184862245e-05, 8.378765983252379e-07, -2.205140481237322e-05, 2.2784530301578343e-05, -3.8685593608533964e-05, 2.9549020837293938e-05, -4.994837581762113e-06, -5.275640887703048e-06, 3.930017101083649e-06, 6.584740731341299e-06, -9.472666533838492e-06, 3.955930515076034e-05, -1.8678825654205866e-05, 6.324042715277756e-06, -1.7271708202315494e-05, 3.4484877687646076e-05], [5.324569883669028e-06, 2.3939858238009037e-06, -5.063618573331041e-06, 3.861908226099331e-06, -1.6156441233761143e-06, 1.1162012924614828e-05, 1.1468720913399011e-05, 3.819533048954327e-06, -4.342859028838575e-06, -3.3922676720976597e-06, -3.088788616878446e-06, 9.257059332412609e-07, -5.197502559894929e-06, 7.522544819948962e-06, -1.964907141882577e-06, 7.215427558548981e-06, -4.788984369952232e-06, 9.06885998119833e-06, -3.793779228544736e-07, 7.373523089881928e-07, 2.831453230101033e-06, 3.4899860565928975e-06, -1.0045322596852202e-05, -5.589889042312279e-06, 3.6643066323449602e-06, 2.095724767059437e-06, 4.115158844797406e-06, 9.732188118505292e-06, -3.265127816121094e-06, 4.624353096005507e-06, 9.991249498852994e-06, 9.314506314694881e-06, -8.431110813944542e-07, 6.257836048462195e-06, -2.3785632947692648e-06, 5.956872882961761e-06, -1.3040155408816645e-06, 5.369690825318685e-06, -1.3092692370264558e-06, -9.307361779065104e-07, -4.269503733667079e-06, 1.836748378991615e-05, -2.9058577410978614e-07, 3.1831409614824224e-06, -2.2601450382353505e-06, -8.097653335426003e-06, 2.894667886721436e-06, 1.2909820725326426e-05, -1.736926151352236e-06, 3.1544293506158283e-06, -5.777955266239587e-06, -5.2702557695738506e-06, -4.628710939869052e-06, -1.430575139238499e-06, -1.7411130102118477e-05, -4.570174951368244e-06, -1.7741720057529164e-06, -7.595668876092532e-07, -6.38204892311478e-06, 3.778155360123492e-06, -7.783092996760388e-07, -1.1149832971568685e-05, 3.299936963685468e-07, 4.130823526793392e-06, 3.994497092207894e-06, 1.178665115730837e-05, -1.6121839507832192e-05, 4.772238298755838e-06, 4.121113761357265e-06, 1.6173267795238644e-05, 2.574663540144684e-06, 4.572375019051833e-06, 1.7939240706255077e-06, 3.178371571266325e-06, -3.471920763331582e-06, 2.6983032512362115e-05, -6.380772447300842e-06, 2.9943671506771352e-06, -6.745600330759771e-06, 2.7238213533564704e-06, -2.9149923648219556e-06, -1.2591377753778943e-06, 1.6456709772683098e-07, 9.978729167414713e-07, 1.0479482170921983e-06, 3.9585652302776e-06, -6.385197593772318e-06, 4.915285899187438e-06, -3.1134707114688354e-06, -9.00521899893647e-06, 2.332704070795444e-06, 5.8880445976683404e-06, -3.1311751627072226e-06, 1.761222392815398e-06, -9.067318387678824e-06, 8.899625640879094e-07, -2.553107378844288e-06, 1.8191923345511896e-06, -3.527405397107941e-06, -1.2887773664260749e-05, -4.737014478450874e-06, -1.8043937188849668e-06, -1.5855192032177e-05, 1.3028758303335053e-06, -3.413498916415847e-06, -1.4131988734789047e-07, -2.2229362457437674e-06, -3.339666363899596e-06, -5.499323833646486e-06, -2.996284138134797e-06, 5.141304200151353e-07, 2.4211269646912115e-06, -6.770650315957027e-07, 5.536369826586451e-06, -1.7463342373957857e-05, 7.338457635341911e-06, -3.023305225724471e-06, 2.4783828393992735e-06, -3.874700723827118e-06, -2.9284910851856694e-06, 3.78944537260395e-06, 2.2128413093014387e-06, -9.35632942855591e-06, 5.876823706785217e-06, -4.819070909434231e-06, 2.3717859676253283e-06, -5.8552886912366375e-06, 4.2936247268698935e-07], [4.70372469862923e-07, 2.4095443222904578e-05, -9.080559539142996e-05, 5.309145853971131e-05, -5.62417262699455e-05, 0.00020600415882654488, 0.00017979176482185721, 0.00014964817091822624, -5.565115498029627e-05, -7.170937806222355e-06, -1.3705302990274504e-05, 2.1954652765998617e-05, -3.277775249443948e-05, 0.00010199898679275066, -5.722311107092537e-05, 1.2762142432620749e-05, -0.00024301555822603405, 5.7359804486623034e-05, 5.486129794007866e-06, 1.4297267625806853e-05, 2.090354246320203e-05, 2.2611453459830955e-05, -0.00017446299898438156, -1.2553026863315608e-05, 0.0001527968852315098, 1.4640225742823532e-07, 2.4520586521248333e-05, 3.0214605430956e-05, -1.534880357212387e-05, 3.184015804436058e-05, 1.963798604265321e-05, 0.00017512054182589054, -3.080935130128637e-05, 2.80825929621642e-06, -2.6143419518120936e-07, 1.8610217011882924e-05, -2.5741677745827474e-05, 2.312502147105988e-05, -5.406834588939091e-06, -2.4869783374015242e-05, -6.744905363120779e-07, 0.00013350507651921362, -2.4075774490484037e-05, 4.666664608521387e-06, -8.530598279321566e-05, -7.027566607575864e-05, 1.3619002857012674e-05, 0.00026235179393552244, -2.1309346266207285e-05, 1.2080416126991622e-05, -1.8771070244838484e-05, -3.680951522255782e-06, -6.740477692801505e-05, -1.435935337212868e-05, -4.529531452135416e-06, -1.050048740580678e-05, -2.3511940526077524e-05, -4.94633313792292e-05, -2.1583571651717648e-05, 2.7419988327892497e-05, -1.5184421499725431e-05, -0.00016562007658649236, -0.00013473050785250962, 3.3346957934554666e-05, 4.813223495148122e-05, 0.00011875823111040518, -0.00014977794489823282, 7.863058272050694e-06, 1.4766717868042178e-05, 0.000145622921991162, 1.2691482879745308e-05, 0.0001131673197960481, 5.923911521676928e-05, 1.1432625797169749e-05, -1.4484376151813194e-05, 2.547105395933613e-06, -3.034531073353719e-05, 3.277258429079666e-06, -4.3435738916741684e-05, 0.0001799112360458821, -1.8790485682984581e-06, -2.871037031582091e-05, -2.7663467335514724e-05, 2.468856291670818e-05, 2.268474236188922e-05, 8.532671245120582e-07, -9.76202773017576e-06, 3.685739648062736e-05, -1.8465088942321017e-05, -1.9170458472217433e-05, 7.1025948273018e-05, 0.00012884073657914996, -2.229694109701086e-05, 9.96204762486741e-05, -1.2918223546876106e-05, 3.538836381267174e-06, -3.684729745145887e-05, 4.7579709644196555e-05, -0.0001393217098666355, -3.8498270441778004e-05, -1.2598683269970934e-06, -2.8955315428902395e-05, -8.439012890448794e-05, 2.4976036002044566e-05, -0.0002033341588685289, 0.00015659026394132525, -5.7462177210254595e-05, -1.4348795048135798e-05, -1.8288227465745877e-07, -1.2588800927915145e-05, -2.3404483727063052e-05, 2.4424201910733245e-05, -0.00017444448894821107, 1.4187113265506923e-05, -3.966955773648806e-05, 6.62443153487402e-06, -0.00031213994952850044, 1.6893776773940772e-05, -6.642939115408808e-05, -9.416348802915309e-06, 1.0407246918475721e-05, 5.182052973395912e-06, -3.68024266208522e-05, 6.165043032524409e-06, -1.0036095773102716e-05, 4.7158304369077086e-05, -2.6372634238214232e-05, 2.717345751079847e-06], [0.0010535846231505275, 0.0003517594886943698, -0.007870917208492756, 0.005321016535162926, -0.0008840776863507926, 0.004616112913936377, 0.006287116091698408, 0.0031970723066478968, -0.005282041151076555, -0.004044428467750549, -0.000659422017633915, 0.001025627483613789, -0.00048530378262512386, 0.004786426667124033, -0.0039000045508146286, 0.004530679900199175, -0.0035722723696380854, 0.005499984137713909, 0.0019356927368789911, 0.00044982624240219593, 0.006335171405225992, 0.0017333405558019876, -0.0028902310878038406, -0.004711788613349199, 0.004518959671258926, 0.0016392696416005492, 0.013025637716054916, 0.00660707987844944, -0.002177233574911952, 0.00010349633521400392, 0.003291861619800329, 0.004926069173961878, -0.002804455114528537, 0.0013405167264863849, -0.0010688714683055878, 0.0007293280214071274, -0.0014912380138412118, 0.003705431241542101, -0.0008051244076341391, -0.0015693497844040394, -0.002526042051613331, 0.005393813364207745, -0.001751040923409164, 0.0010055741295218468, -0.0011945804581046104, -0.0015168290119618177, 0.005824789870530367, 0.005134361796081066, -0.0053733037784695625, 0.0008033606573008001, -0.0020696045830845833, -0.0013387317303568125, -0.0038456341717392206, -0.0020365645177662373, -0.009709457866847515, -0.000951465277466923, -0.0038986352737993, -0.0016777489800006151, -0.0022264127619564533, 0.0006808695034123957, -0.0008343669469468296, -0.0029784615617245436, -0.003221213584765792, 0.008273753337562084, 0.0023356208112090826, 0.0016351696103811264, -0.008593033067882061, 0.0016907249810174108, 0.005024154670536518, 0.004020208027213812, 0.0005554220988415182, 0.001123305526562035, 0.0006442968733608723, 0.00016808930377010256, -0.0007118542562238872, 0.010630588978528976, -0.0025631433818489313, 0.0007410735124722123, -0.001536741852760315, 0.001201392151415348, -0.006928366143256426, -0.005238542333245277, -0.002276867162436247, 0.001537695643492043, 0.00022012414410710335, 7.68586978665553e-05, -0.0022278320975601673, 0.005168117582798004, -0.0016180890379473567, -0.007424366194754839, 0.0007652630447410047, 0.0016339612193405628, -0.0018505590269342065, 4.6599277993664145e-05, -0.0009864825988188386, 0.00403816532343626, -0.0009724239935167134, 0.0002262721973238513, -0.0037179267965257168, -0.004461846314370632, -0.011817218735814095, -0.0027433005161583424, -0.004781082272529602, 0.005003731697797775, -0.002888117451220751, 0.0007093035383149981, -0.0032215409446507692, -0.0003442129527684301, -0.0030374675989151, -0.0030354964546859264, -0.001872349064797163, 0.007753151934593916, -0.002893702359870076, 0.001732034725137055, -0.015529796481132507, 0.0038256109692156315, -0.0019768038764595985, 0.0020494558848440647, -0.00106415047775954, -0.000817060295958072, 0.005936047062277794, 0.0008761224453337491, -0.0021215903107076883, 0.001955911749973893, -0.0006235787877812982, 0.0026385958772152662, -0.0037713241763412952, 0.0012281070230528712], [-0.0004168837331235409, -0.0002432820328976959, 0.0002226019714726135, -0.0001110811426769942, 4.329051444074139e-05, -0.00021315783669706434, -0.00032815439044497907, -0.00015294499462470412, 0.00015159937902353704, 0.0013459707843139768, 0.0004909145645797253, -0.0005901987897232175, 2.9150327463867143e-05, -0.0011979173868894577, 0.0003946133656427264, -0.0005481759435497224, 0.0015813077334314585, -5.652555773849599e-05, -0.0023136448580771685, -3.3393829653505236e-05, -0.0008371345466002822, -0.0003213432210031897, 0.000265315524302423, 0.0011966475285589695, -0.0003606198006309569, -0.0001748425856931135, -0.0003522459592204541, -0.0013289876515045762, 7.179530803114176e-05, -0.00020025124831590801, -0.002668865257874131, -0.0005226579960435629, 3.545942672644742e-05, -6.474857218563557e-05, 0.0003497382567729801, -0.0003744509303942323, 9.100058377953246e-05, -0.00036778327194042504, 0.0004866734961979091, 0.0004057165642734617, 0.00017418561037629843, -9.286617569159716e-05, 0.00013976485934108496, -0.00015320729289669544, 0.00015996916044969112, 6.236845365492627e-05, -0.0017607257468625903, -1.1271428775216918e-05, 0.00041435338789597154, -0.0009033182868734002, 0.0002842340909410268, 1.4932712474546861e-05, 3.983778151450679e-05, 3.802687569987029e-05, 0.0014323730720207095, 0.00022426649229601026, 0.0010644452413544059, 0.0009252062882296741, 0.00022291929053608328, -1.8840011762222275e-05, 0.0007222474087029696, 0.0008365507237613201, 0.00016288692131638527, -9.414075611857697e-05, -0.00021769996965304017, -0.0012266492703929543, 0.0005480636609718204, -0.00012201584468130022, -2.4063230739557184e-05, -5.320894706528634e-05, -5.733119178330526e-05, -3.0409682949539274e-05, -0.0004815485735889524, -0.0012674323515966535, 0.0004516820190474391, -0.00043878777069039643, 0.0009407232282683253, -0.0006853528902865946, 0.0026476408820599318, -4.188924503978342e-05, 0.0002664653293322772, 0.00010773292160592973, 7.975356857059523e-05, -0.0019272664794698358, -0.000235675266594626, -0.0001470498536946252, 0.0003763770218938589, -0.00012506346683949232, 0.00010270605707773939, 0.0011155515676364303, -0.00022777658887207508, -0.0005096918321214616, 9.810442861635238e-05, -0.001033119740895927, 0.0009000383433885872, -2.3591665012645535e-05, 0.0004878911131527275, -0.00015574521967209876, 5.1463794079609215e-05, 2.257535743410699e-05, 0.0001202314961119555, 0.0007349681109189987, 0.0013708187034353614, -0.00028675716021098197, 0.000644490763079375, -0.00029536057263612747, 0.00017683798796497285, 0.0001915623142849654, 0.00039958363049663603, 8.41343353386037e-05, 0.00045435683568939567, -0.0011804030509665608, 0.0009457224514335394, -0.00048126783804036677, 1.775581040419638e-05, -0.0018927879864349961, 0.0011438666842877865, -6.793031207052991e-05, 0.000535853672772646, 0.00041708583012223244, -0.0009362251148559153, -0.0005188420182093978, 0.0017768243560567498, -8.8911248894874e-05, 0.00023208821949083358, -9.368541213916615e-05, 0.00032503646798431873, -0.00034768981277011335], [0.000745978846680373, 0.0009372539934702218, -0.0002984624297823757, 0.0004436533199623227, -0.00021688375272788107, 0.0015616839518770576, 3.195568933733739e-05, 0.00013238636893220246, -0.001956436550244689, -0.00022383927716873586, -5.584878090303391e-05, 6.954280979698524e-05, -0.000433907873230055, 0.0006843438604846597, -0.0001882536889752373, 0.00015971853281371295, -0.00036986242048442364, 0.0019294553203508258, 0.00010502748045837507, 0.0006106882938183844, 0.0031459329184144735, 6.528600351884961e-05, -0.0004546924901660532, -0.0001273749367101118, 0.0009051138185895979, 0.0006562198977917433, 0.00031984620727598667, 0.00013020231563132256, -0.00015187138342298567, 9.232875891029835e-05, 0.0006477706483565271, 0.000495254760608077, -0.0012692786986008286, 0.0018197537865489721, -4.276907930034213e-05, 0.000252686208114028, -4.377361619845033e-05, 0.0025135003961622715, -0.00022873216948937625, -0.00034143062657676637, -6.627919356105849e-05, 0.0015598858008161187, -0.0007028328254818916, 0.0004906785325147212, -0.0002372583985561505, -0.00014908028242643923, 0.0018820666009560227, 0.0010079477215185761, -0.0004779401933774352, 0.00032557660597376525, -6.941106403246522e-05, -0.0001559456140967086, -0.00011760466441046447, -0.0001119069493142888, -0.00013913391740061343, -0.002018468454480171, -0.0005901913973502815, -0.0012433493975549936, -1.535076262371149e-05, 0.0002474434731993824, -0.0003022262535523623, -0.00028831162489950657, -0.002970573492348194, 0.002579759107902646, 0.0009072335669770837, 0.000506180920638144, -0.001312438864260912, 0.00027844682335853577, 1.9905626686522737e-05, 0.00039177347207441926, 0.00019297850667499006, 9.397333633387461e-05, 0.00012907423661090434, 0.0007395428256131709, -0.0007015120936557651, 0.001638006535358727, -0.00024088197096716613, 5.705954390577972e-05, -0.0003867145860567689, 5.558631892199628e-05, -0.0004651684721466154, -0.001722905202768743, -0.00012524309568107128, 0.0006735942442901433, 0.0002886969596147537, 0.0005580133874900639, -7.287930930033326e-05, 0.00046863971510902047, -7.49950559111312e-05, -0.0005554757663048804, 0.00039863184792920947, 0.000362541526556015, -3.4605891414685175e-05, 0.000823838054202497, -0.0002284049551235512, 0.0016443767817690969, -6.56126721878536e-05, 0.0002026255097007379, -0.0004313605895731598, -0.00022360848379321396, -0.0002547592739574611, -0.001875804620794952, -0.0003891780215781182, 0.001622572191990912, -0.0013378424337133765, 0.00016230798792093992, -0.0037378256674855947, -0.0008271413389593363, -8.208776853280142e-05, -0.00013610733731184155, -0.0005156971164979041, 6.576172745553777e-05, -0.00038527592550963163, 8.245540084317327e-05, -0.0004065521352458745, 0.0012426070170477033, -0.0003408741031307727, 0.00030273079755716026, -0.0004848028183914721, -0.0001955524057848379, 0.0009073606343008578, 0.0001976171915885061, -0.0016354803228750825, 0.0008134816307574511, -0.00036436677328310907, 0.0001498856581747532, -2.540335299272556e-05, 0.0009166920790448785], [-0.00024377861700486392, -7.877000462030992e-05, 0.00027572273393161595, -0.0006062216125428677, 5.182354925636901e-06, -0.0005239286692813039, -0.00010101759835379198, -0.00016225059516727924, 4.3325282604200765e-05, 0.0003344484430272132, 0.0006210753927007318, -0.0003382325521670282, 0.00010016555461334065, -0.000397434487240389, 1.2150396287324838e-05, -0.000562898931093514, 0.00048710807459428906, -1.7758551621227525e-05, -0.0005165004404261708, -0.0005394839681684971, -0.0007358938455581665, -0.0006162564968690276, 4.782051837537438e-05, 3.6380519304657355e-05, -0.0003967082011513412, -8.066445298027247e-05, -0.0004222082789056003, -0.00011393980093998834, 0.00017196001135744154, -0.0001804387866286561, -3.099242894677445e-05, -0.0003046558704227209, 0.000230738238315098, -0.0003717089130077511, 0.0014036335051059723, -0.0003455394471529871, 0.00020295799185987562, -0.00024916866095736623, 0.0001306258054682985, 0.0008100746781565249, 0.00044655700912699103, -0.00020071578910574317, 0.00042958572157658637, -0.00024210772244259715, 0.00018549110973253846, 0.001025873119942844, -0.00036148991785012186, -0.00177981227170676, 0.000577498518396169, -2.0010254957014695e-05, 0.00021520123118534684, 0.0002638702862896025, 0.00013307914196047932, 2.6768399038701318e-05, 0.00015498761786147952, 9.613150905352086e-05, 0.00029244020697660744, 0.0004308034258428961, 0.00018480241124052554, -8.776375034358352e-05, 3.2468697099830024e-06, 0.0008596821571700275, 0.0005247819935902953, -0.00031308154575526714, -0.0004324586770962924, -0.00046773432404734194, 0.0005668716039508581, -0.00023347983369603753, -0.00022231208276934922, -4.210867700749077e-05, -5.2491683163680136e-05, -2.6423251256346703e-05, -0.00030959531432017684, -0.0001777529832907021, 0.0001370319805573672, -0.0006534286076202989, 0.000124208047054708, -0.0002720080956351012, 6.181730714160949e-05, -0.00022683534189127386, 0.00018807825108524412, 6.208426202647388e-05, 0.0001231902715517208, -0.0008217489230446517, -0.0001264397578779608, -0.00017132173525169492, 1.537026764708571e-05, -9.90457774605602e-05, 7.038992771413177e-05, 0.0015713450266048312, -0.00011479829117888585, -0.0002779286587610841, 0.0002539631968829781, -0.00037111653364263475, 2.786479853966739e-05, -0.0009527664515189826, 0.0001045264580170624, -8.527181489625946e-05, 4.3467774958116934e-05, 0.0013861929764971137, 1.170821542473277e-05, 0.0005837967619299889, 3.0840103136142716e-05, -3.82872749469243e-05, 0.0001192983690998517, -0.00012570468243211508, 0.0003457237617112696, 0.00027402921114116907, 0.00059192453045398, 0.0007832085248082876, 7.404183270409703e-05, -0.00012040526780765504, 0.0029682633467018604, -0.0001793816772988066, 0.0007144335540942848, -0.0005662074545398355, 0.0003506656503304839, -0.0006042053573764861, 9.39494275371544e-05, 0.00023261833121068776, -0.00020402067457325757, -0.00020909035811200738, 0.0017787046963348985, -0.0007947094272822142, 0.0008452325128018856, -0.0002433618501527235, 0.0007102898089215159, -5.153692836756818e-05], [-0.00048397877253592014, -0.00034150361898355186, 0.000298172963084653, -0.0004140131932217628, 0.0007491115829907358, -6.414519884856418e-05, -0.0009877844713628292, -0.00020489947928581387, 0.0004949241410940886, 0.0005030527827329934, 0.0003328787861391902, -0.00016803073231130838, 7.445721712429076e-05, -0.0004461409116629511, 0.0020521192345768213, -0.00015088428335729986, 0.0004665149317588657, -0.00020862773817498237, -0.00016560746007598937, -6.839242269052193e-05, -0.00018977814761456102, -0.0004420785408001393, 0.0009542332263663411, 0.0015336667420342565, -0.0009310018504038453, -0.0013574979966506362, -0.0006034169928170741, -0.0006775681395083666, 0.0004435459850355983, -0.0004616512742359191, -0.0004287123156245798, -0.00011316850577713922, 0.0009289744775742292, -0.00013417388254310936, 0.0002386991400271654, -0.00042049100738950074, 0.0006258414359763265, -0.00017734416178427637, 0.0006379041005857289, 0.000969508255366236, 0.0001108008436858654, -0.00029315281426534057, 5.318157036526827e-06, -0.0006416902178898454, 0.00039140728767961264, 0.0018023133743554354, -0.0009057821007445455, -0.00021170791296754032, 0.0003303310659248382, -1.1937563613173552e-05, 5.596124901785515e-05, 6.56025149510242e-05, 0.0009573319694027305, 0.00042720959754660726, 0.0009039196302182972, 0.00014459482918027788, 9.145282092504203e-05, 0.0008530048653483391, 0.00032859851489774883, -0.0005568554042838514, 0.0004647962632589042, 0.0010544186225160956, 0.0007994486950337887, -0.0009581089252606034, -0.0005047765444032848, -0.00040557311149314046, 8.198591240216047e-05, -0.0011815838515758514, -0.00030715353204868734, -0.0004756623529829085, -0.0004335517296567559, -0.0013205040013417602, -3.081642717006616e-05, -0.00042269050027243793, 1.565801903780084e-05, -0.0001367629156447947, 2.784017488011159e-05, -0.00032005831599235535, 0.00020168459741398692, -0.0003174527082592249, 0.0005542374565266073, 1.3903067156206816e-05, 7.412843115162104e-05, -0.0003388123004697263, -0.00021039863349869847, -3.454569014138542e-05, 0.0013434403808787465, -0.0013815159909427166, 0.000402197299990803, 0.00022174687182996422, -0.0007460218039341271, -9.754361235536635e-05, 0.00010372128599556163, -0.00042846929864026606, 0.0006221351795829833, -0.0004663256695494056, 0.00039280037162825465, -0.00017396385374013335, 0.000283705914625898, 1.6337948181899264e-05, 0.0015046034241095185, 0.0006116794538684189, 7.03092518961057e-05, -0.0022541964426636696, 0.00045568778296001256, -0.0014364792732521892, 0.0003567876119632274, 0.0003009177453350276, 0.00020720757311210036, 0.00020073959603905678, 0.0029399795457720757, -0.0019333141390234232, 0.00044493601308204234, -3.734851270564832e-05, 0.004574949387460947, -0.00017755663429852575, 0.000894402211997658, -0.00028820440638810396, 0.0008883178816176951, 0.00012790856999345124, -2.4835804651957005e-05, -0.00042176284478046, 0.0008699350873939693, -0.00013959212810732424, 0.00012082444300176576, -0.00021724427642766386, 0.00033348618308082223, -0.000917155179195106], [1.1820253575933748e-06, -6.077068519516615e-07, -1.0344658107896976e-07, -5.440273866952339e-07, -2.907392627093941e-06, 2.81813959190913e-06, -1.2596350984495075e-07, 1.136031499981982e-07, -4.534712388704065e-06, -1.0494866728549823e-05, -4.670857833843911e-06, 2.3371966051399795e-07, -9.402290288562654e-07, 3.4241977573401527e-06, -1.1740058702969236e-08, 5.210280846768001e-07, -7.5765306064567994e-06, 1.7418980178263155e-06, 2.670843741725548e-06, 2.0924223065321712e-07, 3.032171889572055e-06, 5.993151262373431e-06, -5.973791303404141e-06, -4.525920473952283e-07, 4.288754553272156e-06, 3.1624028906662716e-06, 4.439815711521078e-06, 8.162179256032687e-06, -5.107900733491988e-07, 1.1288799441899755e-06, 5.097603207104839e-06, 2.0000384211016353e-06, -1.3718018863073667e-06, -4.5208460619505786e-07, -1.1135774684589705e-06, 2.714676270443306e-07, -1.1748996939786593e-06, 2.1422595182229998e-06, -4.13262296206085e-06, -1.3496577366822748e-06, -2.2254359919315903e-06, 3.42182374879485e-06, -1.1260816563662956e-06, -2.900618767398555e-07, -2.5197086870321073e-06, -2.0119527732731513e-07, 8.191396773327142e-06, 8.212004104279913e-06, -1.600943733137683e-06, -2.44441594077216e-07, -2.5936938072845805e-06, 1.5003341502506373e-07, -3.687526486828574e-06, 1.4438482764944638e-07, -1.984414666367229e-06, -7.052277055663581e-07, -6.544739790115273e-07, -6.914463597240683e-07, -3.0949845495342743e-06, 6.678642421320546e-07, -7.613970751663146e-07, -3.7963432077958714e-06, -2.2454073587141465e-06, 1.8914242900791578e-06, 1.5959834627210512e-06, 8.968423571786843e-06, 5.169239557289984e-06, 4.937944595440058e-07, -2.2781364350521471e-07, 5.2783225328312255e-06, 1.4421165133171598e-06, 6.867608703942096e-07, 2.22773928726383e-06, 6.271858410400455e-07, -2.1777443635073723e-06, 1.713895471766591e-05, -5.552678430831293e-06, 1.326632286691165e-06, -3.815523996308912e-06, 4.0615550460643135e-06, -2.807164491969161e-07, -5.273653187032323e-06, -2.6003738184954273e-06, 1.6670942386554088e-06, 3.075792847084813e-07, 4.047799677664443e-07, -4.13382349506719e-06, 3.783797865253291e-06, -1.1067820651078364e-06, 6.911152183874947e-08, 3.1339350243797526e-06, 1.9890960629709298e-06, -1.7209669067597133e-06, 7.884360684329295e-07, -7.12408279923693e-07, 2.468890215823194e-06, -2.0616071196855046e-06, 4.286637533823523e-07, -6.916760867170524e-06, -2.4938669866969576e-06, -5.592631850959151e-07, -1.0033613762061577e-06, -1.3831980822942569e-06, 8.341415309587319e-07, -4.618071614004293e-07, 2.540511786719435e-06, 2.043991003120027e-07, -3.7942029393889243e-06, -6.152771447887062e-07, -9.398414135830535e-07, -1.4906053138474817e-06, 8.184536454791669e-06, -5.91492266721616e-07, 1.6608893247394008e-06, -1.9888029783032835e-05, -1.1594803339676218e-07, -9.964346645574551e-06, 1.5043762857658294e-07, -4.087239176442381e-06, -2.769717468709132e-07, 3.2404689136456e-06, 5.2940326895623e-06, -6.06671392233693e-06, 1.3003470940020634e-06, -5.143326688994421e-07, 4.3428605067674653e-07, -1.4548184026352828e-06, 2.4990633846755372e-06], [0.001710968092083931, 0.0004987645079381764, -0.00348675437271595, 0.00899236835539341, -0.003811273258179426, 0.0011163873132318258, 0.006604780908674002, 0.003146935487166047, -0.0019465397344902158, -0.002079133642837405, -0.0002820893132593483, 0.001325176446698606, -0.00025655716308392584, 0.0018294838955625892, -0.00044387171510607004, 0.0018339470261707902, -0.0046567306853830814, 0.0023734048008918762, 0.0005832301685586572, 0.003983318340033293, 0.013452684506773949, 0.004843558184802532, -0.0022235289216041565, -0.001005359459668398, 0.0009618887561373413, 0.0010460916673764586, 0.004454759880900383, 0.0004146778373979032, -0.001020063296891749, 0.0008087576716206968, 2.0566409148159437e-05, 0.0029857989866286516, -8.220632298616692e-05, 0.004695520270615816, -0.0007482329965569079, 0.00029528504819609225, -0.000995910493656993, 0.0023085991851985455, -0.0011274834396317601, -0.0006134665454737842, -0.004592547658830881, 0.003909987397491932, -0.00014726573135703802, 0.0004046160029247403, -0.0005928289028815925, -0.00032560215913690627, 0.0030909180641174316, 0.005562370643019676, -0.0009003872401081026, 0.0010643228888511658, -0.00391380675137043, -0.00014735285367351025, -0.002898057224228978, -0.00013554931501857936, -0.01704995334148407, -0.0006727886502631009, -0.000617199984844774, -0.0002083798754028976, -0.001535308314487338, 0.0028602152597159147, -0.000779017573222518, -0.003882801625877619, -0.0019310909556224942, 0.01919904723763466, 0.0008106722962111235, 7.828918023733422e-05, -0.0252702534198761, 0.0002893859054893255, 0.0012034469982609153, 0.002013635588809848, 8.788570994511247e-05, 0.0005474528879858553, 0.0013345284387469292, 0.00017279884195886552, -0.00012641878856811672, 0.009085644967854023, -0.0016889508115127683, 6.450567161664367e-05, -6.85221457388252e-05, 0.0007888711988925934, -0.016419662162661552, -0.003076224820688367, -0.0007231745403259993, 0.0002929942565970123, 0.0009530782699584961, 0.0011335067683830857, -0.0003391373611520976, 0.0021295438054949045, -0.0013585215201601386, -0.015345881693065166, 0.0003801387792918831, 0.0003561402263585478, -3.389274934306741e-05, 0.00037230548332445323, -0.0008520552073605359, 0.0013846639776602387, -0.0005478928796947002, 0.00011808526323875412, -0.0030458238907158375, -0.0007819085149094462, -0.006239363923668861, -0.00012106311623938382, -0.005914135370403528, 0.0016486551612615585, -0.0012759354431182146, 0.00019949214765802026, -0.0008328546537086368, -0.0006907358765602112, -0.0018441843567416072, -0.0003301620890852064, -0.0019589774310588837, 0.002731213578954339, -0.016629135236144066, 0.00027910011704079807, -0.00823210645467043, 0.0009368006722070277, -0.0027114516124129295, 0.007914938032627106, -0.0012981882318854332, -0.002203162759542465, 0.00026771705597639084, 6.737530929967761e-05, -0.001528725028038025, 0.004490920342504978, -0.000537012005224824, 0.0013186989817768335, -0.00023591448552906513, 0.0004501084331423044], [-4.195258497929899e-06, -2.1069820377306314e-06, 8.117031939036679e-06, -6.997623131610453e-06, -7.95078065607413e-08, -5.899673396925209e-06, -2.7866924483532785e-06, 7.226843194985122e-07, 2.0766366048974305e-07, 3.1585514648213575e-07, 1.7980104871639924e-07, -9.068058375305554e-07, 4.256964132309804e-07, -3.5051039048994426e-06, -1.3657246711318294e-07, 3.088483708779677e-07, 2.8574481802934315e-06, 3.667007035801362e-07, -5.782652579000569e-07, 5.628175472338626e-07, -1.7738774431563797e-06, -9.348663354558084e-08, 9.180353686133458e-07, 7.623393230460351e-06, -4.228200225497858e-07, -1.8783071027428377e-06, -5.903348778701911e-07, -4.1792231968429405e-06, -8.948656216034578e-08, -8.46136956056398e-08, 3.300835871300478e-08, -5.966148364677792e-06, 2.8348708269732015e-07, -1.6182209492399124e-06, 5.3689575452153804e-08, -1.0063055242426344e-06, 2.672162793260213e-07, -2.0352897536213277e-06, 1.0277071993414211e-07, 1.4585466487915255e-06, 3.4912193314085016e-06, -3.839862529275706e-06, 1.6105381064335234e-06, -3.052681677218061e-06, 3.394552777535864e-06, -3.105790824520227e-07, -2.197442427132046e-06, -1.14634053716145e-06, 8.035193786781747e-06, -7.311604690585227e-07, 3.781207169595291e-07, 3.866546194331022e-07, 5.487102498591412e-06, 3.685613137349719e-06, 1.0113607231687638e-06, 2.3747682007524418e-06, -1.891304179935105e-07, 1.0035166724264855e-06, 2.9348641419346677e-06, -3.7167724258324597e-06, 2.6782724944496294e-06, 2.7019048047804972e-06, 8.736602467251942e-06, -8.848384140947019e-07, -5.582464837061707e-07, -4.219966285745613e-06, 1.5512361528635665e-07, -1.7948715935744985e-07, -7.388007929876039e-07, -3.929069862351753e-06, -1.4380854054252268e-06, -2.3336401682172436e-06, -1.5857141306696576e-06, -1.5962150428094901e-06, 3.0286980745586334e-06, 5.47217211988027e-07, 2.02454160103116e-07, -1.0796619562825072e-06, 3.0020894428162137e-06, -2.0590975680079282e-07, 2.2488070499093737e-06, 3.8101194377304637e-07, 3.5471250612317817e-06, -2.6885322768066544e-07, -1.2523776149464538e-07, -5.98993040057394e-07, 2.9126181289029773e-06, -3.5264868074591504e-06, -5.632914508169051e-07, 1.411475977874943e-06, -2.032068778134999e-06, 2.6752340431812627e-07, 2.7112628231407143e-06, -4.023639803563128e-07, 2.4200846837629797e-07, -6.545321866724407e-06, -1.081391829416134e-07, -6.694334047097072e-07, 7.63713273954636e-07, 3.667672956453316e-07, 6.416959422494983e-06, 4.8333999984606635e-06, 5.298043674883957e-07, -1.7555354361320497e-06, 3.9649307836953085e-07, 3.601341234116262e-07, 6.546375175275898e-07, 4.4210335659045086e-07, 4.996490133635234e-06, -3.456800357071188e-07, 1.403925011800311e-06, -2.666639147719252e-06, 3.320046971566626e-06, 1.9182014909802092e-07, 1.5123957382456865e-05, -4.507862286118325e-06, 7.222652129712515e-06, -2.6753496058518067e-06, 5.200053010412375e-07, 6.269652203627629e-06, -2.806549446177087e-06, -7.637036674168485e-07, 1.7089515722545912e-06, -3.8933941937102645e-07, 8.04833177880937e-07, -4.443509624252329e-06, 2.6858074306801427e-06, -5.213002509663056e-07], [-1.0034717234930213e-07, 3.5041116461798083e-06, -2.7143455554323737e-06, -4.799927637577639e-07, -9.311546591561637e-07, -4.8104798366921386e-08, 8.28684278531e-06, -7.447146117556258e-07, -1.706246962385194e-06, -5.094877906230977e-06, 2.4925699904088106e-07, 3.6957719657948473e-06, -8.865533800417325e-07, 2.1473877040989464e-06, 2.0955258150934242e-07, 1.027434905154223e-06, -2.2100191472418373e-06, 7.948323599293872e-08, -3.281911347130517e-07, 4.1767239054024685e-06, 4.978723609383451e-06, 4.414708655531285e-06, -3.850524990411941e-06, -4.467134203878231e-06, 3.203793312422931e-06, 8.076871381490491e-06, 1.0138466677744873e-05, 6.5566359808144625e-06, 1.5582736523356289e-07, -1.5702182665222608e-08, -1.1770455188298001e-07, 6.993282113398891e-06, -3.2322568586096168e-06, 3.0423286716541043e-06, -2.548672910052119e-06, 9.033799415192334e-07, -2.7750711524276994e-06, 1.8544616864346608e-07, -5.014665021008113e-06, -4.793640755451634e-07, -2.047008592853672e-06, -2.116640416716109e-06, 3.5779595464191516e-07, 3.2581504001427675e-06, -1.3595707741842489e-06, -3.4440929539414356e-06, 5.133339982421603e-06, 8.269406862382311e-06, -4.579615506372647e-06, 1.8060650575080217e-07, -4.011760211142246e-06, -2.424236981823924e-06, -3.023488488906878e-06, -1.5327435676226742e-06, -4.802528565051034e-06, 1.7546030051107664e-07, -2.2379847450793022e-06, -4.61651643490768e-06, -2.7852438506670296e-06, 5.479192168422742e-06, -5.428445319921593e-07, -4.973800514562754e-06, -3.361786866662442e-07, 5.052377673564479e-06, 2.022225089604035e-07, 9.054978136191494e-07, -1.458448423363734e-05, 4.5910067569820967e-07, 5.0908056437037885e-06, 1.7128531908383593e-06, 2.352863020860241e-06, 2.799075900838943e-06, 4.0488168906449573e-07, 1.4637388403571094e-06, -2.886915126509848e-06, 4.895521669823211e-06, -3.383095645403955e-06, -9.1157112080964e-08, -4.825199084734777e-06, 5.311898803483928e-06, -1.5033631825644989e-05, -8.233950552494207e-07, 3.7727879487192695e-08, 3.445444917815621e-06, 4.4547459765453823e-07, 2.2376848107796832e-07, -6.341985681501683e-06, 3.6976439332647715e-06, 5.762040444778904e-08, -3.4719323593890294e-06, 1.0730761914601317e-06, 4.696755240729544e-06, 6.088325221753621e-08, 2.7815856356028235e-06, -1.878991895409854e-07, 6.437248430302134e-06, -1.2703746961051365e-06, 3.237210819406755e-07, -2.8599456527445e-06, -1.7303041204286274e-06, -6.401201062544715e-06, -8.069917385000736e-06, -2.630194785524509e-06, -3.645359925030789e-07, -4.531580998445861e-06, -4.869900749326916e-07, 4.1283467311359345e-08, -2.516904487492866e-06, -5.733830903409398e-07, -1.7603540527488803e-06, 6.758648396498756e-07, 3.3087667361542117e-06, -3.4345296171522932e-06, 1.1089831559729646e-06, 3.0750697987969033e-07, 2.1078337795188418e-06, -5.170085842109984e-06, 3.711536919581704e-06, -4.024162535642972e-06, -2.089644794978085e-06, -6.853177296761714e-07, 6.016008455844712e-07, -2.3651668357160816e-07, 4.72596275358228e-06, -4.7454873310925905e-06, 2.9922903195256367e-06, -9.069067345990334e-06, 4.1158443764288677e-07], [0.0001179510509246029, 1.1923951205972116e-05, -6.0522984313138295e-06, 2.5114177333307452e-05, -7.79395122663118e-06, 6.363756256178021e-05, 0.00025597811327315867, 2.435884925944265e-05, -2.6881584744842257e-06, -0.00016907516692299396, -9.965899516828358e-05, 1.7207432392751798e-05, -1.4453993571805768e-05, 0.00018497268320061266, -3.8056699850130826e-05, 6.397815013770014e-05, -0.00012013963714707643, 3.132340498268604e-05, 2.7408985260990448e-05, 1.6014947732401197e-06, 0.00010612785263219848, 1.1753216313081793e-05, -0.0001504091633250937, -2.2655896714240953e-07, 5.078004687675275e-05, 2.783638956316281e-05, 4.6882330934749916e-05, 0.00010370934614911675, -9.234482604369987e-06, 6.180339369166177e-06, 6.232031591935083e-05, 6.776314694434404e-05, -2.8197922802064568e-05, 3.097912122029811e-05, -1.1037170224881265e-05, 6.350979674607515e-06, -3.760624531423673e-05, 2.1952040697215125e-05, -0.00012979756866116077, -7.360041308857035e-06, -0.00020522064005490392, 8.992520452011377e-05, -2.6477120627532713e-05, 0.0001278570998692885, -4.108879147679545e-05, -5.8981331676477566e-05, 1.1884527339134365e-05, 5.987812619423494e-05, -0.00011421047383919358, 7.819620077498257e-05, -8.775080573286687e-07, -1.520157002232736e-05, -2.2402220565709285e-05, -2.7459236662252806e-05, -3.1433195545105264e-05, -9.96326853055507e-05, -3.2323741834261455e-06, -3.808935434790328e-05, -3.382822251296602e-05, 1.5223363334371243e-05, -7.487997663702117e-06, -1.9663340935949236e-05, -3.542391277733259e-05, 0.0001502506056567654, 2.3105088985175826e-05, 6.82962272549048e-05, -0.00042038061656057835, 7.26405323803192e-06, 1.6585547200520523e-05, 2.3782655262039043e-05, 3.897818714904133e-06, 2.696801493584644e-05, 7.037471277726581e-06, 9.394490007252898e-06, -7.814304990461096e-05, 3.799696060013957e-05, -0.00020249396038707346, 6.007457614032319e-06, -0.0002573320525698364, 1.4440742234000936e-05, -2.396669879090041e-05, -2.449056955811102e-05, -1.585575046192389e-05, 3.875979928125162e-06, 2.8894219212816097e-05, 1.1433752661105245e-05, -3.952459155698307e-05, 1.8264114260091446e-05, -5.2347804739838466e-05, -8.802457159617916e-05, 6.594420847250149e-05, 9.105318895308301e-05, -1.1942816854570992e-05, 0.00025387786445207894, -1.1863554391311482e-05, 5.76546553929802e-05, -1.3791143828711938e-05, 1.226877975568641e-05, -6.433323869714513e-05, -3.341081537655555e-05, -5.195413905312307e-05, -0.00016448080714326352, -4.9110811232822016e-05, 2.421823955955915e-05, -0.0001131972239818424, 2.889767347369343e-05, -0.0001314936816925183, -9.173437319986988e-06, -3.222711166017689e-05, -2.7416175726102665e-05, -3.7905068893451244e-05, 3.0797134968452156e-05, -5.356138444767566e-06, 2.342648440389894e-05, -1.1454605555627495e-05, 1.6864216377143748e-05, -3.747991058844491e-06, 3.096434738836251e-05, -2.6143199647776783e-05, -4.05499213229632e-06, 4.2244293581461534e-05, 0.00011353848094586283, -3.4375400446151616e-06, 1.613212407391984e-05, -0.0001548981963424012, 5.789317219750956e-05, -3.673267565318383e-05, 1.743508255458437e-05], [0.0009005826432257891, 0.00022930926934350282, -0.0005963333533145487, 0.00012505199993029237, -0.00037201677332632244, 0.0006831954815424979, 0.0005216398858465254, 0.0004832457925658673, -0.00045052741188555956, -0.00017898653459269553, -0.00028591277077794075, 0.00013988646969664842, -0.00017605432367417961, 0.002124100923538208, -0.0003415130777284503, 5.928635073360056e-05, -0.00029071400058455765, 4.6996538003440946e-05, 6.26793407718651e-05, 1.4195557923812885e-05, 0.0002677791053429246, 0.0002535195671953261, -0.00018383929273113608, -0.00018401473062112927, 7.888590334914625e-05, 3.075330096180551e-05, 0.00021637351892422885, 0.00011370864376658574, -0.00035624310839921236, 0.00015051949594635516, 0.00023705681087449193, 0.0008600362343713641, -0.0005504829459823668, 2.6507270376896486e-05, -7.3711257755348925e-06, 0.00021064619068056345, -1.478427839174401e-05, 2.8036354706273414e-05, -1.8552589608589187e-05, -0.0003434757236391306, -7.19652816769667e-05, 0.0005994986277073622, -9.664714889368042e-05, 1.9365175830898806e-05, -0.00023041946406010538, -0.0006416695541702211, 0.0004645335138775408, 0.00018771183385979384, -0.00027147805667482316, 0.0006330694886855781, -0.00012850743951275945, -0.00026235662517137825, -0.00013748691708315164, -0.0003080565365962684, -9.844313171925023e-05, -0.00026752182748168707, -2.3822216462576762e-05, -0.0005187613423913717, -6.319445674307644e-06, 0.0004083721723873168, -0.0002757279435172677, -1.731052361719776e-05, -0.0004756426496896893, 0.0005657035508193076, 0.0006642848602496088, 0.0003385177406016737, -0.0001757874124450609, 1.7700953321764246e-05, 0.0010632241610437632, 0.0005105759482830763, 0.0003016369300894439, 0.0002533651713747531, 0.00022545468527823687, 0.0002229069359600544, -0.0002061784325633198, 0.00028122353251092136, -0.0008071064949035645, 6.0542795836227015e-05, -5.457909719552845e-05, 0.0002512861101422459, -0.0006987383239902556, -0.001481280429288745, -0.00017157403635792434, 0.0002595533151179552, 4.87686374981422e-05, 2.173891152779106e-05, -0.00013492941798176616, 0.0004420311306603253, -9.972914267564192e-05, -0.00031361926812678576, 0.00043786497553810477, 0.00035352425766177475, -0.00011578478734008968, 3.485676643322222e-05, -0.00016996815975289792, 0.00015906832413747907, -2.965413295896724e-05, 9.370204497827217e-05, -0.00015961618919391185, -7.995806663529947e-05, -0.00042182885226793587, -0.0007080162176862359, -0.0002198277652496472, 0.0002613649994600564, -4.5114873501006514e-05, 2.942138962680474e-05, -0.0007135922205634415, -7.239845581352711e-05, -0.0001690537465037778, -0.0002909677568823099, -0.0005729503463953733, 0.00017732277046889067, -0.0007761106244288385, 0.00048551676445640624, -0.00019199434609618038, 0.00013442958879750222, -0.00024737458443269134, 8.30102180771064e-06, -8.738014730624855e-05, -3.405691813895828e-06, 2.4022442630666774e-06, 0.00043756471131928265, -0.00016822668840177357, 0.00010756101255537942, -0.00030941187287680805, 0.0002722096105571836, -0.00037962556234560907, 1.4474422641796991e-05], [5.282184361021791e-07, -9.329365866506123e-07, 6.486026791208133e-07, -1.2214043181302259e-06, 2.460047198837856e-06, -2.3842635528126266e-06, -1.3461357184496592e-06, -9.117197805608157e-07, 3.7757399695692584e-06, -1.7616353886751313e-07, 2.7780758955486817e-06, -8.721639460418373e-06, 1.6074550330813508e-06, -8.749085282033775e-06, 6.363065381265187e-07, -7.4709182626975235e-06, 5.457864062918816e-06, -1.032820705404447e-06, -1.033171088238305e-06, -2.3376305762212723e-06, 5.036318384554761e-07, -2.8547046895255335e-06, 9.404326419826248e-07, 1.0277898581989575e-05, -3.390814981685253e-06, -7.859030120016541e-06, -2.797254637698643e-06, -7.138346063584322e-06, 1.3932226465840358e-06, -5.3757327123094e-07, -4.3618738345685415e-06, -5.726108156522969e-06, 5.879452146473341e-06, 4.0336556139664026e-07, 4.637786599204219e-09, -4.873393777415913e-07, 4.288620232273388e-07, -3.5498437682690565e-06, 4.355382770881988e-06, 2.415523795207264e-06, 1.037615902532707e-06, -1.8529617591411807e-06, 7.144682285797899e-07, -1.259224063687725e-06, 2.490949782441021e-06, -2.686442712729331e-07, -1.0629913958837278e-05, -3.477068730717292e-06, -1.241196700974001e-09, -3.243206265324261e-06, 1.606234718565247e-06, 4.628343049262185e-06, 1.506973745790674e-08, -6.163734269648558e-07, 1.7772725186659954e-05, 1.8794472680383478e-06, 1.6201258858927758e-06, 5.462151193569298e-07, 1.0364394711359637e-06, -6.59538090985734e-06, 2.6345744572608965e-06, 3.4531137771409703e-06, 7.229984021250857e-06, -1.3977985418023309e-06, -3.0499556658014626e-08, -3.90214353274132e-07, 7.125250704120845e-06, -3.1633331332159287e-07, -1.0264709089824464e-05, -5.704577688447898e-06, -1.1122092473669909e-06, -3.152217686874792e-07, -2.6533061259215174e-07, -5.038160907133715e-06, 2.4990911242639413e-06, 6.840007813480042e-07, 7.433490623043326e-07, 4.504622097556421e-07, 9.292858749176958e-07, -2.586573145890725e-06, -2.8399057327987975e-07, 1.0104034799951478e-06, 1.6564511042815866e-06, -3.2569076324762136e-07, -5.402136594057083e-06, -1.3248936170384695e-07, 5.4918905334488954e-06, -2.9269460810610326e-06, 2.3658333248022245e-06, 7.083058335410897e-06, -3.0827693535684375e-06, 2.9872097684346954e-07, 1.2511424074546085e-06, -4.98678218718851e-07, 1.8762681293083006e-06, 2.735865791692049e-07, 2.3175434762379155e-06, -7.358016773650888e-08, 3.6530687452795974e-07, 9.706931223263382e-07, -1.8593090089780162e-07, 5.943554697296349e-07, 1.1154156709380914e-06, -3.7061769830870617e-07, 6.478843715740368e-06, -3.4265644899278414e-06, 2.6348979531576333e-07, 2.0631928236980457e-06, 2.9848847589164507e-06, 6.672589165646059e-07, 3.9147557799879e-06, -7.591468431655812e-08, 3.256415766372811e-06, -1.7649945220910013e-06, 7.253209787450032e-06, -4.7559259996887704e-07, 2.542477659517317e-06, -6.222147021617275e-06, 3.466114321781788e-06, -3.3641433105913165e-07, -3.0382084332813974e-06, -2.9090901421113813e-07, 1.093420996767236e-05, 1.99261137368012e-07, 4.558028649626067e-06, -1.0516220072531723e-07, -8.846571404319548e-07, -1.3008991572860396e-07], [-1.438607978343498e-05, -0.00012928662181366235, 5.0011298299068585e-05, -9.985369251808152e-05, 0.0009428662597201765, -4.4070533476769924e-05, -0.0012955908896401525, -2.230350219178945e-06, 1.4190067304298282e-05, 0.0004501810180954635, 0.0001654706138651818, -0.00013379925803747028, 0.00015584735956508666, -5.4919546528253704e-05, 0.00010098421626025811, -0.00015380089462269098, 6.227638368727639e-05, -0.00024394833599217236, -0.00027298464556224644, -0.000296695128781721, -5.207635331316851e-05, -0.0003800308331847191, 0.00047124852426350117, 0.00015373718633782119, -0.0007175985956564546, -0.0006435132818296552, -0.00018868404731620103, -0.00017410932923667133, 6.333770579658449e-05, -6.262698298087344e-05, -5.468585004564375e-05, -0.0002035484794760123, 2.453941078783828e-06, -5.000980308977887e-05, 4.051850191899575e-05, -0.0003748289018403739, 0.00027052368386648595, -0.0006844578310847282, 5.3060619393363595e-05, 2.7883119400939904e-05, 0.0002657724544405937, -0.00048827793216332793, 1.887242433440406e-05, -0.00022985653777141124, 8.178246935131028e-05, 0.00024371746985707432, -0.0010329590877518058, -0.0002737836039159447, 0.00041686382610350847, -2.3211143798107514e-06, 0.000219524692511186, 2.4868388209142722e-05, 0.0002590579679235816, 5.309393964125775e-05, 0.0012161757331341505, 0.00022566346160601825, 8.807644189801067e-05, 0.00015209945559035987, 3.0221299311961047e-05, -0.0001491690636612475, 0.0005963004659861326, 0.00035974563797935843, 0.0006049494841136038, -0.0003093157720286399, -1.1691795407386962e-05, -9.797994425753132e-05, 0.0003894771507475525, -0.00010207594459643587, -0.00028220293461345136, -4.604785863193683e-05, -0.00029088518931530416, -2.244220559077803e-05, -4.496150359045714e-05, -0.0001595036592334509, 0.00014903905685059726, -0.0005168923526071012, 0.00021687928528990597, -2.5542607545503415e-05, 0.000146210499224253, -2.5007311705849133e-05, 0.0002035374054685235, 0.0001742770109558478, 3.9566290070069954e-05, -0.00011834118777187541, -5.524318112293258e-06, -9.532736294204369e-05, 0.00042676576413214207, -3.263510734541342e-05, 2.999072239617817e-05, 0.00040542613714933395, -9.484188922215253e-06, -0.0007670316845178604, 0.0001670487690716982, -0.00020925459102727473, 0.00040142025682143867, -8.708865061635152e-05, 0.00024109077639877796, -5.8885227190330625e-05, 3.1341027352027595e-05, 9.352242341265082e-05, 3.992628262494691e-05, 0.0007612744229845703, 0.0004707709886133671, -0.0006915373960509896, 0.00018481211736798286, -0.00026011577574536204, 0.0006978619494475424, 0.00032159467809833586, 0.0001729864306980744, 0.00010034107253886759, 0.00014798455231357366, -0.00016492779832333326, 0.00035435607424005866, -9.032819070853293e-05, 0.0011093684006482363, -0.0006088431109674275, 0.0001597963710082695, -0.00013590867456514388, 3.716612297921529e-07, 0.00018124168855138123, -0.0006923206383362412, -0.0006208281847648323, 0.00026677281130105257, -0.0002956406387966126, 0.0001070508878910914, -7.036842725938186e-05, 0.0003810992348007858, -0.0001307996571995318], [3.952541646867758e-06, 1.6097294519568095e-06, -9.979411515814718e-06, 1.9528351913322695e-06, -1.4243585155782057e-06, 1.2527758599389927e-06, 4.860064109379891e-06, 1.1033441751351347e-06, -6.3078859966481104e-06, -2.700719733184087e-06, -2.5031545192177873e-07, 3.214929904515884e-07, -1.7879435745271621e-06, 9.183347174257506e-06, -6.532168299600016e-07, 5.470347787195351e-06, -6.257600659864693e-08, -5.0754987768186766e-08, -4.1663261640678684e-07, 1.6624082945781993e-06, 3.5300638501212234e-06, 2.413340553175658e-06, -1.2846107892983127e-06, 1.38077837164019e-07, 2.3342017811955884e-06, 2.2277154130279087e-06, 3.1251659038389334e-06, 2.307535396539606e-06, 1.1120150134047435e-07, 6.567959758285724e-07, 4.413279384607449e-06, 8.045375579968095e-06, -6.384082098520594e-06, 1.8255650502396747e-06, -1.5634997225788538e-06, 4.137687028560322e-06, -1.1790847338488675e-06, 2.257752157674986e-06, -5.742179837397998e-06, -2.0401880647114012e-06, -2.4058758754108567e-06, 2.6198417799605522e-06, -3.0239897341743927e-07, 1.8108584072251688e-06, -1.8170673001804971e-06, -1.555106223349867e-06, 2.7321282232151134e-06, 4.782595169672277e-06, 5.9086648462880476e-08, 4.449407697393326e-06, -2.370169340792927e-06, -1.7613776037705975e-07, -4.926983365294291e-06, -8.393354846703005e-07, -6.957070127100451e-06, -2.3715367660770426e-06, -5.954977950750617e-07, -4.26058841185295e-06, -1.4994523098721402e-06, 1.9210492041565885e-07, -1.3115530919094454e-06, -2.121252691722475e-06, -3.0013322884769877e-06, 8.130992682708893e-06, -2.9598919581985683e-07, 4.208015525364317e-06, -8.363425877178088e-06, -7.502409005155641e-08, -1.4425756944547174e-07, 6.045737563908915e-07, 8.908153290576593e-07, 2.0950883481418714e-06, 2.568225681898184e-06, 9.050599487636646e-07, -8.601551826359355e-07, 5.907326340093277e-06, -7.974561526680191e-07, 1.3253458064355073e-06, -7.323545219151129e-07, 2.0444090296223294e-06, -1.526411870145239e-05, 3.135784965024868e-08, 7.1063968043461045e-09, 4.483354587137001e-06, 2.476085114722082e-07, 3.4921430369649897e-07, 7.607621199667847e-08, 4.0050113625511585e-07, -3.0244721074268455e-06, -9.878073797153775e-06, 2.0496888737397967e-06, 3.493241820251569e-07, 6.046025902151086e-08, 2.6132525476896262e-08, -5.063375283498317e-07, -1.0413119753138744e-06, -1.7582058262632927e-06, 2.473259144153417e-07, 4.9986361716491956e-08, 3.3301222401860286e-07, -4.783057647728128e-07, -2.8071658562112134e-06, -2.8846734494436532e-06, 1.019621777231805e-06, -1.933839939738391e-06, 4.992664798919577e-06, -2.4786706944723846e-06, -2.4795594981696922e-06, -6.167079646957063e-08, -2.88192222797079e-06, -5.900002975067764e-07, 8.477147275698371e-06, -4.8848282858671155e-06, 1.8350832533542416e-06, 4.432824596278806e-08, 8.375861398235429e-06, -4.672071554523427e-06, 8.324981536134146e-06, -1.3218307230999926e-06, -7.436602231791767e-07, 4.693661139754113e-07, 1.6402001392634702e-06, -7.489293693652144e-06, 3.0603066534240497e-06, -5.338649202712986e-07, 4.7231156941052177e-07, -7.171975084929727e-06, 4.781079951499123e-06], [-4.005042865173891e-05, -0.0005263768252916634, 0.000610543240327388, -0.00039037331589497626, 9.152161510428414e-05, -0.0004902257351204753, -0.0011440813541412354, -0.0004230630584061146, 0.0002784175449050963, 0.00019963731756433845, 4.3666153942467645e-05, -0.0006052629323676229, 2.408748332527466e-05, -8.362058724742383e-05, 9.38239463721402e-05, -1.3978779861645307e-05, 0.00017486762953922153, -0.00013006004155613482, -3.903036122210324e-05, -5.365332617657259e-05, -0.0006352825439535081, -3.973535785917193e-05, 7.115749031072482e-05, 0.0009570826659910381, -0.0003151827841065824, -0.00016359750588890165, -0.0003217770718038082, -0.00010140826634597033, 0.00022461049957200885, -4.336307029007003e-05, -0.00031153304735198617, -0.0006850598729215562, 3.8231464714044705e-05, -0.0002704942016862333, 0.0003512374241836369, -0.00014228950021788478, 0.0007863782229833305, -0.00016251280612777919, 0.0005329673876985908, 2.4973510335257743e-06, 0.0004615125944837928, -0.00011914685455849394, 0.00027565399068407714, -0.00011625173647189513, 7.487722905352712e-05, 0.0005945321172475815, -1.1254407581873238e-05, -0.00026375948800705373, 0.0001467380061512813, -0.00033290887949988246, 1.7997190298046917e-05, 0.00031761714490130544, 0.00014981479034759104, 5.142363806953654e-05, 0.0006551347905769944, 0.0004016935417894274, 0.0001040804636431858, 0.00038118119118735194, 0.0006473109242506325, -0.00035540323005989194, 0.00011910546891158447, 2.2885846192366444e-05, 0.0008105124579742551, -0.00017854948237072676, -0.0002215028362115845, -2.8622163881664164e-05, 3.878775532939471e-05, -7.522045052610338e-05, -0.0005324679077602923, -5.424161281553097e-05, -4.733297464554198e-05, -9.533682896289974e-05, -8.605780749348924e-05, -1.7546564777148888e-05, 0.00011594271200010553, -7.567432476207614e-05, 0.0004386034852359444, -6.0322785429889336e-05, 0.00013987872807774693, -0.0003104432544205338, 0.0008403162355534732, 0.00041733362013474107, 0.00021219906921032816, -0.000322782841976732, -8.782471559243277e-05, -7.942925731185824e-05, 0.0010987786808982491, -8.584249735577032e-05, 0.00033402119879610837, 0.0009720260859467089, -6.778151146136224e-05, -7.154152990551665e-05, 0.0004532851162366569, -0.00010239776020171121, 0.000154571927851066, -2.5158740754704922e-05, 0.00011488325253594667, -0.0002297553000971675, 0.00019696900562848896, 3.5287463106215e-05, 0.000512679573148489, 1.552268622617703e-05, 0.0003721591492649168, -0.00012215261813253164, 0.0003398735134396702, -0.00017269866657443345, 0.0008681344334036112, 3.38618119712919e-05, 3.960784670198336e-05, 0.00011812352749984711, 0.00015440596325788647, -5.736140337830875e-06, 9.320933895651251e-05, -0.00016101337678264827, 0.0011122331488877535, -2.5273848223150708e-05, 9.829144255490974e-05, -0.00030612052069045603, 0.000141736411023885, 0.00017960314289666712, -0.00012824017903767526, -0.00016573145694565028, 0.0003176463069394231, -0.00037250356399454176, 0.0002900105610024184, -0.00010704253509175032, 2.5034065401996486e-05, -0.00024549910449422896], [-0.02677806280553341, -0.01020512543618679, 0.01257170271128416, -0.006471953820437193, 0.01786559820175171, -0.0072801318019628525, -0.012169234454631805, -0.02586458995938301, 0.008295548148453236, 0.007445554248988628, 0.10072983801364899, -0.016149722039699554, 0.09071225672960281, -0.03238431736826897, 0.01634901389479637, -0.012823081575334072, 0.019257955253124237, -0.03294077515602112, -0.013287306763231754, -0.023617146536707878, -0.007093751337379217, -0.008628880605101585, 0.01596839167177677, 0.02823052927851677, -0.03369017317891121, -0.011464310809969902, -0.02932519093155861, -0.020154418423771858, 0.05325897037982941, -0.040315479040145874, -0.00776063883677125, -0.018974797800183296, 0.011487572453916073, -0.015747791156172752, 0.03570029139518738, -0.08557312935590744, 0.009308840148150921, -0.006813542917370796, 0.009042587131261826, 0.0206023920327425, 0.010115107521414757, -0.0266022477298975, 0.03892577439546585, -0.01795627921819687, 0.052204083651304245, 0.035352181643247604, -0.02887723408639431, -0.012749978341162205, 0.013887673616409302, -0.025329668074846268, 0.02314097248017788, 0.015137971378862858, 0.016262425109744072, 0.07596196234226227, 0.016430487856268883, 0.01231573149561882, 0.010463927872478962, 0.022043736651539803, 0.031513165682554245, -0.010963895358145237, 0.009793824516236782, 0.01538061909377575, 0.011940652504563332, -0.013340787962079048, -0.010416241362690926, -0.008611757308244705, 0.016977928578853607, -0.015560593456029892, -0.007880578748881817, -0.007630639243870974, -0.039703771471977234, -0.05027424171566963, -0.03325875103473663, -0.012946904636919498, 0.045190051198005676, -0.02652115747332573, 0.014170308597385883, -0.0936492383480072, 0.009573428891599178, -0.02096240222454071, 0.012743974104523659, 0.012601390480995178, 0.012009954079985619, -0.017588937655091286, -0.06158263981342316, -0.01820639707148075, 0.008306542411446571, -0.022038305178284645, 0.015216823667287827, 0.010166286490857601, -0.034721489995718, -0.034349750727415085, 0.04426092654466629, -0.03309403359889984, 0.03548033535480499, -0.008003554306924343, 0.03953827545046806, -0.014961845241487026, 0.016255244612693787, 0.027323666960000992, 0.010861742310225964, 0.014376385137438774, 0.01005006954073906, -0.02085183374583721, 0.01191867794841528, -0.027887914329767227, 0.021510444581508636, 0.01740611344575882, 0.016726888716220856, 0.018005596473813057, 0.01317648310214281, -0.021222611889243126, 0.006230765022337437, -0.01640588417649269, 0.014748717658221722, -0.007787796668708324, 0.007931564003229141, -0.02546720765531063, 0.03290265053510666, 0.0104820029810071, -0.016074251383543015, -0.023569734767079353, 0.029807204380631447, -0.009606200270354748, 0.009297816082835197, -0.014381874352693558, 0.013295718468725681, -0.028316371142864227], [0.0004121995880268514, 7.254430238390341e-05, -0.0002271723496960476, 0.0005858235526829958, -0.00019201192480977625, 9.300582314608619e-05, 0.0007261591381393373, 0.0004045992682222277, -0.00029672941309399903, -0.0004683546721935272, -0.00018019555136561394, 2.5054427169379778e-05, -1.9264307411503978e-05, 0.0006013698875904083, -8.82383028510958e-05, 0.00019490289560053498, -0.0003083382034674287, 0.0002804623218253255, 0.0006364775472320616, 0.0006987692904658616, 0.00017201705486513674, 0.00016620750830043107, -0.00025245812139473855, -0.0004060341161675751, 0.00014578814443666488, 6.622796354349703e-05, 0.00011861191887874156, 0.0009213655139319599, -0.00021514497348107398, 0.00018044856551568955, 0.00011352142610121518, 1.7751759514794685e-05, -1.694821003184188e-05, 6.685602420475334e-05, -0.0002430693421047181, 0.00030323787359520793, -0.00011605319014051929, 0.0004041351203341037, -0.0001092739257728681, -4.322754830354825e-05, -0.00023836268519517034, 7.799293234711513e-05, -3.507757719489746e-05, 0.000647766690235585, -0.00011430721497163177, -3.522711631376296e-05, 0.0004056146717630327, 0.00016059179324656725, -0.0002778444322757423, 7.189116149675101e-05, -0.000289785151835531, -2.5385128537891433e-05, -1.0076616490550805e-05, -0.00016274051449727267, -0.00039508784539066255, -0.001019286923110485, -0.0006781259435229003, -0.00020607499754987657, -0.0007623460260219872, 1.2334082384768408e-05, -0.00046421209117397666, -0.0007832204573787749, -1.875568341347389e-05, 7.665542216273025e-05, 0.0001862040808191523, 0.00011033358168788254, -0.0002941344282589853, 0.0003647122357506305, 0.00031238445080816746, 0.0001708720374153927, 0.00012197709293104708, 5.76944621570874e-05, 0.00015767247532494366, 0.0002534474479034543, -0.0004959741490893066, 0.00031789991771802306, -0.00016206550935748965, 1.1594052011787426e-05, -0.00043765560258179903, 8.077218080870807e-05, -1.967897333088331e-05, -0.00043912039836868644, -0.00019966388936154544, 0.00016127314302138984, 4.797111978405155e-05, 2.4988123186631128e-05, -0.0001207635723403655, 0.0007058451301418245, -0.000250725366640836, -0.00034981928183697164, 2.6491501557757147e-05, 0.0002145561302313581, -8.31369761726819e-05, 0.00016850614338181913, -0.00024831006885506213, 1.836144110711757e-05, -0.0004808596277143806, 0.0001272960362257436, -8.960401464719325e-05, -0.00039709615521132946, -1.8830692170013208e-06, -5.348301328922389e-06, -0.0001363506307825446, 0.00022434549464378506, -0.00010771388770081103, 0.0005421257810667157, -0.00014296213339548558, -1.8075250409310684e-05, -0.0001719873835099861, -0.00023986061569303274, -2.5843635739875026e-05, 0.00015408892068080604, -0.0004830187826883048, 0.0004955449840053916, -3.676840424304828e-05, 0.00042342019150964916, -7.894816371845081e-05, 0.00019902066560462117, -7.99131958046928e-05, -0.00017205497715622187, 0.00014446524437516928, 0.00022323698794934899, -9.17472061701119e-05, 0.0004237436514813453, -0.0009872911032289267, 0.00018787563021760434, -0.00022582619567401707, 1.3800859051116277e-05], [0.0010880432091653347, 0.00016479974146932364, -4.9399408453609794e-05, 0.00146620930172503, -7.532030576840043e-05, 0.004801781848073006, 0.000607873487751931, 0.0005272830603644252, -0.0017268145456910133, -0.00026362595963291824, -0.0011452926555648446, 0.000756127352360636, -9.340956603409722e-05, 0.0007790987147018313, -0.00013641778787132353, 0.0015073333634063601, -0.0005953607615083456, 0.0004989862209185958, 0.00012368866009637713, 0.0009944959310814738, 0.0010032474528998137, 0.00030782725661993027, -0.0011855772463604808, -0.0001813442213460803, 0.0002790580620057881, 0.0006014466052874923, 0.011601685546338558, 0.00016090559074655175, -0.0008368409471586347, 0.00021846154413651675, 0.0010625937720760703, 0.0027905763126909733, -0.001003990531899035, 0.0005359898204915226, -0.00031749182380735874, 0.0006316316430456936, -0.0012182591017335653, 0.0009266464621759951, -7.706719770794734e-05, -0.0005802114028483629, -0.00026370762498117983, 4.209806502331048e-05, -0.0009979626629501581, 0.0007037878967821598, -4.53008760814555e-05, -0.001782102044671774, 0.0025093769654631615, 0.00024602861958555877, -0.003446986898779869, 0.0005895918584428728, -1.8755379642243497e-05, -0.0003467095084488392, -0.0005527313333004713, -0.0004631170886568725, -0.0006171254208311439, -0.0003538707678671926, -0.0005080339615233243, -0.000648514658678323, -0.0008578764391131699, 0.002209521597251296, -0.0004322697059251368, -0.002417381387203932, -7.389785605482757e-05, 0.006609996315091848, 9.385155863128603e-05, 0.0012586645316332579, -6.034577381797135e-06, 0.0001325157209066674, 0.0009331683395430446, 0.0003385947202332318, 0.0004171558830421418, 0.0010999009246006608, 0.00033571806852705777, 1.484411859564716e-05, -0.00022595119662582874, 0.000657548604067415, -0.004392958711832762, 0.00030580564634874463, -0.0008314906735904515, 0.00033613861887715757, -0.0003452290839049965, -0.0004583104164339602, -0.0005459397216327488, 0.0008671635878272355, 0.0006863429443910718, 0.000908256450202316, -4.422969141160138e-05, 0.0006006663315929472, -0.0005918623064644635, -0.006727101746946573, 0.0005032401531934738, 0.0007003118516877294, -6.147431849967688e-05, 0.00023461971431970596, -0.0011030430905520916, 0.0007542673847638071, -6.510117964353412e-05, 0.0003438440035097301, -0.0002796098415274173, -0.0005122304428368807, -0.0009085427736863494, -0.004772874992340803, -0.00012276371126063168, 0.0002716314047574997, -0.0016285806195810437, 0.0009406984900124371, -0.0004893964505754411, -0.00033068854827433825, -0.000440639560110867, -0.00037650245940312743, -0.0008004243718460202, 0.00023207024787552655, -0.0005440882523544133, 0.00018504768377169967, -0.0032423525117337704, 0.000324174267007038, -0.002199707319959998, 0.0017151142237707973, -0.001099735265597701, -0.0013530557043850422, 0.0008420994854532182, 0.0010560865048319101, -0.0023450099397450686, 0.00011772369180107489, -0.00047613916103728116, 0.000949554203543812, -0.0005545025924220681, 0.00026342604542151093], [-0.019761743023991585, -0.07071854919195175, 0.024767138063907623, -0.0097799776121974, 0.00979837030172348, -0.07981507480144501, -0.009230243973433971, -0.082844078540802, 0.010139982216060162, 0.008768578059971333, 0.040583766996860504, -0.011763224378228188, 0.040951866656541824, -0.07381939888000488, 0.08036700636148453, -0.07257010042667389, 0.07243821024894714, -0.08213335275650024, -0.05388541892170906, -0.060827385634183884, -0.06426076591014862, -0.06676258891820908, 0.08038830757141113, 0.07919080555438995, -0.05869631841778755, -0.06800425797700882, -0.009610052220523357, -0.02867654152214527, 0.05247548222541809, -0.014366893097758293, -0.0271301232278347, -0.07486287504434586, 0.07294813543558121, -0.021338801831007004, 0.06445209681987762, -0.039416201412677765, 0.05866777151823044, -0.07760430127382278, 0.008294528350234032, 0.07513382285833359, 0.04115333408117294, -0.06890502572059631, 0.055335041135549545, -0.015207243151962757, 0.011831559240818024, 0.016178982332348824, -0.021148500964045525, -0.07141035795211792, 0.01392152439802885, -0.07279297709465027, 0.047366559505462646, 0.055564869195222855, 0.016086645424365997, 0.04961838945746422, 0.06278779357671738, 0.044624023139476776, 0.009063848294317722, 0.0246104933321476, 0.010700222104787827, -0.012592615559697151, 0.08000943064689636, 0.06782165914773941, 0.08049046248197556, -0.06582292169332504, -0.02551979385316372, -0.07330264151096344, 0.06427359580993652, -0.01574975997209549, -0.00924088153988123, -0.009849803522229195, -0.06356263160705566, -0.06438218802213669, -0.0640888437628746, -0.056306708604097366, 0.06165791675448418, -0.06531114876270294, 0.07577090710401535, -0.041794732213020325, 0.0076999724842607975, -0.07177592068910599, 0.07058272510766983, 0.07480468600988388, 0.0730682909488678, -0.05639229714870453, -0.04635929316282272, -0.05296863988041878, 0.07078267633914948, -0.07847749441862106, 0.07525835931301117, 0.033039700239896774, -0.017316283658146858, -0.07648756355047226, 0.012674644589424133, -0.061524879187345505, 0.00914782751351595, -0.06703711301088333, 0.07135418057441711, -0.051706310361623764, 0.06976333260536194, 0.03065103478729725, 0.017404505982995033, 0.009532617405056953, 0.04585600271821022, -0.07768406718969345, 0.06730953603982925, -0.08017314225435257, 0.0169187281280756, 0.014648240990936756, 0.07212775945663452, 0.011853804811835289, 0.018058551475405693, -0.06396819651126862, 0.009550646878778934, -0.04643229395151138, 0.06563914567232132, -0.07604832202196121, 0.07810456305742264, -0.010061725974082947, 0.044817473739385605, 0.06341417133808136, -0.08363880217075348, -0.06230729818344116, 0.017548106610774994, -0.07289805263280869, 0.030107170343399048, -0.07294943183660507, 0.08777894079685211, -0.05852552875876427], [-0.0009946211939677596, -0.0004102286766283214, 0.006272949278354645, -0.0024208063259720802, 0.0014251043321564794, -0.0018298921640962362, -0.0029163684230297804, -0.00046778464457020164, 0.0006784765282645822, 0.0014606084441766143, 0.00021367012232076377, -3.1583876989316195e-05, 0.00032710982486605644, -0.0012893835082650185, 3.5373792343307287e-05, -0.001202610321342945, 0.0012846147874370217, -0.0036976041737943888, -0.001459422754123807, -0.0015487695345655084, -0.0012194295413792133, -0.0005842059617862105, 0.0015289915027096868, 0.0033523712772876024, -0.0034018836449831724, -0.00014742462371941656, -0.020002251490950584, -0.0010378793813288212, 0.0006671621231362224, -0.0022631643805652857, -0.00797958206385374, -0.0005835603806190193, 0.004604972433298826, -0.001345785683952272, 0.0008073432836681604, -0.00011113963410025463, 0.0019317286787554622, -0.004356547724455595, 0.000530887977220118, 0.0010945763206109405, 0.0016201623948290944, -0.0014782301150262356, 0.00046781866694800556, -0.0010268823243677616, 0.0011748259421437979, 0.00029404243105091155, -0.004778028000146151, -0.0002243180206278339, 0.0017412406159564853, -0.0011375683825463057, 0.0007886440143920481, 0.0015657538315281272, 0.0008903684793040156, 0.00012895405234303325, 7.165750139392912e-05, 0.003838015953078866, 0.0011149592464789748, 0.0012669421266764402, 0.0007481612265110016, -0.0004992022877559066, 0.0023791647981852293, 0.002054305514320731, 0.0007668504258617759, -0.0026486446149647236, -0.00025284523144364357, -0.0017786654643714428, 0.013635770417749882, -0.0025571242440491915, -0.0011336305178701878, -0.003993438556790352, -0.0009422286530025303, -0.0004369858652353287, -6.133206625236198e-05, -0.000390823493944481, 0.00291054486297071, -0.000729908817447722, 0.0012364384019747376, -0.001105569419451058, 0.0006592569407075644, -0.0007896720780991018, 0.003049814375117421, 0.001759145874530077, 0.00010527166887186468, -0.0016706514870747924, -0.000984812155365944, -0.0008154523093253374, 0.0015272431774064898, -0.0029684642795473337, 0.0014130398631095886, 0.002462355187162757, -0.0008410275913774967, -0.0021657224278897047, 0.00098907807841897, -0.0008926007431000471, 0.0016101018991321325, -0.0016867307713255286, 0.00042632489930838346, -0.000746746314689517, 0.005531000439077616, 0.0017787421820685267, 0.008719692938029766, 0.0047587244771420956, 0.0006052406970411539, -0.0026760001201182604, 0.00014022519462741911, -0.0013600806705653667, 0.0007813682896085083, 0.0007108730496838689, 0.004632311873137951, 0.0015751614701002836, 0.0011990915518254042, -0.008221770636737347, 0.0005424427799880505, -0.0008737625903449953, 0.011607571505010128, -0.0037387104239314795, 0.0017813484882935882, -0.0017161975847557187, 0.0022781910374760628, 0.0020927423611283302, -0.0031977565959095955, -0.0006771254120394588, 0.005517574958503246, -0.0016500868368893862, 9.78053649305366e-05, -0.00019902885833289474, 0.0016236449591815472, -0.00017741706687957048], [-0.0007599908858537674, -0.0002407915162621066, 0.0007812707917764783, -0.0006435757386498153, 4.620673644240014e-05, -0.0009924025507643819, -0.0008438269724138081, -0.0014551602071151137, 0.0001545151462778449, 0.00020625047909561545, 3.046625351998955e-05, -0.0007739951834082603, 1.3169758858566638e-05, -0.0013323586899787188, 0.0004933999734930694, -0.00034152617445215583, 1.9262730347691104e-05, -0.0006633067969232798, -5.405912816058844e-05, -0.00023274662089534104, -0.0008910287288017571, -0.00039261934580281377, 3.36006487486884e-05, 0.000507220218423754, -1.5126475773286074e-05, -0.0001648827746976167, -0.00034102750942111015, -0.0001375341962557286, 3.7993806927261176e-06, -0.00026781647466123104, -0.00034870716626755893, -0.0003555267467163503, 0.00026755311409942806, -0.0003643379604909569, 0.0002721488126553595, -6.952453190933738e-07, 0.0005182420718483627, -0.00041721275192685425, 0.0003858926356770098, 0.00037129613338038325, 0.0013053466100245714, -0.0002631994429975748, 0.00018184246437158436, -0.00028358775307424366, 0.0006253235624171793, 0.00043131064740009606, -0.00015465433534700423, -8.51237346068956e-05, 4.743712634081021e-05, -3.6820085369981825e-05, 0.00030359046650119126, 1.9037347556150053e-06, 0.00018135552818421274, 9.914256952470168e-05, 0.001113499398343265, 0.0007733880775049329, 6.815230790380156e-06, 0.00026941357646137476, 0.00016586088167969137, -0.0004265803436283022, 0.0001492304145358503, 0.00012877241533715278, 0.0003507432993501425, -4.6626132643723395e-06, -0.000577164872083813, -0.0002159314026357606, 0.0010755178518593311, -0.0005725101800635457, -3.237714554416016e-05, -0.0006092386320233345, -0.00010021806519944221, -3.5131542972521856e-05, -0.0002629604423418641, -0.000279057101579383, 0.0004979849909432232, -0.0001023953955154866, 0.0002858467632904649, -5.515248631127179e-06, 0.0003367081517353654, -6.839217530796304e-05, 0.0006613130099140108, 0.0009582873317413032, 0.000192833089386113, -9.56830263021402e-05, -2.3231057639350183e-05, -0.0004244252049829811, 5.1439688832033426e-05, -0.00035940948873758316, 0.00043376986286602914, 0.0008456202340312302, -0.00019187908037565649, -5.053887434769422e-05, 4.2403480620123446e-05, -0.00012016576511086896, 0.00034804496681317687, -1.1754952538467478e-05, 5.545562453335151e-05, -1.2210100067022722e-05, 7.340947922784835e-05, 0.0005655144923366606, 2.591099837445654e-05, 0.00039150466909632087, 0.000343674240866676, -0.0003503287152852863, 7.751427619950846e-05, -0.000542675144970417, 0.0007583765545859933, 1.756055098667275e-05, 0.0015381460543721914, 0.0006158658652566373, 0.000426565355155617, -0.0004961477243341506, 0.0006608916446566582, -0.00035519301309250295, 0.004565836396068335, -0.00011215406993869692, 0.00023291344405151904, -0.0005251593538559973, 0.00029261544113978744, 0.0007196208462119102, -0.0006735100760124624, -0.0001363941701129079, 1.4136155641608639e-06, -0.00015297181380447, 4.452848952496424e-05, -0.0001920007634907961, 3.54214571416378e-05, -4.88953482999932e-05], [-0.00014855139306746423, -5.726455583499046e-06, 0.0004857379535678774, -0.00020898657385259867, 3.6442703276406974e-05, -7.457526953658089e-05, -0.00021724874386563897, -0.00033017818350344896, 7.005670795479091e-06, 0.00019990168220829219, 3.93454211007338e-05, -0.00024356132780667394, 0.0003732857294380665, -0.00018014940724242479, 1.4722424566571135e-05, -0.0001760351296979934, 0.00016319839050993323, -0.00031495836446993053, -8.649092342238873e-05, -0.00010109705908689648, -6.588377436855808e-05, -1.4287346857599914e-05, 0.0001915987959364429, 0.0007787945214658976, -0.0005163875175639987, -0.0004709464847110212, -0.00018685802933759987, -0.00014117937826085836, 0.00012954979320056736, -0.0004166508442722261, -0.00011126846948172897, -0.0011269249953329563, 0.0005457352963276207, -8.03873990662396e-05, 0.0005383274983614683, -0.00017024436965584755, 0.000758720503654331, -3.4014727134490386e-05, 4.279318090993911e-05, 0.00019793774117715657, 0.0008113278890959918, -0.0014174532843753695, 0.00015216434258036315, -0.00018069274665322155, 0.0005569239147007465, 2.071789594992879e-06, -0.0008263532654382288, -0.00019420879834797233, 0.0001402251364197582, -0.00033861526753753424, 7.0777146902401e-05, 2.5345918402308598e-05, 6.070976087357849e-05, 0.00017724945791997015, 0.00019446386431809515, 0.00034731917548924685, 0.000256920960964635, 8.009278644749429e-06, 9.442908776691183e-06, -0.0007315550465136766, 0.0003256792260799557, 0.00021083821775391698, 0.0003844345628749579, -0.00015033423551358283, -0.0006452624220401049, -0.00024974788539111614, 5.951694674877217e-06, -5.396016422309913e-05, -0.0004902236978523433, -5.936410525464453e-05, -0.00038187630707398057, -2.307843169546686e-05, -0.00026402249932289124, -9.144602518063039e-05, 0.0005585126928053796, -0.00019224904826842248, 0.00018961417663376778, -0.00022415856074076146, 0.00035517915966920555, -4.159116360824555e-05, 0.0002576923288870603, 0.0006925092311576009, 7.920779353298713e-06, -0.0004795246641151607, -6.62870443193242e-05, -0.00013594365736935288, 0.00045485360897146165, -0.00011487951269373298, 8.650595555081964e-05, 4.7842873755143955e-05, -0.0005310737178660929, -0.00011477361113065854, 5.375051514988627e-08, -0.0001832493144320324, 0.00026910711312666535, -7.424764771712944e-05, 0.00013254283112473786, -0.00020072277402505279, 0.00013419880997389555, 0.00028556628967635334, 0.00026578831602819264, 1.2233082088641822e-05, 2.6816283934749663e-05, -5.801203224109486e-05, 0.0002767357509583235, -0.0006720732781104743, 0.00010148291767109185, 1.0463693797646556e-05, 0.0002748355036601424, 0.000267064111540094, 0.0006532614352181554, -0.0006649012211710215, 0.0002396852505626157, -0.00028022369951941073, 0.00028988494887016714, -0.00023999501718208194, 4.7278204874601215e-05, -0.0005657674628309906, 0.0002527612668927759, 0.0005751432036049664, -0.000306360685499385, -5.546798638533801e-05, 0.00027510669315233827, -0.0003100527392234653, 6.508373189717531e-05, -1.938210698426701e-05, 6.269622099353e-05, -0.000492693914566189], [0.0006556066800840199, 0.001026219455525279, -0.0002810042933560908, 0.0007762685418128967, -0.0005030730389989913, 0.0012886077165603638, 0.0021272224839776754, 0.0002587214985396713, -0.0011251858668401837, -0.0013413580600172281, -0.0003222422965336591, 0.00038381360354833305, -0.0003244988329242915, 0.0006568313692696393, -0.000287344038952142, 0.0014107003808021545, -0.0006646189140155911, 0.0020381612703204155, 0.00020991062046959996, 0.00012596894521266222, 0.004160752519965172, 0.0005607795901596546, -0.0003854342794511467, -0.000684887170791626, 0.0002521779388189316, 0.0006768942694179714, 0.0015851006610319018, 0.00240562716498971, -0.000958470453042537, 0.0005125172319822013, 1.7068516172003e-05, 2.667686203494668e-05, -0.0013452036073431373, 4.1330386011395603e-05, -0.0004579128872137517, 0.00011066399019910023, -0.00024770034360699356, 0.0012845505261793733, -3.7052726838737726e-05, -0.002155626192688942, -0.0013911284040659666, 0.0015599160687997937, -1.237699507328216e-05, 5.240028622210957e-05, -9.983364725485444e-05, -0.0010682488791644573, 0.0010252335341647267, 0.00018663147056940943, -0.0010453863069415092, 0.0008325960370711982, -0.0014204108156263828, -0.0001506767439423129, -0.00012977943697478622, -0.0005331714055500925, -0.0033969588112086058, -8.704173524165526e-05, -0.0001064244715962559, -0.0005190585507079959, -0.0017622687155380845, 0.0002605409827083349, -0.00035377376480028033, -9.150401456281543e-05, -0.00167963991407305, 0.0003449653449933976, 2.0657906134147197e-05, 0.0014271116815507412, -0.0009325301507487893, 0.0005304641672410071, 0.0010477373143658042, 0.00026965801953338087, 9.581937047187239e-05, 0.00018972813268192112, 7.754002581350505e-05, 0.00027230801060795784, -2.7512278393260203e-05, 0.0004218817630317062, -0.0006164346123114228, 4.6149842091836035e-05, -0.0013414184795692563, 0.0007034637383185327, -0.00014468017616309226, -0.0007482297951355577, -0.00035974005004391074, 0.0001281423174077645, 0.0004377254517748952, 5.278659955365583e-05, -0.00022416285355575383, 0.00015041032747831196, -0.000711086846422404, -0.00035272445529699326, 0.000508995377458632, 0.0001943767856573686, -0.00046681545791216195, 6.659980135736987e-05, -0.00023478353978134692, 0.004726326558738947, -0.00010471956920810044, 0.0004996630013920367, -0.0009223651140928268, -0.00013498445332515985, -0.0010524220997467637, -0.0025074572768062353, -0.0007275941898114979, 0.00019019204773940146, -0.0009535196586512029, 0.0016145665431395173, -0.00048378368956036866, -0.0011812244774773717, -0.001325115212239325, -0.0006488215294666588, -0.00014805441605858505, 0.0013841341715306044, -0.006364162545651197, 0.0003736514481715858, -0.001192575553432107, 0.0005851727328263223, -0.0007589293527416885, 0.0009067620267160237, -0.0003302422119304538, -0.0006843238952569664, 9.349545143777505e-05, 0.00022665946744382381, -0.0019657639786601067, 0.0011054557980969548, -3.7994592275936157e-05, 0.00017406794358976185, -0.00021287045092321932, 0.0001914811145979911], [-0.00031145295361056924, -7.741192530374974e-05, 0.00048576967674307525, -1.9032351701753214e-05, 0.00018916153931058943, -0.00044696571421809494, -1.9303384760860354e-05, -0.0007087835110723972, 0.0004468544211704284, 0.0006231237202882767, 0.0001764449552865699, -0.00040603691013529897, 7.80296468292363e-05, -0.00019544686074368656, 0.00012916451669298112, -0.00027349108131602407, 0.00041999592212960124, -0.0009338627569377422, -0.00018137706501875073, -0.00012741175305563956, -2.9083004847052507e-05, -0.00011981281568296254, 0.00030644243815913796, 0.00019132858142256737, -0.00046616909094154835, -3.017949711647816e-05, -0.0006206813268363476, -0.00020147414761595428, 0.00013797858264297247, -0.00011075904330937192, -0.0006034839316271245, -5.8637109759729356e-05, 0.0004752929089590907, -2.288201721967198e-05, 0.00016244508151430637, -0.0006712527829222381, 0.00010397934966022149, -0.0007500416249968112, 9.060848242370412e-05, 0.00019426882499828935, 0.00028768950141966343, -0.0001224975858349353, 0.00032018739148043096, -8.38282794575207e-05, 0.0005116451065987349, 5.570227949647233e-05, -0.000328658614307642, -0.00018157319573219866, 0.0006577768945135176, -9.800974657991901e-05, 0.00018577754963189363, 0.00025413004914298654, 0.0002597329148557037, 7.545903645223007e-05, 0.0009376714588142931, 0.0004232637002132833, 0.00018341209215577692, 0.0006085321656428277, 0.0005656146095134318, -0.00017546102753840387, 0.00039460902917198837, 4.737579274660675e-06, 0.00010372554970672354, -0.0004732777888420969, -1.589260864420794e-05, -0.00024210831907112151, 0.00019817297288682312, -0.00015141619951464236, -0.0003119137545581907, -0.0006360274273902178, -0.0002300013875355944, -0.00029569846810773015, -6.41539327261853e-06, -0.0001463879889342934, 0.00010963336535496637, -4.231348793837242e-05, 1.3294294149091002e-05, -0.00044237184920348227, 2.5083620130317286e-05, -4.848973185289651e-05, 0.0006138012395240366, 0.0002660534519236535, 0.0004598976520355791, -0.0005886016297154129, -0.0003372405772097409, -4.515007458394393e-05, 0.00011702546908054501, -0.0003957819426432252, 0.00044069087016396224, 0.0006001258152537048, -0.00020001687516923994, -0.0005046630976721644, 0.0002490197657607496, -7.897696195868775e-05, 2.7140808924741577e-06, -2.9451064619934186e-05, 3.535707946866751e-05, -0.00014304656360764056, 0.0005030291504226625, 5.7117129472317174e-05, 8.758744661463425e-05, 0.0003058819565922022, 0.0005588445928879082, -0.0004982319660484791, 0.00018206123786512762, -0.0003529954410623759, 0.00026742610498331487, 6.635016325162724e-05, 0.00015290403098333627, 9.812586540647317e-06, 0.00029710913076996803, -8.409824658883736e-06, 0.0003342188138049096, -3.955457577831112e-05, 8.602411253377795e-05, -0.00021204951917752624, 0.00016897045134101063, -0.0001067232369678095, 0.000518337357789278, 4.1918308852473274e-05, -6.362126441672444e-05, -0.00013147851859685034, 0.00015687706763856113, -5.27373367731343e-06, 0.00012257312482688576, -0.0005311737768352032, 0.00025416704011149704, -0.00011574773088796064], [0.01954829692840576, 0.011806998401880264, -0.01182291004806757, 0.010704398155212402, -0.01147789042443037, 0.00901319645345211, 0.013361713849008083, 0.025646397843956947, -0.024648666381835938, -0.035073939710855484, -0.09406881034374237, 0.03384318947792053, -0.08628174662590027, 0.026620201766490936, -0.048770174384117126, 0.03454841300845146, -0.017565736547112465, 0.01608656346797943, 0.06053101271390915, 0.020199254155158997, 0.014082346111536026, 0.010615937411785126, -0.014070622622966766, -0.009621836245059967, 0.012847778387367725, 0.020297689363360405, 0.037929050624370575, 0.013962142169475555, -0.05278594419360161, 0.02812846377491951, 0.013469566591084003, 0.014913216233253479, -0.021036187186837196, 0.014661089517176151, -0.01918747089803219, 0.07668225467205048, -0.07052293419837952, 0.008039452135562897, -0.02107706479728222, -0.013129178434610367, -0.014003056101500988, 0.012563420459628105, -0.028854966163635254, 0.03420203924179077, -0.022562507539987564, -0.01690458320081234, 0.011626523919403553, 0.010277369059622288, -0.01294671930372715, 0.02955554984509945, -0.016556011512875557, -0.037444017827510834, -0.021586360409855843, -0.04949573799967766, -0.035347744822502136, -0.017020253464579582, -0.013892830349504948, -0.08064794540405273, -0.01679609902203083, 0.018682487308979034, -0.011646534316241741, -0.01528339833021164, -0.015742439776659012, 0.015080238692462444, 0.01249757967889309, 0.030789492651820183, -0.02175714261829853, 0.03549142926931381, 0.028397152200341225, 0.014493059366941452, 0.044148243963718414, 0.011836929246783257, 0.012007835321128368, 0.012742036022245884, -0.03328188881278038, 0.007527709472924471, -0.01245381310582161, 0.08250876516103745, -0.007328926119953394, 0.020085176452994347, -0.00804201327264309, -0.03301824629306793, -0.00864891055971384, 0.011415725573897362, 0.07283815741539001, 0.019920209422707558, -0.021714821457862854, 0.042251620441675186, -0.013390621170401573, -0.025900794193148613, 0.08021008968353271, 0.013136666268110275, -0.03553053364157677, 0.02980997785925865, -0.022246461361646652, 0.01878354884684086, -0.013289613649249077, 0.05697917565703392, -0.012484373524785042, -0.034932978451251984, -0.008182359859347343, -0.024850448593497276, -0.009804919362068176, 0.00779331848025322, -0.03595603257417679, 0.011273562908172607, -0.013193375431001186, -0.012543017975986004, -0.017674613744020462, -0.07002774626016617, -0.015192097052931786, 0.019146621227264404, -0.009019047021865845, 0.07348529249429703, -0.018211573362350464, 0.028140923008322716, -0.012285462580621243, 0.015580732375383377, -0.014847245998680592, -0.017439546063542366, 0.018061073496937752, 0.0377090647816658, -0.01183295901864767, 0.03095567785203457, -0.013006996363401413, 0.008211789652705193, -0.026249660179018974, 0.01884939707815647], [-2.547991698520491e-06, -1.925982587636099e-06, 6.8284571170806885e-06, -1.4251431821321603e-06, 2.035384795817663e-06, -3.0757075819565216e-06, -2.359548489039298e-06, -2.3130251065595075e-06, 2.4207654405472567e-06, 6.112655228207586e-06, 1.3448246818370535e-06, -5.617117494693957e-06, 4.7593416638846975e-06, -9.81963148660725e-06, 2.107142336171819e-07, -1.8860452755120605e-08, 3.32438389705203e-07, -3.812308193573699e-07, -1.4242663155528135e-06, -1.4643596557561978e-07, -1.0357341579947388e-06, 5.942436018813169e-07, 5.877712283108849e-06, 6.670434231637046e-06, -3.947882305510575e-06, -1.5523609135925653e-06, -1.1555814126040787e-05, -5.222331310505979e-06, 4.099750299246807e-07, -1.0989067504851846e-06, -1.9767892354138894e-06, -2.996520606757258e-06, 5.51214839106251e-07, -5.983252322039334e-06, 2.5275442112615565e-06, -1.0845647011592519e-06, 1.11697954707779e-06, -2.0731329186673975e-06, 4.739584710478084e-06, 6.240823495318182e-06, 8.460446565550228e-07, -2.2986453132034512e-06, 3.8863181544002146e-06, -4.3285340325383e-06, 4.815510692424141e-06, 1.9656963559100404e-06, -1.971496430996922e-06, -2.96935104415752e-06, 2.2936371806281386e-06, 5.720368108086404e-07, -7.960256453998227e-08, -4.296467750464217e-07, 5.815165422973223e-06, 1.686985626747628e-07, 1.7058011962944875e-06, 1.1657779452889372e-07, 4.2443775782885496e-06, 7.787709819240263e-07, 1.275561317015672e-06, -1.111828623834299e-06, 2.4242310701083625e-06, 5.3690032473241445e-06, 4.015492322650971e-06, -2.7928713279834483e-06, -6.783844810342998e-07, -8.71177326189354e-06, 1.7237809970538365e-06, -3.9059641494532116e-06, 2.135538039738094e-07, -6.7789337663271e-06, -1.1613605011007166e-06, -1.5472107861569384e-06, -5.735965260100784e-06, -5.208747211327136e-07, 1.9809316142982425e-07, -7.560566928077606e-07, -6.766899218746403e-07, -4.896951963928586e-07, 1.3837976666764007e-06, -1.179307105303451e-06, 1.4695681329612853e-06, 7.268867648235755e-06, 3.859423031826736e-06, -2.4487857785970846e-07, -3.5325157909937843e-07, -1.7859129002317786e-06, 2.58156910604157e-06, -5.101001079310663e-06, 3.51315406987851e-06, 1.5592383988405345e-06, -8.390860450901982e-09, -8.173186870408244e-06, -3.865152393700555e-07, -4.307827111915685e-06, 1.2781025588992634e-06, -1.028271753966692e-06, 2.67032919509802e-06, -1.2796633654943435e-06, 1.844606572376506e-06, -4.813344958165544e-07, -1.511575192125747e-06, 6.21991134153177e-08, 8.649204232824559e-07, -3.124868044324103e-06, 5.060973151671533e-08, -1.4498637312954088e-07, 3.6014116631122306e-06, -1.5853973422963463e-07, 5.8602436183718964e-06, 1.334641069661302e-06, 4.6086097427178174e-06, -4.247013748681638e-06, 1.4201553995007998e-06, -4.3001111293961003e-07, 5.219741083806184e-08, -2.4847470285749296e-06, 2.0361628116916108e-07, -3.819183802988846e-06, 6.810862942074891e-06, 2.772859488686663e-06, 1.196329009189867e-07, -1.5804431541255326e-06, 1.7629520243644947e-06, -7.24995857126487e-07, 3.3775252177292714e-06, -2.9294981231942074e-06, 2.1761306925327517e-06, -7.743096830381546e-07], [-2.5130959784291917e-06, -1.1181390391357127e-06, 5.838840024807723e-06, -2.2188842194736935e-06, 7.3100327426800504e-06, -8.464256779916468e-07, 8.691046673448e-07, -1.7639944189795642e-06, -1.1167869615746895e-06, 3.0328030788950855e-06, -1.8654759514902253e-07, -7.414644187520025e-07, 3.6930430269421777e-07, 1.8568290727216663e-07, 2.1558762455242686e-06, -4.5469678866538743e-07, 3.5342161481821677e-06, -4.245103355060564e-06, -7.339472745115927e-07, -4.778840320796007e-06, -2.742689503065776e-06, -3.192430540366331e-06, -5.610001494460448e-07, 3.9307442989411356e-07, 5.065152777206094e-07, -8.438292411483417e-07, 3.401253934498527e-06, -2.1232055757991475e-07, 3.910008217644645e-06, -1.26826932955737e-07, -1.9620192688307725e-06, -9.905291335599031e-06, 2.729275365709327e-07, -8.515002605236077e-07, 1.8626722066983348e-06, -2.4057869723037584e-06, 2.0786881123058265e-06, -1.4420400020753732e-06, 5.090015520181623e-07, 5.743749170505907e-06, 5.892052286071703e-06, -5.5727896324242465e-06, 8.33037631764455e-07, -5.259329100226751e-06, 2.640019260979898e-07, 1.231933197232138e-06, -4.150430413574213e-06, -6.317842462522094e-07, 2.1206039946264355e-06, -3.7813213111803634e-06, 1.5716614143457264e-06, -7.702158910660728e-08, 5.482023880176712e-06, -8.064751000347314e-07, 4.91330683871638e-06, 9.956085733620057e-08, 2.1807491066283546e-06, 1.6927955357459723e-06, 7.774828191031702e-06, -3.1451668291992974e-07, 2.8502115583250998e-06, 3.9211608964251354e-06, 1.2712110901702545e-06, 5.511072913577664e-07, -3.1428055535798194e-06, -2.8060173917765496e-06, 1.75102522916859e-05, -4.430688477441436e-06, -8.95013363333419e-06, 7.310928253900784e-07, 2.0110820742047508e-07, -6.801972745051899e-07, -5.707953505407204e-07, -6.077947887206392e-07, 1.5503840131714242e-06, 2.815107968956454e-08, 1.1227119102841243e-05, -3.008121041148115e-07, 4.36443269791198e-06, -1.2071579931216547e-06, 3.643846753220714e-07, 4.033965524286032e-06, 3.5772723094851244e-06, -2.3702502858213848e-06, -1.2042926300637191e-06, -4.899897021459765e-07, 1.2671229114857852e-06, -2.5302921358161257e-07, 2.780312115646666e-06, 9.954955203284044e-06, 1.4583731910988718e-07, 4.451375730241125e-07, 1.8358955458097626e-06, -3.837946678686421e-06, 6.215545454324456e-06, -1.328817870671628e-05, 4.910744337394135e-06, 1.394045909819397e-07, -1.7981103894726402e-07, 1.0521728654566687e-05, 5.013013151256018e-07, 3.5486509659676813e-06, 6.242411927814828e-06, -2.451933767133596e-07, 2.958241793749039e-06, -1.8109302857283183e-07, -7.073949745972641e-07, 2.289795020260499e-06, 1.2670092246480635e-06, 1.9941721802752e-06, -2.4417502686446824e-07, -5.723210847463633e-07, 9.696697816252708e-06, -5.30231375250878e-07, 4.5986080294824205e-06, -5.804738975712098e-06, 7.199673291324871e-06, -1.3893683217247599e-06, 4.363087384717801e-07, 1.5299737015084247e-06, -1.961076577572385e-06, -2.4511177798558492e-06, 6.1279906731215306e-06, -1.840429604271776e-06, 3.865060989483027e-06, 2.141721751058867e-07, 8.299934393107833e-07, -8.380175131605938e-07], [-0.07732786238193512, -0.04379187896847725, 0.06699240952730179, -0.023546462878584862, 0.01921732909977436, -0.07953493297100067, -0.00888376496732235, -0.05447951704263687, 0.075016550719738, 0.053950801491737366, 0.005742324516177177, -0.05005320534110069, 0.004254351370036602, -0.01851990632712841, 0.008454530499875546, -0.07108773291110992, 0.012490875087678432, -0.031134625896811485, -0.014233480207622051, -0.0452873595058918, -0.041308749467134476, -0.020646439865231514, 0.07313163578510284, 0.07825592905282974, -0.07666284590959549, -0.006352553144097328, -0.00860334187746048, -0.04048231616616249, 0.015354366041719913, -0.03465171158313751, -0.012044262140989304, -0.07292617857456207, 0.030635861679911613, -0.06551095098257065, 0.03261474892497063, -0.01455156784504652, 0.0055638691410422325, -0.07524314522743225, 0.005410066805779934, 0.014294339343905449, 0.049610745161771774, -0.06858618557453156, 0.022680388763546944, -0.013372853398323059, 0.005669183097779751, 0.0613848939538002, -0.007418851833790541, -0.07289350032806396, 0.08019766211509705, -0.06676606088876724, 0.015614434145390987, 0.03016972728073597, 0.0750308632850647, 0.007462766487151384, 0.06283871084451675, 0.02997528575360775, 0.029222777113318443, 0.025307439267635345, 0.008611136116087437, -0.02588706836104393, 0.06270315498113632, 0.06584549695253372, 0.07642372697591782, -0.012991303578019142, -0.03266191855072975, -0.0592254213988781, 0.03586934506893158, -0.02770201303064823, -0.07165410369634628, -0.07219082117080688, -0.006004588678479195, -0.03845402970910072, -0.051194626837968826, -0.005432212725281715, 0.03945747762918472, -0.009252316318452358, 0.07520408183336258, -0.01826377399265766, 0.053114134818315506, -0.05257127434015274, 0.07023343443870544, 0.01253069844096899, 0.009889407083392143, -0.00673567783087492, -0.008766638115048409, -0.02684389427304268, 0.01158828567713499, -0.07710331678390503, 0.05400467664003372, 0.06402396410703659, -0.0020473944023251534, -0.0733344554901123, 0.021416209638118744, -0.005439882632344961, 0.056911975145339966, -0.061755307018756866, 0.02199968695640564, -0.019200149923563004, 0.06937184929847717, 0.07080037891864777, 0.06710758060216904, 0.009506435133516788, 0.04964582249522209, -0.07825929671525955, 0.03591800481081009, -0.0674702525138855, 0.059365756809711456, 0.00522877462208271, 0.07001493126153946, 0.00701934564858675, 0.017537858337163925, -0.06674455106258392, 0.07010219246149063, -0.020489279180765152, 0.06447876989841461, -0.00711902417242527, 0.007150310091674328, -0.04976491257548332, 0.055144842714071274, 0.05600537732243538, -0.0816902220249176, -0.03630479797720909, 0.06740093976259232, -0.04927900806069374, 0.017966900020837784, -0.015939241275191307, 0.0906175747513771, -0.004301536362618208], [0.019932841882109642, 0.048388030380010605, -0.06225942075252533, 0.03618726506829262, -0.04976056516170502, 0.06527797132730484, 0.06470203399658203, 0.054632820188999176, -0.0625380277633667, -0.009145590476691723, -0.0031744795851409435, 0.05101097375154495, -0.0022921243216842413, 0.06277288496494293, -0.05537118390202522, 0.05064404755830765, -0.04659206047654152, 0.07186175137758255, 0.004168267361819744, 0.03659879043698311, 0.0645567923784256, 0.04044425114989281, -0.039756521582603455, -0.064456507563591, 0.06443917006254196, 0.0570559985935688, 0.008349261246621609, 0.065750852227211, -0.018048161640763283, 0.030788369476795197, 0.06163520738482475, 0.06422940641641617, -0.05632985755801201, 0.06465478986501694, -0.01593082956969738, 0.014836438000202179, -0.02288590557873249, 0.05469028279185295, -0.04629826918244362, -0.05237885192036629, -0.05083759129047394, 0.06119227036833763, -0.01843288168311119, 0.02875770442187786, -0.035307545214891434, -0.06087588518857956, 0.06758276373147964, 0.06146542727947235, -0.0717831626534462, 0.06474127620458603, -0.06537432223558426, -0.02942080795764923, -0.06425648182630539, -0.005611371248960495, -0.055796459317207336, -0.013508599251508713, -0.026007840409874916, -0.026633847504854202, -0.07633419334888458, 0.04512990638613701, -0.062319330871105194, -0.05603167414665222, -0.06479934602975845, 0.05940971523523331, 0.034505363553762436, 0.015053492970764637, -0.054421208798885345, 0.0424891896545887, 0.06909485161304474, 0.010342025198042393, 0.021915283054113388, 0.035061366856098175, 0.04715712368488312, 0.03710590675473213, -0.036281224340200424, 0.060391005128622055, -0.020696960389614105, 0.004341579042375088, -0.04728325083851814, 0.015676837414503098, -0.062473442405462265, -0.0649556964635849, -0.051066845655441284, 0.0487334243953228, 0.004370083566755056, 0.024843567982316017, -0.057889439165592194, 0.028122317045927048, -0.056008126586675644, -0.0627550408244133, 0.0033355471678078175, 0.0625373125076294, -0.02362147904932499, 0.03387308865785599, -0.0095529118552804, 0.061195481568574905, -0.049764230847358704, 0.012750780209898949, -0.060622964054346085, -0.07149899005889893, -0.013630762696266174, -0.06105908751487732, -0.05938108637928963, 0.06151465326547623, -0.053660474717617035, 0.06629109382629395, -0.06047870218753815, -0.03471957519650459, -0.06086718663573265, -0.024145958945155144, -0.0692339688539505, 0.05393726006150246, -0.05910978838801384, 0.016877571120858192, -0.06207232549786568, 0.06361675262451172, -0.05900430679321289, 0.010473520494997501, -0.018912389874458313, -0.0548887625336647, 0.07273096591234207, 0.037142276763916016, -0.062186483293771744, 0.04601331427693367, -0.013756141997873783, 0.057009875774383545, -0.07850327342748642, 0.02155539020895958], [0.03465992584824562, 0.07495652884244919, -0.007111852522939444, 0.015699848532676697, -0.07209213823080063, 0.008307595737278461, 0.01566324383020401, 0.07483433187007904, -0.033878445625305176, -0.013837279751896858, -0.020696740597486496, 0.07385044544935226, -0.04459400475025177, 0.008319768123328686, -0.07107969373464584, 0.01690785028040409, -0.06637799739837646, 0.0077780988067388535, 0.06679864972829819, 0.014681482687592506, 0.018779657781124115, 0.03183535113930702, -0.009684920310974121, -0.020322101190686226, 0.007257713936269283, 0.021083708852529526, 0.010311288759112358, 0.027619116008281708, -0.05757056549191475, 0.05795716121792793, 0.04521465674042702, 0.019249863922595978, -0.014043142087757587, 0.051881834864616394, -0.06306038051843643, 0.016913626343011856, -0.021140508353710175, 0.013602322898805141, -0.019352933391928673, -0.033151548355817795, -0.017992202192544937, 0.007409705314785242, -0.06618890911340714, 0.05851542204618454, -0.06629707664251328, -0.05891930311918259, 0.04223299399018288, 0.016078781336545944, -0.007774564903229475, 0.015065230429172516, -0.02446381375193596, -0.013093161396682262, -0.00956114474684, -0.07699456810951233, -0.0112950773909688, -0.011689960025250912, -0.08009562641382217, -0.07459422945976257, -0.009240584447979927, 0.05162080004811287, -0.040397759526968, -0.04144013300538063, -0.017261121422052383, 0.014781474135816097, 0.08213905245065689, 0.028277946636080742, -0.03054080344736576, 0.07458262890577316, 0.03535054251551628, 0.014232366345822811, 0.013279124163091183, 0.066273994743824, 0.021088948473334312, 0.017732903361320496, -0.04365135356783867, 0.015789391472935677, -0.01625414937734604, 0.015496575273573399, -0.05688225105404854, 0.016607845202088356, -0.01590767689049244, -0.040755774825811386, -0.09409793466329575, 0.06724371016025543, 0.009434103034436703, 0.01371694914996624, -0.009615609422326088, 0.01251651719212532, -0.011214736849069595, -0.048966679722070694, 0.04147149994969368, 0.00838262215256691, -0.0563085600733757, 0.015924567356705666, -0.01358645036816597, 0.020115600898861885, -0.015269654802978039, 0.04207435995340347, -0.008105389773845673, -0.028759263455867767, -0.016691789031028748, -0.012353088706731796, -0.007825104519724846, 0.007202330511063337, -0.032060492783784866, 0.04436994716525078, -0.008265838027000427, -0.0760863721370697, -0.03741376847028732, -0.07852786779403687, -0.014906133525073528, 0.036010146141052246, -0.006607958115637302, 0.06634287536144257, -0.0123900780454278, 0.056744325906038284, -0.045400653034448624, 0.06388946622610092, -0.018143078312277794, -0.05077892541885376, 0.015155628323554993, 0.0559934638440609, -0.00799356959760189, 0.01870015822350979, -0.018764138221740723, 0.06653589010238647, -0.019286703318357468, 0.06984402239322662], [-5.417777720140293e-05, -0.00016902553034015, 0.000773742503952235, -0.00027719922945834696, 0.00022072660794947296, -0.000582797103561461, -0.0009954673005267978, -0.0002728145627770573, 0.0002615453558973968, 0.00010101239604409784, 0.00036634737625718117, -3.365876546013169e-05, 0.000378330732928589, -0.0008219500887207687, 9.110382234212011e-05, -0.0012553953565657139, 0.00026533129857853055, -0.0005178470746614039, -0.00018064035975839943, -0.0002435923961456865, -0.00021083923638798296, -9.086852514883503e-05, 0.0006646208930760622, 0.0003052210377063602, -0.00034548231633380055, -0.0003753739292733371, -0.00016446615336462855, -0.0004989498993381858, 8.381503721466288e-05, -0.00016409695672336966, -0.0004261275753378868, -0.00016120482177939266, 0.0005708224489353597, -0.00016476097516715527, 0.00045312379370443523, -0.00020484914421103895, 9.416695684194565e-05, -0.00020391278667375445, 0.00010394643322797492, 0.00023032761237118393, 0.00025848113000392914, -0.0001787293003872037, 1.125215112551814e-05, -0.00014010122686158866, 0.00034588779089972377, 0.0004443215730134398, -0.0002871910110116005, -0.00033570799860171974, 0.0005990947829559445, -0.0001516920019639656, 0.0003072120307479054, 0.00011407462443457916, 9.268807843909599e-06, 9.275757474824786e-05, 0.0003996367158833891, 0.00019778005662374198, 0.0010463985381647944, 0.0009886095067486167, 0.0016366940690204501, -0.0002957159304060042, 3.318000744911842e-05, 0.0006496277637779713, 2.5832123355939984e-05, -0.0002886936126742512, -0.00021441656281240284, -0.0003107967204414308, 0.00040972806164063513, -0.0005300887860357761, -0.000537953048478812, -0.00038489652797579765, -0.00014905686839483678, -2.4216897145379335e-05, -0.00030412254272960126, -0.0006875683320686221, 0.0001658176042838022, -0.00049980339827016, 1.2063395843142644e-05, -6.380028207786381e-05, 3.865997859975323e-05, -8.699646423337981e-05, 0.0005495146033354104, 0.00017067717271856964, 5.653851985698566e-05, -0.00018470472423359752, -8.9172666775994e-05, -2.252020021842327e-05, 0.00040930070099420846, -0.0005809464491903782, 0.00010048002877738327, 0.00013518115156330168, -0.0003369577170815319, -6.355048390105367e-05, 0.0003221238439437002, -0.0002272299607284367, 0.00023509679886046797, -0.00013326964108273387, 0.0004109186993446201, -0.00010124955588253215, 9.531765499559697e-06, 0.0001625916629564017, 0.0004405976505950093, 0.0006981984479352832, 0.0001695186656434089, -0.0002377645141677931, 0.00030956833506934345, -3.225132604711689e-05, 1.788483132258989e-05, 8.739569602767006e-05, 0.00021014577941969037, 6.11445284448564e-05, 0.0004912294098176062, -0.00022783434542361647, 0.00046341269626282156, -6.38705023447983e-05, 0.00011562589497771114, -0.0007505169487558305, 0.0001837695890571922, -0.0001959787041414529, 0.00033882918069139123, 0.0004755892150569707, -0.0006658557686023414, -0.00035892671439796686, 7.434246981574688e-06, -0.0003968601522501558, 0.00023361085914075375, -0.0003858498530462384, 3.5949731227447046e-06, -0.0001309519720962271], [-4.379568352419483e-08, 4.785314104083227e-06, -1.203006263494899e-06, 7.504052064177813e-06, 3.1902797559268947e-07, 1.3531956710721715e-06, 8.596536645200104e-06, 5.77053879169398e-06, -1.6862702977959998e-05, -9.894985169012216e-07, -9.397095936947153e-07, 5.106771368446061e-06, 2.2010452482845722e-07, 8.449079587080632e-07, -7.498913134895702e-08, 4.411602731124731e-06, -1.9258882275607903e-06, 3.987251147918869e-06, 2.9994571377756074e-06, 3.6290660432314326e-07, 5.931948635407025e-06, 1.3776646028418327e-06, -2.1580717657343484e-06, -2.1945875232631806e-06, 2.387781137258571e-07, 3.5054376894549932e-06, -1.4380536867975025e-06, 6.735239821864525e-06, -1.4864676813886035e-06, 2.685070512598031e-07, 4.858824013354024e-06, 5.256903932604473e-06, -1.7657233684076346e-06, 3.118578888461343e-07, -1.416044142388273e-06, 1.6346881466233754e-06, -6.891063719649537e-08, 7.376754183496814e-06, -1.3459619196964923e-07, -1.682535867075785e-06, -1.6198315222482051e-07, 1.8591717889648862e-05, -4.5993851927050855e-07, 7.676229074604635e-07, -2.821896259774803e-06, -2.0432268854619906e-07, 4.57371243101079e-06, 4.06887374992948e-06, -5.3120834309083875e-06, -4.969749625161057e-07, -8.84714808080389e-08, -2.6927958174383093e-07, -6.319090971373953e-06, -5.251607717582374e-07, -5.543593943002634e-06, -9.107777714234544e-07, -6.562357839356991e-07, -4.406997049954953e-06, 1.2142824346028647e-07, 7.462080731102105e-08, 1.328648124854226e-07, -3.585996410038206e-06, -6.738096544722794e-06, -7.672691708648927e-07, 4.945752152707428e-06, 8.243386218964588e-06, -1.9172859538230114e-05, 3.6314682461124903e-07, 7.675434403608961e-07, 7.57093800984876e-07, -1.2434156815288588e-07, 1.9833519218082074e-06, -6.67409551624587e-07, 6.748190912730934e-07, -3.5210415916253623e-08, 6.098956646383158e-07, -5.361160219763406e-06, 5.023638095735805e-06, 3.858543351498156e-08, 3.829534591659467e-07, -5.476381375046913e-07, -2.470962726874859e-06, -1.8871376141760265e-06, 1.33291769088828e-06, 3.785168473768863e-06, 1.5660415328966337e-06, -4.577125309879193e-06, 6.58308454148937e-06, -1.1445976042523398e-06, -2.6245797926094383e-06, 7.243550044222502e-07, 2.399032837274717e-06, -3.4735271015051694e-07, 2.157797553081764e-06, 1.8739942220236117e-07, 4.705341325461632e-06, -2.38245706896123e-06, 3.747306209334056e-06, -8.204914934140106e-07, 6.155065079838096e-07, -2.9121038096491247e-06, -2.4303142254211707e-07, -4.409652945014386e-07, 3.075451786571648e-06, -4.881008408119669e-06, 1.6786311789473984e-06, -7.069420462357812e-06, 5.925946666707205e-08, -3.336011786814197e-06, -1.724053959151206e-06, -2.212138042523293e-06, 2.1774947072117357e-06, -9.007678272610065e-06, 2.3772148693979034e-08, -3.226205308237695e-06, 1.4717057865709648e-06, -2.4542184746678686e-06, 8.245491471825517e-07, -2.356259528824012e-06, -4.2993801230295503e-07, 5.835064712300664e-06, 1.4152591347738053e-06, -2.105222847603727e-06, 6.849909937045595e-07, -4.12650297221262e-06, 1.1907998214155668e-06, 4.520026379850606e-07, 4.665211235987954e-06], [-1.8773398835492117e-07, 6.651299827353796e-06, -3.880950316670351e-06, -5.4787403058753625e-08, -2.362485247431323e-06, 6.387334906321485e-06, 3.1450576898350846e-06, 2.8831655072281137e-06, -4.413579972606385e-06, -4.094619271199917e-06, -1.6337945680788835e-06, 6.892425062687835e-06, -1.8373374359725858e-06, 3.333864924570662e-06, -8.17377440398559e-07, 5.659876023855759e-06, -1.3473882063408382e-06, 5.390627393353498e-06, 2.1844739421794657e-06, 6.516296252812026e-06, 1.4271630561779602e-06, 2.324823526578257e-06, -5.471503072840278e-07, -2.4042994937190088e-06, 5.439699179987656e-07, -3.0104527581897855e-07, 9.964001037587877e-07, 6.0723668866558e-06, -2.5096792342083063e-06, 4.520713446254376e-06, 4.835618256038288e-06, -4.636403048152715e-07, -1.430428540061257e-07, 2.3561888440326584e-07, 3.8079281239333795e-07, 5.90381091569725e-07, -1.7631497257752926e-06, 1.286013457502122e-06, -8.361226718989201e-06, -8.669850899423182e-07, 2.0464432282096823e-07, 7.996273780008778e-06, 2.3919093905533373e-07, 1.706763896436314e-06, -3.96112000089488e-07, -1.7151216979982564e-07, 2.236208729300415e-06, -3.351421185016079e-07, -5.8231621551385615e-06, 1.7806761434258078e-06, -1.4656716302852146e-06, -2.038161028394825e-06, -1.0039606195277884e-06, -3.499696887843129e-08, -3.469866896921303e-06, -3.430975084484089e-06, -1.0104549801326357e-06, 3.6971317740608356e-07, -4.296332917874679e-06, 4.992042249796214e-06, -8.085487934295088e-06, -8.156038347806316e-06, -8.488109983773029e-07, 1.1910844477824867e-05, -1.9144988527841633e-07, 1.1982961041212548e-06, -1.293326658924343e-05, 2.465417765051825e-06, 5.255361884337617e-06, 7.851855116314255e-06, -9.078458163003233e-08, 2.9673341828129196e-07, 1.3335317134988145e-06, 3.071364290008205e-06, -1.0376008958701277e-06, -1.843494743525298e-07, -1.7382153600919992e-06, 1.3247176866570953e-06, -7.109445050446084e-06, -7.682753278004384e-08, -2.1070445654913783e-06, -5.444800081022549e-06, -6.78664548559027e-07, 2.5139031549770152e-06, 3.318250037409598e-06, 2.4618186600378067e-08, -1.217491558236361e-06, 1.766732680152927e-06, -3.209319174857228e-06, -2.095808440572e-06, 1.504527745055384e-06, 7.780949999869335e-06, -1.2924144812132e-06, 7.093332214935799e-07, -1.0167017308049253e-06, 6.095986464060843e-06, -8.138746352415183e-07, 3.375387450432754e-06, -3.6468168218561914e-06, -1.0706316061259713e-05, -9.255876648239791e-06, -4.595994141709525e-06, -6.897429898344853e-07, 2.5033500605786685e-06, -1.112496306632238e-06, 3.2371992801927263e-06, -1.963024487849907e-06, -3.7520962337111996e-07, -7.860781806812156e-06, -1.526597884549119e-06, -9.477324056206271e-06, 2.6299258024664596e-06, -2.6920888558379374e-06, -7.098734045030142e-08, -6.823997864557896e-06, 8.402396815654356e-06, -6.115033102105372e-06, 1.0447294698678888e-05, -8.987813657768129e-07, -5.489638965627819e-07, 1.4101935903454432e-06, 1.3275252968014684e-06, -3.537207476256299e-06, 5.671607596013928e-06, -1.6837035445860238e-06, 2.8627800929825753e-06, -3.550397650542436e-06, 1.3133470702086925e-06], [-4.036200607515639e-06, -9.98315272227046e-07, 2.019860630753101e-06, -2.430077984172385e-06, 1.8218848936157883e-06, -5.517741101357387e-06, -3.430117203606642e-06, -4.792552772414638e-07, 6.775348992960062e-06, 2.297685881558209e-07, 1.582231234920073e-08, -2.0194677574636444e-07, 2.630378503454267e-06, -1.8327191355638206e-06, 7.108382078513387e-07, -5.499289727595169e-06, 1.9695791309004562e-07, -2.423707314846979e-07, -1.3701678653887939e-06, -1.5271315305653843e-06, -1.763765453688393e-07, -3.8439461036432476e-07, 1.8701978206081549e-06, 3.158179708862008e-07, -1.8558814645075472e-06, -2.2796448320150375e-06, -9.035608854901511e-06, -1.540436096547637e-05, 9.057882266461093e-08, -2.995451495735324e-07, -2.7164512061972346e-07, -1.6449363329229527e-06, 1.6952460555330617e-06, -5.0470152928028256e-06, 8.922902452468406e-07, -1.0789723319248878e-06, 9.957080919775763e-07, -4.953203642799053e-06, 3.8858539141983783e-07, 1.8648310060598305e-06, 2.436549721096526e-06, 1.4760517785816774e-07, -1.2635437940389238e-07, -1.0423727871966548e-06, 7.788775064909714e-07, 1.8672801616048673e-06, -6.323341494862689e-06, -3.1832230433792574e-06, 2.9129566883057123e-06, -1.8945802366943099e-06, 4.168006853433326e-06, 5.797372978122439e-06, 2.8504987312771846e-06, 2.3679683636146365e-07, 1.5997048876670306e-06, 5.498728796737851e-07, 1.5130783594941022e-06, 7.973151241458254e-07, 2.7649500466964128e-08, -4.244589035806712e-07, -4.6854606239321583e-07, 7.249439477163833e-06, 8.936390827329888e-07, -9.683953976491466e-07, -4.664284460886847e-06, -6.379524165822659e-06, 4.425645329320105e-06, -1.7227813486897503e-06, -1.7508534710941603e-07, -2.922897692769766e-06, -3.856760031339945e-06, 8.329579515020669e-08, -4.005171831522603e-06, -5.390138085203944e-06, 5.1382407946221065e-06, -1.601973781362176e-05, 4.4292432903603185e-06, 5.986240694255685e-07, 4.836934408558591e-07, -1.9780436559813097e-06, 5.144609986018622e-06, 6.077216767153004e-06, 2.8847432531620143e-06, 5.280022037368326e-07, -3.873746834415215e-07, -4.417900981934508e-06, 2.378428462179727e-06, -4.953804364049574e-06, 1.9701958535733866e-06, 3.3459421047155047e-06, -7.066242346809304e-07, -2.3591856006532907e-06, -6.545857189621529e-08, -1.30906494177907e-06, 7.944876756482699e-07, -1.5938652722979896e-05, 8.525739190190507e-07, -1.188630449178163e-06, 4.8999445425579324e-06, -4.2645916664696415e-07, -6.521268858250551e-08, 2.5237809495592955e-06, 5.728849373554112e-06, 1.743535094078652e-08, 5.026751750847325e-06, -5.291638444759883e-06, 2.739360070336261e-06, 6.165639661048772e-07, 4.3539560579120007e-07, 1.9746594261960126e-06, 2.5706985979923047e-06, -7.426897354889661e-06, 2.4232774649135536e-06, -1.3497082136382232e-06, 7.702946277277078e-06, -5.160573891771492e-06, 2.7410117127146805e-06, 6.526651645799575e-07, 5.3649418987333775e-06, -5.723636604670901e-07, -6.561034751939587e-06, -1.9306357046389166e-07, 8.489033461955842e-06, -4.0997497308126185e-06, -1.6507625844042195e-07, 3.3635535601206357e-07, 2.9025343337707454e-06, -1.68741564721131e-06], [4.709780796474661e-07, -1.0396612282193018e-07, 5.547613000089768e-06, 2.7424704285294865e-07, 2.8163262868474703e-06, -5.2024820433871355e-06, -2.676918029465014e-06, 7.097819434420671e-07, 2.5412523427803535e-06, 2.046041572612012e-06, -1.382182404086052e-07, -2.014845819076072e-07, 2.5831485572780366e-07, 5.482315827975981e-07, 1.4591946637665387e-06, -2.8172014481242513e-06, 3.48635535374342e-06, 3.5281692589705926e-07, -1.1763432894440484e-07, -2.9202922746662807e-07, -9.370679435960483e-06, -1.519055899734667e-06, 1.9383983840270957e-07, 2.1008395378885325e-06, -5.11817961523775e-06, -5.931896680522186e-07, 3.4017466532532126e-06, -5.3804164679149835e-08, 1.4049260244064499e-06, 1.071425401732995e-07, -1.2941220575157786e-06, -3.501674882500083e-06, 1.9428648556640837e-06, -4.4660241655947175e-06, 2.849753286682244e-07, 1.6271494018837984e-07, 2.0677584871009458e-06, -2.5622370003475226e-07, 3.7787385736010037e-06, 5.238881385594141e-06, 2.508507350285072e-06, -1.8656722033938422e-07, -3.3719291536726814e-07, -2.0553383706101158e-07, 4.242369413987035e-06, 1.5673108464397956e-06, 5.393294486566447e-07, -2.7887167561857495e-06, 8.142059755300579e-07, -3.992322035628604e-06, 5.122684001435118e-07, 2.55659665526764e-06, 8.145350875565782e-06, 1.2026986269120243e-06, 1.4562515389116015e-05, 1.1680027682814398e-06, 3.005128519362188e-07, -6.800563596698339e-07, 7.661336667297292e-07, -3.15132911055116e-06, 2.1156502043595538e-06, -1.0556518326154674e-08, 7.75698026700411e-07, -2.1059752270957688e-06, 8.726170896977692e-09, -6.3456277530349325e-06, 1.6929570847423747e-05, -1.3712485724681756e-06, 9.120962118913667e-08, -3.7787579003634164e-06, -1.0966895302999546e-07, -1.147054376815504e-06, -3.2775583349575754e-06, -2.1595397470264288e-07, 5.120939022162929e-06, -6.263534828576667e-07, 3.702780759340385e-06, -4.3648003611451713e-07, 2.1464329620357603e-06, -2.5414534476908557e-08, 5.584467544395011e-06, -5.465106482915871e-07, 6.004936494719004e-07, -1.2678885923378402e-06, -1.5294301647372777e-06, 3.027677735190082e-07, 2.6706672997534042e-06, -3.943790034099948e-06, 1.9855787058986607e-07, 2.7682324343913933e-06, -8.149229415721493e-07, -5.910412710363744e-06, 2.068792809950537e-06, -3.843489139399026e-06, 4.988130513083888e-07, -1.610369963600533e-06, 4.123022335988935e-06, -1.5225959941744804e-06, 5.087284080218524e-06, 9.836961680775858e-07, 3.0849901122564916e-07, 2.228281346106087e-06, 3.013212335645221e-06, -1.4948925581848016e-06, 5.743900601373753e-06, -2.646762823133031e-06, 1.6183005300263176e-06, 1.9677652289828984e-06, 4.811550297745271e-06, 2.0003451481898082e-06, 8.158098694366345e-07, -3.0169198907969985e-06, 2.3401464943617611e-07, -4.407943379192147e-06, 1.4447424291574862e-05, -7.265570729941828e-06, 3.000762035298976e-06, -5.7711572480911855e-06, -8.489755032314861e-07, 2.2793649634422763e-07, -3.290982022008393e-06, -5.693071329915256e-07, -2.6749722792374087e-07, -1.865494823505287e-06, 1.1885849744430743e-06, -7.619250482093776e-06, 1.1891107760675368e-06, -9.302058856519579e-07], [0.005663017276674509, 0.004056267905980349, -0.007916032336652279, 0.009060637094080448, -0.0041845873929560184, 0.0057509406469762325, 0.016516951844096184, 0.009175319224596024, -0.011209994554519653, -0.0029039105866104364, -0.0010222193086519837, 0.003770776791498065, -0.00022542757506016642, 0.00625348836183548, -0.005816920660436153, 0.008215073496103287, -0.005512244068086147, 0.014406044036149979, 0.0006642317748628557, 0.0034207680728286505, 0.009906860068440437, 0.0025045303627848625, -0.01047082431614399, -0.009721843525767326, 0.007883726619184017, 0.00529868807643652, 0.013629673980176449, 0.00809673871845007, -0.0004105629923287779, 0.0015784928109496832, 0.009501690976321697, 0.009692897088825703, -0.007703131064772606, 0.0028148365672677755, -0.0014002694515511394, 0.0017558123217895627, -0.0018022892763838172, 0.0023801338393241167, -0.0014025330310687423, -0.0049954927526414394, -0.004772702697664499, 0.0071012056432664394, -0.00036548919160850346, 0.0007643990684300661, -0.0014523155987262726, -0.005058120470494032, 0.008334671147167683, 0.008518768474459648, -0.00784327182918787, 0.007444207090884447, -0.005418507382273674, -0.002497195964679122, -0.00906315352767706, -0.004200072959065437, -0.009151224978268147, -0.007299899589270353, -0.0015944556798785925, -0.008025259710848331, -0.009084703400731087, 0.0029584940057247877, -0.00414493540301919, -0.009421190246939659, -0.0028489273972809315, 0.007198660634458065, 0.0033192045520991087, 0.002568409778177738, -0.004909333772957325, 0.0034499969333410263, 0.009148440323770046, 0.006603018846362829, 0.002013404853641987, 0.0037071029655635357, 0.005179268307983875, 0.002614304656162858, -0.0007680912385694683, 0.011889168992638588, -0.003993871621787548, 0.0013736963737756014, -0.0026264884509146214, 0.005476799793541431, -0.0037972773425281048, -0.003608750645071268, -0.005650091916322708, 0.0038925332482904196, 0.0020417915657162666, 0.0010319529101252556, -0.005524133797734976, 0.003730745753273368, -0.0060762944631278515, -0.01501054223626852, 0.0016862369375303388, 0.0049366881139576435, -0.0006983333732932806, 0.0011178565910086036, -0.005191542208194733, 0.011005854234099388, -0.0017707361839711666, 0.0007457440951839089, -0.009421960450708866, -0.006405971944332123, -0.00424633314833045, -0.003069041296839714, -0.0037215272895991802, 0.006395123433321714, -0.0028439851012080908, 0.0025309575721621513, -0.00721965916454792, -0.0018026436446234584, -0.0055650388821959496, -0.0016651253681629896, -0.0033322377130389214, 0.008551492355763912, -0.007059612777084112, 0.0022494609002023935, -0.01786615140736103, 0.007240372244268656, -0.006494641769677401, 0.003400805639103055, -0.003970510326325893, -0.0016599202062934637, 0.007324776612222195, 0.001273397821933031, -0.008731300942599773, 0.005018164869397879, -0.005012646317481995, 0.009544619359076023, -0.00839865580201149, 0.0014018515357747674], [0.00012256366608198732, 0.0002070111659122631, -0.00010622277477523312, 0.0001337601279374212, -0.00010166335414396599, 0.0005407962016761303, 3.76114112441428e-05, 0.00038401782512664795, -0.00021744608238805085, -0.00010540149378357455, -7.342307071667165e-05, 0.00045142913586460054, -4.819648165721446e-05, 0.00010077148181153461, -5.9874259022763e-05, 4.623338099918328e-05, -7.257862307596952e-05, 7.069815910654142e-05, 1.4880341950629372e-05, 0.00015217644977383316, 0.0006440968718379736, 0.0001821173937059939, -1.8538872609497048e-05, -0.0003547997330315411, 0.0001603389682713896, 0.0001934469910338521, 0.0001922295632539317, 0.0005144568858668208, -0.00013550832227338105, 9.379204857395962e-05, 0.00013974001922179013, 6.81829042150639e-05, -0.0004554330953396857, 4.190366962575354e-05, -2.994679380208254e-05, 9.446685726288706e-05, -6.299847882473841e-05, 0.00058630300918594, -4.521675145952031e-05, -9.760941793501843e-06, -2.7546870114747435e-05, 0.0004512188024818897, -3.8243935705395415e-05, 8.045576396398246e-05, -0.00013335236872080714, -1.2147937923145946e-05, 0.000851926626637578, 0.00019342491577845067, -0.0008087161113508046, 2.1261446818243712e-05, -0.0002346189576201141, -8.90968949533999e-05, -0.00011765376257244498, -2.6185718525084667e-05, -0.0001833797141443938, -2.0407595002325252e-05, -2.0249663066351786e-05, -0.00023987334861885756, -3.536182703101076e-05, 0.00015765578427817672, -0.00032453471794724464, -0.00014870222366880625, -0.0003361621347721666, 0.0002620814193505794, 0.0004566286806948483, 0.0006336190272122622, -0.00020200062135700136, 1.1051442925236188e-05, 1.9658942619571462e-05, 0.000163597782375291, 2.605623194540385e-05, 0.0002640562306623906, 4.356909994385205e-05, 0.0001572139299241826, -0.00020478738588280976, 6.015126928105019e-06, -0.00023192906519398093, 0.00017123612633440644, -8.418237121077254e-05, 4.053851171192946e-06, -0.000478504691272974, -0.00016242267156485468, -0.0009614232112653553, 0.0001254132657777518, 0.0003638728812802583, 8.00355919636786e-05, -0.00013726575707551092, 0.0003427184128668159, -2.6113340936717577e-05, -1.5307714420487173e-05, 3.11157236865256e-05, 0.00043077082955278456, -9.266276902053505e-05, 7.14896377758123e-05, -2.8181362722534686e-05, 0.00011290336260572076, -0.00016877480084076524, 0.00027477697585709393, -0.00010436902812216431, -0.0002029407914960757, -0.00017120689153671265, -0.0005839526420459151, -0.00040339704719372094, 0.0005963068106211722, -0.00023813697043806314, 0.00020786387904081494, -0.00020305060024838895, -0.0002686885418370366, -0.00016042451898101717, -2.6060684831463732e-05, -0.00013488592230714858, 0.00031051208497956395, -5.2259656513342634e-05, 0.00039882046985439956, -1.7345517335343175e-05, 0.00012586360389832407, -4.3138738874404225e-06, 4.4760592572856694e-05, -5.9148052969248965e-05, -0.00019467607489787042, 0.00019227969460189342, 0.00021055048273410648, -7.148333679651842e-05, 0.0002465462894178927, -0.0004284456081222743, 1.332924330199603e-05, -0.0005589040811173618, 0.00020682706963270903], [0.0076112039387226105, 0.0031058532185852528, -0.007638341281563044, 0.004564296454191208, -0.002512931125238538, 0.007042247802019119, 0.008236300200223923, 0.007228595670312643, -0.009016232565045357, -0.006898557301610708, -0.0018088985234498978, 0.0031170151196420193, -0.0011166404001414776, 0.0038961246609687805, -0.005575928371399641, 0.006093436386436224, -0.007792491000145674, 0.004450598731637001, 0.0016496514435857534, 0.004161182325333357, 0.00966606754809618, 0.004335625562816858, -0.004529660101979971, -0.008574606850743294, 0.007207938935607672, 0.003059257520362735, 0.023132599890232086, 0.00990982260555029, -0.0010640828404575586, 0.0010580017697066069, 0.008500159718096256, 0.0048473975621163845, -0.0035904529504477978, 0.007594143971800804, -0.002064725384116173, 0.0021757306531071663, -0.0022292917128652334, 0.0030160078313201666, -0.0030099565628916025, -0.005317866336554289, -0.003068826161324978, 0.007966406643390656, -0.0005815549520775676, 0.0020449701696634293, -0.0014838145580142736, -0.0027535082772374153, 0.007205270696431398, 0.0044471402652561665, -0.0077253044582903385, 0.006435449235141277, -0.005847780033946037, -0.0026070307940244675, -0.007339468691498041, -0.000754699285607785, -0.005303039215505123, -0.00406871410086751, -0.000548466166947037, -0.002610292285680771, -0.007149287965148687, 0.004393106326460838, -0.005025672726333141, -0.0042067659087479115, -0.006622873246669769, 0.004867010749876499, 0.002256628591567278, 0.007311640307307243, -0.009732670150697231, 0.003913323860615492, 0.00455000763759017, 0.005001843441277742, 0.003054496366530657, 0.0034455570857971907, 0.004487618803977966, 0.003346730023622513, -0.0024089945945888758, 0.010072732344269753, -0.008401194587349892, 0.0021264448296278715, -0.007147097494453192, 0.005549762863665819, -0.00506678456440568, -0.007850955240428448, -0.0044779228046536446, 0.00502077117562294, 0.0010950706200674176, 0.0016801413148641586, -0.005207315552979708, 0.007252673618495464, -0.006170842796564102, -0.0077717723324894905, 0.0024976006243377924, 0.00390427908860147, -0.001362216891720891, 0.0023754804860800505, -0.0025368547067046165, 0.008726557716727257, -0.002746965503320098, 0.0020743815694004297, -0.007895573042333126, -0.007360600400716066, -0.007842300459742546, -0.006416202522814274, -0.006758623290807009, 0.005930410698056221, -0.008090497925877571, 0.0031700218096375465, -0.007711879909038544, -0.004093613009899855, -0.007959898561239243, -0.0018866009777411819, -0.004058522637933493, 0.004695225972682238, -0.00950317457318306, 0.0003507692599669099, -0.006162390578538179, 0.007740460801869631, -0.0046050590462982655, 0.008640089072287083, -0.00414208834990859, -0.004805617034435272, 0.004997177980840206, 0.0027609593234956264, -0.007766787428408861, 0.006291938945651054, -0.006791975349187851, 0.007059510797262192, -0.004479153547435999, 0.0010139740770682693], [0.0008679208694957197, 0.0008066160371527076, -0.006728390697389841, 0.0015200903872027993, -0.0014120300766080618, 0.002030670177191496, 0.005304181482642889, 0.0016427725786343217, -0.001113404636271298, -0.0023543613497167826, -0.0014357074396684766, 0.0009266101405955851, -0.0002137463161488995, 0.005581450182944536, -0.00027077170670963824, 0.0011091824853792787, -0.001528222463093698, 0.0013995686313137412, 0.001003632671199739, 0.0011055627837777138, 0.004953966476023197, 0.004003772512078285, -0.00190317677333951, -0.0005560213467106223, 0.001344682415947318, 0.0005823743413202465, 0.004662061110138893, 0.004045277368277311, -0.0006706390413455665, 0.0008889379678294063, 0.0007899326737970114, 0.0018324487609788775, -0.0016994766192510724, 0.0014285488286986947, -0.0010047751711681485, 0.0005847662687301636, -0.0008583709714002907, 0.0021697015035897493, -0.0014051105827093124, -0.0012579181930050254, -0.0010318401036784053, 0.0011920573888346553, -6.680133810732514e-05, 0.0005277118179947138, -0.001133438665419817, -9.77690433501266e-05, 0.0022708592005074024, 0.004022538661956787, -0.006951067131012678, 0.0011625952320173383, -0.0014111674390733242, -0.00026480003725737333, -0.00488522881641984, -0.00017299663159064949, -0.004613080993294716, -0.00213660579174757, -0.0007495994796045125, -0.00043321153498254716, -0.0026719938032329082, 0.0006813025684095919, -0.0021510724909603596, -0.0009215258760377765, -0.0015878716949373484, 0.0035858347546309233, 0.0019499351037666202, 0.001641457318328321, -0.003381217597052455, 0.00022886681836098433, 0.0013533445307984948, 0.001008528284728527, 0.0012847197940573096, 8.490877371514216e-05, 0.00023512961342930794, 0.0012736206408590078, -0.0012463042512536049, 0.002309244591742754, -0.0021097424905747175, 0.00017135059169959277, -0.0010580277303233743, 0.002011039527133107, -0.00859920959919691, -0.005592526867985725, -0.0004902093787677586, 0.0003738202212844044, 0.0004853623395320028, 0.0012295563938096166, -0.0005942707066424191, 0.0016237801173701882, -0.0017334662843495607, -0.005053114145994186, 0.00017421934171579778, 0.006168271414935589, -0.00013058571494184434, 0.0012389154871925712, -0.0004930373979732394, 0.0013461308553814888, -0.000928332912735641, 8.695056021679193e-05, -0.0018786980072036386, -0.00219934550113976, -0.002664194442331791, -0.0017973269568756223, -0.002440153621137142, 0.0022799167782068253, -0.0013415723806247115, 0.0011674852576106787, -0.0038004082161933184, -0.0020511155016720295, -0.0011876969365403056, -0.0004957838682457805, -0.003690311685204506, 0.0016008646925911307, -0.0032495479099452496, 0.0008230371167883277, -0.0038349481765180826, 0.002053597941994667, -0.0012953835539519787, 0.0029713052790611982, -0.0002440956304781139, -0.00047652164357714355, 0.0009318087249994278, 0.0009653479792177677, -0.001055622473359108, 0.0020223951432853937, -0.0015933822141960263, 0.0017140988493338227, -0.0023382261861115694, 0.00040329614421352744], [-1.8781232938636094e-05, -4.114932380616665e-06, 6.17795594735071e-05, -5.904506906517781e-06, 4.320685548009351e-06, -9.579811376170255e-06, -1.393918864778243e-05, -1.77039055415662e-05, 1.1192611054866575e-05, 1.6938449334702455e-05, 4.421908670337871e-06, -2.0115694496780634e-05, 4.192862888885429e-06, -4.4607582822209224e-05, 9.267362656828482e-06, -3.338981969136512e-06, 4.943495241604978e-06, -1.514598807261791e-05, -5.127524218551116e-06, -1.142014025390381e-05, -1.2741820683004335e-05, -1.0775644113891758e-05, 4.415902367327362e-06, 5.7498928072163835e-06, -4.828688702218642e-07, -1.215752217831323e-05, -7.245432698255172e-06, -8.972807336249389e-06, 3.71561625911454e-08, -4.383812211017357e-06, -8.23804748506518e-06, -3.406182258913759e-06, 1.039023027260555e-05, -1.366983815387357e-05, 8.43564612296177e-06, -3.7106221952853957e-06, 7.854881005187053e-06, -1.761016210366506e-05, 5.4113752412376925e-06, 1.2631388017325662e-05, 9.921961463987827e-06, -7.37083200874622e-06, 3.727787998286658e-06, -1.5927574850138626e-06, 8.707365850568749e-07, 1.4219692275219131e-05, -8.727185559109785e-06, -2.5742187062860467e-05, 1.7301493926424882e-06, -9.82409983407706e-06, 1.731241172819864e-05, 1.6324187299687765e-06, 2.9278005513333483e-06, 1.3940925782662816e-05, 4.362998515716754e-05, 8.87471378518967e-06, 5.730808425141731e-06, 8.926243026508018e-06, 7.276865744643146e-06, -1.3157193279766943e-05, 6.179801403050078e-06, 8.992031325760763e-06, 1.152610366261797e-05, -2.563710268077557e-06, -1.0591519412628259e-06, -1.0160119927604683e-06, 8.287939635920338e-06, 1.8914404620318237e-07, -4.588428510032827e-06, -8.259698006440885e-06, -4.705093033408048e-06, -7.298268428712618e-06, -1.309178514929954e-06, -2.287445568072144e-06, 4.439928034116747e-06, -1.3073347417957848e-06, 1.1093274224549532e-05, -8.599025022704154e-06, 1.38100022013532e-05, -3.5373620903556002e-06, 2.587374547147192e-05, 2.2980908397585154e-05, 7.15115947969025e-06, -6.147562089608982e-06, -1.0117100828210823e-05, -4.7249636736523826e-06, 3.182336968166055e-06, -1.88821413757978e-05, 6.073129043215886e-06, 6.322305125650018e-05, -6.3985821725509595e-06, -1.3652845154865645e-05, 3.5876469155482482e-06, -6.686664164590184e-06, 3.4611011869856156e-06, -2.108362787112128e-05, 5.178962055651937e-06, -9.580940059095155e-06, 7.730816832918208e-06, 2.533457745812484e-06, 2.2064154109102674e-05, 1.2531124866654864e-06, 2.1066469344077632e-05, -8.301101843244396e-06, 1.966590207302943e-05, -3.7527154290728504e-06, 1.183419499284355e-05, 1.7800728528527543e-05, 1.2572702871693764e-05, 8.022843758226372e-06, 1.0203823876508977e-05, -8.112466275633778e-06, -2.8302193300078216e-07, -5.070043698651716e-06, 6.1354967328952625e-06, -1.4134805496723857e-05, 7.208874012576416e-05, -1.0707401543186279e-07, 4.014918431494152e-06, 3.6063040624867426e-06, -1.0762959391286131e-05, -8.244420314440504e-06, 1.3092726476315875e-05, -2.022424041570048e-06, 1.169112238130765e-05, -8.422767905358342e-07, 5.996201934976852e-07, -5.255934411252383e-06], [-8.972872456070036e-05, -5.5823446018621325e-05, 0.0019447959493845701, -0.00018162737251259387, 0.0006184407975524664, -1.762677129590884e-05, -0.0013378332369029522, -0.0003838117700070143, 0.00020974823564756662, 0.0023217923007905483, 0.0007318643620237708, -0.0004975497722625732, 0.0005246555665507913, -0.0002576169790700078, 0.0005950846243649721, -0.0006992217968218029, 1.0884113180509303e-05, -1.7209953512065113e-05, -0.0004675086820498109, -0.0013288931222632527, -0.0002510342455934733, -5.703140777768567e-05, 0.0005653704865835607, 0.00030216173036023974, -5.0538477808004245e-05, -0.0009059217409230769, -0.0030418774113059044, -0.00018040345457848161, 0.00028974440647289157, -0.0005121558206155896, -0.0003359803813509643, -0.00040290667675435543, 0.0011654386762529612, -5.665840581059456e-05, 0.0001401231565978378, -0.00015032218652777374, 4.6882269089110196e-05, -1.5474990505026653e-05, 0.0008898330852389336, 0.00023676585988141596, 1.7056243450497277e-05, -0.00030262392829172313, 0.0005376649787649512, -0.0004659578262362629, 0.0007125904085114598, 9.425890311831608e-06, -0.0007522343657910824, -0.0009145639487542212, 0.0003391994978301227, -0.0008204408222809434, 0.0001529322616988793, 0.00018749745504464954, 0.0006667391862720251, 5.017735020373948e-05, 0.001387799042277038, 0.001199004822410643, 0.00016455899458378553, 0.00024125030904542655, 0.0015118721639737487, -0.0005653416737914085, 0.0005045229918323457, 0.00010794736590469256, 0.00025597072090022266, -0.000572878634557128, -0.00024459336418658495, -0.0001848314714152366, 0.0012680839281529188, -0.0009489329531788826, -0.0008414281182922423, -4.1574421629775316e-05, -0.000669364002533257, -0.0003331046609673649, -0.00024321797536686063, -0.00010751002992037684, 7.751536759315059e-05, -0.00018619817274156958, 0.00041192705975845456, -0.0006498810835182667, 0.0004947619163431227, -6.042410677764565e-05, 3.861559889628552e-05, 5.499058897839859e-05, 1.4411525626201183e-05, -0.0001968663273146376, -0.00015988362429197878, -0.00023407413391396403, 0.0002601774176582694, -0.00011874154006363824, 0.00042052415665239096, 5.2450104703893885e-05, -0.00036648192326538265, -0.0031082965433597565, 7.923020893940702e-05, -3.842087971861474e-05, 0.00019493070431053638, -0.00010580704838503152, 0.0006254149484448135, -0.0005404690746217966, 0.0003575198643375188, 0.00023813737789168954, 0.0006017381674610078, 0.00016839237650856376, 0.0012332280166447163, -6.794221917516552e-06, 0.0011392146116122603, -0.0003148509422317147, 0.0012303994735702872, 0.00014167794142849743, 0.0003240519727114588, 9.568431096340646e-07, 0.0005149614298716187, -2.093570174110937e-06, 0.00037875803536735475, -0.00023710759705863893, 0.0012953212717548013, -0.0002447562583256513, 0.000597839243710041, -1.843928657763172e-05, 0.0005433964543044567, 0.00014758834731765091, -0.00108454586006701, -0.0001510246511315927, 0.0004906231188215315, -0.00015862077998463064, 0.00032952683977782726, -0.0002631353563629091, 0.0008865342824719846, -0.00041115819476544857], [0.00014202001329977065, 0.0004211994237266481, -0.00036181227187626064, 7.819765596650541e-05, -0.0006066201603971422, 0.0002378789649810642, 0.0001189282993436791, 4.9337886594003066e-05, -0.0006067263311706483, -0.00035875552566722035, -0.00016280609997920692, 0.00022535539756063372, -0.00016587837308179587, 5.261809565126896e-05, -0.0001882682554423809, 3.197355545125902e-05, -0.00012361393601167947, 0.00019755828543566167, 9.173311264021322e-05, 0.00010414921416668221, 0.0001308796345256269, 0.00036333955358713865, -0.00018591384286992252, -5.338243227015482e-06, 1.3874087926524226e-05, 0.0012227295665070415, 0.00012334465282037854, 0.00010584881965769455, -0.0003489034133963287, 6.098794983699918e-05, 0.00020232514361850917, 0.001048424281179905, -3.2706011552363634e-05, 0.00026999335386790335, -9.567417873768136e-05, 4.5246641093399376e-05, -0.0007543679093942046, 0.0001552365574752912, -8.79406143212691e-05, -0.0005134303937666118, -2.7970887458650395e-05, 0.0006295646307989955, -0.0005166284972801805, 0.00014514765643980354, -0.0006426889449357986, -0.0005722481291741133, 0.0007843761704862118, 0.00025559478672221303, -0.0004124497645534575, 1.8976750652655028e-05, -0.00018558293231762946, -0.0007564094848930836, -0.00023354325094260275, -4.945397449773736e-05, -0.00014084155554883182, -0.00035290425876155496, -2.7974858312518336e-05, -0.0001298677671002224, -0.0009111324907280505, 0.00013511376164387912, -3.962756818509661e-05, -9.159371256828308e-05, -0.00010164266132051125, 5.989626060909359e-06, 0.0003591845161281526, 7.62972777010873e-05, -0.0009788647294044495, 6.801108247600496e-05, 0.00011391076259315014, 4.9417369154980406e-05, 0.00040597934275865555, 1.1436577551648952e-05, 0.0002766990219242871, 0.00029515978530980647, -0.00014103695866651833, 0.0008946156594902277, -6.623555236728862e-05, 0.00046894652768969536, -3.038113754882943e-05, 2.325367313460447e-05, -0.0011169534409418702, -0.0007356290589086711, -6.14609380136244e-05, 7.796905265422538e-06, 8.897724183043465e-05, 7.289671088983596e-07, -0.0002518405963201076, 0.0002458155795466155, -0.000265201844740659, -0.00025362917222082615, 2.5984834792325273e-05, 0.0006382353603839874, -0.0002051152550848201, 0.00011326547246426344, -0.00015138571325223893, 0.0006206677644513547, -0.00013116163609083742, 7.604060374433175e-05, -6.726174615323544e-05, -0.00015688953862991184, -0.00018077644926961511, -0.0002818996727000922, -0.0001785835629561916, 1.3827427210344467e-05, -0.00012220678036101162, 6.585371011169627e-05, -0.00044833149877376854, -7.422922499245033e-05, -0.00019693915965035558, -0.00042334661702625453, -3.809802728937939e-05, 3.1913677958073094e-06, -9.613391011953354e-05, 9.403796138940379e-05, -0.00011670902313198894, 0.0009262238745577633, -0.0006543260533362627, 0.0002114421658916399, -6.542154733324423e-05, -9.374733053846285e-05, 0.00027695344761013985, 6.789751932956278e-05, -0.0001943237439263612, 0.0002985837636515498, -5.1829032599925995e-05, 0.0001999629894271493, -0.000520356057677418, 0.00030049527413211763], [-0.07300757616758347, -0.007535120472311974, 0.009216463193297386, -0.010419926606118679, 0.060173287987709045, -0.07127054780721664, -0.02496182918548584, -0.01844475045800209, 0.0690837949514389, 0.06230264529585838, 0.009029017761349678, -0.06743872165679932, 0.011622182093560696, -0.07223567366600037, 0.07216233760118484, -0.0074606044217944145, 0.012077802792191505, -0.010135364718735218, -0.04329860955476761, -0.008015516214072704, -0.009590321220457554, -0.008103813044726849, 0.016279982402920723, 0.0537833496928215, -0.05247809737920761, -0.06407509744167328, -0.009131718426942825, -0.07746926695108414, 0.042127713561058044, -0.04033644124865532, -0.07205256074666977, -0.07198455929756165, 0.062347132712602615, -0.06709352880716324, 0.05578717589378357, -0.024145521223545074, 0.030243461951613426, -0.011149078607559204, 0.021625714376568794, 0.06060301885008812, 0.008416382595896721, -0.06637635082006454, 0.0475754477083683, -0.050988342612981796, 0.06072244048118591, 0.06959768384695053, -0.07201124727725983, -0.06707107275724411, 0.07234955579042435, -0.016551606357097626, 0.011166010051965714, 0.008257973939180374, 0.07282552868127823, 0.008960586041212082, 0.05608721449971199, 0.06568823754787445, 0.04306992143392563, 0.03938785940408707, 0.01654290035367012, -0.06218687817454338, 0.07338074594736099, 0.058441612869501114, 0.06391721218824387, -0.05632392317056656, -0.009109322912991047, -0.008271027356386185, 0.028361964970827103, -0.01747489720582962, -0.03504275158047676, -0.009332860819995403, -0.010097188875079155, -0.02828199230134487, -0.061008092015981674, -0.043655578047037125, 0.05344719812273979, -0.059670742601156235, 0.023754937574267387, -0.029741166159510612, 0.0066298870369791985, -0.06712203472852707, 0.05386275425553322, 0.06800970435142517, 0.06817374378442764, -0.06441118568181992, -0.02672094851732254, -0.044676538556814194, 0.007579724304378033, -0.07147974520921707, 0.03463337570428848, 0.01992109604179859, -0.005885195452719927, -0.03557820990681648, 0.014891033060848713, -0.056368764489889145, 0.06640836596488953, -0.06545286625623703, 0.013886253349483013, -0.041979916393756866, 0.061444610357284546, 0.076597198843956, 0.011546525172889233, 0.06889327615499496, 0.06538409739732742, -0.06917514652013779, 0.011166214011609554, -0.06817037612199783, 0.06552436202764511, 0.03487579897046089, 0.0657944604754448, 0.04603540897369385, 0.008218050003051758, -0.057094965130090714, 0.062482886016368866, -0.025373034179210663, 0.0097418874502182, -0.06478854268789291, 0.07349658012390137, -0.06713555008172989, 0.06147509440779686, 0.06376923620700836, -0.0090255755931139, -0.008604687638580799, 0.04524167254567146, -0.06820803135633469, 0.008505881763994694, -0.013814207166433334, 0.008794513531029224, -0.050100088119506836], [-0.0616629421710968, -0.01521197147667408, 0.06385724991559982, -0.011484183371067047, 0.013520579785108566, -0.016815202310681343, -0.008124944753944874, -0.025441192090511322, 0.015587960369884968, 0.06227438524365425, 0.04705220088362694, -0.08087808638811111, 0.023426085710525513, -0.016655083745718002, 0.010344973765313625, -0.015415712259709835, 0.0713728666305542, -0.01236916147172451, -0.06758208572864532, -0.06614489108324051, -0.012220032513141632, -0.06962337344884872, 0.03678674250841141, 0.018652232363820076, -0.017116768285632133, -0.07221594452857971, -0.028023215010762215, -0.01479265931993723, 0.06108084321022034, -0.06562405824661255, -0.07172516733407974, -0.05853801965713501, 0.011163845658302307, -0.018637919798493385, 0.06777701526880264, -0.06055104359984398, 0.0784774199128151, -0.0070742228999733925, 0.07404773682355881, 0.07110589742660522, 0.06841659545898438, -0.007885470055043697, 0.06954851746559143, -0.013461224734783173, 0.07481604069471359, 0.02031385526061058, -0.07038909196853638, -0.00690842280164361, 0.042188819497823715, -0.016569968312978745, 0.012178868055343628, 0.0725545734167099, 0.011753496713936329, 0.07415035367012024, 0.014021026901900768, 0.03644093498587608, 0.07420720905065536, 0.025199629366397858, 0.008452489972114563, -0.02948964573442936, 0.05228719860315323, 0.054106857627630234, 0.040039919316768646, -0.005957685876637697, -0.08280045539140701, -0.012412233278155327, 0.006695336662232876, -0.057729557156562805, -0.041728515177965164, -0.04229218512773514, -0.06681951880455017, -0.019756658002734184, -0.05777404457330704, -0.06664076447486877, 0.01252486277371645, -0.007009435910731554, 0.02011672966182232, -0.05370461568236351, 0.06046850234270096, -0.013808139599859715, 0.011504456400871277, 0.0068763368763029575, 0.018508251756429672, -0.012428509071469307, -0.02397282049059868, -0.0682864561676979, 0.033443350344896317, -0.01023690402507782, 0.07559259980916977, 0.01844910904765129, -0.0686790868639946, -0.017290504649281502, 0.06090404465794563, -0.06940935552120209, 0.06864159554243088, -0.063005231320858, 0.00981154851615429, -0.06402361392974854, 0.007348288781940937, 0.011524487286806107, 0.009972108528017998, 0.07508998364210129, 0.02764144353568554, -0.019792405888438225, 0.06414844840765, -0.07190410792827606, 0.020425409078598022, 0.0733054131269455, 0.01502476166933775, 0.06922871619462967, 0.07279771566390991, -0.01248768251389265, 0.0063321711495518684, -0.06620240211486816, 0.02783220447599888, -0.022631000727415085, 0.04331943765282631, -0.01000001560896635, 0.016583599150180817, 0.07746316492557526, -0.01931839995086193, -0.06563745439052582, 0.009965694509446621, -0.0139009365811944, 0.03751814365386963, -0.06917548179626465, 0.01851654425263405, -0.014157925732433796], [6.07256197326933e-07, -2.737190563095737e-08, -3.8492007092827407e-07, 2.9009522677370114e-06, -2.9621596695506014e-06, 7.094640295690624e-06, 5.070942279417068e-06, 2.473783524692408e-06, -9.675896990302135e-07, -2.654469426488504e-06, -1.354429173261451e-07, 1.9002096678377711e-06, -1.6259519952654955e-07, 2.768162403299357e-06, 2.61841080373415e-07, 8.886913747119252e-06, -6.771737730559835e-07, 2.9635518785653403e-06, 3.79744801648485e-06, 5.598511165771924e-07, 2.0693978513008915e-06, 2.4252610728581203e-06, 7.355432103395287e-07, -6.190887802404177e-07, 4.894384915132832e-07, 3.3215519579243846e-07, 9.203738216001511e-08, 2.700291815926903e-06, -2.1479920064848557e-07, 2.5646415906521725e-06, 7.503388133045519e-06, -4.453887640920584e-07, -4.238829944824829e-07, 2.4875059807527578e-06, -2.0820189092773944e-06, 1.2549048733490054e-06, -2.119388398114097e-07, 2.34047388403269e-06, -3.4693673569563543e-06, -2.863146448817133e-07, -3.5786461012321524e-06, 3.0727910598216113e-06, 3.382392890216579e-07, -8.626406611256243e-08, -1.1296520341375071e-07, -3.981130248575937e-06, 9.01355997484643e-06, 8.386030458495952e-06, -8.546127901354339e-06, 2.299566688179766e-07, -1.2556835145005607e-06, -1.3389214927883586e-06, -1.748783915900276e-06, -1.4878843330734526e-06, -1.7934532934305025e-06, 4.3908644897783233e-07, -2.71068870461022e-06, -2.589883024484152e-06, -2.7369271720090182e-06, 3.817540346062742e-06, -3.5883565487893065e-06, 7.112275852705352e-07, -1.4406083437279449e-06, 7.278382554432028e-07, 6.332378887918821e-08, 2.317775624760543e-06, -1.0248451189909247e-06, 4.399789759190753e-07, 1.0500029645754694e-07, 2.332012627448421e-06, 7.705620532760804e-07, 1.5917197515591397e-06, 1.7119746189564466e-06, 4.768567578139482e-06, 1.5619079363204946e-07, 6.7602304625324905e-06, -5.762646651419345e-06, 3.839305918518221e-06, -6.262359420361463e-06, -3.6037786799170135e-07, -2.093517878165585e-06, -7.023583634691022e-07, -1.110016569327854e-06, 1.6716234085834003e-07, 8.958708690443018e-07, 6.68872814912902e-07, -2.950434463855345e-06, 9.52715527091641e-06, -2.485882930614025e-07, -3.86905367122381e-06, -1.0023408236747855e-07, 1.650897729632561e-06, -2.91375317829079e-06, 1.7833809806688805e-06, -1.1604946337229194e-07, 1.5700007907071267e-06, -4.267186000106449e-07, 1.8862440356315346e-06, -2.6887282729148865e-06, -4.424547057624295e-07, -2.848713165803929e-06, -3.1703921195003204e-06, -1.1928942740269122e-06, 9.70249743659224e-07, -6.948786790417216e-07, 2.7894770937564317e-06, -5.9351586969569325e-06, -4.674854778841109e-07, -2.3753555069561116e-06, -7.794162684149342e-07, -5.875134547750349e-07, 1.279757043448626e-06, -2.6507700567890424e-06, 1.5334400131905568e-06, -3.536108124535531e-06, 7.982640454429202e-06, -6.2464164329867344e-06, 6.359592134685954e-06, -1.701091491668194e-06, -1.9151498236169573e-06, 3.634039842381753e-07, 6.986923608565121e-07, -1.1325010746077169e-05, 6.659381142526399e-06, -1.3237627172202338e-06, 6.312217806225817e-07, -2.121202442140202e-06, 3.7033262287877733e-06], [-0.005915723741054535, -0.0017583643784746528, 0.010449236258864403, -0.014361935667693615, 0.00154811458196491, -0.0038119570817798376, -0.006221009884029627, -0.0016441569896414876, 0.0026280973106622696, 0.0010273155057802796, 3.9763581298757344e-05, -0.000515021150931716, 0.0005863290862180293, -0.0021677569020539522, 0.0010255747474730015, -0.002781504997983575, 0.0003784190630540252, -0.011011726222932339, -0.0007518260390497744, -0.0002661918115336448, -0.020125985145568848, -0.0046792952343821526, 0.0009062212775461376, 0.0026995877269655466, -0.008298121392726898, -0.001838345662690699, -0.02156941220164299, -0.006233189254999161, 0.0003225682594347745, -0.0001766589266480878, -0.0022859424352645874, -0.0011009532026946545, 0.0014127172762528062, -0.005751814227551222, 0.00010254963854094967, -0.0002662689075805247, 0.0004810903046745807, -0.0049884142354130745, 0.0025404447223991156, 0.002761951880529523, 0.0004524126707110554, -0.010266870260238647, 0.00045086650061421096, -0.0010745497420430183, 0.0012620872585102916, 0.002244073897600174, -0.0022051730193197727, -0.0026292528491467237, 0.013779187574982643, -0.0051259687170386314, 0.0015072094975039363, 0.00029642810113728046, 0.006465872749686241, 0.0011806156253442168, 0.0155679015442729, 0.0023600186686962843, 0.0004461960634216666, 0.0004084002284798771, 0.006947202607989311, -4.9480855523142964e-05, 0.0012336198706179857, 0.0016061706701293588, 0.00129930698312819, -0.02530563436448574, -0.0003368566103745252, -0.003132563317194581, 0.03217989578843117, -0.001266604638658464, -0.005157952196896076, -0.006595165003091097, -0.0012669123243540525, -1.775450618879404e-05, -0.001877464703284204, -0.0004313142562750727, 0.0018842271529138088, -0.017627093940973282, 0.010094637982547283, -0.00024467476760037243, 0.000672615715302527, -0.00037762962165288627, 0.004469231702387333, 0.012061460874974728, 0.0029374039731919765, -0.000997972791083157, -0.0006155484006740153, -0.000732680200599134, 0.0013901180354878306, -0.01212947629392147, 0.0002682047779671848, 0.02393956668674946, -0.0003665755793917924, -0.0017129818443208933, 0.00022259984689299017, -0.0003501255123410374, 0.001618321635760367, -0.0009199504274874926, 0.004233257845044136, -0.0010621992405503988, 0.0016857957234606147, 0.0009888330241665244, 0.010620596818625927, 0.0015981120523065329, 0.006067092064768076, -0.00044429273111745715, 0.0016587810823693871, -0.001687857205979526, 0.0024206298403441906, 0.0012028642231598496, 0.0004742511664517224, 0.0020359577611088753, 0.005100243724882603, -0.004061445593833923, 0.02158004231750965, -2.2647789592156187e-05, 0.007448722142726183, -0.0009903344325721264, 0.0018910641083493829, -0.0008181364391930401, 0.0011094799265265465, 0.0008920946856960654, -0.0027006466407328844, -0.0013917621690779924, 0.0028199153020977974, -0.0029539859388023615, 0.0005998287815600634, -0.0013241585111245513, 0.0023672461975365877, -0.0003083624760620296], [-0.0009958475129678845, -9.498780127614737e-05, 0.0011099957628175616, -0.002263829344883561, 0.0008155381656251848, -0.006295911967754364, -0.0007440796471200883, -0.0012304852716624737, 0.002621309831738472, 7.635317160747945e-05, 0.00034000322921201587, -0.0025264988653361797, 0.0002986831241287291, -0.0016809828812256455, 0.00013909605331718922, -0.0016462539788335562, 0.002281343564391136, -0.001805368228815496, -0.0002071500348392874, -0.0004419267934281379, -3.729686068254523e-05, -0.0006054260302335024, 0.001809982000850141, 0.0057255844585597515, -0.002247350290417671, -0.0007590348250232637, -0.01574726775288582, -0.000575125333853066, 0.0007932057487778366, -0.002327649388462305, -0.00053549645235762, -0.0014954161597415805, 0.0007676170789636672, -0.00019733558292500675, 0.0004497368645388633, -0.0002289075346197933, 0.0007084090611897409, -0.00021818123059347272, 0.0012906616320833564, 0.0004382489714771509, 0.002482660813257098, -0.0010172342881560326, 0.00048297722241841257, -0.00010961681982735172, 0.0026860462967306376, 0.0010907856049016118, -0.0009272981551475823, -0.00013794332335237414, 0.005340279079973698, -0.000931337708607316, 0.0002821205125655979, 0.0005392174352891743, 0.003636111505329609, 0.000382705737138167, 0.00026089392486028373, 0.0016878137830644846, 1.3410743122221902e-05, 0.0011842699022963643, 0.003335281042382121, -0.00024913830566219985, 0.0009895056718960404, 0.00209987536072731, 0.00045899467659182847, -0.0014218497090041637, -0.0008571753860451281, -0.0003157908213324845, 0.003734823316335678, -0.0013174267951399088, -0.0032495565246790648, -0.0003692211175803095, -0.0013941574143245816, -0.00029318203451111913, -0.00033651114790700376, -0.0002440466487314552, 0.000760875002015382, -0.0008152779191732407, 0.0045632184483110905, -0.0008195866830646992, 0.0001611473417142406, -0.0005870403838343918, 0.00043114801519550383, 0.00018013583030551672, 0.0003184212255291641, -0.001002594013698399, -1.8055501641356386e-05, -0.00020760908955708146, 0.0021452014334499836, -0.003382802475243807, 0.00043839000863954425, 0.0012322129914537072, -0.0012053444515913725, -0.001743467291817069, 0.00016490352572873235, -0.0005439626984298229, 0.0004937226767651737, -0.0005047199665568769, 0.0013672304339706898, -0.00027260882779955864, 4.39767472926178e-06, 6.186610698932782e-05, 0.0011535276426002383, 0.0017846255796030164, 0.002941575599834323, -0.00022158319188747555, 0.0018933911342173815, -0.001213815645314753, 5.973074075882323e-05, 0.00014886308053974062, 0.002063043648377061, 0.00017464614938944578, 0.0011356681352481246, -0.001621598843485117, 0.002056189812719822, -0.0001296734990319237, 0.001033705659210682, -0.0001838199677877128, 0.0030095172114670277, -0.0005899505340494215, 0.0007640880648978055, 0.00030178524320945144, -0.0029459018260240555, -0.0008345604292117059, 0.0003087520017288625, -0.00032086766441352665, 0.004216618370264769, -0.0019901010673493147, 0.00039540897705592215, -0.0001798731682356447], [0.00015744194388389587, 0.0007151550962589681, -0.0009064334444701672, 0.00010456534073455259, -0.00013131806917954236, 0.0006311472388915718, 0.0019499522168189287, 0.0007869991241022944, -0.0018209139816462994, -1.150196749222232e-05, -0.0005207468057051301, 0.0011636574054136872, -0.0002759547787718475, 8.502398850396276e-05, -0.0006256239721551538, 0.0005908044404350221, -0.0007082765223458409, 0.00012654068996198475, 0.0002395843039266765, 0.00023950966715347022, 0.0012670955620706081, 0.0016280971467494965, -0.0004744358011521399, -0.0013721751747652888, 7.862871279940009e-05, 0.0005276735755614936, 0.002904716180637479, 0.0002931669005192816, -0.00026911828899756074, 0.0005603002500720322, 0.00017272161494474858, 0.0004340589221101254, -0.0003025390033144504, 0.00048073375364765525, -1.8656042811926454e-05, 0.0002674209245014936, -0.0005759869236499071, 6.273962208069861e-05, -0.0005380617803893983, -1.718480052659288e-05, -0.000395778362872079, 0.00038786139339208603, -0.000836971215903759, 0.00046639362699352205, -5.676524597220123e-05, -0.0009131237166002393, 0.0010347471106797457, 0.0007096191984601319, -0.0033607101067900658, 0.0007879440672695637, -7.943670061649755e-05, -5.904658974031918e-05, -0.0005866435240022838, -0.0007170228054746985, -0.0032969231251627207, -0.00010993309842888266, -0.000601741427090019, -9.46281070355326e-05, -0.00020588426559697837, 5.84914960199967e-05, -0.0007494321907870471, -0.00021700625075027347, -0.00034567739930935204, 0.0004345188499428332, 0.0002700203622225672, 0.00067032320657745, -0.001146639697253704, 0.00012858585978392512, 0.0010938267223536968, 0.0009573453571647406, 0.00029425133834593, 0.00015324678679462522, 0.0004504479293245822, 0.0008552781073376536, -5.730990778829437e-06, 0.000921700382605195, -0.0003032124659512192, 4.6460780140478164e-05, -0.0006402888102456927, 0.00014979098341427743, -0.0002836671774275601, -0.0022725306916981936, -0.0001522496313555166, 7.187681148934644e-06, 0.0001695796672720462, 3.7578207411570475e-05, -0.0005415730411186814, 0.00019263788999523968, -0.0007946659461595118, -0.00025997505872510374, 0.00017386859690304846, 0.0007922083023004234, -0.00011788887059083208, 0.0003210999129805714, -0.0011238146107643843, 0.0001888034021249041, -0.0017074535135179758, 0.000212737315450795, -5.9254769439576194e-05, -1.8418255422147922e-05, -0.0012910248478874564, -0.0030471475329250097, -0.0011268736561760306, 0.00021769260638393462, -0.0017436190973967314, 0.00038838351611047983, -0.0008890614262782037, -0.0001291030494030565, -0.001111416844651103, -7.735990220680833e-05, -6.663663225481287e-05, 0.0001335298438789323, -5.657280416926369e-05, 4.5313401642488316e-05, -0.005521852057427168, 0.00015963177429512143, -0.00019050617993343621, 0.00013672298518940806, -0.0009566695080138743, -5.992582009639591e-05, 0.00017516092339064926, 7.435143197653815e-05, -0.00013998661597725004, 5.3493768064072356e-05, -0.000533561164047569, 3.510644819471054e-05, -0.00124864443205297, 0.00023111198970582336], [-2.79141272585548e-06, -8.013831376274538e-08, 1.2477484233386349e-05, -7.400862500617222e-07, 2.8371728149068076e-06, -6.640123501711059e-06, -2.736446162998618e-07, -1.8816590454662219e-06, 4.565164999803528e-06, 6.603503948099387e-07, 5.548438366531627e-07, -4.734702542918967e-06, 1.5907194210740272e-06, -1.2974537639820483e-06, 1.823496660335877e-07, -1.1765449698941666e-06, 4.519275989878224e-06, -6.623165518249152e-06, -1.1151635135320248e-06, -1.3876979210181162e-06, -3.889648723998107e-06, -3.4052865771627694e-07, 6.387193025148008e-06, 4.285100203560432e-06, -1.2656148101086728e-05, -1.1875087011503638e-06, -5.466602033266099e-06, -6.361177383951144e-06, 7.851219834265066e-07, -4.6685323695783154e-07, -2.8218282750458457e-06, -2.6042043828056194e-06, 9.38770824632229e-07, -7.384243872365914e-06, 4.834714673052076e-06, -1.99507283582534e-07, 2.8452718652260955e-06, -4.3460686356411316e-06, 2.427357912893058e-06, 1.349717308585241e-06, 3.5531099911167985e-06, -4.3299151002429426e-06, 8.274985248135636e-07, -1.4425068002310582e-06, 2.7386602141632466e-06, 1.4595847233067616e-06, -1.5607068917233846e-06, 6.0353096387189e-07, 3.6853655274171615e-06, -2.4724984086788027e-06, 7.181559453783848e-07, 2.3529260033683386e-06, 1.0086896509164944e-06, 9.057030183612369e-07, 5.9176277318329085e-06, 7.827237027413503e-07, 6.353279786708299e-06, 6.40194528500615e-08, 4.330150659370702e-06, -6.556021503456577e-07, 7.036519946268527e-06, 3.5745410968957003e-06, 2.0905157782635797e-07, -3.0785151921008946e-06, -4.501874173001852e-06, -2.742001470323885e-06, 1.823586535465438e-05, -2.502963525330415e-06, 5.843326107424218e-07, -1.576437625772087e-06, -2.3929903818498133e-06, -2.9872073810111033e-06, -2.0224156287440564e-06, -5.78744675294729e-07, 2.397973503320827e-06, -9.400670933246147e-06, 4.793781727130408e-07, -2.492248825092247e-07, 9.784042049432173e-06, -2.6819719778359286e-07, 5.847642114531482e-06, 2.0674519873864483e-06, 3.0348405744007323e-06, 9.724980287728613e-08, -8.434283493841122e-09, -3.5125503927702084e-06, 1.1110206287412439e-05, -2.995622935486608e-06, 8.764671292738058e-06, 9.35420473524573e-07, -1.3451055735913542e-07, -2.472128244335181e-06, 1.8748701222648378e-06, -9.681201618150226e-07, 2.698539901757613e-06, -2.9132800705156114e-07, 2.683161028471659e-06, -8.297685667457699e-07, 3.509147973090876e-06, 6.279396984609775e-06, 3.859622211166425e-06, 8.816949957690667e-06, 2.320424300705781e-06, -1.8742553038464393e-06, 5.007373147236649e-06, -7.515825018344913e-06, 2.2831204660178628e-06, -4.0511446286473074e-07, 8.200589718398987e-07, 4.876565071754158e-07, 1.614933535165619e-05, -7.043237246762146e-07, 3.797430963459192e-06, -5.369456630432978e-07, 8.90551928023342e-06, -4.297572104405845e-06, 5.056515419710195e-06, -1.278317085962044e-05, 6.089133421482984e-06, 1.3526696420740336e-06, 1.4548437832218042e-07, -6.781207275707857e-07, 1.6222642216234817e-06, -4.855098723055562e-06, 2.87682564703573e-06, -3.3703960866660054e-07, 6.2329145293915644e-06, 1.5130903818771912e-07], [-1.623845378162514e-06, -4.150206677877577e-06, 8.004940355021972e-06, -1.4934162209101487e-06, 1.1197591902600834e-06, -4.341662133811042e-06, -2.7804360342997825e-06, -7.091741736076074e-07, 2.5939650640793843e-06, 2.089041572617134e-06, 1.5402553117382922e-06, -6.054964387658401e-07, 8.886300975063932e-07, -2.6073485059896484e-06, 2.0764073269674554e-06, -2.1840578483534046e-06, 9.744060662342235e-06, -2.938191073553753e-06, -4.7062439989531413e-07, -3.7932272789475974e-06, -5.108167897560634e-06, -3.7749211969639873e-06, 3.52313668372517e-06, 1.031690658237494e-06, -2.0737325030495413e-06, -2.2884919417265337e-06, -3.871016815537587e-06, -5.756938321610505e-07, 6.376498731697211e-06, -2.041454081336269e-06, 3.2534626370761544e-07, -2.6638108465704136e-06, 8.695564247318543e-06, 3.4012055039056577e-07, 2.382547791057732e-06, -3.1483746170124505e-06, 2.5450012799410615e-06, -1.4536024082190124e-06, 3.5398852560319938e-06, 7.108126737875864e-06, 6.913559445820283e-06, -2.1479663701029494e-06, 5.754402081947774e-06, -1.9411935170410288e-07, 1.7961989442483173e-06, 6.963517193980806e-07, -9.387649697600864e-06, -7.196901606221218e-06, 7.949711289256811e-06, -2.790103053484927e-06, -3.1661605248700653e-07, 2.934820315658726e-07, 4.373751380626345e-06, 2.1279422526276903e-06, 7.618758900207467e-06, 7.889669859650894e-07, 2.431112534395652e-06, 7.470465561709716e-07, 4.939336122333771e-06, -2.5079937131522456e-06, 3.583398211048916e-06, 1.0323651622456964e-05, 3.3902765608218033e-06, -1.8583086784929037e-06, -3.1906469644127355e-07, -1.8839542690329836e-06, 9.772519661055412e-06, -1.069171958079096e-05, 4.224251597406692e-07, -1.6530623270227807e-06, -9.646111038819072e-07, -3.723223017004784e-06, -1.648537363507785e-06, -1.6411235037594452e-06, 1.5987383221727214e-06, -8.753075235290453e-06, 1.0963479326164816e-05, -1.2576487051774166e-06, 2.571994627942331e-06, -2.47476441472827e-06, 1.285301368625369e-05, 5.718320153391687e-06, 6.159240797387611e-07, -2.75110460279393e-06, -5.772397457803891e-07, -1.3246097978480975e-06, 8.093855967672425e-07, -5.072979547549039e-06, 5.0519061005616095e-06, 1.9094945855613332e-06, -1.131978137891565e-07, -1.692609430392622e-06, -1.6429703819653696e-08, -7.11078598669701e-07, 3.535577889124397e-06, -1.112989048124291e-05, -1.9910402215828071e-07, 6.560559739909877e-08, 6.148058218968799e-06, 6.362470685417065e-06, 8.438286386081018e-06, 4.16043212680961e-06, 1.4007435993335093e-06, -2.9433176678139716e-06, 1.5450220871571219e-06, -1.6657520518492674e-06, 1.139962364504754e-06, 1.845786755438894e-06, 1.9107878870272543e-06, 3.9442500110453693e-07, 1.5753191746625816e-06, -1.2314983905525878e-05, 1.069412860488228e-06, -5.284265398586285e-07, 1.2729784430121072e-05, 1.3487253625044104e-07, 2.5804617962421617e-06, -3.4138879527745303e-06, 3.912818556273123e-06, 3.781637474276067e-07, -1.6260190704997513e-06, -2.8953402306797216e-06, 8.467898624076042e-06, -6.60841578792315e-06, 9.211578344547888e-07, -4.747173079522327e-06, 3.207770532753784e-06, -2.0223665160301607e-06], [-0.001168500748462975, -0.00024532797397114336, 0.004450290463864803, -0.009371415711939335, 0.0024924776516854763, -0.0018366160802543163, -0.005335312336683273, -0.0009523210464976728, 0.002956897020339966, 0.0007433196296915412, 0.0011050804750993848, -0.0016073924489319324, 0.00013786974886897951, -0.0027946080081164837, 0.002367371693253517, -0.006096633616834879, 0.0015769328456372023, -0.0008893944905139506, -0.0018986418144777417, -0.0008135601528920233, -0.0110607435926795, -0.003392184153199196, 0.001057806657627225, 0.00165739341173321, -0.00919758714735508, -0.0006994321593083441, -0.004625980742275715, -0.004203201271593571, 0.0015636797761544585, -0.001156194251962006, -0.0023573932703584433, -0.0020935311913490295, 0.0019943765364587307, -0.0018010589992627501, 0.001040740287862718, -0.00027783092809841037, 0.0025728512555360794, -0.006069449242204428, 0.0006442986777983606, 0.0009462121524848044, 0.0010617126245051622, -0.00259511754848063, 0.0015712673775851727, -0.0011173189850524068, 0.0010885413503274322, 0.0025263780262321234, -0.0070324307307600975, -0.007911537773907185, 0.010434342548251152, -0.004755143541842699, 0.0009105399367399514, 0.002777011599391699, 0.002345416694879532, 0.00047600152902305126, 0.0037413344252854586, 0.0007527682464569807, 0.002619844861328602, 0.002040550345554948, 0.0035693335812538862, -0.0038294317200779915, 0.0018956586718559265, 0.0005533247604034841, 0.003002575132995844, -0.004726441577076912, -0.0032582173589617014, -0.0009382240823470056, 0.004213016014546156, -0.0012077735736966133, -0.005299062002450228, -0.003680630587041378, -0.0006744280690327287, -0.0016867510275915265, -0.0022778885904699564, -0.0009312977781519294, 0.0018034919630736113, -0.0015892895171418786, 0.009193265810608864, -0.0001417908351868391, 0.0021916190162301064, -0.001370010431855917, 0.004795356187969446, 0.004023145418614149, 0.00036062634899280965, -0.0008476837538182735, -0.00011590177018661052, -0.001381070469506085, 0.0023391449358314276, -0.007983654737472534, 0.0021433488000184298, 0.004660886712372303, -0.0005100948037579656, -0.00212028156965971, 0.0014636967098340392, -0.001538810203783214, 0.0013912520371377468, -0.002591021591797471, 0.0038745540659874678, -0.000213485662243329, 0.0024961030576378107, 0.001812072703614831, 0.01188206672668457, 0.0017700988100841641, 0.004768361337482929, -0.004159142728894949, 0.0012483798200264573, -0.0016810176894068718, 0.0027638364117592573, 0.002443397883325815, 0.0005682532791979611, 0.001891903579235077, 0.005070290062576532, -0.003188773524016142, 0.013918241485953331, -0.0004795547283720225, 0.004119579680263996, -0.0017628301866352558, 0.0030989423394203186, -0.0008690616232343018, 0.003781938226893544, 0.002909771166741848, -0.0028600096702575684, -0.0017950808396562934, 0.006347425747662783, -0.0011390174040570855, 0.0022605692502111197, -0.0027213338762521744, 0.0034413652028888464, -0.0015005164314061403], [-0.000235150262597017, -0.0007714212406426668, 2.9105907742632553e-05, -0.00013527496776077896, 0.0006417383556254208, -0.0009979758178815246, -7.181170803960413e-05, -0.0004991211462765932, 0.0003223995154257864, 8.1841521023307e-05, 0.00011853476462420076, -0.00023287945077754557, 0.00014610147627536207, -0.000987483887001872, 0.0006445604958571494, -0.0004712829540949315, 0.0009035301045514643, -0.00017230857338290662, -0.0004349196096882224, -0.00043360545532777905, -0.0013371623354032636, -0.00012784807768184692, 0.001247308449819684, 0.0014583851443603635, -8.270614671346266e-06, -0.0007607787265442312, -0.0018839809345081449, -0.0001263374142581597, 0.0008135951939038932, -4.3828331399708986e-05, -0.00033966675982810557, -0.0010268093319609761, 0.00019269845506642014, -0.00019290400086902082, 0.00010812360415002331, -5.615849295281805e-05, 0.00017877068603411317, -0.00020763052452821285, 5.6793269322952256e-05, 3.795687007368542e-05, 0.0007211422780528665, -0.0014102719724178314, 1.7011021554935724e-05, -0.0003093763370998204, 0.0004867333918809891, 0.00043020970770157874, -0.0019930636044591665, -0.0025560578797012568, 0.0001382992195431143, -3.364509393577464e-05, 0.000692777510266751, 7.892217399785295e-05, 0.00038983242120593786, 0.00032807516981847584, 0.0015573438722640276, 0.0005767382681369781, 0.0004292641533538699, 0.00021855720842722803, 0.0008950884803198278, -0.0009298824588768184, 0.00034752057399600744, 4.4618504034588113e-05, 4.81781862617936e-05, -9.822868014452979e-05, -8.007654105313122e-05, -8.080689440248534e-05, 0.0016351004596799612, -0.00031621797825209796, -0.0006830170168541372, -0.0007282877340912819, -0.0015542508335784078, -0.00016106734983623028, -0.0003656713815871626, -0.00027391358162276447, 0.00024571316316723824, -0.00036341746454127133, 0.0025598336942493916, -0.000396375369746238, 0.0004393265990074724, -0.0014917480293661356, 0.0014482549158856273, 0.00031025405041873455, 0.00014902905968483537, -0.0003543513303156942, -0.00019611122843343765, -0.00031141628278419375, 6.192340515553951e-05, -0.0002894322678912431, 0.0007288154447451234, 0.000229168392252177, -0.00010260759881930426, -0.000923215295188129, 2.4838003810145892e-05, -0.00013579765800386667, 0.000507843098603189, -1.920588329085149e-05, 0.0009238501661457121, -0.0005618564900942147, 4.388739398564212e-05, 0.0005271373083814979, 5.773636439698748e-05, 0.0004366366774775088, 0.0003927072393707931, -0.00013476049934979528, 6.65137349642464e-07, -0.00017900778038892895, 8.321484347106889e-05, 0.0001466267422074452, 0.0004343281907495111, 0.00021339560043998063, 0.00010888584074564278, -0.0018901636358350515, 0.0006513565313071012, -0.00015717737551312894, 0.00034176165354438126, -0.00019806670024991035, 0.00044896930921822786, -9.203037188854069e-05, 0.0005680289468728006, 0.0018230993300676346, -0.0009901695884764194, -0.00026762185734696686, 0.0007264267769642174, -0.0005513988435268402, 9.627870167605579e-05, -0.00013890814443584532, 1.6093280237328145e-06, -4.4564728796103736e-07], [0.0011277631856501102, 0.00010265462333336473, -0.000949848210439086, 0.00027322841924615204, -0.0004905932582914829, 7.743969035800546e-05, 0.0001303473545704037, 0.00019261355919297785, -0.0006993635324761271, -3.0341851015691645e-05, -0.0004703433078248054, 0.0014468802837654948, -0.0005986446631141007, 0.0002577023406047374, -0.00010405611828900874, 0.000390680885175243, -0.00010710309288697317, 0.0003904070472344756, 0.00016648846212774515, 0.0001961218222277239, 0.00024139604647643864, 7.181050023064017e-05, -0.0006474761175923049, -3.607067992561497e-05, 1.1856118362629786e-05, 7.721503061475232e-05, 0.00041652051731944084, 9.313967893831432e-05, -0.00032404548255726695, 0.0001756175624905154, 0.00012016428809147328, 0.0002008297888096422, -0.0014020595699548721, 2.8681721232715063e-05, -0.00029561921837739646, 0.0004448148247320205, -0.0005207848735153675, 0.00019620073726400733, -0.00014317409659270197, -0.0006537166191264987, -7.579057273687795e-05, 0.00019318697741255164, -1.2602382639670395e-06, 0.0001823909260565415, -0.00023393229639623314, -2.8892898626509123e-05, 2.8685621145996265e-05, 2.2541148609889206e-06, -9.978654998121783e-05, 8.095869270619005e-05, -0.00017931296315509826, -0.0007659854600206017, -0.00019607407739385962, -0.00010211958579020575, -0.0006545043434016407, -8.850800804793835e-05, -0.000520131376106292, -0.0007828865200281143, -2.9815491870976985e-05, 0.0005221852334216237, -6.582637433893979e-05, -1.6349553334293887e-05, -0.0010838458547368646, 0.0006287729484029114, 0.00024682327057234943, 0.0005392677267082036, -0.0011983572039753199, 0.0010085515677928925, 0.0005036637303419411, 0.0010981743689626455, 2.6144980438402854e-05, 0.00024393053899984807, 8.949807124736253e-06, 2.105582461808808e-05, -0.00016090324788819999, 0.00012752607290167361, -0.0008708296809345484, 0.00016763772873673588, -0.00011214137339266017, 0.00019182392861694098, -0.00037920710747130215, -0.0006556577864103019, -0.0002588516508694738, 0.0004365770728327334, 0.00015968369552865624, 8.881323446985334e-05, -0.00030864326981827617, 0.0003796692471951246, -0.00021878303959965706, -9.692541789263487e-05, 0.00023429295106325299, 9.376447997055948e-05, -4.4622342102229595e-05, 2.795475120365154e-05, -0.0004375724238343537, 0.00017290683172177523, -0.00014904301497153938, 6.12599978921935e-05, -0.000491949322167784, -0.000652921327855438, -8.79727813298814e-05, -0.001032838597893715, -5.3266194299794734e-05, 8.963375876192003e-05, -0.00021074479445815086, 0.0004017084720544517, -0.0005062147974967957, -7.660403935005888e-05, -0.00010638812818797305, -9.352071356261149e-05, -0.00018907655612565577, 1.526790947536938e-05, -0.0012488944921642542, 0.00046432699309661984, -0.0001672561775194481, 5.5349879403365776e-05, -5.045056241215207e-05, 0.0010493200970813632, -3.231220398447476e-05, -1.4664929040009156e-06, 8.354103920282796e-05, 0.0005122535512782633, -3.424325768719427e-05, 0.00018194466247223318, -6.398538971552625e-05, 6.690367172268452e-06, -5.25004861628986e-06, 1.222964874614263e-05], [-0.02042294107377529, -0.01291026920080185, 0.01724693737924099, -0.025236941874027252, 0.041302405297756195, -0.02044125832617283, -0.014772104099392891, -0.013226410374045372, 0.025337766855955124, 0.02202029339969158, 0.10697807371616364, -0.03326161205768585, 0.05596000701189041, -0.009695379063487053, 0.024446945637464523, -0.018318412825465202, 0.019981618970632553, -0.02473090961575508, -0.01680048182606697, -0.025037530809640884, -0.02540888451039791, -0.011158138513565063, 0.02044515311717987, 0.023250892758369446, -0.024201586842536926, -0.019567035138607025, -0.04489936679601669, -0.017658138647675514, 0.026842907071113586, -0.02012256719172001, -0.025258494541049004, -0.010159675031900406, 0.009711642749607563, -0.027742303907871246, 0.030169939622282982, -0.018953822553157806, 0.012770897708833218, -0.02344098873436451, 0.01205091830343008, 0.022635575383901596, 0.03192372992634773, -0.015720633789896965, 0.023782052099704742, -0.027643077075481415, 0.029217511415481567, 0.031014705076813698, -0.016181616112589836, -0.027764039114117622, 0.021939154714345932, -0.023873858153820038, 0.026218270882964134, 0.03785628825426102, 0.026034163311123848, 0.03145775943994522, 0.007288508582860231, 0.009700442664325237, 0.02562425658106804, 0.02957761660218239, 0.02123284339904785, -0.03943406417965889, 0.022600434720516205, 0.009352265857160091, 0.01981385238468647, -0.015961406752467155, -0.02400209754705429, -0.022951405495405197, 0.015143356285989285, -0.01539572887122631, -0.024188367649912834, -0.015283352695405483, -0.022336946800351143, -0.029772380366921425, -0.020667124539613724, -0.030117208138108253, 0.018863528966903687, -0.01598377898335457, 0.02502518519759178, -0.05401653051376343, 0.022247489541769028, -0.013732384890317917, 0.018089285120368004, 0.028096435591578484, 0.02908232808113098, -0.03287259861826897, -0.059577636420726776, -0.045747607946395874, 0.01997789554297924, -0.009229046292603016, 0.025346113368868828, 0.018240241333842278, -0.03965973109006882, -0.011204056441783905, 0.026454923674464226, -0.03202708438038826, 0.021600065752863884, -0.01926058903336525, 0.027651777490973473, -0.01852041482925415, 0.031114060431718826, 0.03456978127360344, 0.02729841135442257, 0.026041463017463684, 0.02021072991192341, -0.008573103696107864, 0.014628874137997627, -0.020216945558786392, 0.009408456273376942, 0.040408264845609665, 0.017708180472254753, 0.019071603193879128, 0.02916446141898632, -0.03147854283452034, 0.007661586627364159, -0.042815953493118286, 0.008260605856776237, -0.02932930737733841, 0.014808230102062225, -0.032790277153253555, 0.03958400338888168, 0.028088204562664032, -0.021121392026543617, -0.01319022849202156, 0.012929373420774937, -0.03069065883755684, 0.02365630492568016, -0.008842340670526028, 0.019781701266765594, -0.027852455154061317], [5.891371074540075e-06, 1.7632667947964364e-07, -1.0452963579155039e-05, 1.1368681043677498e-05, -2.579680767667014e-06, 6.050114734534873e-06, 2.5733907023095526e-06, 7.593794180138502e-06, -2.4764205591054633e-05, -3.097728495049523e-06, -3.99347936763661e-06, 7.976298093126388e-07, -5.843561666551977e-06, 1.156381858891109e-05, 6.043591582738372e-08, 1.4024775509824394e-06, -2.622783085826086e-06, 1.3822018445353024e-06, 5.0478165576350875e-06, 8.93291030479304e-07, 4.415505827637389e-06, 2.4636908619868336e-06, -4.917068054055562e-06, -9.653065262682503e-07, 9.229033253177477e-07, 4.779658866027603e-06, 4.680651727539953e-06, 2.767527348623844e-06, -9.300510441789811e-07, -1.6787785739325045e-07, 3.6242006444808794e-06, 5.435891580418684e-06, -6.450112778111361e-06, 1.7565140524311573e-06, -2.10141547540843e-06, 4.313450062909396e-06, -1.0780104275909252e-06, 1.7005527297442313e-06, -1.2722836117973202e-06, -3.925984856323339e-06, -1.5778695114931907e-06, 6.956636298127705e-06, -1.984023128898116e-06, 1.1806693009930314e-06, -5.659187536366517e-06, 6.508559522444557e-07, 3.3657604490144877e-06, 7.744974368506519e-07, -8.28077418191242e-07, 3.409989631109056e-06, -9.282061341764347e-07, -2.721778855629964e-06, -3.989464403275633e-06, -2.2704141144913592e-07, -9.25295466913667e-07, -2.2935910237720236e-06, -3.659737785710604e-06, -8.020013410714455e-06, -1.7287039781876956e-06, -2.5762918198779516e-07, -4.336262918513967e-06, -3.897538135788636e-06, -4.325264399085427e-06, 3.6507726690615527e-06, 2.2441699911723845e-06, 9.06124853372603e-07, -9.585850420990027e-06, 3.1353918075183174e-06, 7.365714736806694e-06, -6.545862163420679e-08, 1.0864503963148309e-07, 8.282237331513898e-07, 9.316093496636313e-07, 3.781775149036548e-06, -1.1198991387573187e-06, 1.014354893413838e-05, -6.1011510297248606e-06, 9.605092827769113e-07, -2.2393564904632512e-06, 6.08106711297296e-06, -6.512653385470912e-07, -1.282349899156543e-06, -4.03287731387536e-06, 3.2339627864530485e-07, 2.0421628050826257e-06, 1.6038283092711936e-06, -2.5142776394204702e-06, 2.6101345156348543e-06, -3.903995548171224e-06, -5.357328063837485e-06, 2.757336460490478e-06, 9.751979632710572e-06, -2.0205906992032396e-07, 4.5576800289381936e-07, 1.5541633047178038e-07, 4.372357579995878e-06, -4.525849817582639e-06, 7.340684646806039e-07, -8.192511813831516e-06, -8.379289283766411e-06, -7.009897444731905e-07, -1.2878791721959715e-06, -1.2286476703593507e-05, 5.2320651775517035e-06, -5.67978577237227e-06, 3.2904856652749004e-06, -1.2090037671441678e-05, -1.6385313301725546e-06, -3.3891794828377897e-06, -4.7105609723985253e-07, -2.9310569971130462e-06, 6.536119599331869e-06, -1.2176927839391283e-06, 1.8858096382246003e-06, -1.1028613698726986e-05, 4.809114216186572e-06, 2.46315664753638e-07, 1.1845492736028973e-05, -2.9105246994731715e-06, -2.327661377421464e-06, -2.6863702373702836e-07, 1.016786768559541e-06, -4.689839897764614e-06, 2.946064341813326e-06, -2.973598157041124e-06, 2.3028114810585976e-06, -3.60297849510971e-06, 2.0936859073117375e-06], [-0.0006808851030655205, -9.705339471111074e-05, 9.697126370156184e-05, -0.00023339778999798, 4.481854193727486e-05, -0.00013252830831333995, -0.0031053104903548956, -0.0006841399008408189, 0.0004891953431069851, 4.3515246943570673e-05, 0.001124136266298592, -0.0003280322125647217, 0.0003808345936704427, -0.0011757255997508764, 0.000509037112351507, -0.001108821714296937, 0.0008153707603923976, -0.0006851514335721731, -0.00010540194489294663, -0.00032005723915062845, -5.4174808610696346e-05, -0.00032155148801393807, 0.00018204397929366678, 0.0007114419713616371, -0.0001841716730268672, -0.0005818268400616944, -0.001456612953916192, -0.000293569901259616, 2.1262110749376006e-05, -0.0004495259781833738, -0.0004910741117782891, -0.0002855421043932438, 0.0010096838232129812, -0.00033409963361918926, 0.0004031423886772245, -0.0011905375868082047, 0.0006152770365588367, -0.002889244584366679, 0.0001612343330634758, 0.0015137132722884417, 0.00024552270770072937, -0.0009735022322274745, 3.0234230507630855e-05, -0.0003769617760553956, 0.00013342068996280432, 0.0002209512167610228, -0.00042172131361439824, -0.0007522928062826395, 0.003529894631356001, -0.0002005810383707285, 0.0002692382549867034, 3.040475166926626e-05, 0.0007680926937609911, 1.419343698216835e-05, 0.0011296425946056843, 0.00042533353553153574, 0.0005648742080666125, 0.00046967415255494416, 0.00030945928301662207, -6.603997462661937e-05, 0.0009790649637579918, 0.00021925974579062313, 0.0007270497735589743, -0.00038797364686615765, -4.389958121464588e-07, -0.0008235793793573976, 0.0010881642811000347, -0.00022225483553484082, -0.0011223095934838057, -0.0005586059996858239, -0.00012356904335319996, -0.00045828905422240496, -0.00013796031998936087, -0.0005578708369284868, 0.00015499346773140132, -0.002803490264341235, 0.0003709806769620627, -0.0014115070225670934, 7.095145701896399e-05, -0.0007746113697066903, 4.372985858935863e-05, 9.51674155658111e-05, 6.866325747978408e-06, -0.0012446778127923608, -0.0002302172069903463, -0.0007657239330001175, 0.00014132268552202731, -0.00024734550970606506, 0.00015505094779655337, 0.00020225075422786176, -0.00017444140394218266, -3.557212767191231e-05, 0.00045661648618988693, -0.0007083203527145088, 0.00013491633580997586, -0.00021943302999716252, 0.0013035302981734276, -0.0009735755156725645, 0.00010451245179865509, 0.0005240692407824099, 0.0012481726007536054, 0.0004096401680726558, 0.00022385705960914493, -0.0015991992549970746, 0.0006110863760113716, -0.00040007976349443197, 0.00030817402875982225, 0.0001227069878950715, 0.0008977818652056158, 2.2519972844747826e-05, 0.000247235904680565, -0.001556387753225863, 0.0003918064176104963, -0.00010648303577909246, 0.0025799262803047895, -0.0005516479723155499, 0.0018262676894664764, -0.00023133178183343261, 0.0006357847014442086, 0.0006329381722025573, -0.0011629287619143724, -0.0005706613883376122, 0.0005379726644605398, -0.0004651697527151555, 0.0005543756997212768, -0.00038779707392677665, 0.0003764557186514139, -0.00021959772857371718], [-0.0008156449184753001, -0.0006861521396785975, 0.0008754864684306085, -0.0010710537899285555, 0.00021785081480629742, -0.00011696094588842243, -6.581620255019516e-05, -0.00035128797753714025, 0.0008205643971450627, 0.0013524566311389208, 0.0006248977733775973, -0.0005800281069241464, 0.00035397839383222163, -0.0013887874083593488, 0.00043867065687663853, -0.00017464782285969704, 2.766880970739294e-05, -0.00016389046504627913, -0.0002214434207417071, -0.000440861884271726, -0.0010745947947725654, -0.0006874519167467952, 0.0014558385591953993, 0.00022881008044350892, -0.0011814069002866745, -0.0004346563364379108, -6.054764526197687e-05, -8.53723831824027e-05, 9.11205934244208e-05, -0.0005258552264422178, -0.000383209262508899, -9.206948743667454e-05, 0.0005817226483486593, -0.0003378675028216094, 0.00010509493586141616, -0.0006669139838777483, 0.0009339691023342311, -0.00036095143877901137, 9.222148219123483e-05, 6.035809201421216e-05, 0.0005055562360212207, -0.002095957985147834, 4.466545215109363e-05, -2.8389662475092337e-05, 0.00017925878637470305, 0.0009339841199107468, -0.0002431868779240176, -0.000365746469469741, 3.69812551070936e-05, -0.00012664175301324576, 0.00013171220780350268, 7.706243195571005e-05, 0.0001878022594610229, 5.562720980378799e-05, 0.0007276011747308075, 0.00015710562001913786, 3.6876965168630704e-05, 0.0009072915418073535, 0.00043449155054986477, -0.00013168631994631141, 0.000465904304292053, 0.0001634225045563653, 0.001199445454403758, -0.001332874409854412, -0.00045496042002923787, -0.00014941532572265714, 0.00035424655652604997, -0.0003281781682744622, -0.00021286257833708078, -0.0008174378308467567, -0.00043308158637955785, -0.00016174028860405087, -0.000376006995793432, -0.0001880487980088219, 0.0002006216236623004, -0.001025246805511415, 0.0003827083855867386, -0.000574813224375248, 0.00023109852918423712, -3.662857852759771e-05, 4.396866279421374e-05, 4.63800024590455e-05, 0.00017012628086376935, -1.5721599993412383e-05, -0.0006142264464870095, -0.0003287974395789206, 5.092790161143057e-05, -0.0012554454151540995, 0.0012276849010959268, 0.0007736271945759654, -0.0001530491135781631, -0.0003054194094147533, 0.00024798905360512435, -0.00028148185811005533, 0.0003872358938679099, -0.00045438139932230115, 0.0004170554457232356, -8.509756298735738e-06, 0.0007648041937500238, 4.6399884013226256e-05, 0.0004070130526088178, 2.015733662119601e-05, 0.0010729898931458592, -0.0006027560448274016, 0.00031408993527293205, -6.940078310435638e-05, 0.0002206539938924834, 1.3400921488937456e-05, 0.00037631214945577085, 0.00015103725309018046, 0.0005032631452195346, -0.0003024508769158274, 0.0012963467743247747, -0.0006587603129446507, 0.0002798359782900661, -0.0008026071591302752, 0.000696133472956717, -0.0006658461061306298, 5.271557529340498e-05, 4.327710121287964e-05, -0.0005849997978657484, -1.9173392502125353e-05, 1.2628618151211413e-06, -0.0005372451851144433, 0.00016611501632723957, -0.0002699874166864902, 0.0012857684632763267, -0.00035442246007733047], [-1.2347172742011026e-06, -3.2072207432065625e-06, 1.9317158148624003e-06, -1.2983769011043478e-05, 3.1886443139228504e-06, -2.901268089772202e-06, -3.856241619359935e-06, -4.3176792132726405e-06, 4.160322532698046e-06, 4.36204754805658e-06, 8.656886620883597e-07, -3.0511851036862936e-06, 1.3674533647645148e-06, -2.332939175175852e-06, 1.2787289733751095e-06, -2.066047727566911e-06, 8.494448593410198e-06, 3.7876353076171654e-07, -6.128661880211439e-07, 3.8708655836217076e-08, -3.834546987491194e-06, -1.2072902791260276e-05, 5.52730739400431e-07, 1.3261566209621378e-06, -1.4459251360676717e-06, -8.290367645713559e-07, -3.721613666129997e-06, -8.026483556022868e-06, 1.0525350262469146e-06, -4.889782303507673e-07, -1.9659620420497959e-07, -3.1642844078305643e-06, 1.996935679926537e-06, -6.654221124335891e-06, 1.843612949414819e-06, -2.3009965843812097e-07, 4.3054529896835447e-07, -3.558537173375953e-06, 3.760113287398781e-08, 3.5319978906045435e-06, 4.005726623290684e-06, -7.778838153171819e-06, 1.5772787946843891e-06, -2.3819422949600266e-06, 2.7896066967514344e-06, 2.9874172469135374e-06, -9.78056232270319e-06, -2.823755721692578e-06, 2.9324821753107244e-06, -1.956850155693246e-06, 1.9843994323309744e-06, 3.810963846717641e-07, 3.290257097887661e-07, 1.2568891634145984e-06, 7.318644293263787e-06, 5.73157990402251e-07, 9.96535959529865e-07, 3.1656629744247766e-06, 3.5226926229370292e-06, 3.3183576420015015e-07, 3.436144424995291e-06, 6.872326139273355e-06, 1.3469135637933505e-06, -9.952885193342809e-06, -1.9536189483915223e-06, -2.02087858269806e-06, 7.820813721082231e-07, -7.636363079654984e-06, -6.153202747327668e-08, -1.2057399544573855e-05, -2.1747516711911885e-06, 2.933508653768513e-07, -2.6082343538291752e-06, 3.2586808629275765e-07, 7.288778647307481e-07, -6.4048144849948585e-06, 7.458306185981201e-07, 4.872492240792781e-07, 1.3454242662191973e-06, -2.19524122258008e-06, 1.7315637705905829e-06, 6.225970537343528e-06, 1.4177829825712251e-06, -2.69340853265021e-06, -2.2534370600624243e-06, -1.0153654557143454e-06, 1.4799347809457686e-06, -1.938048939109649e-07, 1.4826219967289944e-06, 9.194995982397813e-06, -1.7353880821247003e-06, -3.1644128739571897e-06, 1.4945303519198205e-06, -6.193005788190931e-07, 3.0793091809755424e-06, -5.162485194887267e-07, 4.2704127167780825e-07, -1.437072569387965e-06, 1.017377962853061e-05, 5.81853669245902e-07, 4.347399226389825e-06, 2.3718564534647157e-06, 5.016311206418322e-06, -5.3012730205637126e-08, 2.5722779355419334e-06, -4.2030592339870054e-06, 4.422732672537677e-06, -8.569253395762644e-08, 7.976029792189365e-07, 2.0359555037430255e-06, 4.51927371614147e-06, 1.042083965785423e-07, 1.4752019524166826e-05, -7.055717787807225e-07, 6.768319735783734e-07, -2.2798662939749192e-06, 1.0026500376625336e-06, -2.107125709471802e-07, 5.16585316745477e-07, 7.940968316688668e-06, -2.668995158217058e-08, 4.959586590302933e-07, 8.77890556694183e-07, -8.366298061446287e-06, 2.80001813734998e-06, -3.6176918456476415e-06, 2.492050725777517e-06, -2.2461440494225826e-06], [0.02652704156935215, 0.01742308959364891, -0.03739435598254204, 0.04359420761466026, -0.07144441455602646, 0.013632841408252716, 0.014215326867997646, 0.042949069291353226, -0.01670476794242859, -0.06305458396673203, -0.022756772115826607, 0.07960747927427292, -0.01001905556768179, 0.006434133742004633, -0.05277082324028015, 0.008583524264395237, -0.06637011468410492, 0.01230795681476593, 0.05874345079064369, 0.010576850734651089, 0.0060798549093306065, 0.0108287762850523, -0.013017779216170311, -0.01127205602824688, 0.009195439517498016, 0.009311455301940441, 0.03832940384745598, 0.007209852337837219, -0.04509973153471947, 0.05939539149403572, 0.008973426185548306, 0.020918717607855797, -0.06230761483311653, 0.010321981273591518, -0.012824592180550098, 0.05185209587216377, -0.08096469938755035, 0.012995287775993347, -0.06910327821969986, -0.007274806033819914, -0.011761726811528206, 0.0056973607279360294, -0.06396658718585968, 0.04348300024867058, -0.041541289538145065, -0.024331308901309967, 0.03809063881635666, 0.012027585878968239, -0.00689436262473464, 0.0680823102593422, -0.014779235236346722, -0.06474488973617554, -0.04026719555258751, -0.016635077074170113, -0.0053175827488303185, -0.07085636258125305, -0.07642964273691177, -0.06035006791353226, -0.017861848697066307, 0.06420141458511353, -0.010168222710490227, -0.0066641028970479965, -0.01333921030163765, 0.005326010752469301, 0.061609625816345215, 0.023190557956695557, -0.009454362094402313, 0.07518812268972397, 0.0699390098452568, 0.06440301984548569, 0.06068668141961098, 0.014584006741642952, 0.008195181377232075, 0.06205279752612114, -0.03013206459581852, 0.009560924023389816, -0.010102597996592522, 0.0546797439455986, -0.055811524391174316, 0.06735776364803314, -0.006035502068698406, -0.0055229878053069115, -0.012214135378599167, 0.010717482306063175, 0.04578867927193642, 0.014800339005887508, -0.06534602493047714, 0.013136384077370167, -0.03263838589191437, -0.006192327477037907, 0.05160553380846977, 0.016902320086956024, -0.02669243887066841, 0.023048637434840202, -0.044793155044317245, 0.00994812697172165, -0.011264100670814514, 0.05353235453367233, -0.0059340950101614, -0.012227282859385014, -0.013362894766032696, -0.006086451467126608, -0.005667478311806917, 0.06333950906991959, -0.014228279702365398, 0.012366531416773796, -0.007061414886265993, -0.06885296106338501, -0.01419296208769083, -0.024126769974827766, -0.05169610679149628, 0.0056778909638524055, -0.009933498688042164, 0.05913262069225311, -0.006023467518389225, 0.04412875324487686, -0.009694613516330719, 0.020621182397007942, -0.043221622705459595, -0.008634896017611027, 0.011024627834558487, 0.06059383600950241, -0.006131527479737997, 0.007807753514498472, -0.007308116182684898, 0.008908910676836967, -0.011022714897990227, 0.016088375821709633], [9.687642910094496e-10, -5.521954449250188e-07, -1.4999143616023503e-07, -3.699006128954352e-06, 8.830475962895434e-06, 4.462392269033444e-07, -2.1965070118312724e-06, -1.0192421768806526e-06, 1.9617622456280515e-05, 2.6925802103505703e-06, 6.655319140236315e-08, 2.1074363587558764e-07, 1.510100901214173e-06, -6.158394626254449e-06, 3.996987743448699e-06, -2.4248629415524192e-06, 3.4673837490117876e-06, -2.1934936285106232e-06, -1.0416628128950833e-06, -2.336753141207737e-06, 1.522744810245058e-07, -7.797714715707116e-06, 6.074689736124128e-06, 8.736274139664602e-07, -7.451125156876515e-07, -3.7924460229987744e-06, 2.1051569092378486e-06, -1.196712673845468e-06, 4.0689431557439093e-07, -3.869407009915449e-06, -1.933676912813098e-06, -9.916829185385723e-06, 1.1947605571549502e-07, -1.98704924514459e-06, 7.888111781539919e-07, -3.039789817194105e-06, 2.8664792353083612e-06, -1.1324846127536148e-05, 4.110833742743125e-06, 7.90159720054362e-06, 1.9102658370684367e-06, -2.6963637083099457e-06, 2.1344362721720245e-07, -6.245642794056039e-07, 2.602590711830999e-07, 3.501597348076757e-06, -3.6922067465638975e-06, -2.522981503716437e-06, 6.206304988154443e-06, -1.562574652780313e-06, 1.818347186599567e-06, 1.2499251624831231e-06, 4.744272246171022e-06, 2.724671276155277e-06, 1.1989505765086506e-05, -5.992377509755897e-07, 2.1255482351989485e-06, 3.6850542528554797e-06, 5.121993353895959e-07, -4.748746391669556e-07, 9.422004040970933e-06, 6.981864316912834e-06, 2.056943685602164e-06, -4.505090487327834e-07, -1.3495696293830406e-06, -1.0789731277327519e-06, -3.408077589028835e-07, -1.5887418385318597e-06, -7.940247996884864e-07, -8.287574019050226e-06, -3.099119112448534e-07, 4.86305907543283e-07, 5.34668458840315e-07, -3.4668525472625333e-07, 2.0133429643465206e-06, 4.774477019964252e-06, 1.517789542049286e-06, -9.691068498796085e-07, 5.185543727748154e-07, 1.7583856504188589e-07, -2.0884299374301918e-06, 1.731808310978522e-06, 1.8205832930107135e-06, -2.698156777114491e-06, 7.225337661509457e-09, -1.1718873338395497e-06, 4.303926289139781e-06, -6.564444902323885e-06, 2.345096390854451e-06, 2.5140413981716847e-06, 5.856822582472887e-08, -8.495127303831396e-07, 3.3021638046193402e-06, -1.0574617590464186e-06, 2.42470423472696e-06, -2.7753006293096405e-07, 6.157466714284965e-07, -4.444911496648274e-07, 1.026936729431327e-06, 1.7165444887723424e-07, 8.757020850680419e-07, 9.329027079729713e-07, -6.444747668865602e-07, -2.7480659809953067e-06, 3.697174861372332e-06, -9.58710074883129e-07, 1.4586568113372778e-06, 1.2394053783282288e-07, 1.6306104271279764e-06, 1.264910792997398e-06, 2.687712310489587e-07, -7.14761972631095e-06, 1.3339499105313735e-07, -1.2835233746955055e-06, 1.4414405995921697e-05, -6.974784355406882e-06, 6.885693892400013e-06, -5.0016592467727605e-06, 5.931378836976364e-06, 1.8735549929260742e-06, -1.3245148693386e-06, -6.663102567472379e-07, -1.3597487580341294e-08, -5.354845598048996e-06, -1.2980402175344352e-07, -3.985981038567843e-07, 2.77593835562584e-06, -3.320871542200621e-07], [0.0001651043858146295, 0.0003497254801914096, -0.00015503374743275344, 0.00010288017801940441, -2.1862959329155274e-05, 0.002042497042566538, 1.5905929103610106e-05, 0.0001020800627884455, -0.0005737220635637641, -0.0009435545653104782, -0.00020310499530751258, 2.854307922461885e-06, -2.2590615117223933e-05, 0.00020373451116029173, -0.0003029683430213481, 0.00020094939100090414, -0.00011591733345994726, 0.0018826876766979694, 0.0004582235123962164, 0.00019918481120839715, 4.899131818092428e-05, 8.336475002579391e-05, -7.455533250322333e-06, -0.0002259995526401326, 0.00011042277765227482, 7.383695447060745e-06, 0.0001899472117656842, 0.00025573724997229874, -6.674003088846803e-05, 0.0002313278819201514, 0.0005607269122265279, 0.0006664023385383189, -0.00034200894879177213, 0.0004596644139382988, -0.00026477081701159477, 4.823497874895111e-05, -0.0001754144177539274, 0.00034156968467868865, -0.0004012376884929836, -0.00027406614390201867, -5.2371786296134815e-05, 0.0004490833089221269, -0.00013266963651403785, 0.0001549336884636432, -1.746254929457791e-05, -2.589583891676739e-05, 5.4400836233980954e-05, 0.0003751690383069217, -0.0002647855435498059, 0.00010950864816550165, -0.0004428993270266801, -6.0577520343940705e-05, -0.0005865730345249176, -0.00016334881365764886, -0.00033562222961336374, -0.000642604602035135, -0.00012154287833254784, -0.0005025810678489506, -0.0004979404038749635, 0.00020312235574238002, -9.155421139439568e-05, -0.00016515888273715973, -0.0003095546271651983, 1.0032904356194194e-05, 0.00010318614658899605, 8.11078425613232e-05, -0.0004849115794058889, 0.00021347783331293613, 0.0003840225108433515, 0.00021531528909690678, 0.00017930148169398308, 0.00011247133079450577, 0.00011539922707015648, 7.4345400207676e-05, -1.6341735317837447e-05, 0.00023774731380399317, -0.00018345369608141482, 0.00016100033826660365, -0.0002746636455412954, 5.173972022021189e-05, -5.501330451807007e-05, -0.00021316218771971762, -0.000419616379076615, 0.00036716798786073923, 0.0002644099877215922, 0.0001048780613928102, -0.0004528254212345928, 0.0003172527940478176, -0.0004640835977625102, -0.0005753990262746811, 0.00010573180770734325, 5.929817780270241e-05, -0.00022492989955935627, 0.00010412646952318028, -0.0003496437566354871, 0.00012930035882163793, -0.00016599828086327761, 0.00013991162995807827, -0.00015248273848555982, -0.00047898932825773954, -0.00023205438628792763, -5.524580046767369e-05, -0.0003214394673705101, 9.166239033220336e-05, -0.0011074194917455316, 8.434753544861451e-05, -1.1038691809517331e-05, -0.00010895748710026965, -5.795980177936144e-05, -1.8544458725955337e-05, -3.730842945515178e-05, 1.5679403077228926e-05, -0.00034589983988553286, 0.0004646109009627253, -3.322117845527828e-05, 0.0002503547875676304, -0.000678402662742883, 3.526487125782296e-05, -0.000102558835351374, -3.771221963688731e-05, 0.00019637100922409445, 0.00022058864124119282, -0.0003377728280611336, 1.796344804461114e-05, -0.00011405278200982139, 1.5938017895678058e-05, -0.00011751343117794022, 2.208224577771034e-05], [0.0062358626164495945, 0.019215432927012444, -0.005918894428759813, 0.017134783789515495, -0.016249118372797966, 0.0063251713290810585, 0.016443977132439613, 0.02566135674715042, -0.014660947024822235, -0.014455340802669525, -0.03647809475660324, 0.010594386607408524, -0.07192195951938629, 0.014845424331724644, -0.025026926770806313, 0.011627684347331524, -0.00838243868201971, 0.016377313062548637, 0.006789874285459518, 0.01176275871694088, 0.02081797458231449, 0.025118965655565262, -0.01566140539944172, -0.020586352795362473, 0.014208700507879257, 0.006300193257629871, 0.009750808589160442, 0.0198590699583292, -0.04047348350286484, 0.022012043744325638, 0.028200272470712662, 0.018386119976639748, -0.026204682886600494, 0.006700206082314253, -0.016592614352703094, 0.021696504205465317, -0.03140074387192726, 0.027070997282862663, -0.01901905983686447, -0.007285584229975939, -0.026481667533516884, 0.00958797987550497, -0.031120948493480682, 0.03854672238230705, -0.02324027381837368, -0.018349627032876015, 0.006404127459973097, 0.01141386479139328, -0.01073289755731821, 0.03472450003027916, -0.008671481162309647, -0.009239057078957558, -0.03246070072054863, -0.027349909767508507, -0.01210089772939682, -0.00593323539942503, -0.006790325976908207, -0.02212344855070114, -0.011430996470153332, 0.021323654800653458, -0.026861047372221947, -0.0295002032071352, -0.006090986542403698, 0.019399993121623993, 0.008670109324157238, 0.016414878889918327, -0.013226037845015526, 0.018336500972509384, 0.006399730686098337, 0.006511894520372152, 0.01847650669515133, 0.011370095424354076, 0.025414738804101944, 0.01976674795150757, -0.017503855749964714, 0.02335551008582115, -0.006855867337435484, 0.08726239204406738, -0.012397228740155697, 0.04374874755740166, -0.018513882532715797, -0.01134199183434248, -0.008943269029259682, 0.009852497838437557, 0.07716886699199677, 0.008537358604371548, -0.012791533954441547, 0.011904397048056126, -0.033553346991539, -0.005194426979869604, 0.007900029420852661, 0.006793695036321878, -0.010959726758301258, 0.02306465432047844, -0.033277153968811035, 0.021160081028938293, -0.009453571401536465, 0.015519168227910995, -0.028276003897190094, -0.0068635763600468636, -0.014566884376108646, -0.016250576823949814, -0.012496761046350002, 0.015234268270432949, -0.008770479820668697, 0.015445960685610771, -0.007139804307371378, -0.010151959024369717, -0.017212029546499252, -0.008917257189750671, -0.010512213222682476, 0.01476091518998146, -0.013350690715014935, 0.009544732049107552, -0.018952500075101852, 0.014451264403760433, -0.012456552125513554, 0.009918931871652603, -0.008768951520323753, -0.019527915865182877, 0.02676965668797493, 0.013030311092734337, -0.00624641589820385, 0.02068144828081131, -0.031009448692202568, 0.012802915647625923, -0.012041793204843998, 0.02489321120083332], [-2.5994806946982862e-06, -1.030787302624958e-06, 6.5493341026012786e-06, 2.3103503110633028e-07, 1.3289412947870005e-07, -6.5880758484127e-06, -2.47240723183495e-06, -6.743583981005941e-06, 4.923970664094668e-06, 2.5868428110698005e-06, -2.2608706728988182e-07, -3.808171413766104e-07, 4.217891103053262e-07, -3.212013325537555e-06, -3.586491104101697e-08, -6.7174819378124084e-06, 2.694115892154514e-06, -1.2353984857327305e-06, -1.5565922240057262e-07, 7.283376390887497e-08, -5.428385520644952e-06, -1.9178658021701267e-06, 4.881126756117737e-07, 1.015703037410276e-05, 2.4556181088541962e-08, -2.2177741811901797e-06, -4.29516876465641e-06, 2.2082778627918742e-07, 2.2814793965153513e-07, -2.5761896722542588e-06, -1.3117094113113126e-06, 4.211987061353284e-07, 2.0276242196359817e-07, -7.8616249084007e-06, 3.212720685041859e-07, -1.8030816590908216e-06, 5.907046443098807e-07, -1.428668241487685e-07, 5.65866594115505e-06, 1.6324044054272235e-06, 3.1300018576985167e-07, -2.9689408620470203e-06, 1.264562456526619e-06, -1.0058282207126013e-08, -1.5014607868124585e-07, 7.2488314799556974e-06, -2.0435211354197236e-06, -2.2607407572650118e-06, 1.6449225768155884e-06, -7.782378297349624e-09, 5.029988301430421e-07, 1.685504798842885e-06, 6.736814157193294e-06, 1.1892808515767683e-06, 1.5012580661277752e-05, 6.378432999554207e-07, 1.0634311138346675e-06, 1.0008851631937432e-06, 5.921066986047663e-06, 2.948686130821443e-07, -2.3828155804039852e-07, -6.974195230213809e-07, -2.424133356271341e-07, -5.033821707911557e-06, -1.9408189473324455e-06, -2.6844520562008256e-07, 1.3602129001810681e-05, -3.517122308949183e-07, 1.1482877226853816e-07, -4.3653474790517066e-07, -8.396011139666371e-07, -3.4168638194387313e-06, -1.6906174096220639e-06, 5.439500796455832e-07, 8.954115742199065e-07, 5.476887849908962e-07, 3.738438181244419e-06, 2.749099792254128e-07, 6.412216748685751e-07, 2.244130996587046e-07, 5.1731208259298e-06, 2.3334993670687254e-07, 2.381719923505443e-06, 2.2967653023897583e-07, 2.3143378768963885e-07, -2.4577559543104144e-07, 1.6591873190918704e-06, -2.7112967018183554e-06, 1.8486935005057603e-06, 8.417761137025082e-07, -1.4143553244139184e-06, -4.990114632619225e-08, -4.321748008351278e-07, -2.869734544219682e-06, -4.626424399134521e-08, -7.135499799915124e-06, 2.6427992452227045e-06, -7.27116571397346e-07, 2.515818550818949e-06, 4.4546322897076607e-07, 8.987092769530136e-06, 2.228825678685098e-06, 4.564833034237381e-06, 1.1079847439532386e-07, 2.5539058867707354e-08, -5.120007244840963e-06, -5.369809485955557e-08, 1.8951112679133075e-07, 6.090515398682328e-06, 7.810591569068492e-07, 5.672750944540894e-07, -7.285770152520854e-06, 7.002431630098727e-07, -1.8227410691906698e-06, 4.5594078983413056e-06, -1.662756744735816e-06, 6.8653503149107564e-06, -2.599366780486889e-06, 4.906627054879209e-06, -2.0753051899191632e-07, 3.89939714295906e-07, -3.3181943308591144e-06, 1.0690834528759297e-07, -4.989552053302759e-06, 7.108887700724154e-08, -2.6264214625371096e-07, 5.207566118770046e-06, -1.5753846582811093e-06], [-0.004227171652019024, -0.0025682183913886547, 0.005843312945216894, -0.007372313179075718, 0.0011455595958977938, -0.0044534653425216675, -0.0070707062259316444, -0.004789202474057674, 0.012618869543075562, 0.004630326293408871, 0.0009381144773215055, -0.00015815020014997572, 0.0011582404840737581, -0.00543812895193696, 0.004045466892421246, -0.005301044322550297, 0.006927609443664551, -0.006111595313996077, -0.000547591655049473, -0.0031993535812944174, -0.010125945322215557, -0.005226975306868553, 0.007323224097490311, 0.009289873763918877, -0.01314765028655529, -0.003827008418738842, -0.027259228751063347, -0.008513090200722218, 0.0006797606474719942, -0.004254260566085577, -0.004357591737061739, -0.004684840328991413, 0.004118067678064108, -0.004784943535923958, 0.0030175731517374516, -0.0010038051987066865, 0.0006733922054991126, -0.008648276329040527, 0.001135795610025525, 0.0022524502128362656, 0.001438541803508997, -0.007037547416985035, 0.0024851891212165356, -0.00043624223326332867, 0.002865337301045656, 0.0034844563342630863, -0.005945743527263403, -0.004791628569364548, 0.013829159550368786, -0.0022964400704950094, 0.004693358205258846, 0.000258176849456504, 0.01023800391703844, 0.0011938842944800854, 0.00907945167273283, 0.005595789290964603, 0.0017484786221757531, 0.009849932976067066, 0.009391050785779953, -0.0020462037064135075, 0.001952444203197956, 0.004662700463086367, 0.00452687731012702, -0.011343413032591343, -0.00031367913470603526, -0.0036357182543724775, 0.01527404598891735, -0.004341162741184235, -0.005035546608269215, -0.010100922547280788, -0.0016376898856833577, -0.0026152278296649456, -0.0010972502641379833, -0.0005342420772649348, 0.0011268312809988856, -0.012695299461483955, 0.006481771357357502, -0.0008011454483494163, 0.0016201846301555634, -0.0014066444709897041, 0.010782855562865734, 0.0028301284182816744, 0.006184412632137537, -0.0010578916408121586, -0.0011350922286510468, -0.002721813740208745, 0.00571455480530858, -0.006145833525806665, 0.00322350044734776, 0.008554201573133469, -0.0014558864058926702, -0.0035425962414592505, 0.0018035395769402385, -0.00018033705418929458, 0.0014344184892252088, -0.005043021868914366, 0.0014606728218495846, -0.0036564997863024473, 0.008794374763965607, 0.005185200832784176, 0.002838220912963152, 0.0076058898121118546, 0.0025033976417034864, -0.00951558817178011, 0.004427729174494743, -0.0040939184837043285, 0.008429762907326221, 0.004250866826623678, 0.0019102438818663359, 0.002133527072146535, 0.00831668172031641, -0.0026682750321924686, 0.006623306777328253, -0.003397163935005665, 0.0034733007196336985, -0.006678514648228884, 0.007633699104189873, -0.004619094077497721, 0.0011933248024433851, 0.0013167659053578973, -0.0075656394474208355, -0.0015213537262752652, 0.00563384685665369, -0.002273999387398362, 0.003212951123714447, -0.0034965239465236664, 0.012766492553055286, -0.0018633515574038029], [-0.0018064252799376845, -0.0007407505763694644, 0.0027920634020119905, -0.0041796001605689526, 0.0013323375023901463, -0.0024883076548576355, -0.005126269068568945, -0.0004876855527982116, 0.0028074360452592373, 0.002925617154687643, 0.0011276263976469636, -0.0002414228511042893, 0.000773825217038393, -0.001356635126285255, 0.0033878658432513475, -0.0001506500702816993, 0.0012170812115073204, -0.0013970236759632826, -0.0005282600759528577, -0.0013548973947763443, -0.0007787658250890672, -0.001829529763199389, 0.0028267044108361006, 0.002302700188010931, -0.0002171716623706743, -0.0005364094395190477, -0.005947358440607786, -0.0025468578096479177, 2.216803295596037e-05, -0.00012123138731112704, -0.0003376420645508915, -0.0011997477849945426, 0.00018980982713401318, -0.004365227185189724, 0.0007537348428741097, -8.87291826074943e-05, 0.0018526534549891949, -0.0018313124310225248, 0.0021324295084923506, 0.00022156494378577918, 0.0005165062611922622, -0.003733578836545348, 0.0009426845354028046, -0.0003000933211296797, 5.987591976008844e-06, 0.0006077334983274341, -0.002894314471632242, -0.002355273813009262, 0.0012920169392600656, -0.0009474001708440483, 0.0006053782417438924, 0.0005383972311392426, 0.002406820422038436, 0.0003373278595972806, 0.00040991269634105265, 0.0010088295675814152, 0.0003924959455616772, 0.00022441493638325483, 0.0006273113540373743, -0.00012583436910063028, 0.00018417996761854738, 0.000889194430783391, 0.0017728735692799091, -0.0016744614113122225, -0.0002825499977916479, -0.0008479836978949606, 0.002327987924218178, -0.0003437669947743416, -0.0005477505619637668, -0.004058136139065027, -0.0003659346548374742, -0.000604060071054846, -0.0024544375482946634, -0.000230398029088974, 0.0006332952179946005, -0.005644993856549263, 0.005520871840417385, -0.0002871729957405478, 0.003304415848106146, -0.0007111186860129237, 0.006071011070162058, 0.0023011898156255484, 0.0009723182301968336, -0.0005732905701734126, -0.00041605447768233716, -0.00012510517262853682, 0.00030630032415501773, -4.536086635198444e-05, 0.0016931734280660748, 0.0011528533650562167, -0.00030048712505958974, -0.0009522712789475918, 6.905476766405627e-05, -0.0005265725776553154, 7.873970753280446e-05, -0.0031269879546016455, 0.0012242140946909785, -0.0005067112506367266, 0.004547619726508856, 0.0018893831875175238, 0.0006373720243573189, 0.0008036168292164803, 0.004629977513104677, -0.0007763028261251748, 0.0007453740108758211, -0.0013319900026544929, 0.0009416909306310117, 0.0005863789119757712, 0.00325836893171072, 0.00038406107341870666, 0.001404007663950324, -0.0030220081098377705, 0.0033298912458121777, -0.0002004838752327487, 0.0001316823618253693, -0.0008167542400769889, 0.0025466815568506718, -0.0019364941399544477, 0.0009217968326993287, 0.0001978030486498028, -0.003085132222622633, -0.0016975171165540814, 0.0009812652133405209, -0.0003057740395888686, 0.0005702973576262593, -0.001630657003261149, 0.0018547773361206055, -0.00026438370696268976], [0.00011631943198153749, 0.00016886756930034608, -6.0203325119800866e-05, 0.0006071492680348456, -0.00014649191871285439, 3.253041359130293e-05, 0.0005388965364545584, 0.0007643810822628438, -0.0003565832448657602, -0.00023604437592439353, -0.00019606456044130027, 9.319803939433768e-05, -0.0005538363475352526, 0.00018716411432251334, -7.852722774259746e-06, 0.00011874418123625219, -0.0006589372642338276, 9.760708780959249e-05, 9.028353088069707e-05, 0.0001635931694181636, 0.00046544833458028734, 0.00027949592913500965, -0.0001350425445707515, -0.0001348125224467367, 0.00033002786221913993, 0.00033392198383808136, 0.0007668480393476784, 0.00023662966850679368, -0.00021900712454225868, 0.0003020729636773467, 0.00017652982205618173, 0.0007751631201244891, -0.00017037011275533587, 0.00013878346362616867, -2.63523543253541e-05, 0.00016198288358282298, -6.917156042618444e-06, 1.6369711374863982e-05, -3.068225851166062e-05, -0.00013889066758565605, -0.00016714257071726024, 0.00041696944390423596, -0.00018628269026521593, 0.00027134103584103286, -5.8420150708116125e-06, -0.0005436556530185044, 0.0003452892997302115, 3.2342071790480986e-05, -0.0005648570950143039, 0.00013047042011749, -6.185184247442521e-06, -5.727702227886766e-05, -0.0005146271432749927, -0.00014477646618615836, -0.00017375918105244637, -6.080366347305244e-06, -0.0003714405174832791, -0.0002596589911263436, -0.0007619811804033816, 4.62447787867859e-05, -0.000171027728356421, -0.0006319397361949086, -0.0004592803888954222, 0.0001435508020222187, 0.00023344320652540773, 1.7815118553698994e-05, -2.7332400350132957e-05, 0.00038229802157729864, 0.0003797679382842034, 7.891089626355097e-05, 0.00011030840687453747, 3.663381721707992e-05, 0.0004017162136733532, 0.00029921409441158175, -0.0003060410963371396, 1.7463212316215504e-06, -0.0002453728229738772, 0.0003454796096775681, -0.00016470854461658746, 0.00010409679089207202, -0.001542580546811223, -1.788939152902458e-05, -1.0316209227312356e-05, 0.0001156265425379388, 0.00015555940626654774, 0.00010636817023623735, -0.0005243627238087356, 0.00014566761092282832, -0.00015428858750965446, -0.000281246320810169, 2.7816840884042904e-05, 0.00025524021475575864, -0.0005033001652918756, 0.00029771175468340516, -0.0003647706762421876, 0.000532104168087244, -0.00024398117966484278, 0.00013633753405883908, -6.789433973608539e-05, -0.0008642127504572272, -0.0012451241491362453, -0.000211064048926346, -0.0005527979228645563, 0.00043241438106633723, -2.420619421172887e-05, 2.355426477151923e-05, -0.0001767124340403825, -8.680103928782046e-05, -1.1969566912739538e-05, -0.00031879765447229147, -0.00042232146370224655, 0.00018299311341252178, -2.926291745097842e-05, 0.0001404963986715302, -0.00042245275108143687, 0.0009772938210517168, -0.0006267484277486801, 0.00024401834525633603, -0.00021830415062140673, -1.4015005945111625e-05, 0.000479394308058545, 0.00018827075837180018, -0.00046228637802414596, 7.73216670495458e-05, -0.00011818957864306867, 0.00024181931803468615, -0.0002704364887904376, 3.642027877504006e-05], [8.016140782274306e-07, 2.2501028524857247e-06, -3.3855417314043734e-06, 4.334255208959803e-06, 4.179069890142273e-08, -4.285100274614706e-08, 5.515100269803952e-07, 2.0118275187996915e-06, -1.6145546396728605e-05, -2.8981662580918055e-06, 5.412690597950132e-07, 3.33656998918741e-06, -1.8311424128114595e-06, 7.966327757458203e-06, -7.72696807871398e-07, 3.748248673218768e-06, -7.144704454731254e-07, 3.4866434361902066e-06, 3.2105478453559044e-07, 7.573819402750814e-07, 7.773547281431092e-07, 2.9669242849195143e-06, -1.3254571058496367e-06, -1.2310014199101715e-06, 3.9803994695830625e-06, 4.739474206871819e-06, 3.887122602463933e-06, -1.0792895182021311e-06, -1.8144327214031364e-06, 2.7507919639901957e-06, 1.91233243640454e-06, 5.501268788066227e-06, -1.3253149973024847e-06, 3.3828328582785616e-07, 2.435819794754934e-07, 1.2103478184144478e-06, 2.1838134500740125e-07, 1.5811514231245383e-06, -5.343757720766007e-07, -1.4047871843558823e-07, -2.1938841143764876e-07, -1.4665106107258907e-07, 2.0004669920581364e-07, 5.616345788439503e-07, -2.0343643427622737e-06, -2.0474408302106895e-06, 7.00611792581185e-07, 1.739382184950955e-07, -9.796985978027806e-06, 3.9074984670151025e-06, -7.32168246031506e-07, -6.681372042294242e-07, -2.947104427164504e-08, -4.363081984593009e-07, -2.070979235213599e-06, -2.886697529902449e-06, -7.85820884630084e-06, -3.591259201130015e-07, -4.850591267313575e-06, 7.702971061007702e-07, 1.9309680521217842e-09, -6.874203108964139e-07, -2.6991926915798103e-07, 7.678515430598054e-06, 2.8884301173093263e-06, 4.396224994707154e-06, -5.529321356334549e-07, 1.236672005688888e-06, 3.3653680020506727e-07, 1.7886202385852812e-06, 1.3597884844784858e-06, 1.7211398244398879e-06, 4.065289431309793e-06, 2.7053411031374708e-06, -2.5573433504177956e-06, 6.468584615504369e-06, -7.424544605783012e-07, 4.722542001900365e-08, -5.866461947334756e-07, 3.6601550164050423e-06, -8.243197044066619e-06, 7.223788429655542e-07, -8.791719778855622e-07, 1.1852456509586773e-06, 3.7319239254429704e-06, 1.7921307460255775e-07, -3.403435187010473e-07, 6.833333372924244e-06, -2.227413006039569e-06, -5.9734697970270645e-06, 5.455659675135394e-07, 3.0087355753494194e-06, -1.0262670002703089e-07, 1.7633592506172135e-06, -1.360193095933937e-06, 4.667641860578442e-06, -7.200993422884494e-06, 3.6855419693893055e-07, -8.14924806036288e-06, -2.530602387196268e-06, -6.967536592128454e-06, -3.3345315841870615e-07, -8.246415745816194e-06, 3.173832965330803e-06, -1.554620212118607e-06, 4.747847128783178e-07, -7.953784688652377e-07, -2.348484855474453e-07, -1.3796068287774688e-06, -2.7381153699934657e-07, 1.866083820800668e-08, 6.142493475636002e-06, -9.531208888802212e-06, 2.8034810384269804e-07, -6.719546945532784e-06, 3.421294422878418e-06, -8.227599209931213e-06, -3.449020198331709e-07, -2.257422238471918e-06, -2.1547516553255264e-06, 5.757628400715475e-07, 1.9713921517450217e-07, -5.1412885113677476e-06, 6.996498882472224e-07, -1.3181280564822373e-06, 6.485730636995868e-07, -1.698609366940218e-06, 1.5365061472039088e-06], [-0.0010709631023928523, -0.000600849452894181, 0.006237225607037544, -0.020250339061021805, 0.001134064164943993, -0.004789441823959351, -0.027423474937677383, -0.004279749467968941, 0.0039377715438604355, 0.0008576049585826695, 0.0007239760598167777, -0.0010531736770644784, 0.0008846587734296918, -0.00911982636898756, 0.0019298637052997947, -0.00794230680912733, 0.0009126786608248949, -0.02487577497959137, -0.0011583378072828054, -0.002287293318659067, -0.036068905144929886, -0.007016785908490419, 0.0016695007216185331, 0.0007063336670398712, -0.022672927007079124, -0.00029481848469004035, -0.030070731416344643, -0.005170369055122137, 0.0016020296607166529, -0.0010222417768090963, -0.005387318320572376, -0.0037405570037662983, 0.0021711131557822227, -0.007226032204926014, 0.0026069164741784334, -0.000876156089361757, 0.002407029503956437, -0.0034000659361481667, 0.0006779157556593418, 0.004147594328969717, 0.0012411695206537843, -0.014294428750872612, 0.002458310453221202, -0.0010672815842553973, 0.002068833215162158, 0.0014047612203285098, -0.014805899932980537, -0.01359266135841608, 0.0272506270557642, -0.00016223752754740417, 0.0007246724562719464, 0.00038158928509801626, 0.016606848686933517, 0.0001005630983854644, 0.005373586900532246, 0.0022632915060967207, 0.0009581074118614197, 0.0012915540719404817, 0.013340516947209835, -0.0009669318096712232, 0.006211135536432266, 0.00021617612219415605, 0.001844879356212914, -0.034482140094041824, -0.0011694423155859113, -0.0003520021855365485, 0.0473751537501812, -0.0009730997262522578, -0.0026086808647960424, -0.01136122178286314, -0.0031811490189284086, -0.0018505329499021173, -0.0011643694015219808, -0.0017018815269693732, 0.0007791313109919429, -0.02767755277454853, 0.021391388028860092, -0.0005454110796563327, 0.0019048027461394668, -0.0007815048447810113, 0.035295840352773666, 0.020391710102558136, 0.00276550673879683, -0.0009109090897254646, -0.0003921154420822859, -0.0010729721980169415, 0.0020993428770452738, -0.02212344855070114, 0.0008384525426663458, 0.01621703989803791, -0.000622421910520643, -0.007385353557765484, 0.00010878880857490003, -0.0012897348497062922, 0.0022313238587230444, -0.002089953748509288, 0.0017193902749568224, -0.00015525844355579466, 0.002543568843975663, 0.004775137174874544, 0.028241459280252457, 0.005289762280881405, 0.010652164928615093, -0.0031316333916038275, 0.004321579355746508, -0.0033232243731617928, 0.0024319614749401808, 0.0009387389873154461, 0.010705823078751564, 0.001143374596722424, 0.013055635616183281, -0.0032725008204579353, 0.0281380582600832, -0.0001773869153112173, 0.04712039604783058, -0.0024465026799589396, 0.0030671136919409037, -0.0009243793319910765, 0.0025211505126208067, 0.000472903047921136, -0.0066847605630755424, -7.67348101362586e-05, 0.008045503869652748, -0.001662552123889327, 0.005256986245512962, -0.0047912620939314365, 0.0022614048793911934, -0.0006499705486930907], [0.07412198185920715, 0.07539690285921097, -0.062894307076931, 0.06921170651912689, -0.008893141523003578, 0.081814244389534, 0.07206755876541138, 0.0871010273694992, -0.03547549247741699, -0.050218384712934494, -0.030123447999358177, 0.01593218930065632, -0.03473561257123947, 0.0756194069981575, -0.08364705741405487, 0.03780858963727951, -0.014573406428098679, 0.07849301397800446, 0.0585845410823822, 0.06201627850532532, 0.07585633546113968, 0.016196751967072487, -0.0815066248178482, -0.07976165413856506, 0.0758860632777214, 0.0088226068764925, 0.03939870372414589, 0.012209413573145866, -0.05732134357094765, 0.040928058326244354, 0.07943195849657059, 0.014260952360928059, -0.07149845361709595, 0.009181125089526176, -0.01603063941001892, 0.01603471115231514, -0.06001855060458183, 0.07881135493516922, -0.07373275607824326, -0.07638247311115265, -0.07027673721313477, 0.06990297883749008, -0.06399495899677277, 0.0637073963880539, -0.012146725319325924, -0.07993699610233307, 0.06055007874965668, 0.07377393543720245, -0.07817521691322327, 0.021145708858966827, -0.0822838693857193, -0.058921195566654205, -0.02145525999367237, -0.05070672184228897, -0.0616910457611084, -0.009541518986225128, -0.05278102681040764, -0.02531145140528679, -0.09063142538070679, 0.07190420478582382, -0.0829007476568222, -0.0665893480181694, -0.00589636480435729, 0.06673974543809891, 0.02554982714354992, 0.07533009350299835, -0.04360075667500496, 0.04912929609417915, 0.013861559331417084, 0.07148166745901108, 0.06818748265504837, 0.06877487897872925, 0.07028424739837646, 0.012292482890188694, -0.04863050580024719, 0.008778326213359833, -0.040338583290576935, 0.04555583372712135, -0.0633677989244461, 0.07628915458917618, -0.04726994037628174, -0.02430049143731594, -0.010121599771082401, 0.0743028074502945, 0.048542700707912445, 0.0571800135076046, -0.0387624055147171, 0.01051111239939928, -0.029324669390916824, -0.07106813788414001, 0.0460275374352932, 0.07848291099071503, -0.05936586484313011, 0.06847362220287323, -0.06849116086959839, 0.013899009674787521, -0.00916665606200695, 0.05765886604785919, -0.07032085210084915, -0.01042274758219719, -0.0680965855717659, -0.013975787907838821, -0.07005316019058228, 0.079445980489254, -0.0656995177268982, 0.07797501236200333, -0.0699380412697792, -0.007984394207596779, -0.0737195760011673, -0.06184912472963333, -0.056967843323946, 0.06510748714208603, -0.007840776816010475, 0.05206609517335892, -0.06492031365633011, 0.07464650273323059, -0.009319807402789593, 0.009252991527318954, -0.07749587297439575, -0.08085580915212631, 0.08448818325996399, 0.06715485453605652, -0.07366906851530075, 0.07536538690328598, -0.07752587646245956, 0.07471434772014618, -0.011936516501009464, 0.06511541455984116], [0.00042393041076138616, 0.00019298838742543012, -6.874056271044537e-05, 0.0001528229477116838, -0.00041121282265521586, 0.00012443306331988424, 0.0004468772385735065, 6.0973306972300634e-05, -7.675928645767272e-05, -0.00018090118828695267, -0.0003937712754122913, 0.0001810236572055146, -0.000154051449499093, 0.0004266940522938967, -3.412388832657598e-05, 0.00031437931465916336, -0.00018029226339422166, 6.641659274464473e-05, 4.764507320942357e-05, 0.00019936282478738576, 0.0002606110938359052, 3.147190363961272e-05, -8.966192399384454e-05, -0.0002850708260666579, 0.0001873273286037147, 3.808253677561879e-05, 0.0003435497637838125, 7.733768870821223e-05, -1.6774702089605853e-05, 0.000299158098641783, 0.00038323382614180446, 6.063446562620811e-06, -0.0003909629595000297, 0.00013722205767408013, -6.071331517887302e-05, 0.00014205723709892482, -0.00014565227320417762, 0.00020775468146894127, -0.0001677712716627866, -0.00014052547339815646, -0.0002750810526777059, 0.00021214480511844158, -3.0641036573797464e-05, 0.00028559984639286995, -0.0003714952908921987, -2.1506144548766315e-05, 6.594237493118271e-05, 0.00019533373415470123, -6.18355261394754e-05, 0.0002322345389984548, -1.1590809663175605e-06, -0.00030882054124958813, -8.286048250738531e-05, -0.0001293354871449992, -0.00021692206792067736, -0.0001206666202051565, -0.00018646595708560199, -6.493818364106119e-05, -0.00048138535930775106, 0.00012741614773403853, -9.30897585931234e-05, -5.963062358205207e-05, -2.8896212825202383e-05, 0.00017324075452052057, 0.00020019606745336205, 4.748056744574569e-05, -7.325274509639712e-06, 1.8219587218482047e-05, 0.0007582697435282171, 0.00023321894695982337, 5.717673047911376e-05, 0.0002701757475733757, 1.0513418601476587e-05, 8.115536911645904e-05, -0.00011509119940456003, 0.0010993549367412925, -0.0006159013719297945, 0.00012486036575865, -5.610074367723428e-05, 0.0003401953727006912, -4.4117430661572143e-05, -0.0001541017700219527, -0.00013777696585748345, 6.925000343471766e-05, 0.00018651934806257486, 0.00010033374564955011, -0.00021706898405682296, 0.0006882193265482783, -0.0003264356346335262, -0.00017158752598334104, 3.033784742001444e-05, 0.00024310658045578748, -4.105151674593799e-05, 0.00012549817620310932, -3.763863423955627e-05, 0.00014643705799244344, -0.0002534213417675346, 0.00017431190644856542, -0.000317074271151796, -2.43018312175991e-05, -0.00010302453301846981, -6.484389450633898e-05, -0.00018629155238159, 0.00010808433580677956, -0.0004464956000447273, 0.00014108895265962929, -0.0007203699788078666, -7.632113920408301e-06, -6.238294076865714e-07, -5.246906584943645e-05, -0.00023808138212189078, 0.00017185619799420238, -5.759929626947269e-05, 0.00011987310426775366, -0.0009264428517781198, 0.0003655600012280047, -0.00011388360144337639, 0.00010262164869345725, -3.355040098540485e-05, -0.00013254411169327796, 0.0005847692955285311, 9.676581248641014e-05, -0.00016403707559220493, 0.00025761814322322607, -0.00015503411123063415, 0.0002690571709536016, -7.958604692248628e-05, 0.00011969963816227391], [-2.2871592591400258e-05, -1.1118980864921468e-06, 4.433280992088839e-06, -1.3653723726747558e-05, 1.2162356142653152e-05, -1.2887234106528922e-06, -6.517200290545588e-07, -2.423524392725085e-06, 1.3569791008194443e-05, 6.952001967874821e-06, 3.3188182442245306e-06, -1.4806756780672004e-06, 1.3200533430790529e-05, -1.294789126404794e-05, 1.0347706847824156e-05, -4.266181349521503e-06, 7.728858690825291e-06, -2.0702791516669095e-05, -2.9848554277123185e-06, -4.914345936413156e-06, -1.5435063687618822e-05, -1.4158564226818271e-05, 3.901283491813956e-07, 4.836146217712667e-06, -7.661767995159607e-06, -2.036678051808849e-05, -9.885147846944164e-06, -9.241919542546384e-06, 2.265187504235655e-07, -5.09140136273345e-06, -1.1242836080782581e-05, -3.7318936847441364e-06, 6.682749244646402e-06, -1.6115956213980098e-06, 9.525601853965782e-07, -1.036428329825867e-05, 7.808820555510465e-06, -4.2138850631090463e-07, 8.579090717830695e-06, 6.44371539237909e-07, 3.908305643562926e-06, -1.292952129006153e-05, 1.023018739942927e-06, -8.286759793918463e-07, 9.233135642716661e-06, 6.194838988449192e-06, -1.3837445294484496e-05, -1.8967262803926133e-05, 1.174826365968329e-06, -8.077697202679701e-06, 4.475185505725676e-06, 2.952331669803243e-06, 7.735192411928438e-06, 9.686697922006715e-06, 7.72880139265908e-06, 4.367456767795375e-06, 1.5324274045269703e-06, 2.7045885531151725e-07, 4.988329237676226e-06, -9.490803677181248e-06, 3.136354052912793e-06, 1.6238667512880056e-06, 2.0317822873039404e-06, -4.060270384798059e-06, -2.0343145479273517e-06, -1.016359146888135e-05, 1.7842570741777308e-05, -2.8606148134713294e-06, -4.053593329444993e-06, -3.1438819405593676e-06, -7.793564122948737e-07, -7.411341584884212e-07, -1.6720527128200047e-05, -4.5937094910186715e-06, 4.729474483156082e-07, -1.5489345969399437e-05, 8.250551218225155e-06, -4.448394520295551e-06, 3.794988288063905e-07, -7.351122349064099e-06, 8.695180895301746e-07, 4.652412826544605e-06, 7.264398846018594e-06, -2.0420050361735775e-07, 7.11749603699019e-10, -1.3844407476426568e-05, 2.6944574074150296e-06, -7.128793640731601e-06, 1.0729139830800705e-05, 9.004773346532602e-06, -6.289447355811717e-06, -1.3048353139311075e-05, 3.933892912755255e-06, -9.073345381693798e-07, 1.6190544556593522e-05, -1.9824387891276274e-06, 3.877427388943033e-06, -2.7694281925505493e-06, 1.649060686759185e-05, 4.2987250026271795e-07, 7.246430300256179e-07, 6.178783223731443e-06, 3.283999831182882e-06, -2.6556583634373965e-06, 2.885858748413739e-06, 3.719103744970198e-07, 6.328611561912112e-06, 1.1411748346290551e-05, 3.52811798620678e-06, 4.393439212435624e-06, 6.588180099242891e-07, -8.728751708986238e-06, 9.629202395444736e-06, -4.9005179789674e-06, 1.678973058005795e-05, -1.5366960724350065e-05, 4.644138698495226e-06, -1.6220715224335436e-06, 2.434843509036e-06, 9.246391385886454e-08, -2.0917195797665045e-06, -2.27968462240824e-06, 5.04817171531613e-06, -1.1373055713193025e-05, 7.520186500187265e-06, -1.9447716113063507e-05, 2.2932297270017443e-06, -8.883161171979737e-06], [-0.00018391288176644593, -0.00019484770018607378, 6.211151776369661e-05, -0.00015293243632186204, 0.00012234735186211765, -0.0004040412895847112, -0.0008556988905183971, -1.5877396435826086e-05, 0.000738068949431181, 7.115574408089742e-05, 1.0474529517523479e-05, -3.753122655325569e-05, 0.00013427744852378964, -0.0001995598868234083, 0.00016832792607601732, -3.643012314569205e-05, 0.0011457041837275028, -3.0232993594836444e-05, -7.242772699100897e-05, -7.126337095542112e-06, -0.0004916851175948977, -0.0001744378387229517, 4.724078462459147e-05, 6.445324834203348e-05, -8.446309948340058e-05, -1.778665500751231e-05, -0.0012189896078780293, -8.679206803208217e-05, 8.04295195848681e-05, -0.0003171423159074038, -0.00020665190822910517, -0.0008357536280527711, 0.00012281288218218833, -0.0005436048959381878, 0.00024369479797314852, -5.024202982895076e-05, 0.00010154378833249211, -0.0002576132246758789, 8.054226782405749e-05, 8.26509203761816e-05, 4.0327475289814174e-05, -0.00013719206617679447, 7.94597599451663e-06, -0.00010983632819261402, 0.0007225250592455268, 0.00018958568398375064, -0.0009996015578508377, -0.0006866306066513062, 3.755610669031739e-05, -2.5349270345031982e-06, 6.277853390201926e-05, 0.00014371481665875763, 0.00022436835570260882, 0.0002516666427254677, 0.00011478605301817879, 7.699585694354028e-05, 0.0001935838081408292, 5.272753332974389e-05, 0.0006125463405624032, -5.458566374727525e-05, 0.00023987477470654994, 0.0005770752322860062, 0.00010154571646125987, -0.00042350165313109756, -0.0005835593910887837, -0.00012055660045007244, 0.0005874281632713974, -0.0004139420634601265, -0.0003350069164298475, -6.299699452938512e-05, -5.738790787290782e-05, -0.00020554482762236148, -2.3367863832390867e-05, -0.0002036516525549814, 0.0001416558079654351, -0.00025098290643654764, 0.001097898930311203, -0.00024987864890135825, 0.00021432845096569508, -5.53405561731779e-06, 0.0005196100100874901, 5.0747064960887656e-05, 0.0003082261246163398, -0.00015164729848038405, -4.315940532251261e-05, -1.3621721336676273e-05, 0.00011886308493558317, -0.00029269984224811196, 4.6897544962121174e-05, 0.0003059016598854214, -9.611318091629073e-05, -3.47709319612477e-05, 3.0346944186021574e-05, -1.8399383407086134e-05, 0.0001317175047006458, -0.00021633392316289246, 0.00010359821317251772, -9.951333595381584e-06, 0.0010153945768252015, 0.0003210591967217624, 6.718756048940122e-05, 0.0003822201688308269, 0.000342690444085747, -0.0007320691947825253, 9.345058788312599e-05, -0.000368342618457973, 5.919620889471844e-05, 0.00021244898380246013, 0.0006456312257796526, 9.179404878523201e-05, 0.0004912723670713603, -0.000544324517250061, 0.0002630357921589166, -0.0004505966790020466, 0.00023794356093276292, -0.00055406813044101, 6.933743134140968e-05, -3.0362740290001966e-05, 2.1159577954676934e-05, 6.666982130809629e-07, -0.0005277933669276536, -0.00010117698548128828, 0.000612392439506948, -3.496767021715641e-06, 0.000344758911523968, -2.5380317310919054e-05, 9.62172489380464e-05, -1.0195525419476326e-06], [-0.03052639029920101, -0.0030720012728124857, 0.046242281794548035, -0.04529110714793205, 0.0014400376239791512, -0.03795425221323967, -0.047238413244485855, -0.020290393382310867, 0.04586445540189743, 0.018779167905449867, 0.000955946568865329, -0.002980706049129367, 0.0019308463670313358, -0.038992989808321, 0.005205919500440359, -0.03835020959377289, 0.00425284868106246, -0.0082071702927351, -0.0030027418397367, -0.003145109163597226, -0.05306318774819374, -0.003404045244678855, 0.028737664222717285, 0.03294368460774422, -0.04328177124261856, -0.014638718217611313, -0.006562318652868271, -0.044092342257499695, 0.0011360673233866692, -0.000668832566589117, -0.026179632171988487, -0.036420512944459915, 0.0195425134152174, -0.030582904815673828, 0.0005697894375771284, -0.0002255340659758076, 0.009646560996770859, -0.033956125378608704, 0.00034041047911159694, 0.007573343347758055, 0.001551904482766986, -0.04474427178502083, 0.002576896222308278, -0.004062050022184849, 0.0010204894933849573, 0.010705694556236267, -0.04324091225862503, -0.043011244386434555, 0.008075854741036892, -0.007445624563843012, 0.028704391792416573, 0.00238432502374053, 0.011635723523795605, 0.0014666111674159765, 0.021229976788163185, 0.02669219858944416, 0.0022010745014995337, 0.0003960384929087013, 0.0072895437479019165, -0.006232903804630041, 0.00196645176038146, 0.02695503644645214, 0.03629118949174881, -0.012088543735444546, -0.002162666292861104, -0.034400712698698044, 0.053559575229883194, -0.0005308752879500389, -0.03339948505163193, -0.008748373948037624, -0.0027721745427697897, -0.0013213652418926358, -0.0004244407173246145, -0.0025115765165537596, 0.0008858893997967243, -0.050592102110385895, 0.0462314635515213, -0.0006544124335050583, 0.02199251763522625, -0.001732133561745286, 0.049872986972332, 0.043847549706697464, 0.014050718396902084, -0.004055806435644627, -0.00019855584832839668, -2.5197448394465027e-06, 0.015811361372470856, -0.052072297781705856, 0.008119889535009861, 0.048076894134283066, -0.0008409451111219823, -0.03649057820439339, 0.0012533501721918583, -0.0004697965632658452, 4.4789961975766346e-05, -0.029677245765924454, 0.0010883486829698086, -0.001596451853401959, 0.03830614686012268, 0.004658100660890341, 0.04345737397670746, 0.023822760209441185, 0.03870974853634834, -0.03472769632935524, 0.023615818470716476, -0.025656167417764664, 0.03949437290430069, 0.00024195350124500692, 0.027712520211935043, 0.00033591160899959505, 0.042036350816488266, -0.041151147335767746, 0.04828142374753952, -0.0022307357285171747, 0.05423581972718239, -0.017227428033947945, 0.03715864196419716, -0.0314955897629261, 0.0004924178938381374, 0.00036465577431954443, -0.007118672132492065, -0.0008336568134836853, 0.008505752310156822, -0.011085922829806805, 0.01835666596889496, -0.016553791239857674, 0.04675811156630516, -0.001173117896541953], [-1.0398283620816073e-06, -2.1257296793919522e-06, 7.976034794410225e-06, -1.3253043107397389e-06, -1.8051761685455858e-07, -2.736882834142307e-06, -1.141584107244853e-06, -3.1975849879017915e-07, 8.955824341683183e-06, 4.914725764137984e-07, -1.1016012990694435e-07, -8.145341780618764e-06, 5.061757292423863e-06, -2.9842817639291752e-06, 3.314710966151324e-06, -2.364025704082451e-06, 8.402897947235033e-06, -1.4104786032476113e-06, -8.662352968258347e-08, -1.7922469623954385e-06, 2.0461348526623624e-07, -2.2725198505213484e-06, 3.708064014062984e-06, 2.7040262011723826e-06, -3.306595999674755e-06, -2.7189244065084495e-06, -4.497036570683122e-06, -5.208193215366919e-06, 3.4315962693654e-07, -6.310272055998212e-06, -8.999877536552958e-07, -7.067156730045099e-06, 1.861499640654074e-06, -5.163220976101002e-06, -5.645869194381703e-08, -1.4627825066781952e-06, 5.3139419833314605e-06, -7.187636583694257e-07, 9.027228770719375e-06, 3.050092118428438e-06, 3.9189776543935295e-06, 1.8259481748827966e-07, -2.0069371942099679e-07, -5.104087108520616e-07, 3.0409971714107087e-06, 2.112227093675756e-06, -2.1108530745550524e-06, -7.122509941837052e-07, 3.621164523792686e-06, 1.2941488591877714e-07, 2.2448618892667582e-06, 1.7601591935090255e-06, 6.831430255260784e-06, 4.1897456526385213e-07, 1.9192923446098575e-06, 1.2541310070446343e-06, 3.678234634207911e-06, 2.0259358279872686e-06, 4.136520146857947e-06, 4.0870298789741355e-07, 5.603253043773293e-07, 1.932558461703593e-06, 4.815259217139101e-06, -1.6587927120781387e-06, -2.644927974415623e-07, -1.555305516376393e-06, -1.8604339402372716e-07, -1.2223810017530923e-06, 7.471430194527784e-07, -2.1899368221056648e-06, -3.4157508252974367e-06, -2.3685199721512618e-06, -8.390567018068396e-06, -1.7965601273317588e-06, 1.515709641353169e-06, -3.7325396533560706e-06, 1.6085323295556009e-06, -1.6496109083163901e-06, 5.705825856239244e-07, -2.422977559035644e-06, -3.2387004011980025e-07, 5.341237283573719e-06, 3.2499585813638987e-06, -2.5497104161331663e-06, 2.1955128204353969e-07, -2.4194459911086597e-06, 2.2767412701796275e-06, -6.242284143809229e-06, 5.376868557505077e-06, 2.777473355308757e-06, -3.228650712117087e-06, -6.009698267916974e-07, 2.0427546587598044e-06, -2.306930582562927e-06, 3.0485600177598826e-07, 2.5838915007625474e-07, 5.982847596897045e-06, -2.0604820747394115e-06, 3.491797087917803e-06, 5.429068323792308e-07, 3.299675654488965e-06, 2.7821515686810017e-06, 1.092286856874125e-05, -3.923332769772969e-08, 1.638225484157374e-07, -2.0538882381515577e-06, 2.9709051432291744e-06, 1.0818557711900212e-06, 7.042101515253307e-06, 1.6170581602636958e-06, 1.8526891381043242e-06, 1.2463469545309636e-07, 7.547703262389405e-07, -2.5745623588591116e-07, 3.41913823831419e-06, -1.106546960727428e-06, 1.0133709338333574e-06, -8.561917638871819e-06, 1.1425602224335307e-06, 4.005937626061495e-06, -1.1312642527627759e-05, -1.5808307125553256e-06, 1.4403509567273431e-06, -7.5873645073443186e-06, 7.949568498588633e-06, -4.497760983213084e-06, 2.7950384264840977e-06, -4.939496989209147e-07], [-0.0006846857140772045, -0.0002018402301473543, 0.0001395374711137265, -0.0002641147293616086, 8.793772576609626e-05, -0.0005710700643248856, -0.0005646403296850622, -0.0005706120282411575, 0.0008034443599171937, 0.0009124197531491518, 0.0003333606873638928, -9.695897460915148e-05, 0.0008377295453101397, -0.0009979951428249478, 0.00011795614409493282, -9.47898079175502e-05, 0.00020018273789901286, -0.0005293275462463498, -0.0002919356629718095, -0.0003538128803484142, -0.0007063832017593086, -0.0018380675464868546, 0.00067020149435848, 0.002670272719115019, -0.0005601410521194339, -0.00025508261751383543, -3.202027073712088e-05, -0.0007011923007667065, 3.7511083064600825e-05, -0.0006366457673721015, -0.0001503830135334283, -0.0001504556421423331, 0.00022422874462790787, -0.0002886190777644515, 0.0002545274328440428, -0.00023036953643895686, 0.0009223244269378483, -0.0011762824142351747, 0.00010392616968601942, 0.000665485393255949, 5.8424695453140885e-05, -5.2010636863997206e-05, 0.00017227795615326613, -0.00011126090976176783, 0.00041266667540185153, 0.000804821727797389, -0.0001854428119258955, -0.0009103206102736294, 0.0003730060125235468, -0.00011365392128936946, 0.00021104776533320546, 0.00014568444748874754, 0.0003899172879755497, 1.772959512891248e-05, 0.00018056209955830127, 8.15615858300589e-05, 0.0005733536090701818, 0.00011940780677832663, 8.777998300502077e-05, -0.000950644607655704, 0.0008154239039868116, 0.0009589268011040986, 0.0007511455332860351, -0.00016117207997012883, -3.0801136745139956e-05, -0.0003506589273456484, 0.00045831536408513784, -0.0011590739013627172, -3.9877901144791394e-05, -0.0007570742163807154, -0.0003275077906437218, -0.0007529076538048685, -0.00023280997993424535, -8.381237421417609e-05, 3.0620707548223436e-05, -0.0007647809106856585, 0.0005132725927978754, -0.0006300597451627254, 0.0001486069813836366, -0.000204369323910214, 0.00021926402405370027, 0.0004472867294680327, 0.00022485775116365403, -0.0003868107742164284, -0.00010163705155719072, -0.000645626278128475, 0.0007806280627846718, -0.00020983464492019266, 0.00016496867465320975, 0.00010257611575070769, -0.0005934905493631959, -0.00026349391555413604, 0.0002733425935730338, -0.0007846353692002594, 8.276067092083395e-05, -0.0007695567910559475, 0.0002642233157530427, -0.00015503313625231385, 0.0006605860544368625, 0.0001680851128185168, 0.0002902209525927901, 0.0002597362326923758, 0.0003878370043821633, -0.0007807215442880988, 0.00020657455024775118, -0.00012865236203651875, 0.00020416751794982702, 0.00014469747839029878, 1.1130334314657375e-05, 1.7049922462319955e-05, 0.0007308538188226521, -5.035190406488255e-05, 0.0002585436450317502, -0.00027821079129353166, 4.3388929043430835e-05, -0.0007884405204094946, 0.00014022363757248968, -0.00020390169811435044, 1.4254181223805062e-05, 0.0002704043290577829, -0.0004936481709592044, -0.0001563848345540464, 0.0003324000572320074, -0.00026294385315850377, 7.35998764866963e-05, -0.0003978445893153548, 6.145029328763485e-05, -0.00048234188579954207], [-7.528883543272968e-07, -1.0261917537945919e-07, 6.451570243370952e-06, -4.9058398872148246e-06, 1.4927168194844853e-06, -7.262643975991523e-06, -7.322296369238757e-06, -7.738494787190575e-07, -3.1575316370435758e-06, 6.2723506744077895e-06, -1.777363252131181e-07, -3.8065293210820528e-06, 6.236440697193757e-08, -7.513589935115306e-06, 1.7129734715126688e-06, -3.619870767579414e-06, 2.442362983856583e-06, -5.576773219218012e-06, -2.0735524230985902e-06, -1.2571452998599852e-06, 7.215826371975709e-07, -1.3936539744463516e-06, -1.1131270412079175e-06, 1.7206620839260722e-07, -6.623858553211903e-06, -1.5692270380895934e-06, 2.3671234430366894e-06, -5.740773758589057e-07, 1.1615329640335403e-06, -1.2328437151154503e-06, -3.1372294984066684e-07, -4.5759302338410635e-06, 6.853611012047622e-07, -7.365163696704258e-07, 5.93941763327166e-07, -1.8115601960744243e-06, 2.3093177787814057e-06, 3.615478192386945e-07, 1.8030413002634305e-06, 1.8161373418479343e-06, 2.6870685232438518e-08, -2.161938027711585e-06, 1.0946273505396675e-06, -1.0715434939356783e-07, 1.0452641845404287e-06, 1.3637002211908111e-06, 4.834972244793789e-08, -3.2209318305831403e-06, 3.335091605549678e-06, -1.9192384570487775e-06, 1.9050153241551016e-06, 1.8426358110446017e-06, 4.903748504148098e-06, 5.761607440035732e-07, 9.226439033227507e-06, 2.4665835098858224e-06, 6.137469881650759e-06, 1.85903388683073e-06, 9.807903552427888e-06, -1.038315417645208e-06, 2.1629005004797364e-06, 7.1204485720954835e-06, 4.179695167749742e-07, -9.2694754130207e-06, -6.255860967030458e-07, -8.919999345380347e-06, -3.666280917968834e-06, -2.2293297661235556e-06, -3.1987244710762752e-06, 4.286308641354708e-09, -1.507668230260606e-07, -5.006642822991125e-06, -9.902037163556088e-07, -4.279965651221573e-06, 5.197822702029953e-06, 1.4568550454896467e-07, 2.233332907053409e-06, 2.0304096892687085e-07, 1.0056014616566245e-06, -6.394702722900547e-06, 3.7304484976630192e-06, 4.220360096951481e-06, 3.0104050097179424e-07, 2.0768963793216244e-07, -8.902943449129452e-08, -3.942041644222627e-07, 1.0078147170133889e-05, -2.5929525691026356e-06, 1.7261290850001387e-06, 4.148657353653107e-06, -6.579937235073885e-07, 6.946709163457854e-07, 2.4873215807019733e-06, 2.2881832251187006e-07, 6.372677944455063e-06, -2.93840230369824e-06, 1.5525653225267888e-06, -1.515205326541036e-06, 4.875777449342422e-06, 9.500156011199579e-06, 1.3412795851763804e-05, 3.4872695664489584e-07, 9.556655641063116e-06, -1.8508028460928472e-06, -5.3380123432589244e-08, -2.587269818832283e-06, -1.0766277114271361e-07, 3.777454082865006e-07, 2.1356854631449096e-06, 3.140429782888532e-07, 2.569587195466738e-06, -4.721758614323335e-06, 2.5704564450279577e-06, -1.3467596318150754e-06, 3.375788992343587e-06, -3.6369920053402893e-07, 5.535356649488676e-06, -5.2931982281734236e-06, 3.3114093866970506e-07, 2.5599160835554358e-06, -3.356889919814421e-06, -3.08607695842511e-07, 3.23429503623629e-06, -9.142423209596018e-07, 1.4697522487949755e-07, -6.932826636329992e-06, 1.020721128952573e-06, 2.739258775363851e-07], [-0.001241300837136805, -0.0013946953695267439, 0.019611194729804993, -0.004725538194179535, 0.004050828516483307, -0.0003430813958402723, -0.004239438101649284, -0.0015159356407821178, 0.015700284391641617, 0.0008318120962940156, 0.0003990750992670655, -0.0011303042992949486, 0.0021631286945194006, -0.007314612157642841, 0.00219243043102324, -0.0028167853597551584, 0.007826619781553745, -0.011876155622303486, -0.0008266615332104266, -0.0015098130097612739, -0.004785527940839529, -0.0021707715932279825, 0.006071855779737234, 0.0022147276904433966, -0.011300148442387581, -0.0007213178905658424, -0.0012750198366120458, -0.012905738316476345, 0.0016540265642106533, -0.0001595417852513492, -0.0039055785164237022, -0.0037726634182035923, 0.0014217882417142391, -0.0004315280239097774, 0.0006047262577340007, -0.00027595521532930434, 0.0003240367805119604, -0.0021310122683644295, 0.0016226323787122965, 0.0012513934634625912, 0.005346913356333971, -0.003929466940462589, 0.0014008559519425035, -0.0007108357385732234, 0.0010571625316515565, 4.438926771399565e-05, -0.003350528422743082, -0.007475137710571289, 0.004495114553719759, -0.00441633490845561, 0.0006673457683064044, 0.0021079459693282843, 0.01585337333381176, 0.00045254049473442137, 0.02542877197265625, 0.0024060499854385853, 0.0008409653673879802, 0.00013176820357330143, 0.007284616120159626, -0.0006020270520821214, 0.002295413753017783, 0.001594320172443986, 0.0007811462855897844, -0.0287996344268322, -0.0003848490014206618, -0.0017574774101376534, 0.03775037080049515, -0.002928042784333229, -5.2286886784713715e-06, -0.011150307022035122, -8.511299529345706e-05, -0.00307239918038249, -0.00014971419295761734, -0.003410488134250045, 0.002574857557192445, -0.004874079953879118, 0.004090325906872749, -4.6404757085838355e-06, 0.0018837496172636747, -0.0051222736947238445, 0.028939859941601753, 0.015085314400494099, 0.0009497616556473076, -0.002311378950253129, -0.0009553749114274979, -0.0016410277457907796, 0.0010371794924139977, -0.004009673837572336, 0.00015038650599308312, 0.005532656330615282, -0.0001140920358011499, -0.003358600428327918, 0.0022505938541144133, -0.0007121256203390658, 0.0018392964266240597, -0.0025631750468164682, 0.0008650806848891079, -0.0014934982173144817, 0.012797454372048378, 0.001273570116609335, 0.004629501607269049, 0.0023737645242363214, 0.00409564608708024, -0.00015645001258235425, 0.0011374062160030007, -0.0010585974669083953, 0.0034959791228175163, 0.0007972523453645408, 0.009359018877148628, 9.483898611506447e-05, 0.008233314380049706, -0.01659143902361393, 0.025654999539256096, -0.0005455020000226796, 0.026209687814116478, -0.0018265810795128345, 0.0025932847056537867, -0.0020942918490618467, 0.0003911378444172442, 0.0005566040053963661, -0.0015840319683775306, -0.0013006246881559491, 0.0034676401410251856, -0.00040302533307112753, 0.00040015485137701035, -0.0011024794075638056, 0.0019631802570074797, -0.0010294949170202017], [-0.009937748312950134, -0.013421873562037945, 0.008414199575781822, -0.015634926036000252, 0.013856746256351471, -0.015371100045740604, -0.02382790856063366, -0.019705375656485558, 0.02945712022483349, 0.014577841386198997, 0.02868879958987236, -0.02365780808031559, 0.09341907501220703, -0.023366771638393402, 0.013424050994217396, -0.009217333979904652, 0.018153944984078407, -0.008665299043059349, -0.026248227804899216, -0.03467704355716705, -0.020949017256498337, -0.022137843072414398, 0.02193332463502884, 0.010749941691756248, -0.01987330988049507, -0.010431126691401005, -0.011367877013981342, -0.024448318406939507, 0.020652903243899345, -0.048468492925167084, -0.030665729194879532, -0.019520878791809082, 0.01043411623686552, -0.02962675876915455, 0.030172454193234444, -0.05559677258133888, 0.037274181842803955, -0.017871925607323647, 0.033005066215991974, 0.016757771372795105, 0.020731249824166298, -0.01822599023580551, 0.02428627386689186, -0.02848118543624878, 0.04485900327563286, 0.011981425806879997, -0.010026063770055771, -0.009111330844461918, 0.015271421521902084, -0.05224364623427391, 0.030510080978274345, 0.014363515190780163, 0.010905371978878975, 0.03456737473607063, 0.008111783303320408, 0.02236277051270008, 0.016008954495191574, 0.01763061247766018, 0.027772082015872, -0.028207754716277122, 0.017880911007523537, 0.02049991860985756, 0.009778778068721294, -0.0075278738513588905, -0.03599639981985092, -0.03621777147054672, 0.008096263743937016, -0.016077859327197075, -0.03130394592881203, -0.01851210743188858, -0.042443688958883286, -0.051974743604660034, -0.021400000900030136, -0.036425091326236725, 0.01443465705960989, -0.025024238973855972, 0.01019822433590889, -0.05797158554196358, 0.016439983621239662, -0.0442405566573143, 0.008890499360859394, 0.014401073567569256, 0.014037692919373512, -0.01329720951616764, -0.012610291130840778, -0.013586417771875858, 0.03427271172404289, -0.0344577357172966, 0.03235644847154617, 0.0165252648293972, -0.0579683892428875, -0.03808187320828438, 0.01818389631807804, -0.027834489941596985, 0.022453783079981804, -0.017516130581498146, 0.04890032857656479, -0.049941834062337875, 0.009754647500813007, 0.01823093183338642, 0.02005986124277115, 0.027860255911946297, 0.032286033034324646, -0.013518632389605045, 0.03697272017598152, -0.017903435975313187, 0.009615138173103333, 0.029079845175147057, 0.01130804792046547, 0.019514814019203186, 0.008701778948307037, -0.024680517613887787, 0.021034000441432, -0.040993742644786835, 0.018454110249876976, -0.025123169645667076, 0.02095465175807476, -0.0203329399228096, 0.021125061437487602, 0.021739773452281952, -0.02481774426996708, -0.024789070710539818, 0.01790093444287777, -0.02734207548201084, 0.043955426663160324, -0.03561507910490036, 0.03329843282699585, -0.05342920124530792], [0.023720430210232735, 0.02804136648774147, -0.010280550457537174, 0.006349333096295595, -0.010560792870819569, 0.03047516755759716, 0.007019860669970512, 0.009721426293253899, -0.04525516927242279, -0.01567736454308033, -0.06509177386760712, 0.013724079355597496, -0.0697689950466156, 0.061076704412698746, -0.017345165833830833, 0.0066980887204408646, -0.011127580888569355, 0.007002538535743952, 0.06618953496217728, 0.06050804257392883, 0.022033102810382843, 0.011736733838915825, -0.011622232384979725, -0.01956569030880928, 0.01008982490748167, 0.025333106517791748, 0.010383641347289085, 0.014592286199331284, -0.03887613117694855, 0.04838462918996811, 0.0623287670314312, 0.010940294712781906, -0.059213731437921524, 0.01079025398939848, -0.05637446790933609, 0.0466008260846138, -0.007894184440374374, 0.036320894956588745, -0.010139251127839088, -0.043023183941841125, -0.011133043095469475, 0.014066776260733604, -0.02319622039794922, 0.05808798968791962, -0.06764940917491913, -0.021756550297141075, 0.03515633940696716, 0.014857152476906776, -0.010130945593118668, 0.018202073872089386, -0.016744716092944145, -0.0657896101474762, -0.01465032808482647, -0.07470323145389557, -0.024731773883104324, -0.01603095233440399, -0.08055916428565979, -0.06071266159415245, -0.032447271049022675, 0.012354066595435143, -0.011800229549407959, -0.04270589351654053, -0.00811396911740303, 0.00577921187505126, 0.0795518234372139, 0.008279274217784405, -0.01346257422119379, 0.029331021010875702, 0.007216467522084713, 0.010850959457457066, 0.04767550900578499, 0.019499294459819794, 0.01543837133795023, 0.017720311880111694, -0.03807275742292404, 0.03390699252486229, -0.016939833760261536, 0.019573383033275604, -0.006194364279508591, 0.06375491619110107, -0.014935457147657871, -0.006675563752651215, -0.011491836048662663, 0.00975062046200037, 0.05821158364415169, 0.06184641271829605, -0.01732998713850975, 0.01520047802478075, -0.015151703730225563, -0.006887742318212986, 0.07183648645877838, 0.016246050596237183, -0.016387956216931343, 0.026072530075907707, -0.02641376294195652, 0.01740594580769539, -0.07102509588003159, 0.059255409985780716, -0.011936166323721409, -0.04853923246264458, -0.006941338535398245, -0.00908117275685072, -0.026652775704860687, 0.006544204894453287, -0.006889816373586655, 0.017770173028111458, -0.037701644003391266, -0.014286382123827934, -0.013671012595295906, -0.07377107441425323, -0.006992367096245289, 0.006658585742115974, -0.013234862126410007, 0.07145294547080994, -0.015208917669951916, 0.015193118713796139, -0.010244784876704216, 0.008128386922180653, -0.010203761048614979, -0.014041956514120102, 0.01965966634452343, 0.06119149923324585, -0.01535749901086092, 0.009381969459354877, -0.01897573471069336, 0.03812409192323685, -0.008252637460827827, 0.015025747939944267], [-5.888435771339573e-05, -4.2977033444913104e-05, 0.0002612922980915755, -0.0001722427987260744, 6.752205808879808e-05, -0.0010152062168344855, -0.0010688515612855554, -0.0002496433153282851, 1.6798792785266414e-05, 0.0002532975049689412, 0.0006003190646879375, -0.00016905182565096766, 0.00015896267723292112, -0.000801305694039911, 0.00013226372539065778, -1.2116644029447343e-05, 5.25723589817062e-05, -0.0005208079819567502, -1.3882617167837452e-05, -0.00011617915151873603, -0.0005778263439424336, -0.00013173084880691022, 1.2228106243128423e-05, 0.0003562472411431372, -0.00011346382962074131, -0.00016111954755615443, -0.0003421284491196275, -0.0004725852340925485, 0.00013819664309266955, -0.00037728596362285316, -2.2109426936367527e-05, -0.00043924018973484635, 7.09596206434071e-05, -2.327130459889304e-05, 3.7337958929128945e-05, -0.0002780794748105109, 5.498699101735838e-05, -0.000220383531996049, 4.962905222782865e-05, 7.09215555616538e-06, 0.00017935188952833414, -9.349529136670753e-05, 7.880534394644201e-05, -0.00011784223170252517, 5.5763179261703044e-05, 1.2172354217909742e-05, -0.0001299283467233181, -6.658037455054e-05, 0.0001192302443087101, -0.0008537019602954388, 4.963092942489311e-05, 0.000177171707036905, 0.00010355358972446993, 8.946792513597757e-05, 3.491167808533646e-05, 0.00037184215034358203, 0.00024044414749369025, 0.00016731405048631132, 0.00014662690227851272, -0.0006453465903177857, 4.407487722346559e-05, 2.3275990315596573e-05, 0.00013408581435214728, -0.0006813236395828426, -0.00015127556980587542, -9.667380072642118e-05, 0.0006056591519154608, -0.0003434660320635885, -0.0007716154213994741, -0.00030041782883927226, -0.0001723963359836489, -0.0003877827257383615, -0.00017732838750816882, -0.00011815325706265867, 0.0001735086552798748, -0.00015951490786392242, 0.00021822519192937762, -0.0002987151383422315, 2.4572060283389874e-05, -2.9302975235623308e-05, 1.3590049093181733e-05, 0.0006606510723941028, 6.397882680175826e-05, -0.0001144861089414917, -5.164968752069399e-05, -1.2675429388764314e-05, 7.541699596913531e-05, -0.000403826154069975, 0.00020158909319434315, 6.699828372802585e-05, -3.655910768429749e-05, -0.0004728066851384938, 0.00018900528084486723, -8.782482473179698e-05, 1.723772584227845e-05, -2.8503216526587494e-05, 9.988258534576744e-05, -0.00024408751050941646, 0.0004818203451577574, 2.7501746444613673e-05, 0.0002835503255482763, 0.00018672483565751463, 0.00020897419017273933, -3.6611287214327604e-05, 0.0003072352847084403, -0.0005044337594881654, 0.0004134926130063832, 0.00010443427163409069, 4.4464002712629735e-05, 1.0281310096615925e-05, 0.00013696002133656293, -3.559758988558315e-05, 3.0060100471018814e-05, -0.000175661567482166, 0.00016345627955161035, -0.0007321665179915726, 0.00018477918638382107, -1.8091785022988915e-05, 0.00013316179683897644, 0.0005775635363534093, -0.0010415837168693542, -0.00011650761007331312, 0.00014973846555221826, -0.00032101222313940525, 2.3131917259888723e-05, -0.00036249408731237054, 0.0006245842087082565, -5.3020114137325436e-05], [-0.008351133204996586, -0.0024536787532269955, 0.006458871066570282, -0.006088894791901112, 0.0023219329304993153, -0.007127821445465088, -0.006136447656899691, -0.010674730874598026, 0.013088997453451157, 0.005043501500040293, 0.002479907590895891, -0.0022155155893415213, 0.0032327924855053425, -0.010703405365347862, 0.005354811437427998, -0.009093815460801125, 0.005220890510827303, -0.006880397442728281, -0.0020284559577703476, -0.005011375527828932, -0.010518556460738182, -0.004945069085806608, 0.008617094717919827, 0.01020673755556345, -0.008068469353020191, -0.003908715210855007, -0.0177550558000803, -0.01203989889472723, 0.0005712678539566696, -0.001708637340925634, -0.005010431166738272, -0.008156058378517628, 0.009874638170003891, -0.008913705125451088, 0.0015736935893073678, -0.0011176069965586066, 0.0014846622943878174, -0.006484737619757652, 0.003372763516381383, 0.0035408157855272293, 0.0070055690594017506, -0.01000524777919054, 0.0014418846694752574, -0.0023536409717053175, 0.0021035177633166313, 0.003728441894054413, -0.010050367563962936, -0.009207960218191147, 0.009093613363802433, -0.007655315101146698, 0.004532462917268276, 0.0014171857619658113, 0.009557025507092476, 8.301791967824101e-05, 0.010824029333889484, 0.007907540537416935, 0.0006496147834695876, 0.00054836057825014, 0.009926124475896358, -0.0026984047144651413, 0.005637557245790958, 0.005502201151102781, 0.008143178187310696, -0.010421269573271275, -0.001997165149077773, -0.004976371768862009, 0.012277943082153797, -0.003415776649489999, -0.008732306770980358, -0.009165793657302856, -0.0016272348584607244, -0.0029275843407958746, -0.006364777684211731, -0.0034892596304416656, 0.0029224157333374023, -0.011005673557519913, 0.010608726181089878, -0.00133064528927207, 0.004937844350934029, -0.00571134127676487, 0.010937809012830257, 0.0056530265137553215, 0.0065111443400382996, -0.003288035513833165, -2.485351615177933e-06, -2.9736302167293616e-05, 0.007580049801617861, -0.010254010558128357, 0.006811672355979681, 0.010716050863265991, -0.0010433366987854242, -0.007162801455706358, 0.001780042890459299, -0.0023880472872406244, 0.005697422195225954, -0.010822482407093048, 0.004430917091667652, -0.0003660761867649853, 0.008514960296452045, 0.007949130609631538, 0.006800280883908272, 0.007657380308955908, 0.009034235030412674, -0.006943637039512396, 0.008747017942368984, -0.008272700011730194, 0.009823483414947987, 0.001674116589128971, 0.004522510804235935, 1.626846096769441e-05, 0.009034334681928158, -0.010889334604144096, 0.010383683256804943, -0.001186981680803001, 0.01354925986379385, -0.009150621481239796, 0.0058884150348603725, -0.012034408748149872, 0.0045501841232180595, 0.004538010340183973, -0.011856487952172756, -0.0033709374256432056, 0.009236397221684456, -0.007381100673228502, 0.0065541393123567104, -0.006975206546485424, 0.008286570198833942, -0.0004885261878371239], [-4.859648470301181e-06, -3.5768487123277737e-06, 9.550672075420152e-06, -1.1399809409340378e-05, 5.862639227416366e-07, -1.4260050420489279e-06, 2.3579045205224247e-07, -1.2331157677181181e-06, 3.731693823283422e-06, -2.6243645478984945e-08, 3.142002015010803e-06, -5.43309397471603e-06, 2.6955086696034414e-07, -5.978565695841098e-07, 9.676421086624032e-07, -3.7938675632176455e-06, 7.683666808588896e-06, -8.377757694688626e-06, -6.153035201350576e-07, -7.355040452239336e-07, -7.2057224542732e-07, -2.384102117503062e-06, 3.727454327417945e-07, 2.8412489427864784e-06, -2.517203029128723e-06, -3.386096523172455e-06, -5.212245014263317e-06, -7.127682124519197e-07, -3.9064738643901364e-07, -6.08818254477228e-07, -7.506739621021552e-06, -2.8848191959696123e-06, 3.3545707083249e-06, -1.1238746083108708e-05, 7.199860192486085e-06, -8.246882430285041e-07, 1.774235897755716e-06, -2.293472789460793e-06, 3.3268438528466504e-06, 8.34489014778228e-07, 7.669802357668232e-07, -3.829457455140073e-06, 2.3232460080180317e-06, 4.167718543612864e-07, 2.716102244448848e-06, 1.2255371757419198e-06, -1.7210289797731093e-06, -8.78704940987518e-06, 3.997082785645034e-06, -2.9447196538967546e-06, 6.054714049241738e-06, 5.482572760229232e-07, 6.827764536865288e-06, 9.65168922562043e-08, 3.685289357235888e-06, 2.2995441213424783e-06, 8.83911752680433e-07, 1.9042510075450991e-06, 9.040044460562058e-06, -2.18717968891724e-06, 1.2898880186185124e-06, 3.824134637397947e-06, -8.080971269919246e-07, -1.234750584444555e-06, -2.5313156584161334e-06, -6.925373327248963e-06, 3.0041821901249932e-06, -4.165995505900355e-06, -6.8027560473638e-07, -9.760046850715298e-06, -8.172654020199843e-07, -5.387648229771003e-07, -2.9800642096233787e-06, -5.130544877829379e-07, 2.580448608568986e-06, -4.2567144191707484e-06, 4.089888079761295e-06, -1.2260321682333597e-06, 6.798776666983031e-06, -3.2398233997810166e-06, -5.84448912377411e-07, 1.3068985538211564e-07, 6.219834176590666e-07, -1.1822420447060722e-06, -3.2817536066431785e-07, -7.35567198262288e-07, 3.5004757137357956e-07, -8.810025633465557e-07, 1.2109387625969248e-06, 5.1487104428815655e-06, -4.340590749052353e-06, -3.3948565487662563e-06, 1.6292327700284659e-06, -2.193466798416921e-06, 1.248621629201807e-06, -1.6717295920898323e-06, 3.317472874186933e-06, -4.553427061182447e-06, 8.620319022156764e-06, 4.165493123764463e-07, 1.9841677385556977e-06, 6.22452489551506e-07, 9.61287605605321e-06, -1.337593585049035e-05, 3.713508434088908e-08, -2.0030138330184855e-06, 4.1767762013478205e-06, 8.708842642590753e-07, 2.611974423416541e-06, 8.160001243595616e-07, 9.306841093348339e-07, 4.2070413996952993e-07, 1.6150532644587656e-07, -7.146778671085485e-07, 9.74005160969682e-06, 2.4752350213930185e-07, 1.9988144686067244e-06, -2.7770720407716e-06, 3.0186808999133063e-06, 1.380014737151214e-06, -4.1356856854690704e-06, -1.1487892379591358e-06, -3.4058692222060927e-07, -8.308544238389004e-06, 7.298281161638442e-07, -1.9747351416299352e-06, 4.244016508891946e-06, 1.2227546619669738e-07], [0.02496778592467308, 0.07252545654773712, -0.06796008348464966, 0.06989346444606781, -0.07083243131637573, 0.009967857040464878, 0.07005086541175842, 0.040904026478528976, -0.01618483103811741, -0.06389044225215912, -0.01281773578375578, 0.013319025747478008, -0.010313457809388638, 0.008439993485808372, -0.009359103627502918, 0.07486160844564438, -0.010175801813602448, 0.03208994120359421, 0.047152210026979446, 0.027867134660482407, 0.009929096326231956, 0.06582372635602951, -0.08024532347917557, -0.014096873812377453, 0.009984364733099937, 0.07162853330373764, 0.037369973957538605, 0.08189152926206589, -0.04657569155097008, 0.05917433276772499, 0.023211564868688583, 0.02482699230313301, -0.06844727694988251, 0.054906245321035385, -0.009435346350073814, 0.030449645593762398, -0.05845208838582039, 0.07665100693702698, -0.06278537213802338, -0.009236657060682774, -0.06474293023347855, 0.07073228806257248, -0.0386028066277504, 0.055797986686229706, -0.06577781587839127, -0.02845190092921257, 0.0787212923169136, 0.0717868059873581, -0.01262077409774065, 0.01356455497443676, -0.010208914056420326, -0.053516458719968796, -0.028212647885084152, -0.03381488472223282, -0.05902155861258507, -0.08039002120494843, -0.01514587551355362, -0.035826634615659714, -0.009435608983039856, 0.06787173449993134, -0.012997301295399666, -0.06333176791667938, -0.07661275565624237, 0.06319528818130493, 0.055294375866651535, 0.06363601237535477, -0.06189434975385666, 0.06490357220172882, 0.016594305634498596, 0.012061923742294312, 0.04150812700390816, 0.061099909245967865, 0.06420327723026276, 0.06285540014505386, -0.049383215606212616, 0.06163618713617325, -0.01315928902477026, 0.00848105363547802, -0.06286371499300003, 0.03284785896539688, -0.02151370607316494, -0.009480814449489117, -0.013020007871091366, 0.0705915093421936, 0.031069960445165634, 0.043717727065086365, -0.02283291146159172, 0.07785820215940475, -0.07782134413719177, -0.06807506084442139, 0.03085693158209324, 0.07451455295085907, -0.04944189637899399, 0.06097815930843353, -0.06295458972454071, 0.023173214867711067, -0.06834602355957031, 0.04627595841884613, -0.008509218692779541, -0.08371611684560776, -0.06998074799776077, -0.007860362529754639, -0.058016713708639145, 0.0799364373087883, -0.06599423289299011, 0.07367020100355148, -0.07061374932527542, -0.02566538378596306, -0.06953638792037964, -0.0490776002407074, -0.02222653292119503, 0.018331052735447884, -0.07039462774991989, 0.04098670929670334, -0.02227502316236496, 0.07117552310228348, -0.008166673593223095, 0.01280705165117979, -0.028548378497362137, -0.009071794338524342, 0.014296895824372768, 0.008306563831865788, -0.07922375947237015, 0.07241389900445938, -0.08471278846263885, 0.007693276274949312, -0.02674817107617855, 0.05490526556968689], [5.140208827469905e-07, 1.9123699530609883e-06, -3.981479039794067e-06, 2.0201975985401077e-06, -5.7316283346153796e-06, 5.443259851745097e-07, 3.182673481205711e-06, 1.2648542906390503e-06, -7.539016877444737e-08, -2.4925645902840188e-06, -4.3535521854209946e-07, 4.986660542272148e-07, -2.191742787260864e-09, -2.586779714874865e-07, -2.442552840875578e-06, 1.1143553138026618e-06, -8.051975783018861e-06, 9.190774107992183e-06, 1.1986275012532133e-06, 1.3471311604007496e-06, -5.3986140002848515e-09, 2.651600539138599e-07, -2.9048865144432057e-06, -5.097744519844127e-07, 3.2633361115586013e-06, 4.25340061838142e-07, 2.8821398245781893e-06, 2.6735883693618234e-06, -7.341052992160257e-07, 1.3844352224623435e-06, 2.375216581640416e-06, 6.761313670722302e-06, -1.5529676602454856e-06, 7.832198207324836e-06, -4.5668707571167033e-07, 1.4960365888327942e-06, -4.665518247293221e-07, 8.337640338140773e-07, -1.4454303709499072e-06, -1.1339982393110404e-06, -2.934591975645162e-06, 6.736714112776099e-06, 7.498167065023154e-08, 1.3808187304675812e-06, -3.721256689459551e-07, -2.4005625931522445e-08, 1.4181592860040837e-06, 9.038259918270342e-07, -2.5677718440419994e-06, 2.9069011020510516e-07, -1.735199930408271e-06, -2.096658818118158e-06, -1.5322027593356324e-06, -2.0786558252439136e-06, -1.4220194088920834e-07, 9.764947606072383e-08, 9.102345899236752e-08, -6.487081236628001e-07, -2.1882494820602005e-06, 6.933115059837291e-07, -8.453598070445878e-07, -9.974908721233078e-08, -4.512703071668511e-06, 3.164786448905943e-06, -1.1389890630653099e-07, 2.8945210033270996e-06, -5.12930637341924e-06, 2.6322413759771734e-06, 1.840599111346819e-06, 5.621239779429743e-06, 1.5810919649084099e-06, 2.1883986391912913e-06, 8.542818932255614e-07, 1.764566263773304e-06, -4.060440915054642e-06, 3.801027759209319e-08, -8.39841322886059e-06, 8.746135335968575e-07, -3.587488208722789e-06, 2.0568859326886013e-06, -1.1541394542291528e-06, -6.001611836836673e-06, -2.8865363788099785e-07, 4.403079401527066e-06, -2.7853610617967206e-07, 2.881767500184651e-07, -6.358358405122999e-06, 6.276992280618288e-06, 6.500335985037964e-07, -6.584150924027199e-06, 2.592364353404264e-06, 1.6081028775261075e-07, -1.3348446259442426e-07, 1.4241854842111934e-06, -4.013167256289307e-07, 2.668350589374313e-06, -6.82017298458959e-06, 6.987611982367525e-07, -9.23094916061018e-08, -1.099613882615813e-06, -7.728066520940047e-06, -7.928701052151155e-06, -2.9706138775509316e-06, 2.7012374630430713e-06, -6.981936735428462e-07, 5.047936610935722e-07, 3.879602559209161e-07, 4.835154641114059e-07, -6.219424903974868e-07, -2.8364372610667488e-06, 4.815169063476787e-07, 1.8853020833375922e-07, 5.061851879872847e-07, 6.521121918012796e-07, -3.6779206311621238e-06, 6.016780389472842e-07, -1.9274477836006554e-06, 1.8848315903596813e-06, -4.784981229022378e-07, 4.072920845032968e-08, 6.201274572958937e-06, 7.128464289962722e-07, -3.808837846008828e-06, 1.9526150936144404e-06, -1.3560199931816896e-06, 5.782043899671407e-06, -9.704135806032355e-08, 2.4151816546691407e-07], [-0.0018620080081745982, -0.00145144562702626, 0.0041776685975492, -0.0037814322859048843, 0.0008509762701578438, -0.0010100052459165454, -0.0043067289516329765, -0.0005646644276566803, 0.008488529361784458, 0.0024011866189539433, 0.0010809671366587281, -0.004888928961008787, 0.00011882560647791252, -0.007578593213111162, 8.685966895427555e-05, -0.0035528067965060472, 0.00035288993967697024, -0.014897044748067856, -0.001019490067847073, -0.0005924928118474782, -0.004645961802452803, -0.0016602202085778117, 0.007171922829002142, 0.0020974702201783657, -0.004589949734508991, -0.0012211097637191415, -0.00607496639713645, -0.006894001271575689, 0.0014236998977139592, -0.00190745759755373, -0.0037958486936986446, -0.0026588626205921173, 0.0037791933864355087, -0.004185536410659552, 0.0025204638950526714, -0.00010541164374444634, 0.0003857506671920419, -0.0029165446758270264, 0.0004865720111411065, 0.0014749171677976847, 0.0019448575330898166, -0.011669816449284554, 0.001262444187887013, -0.0026354852598160505, 7.903372897999361e-05, 0.001031977473758161, -0.003436202649027109, -0.011332880705595016, 0.0059363036416471004, -0.0009255486074835062, 0.0032651806250214577, 0.0014314817963168025, 0.015923572704195976, 0.0002951242495328188, 0.003918860573321581, 0.0017334865406155586, 0.004943179432302713, 0.00021668030240107328, 0.011588006280362606, -0.0001334438711637631, 0.0011278612073510885, 0.008832608349621296, 0.0019646205473691225, -0.02932479791343212, -0.0007095919572748244, -0.0008826779667288065, 0.007077324669808149, -0.0012129934038966894, -0.006757558789104223, -0.004129890818148851, -0.0007065390818752348, -0.0027734905015677214, -0.0014430845621973276, -0.0005277361487969756, 0.0017365464009344578, -0.018996205180883408, 0.016544612124562263, -0.001127265626564622, 0.004347554873675108, -0.0012460462749004364, 0.005497198551893234, 0.019370025023818016, 0.001980057917535305, -0.00029609259217977524, -0.0014608121709898114, -0.00023115963267628103, 0.002615876728668809, -0.019803503528237343, 0.0015655986499041319, 0.029586635529994965, -0.0011975832749158144, -0.0034820272121578455, 0.0005970323691144586, -0.00031178307835943997, 0.005838518496602774, -0.0014355862513184547, 0.0015597142046317458, -0.00048750030691735446, 0.002463762881234288, 0.0025085897650569677, 0.021414682269096375, 0.0018853216897696257, 0.0030375090427696705, -0.007579396944493055, 0.0013728038175031543, -0.00015015486860647798, 0.007669702637940645, 0.0010324594331905246, 0.008463218808174133, 0.00012462068116292357, 0.011069023981690407, -0.009938804432749748, 0.0044967858120799065, -0.0007916558533906937, 0.033785462379455566, -0.003467802656814456, 0.003488647984340787, -0.00242287153378129, 0.0010379827581346035, 0.004138404969125986, -0.003820183454081416, -0.00011685962090268731, 0.006985082291066647, -0.0003504313644953072, 0.002831870224326849, -0.0009121324983425438, 0.00647176755592227, -0.0007715674582868814], [-0.0007369972299784422, -0.00032881376682780683, 0.0019246236188337207, -0.0009585550287738442, 0.0003397089312784374, -0.00028567895060405135, -0.0009514457196928561, -0.00168458535335958, 0.00012756545038428158, 0.00017534212383907288, 9.744663657329511e-06, -0.001281321863643825, 0.0006362513522617519, -0.000533055979758501, 0.00027719198260456324, -0.0004792875552084297, 0.0009839617414399981, -0.00036107649793848395, -0.00012072141544194892, -0.00014430447481572628, -0.0019365856423974037, -0.00028340480639599264, 0.0006024666945450008, 0.0002936015953309834, -0.0017039241502061486, -0.00024218753969762474, -0.0002237610169686377, -0.00027739309007301927, 0.0006204374949447811, -5.548079570871778e-05, -0.0015118131414055824, -0.001793545437976718, 0.0022517279721796513, -0.0010278214467689395, 0.0002144635800505057, -0.00040034286212176085, 3.094715066254139e-05, -0.000279762054560706, 0.0003357627138029784, 0.0007873481954447925, 0.0005270240362733603, -0.0005119779380038381, 0.0001344307529507205, -3.3647709187789587e-06, 0.0004763892793562263, 0.0006136622978374362, -0.0005356004694476724, -0.0007499661296606064, 4.333315519033931e-05, -3.20215622195974e-05, 0.0002388429711572826, 0.0004701779398601502, 0.0014600162394344807, 0.000184223274118267, 0.0001840902114054188, 0.00018225815438199788, 0.00088023318676278, 0.00037915422581136227, 0.00034700901596806943, -0.0001044115488184616, 0.00030037586111575365, 0.00044480396900326014, 0.0005532640498131514, -0.001072951010428369, -2.064759655695525e-06, -0.00041514914482831955, 0.0032106756698340178, -0.0009966121288016438, -7.508373528253287e-05, -0.000110109947854653, -0.00034903307096101344, -0.0003293691552244127, -1.5026444089016877e-05, -0.00034097800380550325, 0.00135347421746701, -0.0016312499064952135, 0.0009875184623524547, -0.0001299394789384678, 0.00015265028923749924, -0.00022116080799605697, 0.0038903262466192245, 0.005445871502161026, 8.56260085129179e-05, -0.0002162816672353074, -0.0003545022336766124, -0.0006416675169020891, 7.273894152604043e-05, -0.00033429841278120875, 5.9128400607733056e-05, 0.0005066661979071796, -0.00023996691743377596, -0.0007318948628380895, 0.00010422721243230626, -0.0001791617542039603, 0.0010359962470829487, -0.0009529133676551282, 0.00018118458683602512, -0.00020392736769281328, 8.969875489128754e-05, 0.0001135684724431485, 0.0009990736143663526, 0.0009816853562369943, 0.0001503419625805691, -0.0008038118830882013, 0.0002948130131699145, -0.0011636699782684445, 0.0002979183045681566, 3.1077463063411415e-05, 0.0013782461173832417, 2.521253236409393e-06, 0.0012280154041945934, -0.0002928310423158109, 0.0011376789771020412, -3.7337107642088085e-05, 0.001417446183040738, -0.0003327384474687278, 0.0009058852447196841, -2.7048545234720223e-06, 0.0017168358899652958, 0.0005227267392911017, -0.000247134012170136, -0.0005107181495986879, 2.9231478038127534e-05, -0.00022752654331270605, 0.00022942095529288054, -0.00021642410138156265, 0.00025511771673336625, -0.0005768214468844235], [1.5828692994546145e-05, 6.91290642862441e-06, -3.383253715583123e-05, 2.5296676540165208e-05, -5.29938824911369e-06, 8.760283890296705e-06, 1.4626385564042721e-05, 1.2361955668893643e-05, -7.79860965849366e-06, -4.599420208251104e-06, -8.402053936151788e-06, 8.509968211001251e-06, -1.1809787793026771e-05, 2.924083855759818e-05, -7.50737490307074e-06, 7.234382792375982e-05, -3.234424730180763e-05, 1.4779914636164904e-05, 2.720726342886337e-06, 1.1049573913624045e-06, 6.3095917539612856e-06, 7.865201041568071e-07, -4.902971340925433e-06, -8.009882549231406e-06, 9.897885320242494e-06, 1.594417517480906e-05, 1.3841462532582227e-05, 2.002230212383438e-05, -4.306305925183551e-07, 8.59152805787744e-06, 5.538291588891298e-06, 1.4167634617479052e-05, -1.1749774785130285e-05, 2.586210575827863e-05, -3.60933699994348e-05, -5.225590626878329e-08, -2.61965087702265e-05, 1.5385696769953938e-06, -8.609736141806934e-07, -9.145402145804837e-06, -1.7823880625655875e-05, 3.910165105480701e-05, -7.0726209742133506e-06, 6.3047696130524855e-06, -1.8944050680147484e-05, -1.6635945939924568e-05, 1.319875900662737e-05, 2.0084469269932015e-06, -1.9260565750300884e-05, 2.243507424282143e-06, -7.583638307551155e-06, -1.1247920156165492e-05, -2.499593210814055e-05, -1.602001975697931e-05, -8.17384643596597e-05, -2.0885303456452675e-05, -2.9359644031501375e-06, -1.581188007548917e-05, -1.0964613466057926e-06, 1.128180201703799e-06, -1.4669933989353012e-05, -9.413058251084294e-06, -6.4157970882661175e-06, 3.790972914430313e-05, 1.476566740166163e-05, 1.1157250810356345e-05, -8.03209695732221e-06, 1.2798668649338651e-05, 6.554902938660234e-06, 1.5269610230461694e-05, 9.499650332145393e-06, 9.735441381053533e-06, 1.2308459190535359e-05, 7.1560157266503666e-06, -3.4706390579231083e-06, 3.371751154190861e-05, -2.7559950467548333e-05, 4.736052233056398e-06, -4.7829403229116e-06, 1.4811839719186537e-05, -0.0001400955516146496, -1.1723583156708628e-05, -1.2844870980188716e-05, 7.093235012689547e-07, 2.454076593494392e-06, 1.155508698502672e-06, -2.374263567617163e-05, 3.065837745452882e-06, -4.2731055145850405e-05, -2.702318124647718e-05, 1.061634611687623e-05, 5.673048690368887e-06, -8.274388164863922e-06, 8.271190381492488e-07, -5.8950217862729914e-06, 2.0865588794549694e-06, -1.2707320820481982e-05, 1.1832715927084791e-06, -5.00212590850424e-05, -1.7188451238325797e-05, -3.098869285622641e-07, -2.1159148673177697e-05, -2.9937348244857276e-06, 3.0090038762864424e-06, -9.887880878522992e-06, 6.748520263499813e-06, -1.2467402484617196e-05, -9.491473974776454e-06, -2.173428401874844e-05, -1.950371597558842e-06, -1.1662183169391938e-05, 1.1097793503722642e-05, -3.1461306662095012e-06, 1.3687211321666837e-05, -7.21398537280038e-05, 3.0219734981074e-06, -8.949580660555512e-06, 2.59492990153376e-05, -1.884781158878468e-05, -1.3999062502989545e-05, 1.0086198017233983e-05, 7.666520104976371e-06, -1.6549396605114453e-05, 9.183945621771272e-06, -1.1518596693349537e-05, 9.748313459567726e-06, -1.7374353774357587e-05, 9.625465281715151e-06], [-0.01328781247138977, -0.019230028614401817, 0.011803094297647476, -0.013748162426054478, 0.008826778270304203, -0.016576087102293968, -0.015466904267668724, -0.02341657504439354, 0.02227473072707653, 0.00749342842027545, 0.06117849797010422, -0.026650361716747284, 0.025891385972499847, -0.013021346181631088, 0.00880444422364235, -0.007225150242447853, 0.014608551748096943, -0.017115144059062004, -0.0225693192332983, -0.009339233860373497, -0.00697983568534255, -0.018874576315283775, 0.014955982565879822, 0.00835379958152771, -0.007017696741968393, -0.023653343319892883, -0.039936911314725876, -0.023991569876670837, 0.018876878544688225, -0.01019450556486845, -0.018778961151838303, -0.008184565231204033, 0.020779889076948166, -0.024342896416783333, 0.01269732415676117, -0.040152035653591156, 0.019270356744527817, -0.014294292777776718, 0.015739742666482925, 0.008859124965965748, 0.018573230132460594, -0.013244717381894588, 0.019580598920583725, -0.014569131657481194, 0.029030611738562584, 0.014293034560978413, -0.016501089558005333, -0.016964640468358994, 0.006834769621491432, -0.02253097854554653, 0.009931067004799843, 0.017847413197159767, 0.00834247563034296, 0.011602051556110382, 0.006313167046755552, 0.01674019731581211, 0.007668456062674522, 0.022822478786110878, 0.016162125393748283, -0.015122207812964916, 0.02081380784511566, 0.007605609018355608, 0.013259723782539368, -0.006118705030530691, -0.011012934148311615, -0.0097037423402071, 0.006744831800460815, -0.027035262435674667, -0.017397554591298103, -0.015572590753436089, -0.010158964432775974, -0.020625999197363853, -0.01569850742816925, -0.009010312147438526, 0.01943298429250717, -0.012265362776815891, 0.020031042397022247, -0.009831290692090988, 0.006312933284789324, -0.016893647611141205, 0.007441356778144836, 0.017044080421328545, 0.011051650159060955, -0.022070633247494698, -0.02523757889866829, -0.012895822525024414, 0.013723731972277164, -0.006947105750441551, 0.018541032448410988, 0.012204393744468689, -0.011509783565998077, -0.015737421810626984, 0.017904356122016907, -0.011009078472852707, 0.017688166350126266, -0.008807621896266937, 0.0103789446875453, -0.021858619526028633, 0.013530630618333817, 0.008865522220730782, 0.014665475115180016, 0.019441794604063034, 0.006903982255607843, -0.01167700719088316, 0.007304077968001366, -0.008345281705260277, 0.013582112267613411, 0.016963813453912735, 0.01824258081614971, 0.019484130665659904, 0.013006542809307575, -0.013803154230117798, 0.012406148947775364, -0.011982478201389313, 0.007066126447170973, -0.008868958801031113, 0.0078931525349617, -0.014232423156499863, 0.01834646798670292, 0.009834129363298416, -0.008479335345327854, -0.02092655748128891, 0.012416858226060867, -0.023681538179516792, 0.01757863536477089, -0.007347495295107365, 0.017624570056796074, -0.017208820208907127], [-0.042631447315216064, -0.006004528142511845, 0.05451352894306183, -0.05294106900691986, 0.00528685050085187, -0.04048813134431839, -0.05824867635965347, -0.00843238364905119, 0.012186329811811447, 0.006097943987697363, 0.0006572906859219074, -0.012999646365642548, 0.003081005532294512, -0.05428216606378555, 0.024986011907458305, -0.012365298345685005, 0.03536359593272209, -0.0578988753259182, -0.001873203320428729, -0.0255639236420393, -0.06211770698428154, -0.02807432785630226, 0.015592324547469616, 0.041554130613803864, -0.057420216500759125, -0.03252783417701721, -0.006866381503641605, -0.0512339323759079, 0.0006451084045693278, -0.0042329528369009495, -0.037892673164606094, -0.05178775265812874, 0.018136998638510704, -0.038144443184137344, 0.0007626637234352529, -0.004235151223838329, 0.004795522894710302, -0.044645149260759354, 0.007471010088920593, 0.02745482511818409, 0.02249409444630146, -0.05307765305042267, 0.0014863429823890328, -0.0045682634226977825, 0.0029674542602151632, 0.0274200402200222, -0.0240717064589262, -0.054558586329221725, 0.06196107715368271, -0.020690245553851128, 0.04027220234274864, 0.0027610156685113907, 0.06991269439458847, 0.00039341708179563284, 0.05488026142120361, 0.016800055280327797, 0.003702764865010977, 0.004727971740067005, 0.058836959302425385, -0.01564798690378666, 0.02464001066982746, 0.03458991274237633, 0.04754071310162544, -0.05307938903570175, -0.0021078556310385466, -0.04716760292649269, 0.009466402232646942, -0.020415281876921654, -0.011676103807985783, -0.05399206280708313, -0.00485585443675518, -0.008302985690534115, -0.017102621495723724, -0.01128475647419691, 0.008058187551796436, -0.05366561561822891, 0.0637921541929245, -0.00010369643132435158, 0.038522329181432724, -0.01972796581685543, 0.06259124726057053, 0.05923136696219444, 0.03727789968252182, -0.022426290437579155, -0.0008685069042257965, -0.0024807206355035305, 0.027232429012656212, -0.05980807542800903, 0.025503216311335564, 0.06018173322081566, -0.001338585396297276, -0.057489026337862015, 9.572572889737785e-05, -0.005941247101873159, 0.021073853597044945, -0.02863777056336403, 0.0226967241615057, -0.002096656011417508, 0.04669281467795372, 0.011803017929196358, 0.06314963102340698, 0.04081141576170921, 0.008475793525576591, -0.05034087225794792, 0.03635755181312561, -0.011955492198467255, 0.049599308520555496, 0.0057967593893408775, 0.06177320331335068, 0.0031300599221140146, 0.05231670290231705, -0.04875156655907631, 0.06295447796583176, -0.002824111608788371, 0.060628537088632584, -0.032444100826978683, 0.05167577043175697, -0.027028193697333336, 0.022963032126426697, 0.020542696118354797, -0.04552363231778145, -0.006365358829498291, 0.05130483955144882, -0.024547558277845383, 0.007105235941708088, -0.039340052753686905, 0.04831951484084129, -0.002215269487351179], [-8.19772196791746e-07, -5.689693352906033e-06, 4.448474101081956e-06, -7.530958555435063e-06, 1.1982263004028937e-06, -1.4253781728257309e-06, -2.0885831872874405e-06, -4.3970518959213223e-07, 5.5117807278293185e-06, 7.940849172882736e-06, 2.0403861356044217e-07, -3.3443675420130603e-06, -2.5465678277214465e-07, -9.35487037168059e-07, 3.0871137823851313e-06, -2.299226480317884e-06, 5.052578444519895e-07, -4.058045760757523e-06, -4.837518190470291e-06, 1.7326611612134002e-07, 1.0785627182485769e-06, -4.8126162255357485e-06, -8.296811984109809e-07, 1.2014529602311086e-06, -1.810636149457423e-06, -8.033503036131151e-07, -9.055860914486402e-07, -1.0029983968706802e-05, 5.93882930388645e-07, -4.928829184791539e-07, 1.955452120228074e-07, -2.599600463781826e-07, 4.266361884219805e-06, -1.8286947351953131e-06, 2.411740922525496e-07, -2.3750003492750693e-06, -8.125546742121514e-07, -2.700501227081986e-06, 3.6861961234535556e-06, 1.5357776419477887e-06, 3.776853418457904e-06, -3.4995397868442524e-07, 3.865435473926482e-07, -1.683564221366396e-07, 4.941542215419759e-07, 3.260420726292068e-06, -1.8939684878205298e-06, -4.165594873484224e-06, 2.218203235315741e-06, -3.4083547006957815e-07, 1.1190570603503147e-06, 2.931692222318816e-07, 8.334556696354412e-06, 1.5955516801113845e-06, 8.403910669585457e-07, 5.434181549190953e-09, 2.2428928048157104e-07, 3.600375748646911e-07, 9.386562851432245e-07, 2.8534358875731414e-07, 4.1472530938335694e-06, 2.581098669907078e-06, 1.8333130356040783e-06, -3.5026723708142526e-06, -1.390757574881718e-06, -1.3456597116601188e-06, 1.5255312064255122e-05, 1.3153639599750022e-07, -5.626131496683229e-06, -8.643804903840646e-06, -2.283757254417651e-07, -4.151005214225734e-06, -4.838042968913214e-06, -5.3034964366815984e-06, 2.4244561700470513e-06, 4.25908001489006e-06, 4.374817763164174e-06, -3.569713840079203e-07, 2.9221193926787237e-06, -6.766259502910543e-06, 1.148815272244974e-06, 1.6923627299547661e-06, 1.736320541567693e-06, -1.4994669754742063e-06, 1.1377397868272965e-07, -1.6908128372961073e-06, 2.312796596015687e-06, -1.503302996752609e-06, 5.442393558041658e-06, 3.828108674497344e-06, -9.198465704685077e-07, 1.1309126080050191e-07, 2.0981975978884293e-07, -1.3106803180562565e-06, 2.7895591756532667e-06, -5.591595709120156e-06, 5.792575848317938e-06, -1.46077536555822e-06, 3.601358457672177e-06, 6.789649091842875e-07, 5.852848971699132e-06, 1.3847941318090307e-06, 1.5837605360502494e-06, -1.7966331142815761e-06, 3.5780772122961935e-06, -2.6756563329399796e-06, 1.3044027582509443e-05, 3.054307853744831e-06, 2.4111591301334556e-06, 2.56162138612126e-06, 3.5826203657052247e-06, -3.086525794060435e-06, 8.029236596485134e-06, 2.5768162004169426e-07, -3.240147179894848e-06, -4.2541751099633984e-06, 3.0352255180332577e-06, -5.324626073388572e-08, 4.706280947175401e-07, 3.172833942244324e-07, 3.500975083170488e-07, -2.6317154606658733e-06, 6.399672201951034e-06, -3.3700837320793653e-06, 6.10747065366013e-06, -4.148337666265434e-06, 9.760314014783944e-07, -6.82250274053331e-08], [-0.015186470001935959, -0.0008037021034397185, 0.009003710001707077, -0.020191814750432968, 0.0008142684819176793, -0.009677722118794918, -0.036257389932870865, -0.010946979746222496, 0.03314060717821121, 0.015550139360129833, 0.00012600942864082754, -0.00207194103859365, 0.0017588824266567826, -0.028428059071302414, 0.005002480931580067, -0.022642774507403374, 0.012467247433960438, -0.03182979300618172, -0.0005824096733704209, -0.0013441127957776189, -0.03994842618703842, -0.003513188101351261, 0.007479886524379253, 0.021899815648794174, -0.02666393108665943, -0.010409494861960411, -0.018031062558293343, -0.027399588376283646, 0.0009873242815956473, -0.0013965419493615627, -0.012340218760073185, -0.028094448149204254, 0.015416502952575684, -0.019366970285773277, 0.0009487870265729725, -0.0008496043737977743, 0.002482948126271367, -0.02211485616862774, 0.0009442969458177686, 0.005498681683093309, 0.004065225832164288, -0.02811535634100437, 6.966285582166165e-05, -0.0008885501883924007, 0.0013873144052922726, 0.0033377159852534533, -0.027511050924658775, -0.02492811530828476, 0.008333622477948666, -0.0011877190554514527, 0.013267576694488525, 0.0011562644504010677, 0.03472042828798294, 0.0006194427260197699, 0.03567751869559288, 0.005182816181331873, 0.001406107097864151, 0.00034898603917099535, 0.009278313256800175, -0.005211965646594763, 0.0055338856764137745, 0.019009245559573174, 0.021775517612695694, -0.03555787727236748, -0.001402369816787541, -0.005552629474550486, 0.045339226722717285, -0.004601959604769945, -0.019877081736922264, -0.027190202847123146, -0.001195749850012362, -0.00027500715805217624, -0.002427411964163184, -0.0012771857436746359, 0.0022664163261651993, -0.0345023088157177, 0.03103504329919815, -0.000711364031303674, 0.007185520604252815, -0.0005371554289013147, 0.017701048403978348, 0.02583056129515171, 0.003670280799269676, -0.0006064470508135855, -0.0014807038241997361, -0.001033349777571857, 0.014406130649149418, -0.02672022394835949, 0.002677859039977193, 0.03504623845219612, -0.0003831494541373104, -0.024729035794734955, 0.0008168554631993175, -0.0009117836016230285, 0.0046984050422906876, -0.024271616712212563, 0.0010992196621373296, -0.003883462166413665, 0.025977283716201782, 0.016984164714813232, 0.012473794631659985, 0.010677849873900414, 0.026961635798215866, -0.005652381107211113, 0.004695382434874773, -0.015424732118844986, 0.023945573717355728, 0.004680299200117588, 0.013281707651913166, 0.0008927902672439814, 0.02082573063671589, -0.029923658818006516, 0.03120836429297924, -0.0035677924752235413, 0.04895125702023506, -0.01962631195783615, 0.02243833616375923, -0.020443260669708252, 0.0017753703286871314, 0.0019399495795369148, -0.028057416900992393, -0.0007105196709744632, 0.021980971097946167, -0.006218331400305033, 0.0038448642008006573, -0.005362729076296091, 0.005199803039431572, -0.0006287325522862375], [-0.0008110083290375769, -1.9340901417308487e-05, 0.0005137315019965172, -0.00047674740198999643, 7.539387297583744e-05, -0.00016042921924963593, -0.0001944033137988299, -5.542281360249035e-05, 0.0004974327166564763, 8.308567339554429e-05, 0.0003785115259233862, -0.0014233652036637068, 0.00026225988403894007, -0.0006150912959128618, 8.298427565023303e-05, -0.0002867886796593666, 0.00038428508560173213, -0.0005312002613209188, -0.0004291090299375355, -2.6967289159074426e-05, -0.002254555467516184, -1.7769740225048736e-05, 0.0010576167842373252, 0.00032034461037255824, -0.00034866546047851443, -0.0008663961780257523, -4.210355109535158e-05, -0.0012391686905175447, 0.0006628323462791741, -5.183801840757951e-05, -0.00011141418508486822, -0.00014843941607978195, 6.42927479930222e-05, -0.000309048336930573, 0.0006651808507740498, -0.000280634529190138, 0.0007106221164576709, -0.0012577815214172006, 0.0004408633103594184, 0.0006013144156895578, 4.948701462126337e-05, -0.00037281037657521665, 0.0003889109648298472, -8.320221240865067e-05, 0.00019833269470836967, 3.346387529745698e-05, -0.0012113270349800587, -0.0007628048770129681, 0.0006783357239328325, -0.0001593797205714509, 0.00018384672875981778, 2.84597699646838e-05, 0.00018201595230493695, 0.0006681770901195705, 0.0007780692540109158, 8.803653327049688e-05, 0.00033053275546990335, 9.153700375463814e-05, 0.00037842386518605053, -0.00012306652206461877, 0.00042825096170417964, 6.964754720684141e-05, 0.0006492709508165717, -0.0004900609492324293, -0.0006337164086289704, -0.0004714850801974535, 0.0010398863814771175, -0.0006083408370614052, -0.00029317784355953336, -0.00137907185126096, -0.00012195339513709769, -1.5010427887318656e-05, -0.00019701836572494358, -0.00036445711157284677, 9.124963980866596e-05, -0.00010933393059531227, 0.000570874020922929, -4.485893077799119e-05, 0.0005285082734189928, -0.000112818946945481, 0.00029284856282174587, 0.00043135115993209183, 6.540075992234051e-05, -0.00015079807781148702, -8.51051663630642e-05, -0.00043148393160663545, 0.00027756846975535154, -0.00011347935651428998, 0.00033898375113494694, 0.0010882109636440873, -0.00035790991387329996, -0.00027573684928938746, 0.00025094099692068994, -6.412346556317061e-05, 0.0004996460047550499, -0.0009692885796539485, 2.8947581085958518e-05, -3.951009421143681e-05, 6.356904486892745e-05, 0.0038045679684728384, 6.048124851076864e-05, 4.385662396089174e-05, 0.0004550838202703744, -0.00011690437531797215, 0.00026244361652061343, -0.0008554194937460124, 0.000189697282621637, 0.0001172493357444182, 0.00023511632753070444, 0.0003396322135813534, 6.699284131173044e-05, -0.0002867765724658966, 3.594711233745329e-05, -0.00014137563994154334, 0.0002918870886787772, -0.0004379031015560031, 0.00016770869842730463, -6.884393951622769e-05, 0.0010355755221098661, 5.4075011576060206e-05, -8.880061795935035e-05, -0.00022522707877214998, 0.0011169267818331718, -6.871217192383483e-05, 0.00018295636982657015, -0.0002458731469232589, 0.00016763692838139832, -0.0009605211089365184], [0.0001493501476943493, 7.787146023474634e-05, -0.0003235739131923765, 2.2805352273280732e-05, -0.00023378674814011902, 0.0002701942576095462, 0.00047201846609823406, 0.0002535805688239634, -0.00016291651991195977, -0.0007002722704783082, -0.00010801407916005701, 0.00026024552062153816, -6.014247264829464e-05, 0.00017561049025971442, -0.00010456258314661682, 1.5807299860171042e-05, -7.368392107309774e-05, 0.00047095963964238763, 0.00027911897632293403, 2.311247772013303e-05, 0.00028011997346766293, 7.946349069243297e-05, -4.721316145150922e-05, -3.696132989716716e-05, 0.00018721037486102432, 9.861098806140944e-05, 2.8437267246772535e-05, 0.0002084187581203878, -9.032218076754361e-05, 0.00012794602662324905, 1.0449872206663713e-05, 4.211771738482639e-05, -0.00032166222808882594, 0.0001649302284931764, -5.1537372200982645e-05, 7.535201439168304e-05, -0.0001865145895862952, 0.0002472040068823844, -3.294092311989516e-05, -0.00010394767741672695, -2.214707637904212e-05, 0.00020118527754675597, -8.911051554605365e-05, 0.00032144779106602073, -0.0002633765689097345, -0.00011105715384474024, 7.25515783415176e-05, 0.0004110113368369639, -0.00034767764736898243, 0.00010072733857668936, -1.6720863641239703e-05, -7.404502684948966e-05, -1.5334098861785606e-05, -2.974103335873224e-05, -0.0003852853551506996, -0.00015888415509834886, -0.00012357078958302736, -0.00010735912655945867, -7.938507769722492e-05, 0.0003824660088866949, -3.4860226151067764e-05, -0.0003399278502911329, -0.0008758579497225583, 0.00042167541687376797, 3.9156067941803485e-05, 4.151438770350069e-05, -7.81645649112761e-05, 6.196997128427029e-05, 0.00022020182223059237, 2.451878935971763e-05, 0.00011010761954821646, 0.0001279298448935151, 4.155283750151284e-05, 6.45069230813533e-05, -0.00029081650427542627, 7.547399582108483e-05, -0.0004523784446064383, 0.00018857976829167455, -0.00014473100600298494, 0.00012556648289319128, -1.7953731230591075e-06, -0.00048531702486798167, -0.0001257875992450863, 0.0005361351068131626, 9.598224096407648e-06, 0.00016250454063992947, -8.476004586555064e-05, 0.00020539383694995195, -0.00020535619114525616, -0.00013800497981719673, 0.00037002822500653565, 0.00011883410479640588, -0.0005251315888017416, 9.663660603109747e-05, -8.331884600920603e-05, 0.0009002948645502329, -0.00017975659284275025, 5.890150350751355e-05, -2.4604541977168992e-05, -0.00010956090409308672, -0.0002596490376163274, -9.966317156795412e-05, -0.00026245450135320425, 0.0004719015269074589, -0.0001952959573827684, 8.733497088542208e-05, -4.7470904974034056e-05, -8.647985850984696e-06, -0.00021753429609816521, -4.815275315195322e-05, -0.00034544168738648295, 0.00013697647955268621, -0.0002896460355259478, 0.00027300594956614077, -1.8647764591150917e-05, 3.866132101393305e-05, -0.00029627111507579684, 0.00011941413686145097, -7.907390681793913e-05, -4.426506347954273e-05, 5.483517725224374e-06, 4.893488039670046e-06, -0.0001542255631648004, 4.613343480741605e-05, -0.0001237874967046082, 1.61126099555986e-05, -0.0005281644407659769, 0.00012553480337373912]], "sigmanet.nn.12.bias": [-0.2848057746887207, -0.15844178199768066, 0.15879975259304047, 0.06915628910064697, 0.07892752438783646, 0.18698108196258545, -0.23607206344604492, 0.04307202249765396, 0.06404903531074524, 0.25419187545776367, -0.21344204246997833, 0.2584848701953888, 0.2743842899799347, -0.193748340010643, -0.29068028926849365, -0.006701652426272631, 0.07327177375555038, 0.09165658801794052, 0.008241292089223862, 0.05206252634525299, -0.0566728338599205, -0.2739962637424469, 0.23593834042549133, -0.18955416977405548, -0.1631636917591095, -0.043395791202783585, -0.0591716468334198, -0.2513445019721985, -0.11551233381032944, -0.1288827657699585, 0.25362151861190796, 0.21377363801002502, -0.15703974664211273, -0.11151784658432007, -0.18804500997066498, -0.07639966160058975, -0.2526476979255676, 0.17079655826091766, -0.1491241604089737, -0.05954018980264664, 0.19567756354808807, 0.14098866283893585, -0.1422828882932663, -0.21060895919799805, -0.31920671463012695, 0.16816526651382446, -0.2915251851081848, 0.06624246388673782, -0.06407439708709717, -0.21180389821529388, 0.2692931592464447, -0.22912468016147614, -6.780658441130072e-05, -0.2908896505832672, 0.21055065095424652, 0.0737343281507492, -0.06869950145483017, 0.2719181180000305, -0.08939167112112045, -0.20032061636447906, -0.19463640451431274, -0.13576050102710724, 0.22999216616153717, -0.1929629147052765, -0.20111411809921265, -0.02119624987244606, -0.4788612425327301, 0.5814252495765686, -0.14501093327999115, -0.23408997058868408, -0.05994223430752754, -0.2894086539745331, -0.1144741028547287, 0.14483346045017242, 0.2171543538570404, 0.21577543020248413, -0.06246485561132431, 0.21236908435821533, -0.12070994824171066, 0.21304599940776825, 0.08615884929895401, 0.1435096114873886, 0.020971572026610374, -0.27641093730926514, -0.1843567043542862, -0.1880667358636856, 0.2605109214782715, -0.18780310451984406, 0.24751608073711395, 0.2131158858537674, -0.24402271211147308, -0.21773888170719147, -0.17611366510391235, 0.10977312177419662, -0.17797312140464783, -0.11054667830467224, -0.2259659618139267, 0.2721809148788452, 0.13434898853302002, 0.13261768221855164, 0.08677533268928528, 0.07237042486667633, 0.20387351512908936, 0.2069396674633026, 0.22123754024505615, 0.045509662479162216, 0.047978855669498444, -0.19604411721229553, 0.20895670354366302, -0.13990196585655212, -0.06439636647701263, 0.20989297330379486, 0.20551159977912903, 0.11407142132520676, -0.2490376979112625, 0.10123986005783081, 0.16509056091308594, -0.00013561856758315116, 0.049519430845975876, 0.2222282737493515, -0.05734046548604965, 0.008619077503681183, 0.164707213640213, 0.04156707599759102, 0.26081863045692444, -0.19998802244663239, 0.24119912087917328, 0.06905735284090042], "sigmanet.nn.12.parametrizations.weight.original": [[5.579327535087941e-06, -2.551353418311919e-06, 9.798762903301395e-07, 6.308663387244451e-07, -0.00011594898387556896, 4.427381270488695e-07, 6.869460776215419e-05, 0.004408867564052343, 2.2963636183703784e-06, -3.203393134754151e-06, 3.524451130942907e-06, 1.1003677172993775e-05, -1.1009756235580426e-06, 4.319451181800105e-05, 5.113989573146682e-06, -3.1013610168884043e-06, 9.95330879050016e-07, -0.0024847385939210653, -0.0014702733606100082, -0.0020438425708562136, -0.0005816697957925498, -0.00017697553266771138, 1.3175415460864315e-06, 2.9089437703078147e-07, -5.478515959111974e-06, 1.0967359003188903e-06, 0.0006438029813580215, 9.73465219544778e-08, 0.0003674885956570506, 2.0875914685802854e-07, 2.549175633248524e-06, -8.874959576132824e-07, -9.792797936825082e-05, -0.00011817653285106644, -5.5222903938556556e-06, -2.2836493371869437e-06, 4.4652637143371976e-07, -4.632325271813897e-06, -4.648753019864671e-06, 7.181402452260954e-06, 4.2492658394621685e-05, -1.2837514077546075e-05, 0.0065011270344257355, -0.004476417787373066, 8.689360697644588e-07, -1.956107917067129e-05, 1.828471773990259e-08, 2.982865771627985e-05, 2.962236430903431e-05, -0.004817293491214514, 2.959367748189834e-06, -2.883228808059357e-05, 7.836172244424233e-07, -7.919474001027993e-07, 1.2510944543464575e-05, 3.2379930416936986e-06, 5.091317689220887e-06, -7.3198257268813904e-06, 5.720246917917393e-06, -3.32939364966478e-08, 0.005043542943894863, 0.00241595646366477, 3.3892513329192298e-06, -1.2317199207245721e-06, 6.695807769574458e-06, -3.0895603231329005e-06, -0.00014542909048032016, -0.0003621311334427446, 0.003991618286818266, 0.0004929224378429353, -7.51985339775274e-07, -2.7733769456972368e-05, 5.521844173017598e-07, -1.3640111319546122e-05, 0.00025894970167428255, 1.2607079952431377e-05, 3.2590614864602685e-06, -2.186872370657511e-05, 3.7638335470546735e-06, -0.00017191686492878944, 2.263514033984393e-05, 2.859627556972555e-06, 0.00010176465002587065, 4.413460374053102e-06, 0.003156158607453108, 6.956212473596679e-06, 1.1542077118065208e-05, -2.841763716787682e-06, 1.946457359736087e-06, -0.00015355381765402853, 2.211719038314186e-05, 6.536659384437371e-06, 8.793499000603333e-05, -2.49743857239082e-06, 8.62970991875045e-05, 4.416353647229698e-07, 0.006486228667199612, -9.378139225191262e-07, 1.0071205906569958e-05, 3.5551695418689633e-06, 0.0001893636945169419, -1.6434058807135443e-06, 5.465040544549993e-07, -5.036563834437402e-06, -9.289567060477566e-06, -4.63674859929597e-06, 4.80853850604035e-06, 1.0187857697019354e-05, 5.1333649025764316e-05, 8.974385309556965e-06, 4.957528290105984e-07, 0.004092042800039053, 1.9938026980526047e-06, -4.685638032242423e-06, 1.1407917554606684e-05, 2.031922576861689e-06, 0.0008805617690086365, -1.7723114069667645e-06, -4.953171242050303e-07, -0.0023022417444735765, -1.2674641425292066e-07, -0.00013178764493204653, -1.8777112700263388e-06, -4.0187248373513285e-07, 2.007918283197796e-06, 0.005705413408577442, -3.4871234220190672e-06, 5.260746092972113e-06], [2.0428126390470425e-06, -8.908173043664647e-08, 7.584270065308374e-07, -5.5497548601124436e-06, 0.000230214383918792, -2.0812967704841867e-06, 3.0658771720482036e-05, 7.358285074587911e-05, 2.013330777117517e-05, -4.362823801784543e-06, 9.806356501940172e-06, -5.6311873777303845e-06, -6.24819949734956e-06, -2.2961436116020195e-05, 2.4570143068558536e-05, 5.976918941996701e-07, 3.840179090275342e-07, -0.006469473242759705, -0.0023822449147701263, -0.008119900710880756, -0.006389816291630268, -5.0546947022667155e-05, 2.37120457313722e-06, -6.300105724221794e-06, -9.70721976045752e-06, -5.103853709442774e-06, 0.006855586543679237, -2.2205299501365516e-06, -1.7447326172259636e-05, 2.3794150649791845e-07, 1.440099481442303e-06, -3.135694214506657e-06, -3.131561243208125e-05, -1.9248645912739448e-05, 3.732442621640075e-07, -7.027382525848225e-05, -1.28987267089542e-05, -1.6808715372462757e-05, -2.0606959878932685e-05, 2.6673105821828358e-05, -3.379707777639851e-06, -3.0453084036707878e-05, 0.008962375111877918, -0.00829143077135086, -3.2647680200170726e-05, 2.981336547236424e-05, 9.38524135563057e-06, 0.0014246531063690782, -8.234508641180582e-06, -0.0029465341940522194, 3.034501332876971e-06, 7.528269179601921e-06, 3.006687620654702e-06, -2.7000303816748783e-05, 2.288299219799228e-05, 3.948217909055529e-06, 8.773965873842826e-07, -1.49976258398965e-05, 2.873050470952876e-05, -4.832328158954624e-06, 0.0022321066353470087, 0.0028287824243307114, 4.2292597868254234e-07, -8.76067133503966e-06, -2.3255954602063866e-06, -7.565865303149621e-07, -0.0003132327110506594, -0.0051171546801924706, 0.007775527890771627, 0.007490353658795357, -1.337241656074184e-06, -1.601380245119799e-05, -9.161448133454542e-07, -2.780708746286109e-05, 9.292052709497511e-05, 1.5995137800928205e-06, 1.687612098066893e-06, 4.233401796227554e-06, -1.0983968650180032e-06, 0.00018040263967122883, -5.584592145169154e-06, 1.230330963153392e-05, 0.00029807412647642195, -3.0105735277174972e-05, -2.618453072500415e-05, 3.2472428301844047e-06, -8.888414413377177e-07, -3.6398581869434565e-05, 3.2161560739041306e-06, -0.00016329398204106838, 2.5895056751323864e-05, 7.943747277749935e-07, 0.0004645796143449843, -3.631521849456476e-06, 0.0016039133770391345, -5.989294095343212e-06, 0.009289728477597237, -2.5973647552746115e-06, 1.2535522728285287e-05, -8.55554958434368e-07, -0.0014433464966714382, 2.457838093050668e-07, 7.1414406193071045e-06, 8.236335133915418e-07, 1.3612221664516255e-05, -2.6171841454925016e-05, 2.6022914880741155e-06, 9.146323463937733e-06, 0.0034503533970564604, -6.069076334824786e-07, -8.596957741247024e-06, 0.0050585209392011166, 3.998949068773072e-06, -6.265295269258786e-07, 4.981813617632724e-06, 1.0031760666606715e-06, 0.00048702865024097264, -2.7556893655855674e-06, 4.2690544432844035e-06, -0.003042080206796527, 3.0934261303627864e-05, -5.842855443916051e-06, 7.911034117569216e-06, -5.126979090164241e-07, 7.180449756560847e-06, 0.00942547433078289, 7.281092621269636e-06, -1.910619903355837e-05], [-0.0012362791458144784, 0.00046371493954211473, -0.00029372735298238695, 0.0013275615638121963, -0.005343547090888023, 0.0004986499552614987, -0.022999167442321777, -0.012917794287204742, -0.001673092134296894, 0.00041378976311534643, -0.002030022442340851, 0.010484566912055016, -0.018074003979563713, -0.03356357663869858, -0.0004968078574165702, 0.00038184275035746396, -0.0005942609277553856, 0.011271694675087929, 0.005918401293456554, 0.007079145405441523, 0.013352380134165287, 0.01997992768883705, -0.00046310413745231926, 0.00031413440592586994, 0.0007098261849023402, 0.0006919977022334933, -0.009102489799261093, 0.0006369539769366384, -0.02175021730363369, 0.0005208616494201124, -0.0005885873106308281, 0.0004727125051431358, 0.02241344191133976, 0.015886325389146805, 0.0009643908706493676, 0.008434290066361427, -0.0009706656564958394, 0.0008689467213116586, -0.002337803365662694, -0.0004920416395179927, 0.01078451331704855, 0.0007953770691528916, -0.011086874641478062, 0.006341421511024237, 0.0012735986383631825, 0.013189524412155151, -0.005929316394031048, -0.015515820123255253, -0.0035678972490131855, 0.008825504221022129, -0.00033679621992632747, 0.002141624456271529, -0.001033891225233674, 0.0005836573545821011, -0.002630777657032013, -0.0009515819256193936, -0.0012400253908708692, 0.0008636365528218448, -0.0034754411317408085, 0.0006795166991651058, -0.011823431588709354, -0.011191774159669876, -0.0006883390014991164, 0.00044676827383227646, -0.0007972685270942748, 0.00040079563041217625, 0.009758519008755684, 0.004796682856976986, -0.007958268746733665, -0.01048123836517334, 0.0008965033921413124, 0.008500764146447182, 0.0005312058492563665, 0.0015000238781794906, -0.02135949581861496, -0.0009630921995267272, -0.0006633519078604877, 0.00533021567389369, -0.0003942142357118428, 0.011607195250689983, -0.0010100905783474445, -0.0007464110967703164, -0.013747364282608032, 0.0014450663002207875, -0.018427284434437752, -0.0011883379193022847, -0.002287467708811164, 0.0018501738086342812, -0.00047060352517291903, 0.016441499814391136, -0.00233805482275784, -0.00045980201684869826, -0.014701362699270248, 0.0005276662413962185, -0.015864945948123932, 0.0026212017983198166, -0.01152730267494917, 0.0004562725080177188, -0.0010154853807762265, -0.0006906888447701931, 0.012947038747370243, 0.007395183201879263, -0.001195670454762876, 0.0004525151161942631, -0.025443557649850845, 0.006759314332157373, -0.0007266548345796764, -0.0027160688769072294, -0.012766621075570583, -0.001135231927037239, -0.0006547836237587035, -0.003483470529317856, -0.0004288112395443022, 0.0004071577568538487, -0.0072649456560611725, -0.0005499944090843201, -0.016953343525528908, 0.0011099640978500247, -0.0011642012977972627, 0.010000995360314846, -0.0009054851834662259, 0.01990228146314621, -0.00041787480586208403, -0.0004204033757559955, -0.0010127411223948002, -0.011133375577628613, -0.0011210889788344502, 0.005814649630337954], [-0.0008405533735640347, 0.002095989417284727, -0.0005403789691627026, 0.006480912212282419, -0.002171129221096635, 0.00125389255117625, -0.009513303637504578, -0.0069651613011956215, -0.00998216774314642, 0.001347313285805285, -0.005446017254143953, 0.018641337752342224, -0.007768469862639904, -0.020778542384505272, -0.0029425816610455513, 0.00106011179741472, -0.0017884279368445277, 0.0048153153620660305, 0.0037184646353125572, 0.002595726167783141, 0.005939518567174673, 0.007806548848748207, -0.002404245315119624, 0.0010111808078363538, 0.009703295305371284, 0.0011812058510258794, -0.002633010968565941, 0.0027278955094516277, -0.020362094044685364, 0.00148356007412076, -0.0015686682891100645, 0.001413495745509863, 0.02021845057606697, 0.022949395701289177, 0.004483732860535383, 0.019156886264681816, -0.004953204654157162, 0.00430297153070569, -0.004203848075121641, -0.006473890505731106, 0.008776399306952953, 0.004480092320591211, -0.0026623907033354044, 0.001592417131178081, 0.005656159482896328, 0.017634836956858635, -0.014736936427652836, -0.006090777460485697, -0.006166086066514254, 0.0027686436660587788, -0.0034849336370825768, 0.014800562523305416, -0.0026450662408024073, 0.004315683152526617, -0.005432582460343838, -0.004126355517655611, -0.010192553512752056, 0.00567743880674243, -0.013420496135950089, 0.00101750111207366, -0.0054092248901724815, -0.004471474792808294, -0.0012053392129018903, 0.0020052646286785603, -0.00904749147593975, 0.0008767424151301384, 0.0033605715725570917, 0.005403681192547083, -0.002737157279625535, -0.003515191376209259, 0.004415884148329496, 0.015698876231908798, 0.007415302563458681, 0.0030055351089686155, -0.01681758277118206, -0.004399266559630632, -0.002040271181613207, 0.008112003095448017, -0.0009639976196922362, 0.004737921990454197, -0.006120906677097082, -0.0034089318942278624, -0.007662470918148756, 0.005976665299385786, -0.008307580836117268, -0.0034855203703045845, -0.0056211152113974094, 0.006805773824453354, -0.0011134850792586803, 0.011737843975424767, -0.007341721560806036, -0.006676117889583111, -0.008599032647907734, 0.0016804165206849575, -0.006971962284296751, 0.009489389136433601, -0.005267452448606491, 0.001086556469090283, -0.005410956218838692, -0.0023057882208377123, 0.006359637249261141, 0.017933625727891922, -0.003634812543168664, 0.0015589988324791193, -0.023949967697262764, 0.01838407665491104, -0.001792403170838952, -0.00944930873811245, -0.0023841916117817163, -0.006807786412537098, -0.004045185633003712, -0.0033681197091937065, -0.002043680287897587, 0.001740078441798687, -0.015277031809091568, -0.003790834918618202, -0.006617911159992218, 0.0023081558756530285, -0.004325185436755419, 0.004072453361004591, -0.007790425326675177, 0.012627922929823399, -0.003031104803085327, -0.0007867758395150304, -0.002972317161038518, -0.004715637769550085, -0.0062665194272994995, 0.01458483561873436], [2.8901624204991094e-07, 1.695823812042363e-06, -9.210056646224984e-07, 1.0657082384568639e-05, -0.00012495819828473032, 3.7316615930649277e-07, 7.369163358816877e-05, -6.0363239754224196e-05, -1.566068567626644e-05, -2.7434791149971716e-07, -1.9971897927462123e-05, 5.901226813875837e-06, -2.472697633493226e-05, -5.380296443036059e-06, 3.42749217452365e-07, 1.6477233657496981e-06, -3.1447127639694372e-06, 0.00016036248416639864, 0.0001767828071024269, -0.002230982528999448, -0.001162839587777853, 0.0014378009364008904, 1.3286992270877818e-06, 9.789713431018754e-07, 2.4835968361003324e-05, 1.614474626876472e-06, 0.0005930793122388422, 3.3468797937530326e-06, -0.00012583573698066175, 4.224903477734188e-06, -7.17236162017798e-07, 8.000602633728704e-07, 4.713776070275344e-05, -1.776612043613568e-05, 2.033055807260098e-06, 5.8071050261787605e-06, -2.6604050162859494e-06, 2.5958966944017448e-05, 8.51476943353191e-06, -1.034265551425051e-05, 0.00017430566367693245, 1.4961939086788334e-05, -0.001286839134991169, 0.0004172897897660732, -1.3524939959097537e-06, -2.507359386072494e-05, 1.337607955065323e-05, -3.5418037441559136e-05, 1.0135509000974707e-05, 0.0010305960895493627, -3.919250957551412e-06, 1.2795947441190947e-05, -3.041789796043304e-06, 2.5658475351519883e-05, -6.232484338397626e-06, 2.2600142983719707e-06, 1.3393671451922273e-06, -7.797788157404284e-07, -1.1198731954209507e-05, 7.423960255437123e-07, -1.906644320115447e-05, -5.580985452979803e-05, 1.1990733810307574e-06, -1.795501930246246e-06, -2.0227496406732826e-06, -4.976066634299059e-07, 4.886704482487403e-05, 4.1747771319933236e-05, 7.570753223262727e-05, 1.6127136404975317e-05, -3.987105685610004e-07, -1.0671170457499102e-05, 8.019673600756505e-07, 1.741122468956746e-05, -4.472483124118298e-05, 9.417460205440875e-06, 1.364788204227807e-06, 2.460846553731244e-05, -9.934956324286759e-07, 1.3315296200744342e-05, 5.764455181633821e-06, -2.5707589884405024e-05, -0.0005512445932254195, -2.1682941223843955e-05, -0.0003119409375358373, -6.289240445767064e-06, -2.3641588995815255e-05, 2.2440319753513904e-06, -7.736682050563104e-07, 0.0001046571705956012, 1.1715692380676046e-05, 5.075306944490876e-06, -6.07422916800715e-05, -9.983950803871267e-07, -6.128752283984795e-05, -2.4488972485414706e-05, -0.0025075634475797415, 3.6099027056479827e-07, 1.5623352737748064e-05, 8.461758511657536e-07, 2.2001406250637956e-05, 3.3838443869171897e-06, -2.37113522416621e-06, 8.406626079704438e-07, -6.610224954783916e-05, 1.2359351785562467e-05, -2.0344823781215382e-07, -1.2795335351256654e-05, -0.00023333980061579496, -5.302910267346306e-06, -3.833216055681987e-07, -7.23037519492209e-05, -1.8267089672008296e-06, -4.022347468435328e-07, -2.4492665033903904e-05, -1.1066636034229305e-05, -0.00010790167289087549, 1.617332486603118e-06, -8.476785296807066e-06, 0.0029920749366283417, -1.2469281500671059e-05, 1.4305449440144002e-05, -4.910492066301231e-07, -3.551143095137377e-07, 3.347180154378293e-06, -5.5644381063757464e-05, -2.702535084608826e-06, 3.142973582725972e-05], [-9.428876523998042e-07, 1.2040840147165e-07, -3.166317810610053e-06, 2.1695811938116094e-06, -0.01418286468833685, 4.155954229645431e-06, -0.005352424457669258, -0.0157646331936121, 1.6921206906772568e-06, 7.2774168984324206e-06, 9.6842666152952e-07, 8.419489859079476e-06, -3.615176410676213e-06, -0.00012919501750729978, -4.359013018984115e-06, 7.630004574821214e-07, -5.483938707584457e-07, 0.017777718603610992, 0.01877051778137684, 0.019241290166974068, 0.014741344377398491, 0.010585176758468151, -5.311891300152638e-07, 1.4464932291957666e-06, 4.9195100473298226e-06, -2.61351232211382e-07, -0.01665502041578293, 1.884431071630388e-06, -7.8262593888212e-05, 1.3020164146837487e-07, -8.574867251809337e-07, 6.09133962825581e-07, 0.004388229921460152, 1.87885198101867e-05, 1.7855381884146482e-06, -1.4519187061523553e-05, -9.764243259269278e-06, 5.353911546990275e-06, -3.1863980893831467e-06, -2.789916834444739e-05, 0.016410809010267258, 3.01959335047286e-05, -0.019904078915715218, 0.019413011148571968, -1.583878110977821e-05, 1.5621350257788436e-06, -3.057618596358225e-05, -0.007986150681972504, 6.033522822690429e-06, 0.013352690264582634, -1.7097522686526645e-06, 2.0845627659582533e-05, -6.791735359001905e-06, 3.498293153825216e-05, -8.645477464597207e-06, -7.91049296822166e-06, -7.641850743311807e-07, -2.2205211280379444e-05, 5.5901809901115485e-06, 5.480811068991898e-06, -0.019505232572555542, -0.021134329959750175, 9.591872185410466e-07, -7.672504125366686e-07, 7.015187293291092e-07, 6.803899395890767e-06, 0.015868691727519035, 0.016497835516929626, -0.02243031933903694, -0.017039010301232338, -1.1127040266956101e-07, -1.5507417629123665e-05, 1.3488178183251875e-06, 8.684831300342921e-06, -0.00024136019055731595, -6.161094461276662e-06, -4.843430360779166e-06, 1.700199572951533e-05, -5.438581865746528e-06, 0.020532749593257904, 1.2842756405007094e-06, 6.731466442033707e-07, -0.014085953123867512, 1.2759853234456386e-05, -0.006047735456377268, -1.5431281781275175e-06, -1.5077675016073044e-05, 3.68453620467335e-05, 9.29929697690568e-08, 0.01598968915641308, -2.9558801543316804e-05, -1.4093186109676026e-05, -0.005596298258751631, 9.169605164061068e-07, -0.013452324084937572, -2.4357816528208787e-06, -0.013066048733890057, 5.786962901765946e-06, -8.215783964260481e-06, -2.2380181690095924e-06, 0.014712858013808727, 3.3256983442697674e-05, -5.220035177444515e-07, 4.817980880034156e-06, -0.0001442743669031188, -2.6953048291034065e-05, -2.596282138256356e-05, -3.63508406735491e-05, -0.01459069736301899, -4.289960543246707e-06, -7.67755409469828e-06, -0.016412321478128433, -5.240935934125446e-07, -3.9760689674039895e-07, 1.2508314284787048e-05, 2.846848474291619e-06, -0.005771277472376823, 9.598598808224779e-06, -2.32477377721807e-05, 0.011742021888494492, -9.030807632370852e-06, -1.2939844054926652e-05, 1.5758730569359614e-06, -2.0854697879713058e-07, -5.635057732433779e-06, -0.022374510765075684, -9.690191291156225e-06, 4.833541424886789e-06], [0.013156815432012081, -0.01117134653031826, 0.02074827067553997, -0.03408195823431015, 0.00906518567353487, -0.02956385537981987, 0.020572014153003693, 0.013136271387338638, 0.03840605542063713, -0.01954434998333454, 0.042939066886901855, -0.03951261192560196, 0.037602730095386505, 0.04650979861617088, 0.020335733890533447, -0.028011130169034004, 0.033457931131124496, -0.013349735178053379, -0.013489910401403904, -0.010695085860788822, -0.008796739391982555, -0.019404495134949684, 0.013508054427802563, -0.02929004840552807, -0.06427229195833206, -0.022991647943854332, 0.009748255833983421, -0.025102203711867332, 0.04552869126200676, -0.021364713087677956, 0.02316741645336151, -0.031821347773075104, -0.0322846882045269, -0.0415387898683548, -0.017302099615335464, -0.0530196838080883, 0.02444423921406269, -0.02393724024295807, 0.013411945663392544, 0.0249702837318182, -0.011392984539270401, -0.019384073093533516, 0.00918431207537651, -0.0062824576161801815, -0.03878641873598099, -0.04656946659088135, 0.055451907217502594, 0.014289665035903454, 0.018179569393396378, -0.011707939207553864, 0.029575536027550697, -0.04564448073506355, 0.02457392029464245, -0.025867747142910957, 0.046122416853904724, 0.01597760058939457, 0.036922335624694824, -0.011706690303981304, 0.08105633407831192, -0.012064647860825062, 0.012608088552951813, 0.011241404339671135, 0.02403864823281765, -0.021992530673742294, 0.05220666527748108, -0.018901944160461426, -0.014337940141558647, -0.008602757006883621, 0.011479508131742477, 0.013056444935500622, -0.010437531396746635, -0.04720597714185715, -0.03165244311094284, -0.0408313050866127, 0.03556007891893387, 0.032904740422964096, 0.013724684715270996, -0.06051047891378403, 0.02554299309849739, -0.01131446287035942, 0.028198184445500374, 0.016199462115764618, 0.01826467365026474, -0.013440672308206558, 0.021267222240567207, 0.02582678757607937, 0.049721669405698776, -0.04564293101429939, 0.023403186351060867, -0.01735059916973114, 0.038519058376550674, 0.02550000511109829, 0.019486216828227043, -0.030017109587788582, 0.016909362748265266, -0.04074207693338394, 0.006929186638444662, -0.02637534774839878, 0.051092468202114105, 0.016161590814590454, -0.00952585507184267, -0.04838550463318825, 0.02190062403678894, -0.025590967386960983, 0.03436221182346344, -0.042643953114748, 0.026098988950252533, 0.04972579702734947, 0.011955318972468376, 0.028834104537963867, 0.02446824684739113, 0.0146286366507411, 0.023958781734108925, -0.0135836536064744, 0.05120185390114784, 0.01429835520684719, 0.0221994761377573, -0.026973906904459, 0.02584989182651043, -0.011484119109809399, 0.026790902018547058, -0.04930936172604561, 0.034240275621414185, 0.021834764629602432, 0.02692999877035618, 0.013048438355326653, 0.04521116614341736, -0.059863653033971786], [0.04459661617875099, -0.03212307021021843, 0.019632194191217422, -0.035979606211185455, 0.0061557115986943245, -0.040064506232738495, 0.02166549302637577, 0.013146699406206608, 0.05355175957083702, -0.03228457272052765, 0.0554143451154232, -0.052172888070344925, 0.04866526275873184, 0.026694580912590027, 0.03739018738269806, -0.05099207162857056, 0.04180505871772766, -0.007140791043639183, -0.010488195344805717, -0.006213364191353321, -0.007848934270441532, -0.014049080200493336, 0.039181020110845566, -0.045049529522657394, -0.04516053572297096, -0.03472965210676193, 0.005349806509912014, -0.03824518620967865, 0.03363382816314697, -0.03519747778773308, 0.03894346207380295, -0.03800713270902634, -0.034398071467876434, -0.040516383945941925, -0.021059470251202583, -0.048634812235832214, 0.03088279254734516, -0.03309972584247589, 0.03448701649904251, 0.03683050721883774, -0.011849181726574898, -0.03706152364611626, 0.0051772273145616055, -0.0044168285094201565, -0.04507669061422348, -0.0294069591909647, 0.060056354850530624, 0.012848282232880592, 0.03498831391334534, -0.005821897182613611, 0.04542480409145355, -0.04233924299478531, 0.03474242612719536, -0.03278328478336334, 0.041726239025592804, 0.02842048555612564, 0.06184491887688637, -0.03314530476927757, 0.05563126504421234, -0.02668510377407074, 0.005749963223934174, 0.009785911999642849, 0.04448380321264267, -0.028352132067084312, 0.04777541756629944, -0.03585049882531166, -0.011979721486568451, -0.009562653489410877, 0.0066991583444178104, 0.006131317000836134, -0.017673805356025696, -0.04383186623454094, -0.025714704766869545, -0.06474251300096512, 0.040560465306043625, 0.02594808302819729, 0.035973209887742996, -0.04380711540579796, 0.04207945242524147, -0.007161776535212994, 0.03992871567606926, 0.022650685161352158, 0.01393040083348751, -0.04135015979409218, 0.020150423049926758, 0.034879155457019806, 0.039967697113752365, -0.0490274578332901, 0.03813008591532707, -0.017485225573182106, 0.038058970123529434, 0.033994149416685104, 0.010923746973276138, -0.04278716817498207, 0.01295501459389925, -0.03540420904755592, 0.006847837474197149, -0.03884533792734146, 0.054907266050577164, 0.017241165041923523, -0.009124335832893848, -0.04672211408615112, 0.037200041115283966, -0.0351441353559494, 0.03584560006856918, -0.05317284166812897, 0.035058293491601944, 0.03633226454257965, 0.013226069509983063, 0.032228898257017136, 0.036584798246622086, 0.011275829747319221, 0.027701064944267273, -0.02487003616988659, 0.04311247915029526, 0.02229202166199684, 0.011517376638948917, -0.02407645992934704, 0.03164778649806976, -0.007355453912168741, 0.03160707652568817, -0.027511656284332275, 0.06154288724064827, 0.02918500266969204, 0.03530420735478401, 0.00478384830057621, 0.0409012995660305, -0.049999698996543884], [-0.0001953433675225824, 0.00038024995592422783, -0.0008831777959130704, 0.018534401431679726, -0.004654574673622847, 0.00013693710207007825, -0.020600013434886932, -0.012276207096874714, -0.037393078207969666, 0.0007908213301561773, -0.01883021928369999, 0.024825753644108772, -0.008912221528589725, -0.04368915408849716, -0.004198557697236538, 0.0016054477309808135, -9.453526581637561e-05, 0.007308849599212408, 0.004967674612998962, 0.0031007796060293913, 0.005822882056236267, 0.009726036339998245, -0.003019244410097599, 6.12748772255145e-05, 0.04736882448196411, 0.0017913837218657136, -0.0033944204915314913, 0.0002121106517734006, -0.032238516956567764, 0.0016007735393941402, -0.00386226549744606, 0.0016510970890522003, 0.024294301867485046, 0.03850584477186203, 0.004576453007757664, 0.03031446412205696, -0.0055924830958247185, 0.006336173042654991, -0.012121415697038174, -0.0064324988052248955, 0.010296065360307693, 0.00746343657374382, -0.006487718317657709, 0.0029277103021740913, 0.03242743760347366, 0.0318390354514122, -0.03337953984737396, -0.009156707674264908, -0.025860287249088287, 0.006747810635715723, -0.00027143702027387917, 0.012351765297353268, -0.001368218450807035, 0.009366125799715519, -0.018110426142811775, -0.004115329124033451, -0.023856081068515778, 0.010739530436694622, -0.0399792455136776, 0.00011279471800662577, -0.005754697602242231, -0.00824554730206728, -0.0025495467707514763, 0.0016433140262961388, -0.031139817088842392, 0.00040520087350159883, 0.0050745438784360886, 0.006933620665222406, -0.006411081179976463, -0.007078708149492741, 0.00031222993857227266, 0.02475830167531967, 0.009061292745172977, 0.00539973471313715, -0.02549738623201847, -0.006721308920532465, -0.0016679635737091303, 0.0408744253218174, -0.00015587973757646978, 0.008125518448650837, -0.0032615908421576023, -0.004269271157681942, -0.007023828569799662, 0.010400805622339249, -0.015214378014206886, -0.0016068856930360198, -0.018811365589499474, 0.034664276987314224, -4.9330959882354364e-05, 0.01488430891185999, -0.018077027052640915, -0.012012287974357605, -0.01153832022100687, 0.004188131541013718, -0.006074950098991394, 0.01152093056589365, -0.006501015275716782, 0.00043160715722478926, -0.012843180447816849, -0.002268532058224082, 0.007064265664666891, 0.030506568029522896, -0.00469373632222414, 0.0008366836700588465, -0.020346462726593018, 0.023884713649749756, -0.004369490314275026, -0.0220616664737463, -0.009303919039666653, -0.028696415945887566, -0.004083817359060049, -0.00915579404681921, -0.0023270940873771906, 0.00020447932183742523, -0.028169769793748856, -0.004477955400943756, -0.008541842922568321, 0.0010190323228016496, -0.0033914893865585327, 0.0062449281103909016, -0.00693594291806221, 0.03042946197092533, -0.004746098071336746, -0.001028511207550764, -0.0028448242228478193, -0.0069671692326664925, -0.025547167286276817, 0.04875478893518448], [-3.9711508179607335e-06, 5.770344614575151e-06, -8.336197083735897e-07, 1.4830020518274978e-05, -0.043857675045728683, 7.389974143734435e-06, -0.016577495262026787, -0.034710876643657684, -2.176944508391898e-05, 2.111059529852355e-06, 1.3298406429385068e-06, 1.0166090760321822e-05, -3.860643846564926e-05, -0.005282633006572723, -4.916592843073886e-06, -2.610003093650448e-07, -5.899538564335671e-07, 0.04420818015933037, 0.019133372232317924, 0.04911048710346222, 0.030851412564516068, 0.028212303295731544, -7.105955319275381e-06, 2.19271987589309e-06, 1.6588850485277362e-05, -2.6107682060683146e-07, -0.043830811977386475, 2.4113919607771095e-06, -0.003618276445195079, 6.295638854680874e-07, -1.4389248690349632e-06, -1.2912946267817915e-08, 0.019676120951771736, 0.00011177691339980811, 1.207323293783702e-06, 2.9204335078247823e-05, -2.398233482381329e-05, 6.528352514578728e-06, -1.7832031517173164e-05, -2.757490256044548e-05, 0.04253850877285004, 1.4300683687906712e-05, -0.04253079742193222, 0.046611715108156204, 3.063178155571222e-05, 2.2921669369679876e-05, 3.489071241347119e-05, -0.038080792874097824, -1.7723987184581347e-05, 0.045897021889686584, -4.5041568341730454e-07, 2.0296301954658702e-05, -1.0271067367284559e-05, 5.230224815022666e-06, 2.5090945200645365e-05, -1.3686930060430313e-06, -2.225195203209296e-05, -1.2953843224750017e-06, -6.307195235422114e-06, 1.5593921034451341e-06, -0.027340423315763474, -0.03441203758120537, -3.418765345486463e-06, 1.5290864894268452e-06, -1.3553210919781122e-05, 6.701622169202892e-06, 0.04688047617673874, 0.04251285269856453, -0.04003534093499184, -0.04126909747719765, 2.1831910146374867e-07, 1.223754907186958e-06, 2.155065430997638e-06, 6.430490202546935e-07, -0.004584818612784147, 3.2437847039545886e-06, -2.566938974268851e-06, 4.052287113154307e-05, -5.132270416652318e-06, 0.03989415243268013, -2.5109813577728346e-05, -2.9584020921902265e-06, -0.0282791405916214, 9.590025001671165e-06, -0.014164461754262447, -1.8578563185656094e-06, 3.300512503301434e-07, 5.473235887620831e-06, -5.87805652685347e-06, 0.0272383876144886, -1.4099264262767974e-06, -3.6503558931144653e-06, -0.02185322716832161, 5.420140041678678e-06, -0.02709915302693844, -2.6454918042873032e-05, -0.04413292557001114, 4.748746050609043e-06, -8.50247852213215e-06, -6.400609890988562e-06, 0.039759956300258636, 4.111651287530549e-05, -1.3869798749510664e-05, 3.672665371823314e-08, -0.013994759880006313, 1.0269501217408106e-05, -4.316607828513952e-06, -2.3182743461802602e-05, -0.033883702009916306, 1.4835393358225701e-06, -8.651496159473027e-07, -0.053590141236782074, -3.612157684074191e-07, 1.2590450069183134e-06, -2.108565968228504e-05, -1.5151226762100123e-07, -0.026580527424812317, 1.6706775340935565e-06, 4.7298431127273943e-07, 0.03442174568772316, -1.437337323295651e-05, 0.0001009193729260005, -1.7129214029409923e-06, 7.027820743132907e-07, 6.300439054029994e-06, -0.044749099761247635, -1.2233661436766852e-05, 5.731053533963859e-07], [-8.80402922120993e-07, -8.54666026839368e-08, 3.841445845864655e-07, -1.6603119092906127e-06, -2.8765463866875507e-05, 2.1255470983305713e-06, -0.0001463264925405383, 0.00010760442091850564, -2.2313048248179257e-05, 7.926144718339856e-08, 1.7049671441782266e-05, -2.74560534307966e-05, 1.3933042282587849e-05, -2.7123628569825087e-06, -7.509591796406312e-06, 1.1783487252614577e-06, 8.638036774755165e-08, 0.00025638972874730825, 0.00014838599599897861, 5.482578853843734e-05, 0.0017897216603159904, 0.0007451821584254503, 1.5907156694083824e-06, 1.007405998620925e-07, 1.5472488712475752e-06, -4.6240666051744483e-07, -0.0010252718348056078, 1.994294080986947e-07, -9.980359754990786e-05, 6.205679028425948e-07, -1.601737858436536e-05, -9.752513960847864e-07, 6.027853669365868e-05, 1.1351320608810056e-05, 2.3938196136441547e-06, -3.377210532562458e-06, -1.906909528770484e-05, -1.8263262973050587e-05, -8.427194188698195e-06, 1.0308165201422526e-06, 6.034688340150751e-05, -1.7849080222731573e-06, -0.0008774998132139444, 6.985070649534464e-05, 4.871333203482209e-06, 2.2174515834194608e-05, -5.539453923120163e-06, -3.622114672907628e-05, 2.4356444555451162e-05, 0.0005503551801666617, -4.958725412507192e-07, 2.4509117793058977e-05, -2.9095863283146173e-06, 2.431186430840171e-06, -1.7530341210658662e-05, -2.336909574296442e-06, 3.1881745599093847e-06, -8.73583212523954e-06, -5.777070327894762e-06, 1.3087163779346156e-06, -0.0007076672045513988, 3.510421811370179e-05, 5.557606641559687e-07, 1.0858276482395013e-06, -6.427766265915125e-07, 7.780263899803685e-07, 0.00020560166740324348, -0.00010083938104799017, -0.0017194726970046759, -0.00047348422231152654, -7.138973501241708e-07, 1.5824187357793562e-05, 2.7927029577767826e-07, 1.8371070837019943e-05, 2.5189880034304224e-05, -2.24785617319867e-05, 2.1868261512736353e-07, -4.8757879085314926e-06, 9.589105047780322e-07, 0.0007422130438499153, 2.0360960206744494e-06, 7.79004767537117e-06, 3.7187775888014585e-05, 2.9500740765797673e-06, -0.0008681893814355135, 5.8856255691353e-07, -1.1717070265149232e-05, -7.661522431590129e-06, 7.77889397340914e-08, 3.525705687934533e-05, -1.0527038284635637e-05, -3.527847638906678e-06, 0.00012845358287449926, -2.017426794509447e-07, -3.5330624086782336e-05, 7.988313882378861e-06, -0.0006204189267009497, -3.982659677603806e-07, 8.87584747033543e-07, -1.7514981891508796e-06, -0.00011278501187916845, -2.5347111659357324e-05, -1.8268051462655421e-06, 1.2977336609765189e-06, -1.9893324861186557e-05, 3.263100006734021e-05, 1.7991520451232645e-07, 2.3899705411167815e-05, 1.717377563181799e-05, -1.192270360661496e-06, -9.717563443700783e-06, -0.0016253013163805008, -3.1489803404838312e-06, -9.276222385778965e-07, 1.3397841939877253e-05, -2.1880509848415386e-06, 7.891221321187913e-05, 5.857905875927827e-07, -1.0759852557384875e-05, 0.003983994014561176, -9.599802069715224e-06, 3.5981905966764316e-05, -3.7633508327417076e-06, -5.0198433854120594e-08, 6.528248377435375e-06, -0.0008798264316283166, -7.257989182107849e-06, -8.717638593225274e-06], [-3.578920768632088e-06, 8.212570037358091e-07, -1.7551770952195511e-06, 1.6911635611904785e-05, -0.013668177649378777, -5.323692064962415e-08, -0.018672145903110504, -0.017866550013422966, -2.2818101570010185e-05, 9.852248012975906e-07, -1.9172921383869834e-05, 3.366130113136023e-05, -2.734564259299077e-05, -0.009189733304083347, -4.7150870159384795e-06, 3.825672138191294e-06, -6.6696743488137145e-06, 0.018375109881162643, 0.021733876317739487, 0.019714292138814926, 0.023814497515559196, 0.01917361468076706, -3.4450040402589366e-06, 1.9030592284252634e-06, 1.3712288819078822e-05, 6.8936678871978074e-06, -0.020847775042057037, 1.0103002523464966e-06, -0.014092238619923592, -9.829296914176666e-07, -1.0580639354884624e-05, 1.462381533201551e-06, 0.016583051532506943, 2.8935004593222402e-05, -1.0036800404122914e-06, -2.6075758796650916e-05, -7.806849680491723e-06, 5.734658770961687e-06, -3.611779538914561e-05, -1.801228972908575e-05, 0.022055121138691902, 2.1767180442111567e-05, -0.018505502492189407, 0.014779353514313698, 1.973603320948314e-05, 3.240067599108443e-05, -2.1423759335448267e-06, -0.016468167304992676, 1.3941022189101204e-05, 0.01776662841439247, 1.0592093868666552e-09, 7.949165592435747e-06, 1.129801034949196e-06, 4.218460526317358e-05, -1.5324869309552014e-05, -1.0260293493047357e-05, -2.957406195491785e-06, 1.9990258806501515e-05, -2.5761619326658547e-05, 2.667307626325055e-06, -0.013839644379913807, -0.021135644987225533, -3.758613502213848e-06, -1.0168228072870988e-06, -1.1862321116495878e-05, -1.407802443509354e-07, 0.023505976423621178, 0.017979124560952187, -0.02265808917582035, -0.02233206294476986, 7.388301582977874e-06, 1.4218459227777203e-06, 6.792292310819903e-07, 1.814840652514249e-05, -0.0066348179243505, -1.280943070014473e-05, -1.4021209153725067e-06, 1.6518594065928482e-06, 1.2451737063656765e-07, 0.023454010486602783, 1.554158757244295e-06, -4.0828194869391154e-06, -0.015925614163279533, -2.0143057554378174e-05, -0.019084786996245384, -2.6993061510438565e-06, -4.318242281442508e-05, -1.2621662790479604e-06, 1.0159882890548033e-07, 0.021675199270248413, -7.460645520040998e-06, 2.3154721020546276e-06, -0.0162378940731287, 1.2949359415870276e-06, -0.01717665046453476, -1.605994157216628e-06, -0.016823451966047287, 6.597621904802509e-06, -1.7106507357311784e-06, -8.385612773054163e-07, 0.024361226707696915, 2.1159639800316654e-05, -1.87743876267632e-06, 5.932353815296665e-06, -3.426371768000536e-05, 1.0254368135065306e-05, -5.3505386858887505e-06, -2.054527612926904e-05, -0.020001409575343132, -7.1619238042330835e-06, -7.77876175561687e-06, -0.01429852657020092, -2.8319977900537197e-06, -1.1122195076040953e-07, -7.458648724423256e-06, 2.4111118364089634e-06, -0.01724747009575367, 3.7710296396653575e-07, -2.6178765892836964e-06, 0.02344769611954689, -1.333450109086698e-05, -0.00018933186947833747, -6.880006822029827e-07, 6.620157932957227e-07, -2.881762702600099e-05, -0.022124284878373146, -6.875388407934224e-06, 4.911322321277112e-06], [0.12498592585325241, -0.13367676734924316, 0.14356987178325653, -0.10304342210292816, 0.022460611537098885, -0.12236575037240982, 0.04812180995941162, 0.03764094039797783, 0.0961499959230423, -0.13556653261184692, 0.10956837236881256, -0.0910123959183693, 0.08911439776420593, 0.049383699893951416, 0.1242772564291954, -0.11838697642087936, 0.11760397255420685, -0.029323136433959007, -0.022451480850577354, -0.016230061650276184, -0.025667620822787285, -0.03297801315784454, 0.11888100206851959, -0.12384625524282455, -0.08773698657751083, -0.1241520568728447, 0.018484951928257942, -0.12274628132581711, 0.0639035776257515, -0.11853771656751633, 0.10659603029489517, -0.11895181238651276, -0.0642450749874115, -0.07956605404615402, -0.12561143934726715, -0.09531981498003006, 0.13472801446914673, -0.13116465508937836, 0.11883051693439484, 0.1042184978723526, -0.025291074067354202, -0.11554691940546036, 0.015985434874892235, -0.011654744856059551, -0.08804584294557571, -0.09050837904214859, 0.10027580708265305, 0.028931479901075363, 0.09829732030630112, -0.021304858848452568, 0.1263977289199829, -0.09696535766124725, 0.13232575356960297, -0.12045494467020035, 0.09600868821144104, 0.10815183818340302, 0.08239711821079254, -0.1261364072561264, 0.06084517017006874, -0.12565265595912933, 0.017119968309998512, 0.023326188325881958, 0.12054743617773056, -0.12699377536773682, 0.0963001549243927, -0.14413794875144958, -0.021945267915725708, -0.017632311210036278, 0.013276137411594391, 0.024135300889611244, -0.14486448466777802, -0.09513381123542786, -0.11690323799848557, -0.09679010510444641, 0.07029525190591812, 0.1302652209997177, 0.12285185605287552, -0.09215952455997467, 0.12402521073818207, -0.022431710734963417, 0.10536854714155197, 0.13583235442638397, 0.040676359087228775, -0.11604895442724228, 0.04972626641392708, 0.13400816917419434, 0.10895105451345444, -0.08754393458366394, 0.12797413766384125, -0.04575502499938011, 0.09743771702051163, 0.12099049985408783, 0.03787891939282417, -0.11432110518217087, 0.02877338044345379, -0.10270461440086365, 0.017886489629745483, -0.12681256234645844, 0.09843786060810089, 0.1268557757139206, -0.022465622052550316, -0.0934198647737503, 0.12004818767309189, -0.12152301520109177, 0.048992812633514404, -0.14858625829219818, 0.11615610122680664, 0.08881470561027527, 0.03339563310146332, 0.10658379644155502, 0.11003994196653366, 0.01521377731114626, 0.13021719455718994, -0.13137894868850708, 0.08599817007780075, 0.12845836579799652, 0.035660188645124435, -0.12848815321922302, 0.1287919133901596, -0.022127537056803703, 0.1263498067855835, -0.07785790413618088, 0.10586684942245483, 0.12339799851179123, 0.11983157694339752, 0.009494910947978497, 0.09365549683570862, -0.08158759027719498], [-0.11548594385385513, 0.11671677976846695, -0.13475418090820312, 0.09685349464416504, -0.01887357421219349, 0.11553049832582474, -0.069054014980793, -0.02422480098903179, -0.08886350691318512, 0.12454907596111298, -0.09415459632873535, 0.08136940747499466, -0.10152141004800797, -0.04172797501087189, -0.12232844531536102, 0.11145588755607605, -0.11382798850536346, 0.027438664808869362, 0.0201650969684124, 0.012457706965506077, 0.015898646786808968, 0.027275055646896362, -0.11280997097492218, 0.11123195290565491, 0.062438663095235825, 0.11716371029615402, -0.016220737248659134, 0.11788633465766907, -0.05561315268278122, 0.1220817044377327, -0.11583682149648666, 0.12174701690673828, 0.04116702452301979, 0.06581490486860275, 0.13215754926204681, 0.07969255745410919, -0.09658516943454742, 0.09094373881816864, -0.1037687361240387, -0.10075543075799942, 0.031432896852493286, 0.12634196877479553, -0.012579820118844509, 0.010089282877743244, 0.09021711349487305, 0.06319847702980042, -0.07800161093473434, -0.02844667248427868, -0.10751945525407791, 0.013813745230436325, -0.11399248987436295, 0.07590489089488983, -0.11925487965345383, 0.11984312534332275, -0.08185505867004395, -0.12098532170057297, -0.0750720351934433, 0.10218469798564911, -0.07205900549888611, 0.12525543570518494, -0.018910974264144897, -0.018208960071206093, -0.1115117073059082, 0.12210674583911896, -0.09752964973449707, 0.1320100873708725, 0.018937747925519943, 0.014710395596921444, -0.018945738673210144, -0.015144198201596737, 0.12021851539611816, 0.07640712708234787, 0.10945209115743637, 0.13326489925384521, -0.07369401305913925, -0.11099518090486526, -0.12155530601739883, 0.07215859740972519, -0.12248482555150986, 0.02180880680680275, -0.1137736514210701, -0.11010203510522842, -0.028450867161154747, 0.1161462813615799, -0.04266520217061043, -0.10263153165578842, -0.08623656630516052, 0.08586687594652176, -0.1277666538953781, 0.03069857321679592, -0.08973083645105362, -0.10823129117488861, -0.03956953436136246, 0.11161421239376068, -0.03015165403485298, 0.09797763079404831, -0.010863292962312698, 0.11358501017093658, -0.10484550148248672, -0.13874885439872742, 0.0293832216411829, 0.1008572205901146, -0.10665775835514069, 0.11021532863378525, -0.04853905737400055, 0.0714547261595726, -0.11307797580957413, -0.09159339219331741, -0.0312914103269577, -0.09164133667945862, -0.11711769551038742, -0.01513910386711359, -0.12699145078659058, 0.13057297468185425, -0.08014162629842758, -0.11601845175027847, -0.02987619861960411, 0.1144426167011261, -0.10469222068786621, 0.023235008120536804, -0.11087096482515335, 0.09591654688119888, -0.1041334941983223, -0.12427563220262527, -0.11518897116184235, -0.009591430425643921, -0.09049463272094727, 0.06650523096323013], [3.7870875075896038e-06, -1.9497445009619696e-06, 3.401286008397619e-08, 9.698226676846389e-06, 0.009598740376532078, 5.242786755843554e-07, 0.003929761238396168, 0.007080299314111471, 1.1104288205388002e-05, -4.391846687212819e-06, 1.694494676485192e-05, -2.2698231987305917e-05, 9.171839337795973e-06, 4.2604833652148955e-06, -8.897707175492542e-07, 8.327103842020733e-07, -8.856712270244316e-07, -0.018002374097704887, -0.014217733405530453, -0.017671585083007812, -0.018578941002488136, -0.011301071383059025, 6.835417934780708e-06, -5.470433279697318e-07, -3.989416200056439e-06, 2.4505501627913873e-08, 0.018687129020690918, -1.5389854013392323e-07, 9.774974387255497e-06, 4.985358827980235e-07, -1.3698215752810938e-06, -2.676312078619958e-06, 0.00012351128680165857, 1.902447002066765e-05, -4.490817900659749e-06, -3.504888809402473e-05, 1.599095412530005e-05, -2.0930424682319426e-07, 2.1621573978336528e-05, 2.568527816038113e-05, -0.017830101773142815, -4.096824795851717e-06, 0.02333717793226242, -0.017132606357336044, 1.6762090808697394e-06, -2.3609271011082456e-05, 1.0847501471289434e-05, 0.018486542627215385, -9.388517355546355e-06, -0.020530926063656807, 2.649285761435749e-06, -1.2295890883251559e-05, 5.51926086700405e-06, -1.2601639355125371e-05, -3.968925284425495e-06, 1.2440191312634852e-05, 1.2948781659360975e-05, -1.9333656382514164e-05, -9.998586847359547e-08, 7.905372854111192e-07, 0.01088945847004652, 0.017873888835310936, 1.7738917676979327e-06, -2.8697656944132177e-06, 7.88787474448327e-06, 4.65872119548294e-07, -0.015483012422919273, -0.020046254619956017, 0.013803447596728802, 0.020207930356264114, -3.4798035812855233e-06, -1.3040818885201588e-05, -4.769725364894839e-06, 5.1070114750473294e-06, 3.408683551242575e-05, 1.3380007658270188e-05, 5.807080015074462e-06, 1.8046579498331994e-05, 3.574650691007264e-07, -0.015691682696342468, 9.463486094318796e-06, 3.716951596288709e-06, 0.008443459868431091, 2.532657526899129e-05, 0.005651130340993404, 1.0346776662117918e-06, 3.841004399873782e-06, 4.995795848117268e-07, 2.4206447051255964e-06, -0.011926110833883286, 1.4599359019484837e-05, 5.49171318198205e-06, 0.004415702540427446, -1.3478806977218483e-06, 0.012536846101284027, -2.383058745181188e-05, 0.022115686908364296, -1.7159113667730708e-06, -1.8756298231892288e-05, 3.617201628003386e-06, -0.01686725951731205, -3.279761949670501e-05, -4.325131612858968e-06, -6.701878305648279e-07, 3.4330712423980003e-06, 3.0082124794716947e-05, -3.6281567190599162e-06, 3.820990241365507e-05, 0.010007492266595364, 2.343309233765467e-06, -6.315617042673694e-07, 0.01844603754580021, 1.4334696061268914e-06, -8.154936949722469e-06, -1.6132096789078787e-05, 5.497836355061736e-07, 0.011250913143157959, -5.233794695413962e-07, -9.724687970447121e-07, -0.019843200221657753, 6.076356385165127e-06, -0.00011771361459977925, 4.331695436121663e-06, 1.0512091108694221e-07, 3.441926310188137e-06, 0.025228086858987808, 1.3671429769601673e-05, -2.1448975530802272e-05], [0.0014263850171118975, -0.001813069568015635, 8.27495168778114e-05, -0.008428449742496014, 0.006390613038092852, -0.0011263849446550012, 0.014951387420296669, 0.007063163444399834, 0.008241009898483753, -0.0015643076039850712, 0.005843670107424259, -0.018242428079247475, 0.022276557981967926, 0.026723258197307587, 0.0026616102550178766, -0.001676372718065977, 0.0009808220202103257, -0.006677914876490831, -0.006071755196899176, -0.004748461302369833, -0.00875347200781107, -0.013065691106021404, 0.0033570011146366596, -0.0008243542397394776, -0.009103989228606224, -0.001885871635749936, 0.0020998292602598667, -0.001100327237509191, 0.017094558104872704, -0.0016833601985126734, 0.002986941020935774, -0.0010668550385162234, -0.017628712579607964, -0.01624201238155365, -0.0018541461322456598, -0.01002651359885931, 0.005839856341481209, -0.005540154408663511, 0.0075899213552474976, 0.005275312345474958, -0.005553793627768755, -0.00502141285687685, 0.0030325083062052727, -0.004420877434313297, -0.010313383303582668, -0.022283488884568214, 0.012849820777773857, 0.0061039975844323635, 0.010826436802744865, -0.004628877155482769, 0.0014211387606337667, -0.013802760280668736, 0.0016863790806382895, -0.009034356102347374, 0.008001413196325302, 0.004404108971357346, 0.009414901956915855, -0.006283941213041544, 0.014885295182466507, -0.0012458872515708208, 0.0042681316845119, 0.003934712614864111, 0.0021939536090940237, -0.0017629348440095782, 0.012097401544451714, -0.0009292062022723258, -0.003695423249155283, -0.0035513013135641813, 0.004124116152524948, 0.0038129265885800123, -0.0001977211213670671, -0.01200082153081894, -0.007135068066418171, -0.0027618419844657183, 0.015648923814296722, 0.007322672288864851, 0.0018503597239032388, -0.010672321543097496, 0.0010010991245508194, -0.006024067755788565, 0.003869937965646386, 0.004094412084668875, 0.008312107063829899, -0.005343674682080746, 0.010808038525283337, 0.0033104948233813047, 0.008318975567817688, -0.012454453855752945, 0.0007007233216427267, -0.008444691076874733, 0.009759847074747086, 0.0074593136087059975, 0.007250811904668808, -0.0006739880191162229, 0.0058194356970489025, -0.010704750195145607, 0.0032986304722726345, -0.001287431688979268, 0.008080556988716125, 0.0015563415363430977, -0.006338892504572868, -0.014148835092782974, 0.004705361090600491, -0.0015425742603838444, 0.02196446619927883, -0.018062124028801918, 0.00363482185639441, 0.00955158844590187, 0.008160975761711597, 0.010526599362492561, 0.00486686360090971, 0.0046593667939305305, 0.0013573071919381618, -0.0010870603146031499, 0.009078570641577244, 0.0036501530557870865, 0.00880519486963749, -0.002009032992646098, 0.004269908647984266, -0.0065260096453130245, 0.006178789306432009, -0.015451285988092422, 0.0037793884985148907, 0.0006797941750846803, 0.0025039047468453646, 0.003345119534060359, 0.006551934871822596, -0.012602035887539387], [-1.9678395801747683e-06, 4.319303116062656e-06, 3.2739890798438864e-07, 1.4741401173523627e-05, -3.1912339181872085e-05, 5.795296260657778e-07, -8.900092507246882e-05, -2.5629584342823364e-05, -2.0124272850807756e-05, 1.1109394790764782e-06, -2.1958700017421506e-05, 2.2186268324730918e-05, 2.0942645278410055e-05, -0.0001274934329558164, -2.053760181297548e-05, 4.982132395525696e-07, 5.883608764634118e-07, 0.00026023725513368845, 6.354912329697981e-05, -0.0009062527678906918, 8.560529386159033e-05, 0.0003268381697125733, -2.1133540940354578e-05, -2.700807613109646e-07, 4.001312390755629e-06, 6.071706138754962e-06, -0.0010747135384008288, 3.3303788313787663e-06, -0.00010320495493942872, -1.1735916132238344e-06, -3.9811370697862e-06, 2.1308576378942234e-06, 4.5854441850678995e-05, 2.4392407794948667e-05, 4.873581929132342e-06, 5.618514114758e-05, 8.30055523692863e-06, 5.2393547775864135e-06, -5.669779056916013e-06, -3.995444785687141e-06, 0.00013491889694705606, 1.7368080079904757e-05, 0.00022696064843330532, -0.0001217372264363803, 2.0289020540076308e-05, 3.0956175578467082e-06, -2.036985824815929e-05, -0.00023792835418134928, -1.4420666047954e-06, 4.531987724476494e-05, 4.6680932541676157e-07, 1.0157031283597462e-05, -4.122086465940811e-06, 1.624244305276079e-06, -1.7891668903757818e-05, -9.374251931149047e-06, -8.720555229047022e-07, 2.4779812520137057e-05, -8.233458174800035e-06, -4.144994534271973e-07, 0.0016213837079703808, -5.86021451454144e-05, -4.603568868333241e-06, 1.2035808083510346e-07, -1.301074576076644e-06, 2.798363766487455e-06, 0.0001866071397671476, -0.0001303656172240153, -0.00012667590635828674, -0.000279181229416281, 7.025150239314826e-07, 3.5046077755396254e-06, -5.4334069687911324e-08, 2.0286157450755127e-05, -5.248842171567958e-06, -4.148297648498556e-06, -2.4278913315356476e-06, 8.628664545540232e-06, -4.114807779842522e-06, 0.0002599853032734245, 9.303726073994767e-06, -3.031420783372596e-05, -0.0006225854158401489, 2.1020183339715004e-05, -7.753254612907767e-05, -3.7958743632771075e-06, -2.7523756216396578e-05, 2.9691896997974254e-05, -2.064439513560501e-06, 0.00016268070612568408, -1.705727117951028e-05, -4.863420144829433e-06, -8.912170596886426e-05, 1.7805042489271727e-06, -4.076010372955352e-05, -5.215907094680006e-06, 0.00025866422220133245, 2.020783085754374e-06, -7.601204288221197e-06, -1.119087187362311e-06, 6.104299245635048e-05, -1.0747422493295744e-05, -2.102994949382264e-05, 4.210181486996589e-06, 2.0297677110647783e-05, 2.550296630943194e-05, -1.8226799511467107e-05, 2.0992385543650016e-05, -2.27935361181153e-05, -9.016961485031061e-06, -2.242694972665049e-05, -7.668598118470982e-05, -4.652771963264968e-07, 6.886547453177627e-06, -4.873754733125679e-06, 9.874828492684173e-07, -5.258775854599662e-05, 2.2552630696281994e-07, -1.857645474956371e-05, 0.0006634084857068956, -1.7191989172715694e-05, -4.081868246430531e-05, -5.637769390887115e-06, -6.665533760497055e-07, -6.027848030498717e-06, 8.825244003674015e-05, -1.0155375093745533e-05, 2.2499365513795055e-05], [-1.600193968442909e-06, 2.747495727817295e-06, -1.4072882095206296e-06, 3.1915176805341616e-05, -0.0013266726164147258, 3.1197328098642174e-06, -0.0015129104722291231, -0.00131246040109545, -4.083973908564076e-05, 1.1433784266046132e-06, -1.7476504581281915e-05, 0.00010078658669954166, -2.5727782485773787e-05, -0.00034269169555045664, -1.5688205166952685e-05, 1.2649835298361722e-05, -2.677197016964783e-06, 0.0021125206258147955, 0.0013008475070819259, 0.002159462310373783, 0.006774206180125475, 0.003195294179022312, -8.09451739769429e-06, 6.756181846867548e-06, 3.108807868557051e-05, 7.28134239125211e-07, -0.0023159412667155266, 3.0727035209565656e-06, -0.0003490720991976559, 5.312982011673739e-06, -3.2630914574838243e-06, 4.559340595733374e-06, 0.0035985189024358988, 6.01309584453702e-05, 5.865269031346543e-06, 2.3407008484355174e-05, -3.862954599753721e-06, 3.3606761462579016e-06, 2.8233585908310488e-05, -4.3675690903910436e-06, 0.0016253424109891057, 3.952782208216377e-06, -0.0027984969783574343, 0.0030523294117301702, 2.087534812744707e-05, 2.839386615960393e-05, -2.963844053738285e-05, -0.0068867821246385574, -1.9270026314188726e-05, 0.0024540212471038103, -1.7989931393458392e-06, 3.3619995519984514e-05, -7.2321890911553055e-06, 1.0706196007959079e-05, -7.970176375238225e-05, -1.641678181840689e-06, -4.740762960864231e-05, 1.0282403309247456e-05, -2.5058452592929825e-05, 4.067681402375456e-06, -0.0022446594666689634, -0.00541335716843605, -5.572238933382323e-06, 5.156166025699349e-06, -3.064291149712517e-06, 7.045912752801087e-06, 0.005102926399558783, 0.0028859912417829037, -9.173580474453047e-05, -0.0019946855027228594, 5.7326392379764e-06, 0.0003576946910470724, -1.0618434771458851e-06, 2.5387232653883984e-06, -0.0010809630621224642, -8.943481475398585e-07, -1.8562956029199995e-05, 1.7102712490668637e-06, -1.4116558304522187e-06, 0.0028257137164473534, -1.62173109856667e-05, -1.6194584532058798e-05, -0.001887695281766355, 3.524769635987468e-05, -0.0019204661948606372, -1.2226942089910153e-06, -4.92922981720767e-06, 1.0797455615829676e-05, -1.0676779993445962e-06, 0.001956930849701166, -1.0230925909127109e-05, -1.632634121051524e-05, -0.0016810016240924597, 4.0128943510353565e-06, -0.004266216419637203, -1.5807677300472278e-06, -0.005098637659102678, 5.443442887553829e-07, -1.8969076336361468e-05, -2.212089839304099e-06, 0.0019315973622724414, 3.4343353036092594e-05, -1.6151272575370967e-05, 1.4511899735225597e-06, -0.00011956391244893894, 5.336405956768431e-05, -9.569434951117728e-06, -5.491252977662953e-06, -0.0018710464937612414, -3.925851615349529e-06, -4.0886527131078765e-05, -0.002597412094473839, -5.791340527139255e-07, 9.05291653907625e-06, -1.0209952051809523e-05, -7.984446710906923e-06, -0.00297532812692225, 2.065733724521124e-06, 1.4153943084238563e-06, 0.003962721675634384, -1.273034285986796e-05, -9.958563896361738e-05, -1.0457117696205387e-06, -2.4498795028193854e-06, -1.1685789104376454e-05, -0.003964013420045376, -2.286958260810934e-05, 2.6231256924802437e-05], [-3.8070737673479016e-07, 3.6306587389844935e-06, 1.6818798798112766e-08, 3.119905886705965e-05, -0.00030415577930398285, 7.676059112782241e-07, -0.0003046058991458267, -0.0014655357226729393, 5.97326743445592e-06, 5.1460092436173e-06, -1.5795631043147296e-05, 1.5683754099882208e-05, -2.497716195648536e-05, -0.00013477822358254343, -1.3037722055742051e-05, 3.123731858067913e-06, -1.7843119621829828e-06, 0.00028776429826393723, 0.0005992361693643034, 0.0002062826679321006, 0.00038234287058003247, 0.0020969940815120935, -1.4651677702204324e-05, 3.711899978497968e-07, 1.9164920104230987e-06, 1.313568736804882e-05, -0.0019961614161729813, 1.992935494854464e-06, -0.00010445056250318885, 3.984459908679128e-06, -4.910659299639519e-06, 6.398746563718305e-07, 2.327140282432083e-05, 0.00010327981726732105, 1.5673471352783963e-05, 6.702110840706155e-05, -2.4307773855980486e-06, 3.3906808312167414e-06, -7.47987860449939e-06, -2.417155155853834e-05, 0.0004272104997653514, 3.902447133441456e-05, -0.0006995127769187093, 0.0026642533484846354, 1.2333470294834115e-05, 2.4157299776561558e-05, -4.113643808523193e-05, -0.0006219029310159385, 7.673865184187889e-06, 0.0004998517106287181, -2.57562476235762e-07, 1.7283815395785496e-05, -3.8760069287491206e-07, -8.765089205553522e-07, -2.1613393982988782e-05, -1.2815688705813955e-06, -6.919893280610268e-07, 8.171957233571447e-06, -2.3222890376928262e-05, 7.365197234321386e-07, -0.0003685945994220674, -0.0009837705874815583, -2.200770722993184e-06, 4.236392669554334e-06, -2.842390131263528e-06, 3.5609921269497136e-06, 0.0007417324814014137, 0.0008706840453669429, -0.0006292832549661398, -0.0007096016779541969, 3.4609590784384636e-06, 5.667588266078383e-05, 1.9672074813570362e-07, 1.572977794239705e-06, -8.960830018622801e-05, -1.4727257621416356e-05, -1.3562990375248773e-07, 8.678814992890693e-06, -7.637004273419734e-07, 0.0010461522033438087, -3.5763085179496557e-05, -2.1419911718112417e-05, -0.0010263402946293354, 6.666576155112125e-06, -0.002617090241983533, -9.878234777715988e-06, -3.672384627861902e-05, 7.764140264043817e-07, -2.957617880383623e-06, -0.00010547829879214987, -4.3300638935761526e-05, -7.1857152761367615e-06, -0.003255455754697323, -2.874676852115954e-07, -0.0007393648265860975, 1.2984931345272344e-05, -0.0005608651554211974, 4.276274921721779e-06, -4.0237202483695e-05, -6.834590294602094e-06, 0.0013000565813854337, 2.2563612219528295e-05, -1.1078633178840391e-05, 1.0441290214657784e-06, 1.162242278951453e-05, -3.0947430786909536e-05, 7.361201710409659e-07, -9.801433407119475e-07, -0.000351107883034274, -6.512364052468911e-06, -4.682257440435933e-06, -0.0018563090125098825, -1.0146306976821506e-06, 6.886969003971899e-07, -5.0784974519046955e-06, 4.924891641167051e-07, -0.0002989445929415524, 3.037529950233875e-06, -7.26028645203769e-07, 0.0002676091971807182, 1.0338039828639012e-06, 4.377313598524779e-05, -5.858458280272316e-06, 2.57999232644579e-07, -1.678717671893537e-05, -0.003295219037681818, -1.3796459825243801e-05, 3.9366270357277244e-05], [-2.3215516193886288e-06, 2.436133172523114e-06, 3.956842533625604e-07, 2.8633361580432393e-05, 8.035204518819228e-05, -8.839774068292172e-07, 0.00023393315495923162, -8.350754796992987e-06, 1.2908510598208522e-06, 1.2786735226200108e-07, 1.064512525772443e-05, 2.441892138449475e-05, -2.0027764549013227e-05, -3.91648973163683e-05, 1.584071469551418e-06, -4.475293451378093e-07, -2.38435518440383e-06, -0.00010377406579209492, 0.00018209659901913255, 5.574087845161557e-05, -0.0003456331614870578, -5.4272342822514474e-05, -2.530646554532723e-07, 3.130176082777325e-06, 1.9541857909644023e-06, 1.0094779554492561e-06, 0.00024322631361428648, 9.008721804093511e-07, -2.5567924240021966e-05, 4.377943696454167e-06, -1.9426046549142484e-07, 3.7779414014948998e-06, 5.403808245318942e-05, -6.566295269294642e-06, -1.7920314121511183e-06, -1.5284138498827815e-05, 2.0174333258182742e-05, 1.3558563978222082e-06, -1.1587481822061818e-05, -2.6673928914533462e-06, 6.779954128433019e-05, -1.2282598618185148e-05, -7.774775440338999e-06, 0.002974369330331683, 1.6753157979110256e-05, 4.85700593344518e-06, 5.072139629191952e-06, -0.0004268861666787416, -2.0171801224933006e-06, -0.00034154034801758826, 1.8457876649335958e-06, -1.8358763327341876e-06, -1.5123625871638069e-06, 1.6885038348846138e-05, -1.791604699974414e-05, 1.1263776968917227e-06, -4.088151399628259e-06, 8.940672159951646e-06, 1.989469637919683e-06, -1.2251144880792708e-06, 0.0004228973120916635, -9.794022480491549e-05, 8.071369848039467e-07, -6.850260092505778e-07, 6.473132430073747e-07, 2.4946285748228547e-07, -2.4109072910505347e-05, 0.00023132831847760826, -7.794777047820389e-05, 1.9853910998790525e-05, -5.707682362299238e-07, 4.751945198222529e-06, 3.741141654245439e-06, 7.662325515411794e-06, 6.540914182551205e-05, -2.1950983864371665e-05, -3.0151827559166122e-06, 2.2408838049159385e-05, -2.4959963411674835e-06, -0.0010206385049968958, 1.0294077128492063e-06, -1.2924829206895083e-07, -5.6664652220206335e-05, 2.6177873223787174e-05, -0.0003480376326479018, 1.5484606592508499e-06, -1.0965095498249866e-05, 1.9566898117773235e-05, 1.74504435790368e-07, 4.758801878779195e-05, 2.377567216171883e-05, 2.922262638094253e-06, -0.0003053989203181118, 3.819218363787513e-07, -4.0149108826881275e-05, 8.04689625510946e-06, -0.00041862382204271853, 2.0102197595406324e-06, 4.500600425672019e-07, -9.654919495005743e-07, 7.351156818913296e-05, -9.188591320707928e-06, 1.9584981600928586e-06, 2.617946620375733e-06, -4.1234128730138764e-05, -8.909876669349615e-06, 2.881692353184917e-06, -2.3975744625204243e-05, -0.00043797853868454695, -9.59566023084335e-07, -1.790033707038674e-06, -5.9450670960359275e-05, -2.764955752354581e-06, -1.5471833876290475e-06, -3.506611392367631e-06, -1.0751169838840724e-06, 8.203794277505949e-05, -4.123263295241486e-07, 8.448776497971267e-06, -0.0008508231258019805, 9.504237823421136e-06, -3.09107344946824e-05, -2.8812723940063734e-06, -6.094670652601053e-07, -6.9836869442951865e-06, 9.09928567125462e-05, 1.1579799092942267e-06, -1.0070266398543026e-05], [0.0019948238041251898, -0.001364553114399314, 2.0768055037478916e-05, -0.011266693472862244, 0.006671006791293621, -0.0008406126289628446, 0.01631907746195793, 0.009764328598976135, 0.018396155908703804, -0.0008284574141725898, 0.006973722483962774, -0.02818893827497959, 0.02374858781695366, 0.01894078031182289, 0.004435041919350624, -0.0011382218217477202, 0.0009062692988663912, -0.004142620600759983, -0.008663360960781574, -0.004452625755220652, -0.00571883749216795, -0.008292902261018753, 0.003992211539298296, -0.0006592872668989003, -0.017185311764478683, -0.0024066378828138113, 0.0021756046917289495, -0.0007626911392435431, 0.025598250329494476, -0.0016752881929278374, 0.0028359503485262394, -0.0013172824401408434, -0.021756611764431, -0.017891069874167442, -0.0011592897353693843, -0.025167519226670265, 0.005976053420454264, -0.00843806192278862, 0.007273965049535036, 0.007603805977851152, -0.00461474247276783, -0.004332717042416334, -5.516903547686525e-05, -0.0028847581706941128, -0.012866434641182423, -0.03102901019155979, 0.0186903178691864, 0.004031648859381676, 0.019246120005846024, -0.0026631446089595556, 0.0008056683582253754, -0.01715284027159214, 0.0019442063057795167, -0.008054669946432114, 0.011412059888243675, 0.006248168647289276, 0.011644872836768627, -0.004114944487810135, 0.021118730306625366, -0.0007813668926246464, 0.005169352516531944, 0.006877942476421595, 0.0027505115140229464, -0.003058514790609479, 0.010280724614858627, -0.0011343874502927065, -0.0038333728443831205, -0.003985023126006126, 0.003942643757909536, 0.003957207314670086, -0.00023057035286910832, -0.015970390290021896, -0.0059267752803862095, -0.004542496986687183, 0.021817443892359734, 0.008534684777259827, 0.0022823617327958345, -0.025884967297315598, 0.0008612385718151927, -0.005433129612356424, 0.004798240028321743, 0.004613474011421204, 0.010410870425403118, -0.006432383321225643, 0.011531432159245014, 0.0026915832422673702, 0.010826978832483292, -0.014917089603841305, 0.00022792094387114048, -0.013109026476740837, 0.013159018941223621, 0.007815013639628887, 0.010604644194245338, -0.0005199513980187476, 0.008117616176605225, -0.013044879771769047, 0.0042021796107292175, -0.000856216938700527, 0.00832874234765768, 0.000965456070844084, -0.007817748934030533, -0.017706863582134247, 0.0038755738642066717, -0.0019354730611667037, 0.027735766023397446, -0.019977007061243057, 0.002930934075266123, 0.01604023016989231, 0.0070491679944098, 0.012988126836717129, 0.004532211925834417, 0.006838967092335224, 0.0003544635546859354, -0.0014828263083472848, 0.020197652280330658, 0.003015077207237482, 0.011419039219617844, -0.001555926981382072, 0.003642608178779483, -0.003929332830011845, 0.007708734832704067, -0.023308005183935165, 0.003476108890026808, 0.0002590880903881043, 0.0037011478561908007, 0.005323167424649, 0.01021566428244114, -0.019674647599458694], [1.5156135759752942e-06, 1.8492940512260247e-07, -1.2820544270653045e-07, -2.0194695025566034e-05, 0.027780016884207726, -1.0700767234084196e-05, 0.03050045855343342, 0.030391495674848557, 6.934044449735666e-06, -7.331622782658087e-06, 2.912951913458528e-06, -1.736296144372318e-05, -3.119637767667882e-05, 0.020874664187431335, 4.28079511038959e-06, -3.8801063055871055e-06, 5.078513822809327e-07, -0.034297145903110504, -0.03526293858885765, -0.02518623135983944, -0.030672065913677216, -0.027660474181175232, 9.350397704110947e-06, 1.5672000586164359e-07, -1.2070910088368692e-05, 5.771713631474995e-07, 0.03039558045566082, -1.0328999451303389e-06, 0.021495258435606956, -2.5325730348413344e-06, 1.8428697501349234e-07, 3.3598593351946704e-10, -0.03132825717329979, -0.00940486416220665, -1.346593194284651e-06, -0.005635150242596865, 2.0446546841412783e-05, 3.825303338089725e-06, 3.1841962481848896e-05, 3.0628386866737856e-06, -0.030520854517817497, -8.192916538973805e-06, 0.02901742048561573, -0.0271149855107069, -7.975696462381165e-06, -0.0024976469576358795, 1.1520570296852384e-05, 0.029172975569963455, 7.620488304382889e-06, -0.031113477423787117, 2.1844171271823143e-07, -4.546403488348005e-06, -5.170459189685062e-07, -1.8086866475641727e-05, 2.810659680108074e-05, 2.164884608646389e-05, 8.905705726647284e-06, 2.4285762265208177e-05, 1.966736454050988e-05, -1.844248004090332e-06, 0.02498333901166916, 0.032615192234516144, 7.6197434282221366e-06, -2.5948829716071486e-06, 9.941843018168584e-06, -6.40317125544243e-07, -0.02848033607006073, -0.018991587683558464, 0.0316583514213562, 0.028811892494559288, -1.5247045439537033e-06, -3.745433787116781e-05, -3.163239853165578e-06, -8.615760634711478e-06, 0.011428986676037312, 7.299235676327953e-06, 3.48871503774717e-06, -5.032859462517081e-06, 2.269314563818625e-06, -0.03215237706899643, 5.779877483291784e-06, 3.645593096734956e-06, 0.0280601903796196, -3.783420834224671e-05, 0.025767631828784943, 1.3745589058089536e-05, 2.3818211047910154e-05, -2.0548332031466998e-05, 1.1692305861288332e-06, -0.031062697991728783, 2.5338422346976586e-05, 1.4969460835345672e-06, 0.032500870525836945, -2.1927735360804945e-06, 0.03456045687198639, -3.378108885954134e-05, 0.027390573173761368, -4.352462838141946e-06, 1.8527482097852044e-05, 5.150619927007938e-06, -0.02491874434053898, -1.155242534878198e-05, -2.293536908837268e-06, -4.795228051079903e-06, 0.02042536623775959, -4.691175126936287e-05, 4.9623031372902915e-06, -1.092306320060743e-05, 0.03012489713728428, 6.523156116600148e-06, 4.767652171722148e-06, 0.03355923667550087, 2.6342086130171083e-06, -6.962503107388329e-07, 8.444706509180833e-06, -1.6911056945900782e-06, 0.036619123071432114, -2.8103131626266986e-06, -1.0251573030473082e-06, -0.024626482278108597, 2.109134402417112e-05, -0.02137712948024273, 2.090428552037338e-06, -2.140311892162572e-07, 1.894147317216266e-06, 0.028441404923796654, 8.50325648116268e-07, -6.3647853494330775e-06], [-2.7703511022991734e-06, 5.278616868054087e-07, -5.283961399982218e-06, 2.0216230041114613e-06, -0.022570548579096794, 5.052925189374946e-07, -0.020850466564297676, -0.01992318406701088, 1.3777002095594071e-05, -2.3423101680464242e-08, 1.2940886335854884e-06, 1.6874180801096372e-05, -3.725361966644414e-05, -5.8143443311564624e-05, -7.871802154113539e-06, 1.4266054222389357e-06, -4.769087354361545e-06, 0.019979558885097504, 0.018152635544538498, 0.01746816374361515, 0.020667802542448044, 0.017491456121206284, -5.076450179331005e-06, 